{
  "version": "1.0",
  "truncation": null,
  "padding": null,
  "added_tokens": [
    {
      "id": 315,
      "content": "[MASK]",
      "single_word": false,
      "lstrip": false,
      "rstrip": false,
      "normalized": false,
      "special": true
    },
    {
      "id": 745,
      "content": "[PAD]",
      "single_word": false,
      "lstrip": false,
      "rstrip": false,
      "normalized": false,
      "special": true
    },
    {
      "id": 2164,
      "content": "[CLS]",
      "single_word": false,
      "lstrip": false,
      "rstrip": false,
      "normalized": false,
      "special": true
    },
    {
      "id": 2404,
      "content": "[UNK]",
      "single_word": false,
      "lstrip": false,
      "rstrip": false,
      "normalized": false,
      "special": true
    },
    {
      "id": 2609,
      "content": "[SEP]",
      "single_word": false,
      "lstrip": false,
      "rstrip": false,
      "normalized": false,
      "special": true
    }
  ],
  "normalizer": {
    "type": "Sequence",
    "normalizers": [
      {
        "type": "NFD"
      },
      {
        "type": "Lowercase"
      },
      {
        "type": "StripAccents"
      }
    ]
  },
  "pre_tokenizer": {
    "type": "Sequence",
    "pretokenizers": [
      {
        "type": "Metaspace",
        "replacement": "▁",
        "prepend_scheme": "always",
        "split": true
      }
    ]
  },
  "post_processor": {
    "type": "TemplateProcessing",
    "single": [
      {
        "SpecialToken": {
          "id": "[CLS]",
          "type_id": 0
        }
      },
      {
        "Sequence": {
          "id": "A",
          "type_id": 0
        }
      },
      {
        "SpecialToken": {
          "id": "[SEP]",
          "type_id": 0
        }
      }
    ],
    "pair": [
      {
        "SpecialToken": {
          "id": "[CLS]",
          "type_id": 0
        }
      },
      {
        "Sequence": {
          "id": "A",
          "type_id": 0
        }
      },
      {
        "SpecialToken": {
          "id": "[SEP]",
          "type_id": 0
        }
      },
      {
        "Sequence": {
          "id": "B",
          "type_id": 1
        }
      },
      {
        "SpecialToken": {
          "id": "[SEP]",
          "type_id": 1
        }
      }
    ],
    "special_tokens": {
      "[CLS]": {
        "id": "[CLS]",
        "ids": [
          2164
        ],
        "tokens": [
          "[CLS]"
        ]
      },
      "[SEP]": {
        "id": "[SEP]",
        "ids": [
          2609
        ],
        "tokens": [
          "[SEP]"
        ]
      }
    }
  },
  "decoder": {
    "type": "Metaspace",
    "replacement": "▁",
    "prepend_scheme": "always",
    "split": true
  },
  "model": {
    "type": "WordPiece",
    "unk_token": "[UNK]",
    "continuing_subword_prefix": "##",
    "max_input_chars_per_word": 100,
    "vocab": {
      "##ternoon": 0,
      "▁langu": 1,
      "▁base": 2,
      "▁benef": 3,
      "▁prefer": 4,
      "▁moved": 5,
      "##ulture": 6,
      "##x": 7,
      "▁son": 8,
      "▁comb": 9,
      "##ali": 10,
      "▁neighb": 11,
      "##agon": 12,
      "▁cont": 13,
      "▁agreement": 14,
      "▁months": 15,
      "##aste": 16,
      "##chie": 17,
      "##ble": 18,
      "▁throughout": 19,
      "##ei": 20,
      "▁felt": 21,
      "##ats": 22,
      "##'t": 23,
      "##rec": 24,
      "▁-----": 25,
      "▁real": 26,
      "▁hav": 27,
      "##ory": 28,
      "##ented": 29,
      "##ration": 30,
      "▁at": 31,
      "##ove": 32,
      "▁telling": 33,
      "▁dinos": 34,
      "▁edit": 35,
      "▁bec": 36,
      "▁knoc": 37,
      "▁feels": 38,
      "▁atlan": 39,
      "▁camp": 40,
      "##!!!!!!!!": 41,
      "##ah": 42,
      "##own": 43,
      "##kin": 44,
      "##ta": 45,
      "▁account": 46,
      "##ocol": 47,
      "▁ll": 48,
      "##ott": 49,
      "##adel": 50,
      "##cles": 51,
      "▁color": 52,
      "##♥": 53,
      "▁ext": 54,
      "##edom": 55,
      "##ote": 56,
      "▁places": 57,
      "▁photograph": 58,
      "##zer": 59,
      "▁cartoon": 60,
      "▁mosqu": 61,
      "##angu": 62,
      "##ca": 63,
      "▁ac": 64,
      "▁horsie": 65,
      "▁everybody": 66,
      "▁noon": 67,
      "▁century": 68,
      "▁nothing": 69,
      "▁nov": 70,
      "▁constit": 71,
      "##.d": 72,
      "##raph": 73,
      "##p": 74,
      "▁wednesday": 75,
      "▁babies": 76,
      "▁great": 77,
      "##ark": 78,
      "▁behind": 79,
      "▁bus": 80,
      "▁fish": 81,
      "▁tax": 82,
      "##ticip": 83,
      "▁blood": 84,
      "▁ide": 85,
      "▁penc": 86,
      "▁result": 87,
      "g": 88,
      "##ure": 89,
      "▁ones": 90,
      "##way": 91,
      "▁!!!!!!!": 92,
      "▁==----": 93,
      "▁hit": 94,
      "##be": 95,
      "▁delivery": 96,
      "##book": 97,
      "▁families": 98,
      "▁they": 99,
      "▁intended": 100,
      "▁cap": 101,
      "▁build": 102,
      "▁program": 103,
      "▁swee": 104,
      "##tain": 105,
      "##ination": 106,
      "▁whale": 107,
      "▁relig": 108,
      "##self": 109,
      "▁author": 110,
      "##!!": 111,
      "▁camer": 112,
      "##ground": 113,
      "▁raised": 114,
      "▁thursday": 115,
      "▁serves": 116,
      "##akes": 117,
      "▁territory": 118,
      "##ru": 119,
      "▁gu": 120,
      "▁happens": 121,
      "▁views": 122,
      "##ached": 123,
      "▁observed": 124,
      "▁haf": 125,
      "▁francisco": 126,
      "▁lips": 127,
      "##ł": 128,
      "##ned": 129,
      "▁report": 130,
      "##ams": 131,
      "▁walk": 132,
      "▁scale": 133,
      "##eted": 134,
      "##ket": 135,
      "##olved": 136,
      "##io": 137,
      "##ption": 138,
      "##fic": 139,
      "▁court": 140,
      "▁reached": 141,
      "▁secret": 142,
      "▁apartment": 143,
      "##ope": 144,
      "▁types": 145,
      "##7": 146,
      "▁di": 147,
      "▁;": 148,
      "▁written": 149,
      "▁filled": 150,
      "*": 151,
      "##}": 152,
      "▁trip": 153,
      "▁wr": 154,
      "▁vide": 155,
      "##ication": 156,
      "▁cruise": 157,
      "▁grass": 158,
      "▁face": 159,
      "▁finish": 160,
      "▁brought": 161,
      "▁credit": 162,
      "##ig": 163,
      "▁upd": 164,
      "▁government": 165,
      "▁depar": 166,
      "▁no": 167,
      "##ung": 168,
      "▁paper": 169,
      "##ged": 170,
      "▁cla": 171,
      "##ilos": 172,
      "u": 173,
      "##lications": 174,
      "▁fill": 175,
      "▁talking": 176,
      "##acks": 177,
      "▁teacher": 178,
      "▁dropped": 179,
      "▁mention": 180,
      "▁been": 181,
      "##my": 182,
      "▁passed": 183,
      "▁was": 184,
      "▁&am": 185,
      "##light": 186,
      "▁describe": 187,
      "▁mode": 188,
      "##ors": 189,
      "▁child": 190,
      "▁grow": 191,
      "##----------": 192,
      "▁lost": 193,
      "##w": 194,
      "▁touch": 195,
      "▁search": 196,
      "##elines": 197,
      "##bs": 198,
      "4": 199,
      "▁lim": 200,
      "##ised": 201,
      "▁pig": 202,
      "▁repe": 203,
      "▁offered": 204,
      "##urned": 205,
      "▁mess": 206,
      "▁this": 207,
      "▁pill": 208,
      "▁drink": 209,
      "▁dep": 210,
      "##æ": 211,
      "▁tr": 212,
      "▁elements": 213,
      "▁stated": 214,
      "▁exc": 215,
      "▁mama": 216,
      "▁training": 217,
      "▁driver": 218,
      "▁e": 219,
      "▁site": 220,
      "▁&amp;": 221,
      "##lers": 222,
      "▁philadel": 223,
      "▁meeting": 224,
      "##vision": 225,
      "▁reve": 226,
      "##tity": 227,
      "##`": 228,
      "##'re": 229,
      "▁oper": 230,
      "##ab": 231,
      "▁americ": 232,
      "##ile": 233,
      "▁told": 234,
      "##acy": 235,
      "▁fly": 236,
      "▁sl": 237,
      "▁pizza": 238,
      "##enty": 239,
      "▁weap": 240,
      "▁ran": 241,
      "▁become": 242,
      "▁looks": 243,
      "▁glass": 244,
      "▁opportun": 245,
      "##alism": 246,
      "##anks": 247,
      "▁legos": 248,
      "▁amend": 249,
      "ω": 250,
      "##>": 251,
      "▁legs": 252,
      "▁caused": 253,
      "▁ha": 254,
      "▁sle": 255,
      "▁tar": 256,
      "▁call": 257,
      "▁div": 258,
      "▁fac": 259,
      "▁contact": 260,
      "##tern": 261,
      "▁underst": 262,
      "##(": 263,
      "##cess": 264,
      "##ent": 265,
      "▁noticed": 266,
      "▁issue": 267,
      "▁apart": 268,
      "▁published": 269,
      "▁arriving": 270,
      "▁united": 271,
      "##yone": 272,
      "▁head": 273,
      "##ible": 274,
      "▁dinner": 275,
      "▁propos": 276,
      "▁wom": 277,
      "▁problems": 278,
      "▁flowers": 279,
      "▁writing": 280,
      "”": 281,
      "##ib": 282,
      "##ising": 283,
      "##eas": 284,
      "▁beneath": 285,
      "▁puppy": 286,
      "##ners": 287,
      "▁treatment": 288,
      "▁i": 289,
      "##ances": 290,
      "##vers": 291,
      "▁medic": 292,
      "##owers": 293,
      "▁intel": 294,
      "##ver": 295,
      "##lication": 296,
      "▁peoples": 297,
      "▁fight": 298,
      "▁‘": 299,
      "##fri": 300,
      "▁bun": 301,
      "▁around": 302,
      "▁run": 303,
      "##em": 304,
      "▁press": 305,
      "▁trav": 306,
      "▁dro": 307,
      "##--------": 308,
      "▁gri": 309,
      "▁situation": 310,
      "▁pati": 311,
      "##ich": 312,
      "##inus": 313,
      "##==": 314,
      "[MASK]": 315,
      "##ties": 316,
      "▁finger": 317,
      "##sel": 318,
      "##rying": 319,
      "▁meas": 320,
      "##ton": 321,
      "##riage": 322,
      "##ressed": 323,
      "##iving": 324,
      "##val": 325,
      "▁website": 326,
      "▁institutions": 327,
      "##he": 328,
      "▁milk": 329,
      "▁hors": 330,
      "▁den": 331,
      "##ined": 332,
      "##encies": 333,
      "▁explained": 334,
      "▁says": 335,
      "▁activities": 336,
      "▁commission": 337,
      "▁outside": 338,
      "▁added": 339,
      "##vest": 340,
      "##key": 341,
      "▁problem": 342,
      "▁still": 343,
      "##ww": 344,
      "▁---------------------------------------------------------------------------": 345,
      "▁started": 346,
      "##ych": 347,
      "▁she": 348,
      "▁then": 349,
      "##ff": 350,
      "▁environment": 351,
      "▁moon": 352,
      "▁gun": 353,
      "▁s’": 354,
      "▁notic": 355,
      "▁islands": 356,
      "##os": 357,
      "##?!?": 358,
      "▁ep": 359,
      "##ded": 360,
      "▁consum": 361,
      "▁format": 362,
      "##und": 363,
      "▁sched": 364,
      "▁hospital": 365,
      "▁schol": 366,
      "##r": 367,
      "##uting": 368,
      "##lions": 369,
      "▁gre": 370,
      "▁picture": 371,
      "▁|--------+----------------": 372,
      "▁concept": 373,
      "##tle": 374,
      "▁way": 375,
      "▁breath": 376,
      "▁san": 377,
      "▁keeping": 378,
      "▁push": 379,
      "▁walked": 380,
      "▁wanted": 381,
      "▁cowboy": 382,
      "▁lic": 383,
      "##ply": 384,
      "##ception": 385,
      "##tai": 386,
      "▁address": 387,
      "▁skin": 388,
      "##derst": 389,
      "▁tou": 390,
      "▁argu": 391,
      "▁veget": 392,
      "##op": 393,
      "▁`": 394,
      "▁web": 395,
      "##aster": 396,
      "##tie": 397,
      "##acket": 398,
      "##king": 399,
      "▁suggest": 400,
      "▁period": 401,
      "##elf": 402,
      "▁sty": 403,
      "▁menu": 404,
      "▁je": 405,
      "▁sky": 406,
      "▁challenges": 407,
      "▁good": 408,
      "▁progr": 409,
      "▁''": 410,
      "▁art": 411,
      "▁tank": 412,
      "▁costs": 413,
      "▁aw": 414,
      "##ud": 415,
      "▁per": 416,
      "▁trave": 417,
      "##rous": 418,
      "▁bath": 419,
      "▁daughter": 420,
      "▁south": 421,
      "▁purpose": 422,
      "▁elev": 423,
      "▁holiday": 424,
      "▁discussion": 425,
      "▁anthrax": 426,
      "▁having": 427,
      "▁visit": 428,
      "▁che": 429,
      "▁arrive": 430,
      "##ink": 431,
      "##ny": 432,
      "▁non": 433,
      "##ase": 434,
      "▁food": 435,
      "▁denver": 436,
      "▁joke": 437,
      "##sul": 438,
      "##onom": 439,
      "▁nobody": 440,
      "##ore": 441,
      "▁cost": 442,
      "▁tree": 443,
      "▁journ": 444,
      "##sus": 445,
      "▁[...]": 446,
      "▁commun": 447,
      "##tered": 448,
      "##acking": 449,
      "▁etc.": 450,
      "▁place": 451,
      "▁arms": 452,
      "▁char": 453,
      "##lly": 454,
      "##p;": 455,
      "##ize": 456,
      "##xce": 457,
      "##ack": 458,
      "▁girls": 459,
      "##ast": 460,
      "▁count": 461,
      "▁atmosphere": 462,
      "##iting": 463,
      "##ited": 464,
      "▁rug": 465,
      "▁[": 466,
      "▁apply": 467,
      "ε": 468,
      "▁follow": 469,
      "##izing": 470,
      "##ad": 471,
      "▁doggie": 472,
      "▁makes": 473,
      "##5": 474,
      "(": 475,
      "##or": 476,
      "?": 477,
      "##ister": 478,
      "▁feed": 479,
      "##ty": 480,
      "▁!!!!!!!!!!!": 481,
      "##ting": 482,
      "##nus": 483,
      "##ne": 484,
      "▁anybody": 485,
      "▁straw": 486,
      "▁coord": 487,
      "▁polic": 488,
      "f": 489,
      "##ceed": 490,
      "▁requi": 491,
      "▁position": 492,
      "▁tent": 493,
      "##0": 494,
      "▁eff": 495,
      "▁bottle": 496,
      "##ily": 497,
      "ν": 498,
      "##abb": 499,
      "▁another": 500,
      "▁data": 501,
      "##erve": 502,
      "##ear": 503,
      "▁state": 504,
      "##gin": 505,
      "▁expect": 506,
      "▁mass": 507,
      "▁comes": 508,
      "▁holding": 509,
      "c": 510,
      "##ech": 511,
      "▁ach": 512,
      "##otw": 513,
      "▁conversation": 514,
      "▁g": 515,
      "▁activ": 516,
      "##ush": 517,
      "▁building": 518,
      "##********************************": 519,
      "▁su": 520,
      "▁held": 521,
      "##ange": 522,
      "▁it": 523,
      "▁game": 524,
      "▁prot": 525,
      "▁tried": 526,
      "##is": 527,
      "##????????": 528,
      "▁scr": 529,
      "▁ben": 530,
      "▁under": 531,
      "▁police": 532,
      "▁occ": 533,
      "##oss": 534,
      "##ression": 535,
      "▁du": 536,
      "##line": 537,
      "▁flight": 538,
      "##eration": 539,
      "▁letter": 540,
      "▁cash": 541,
      "▁attempt": 542,
      "▁thanks": 543,
      "▁saturday": 544,
      "▁poc": 545,
      "▁scen": 546,
      "▁my": 547,
      "▁ord": 548,
      "##ters": 549,
      "##apers": 550,
      "▁furn": 551,
      "##ct": 552,
      "▁ba": 553,
      "▁none": 554,
      "##ς": 555,
      "▁groups": 556,
      "▁resul": 557,
      "▁stood": 558,
      "▁difficul": 559,
      "▁reviews": 560,
      "▁adv": 561,
      "8": 562,
      "##ens": 563,
      "##ling": 564,
      "▁column": 565,
      "▁cer": 566,
      "##ur": 567,
      "##ep": 568,
      "▁hand": 569,
      "##ees": 570,
      "▁soc": 571,
      "##gy": 572,
      "##oon": 573,
      "▁mor": 574,
      "▁eleph": 575,
      "▁feeling": 576,
      "##asts": 577,
      "##ial": 578,
      "▁cigar": 579,
      "##ert": 580,
      "▁council": 581,
      "▁plays": 582,
      "▁observ": 583,
      "▁chap": 584,
      "▁ref": 585,
      "▁mom": 586,
      "▁customer": 587,
      "▁floor": 588,
      "▁pictures": 589,
      "▁pool": 590,
      "##ards": 591,
      "▁workers": 592,
      "▁sour": 593,
      "▁turned": 594,
      "##ub": 595,
      "▁!!!!!!!!!!!!!!!": 596,
      "##ering": 597,
      "▁context": 598,
      "μ": 599,
      "##…": 600,
      "▁leaders": 601,
      "▁achieve": 602,
      "##ag": 603,
      "▁prop": 604,
      "##ories": 605,
      "▁create": 606,
      "▁hi": 607,
      "▁became": 608,
      "▁att": 609,
      "▁cove": 610,
      "▁f": 611,
      "▁smal": 612,
      "##etition": 613,
      "##str": 614,
      "▁cat": 615,
      "▁’d": 616,
      "##---": 617,
      "▁wearing": 618,
      "##pr": 619,
      "▁speech": 620,
      "▁pack": 621,
      "5": 622,
      "##memb": 623,
      "##velop": 624,
      "##?": 625,
      "##ice": 626,
      "▁net": 627,
      "##”": 628,
      "▁ate": 629,
      "▁bi": 630,
      "##ology": 631,
      "▁manner": 632,
      "▁refer": 633,
      "▁items": 634,
      "▁com": 635,
      "▁barn": 636,
      "▁bed": 637,
      "▁note": 638,
      "▁appl": 639,
      "▁regarding": 640,
      "▁creating": 641,
      "▁defense": 642,
      "▁appears": 643,
      "▁happ": 644,
      "▁offices": 645,
      "▁liked": 646,
      "##ls": 647,
      "▁like": 648,
      "▁service": 649,
      "##inn": 650,
      "▁discussed": 651,
      "▁introduc": 652,
      "##ax": 653,
      "▁weather": 654,
      "▁believed": 655,
      "▁v": 656,
      "▁sun": 657,
      "##ission": 658,
      "##band": 659,
      "▁ju": 660,
      "▁laugh": 661,
      "▁guid": 662,
      "##dle": 663,
      "▁lo": 664,
      "▁move": 665,
      "-": 666,
      "▁never": 667,
      "▁project": 668,
      "##olution": 669,
      "##den": 670,
      "▁arrives": 671,
      "▁even": 672,
      "##ders": 673,
      "##uted": 674,
      "##ings": 675,
      "##land": 676,
      "▁watch": 677,
      "▁quite": 678,
      "##ɛ": 679,
      "▁los": 680,
      "▁'": 681,
      "##liament": 682,
      "##²": 683,
      "##lic": 684,
      "▁tv": 685,
      "▁known": 686,
      "▁knew": 687,
      "##:": 688,
      "▁chec": 689,
      "##d": 690,
      "##pos": 691,
      "▁counterparty": 692,
      "t": 693,
      "▁le": 694,
      "##erated": 695,
      "▁en": 696,
      "##eel": 697,
      "▁ele": 698,
      "▁pot": 699,
      "▁everyone": 700,
      "▁staff": 701,
      "##ʒ": 702,
      "▁street": 703,
      "##ording": 704,
      "▁prov": 705,
      ":": 706,
      "▁meth": 707,
      "▁our": 708,
      "▁br": 709,
      "▁fig": 710,
      "▁december": 711,
      "▁return": 712,
      "##oice": 713,
      "▁underneath": 714,
      "##ven": 715,
      "##if": 716,
      "▁security": 717,
      "▁uncle": 718,
      "##lief": 719,
      "▁paid": 720,
      "##μ": 721,
      "▁capital": 722,
      "▁analys": 723,
      "##roduc": 724,
      "▁recommended": 725,
      "▁present": 726,
      "##°": 727,
      "▁request": 728,
      "##ely": 729,
      "▁sp": 730,
      "▁appro": 731,
      "##st": 732,
      "##ulations": 733,
      "##isions": 734,
      "▁certai": 735,
      "▁comment": 736,
      "▁wh": 737,
      "▁citi": 738,
      "##&": 739,
      "##ule": 740,
      "##airs": 741,
      "▁see": 742,
      "##lar": 743,
      "▁pal": 744,
      "[PAD]": 745,
      "▁furniture": 746,
      "##ea": 747,
      "▁wait": 748,
      "▁betw": 749,
      "▁mount": 750,
      "##’t": 751,
      "▁restaurant": 752,
      "▁sho": 753,
      "##chen": 754,
      "!": 755,
      "##uk": 756,
      "'": 757,
      "▁smo": 758,
      "▁ed": 759,
      "##li": 760,
      "▁email": 761,
      "…": 762,
      "##utions": 763,
      "▁pay": 764,
      "▁infl": 765,
      "##ce": 766,
      "▁amb": 767,
      "##ends": 768,
      "##ʻ": 769,
      "##ries": 770,
      "▁sym": 771,
      "##wor": 772,
      "##iding": 773,
      "▁..........": 774,
      "##---------------": 775,
      "▁research": 776,
      "▁": 777,
      "▁estim": 778,
      "▁buttons": 779,
      "▁jwww": 780,
      "##action": 781,
      "▁car": 782,
      "▁inside": 783,
      "▁quar": 784,
      "##;": 785,
      "##oard": 786,
      "##mon": 787,
      "▁coffee": 788,
      "##artment": 789,
      "##lem": 790,
      "##crib": 791,
      "##b": 792,
      "▁companies": 793,
      "▁provide": 794,
      "▁product": 795,
      "▁times": 796,
      "▁out": 797,
      "▁tonight": 798,
      "▁leave": 799,
      "▁bur": 800,
      "▁stay": 801,
      "▁step": 802,
      "##sts": 803,
      "▁levels": 804,
      "##cakes": 805,
      "##ally": 806,
      "▁dec": 807,
      "▁spoon": 808,
      "##utation": 809,
      "▁nature": 810,
      "▁iss": 811,
      "##ying": 812,
      "##ased": 813,
      "▁tem": 814,
      "##an": 815,
      "##ologies": 816,
      "▁answ": 817,
      "▁...............": 818,
      "▁stre": 819,
      "##ak": 820,
      "▁hos": 821,
      "##tive": 822,
      "##i": 823,
      "▁side": 824,
      "▁blow": 825,
      "▁stock": 826,
      "##ition": 827,
      "▁anoder": 828,
      "##oo": 829,
      "▁accident": 830,
      "▁bite": 831,
      "##g": 832,
      "+": 833,
      "▁as": 834,
      "▁hole": 835,
      "▁might": 836,
      "▁’’": 837,
      "▁ro": 838,
      "▁ser": 839,
      "##sure": 840,
      "▁spoke": 841,
      "▁enj": 842,
      "##ort": 843,
      "▁shall": 844,
      "##other": 845,
      "▁cal": 846,
      "▁cos": 847,
      "▁relationship": 848,
      "##ency": 849,
      "▁airlines": 850,
      "▁fem": 851,
      "##ual": 852,
      "▁employment": 853,
      "##mer": 854,
      "▁dose": 855,
      "▁ab": 856,
      "▁land": 857,
      "▁les": 858,
      "##ected": 859,
      "▁pa": 860,
      "▁energy": 861,
      "▁spent": 862,
      "▁manag": 863,
      "▁audience": 864,
      "##m": 865,
      "▁cop": 866,
      "##ject": 867,
      "▁classes": 868,
      "##ner": 869,
      "▁c": 870,
      "##erv": 871,
      "▁would": 872,
      "▁exp": 873,
      "▁etc": 874,
      "▁sat": 875,
      "▁tur": 876,
      "▁reach": 877,
      "▁returned": 878,
      "▁guar": 879,
      "▁dall": 880,
      "▁attached": 881,
      "##ti": 882,
      "▁arg": 883,
      "▁wol": 884,
      "##rit": 885,
      "▁speaking": 886,
      "##ports": 887,
      "▁replication": 888,
      "▁ur": 889,
      "▁dist": 890,
      "##pe": 891,
      "▁lines": 892,
      "##ually": 893,
      "##..": 894,
      "▁chang": 895,
      "▁provided": 896,
      "▁fixed": 897,
      "##iqu": 898,
      "##tim": 899,
      "▁s": 900,
      "▁birth": 901,
      "▁or": 902,
      "▁rule": 903,
      "##ament": 904,
      "▁downtown": 905,
      "▁involved": 906,
      "▁could": 907,
      "▁ins": 908,
      "▁began": 909,
      "##ribution": 910,
      "##ider": 911,
      "▁wil": 912,
      "##ive": 913,
      "▁life": 914,
      "▁attack": 915,
      "▁what": 916,
      "▁av": 917,
      "▁ov": 918,
      "##iz": 919,
      "▁oc": 920,
      "▁stayed": 921,
      "▁noise": 922,
      "▁respons": 923,
      "##ug": 924,
      "▁meal": 925,
      "▁kid": 926,
      "▁window": 927,
      "▁spe": 928,
      "▁becom": 929,
      "▁op": 930,
      "##boy": 931,
      "▁nation": 932,
      "▁met": 933,
      "▁minus": 934,
      "##ened": 935,
      "▁camel": 936,
      "▁eating": 937,
      "▁inter": 938,
      "▁inf": 939,
      "▁recogn": 940,
      "▁begin": 941,
      "▁options": 942,
      "##ə": 943,
      "▁progress": 944,
      "▁college": 945,
      "##isco": 946,
      "##o": 947,
      "##ema": 948,
      "▁m": 949,
      "##ik": 950,
      "▁sell": 951,
      "▁conference": 952,
      "▁speak": 953,
      "##ught": 954,
      "▁rep": 955,
      "▁watching": 956,
      "▁atlanta": 957,
      "▁failed": 958,
      "▁does": 959,
      "▁ways": 960,
      "▁rat": 961,
      "▁objec": 962,
      "▁restaur": 963,
      "##itions": 964,
      "▁electric": 965,
      "▁dem": 966,
      "▁in": 967,
      "▁anth": 968,
      "##ounds": 969,
      "▁facts": 970,
      "##ace": 971,
      "▁measures": 972,
      "##inc": 973,
      "▁function": 974,
      "▁belie": 975,
      "▁theirs": 976,
      "▁novel": 977,
      "##ip": 978,
      "##lection": 979,
      "▁baby": 980,
      "▁{": 981,
      "##ay": 982,
      "##/he": 983,
      "##ʁ": 984,
      "##ouse": 985,
      "##­": 986,
      "▁int": 987,
      "▁appearance": 988,
      "▁pivottable": 989,
      "##es": 990,
      "▁bot": 991,
      "▁alongside": 992,
      "@": 993,
      "##ancing": 994,
      "##ests": 995,
      "▁week": 996,
      "▁happening": 997,
      "##aring": 998,
      "▁airports": 999,
      "▁shorts": 1000,
      "▁parents": 1001,
      "##pping": 1002,
      "▁engine": 1003,
      "▁check": 1004,
      "▁por": 1005,
      "▁spot": 1006,
      "▁blanket": 1007,
      "▁sources": 1008,
      "▁atop": 1009,
      "▁med": 1010,
      "▁counc": 1011,
      "▁third": 1012,
      "▁payment": 1013,
      "##ather": 1014,
      "▁shows": 1015,
      "▁enter": 1016,
      "##ond": 1017,
      "▁design": 1018,
      "##ault": 1019,
      "##eness": 1020,
      "▁truck": 1021,
      "▁development": 1022,
      "▁eye": 1023,
      "▁aircraft": 1024,
      "##get": 1025,
      "##ates": 1026,
      "##stances": 1027,
      "##'": 1028,
      "▁best": 1029,
      "##irt": 1030,
      "▁cro": 1031,
      "▁pittsburgh": 1032,
      "▁adop": 1033,
      "▁ris": 1034,
      "##phia": 1035,
      "▁n’t": 1036,
      "▁sold": 1037,
      "’": 1038,
      "▁enjoyed": 1039,
      "▁plans": 1040,
      "##ices": 1041,
      "▁w/": 1042,
      "▁gas": 1043,
      "▁threat": 1044,
      "##wn": 1045,
      "▁character": 1046,
      "##****": 1047,
      "▁st": 1048,
      "▁media": 1049,
      "##ester": 1050,
      "▁bor": 1051,
      "▁serve": 1052,
      "▁include": 1053,
      "▁jelly": 1054,
      "▁es": 1055,
      "##et": 1056,
      "▁needs": 1057,
      "▁pulled": 1058,
      "▁....................": 1059,
      "▁pan": 1060,
      "▁world": 1061,
      "▁give": 1062,
      "▁gone": 1063,
      "▁number": 1064,
      "▁home": 1065,
      "▁ti": 1066,
      "d": 1067,
      "##bur": 1068,
      "ø": 1069,
      "##ind": 1070,
      "▁link": 1071,
      "▁presence": 1072,
      "##ulation": 1073,
      "▁ne": 1074,
      "##ord": 1075,
      "##6": 1076,
      "▁during": 1077,
      "▁we": 1078,
      "▁proposed": 1079,
      "6": 1080,
      "##ft": 1081,
      "▁vac": 1082,
      "##ashington": 1083,
      "▁anoth": 1084,
      "▁pit": 1085,
      "▁quit": 1086,
      "▁steps": 1087,
      "▁budget": 1088,
      "▁change": 1089,
      "▁banan": 1090,
      "▁advant": 1091,
      "▁before": 1092,
      "▁thou": 1093,
      "▁sn": 1094,
      "▁you": 1095,
      "##ted": 1096,
      "##old": 1097,
      "▁cros": 1098,
      "##ves": 1099,
      "▁cand": 1100,
      "▁track": 1101,
      "##ounced": 1102,
      "##age": 1103,
      "▁dance": 1104,
      "##s": 1105,
      "▁sector": 1106,
      "▁vote": 1107,
      "▁loved": 1108,
      "##urday": 1109,
      "▁species": 1110,
      "##im": 1111,
      "##l": 1112,
      "▁space": 1113,
      "▁ob": 1114,
      "##ledge": 1115,
      "▁came": 1116,
      "▁hair": 1117,
      "▁subject": 1118,
      "▁interests": 1119,
      "▁apar": 1120,
      "▁piz": 1121,
      "##υ": 1122,
      "▁shoe": 1123,
      "▁planning": 1124,
      "##+": 1125,
      "##ous": 1126,
      "##gether": 1127,
      "▁w": 1128,
      "▁conce": 1129,
      "▁growth": 1130,
      "▁play": 1131,
      "▁roo": 1132,
      "##erc": 1133,
      "▁eggs": 1134,
      "▁park": 1135,
      "▁must": 1136,
      "▁bod": 1137,
      "▁control": 1138,
      "▁circum": 1139,
      "##app": 1140,
      "##ered": 1141,
      "▁children": 1142,
      "▁language": 1143,
      "##aces": 1144,
      "▁gen": 1145,
      "##bo": 1146,
      "▁changing": 1147,
      "▁·": 1148,
      "▁duck": 1149,
      "ι": 1150,
      "▁inst": 1151,
      "##yed": 1152,
      "▁opposite": 1153,
      "▁im": 1154,
      "##ocks": 1155,
      "▁own": 1156,
      "▁airlin": 1157,
      "▁phil": 1158,
      "##y": 1159,
      "▁ability": 1160,
      "▁example": 1161,
      "##tic": 1162,
      "▁concer": 1163,
      "##ength": 1164,
      "▁poet": 1165,
      "##bb": 1166,
      "▁descri": 1167,
      "▁mu": 1168,
      "▁.?": 1169,
      "▁emp": 1170,
      "▁competition": 1171,
      "##ε": 1172,
      "##tivity": 1173,
      "##en": 1174,
      "▁cli": 1175,
      "▁exce": 1176,
      "▁points": 1177,
      "##el": 1178,
      "##ivid": 1179,
      "▁others": 1180,
      "▁'s": 1181,
      "▁took": 1182,
      "▁categ": 1183,
      "▁****": 1184,
      "▁surv": 1185,
      "▁instit": 1186,
      "##ether": 1187,
      "º": 1188,
      "▁esc": 1189,
      "▁inn": 1190,
      "##ions": 1191,
      "##og": 1192,
      "▁army": 1193,
      "▁beat": 1194,
      "▁d'": 1195,
      "▁values": 1196,
      "▁dr": 1197,
      "▁---------------------------------------------------------------------": 1198,
      "▁any": 1199,
      "▁questions": 1200,
      "▁effort": 1201,
      "##go": 1202,
      "▁solution": 1203,
      "▁determ": 1204,
      "##...": 1205,
      "‘": 1206,
      "##ograph": 1207,
      "▁drinking": 1208,
      "▁pros": 1209,
      "##ke": 1210,
      "▁iod": 1211,
      "▁interview": 1212,
      "▁ident": 1213,
      "▁received": 1214,
      ";": 1215,
      "▁hurt": 1216,
      "##actions": 1217,
      "##oned": 1218,
      "▁de": 1219,
      "▁heat": 1220,
      "##lig": 1221,
      "##nly": 1222,
      "▁bear": 1223,
      "##ithstanding": 1224,
      "##od": 1225,
      "▁who": 1226,
      "▁mouth": 1227,
      "▁both": 1228,
      "##tives": 1229,
      "▁climate": 1230,
      "▁pages": 1231,
      "##oods": 1232,
      "##ements": 1233,
      "▁learned": 1234,
      "▁indic": 1235,
      "▁rock": 1236,
      "▁det": 1237,
      "▁inj": 1238,
      "▁argument": 1239,
      "▁accept": 1240,
      "##itch": 1241,
      "▁dogs": 1242,
      "##ords": 1243,
      "▁ar": 1244,
      "▁stat": 1245,
      "▁bl": 1246,
      "▁pil": 1247,
      "▁foc": 1248,
      "▁town": 1249,
      "##erved": 1250,
      "▁guy": 1251,
      "▁asked": 1252,
      "▁snake": 1253,
      "▁action": 1254,
      "##'clock": 1255,
      "▁ought": 1256,
      "▁board": 1257,
      "▁discus": 1258,
      "▁matter": 1259,
      "▁repair": 1260,
      "##anded": 1261,
      "▁2": 1262,
      "##ance": 1263,
      "▁contract": 1264,
      "▁light": 1265,
      "▁really": 1266,
      "▁died": 1267,
      "##us": 1268,
      "▁attemp": 1269,
      "▁movement": 1270,
      "▁other": 1271,
      "▁mean": 1272,
      "▁found": 1273,
      "▁ec": 1274,
      "##ults": 1275,
      "##cross": 1276,
      "▁educ": 1277,
      "▁population": 1278,
      "▁----": 1279,
      "­": 1280,
      "▁by": 1281,
      "▁guess": 1282,
      "##e": 1283,
      "▁fr": 1284,
      "##asure": 1285,
      "▁rem": 1286,
      "▁conf": 1287,
      "▁pm": 1288,
      "▁trees": 1289,
      "##anding": 1290,
      "▁win": 1291,
      "▁stic": 1292,
      "##aint": 1293,
      "▁newsp": 1294,
      "▁continu": 1295,
      "▁pencil": 1296,
      "▁come": 1297,
      "##ets": 1298,
      "##ts": 1299,
      "▁family": 1300,
      "▁yog": 1301,
      "▁animals": 1302,
      "▁math": 1303,
      "▁sandwic": 1304,
      "▁hat": 1305,
      "▁|--------+----------------------->": 1306,
      "▁woman": 1307,
      "▁pe": 1308,
      "▁(": 1309,
      "##con": 1310,
      "##********": 1311,
      "▁enab": 1312,
      "##eries": 1313,
      "▁join": 1314,
      "▁doll": 1315,
      "▁bul": 1316,
      "▁requ": 1317,
      "▁birthday": 1318,
      "##ploy": 1319,
      "▁sti": 1320,
      "▁rest": 1321,
      "▁cats": 1322,
      "▁lot": 1323,
      "▁filter": 1324,
      "▁terms": 1325,
      "##force": 1326,
      "▁fore": 1327,
      "▁education": 1328,
      "▁there": 1329,
      "▁story": 1330,
      "▁kit": 1331,
      "##cri": 1332,
      "▁watched": 1333,
      "▁comp": 1334,
      "▁adults": 1335,
      "▁sept": 1336,
      "▁voice": 1337,
      "##urs": 1338,
      "▁got": 1339,
      "##at": 1340,
      "▁buy": 1341,
      "▁!?!": 1342,
      "##ottable": 1343,
      "##ied": 1344,
      "▁hot": 1345,
      "##imp": 1346,
      "##il": 1347,
      "▁grand": 1348,
      "##eric": 1349,
      "##.m": 1350,
      "▁lay": 1351,
      "##++": 1352,
      "##work": 1353,
      "##ived": 1354,
      "▁---": 1355,
      "[": 1356,
      "▁doc": 1357,
      "##aur": 1358,
      "##cc": 1359,
      "▁ve": 1360,
      "▁mrs": 1361,
      "▁he": 1362,
      "▁one": 1363,
      "▁business": 1364,
      "##erence": 1365,
      "▁approach": 1366,
      "▁confir": 1367,
      "▁sa": 1368,
      "##umb": 1369,
      "▁metal": 1370,
      "▁occur": 1371,
      "##xt": 1372,
      "ɛ": 1373,
      "##ili": 1374,
      "##ley": 1375,
      "##ested": 1376,
      "▁sur": 1377,
      "▁thy": 1378,
      "##ey": 1379,
      "##c": 1380,
      "▁_____": 1381,
      "▁computer": 1382,
      "▁u": 1383,
      "##face": 1384,
      "##eared": 1385,
      "▁advice": 1386,
      "▁states": 1387,
      "##•": 1388,
      "▁preven": 1389,
      "##ʊ": 1390,
      "▁end": 1391,
      "▁----==": 1392,
      "—": 1393,
      "▁season": 1394,
      "▁gives": 1395,
      "▁laun": 1396,
      "▁rad": 1397,
      "##ic": 1398,
      "p": 1399,
      "ʒ": 1400,
      "▁dom": 1401,
      "▁behin": 1402,
      "▁expos": 1403,
      "▁super": 1404,
      "▁bowl": 1405,
      "▁effects": 1406,
      "i": 1407,
      "▁prin": 1408,
      "▁airline": 1409,
      "▁emb": 1410,
      "▁des": 1411,
      "##ther": 1412,
      "▁economy": 1413,
      "##icide": 1414,
      "▁x": 1415,
      "▁put": 1416,
      "▁’s": 1417,
      "##lf": 1418,
      "▁aut": 1419,
      "##ger": 1420,
      "▁pop": 1421,
      "##ʃ": 1422,
      "##ison": 1423,
      "##tc": 1424,
      "#": 1425,
      "▁ca": 1426,
      "▁fut": 1427,
      "▁wind": 1428,
      "▁string": 1429,
      "▁’m": 1430,
      "##1": 1431,
      "##ri": 1432,
      "▁e-m": 1433,
      "▁stand": 1434,
      "▁bunch": 1435,
      "▁serv": 1436,
      "▁cup": 1437,
      "##pt": 1438,
      "▁date": 1439,
      "▁travel": 1440,
      "##______": 1441,
      "▁field": 1442,
      "##head": 1443,
      "▁percent": 1444,
      "##‘": 1445,
      "▁recomm": 1446,
      "##ival": 1447,
      "▁chair": 1448,
      "▁circ": 1449,
      "▁comm": 1450,
      "▁sheet": 1451,
      "▁last": 1452,
      "▁tuesday": 1453,
      "▁tas": 1454,
      "▁is": 1455,
      "▁eng": 1456,
      "##war": 1457,
      "##idence": 1458,
      "##art": 1459,
      "▁such": 1460,
      "##ligence": 1461,
      "▁belong": 1462,
      "##eck": 1463,
      "##±": 1464,
      "##ait": 1465,
      "▁tour": 1466,
      "▁rain": 1467,
      "▁wish": 1468,
      "##usion": 1469,
      "▁technologies": 1470,
      "##erate": 1471,
      "▁alt": 1472,
      "▁vehic": 1473,
      "##lik": 1474,
      "▁table": 1475,
      "▁born": 1476,
      "▁require": 1477,
      "▁particip": 1478,
      "▁results": 1479,
      "##rows": 1480,
      "▁beyond": 1481,
      "##pp": 1482,
      "▁level": 1483,
      "##ution": 1484,
      "##aff": 1485,
      "▁...................": 1486,
      "▁recog": 1487,
      "##acters": 1488,
      "##ers": 1489,
      "##tics": 1490,
      "▁birds": 1491,
      "▁regards": 1492,
      "##irst": 1493,
      "▁wat": 1494,
      "▁consider": 1495,
      "▁year": 1496,
      "▁toys": 1497,
      "##9": 1498,
      "▁post": 1499,
      "▁version": 1500,
      "▁qu": 1501,
      "##ork": 1502,
      "▁kids": 1503,
      ">": 1504,
      "▁organ": 1505,
      "]": 1506,
      "▁star": 1507,
      "▁seeing": 1508,
      "▁transportation": 1509,
      "▁plants": 1510,
      "##mes": 1511,
      "▁together": 1512,
      "▁sex": 1513,
      "▁corn": 1514,
      "▁tape": 1515,
      "▁review": 1516,
      "▁gi": 1517,
      "##aled": 1518,
      "##ere": 1519,
      "▁mer": 1520,
      "▁mad": 1521,
      "▁o'clock": 1522,
      "▁finding": 1523,
      "▁flying": 1524,
      "##est": 1525,
      "##otes": 1526,
      "##“": 1527,
      "##ints": 1528,
      "▁image": 1529,
      "▁depart": 1530,
      "##ining": 1531,
      "▁self": 1532,
      "▁app": 1533,
      "▁dinosaur": 1534,
      "##ety": 1535,
      "▁exper": 1536,
      "▁basis": 1537,
      "▁port": 1538,
      "##ound": 1539,
      "▁body": 1540,
      "▁wash": 1541,
      "▁help": 1542,
      "##pped": 1543,
      "▁ants": 1544,
      "▁fit": 1545,
      "▁,?": 1546,
      "▁ask": 1547,
      "▁something": 1548,
      "▁users": 1549,
      "▁comed": 1550,
      "▁din": 1551,
      "▁coup": 1552,
      "▁squ": 1553,
      "▁drop": 1554,
      "▁motor": 1555,
      "##ounts": 1556,
      "▁encour": 1557,
      "▁ta": 1558,
      "▁mist": 1559,
      "##alists": 1560,
      "▁=": 1561,
      "##br": 1562,
      "▁master": 1563,
      "▁his": 1564,
      "▁get": 1565,
      "▁r": 1566,
      "##isd": 1567,
      "▁id": 1568,
      "a": 1569,
      "▁sugar": 1570,
      "▁rail": 1571,
      "##'s": 1572,
      "▁pick": 1573,
      "▁..": 1574,
      "▁som": 1575,
      "▁shirt": 1576,
      "▁along": 1577,
      "▁women": 1578,
      "##ick": 1579,
      "##{": 1580,
      "##isting": 1581,
      "▁!!!!!!!!!!!!!!!!!!!": 1582,
      "▁card": 1583,
      "▁garage": 1584,
      "##oy": 1585,
      "▁reasons": 1586,
      "▁pic": 1587,
      "##orders": 1588,
      "##pts": 1589,
      "▁means": 1590,
      "▁yester": 1591,
      "▁breakf": 1592,
      "▁loss": 1593,
      "▁est": 1594,
      "▁created": 1595,
      "##olog": 1596,
      "##formed": 1597,
      "▁who's": 1598,
      "▁care": 1599,
      "##des": 1600,
      "▁broken": 1601,
      "##icul": 1602,
      "##anted": 1603,
      "▁throu": 1604,
      "▁based": 1605,
      "▁cru": 1606,
      "▁ir": 1607,
      "▁toast": 1608,
      "ο": 1609,
      "##tures": 1610,
      "▁prof": 1611,
      "▁forces": 1612,
      "▁name": 1613,
      "▁ordered": 1614,
      "▁doub": 1615,
      "##formation": 1616,
      "▁viol": 1617,
      "▁hers": 1618,
      "▁arr": 1619,
      "▁legisl": 1620,
      "▁will": 1621,
      "##mitted": 1622,
      "##aced": 1623,
      "##rol": 1624,
      "##!!!": 1625,
      "▁hear": 1626,
      "▁goes": 1627,
      "▁capac": 1628,
      "▁plane": 1629,
      "▁hour": 1630,
      "▁intelligence": 1631,
      "▁cars": 1632,
      "▁innovation": 1633,
      "##olve": 1634,
      "##ients": 1635,
      "▁versus": 1636,
      "▁buil": 1637,
      "##med": 1638,
      "▁cab": 1639,
      "▁itself": 1640,
      "▁through": 1641,
      "▁beg": 1642,
      "▁response": 1643,
      "y": 1644,
      "▁clean": 1645,
      "▁pip": 1646,
      "▁swim": 1647,
      "▁read": 1648,
      "▁fact": 1649,
      "▁suff": 1650,
      "▁hope": 1651,
      "▁share": 1652,
      "▁moment": 1653,
      "▁lose": 1654,
      "▁chick": 1655,
      "▁allow": 1656,
      "##ointment": 1657,
      "▁area": 1658,
      "##ete": 1659,
      "▁helps": 1660,
      "▁cream": 1661,
      "##tor": 1662,
      "▁—": 1663,
      "▁style": 1664,
      "▁tow": 1665,
      "##elt": 1666,
      "▁gener": 1667,
      "▁towards": 1668,
      "##jo": 1669,
      "##ail": 1670,
      "▁lunch": 1671,
      "##ical": 1672,
      "##ming": 1673,
      "▁though": 1674,
      "▁sec": 1675,
      "▁yourself": 1676,
      "##ol": 1677,
      "##rested": 1678,
      "##ines": 1679,
      "##ont": 1680,
      "▁truth": 1681,
      "##__": 1682,
      "##ments": 1683,
      "▁befor": 1684,
      "▁asking": 1685,
      "▁carried": 1686,
      "##and": 1687,
      "##temp": 1688,
      "##ways": 1689,
      "##oun": 1690,
      "##iron": 1691,
      "▁compan": 1692,
      "▁society": 1693,
      "▁dol": 1694,
      "▁believe": 1695,
      "##ume": 1696,
      "▁until": 1697,
      "▁ago": 1698,
      "▁guys": 1699,
      "##ues": 1700,
      "·": 1701,
      "▁lea": 1702,
      "##llow": 1703,
      "##kers": 1704,
      "▁[...": 1705,
      "▁concern": 1706,
      "▁kept": 1707,
      "▁given": 1708,
      "▁machine": 1709,
      "▁madam": 1710,
      "▁pub": 1711,
      "▁content": 1712,
      "▁tom": 1713,
      "##ι": 1714,
      "▁those": 1715,
      "▁mummy": 1716,
      "▁maj": 1717,
      "▁siz": 1718,
      "▁bottom": 1719,
      "▁showed": 1720,
      "▁sugges": 1721,
      "▁mid": 1722,
      "##uty": 1723,
      "▁its": 1724,
      "▁many": 1725,
      "##in": 1726,
      "▁law": 1727,
      "##ck": 1728,
      "▁record": 1729,
      ".": 1730,
      "▁grandm": 1731,
      "▁transport": 1732,
      "##gle": 1733,
      "▁counterpar": 1734,
      "##ake": 1735,
      "##al": 1736,
      "2": 1737,
      "▁ass": 1738,
      "▁rul": 1739,
      "##n": 1740,
      "▁incl": 1741,
      "▁re": 1742,
      "▁te": 1743,
      "##ower": 1744,
      "▁direc": 1745,
      "▁strength": 1746,
      "▁=---": 1747,
      "##um": 1748,
      "▁fiel": 1749,
      "▁potty": 1750,
      "▁death": 1751,
      "▁station": 1752,
      "##are": 1753,
      "##amb": 1754,
      "##ron": 1755,
      "▁risk": 1756,
      "##ash": 1757,
      "▁running": 1758,
      "##room": 1759,
      "▁airplane": 1760,
      "##ose": 1761,
      "##ook": 1762,
      "▁-----------------------------------------------------------------": 1763,
      "##++++": 1764,
      "##iew": 1765,
      "##........": 1766,
      "##f": 1767,
      "▁-------------------------------------------------": 1768,
      "▁church": 1769,
      "▁agreed": 1770,
      "▁fi": 1771,
      "##fare": 1772,
      "▁fo": 1773,
      "▁resources": 1774,
      "##derstand": 1775,
      "▁writ": 1776,
      "▁sales": 1777,
      "▁how": 1778,
      "##ole": 1779,
      "##bers": 1780,
      "▁majority": 1781,
      "▁price": 1782,
      "▁egg": 1783,
      "##omm": 1784,
      "▁–": 1785,
      "##ow": 1786,
      "▁island": 1787,
      "##ath": 1788,
      "##de": 1789,
      "##jec": 1790,
      "▁assoc": 1791,
      "▁juice": 1792,
      "##used": 1793,
      "▁franc": 1794,
      "▁stret": 1795,
      "▁identi": 1796,
      "▁from": 1797,
      "▁catch": 1798,
      "▁univers": 1799,
      "##iety": 1800,
      "▁sal": 1801,
      "▁poli": 1802,
      "▁company": 1803,
      "▁access": 1804,
      "##uses": 1805,
      "##itt": 1806,
      "æ": 1807,
      "▁don": 1808,
      "▁policy": 1809,
      "##aign": 1810,
      "##ibility": 1811,
      "▁information": 1812,
      "▁secon": 1813,
      "▁connection": 1814,
      "##ans": 1815,
      "▁equ": 1816,
      "##ool": 1817,
      "▁bar": 1818,
      "▁directive": 1819,
      "▁clothing": 1820,
      "##ise": 1821,
      "▁aboard": 1822,
      "##hes": 1823,
      "##œ": 1824,
      "▁vol": 1825,
      "▁rout": 1826,
      "##ock": 1827,
      "▁expected": 1828,
      "▁murder": 1829,
      "▁reas": 1830,
      "³": 1831,
      "▁commit": 1832,
      "▁belon": 1833,
      "▁`s": 1834,
      "##re": 1835,
      "▁artic": 1836,
      "▁abo": 1837,
      "▁bud": 1838,
      "▁november": 1839,
      "##----------------": 1840,
      "##ild": 1841,
      "##augh": 1842,
      "▁comments": 1843,
      "▁protection": 1844,
      "▁philadelphia": 1845,
      "▁now": 1846,
      "▁s/he": 1847,
      "▁someth": 1848,
      "▁\"": 1849,
      "▁a": 1850,
      "▁candid": 1851,
      "▁hous": 1852,
      "▁bat": 1853,
      "▁cri": 1854,
      "▁vacation": 1855,
      "▁reserv": 1856,
      "##ama": 1857,
      "##let": 1858,
      "▁critic": 1859,
      "▁enc": 1860,
      "▁stories": 1861,
      "##acked": 1862,
      "##ins": 1863,
      "##our": 1864,
      "▁bunny": 1865,
      "▁starting": 1866,
      "▁break": 1867,
      "j": 1868,
      "##inging": 1869,
      "▁boat": 1870,
      "▁ensure": 1871,
      "l": 1872,
      "▁soldi": 1873,
      "##<": 1874,
      "▁tool": 1875,
      "▁threw": 1876,
      "##thers": 1877,
      "▁according": 1878,
      "▁amidst": 1879,
      "▁contr": 1880,
      "▁ev": 1881,
      "▁do": 1882,
      "▁set": 1883,
      "##vement": 1884,
      "▁bank": 1885,
      "▁june": 1886,
      "##hip": 1887,
      "▁cook": 1888,
      "▁system": 1889,
      "▁production": 1890,
      "▁typ": 1891,
      "##ish": 1892,
      "##port": 1893,
      "▁continued": 1894,
      "##tiv": 1895,
      "▁sense": 1896,
      "##ker": 1897,
      "##ourn": 1898,
      "▁studying": 1899,
      "▁’": 1900,
      "##lity": 1901,
      "##ections": 1902,
      "▁]": 1903,
      "▁month": 1904,
      "##ith": 1905,
      "▁item": 1906,
      "▁every": 1907,
      "▁menti": 1908,
      "##ym": 1909,
      "▁ret": 1910,
      "##*": 1911,
      "▁consid": 1912,
      "##ress": 1913,
      "##ss": 1914,
      "▁with": 1915,
      "▁kitty": 1916,
      "▁live": 1917,
      "▁anim": 1918,
      "▁seemed": 1919,
      "▁built": 1920,
      "▁loan": 1921,
      "▁plate": 1922,
      "^": 1923,
      "##ants": 1924,
      "##oint": 1925,
      "##derstanding": 1926,
      "##lies": 1927,
      "▁learn": 1928,
      "▁explain": 1929,
      "##epend": 1930,
      "▁saying": 1931,
      "▁visa": 1932,
      "▁---=": 1933,
      "▁made": 1934,
      "▁beach": 1935,
      "▁purch": 1936,
      "▁soldiers": 1937,
      "▁likes": 1938,
      "▁them": 1939,
      "▁right": 1940,
      "▁quality": 1941,
      "##~": 1942,
      "▁seen": 1943,
      "▁baltimore": 1944,
      "▁music": 1945,
      "▁match": 1946,
      "▁fro": 1947,
      "▁august": 1948,
      "▁airport": 1949,
      "▁send": 1950,
      "▁compon": 1951,
      "##ked": 1952,
      "▁trans": 1953,
      "▁markets": 1954,
      "▁impact": 1955,
      "|": 1956,
      "##iled": 1957,
      "▁dog": 1958,
      "▁start": 1959,
      "▁inc": 1960,
      "▁gr": 1961,
      "▁weapons": 1962,
      "▁suicide": 1963,
      "▁war": 1964,
      "##as": 1965,
      "▁point": 1966,
      "▁bu": 1967,
      "##--": 1968,
      "##alth": 1969,
      "##min": 1970,
      "_": 1971,
      "▁lion": 1972,
      "▁school": 1973,
      "▁attend": 1974,
      "▁systems": 1975,
      "##eces": 1976,
      "##ood": 1977,
      "▁cir": 1978,
      "▁page": 1979,
      "▁bill": 1980,
      "▁**********": 1981,
      "##anced": 1982,
      "▁includes": 1983,
      "##.c": 1984,
      "▁gro": 1985,
      "##oder": 1986,
      "▁j": 1987,
      "▁'em": 1988,
      "▁gall": 1989,
      "▁dre": 1990,
      "▁door": 1991,
      "##owed": 1992,
      "##els": 1993,
      "▁described": 1994,
      "▁dev": 1995,
      "##avor": 1996,
      "##ward": 1997,
      "##ost": 1998,
      "▁herself": 1999,
      "▁reg": 2000,
      "▁!": 2001,
      "##ome": 2002,
      "##ills": 2003,
      "▁did": 2004,
      "##aughter": 2005,
      "##uring": 2006,
      "##ified": 2007,
      "▁only": 2008,
      "▁beauty": 2009,
      "▁pittsbur": 2010,
      "▁officials": 2011,
      "▁sports": 2012,
      "▁choose": 2013,
      "▁of": 2014,
      "▁ever": 2015,
      "##ouch": 2016,
      "▁cam": 2017,
      "▁customers": 2018,
      "▁horses": 2019,
      "▁chan": 2020,
      "▁nor": 2021,
      "▁nonstop": 2022,
      "▁fax": 2023,
      "▁technology": 2024,
      "##overn": 2025,
      "▁manager": 2026,
      "▁minut": 2027,
      "##ai": 2028,
      "x": 2029,
      "▁administration": 2030,
      "▁mech": 2031,
      "▁above": 2032,
      "##ful": 2033,
      "▁wed": 2034,
      "▁sli": 2035,
      "▁names": 2036,
      "▁instance": 2037,
      "▁fri": 2038,
      "v": 2039,
      "▁ap": 2040,
      "##imore": 2041,
      "▁via": 2042,
      "##th": 2043,
      "▁parliament": 2044,
      "##wic": 2045,
      "##orted": 2046,
      "##ruc": 2047,
      "▁played": 2048,
      "▁database": 2049,
      "▁me": 2050,
      "▁down": 2051,
      "▁structure": 2052,
      "▁isl": 2053,
      "▁fire": 2054,
      "▁closed": 2055,
      "▁things": 2056,
      "##ys": 2057,
      "##ade": 2058,
      "▁farm": 2059,
      "▁signed": 2060,
      "##ut": 2061,
      "##ide": 2062,
      "▁walking": 2063,
      "▁corner": 2064,
      "##????????????????????????????????": 2065,
      "##gu": 2066,
      "▁plenty": 2067,
      "##all": 2068,
      "▁cust": 2069,
      "▁teh": 2070,
      "▁ad": 2071,
      "▁.": 2072,
      "▁friday": 2073,
      "▁cart": 2074,
      "##uzz": 2075,
      "m": 2076,
      "▁management": 2077,
      "▁sound": 2078,
      "##cl": 2079,
      "▁bub": 2080,
      "▁mater": 2081,
      "▁surpr": 2082,
      "##urch": 2083,
      "▁person": 2084,
      "##amp": 2085,
      "▁stopped": 2086,
      "q": 2087,
      "##8": 2088,
      "▁after": 2089,
      "##uff": 2090,
      "▁success": 2091,
      "▁whom": 2092,
      "▁reference": 2093,
      "###": 2094,
      "▁attention": 2095,
      "▁l": 2096,
      "▁mathema": 2097,
      "##sm": 2098,
      "##its": 2099,
      "▁interv": 2100,
      "▁decided": 2101,
      "##isl": 2102,
      "▁conditions": 2103,
      "▁shower": 2104,
      "##amples": 2105,
      "##esday": 2106,
      "▁support": 2107,
      "9": 2108,
      "▁,": 2109,
      "▁heard": 2110,
      "▁skills": 2111,
      "##portun": 2112,
      "▁bos": 2113,
      "▁offici": 2114,
      "▁mind": 2115,
      "##it": 2116,
      "##of": 2117,
      "▁surprise": 2118,
      "##qui": 2119,
      "▁struc": 2120,
      "▁boo": 2121,
      "▁works": 2122,
      "▁wilt": 2123,
      "▁yesterday": 2124,
      "n": 2125,
      "▁ph": 2126,
      "▁cookies": 2127,
      "▁cloth": 2128,
      "▁bom": 2129,
      "▁treat": 2130,
      "▁responsibility": 2131,
      "##ures": 2132,
      "##idden": 2133,
      "▁always": 2134,
      "##ction": 2135,
      "▁done": 2136,
      "▁ver": 2137,
      "▁fan": 2138,
      "▁ques": 2139,
      "▁tiger": 2140,
      "▁litt": 2141,
      "##onstr": 2142,
      "▁games": 2143,
      "▁reason": 2144,
      "##v": 2145,
      "##ect": 2146,
      "▁rules": 2147,
      "▁changed": 2148,
      "▁student": 2149,
      "▁lady": 2150,
      "▁someone": 2151,
      "▁|": 2152,
      "##ages": 2153,
      "##ing": 2154,
      "▁line": 2155,
      "▁evening": 2156,
      "##ergy": 2157,
      "▁init": 2158,
      "▁cere": 2159,
      "▁avo": 2160,
      "▁also": 2161,
      "▁repres": 2162,
      "▁colle": 2163,
      "[CLS]": 2164,
      "▁reported": 2165,
      "▁rece": 2166,
      "##pen": 2167,
      "▁tu": 2168,
      "▁code": 2169,
      "▁sect": 2170,
      "▁claim": 2171,
      "▁lar": 2172,
      "▁disaster": 2173,
      "▁webs": 2174,
      "▁understanding": 2175,
      "β": 2176,
      "##ured": 2177,
      "▁grandmother": 2178,
      "▁<<": 2179,
      "▁store": 2180,
      "1": 2181,
      "▁ple": 2182,
      "▁gender": 2183,
      "▁sk": 2184,
      "##uments": 2185,
      "▁grab": 2186,
      "▁less": 2187,
      "▁t": 2188,
      "▁location": 2189,
      "##ails": 2190,
      "▁opened": 2191,
      "##—": 2192,
      "▁bought": 2193,
      "##use": 2194,
      "▁eyes": 2195,
      "▁wou": 2196,
      "▁player": 2197,
      "▁goal": 2198,
      "##rup": 2199,
      "##[": 2200,
      "##oted": 2201,
      "##aking": 2202,
      "▁counter": 2203,
      "▁sup": 2204,
      "▁mechan": 2205,
      "▁toward": 2206,
      "▁partic": 2207,
      "▁charge": 2208,
      "▁block": 2209,
      "▁micro": 2210,
      "▁road": 2211,
      "##????????????????": 2212,
      "▁ann": 2213,
      "▁ou": 2214,
      "▁wake": 2215,
      "▁>": 2216,
      "▁forgot": 2217,
      "▁am": 2218,
      "##able": 2219,
      "▁which": 2220,
      "▁imag": 2221,
      "▁sens": 2222,
      "▁so": 2223,
      "▁freedom": 2224,
      "▁girl": 2225,
      "##ious": 2226,
      "▁bee": 2227,
      "▁word": 2228,
      "▁when": 2229,
      "▁desp": 2230,
      "▁yet": 2231,
      "▁pred": 2232,
      "▁bott": 2233,
      "▁dirt": 2234,
      "▁bring": 2235,
      "▁standards": 2236,
      "##res": 2237,
      "##ps": 2238,
      "##uly": 2239,
      "▁ye": 2240,
      "▁daddy": 2241,
      "##ense": 2242,
      "▁reading": 2243,
      "%": 2244,
      "▁obt": 2245,
      "▁idea": 2246,
      "▁cereal": 2247,
      "##2": 2248,
      "▁fin": 2249,
      "▁mach": 2250,
      "▁but": 2251,
      "##ant": 2252,
      "▁study": 2253,
      "##ades": 2254,
      "##par": 2255,
      "▁cle": 2256,
      "##thin": 2257,
      "##si": 2258,
      "##nel": 2259,
      "##uding": 2260,
      "▁.!": 2261,
      "▁want": 2262,
      "▁asp": 2263,
      "##me": 2264,
      "▁streets": 2265,
      "##ations": 2266,
      "##alist": 2267,
      "▁appointment": 2268,
      "##enting": 2269,
      "##one": 2270,
      "ɑ": 2271,
      "##here": 2272,
      "▁cake": 2273,
      "▁ear": 2274,
      "▁organization": 2275,
      "##tors": 2276,
      "▁rights": 2277,
      "##red": 2278,
      "##per": 2279,
      "▁cards": 2280,
      "▁parties": 2281,
      "##inu": 2282,
      "▁labor": 2283,
      "▁lived": 2284,
      "▁cur": 2285,
      "▁copy": 2286,
      "▁since": 2287,
      "▁k": 2288,
      "▁conc": 2289,
      "▁aft": 2290,
      "▁neither": 2291,
      "▁~": 2292,
      "▁sandwich": 2293,
      "▁rememb": 2294,
      "▁exh": 2295,
      "##ue": 2296,
      "▁th": 2297,
      "##ads": 2298,
      "##olding": 2299,
      "##ɔ": 2300,
      "▁mat": 2301,
      "▁services": 2302,
      "▁ps": 2303,
      "▁enem": 2304,
      "▁dad": 2305,
      "▁order": 2306,
      "▁sea": 2307,
      "▁members": 2308,
      "▁jump": 2309,
      "▁query": 2310,
      "##any": 2311,
      "▁ey": 2312,
      "▁message": 2313,
      "▁initi": 2314,
      "▁near": 2315,
      "w": 2316,
      "▁co": 2317,
      "ɔ": 2318,
      "▁campaign": 2319,
      "▁dam": 2320,
      "▁course": 2321,
      "▁studies": 2322,
      "▁notw": 2323,
      "▁against": 2324,
      "▁wear": 2325,
      "▁tummy": 2326,
      "##=": 2327,
      "##hood": 2328,
      "▁_": 2329,
      "▁tea": 2330,
      "▁fol": 2331,
      "▁pas": 2332,
      "▁princip": 2333,
      "##oot": 2334,
      "▁prices": 2335,
      "##ibilities": 2336,
      "▁governments": 2337,
      "▁phot": 2338,
      "##rap": 2339,
      "▁stopover": 2340,
      "▁leader": 2341,
      "▁damage": 2342,
      "##tile": 2343,
      "▁morn": 2344,
      "▁rev": 2345,
      "▁conflict": 2346,
      "▁diff": 2347,
      "##ient": 2348,
      "▁ya": 2349,
      "▁night": 2350,
      "▁products": 2351,
      "▁notice": 2352,
      "▁respect": 2353,
      "▁friend": 2354,
      "▁fing": 2355,
      "▁applied": 2356,
      "▁.........": 2357,
      "▁chall": 2358,
      "▁behavi": 2359,
      "▁ren": 2360,
      "##friend": 2361,
      "▁experien": 2362,
      "▁bac": 2363,
      "▁offer": 2364,
      "▁seem": 2365,
      "▁++++": 2366,
      "##orting": 2367,
      "▁str": 2368,
      "▁performance": 2369,
      "▁horse": 2370,
      "##mar": 2371,
      "▁most": 2372,
      "##ized": 2373,
      "##ences": 2374,
      "##board": 2375,
      "▁die": 2376,
      "=": 2377,
      "▁implem": 2378,
      "▁july": 2379,
      "7": 2380,
      "##to": 2381,
      "▁assistance": 2382,
      "▁yo": 2383,
      "##up": 2384,
      "▁def": 2385,
      "▁hund": 2386,
      "##cing": 2387,
      "▁al": 2388,
      "▁reduc": 2389,
      "▁indust": 2390,
      "▁root": 2391,
      "▁deter": 2392,
      "▁neck": 2393,
      "▁department": 2394,
      "²": 2395,
      "▁committee": 2396,
      "▁cage": 2397,
      "▁coming": 2398,
      "▁following": 2399,
      "▁liter": 2400,
      "▁protect": 2401,
      "##4": 2402,
      "##oved": 2403,
      "[UNK]": 2404,
      "▁being": 2405,
      "##eep": 2406,
      "##huh": 2407,
      "▁uh": 2408,
      "▁er": 2409,
      "▁growing": 2410,
      "##az": 2411,
      "▁cig": 2412,
      "##ably": 2413,
      "▁words": 2414,
      "▁teach": 2415,
      "▁object": 2416,
      "▁tele": 2417,
      "##uts": 2418,
      "▁happened": 2419,
      "▁invest": 2420,
      "▁tre": 2421,
      "▁are": 2422,
      "##ores": 2423,
      "▁con": 2424,
      "▁series": 2425,
      "▁’ve": 2426,
      "▁cent": 2427,
      "▁role": 2428,
      "▁pup": 2429,
      "▁ow": 2430,
      "▁wine": 2431,
      "##ulated": 2432,
      "▁rent": 2433,
      "▁air": 2434,
      "##------->": 2435,
      "▁mo": 2436,
      "##ong": 2437,
      "##pl": 2438,
      "▁areas": 2439,
      "▁wond": 2440,
      "▁sus": 2441,
      "▁assist": 2442,
      "▁numerous": 2443,
      "##unch": 2444,
      "##av": 2445,
      "##nut": 2446,
      "##osite": 2447,
      "##ithst": 2448,
      "▁well": 2449,
      "▁foods": 2450,
      "▁gard": 2451,
      "▁lear": 2452,
      "▁numbers": 2453,
      "▁anti": 2454,
      "▁acc": 2455,
      "▁dwww": 2456,
      "▁trying": 2457,
      "▁hop": 2458,
      "##ident": 2459,
      "▁sing": 2460,
      "▁po": 2461,
      "##berry": 2462,
      "▁&": 2463,
      "▁top": 2464,
      "##am": 2465,
      "▁keep": 2466,
      "▁myself": 2467,
      "▁weeks": 2468,
      "##igned": 2469,
      "▁inte": 2470,
      "▁hal": 2471,
      "▁_______": 2472,
      "▁if": 2473,
      "▁'d": 2474,
      "▁house": 2475,
      "▁******************************************************************": 2476,
      "▁opinion": 2477,
      "▁1": 2478,
      "▁worked": 2479,
      "▁showing": 2480,
      "##tr": 2481,
      "▁….": 2482,
      "▁pushed": 2483,
      "##**": 2484,
      "▁display": 2485,
      "▁finished": 2486,
      "▁served": 2487,
      "▁takes": 2488,
      "▁b/": 2489,
      "##mp": 2490,
      "▁pull": 2491,
      "▁ki": 2492,
      "▁neighbor": 2493,
      "▁jud": 2494,
      "▁water": 2495,
      "▁resp": 2496,
      "▁resour": 2497,
      "##ence": 2498,
      "▁till": 2499,
      "▁chocol": 2500,
      "##plan": 2501,
      "▁pupp": 2502,
      "##zz": 2503,
      "▁bri": 2504,
      "▁traffic": 2505,
      "▁rates": 2506,
      "##gan": 2507,
      "▁arti": 2508,
      "▁weight": 2509,
      "▁sil": 2510,
      "▁***": 2511,
      "▁trade": 2512,
      "▁included": 2513,
      "▁res": 2514,
      "▁mur": 2515,
      "▁putting": 2516,
      "▁tomorrow": 2517,
      "▁visited": 2518,
      "▁elect": 2519,
      "▁center": 2520,
      "▁....": 2521,
      "▁wonder": 2522,
      "##ien": 2523,
      "##|": 2524,
      "▁just": 2525,
      "##liday": 2526,
      "▁beh": 2527,
      "▁kn": 2528,
      "▁foot": 2529,
      "▁aud": 2530,
      "▁bread": 2531,
      "▁...": 2532,
      "▁rabb": 2533,
      "▁details": 2534,
      "▁same": 2535,
      "▁ign": 2536,
      "##lo": 2537,
      "##works": 2538,
      "##ot": 2539,
      "##kets": 2540,
      "▁past": 2541,
      "▁z": 2542,
      "▁choice": 2543,
      "▁tic": 2544,
      "##oup": 2545,
      "▁for": 2546,
      "▁stud": 2547,
      "##ge": 2548,
      "▁act": 2549,
      "▁)": 2550,
      "▁stri": 2551,
      "▁pants": 2552,
      "▁her": 2553,
      "▁instruc": 2554,
      "▁achie": 2555,
      "`": 2556,
      "b": 2557,
      "##acted": 2558,
      "▁attem": 2559,
      "▁man": 2560,
      "▁windows": 2561,
      "▁une": 2562,
      "▁innov": 2563,
      "▁.......": 2564,
      "▁acqui": 2565,
      "▁chees": 2566,
      "▁office": 2567,
      "▁dese": 2568,
      "##rew": 2569,
      "▁woud": 2570,
      "##ρ": 2571,
      "##osed": 2572,
      "##ism": 2573,
      "##ell": 2574,
      "##ches": 2575,
      "▁memory": 2576,
      "▁forget": 2577,
      "▁spell": 2578,
      "▁plan": 2579,
      "##ati": 2580,
      "▁fell": 2581,
      "▁favor": 2582,
      "▁atmos": 2583,
      "▁placed": 2584,
      "▁supposed": 2585,
      "▁rabbit": 2586,
      "▁boom": 2587,
      "▁rel": 2588,
      "▁exhib": 2589,
      "▁conn": 2590,
      "▁region": 2591,
      "▁seek": 2592,
      "▁experi": 2593,
      "##ia": 2594,
      "##qu": 2595,
      "▁theory": 2596,
      "▁test": 2597,
      "▁rate": 2598,
      "▁director": 2599,
      "##ogn": 2600,
      "▁cause": 2601,
      "##ians": 2602,
      "##ye": 2603,
      "▁except": 2604,
      "▁sh": 2605,
      "▁hundreds": 2606,
      "▁off": 2607,
      "▁proce": 2608,
      "[SEP]": 2609,
      "▁!!!!": 2610,
      "▁besides": 2611,
      "▁mail": 2612,
      "▁row": 2613,
      "▁scienti": 2614,
      "▁pers": 2615,
      "##ave": 2616,
      "▁sort": 2617,
      "##0s": 2618,
      "##oph": 2619,
      "▁climb": 2620,
      "▁pur": 2621,
      "▁sitting": 2622,
      "##ul": 2623,
      "##round": 2624,
      "▁accep": 2625,
      "▁hor": 2626,
      "▁oil": 2627,
      "##ist": 2628,
      "▁sum": 2629,
      "▁sy": 2630,
      "##ma": 2631,
      "##atures": 2632,
      "##iod": 2633,
      "▁bathroom": 2634,
      "##ample": 2635,
      "##sp": 2636,
      "▁within": 2637,
      "▁below": 2638,
      "##oh": 2639,
      "▁ma": 2640,
      "##ement": 2641,
      "•": 2642,
      "▁snow": 2643,
      "▁kitchen": 2644,
      "▁airl": 2645,
      "▁meet": 2646,
      "##j": 2647,
      "▁bike": 2648,
      "▁hom": 2649,
      "##er": 2650,
      "##ping": 2651,
      "##vel": 2652,
      "▁sch": 2653,
      "▁marriage": 2654,
      "▁anal": 2655,
      "##mos": 2656,
      "▁insp": 2657,
      "##ended": 2658,
      "▁view": 2659,
      "▁writer": 2660,
      "▁appeared": 2661,
      "##anges": 2662,
      "▁pieces": 2663,
      "▁forth": 2664,
      "▁auth": 2665,
      "##unt": 2666,
      "##aft": 2667,
      "▁sc": 2668,
      "▁dece": 2669,
      "▁somebody": 2670,
      "##osing": 2671,
      "▁writers": 2672,
      "▁stage": 2673,
      "▁ent": 2674,
      "▁q": 2675,
      "##erent": 2676,
      "▁decide": 2677,
      "##isation": 2678,
      "▁couple": 2679,
      "##dit": 2680,
      "▁maintain": 2681,
      "##ects": 2682,
      "▁different": 2683,
      "▁apple": 2684,
      "##_": 2685,
      "▁analysis": 2686,
      "▁write": 2687,
      "##ict": 2688,
      "▁goods": 2689,
      "##ror": 2690,
      "▁speed": 2691,
      "##acter": 2692,
      "▁led": 2693,
      "▁instead": 2694,
      "o": 2695,
      "▁cut": 2696,
      "▁/": 2697,
      "##elly": 2698,
      "▁partners": 2699,
      "##º": 2700,
      "▁communication": 2701,
      "▁grew": 2702,
      "▁let": 2703,
      "▁inclu": 2704,
      "▁colleag": 2705,
      "##acts": 2706,
      "▁ahead": 2707,
      "▁refl": 2708,
      "0": 2709,
      "##order": 2710,
      "▁cover": 2711,
      "▁health": 2712,
      "##oke": 2713,
      "▁mot": 2714,
      "##aries": 2715,
      "▁sugg": 2716,
      "##inds": 2717,
      "▁material": 2718,
      "▁knows": 2719,
      "▁opportunity": 2720,
      "▁thing": 2721,
      "##nesday": 2722,
      "##ld": 2723,
      "▁proper": 2724,
      "\"": 2725,
      "##ain": 2726,
      "▁talk": 2727,
      "▁lie": 2728,
      "##for": 2729,
      "▁___________": 2730,
      "##au": 2731,
      "▁wall": 2732,
      "▁compl": 2733,
      "▁’ll": 2734,
      "▁meaning": 2735,
      "▁your": 2736,
      "##atch": 2737,
      "▁wa": 2738,
      "▁forms": 2739,
      "▁treated": 2740,
      "##fication": 2741,
      "▁euro": 2742,
      "##lu": 2743,
      "##alf": 2744,
      "▁mouse": 2745,
      "##ational": 2746,
      "##duc": 2747,
      "##’": 2748,
      "##ve": 2749,
      "▁ourselves": 2750,
      "▁col": 2751,
      "▁pocket": 2752,
      "▁discuss": 2753,
      "##ify": 2754,
      "##iv": 2755,
      "##lling": 2756,
      "##ball": 2757,
      "▁go": 2758,
      "▁calling": 2759,
      "##ount": 2760,
      "##ums": 2761,
      "##ump": 2762,
      ")": 2763,
      "▁application": 2764,
      "##ility": 2765,
      "▁aff": 2766,
      "▁administ": 2767,
      "##esting": 2768,
      "▁produc": 2769,
      "##cer": 2770,
      "▁sent": 2771,
      "##ated": 2772,
      "▁bulld": 2773,
      "▁exam": 2774,
      "▁pro": 2775,
      "##iation": 2776,
      "##fe": 2777,
      "##aining": 2778,
      "##olving": 2779,
      "▁wo": 2780,
      "}": 2781,
      "##ces": 2782,
      "▁********************************": 2783,
      "▁won": 2784,
      "▁ticket": 2785,
      "▁ton": 2786,
      "##tw": 2787,
      "##ll": 2788,
      "##rop": 2789,
      "▁!!!!!": 2790,
      "▁!!": 2791,
      "▁the": 2792,
      "##operation": 2793,
      "##ef": 2794,
      "▁coll": 2795,
      "▁:?": 2796,
      "##te": 2797,
      "##alu": 2798,
      "##³": 2799,
      "▁work": 2800,
      "▁cheese": 2801,
      "▁beside": 2802,
      "▁should": 2803,
      "▁del": 2804,
      "▁pre": 2805,
      "▁hours": 2806,
      "##ness": 2807,
      "##erences": 2808,
      "▁than": 2809,
      "▁across": 2810,
      "##ds": 2811,
      "▁using": 2812,
      "##place": 2813,
      "##omp": 2814,
      "##hold": 2815,
      "##enc": 2816,
      "▁too": 2817,
      "▁stop": 2818,
      "▁friends": 2819,
      "▁************************************************": 2820,
      "▁weekend": 2821,
      "▁whoever": 2822,
      "▁govern": 2823,
      "▁beyo": 2824,
      "▁********": 2825,
      "▁o": 2826,
      "▁either": 2827,
      "▁leg": 2828,
      "▁agree": 2829,
      "##se": 2830,
      "▁conv": 2831,
      "▁enjambment": 2832,
      "##ating": 2833,
      "##eeds": 2834,
      "##ix": 2835,
      "##ics": 2836,
      "##q": 2837,
      "▁degre": 2838,
      "▁coo": 2839,
      "▁group": 2840,
      "##avi": 2841,
      "##ever": 2842,
      "##=----": 2843,
      "▁job": 2844,
      "##ø": 2845,
      "▁challen": 2846,
      "▁characters": 2847,
      "▁culture": 2848,
      "▁shoes": 2849,
      "▁mag": 2850,
      "##ation": 2851,
      "##mentation": 2852,
      "▁n't": 2853,
      "▁size": 2854,
      "▁--": 2855,
      "▁econom": 2856,
      "▁scre": 2857,
      "▁ter": 2858,
      "▁supp": 2859,
      "▁ag": 2860,
      "▁la": 2861,
      "▁rob": 2862,
      "▁debate": 2863,
      "▁living": 2864,
      "▁button": 2865,
      "▁yours": 2866,
      "▁intern": 2867,
      "##ght": 2868,
      "##dy": 2869,
      "##ch": 2870,
      "##ows": 2871,
      "▁fields": 2872,
      "▁very": 2873,
      "▁reven": 2874,
      "▁mem": 2875,
      "&": 2876,
      "▁days": 2877,
      "##ones": 2878,
      "##oney": 2879,
      "##ium": 2880,
      "▁spider": 2881,
      "▁thir": 2882,
      "▁mili": 2883,
      "##lus": 2884,
      "▁morning": 2885,
      "##duction": 2886,
      "▁arm": 2887,
      "##ret": 2888,
      "▁val": 2889,
      "##neath": 2890,
      "▁chocolate": 2891,
      "##k": 2892,
      "##inated": 2893,
      "##ν": 2894,
      "##cr": 2895,
      "▁developed": 2896,
      "▁married": 2897,
      "##til": 2898,
      "▁used": 2899,
      "▁city": 2900,
      "##iss": 2901,
      "▁…": 2902,
      "▁projects": 2903,
      "▁few": 2904,
      "▁heads": 2905,
      "##lled": 2906,
      "##ington": 2907,
      "##uals": 2908,
      "##iated": 2909,
      "##fer": 2910,
      "##ies": 2911,
      "▁pain": 2912,
      "▁leaves": 2913,
      "▁draft": 2914,
      "##ative": 2915,
      "▁mentioned": 2916,
      "▁deb": 2917,
      "▁fligh": 2918,
      "▁safety": 2919,
      "##ould": 2920,
      "##een": 2921,
      "##ici": 2922,
      "▁susp": 2923,
      "▁ke": 2924,
      "##ov": 2925,
      "##lished": 2926,
      "▁each": 2927,
      "▁hist": 2928,
      "▁?!?": 2929,
      "##aps": 2930,
      "##-m": 2931,
      "▁trad": 2932,
      "▁age": 2933,
      "▁back": 2934,
      "##za": 2935,
      "##amed": 2936,
      "▁required": 2937,
      "##ette": 2938,
      "±": 2939,
      "▁assu": 2940,
      "▁close": 2941,
      "▁fun": 2942,
      "▁!!!!!!!!!!!!!": 2943,
      "##iff": 2944,
      "▁feet": 2945,
      "▁pat": 2946,
      "##ocracy": 2947,
      "▁kind": 2948,
      "##**********************************": 2949,
      "▁force": 2950,
      "▁efforts": 2951,
      "▁loc": 2952,
      "▁bal": 2953,
      "▁washington": 2954,
      "▁whic": 2955,
      "▁settle": 2956,
      "▁allowed": 2957,
      "▁wee": 2958,
      "▁certain": 2959,
      "▁na": 2960,
      "▁connec": 2961,
      "▁discovered": 2962,
      "▁rele": 2963,
      "▁produce": 2964,
      "##id": 2965,
      "▁restric": 2966,
      "▁september": 2967,
      "##)": 2968,
      "▁@": 2969,
      "##ess": 2970,
      "##yo": 2971,
      "▁leading": 2972,
      "##iture": 2973,
      "▁wedding": 2974,
      "##ality": 2975,
      "##umn": 2976,
      "##reds": 2977,
      "▁!?": 2978,
      "▁expl": 2979,
      "▁pi": 2980,
      "▁monkey": 2981,
      "▁going": 2982,
      "##ew": 2983,
      "▁away": 2984,
      "▁where": 2985,
      "##ater": 2986,
      "▁students": 2987,
      "##h": 2988,
      "▁beginning": 2989,
      "▁hands": 2990,
      "##ods": 2991,
      "▁quino": 2992,
      "▁form": 2993,
      "##iate": 2994,
      "▁increased": 2995,
      "▁import": 2996,
      "▁))": 2997,
      "▁coun": 2998,
      "▁ears": 2999,
      "▁dou": 3000,
      "##.": 3001,
      "e": 3002,
      "##ka": 3003,
      "▁sol": 3004,
      "##ried": 3005,
      "##]": 3006,
      "▁jun": 3007,
      "▁into": 3008,
      "▁yourselves": 3009,
      "▁heart": 3010,
      "▁leaving": 3011,
      "▁elections": 3012,
      "##uck": 3013,
      "##ension": 3014,
      "▁seat": 3015,
      "##low": 3016,
      "▁here": 3017,
      "##ither": 3018,
      "##ning": 3019,
      "##alt": 3020,
      "▁mov": 3021,
      "▁focus": 3022,
      "▁dere": 3023,
      "▁establish": 3024,
      "▁husband": 3025,
      "▁ri": 3026,
      "▁plus": 3027,
      "▁shape": 3028,
      "▁elected": 3029,
      "▁butt": 3030,
      "▁cases": 3031,
      "##rib": 3032,
      "▁chance": 3033,
      "▁nose": 3034,
      "▁earth": 3035,
      "▁camera": 3036,
      "##ec": 3037,
      "▁may": 3038,
      "▁broke": 3039,
      "▁forwar": 3040,
      "▁take": 3041,
      "▁sci": 3042,
      "▁case": 3043,
      "▁lives": 3044,
      "▁vs.": 3045,
      "##ian": 3046,
      "##uter": 3047,
      "##ou": 3048,
      "▁property": 3049,
      "/": 3050,
      "##eti": 3051,
      "▁thousands": 3052,
      "▁path": 3053,
      "▁sme": 3054,
      "▁uhhuh": 3055,
      "##gency": 3056,
      "##ony": 3057,
      "▁democracy": 3058,
      "½": 3059,
      "▁owners": 3060,
      "▁up": 3061,
      "▁libr": 3062,
      "##co": 3063,
      "▁article": 3064,
      "▁-----------------------------------------------------------------------": 3065,
      "##iti": 3066,
      "▁bulldozer": 3067,
      "##uch": 3068,
      "##ished": 3069,
      "▁wife": 3070,
      "##ession": 3071,
      "▁changes": 3072,
      "##itation": 3073,
      "▁surround": 3074,
      "##lights": 3075,
      "▁fam": 3076,
      "▁trou": 3077,
      "▁rec": 3078,
      "▁hide": 3079,
      "##ighb": 3080,
      "##ω": 3081,
      "▁el": 3082,
      "▁poll": 3083,
      "##resent": 3084,
      "▁peop": 3085,
      "▁practice": 3086,
      "▁half": 3087,
      "##ities": 3088,
      "▁contain": 3089,
      "##bly": 3090,
      "▁thru": 3091,
      "▁astride": 3092,
      "▁seas": 3093,
      "▁glasses": 3094,
      "▁gl": 3095,
      "▁individ": 3096,
      "▁bomb": 3097,
      "▁develop": 3098,
      "▁ai": 3099,
      "▁said": 3100,
      "▁eat": 3101,
      "▁us": 3102,
      "▁men": 3103,
      "##uro": 3104,
      "▁fe": 3105,
      "▁civ": 3106,
      "▁.....": 3107,
      "▁vers": 3108,
      "▁command": 3109,
      "##anger": 3110,
      "▁ind": 3111,
      "##kes": 3112,
      "▁upon": 3113,
      "▁mon": 3114,
      "▁conse": 3115,
      "▁uses": 3116,
      "▁cr": 3117,
      "▁imple": 3118,
      "▁far": 3119,
      "##ra": 3120,
      "##iction": 3121,
      "▁thre": 3122,
      "▁listen": 3123,
      "▁fir": 3124,
      "▁terror": 3125,
      "▁second": 3126,
      "▁enjoy": 3127,
      "▁pri": 3128,
      "▁bir": 3129,
      "##------------": 3130,
      "▁princ": 3131,
      "##ir": 3132,
      "▁cl": 3133,
      "##nec": 3134,
      "##ro": 3135,
      "##nt": 3136,
      "▁to": 3137,
      "▁hus": 3138,
      "▁ste": 3139,
      "▁tri": 3140,
      "▁bug": 3141,
      "##essed": 3142,
      "▁giving": 3143,
      "▁value": 3144,
      "▁recommend": 3145,
      "▁wheel": 3146,
      "▁hang": 3147,
      "▁concl": 3148,
      "▁ride": 3149,
      "▁honey": 3150,
      "▁option": 3151,
      "▁oneself": 3152,
      "▁decades": 3153,
      "##ate": 3154,
      "▁add": 3155,
      "▁gave": 3156,
      "▁ch": 3157,
      "▁teeth": 3158,
      "▁why": 3159,
      "h": 3160,
      "▁can": 3161,
      "##--------------------------------": 3162,
      "##cle": 3163,
      "▁stuff": 3164,
      "▁industry": 3165,
      "▁dey": 3166,
      "▁boxes": 3167,
      "##ivers": 3168,
      "##gre": 3169,
      "▁displ": 3170,
      "▁fil": 3171,
      "▁meant": 3172,
      "▁cris": 3173,
      "▁garden": 3174,
      "▁dress": 3175,
      "▁paint": 3176,
      "▁var": 3177,
      "▁draw": 3178,
      "▁people": 3179,
      "##thing": 3180,
      "▁maint": 3181,
      "▁wi": 3182,
      "##body": 3183,
      "▁?????": 3184,
      "▁called": 3185,
      "œ": 3186,
      "▁parts": 3187,
      "▁feel": 3188,
      "▁lack": 3189,
      "##cent": 3190,
      "▁flights": 3191,
      "▁quinoa": 3192,
      "##??": 3193,
      "▁file": 3194,
      "▁television": 3195,
      "▁decisions": 3196,
      "##aded": 3197,
      "▁funds": 3198,
      "##rated": 3199,
      "▁laws": 3200,
      "▁incre": 3201,
      "##orts": 3202,
      "▁not": 3203,
      "##ames": 3204,
      "##ugh": 3205,
      "▁soil": 3206,
      "▁peace": 3207,
      "▁exposure": 3208,
      "▁bab": 3209,
      "▁little": 3210,
      "##ights": 3211,
      "##pers": 3212,
      "▁nume": 3213,
      "▁mod": 3214,
      "##asing": 3215,
      "##....": 3216,
      "##bon": 3217,
      "▁despite": 3218,
      "▁much": 3219,
      "##ids": 3220,
      "##educ": 3221,
      "▁issu": 3222,
      "▁internet": 3223,
      "▁min": 3224,
      "▁telephone": 3225,
      "##gh": 3226,
      "▁un": 3227,
      "▁monday": 3228,
      "▁amid": 3229,
      "▁-": 3230,
      "▁sha": 3231,
      "▁market": 3232,
      "##ability": 3233,
      "##,": 3234,
      "▁while": 3235,
      "▁provides": 3236,
      "▁use": 3237,
      "▁-----------------": 3238,
      "▁sunday": 3239,
      "▁accepted": 3240,
      "▁mir": 3241,
      "▁effect": 3242,
      "##tly": 3243,
      "▁opening": 3244,
      "▁ans": 3245,
      "▁gir": 3246,
      "▁opin": 3247,
      "▁territ": 3248,
      "##uh": 3249,
      "##gg": 3250,
      "##@": 3251,
      "▁lead": 3252,
      "##uc": 3253,
      "▁exch": 3254,
      "##mb": 3255,
      "▁events": 3256,
      "▁crack": 3257,
      "▁mathematics": 3258,
      "##jects": 3259,
      "▁mil": 3260,
      "▁screen": 3261,
      "▁bedroom": 3262,
      "▁all": 3263,
      "▁issues": 3264,
      "▁sub": 3265,
      "▁tie": 3266,
      "##le": 3267,
      "▁list": 3268,
      "▁sister": 3269,
      "##ending": 3270,
      "▁orders": 3271,
      "▁......": 3272,
      "▁dogg": 3273,
      "▁temper": 3274,
      "▁waiting": 3275,
      "##------": 3276,
      "▁estab": 3277,
      "▁spring": 3278,
      "▁between": 3279,
      "▁long": 3280,
      "▁pen": 3281,
      "▁poss": 3282,
      "##ks": 3283,
      "▁unlike": 3284,
      "▁aug": 3285,
      "▁brain": 3286,
      "▁fear": 3287,
      "▁continue": 3288,
      "▁surp": 3289,
      "▁next": 3290,
      "▁kill": 3291,
      "##σ": 3292,
      "▁coff": 3293,
      "▁pos": 3294,
      "▁desk": 3295,
      "##ank": 3296,
      "▁new": 3297,
      "##****************": 3298,
      "##uation": 3299,
      "▁datab": 3300,
      "▁playing": 3301,
      "##ently": 3302,
      "▁box": 3303,
      "▁ce": 3304,
      "▁community": 3305,
      "##ape": 3306,
      "▁activity": 3307,
      "▁aside": 3308,
      "▁regard": 3309,
      "▁noone": 3310,
      "##ust": 3311,
      "##ator": 3312,
      "▁their": 3313,
      "▁salad": 3314,
      "▁ideas": 3315,
      "▁saw": 3316,
      "##cro": 3317,
      "##tion": 3318,
      "##www": 3319,
      "▁imp": 3320,
      "##uss": 3321,
      "▁find": 3322,
      "##ign": 3323,
      "▁mine": 3324,
      "▁gets": 3325,
      "▁orig": 3326,
      "##end": 3327,
      "▁temperature": 3328,
      "▁have": 3329,
      "##-------": 3330,
      "▁creation": 3331,
      "▁bea": 3332,
      "▁surface": 3333,
      "▁pep": 3334,
      "▁wan": 3335,
      "▁left": 3336,
      "▁roll": 3337,
      "▁addition": 3338,
      "▁influ": 3339,
      "▁recip": 3340,
      "▁ball": 3341,
      "##right": 3342,
      "▁impro": 3343,
      "▁chicken": 3344,
      "▁‘’": 3345,
      "▁opp": 3346,
      "##lan": 3347,
      "##+----------------": 3348,
      "▁tell": 3349,
      "▁video": 3350,
      "##eng": 3351,
      "▁traff": 3352,
      "▁pour": 3353,
      "▁’re": 3354,
      "##ture": 3355,
      "##ators": 3356,
      "##ter": 3357,
      "▁'ll": 3358,
      "▁offic": 3359,
      "##hether": 3360,
      "▁vis": 3361,
      "##oices": 3362,
      "##af": 3363,
      "▁dark": 3364,
      "##fl": 3365,
      "▁conflic": 3366,
      "##les": 3367,
      "▁cons": 3368,
      "##hic": 3369,
      "▁?": 3370,
      "##ought": 3371,
      "▁had": 3372,
      "▁convers": 3373,
      "##ry": 3374,
      "##rel": 3375,
      "##rax": 3376,
      "▁cock": 3377,
      "##____": 3378,
      "▁mountain": 3379,
      "–": 3380,
      "▁19": 3381,
      "##aging": 3382,
      "##?!": 3383,
      "▁dallas": 3384,
      "▁!.": 3385,
      "▁momma": 3386,
      "▁lights": 3387,
      "▁mus": 3388,
      "##ws": 3389,
      "##ghting": 3390,
      "##act": 3391,
      "##ˈ": 3392,
      "▁cities": 3393,
      "▁history": 3394,
      "▁requirements": 3395,
      "▁rooms": 3396,
      "##tions": 3397,
      "▁standing": 3398,
      "▁employ": 3399,
      "▁minutes": 3400,
      "▁belief": 3401,
      "▁throw": 3402,
      "##dge": 3403,
      "▁imagine": 3404,
      "▁exec": 3405,
      "##uled": 3406,
      "##igh": 3407,
      "##ional": 3408,
      "▁avoid": 3409,
      "▁dest": 3410,
      "▁onto": 3411,
      "##day": 3412,
      "##ybody": 3413,
      "▁mix": 3414,
      "##ars": 3415,
      "▁dow": 3416,
      "▁flag": 3417,
      "##side": 3418,
      "##\"": 3419,
      "##orn": 3420,
      "▁par": 3421,
      "##su": 3422,
      "▁millions": 3423,
      "##iver": 3424,
      "▁balloon": 3425,
      "▁hosp": 3426,
      "▁sign": 3427,
      "▁vet": 3428,
      "▁salt": 3429,
      "##ber": 3430,
      "▁af": 3431,
      "##oration": 3432,
      "▁??": 3433,
      "▁letters": 3434,
      "▁thought": 3435,
      "▁organiz": 3436,
      "▁basil": 3437,
      "##alities": 3438,
      "▁clothes": 3439,
      "▁hur": 3440,
      "▁anything": 3441,
      "▁piv": 3442,
      "##.doc": 3443,
      "▁books": 3444,
      "##un": 3445,
      "▁doctor": 3446,
      "▁time": 3447,
      "▁movies": 3448,
      "##----": 3449,
      "▁”": 3450,
      "##ar": 3451,
      "▁mos": 3452,
      "▁small": 3453,
      "▁countries": 3454,
      "▁+": 3455,
      "▁caught": 3456,
      "▁trouble": 3457,
      "##ary": 3458,
      "▁chee": 3459,
      "##!!!!": 3460,
      "▁band": 3461,
      "▁make": 3462,
      "##????": 3463,
      "▁estimated": 3464,
      "▁actions": 3465,
      "σ": 3466,
      "##ion": 3467,
      "##ots": 3468,
      "▁milit": 3469,
      "##ach": 3470,
      "##town": 3471,
      "##oc": 3472,
      "▁cha": 3473,
      "▁li": 3474,
      "▁curr": 3475,
      "▁pu": 3476,
      "▁custom": 3477,
      "▁settlement": 3478,
      "##ril": 3479,
      "▁independ": 3480,
      "▁percentage": 3481,
      "▁thinking": 3482,
      "▁term": 3483,
      "##clock": 3484,
      "▁big": 3485,
      "▁train": 3486,
      "▁bro": 3487,
      "▁hotel": 3488,
      "▁butter": 3489,
      "##ributed": 3490,
      "▁rub": 3491,
      "##selves": 3492,
      "▁'m": 3493,
      "3": 3494,
      "▁conte": 3495,
      "ə": 3496,
      "▁speci": 3497,
      "##sing": 3498,
      "ʻ": 3499,
      "ˈ": 3500,
      "▁turn": 3501,
      "##inks": 3502,
      "▁prac": 3503,
      "▁followed": 3504,
      "▁independence": 3505,
      "▁techniqu": 3506,
      "▁pet": 3507,
      "▁?!": 3508,
      "▁forg": 3509,
      "ρ": 3510,
      "▁!!!?": 3511,
      "▁tha": 3512,
      "##eet": 3513,
      "▁thank": 3514,
      "▁ice": 3515,
      "▁winter": 3516,
      "▁himself": 3517,
      "##ored": 3518,
      "▁drive": 3519,
      "▁sug": 3520,
      "##ention": 3521,
      "##mal": 3522,
      "##φ": 3523,
      "▁tro": 3524,
      "▁proposal": 3525,
      "▁techn": 3526,
      "##ision": 3527,
      "▁conduc": 3528,
      "▁legislation": 3529,
      "▁themselves": 3530,
      "▁toy": 3531,
      "▁tal": 3532,
      "▁president": 3533,
      "▁'ve": 3534,
      "▁pillow": 3535,
      "▁pie": 3536,
      "▁mommy": 3537,
      "▁programme": 3538,
      "▁understand": 3539,
      "▁license": 3540,
      "▁working": 3541,
      "▁movie": 3542,
      "##urity": 3543,
      "##oles": 3544,
      "##ugg": 3545,
      "▁because": 3546,
      "▁arch": 3547,
      "▁happen": 3548,
      "##!": 3549,
      "##ill": 3550,
      "##over": 3551,
      "▁wit": 3552,
      "▁iodine": 3553,
      "##oth": 3554,
      "##ecting": 3555,
      "▁muse": 3556,
      "##ving": 3557,
      "▁???": 3558,
      "##--------+----------------": 3559,
      "▁pean": 3560,
      "##ten": 3561,
      "▁lab": 3562,
      "▁day": 3563,
      "▁old": 3564,
      "▁um": 3565,
      "$": 3566,
      "▁tech": 3567,
      "▁coast": 3568,
      "▁located": 3569,
      "▁!!!": 3570,
      "▁>>": 3571,
      "▁imm": 3572,
      "▁task": 3573,
      "▁member": 3574,
      "▁saf": 3575,
      "##ph": 3576,
      "▁developing": 3577,
      "▁song": 3578,
      "##rou": 3579,
      "##vailable": 3580,
      "▁military": 3581,
      "▁*": 3582,
      "##imb": 3583,
      "▁whatever": 3584,
      "▁getting": 3585,
      "“": 3586,
      "##ided": 3587,
      "##either": 3588,
      "▁taking": 3589,
      "▁respon": 3590,
      "##out": 3591,
      "##yp": 3592,
      "▁book": 3593,
      "##ha": 3594,
      "▁dollars": 3595,
      "##ms": 3596,
      "▁cour": 3597,
      "▁hel": 3598,
      "##ding": 3599,
      "▁has": 3600,
      "▁mar": 3601,
      "ł": 3602,
      "▁detail": 3603,
      "▁cor": 3604,
      "▁mi": 3605,
      "▁tail": 3606,
      "▁pr": 3607,
      "▁sand": 3608,
      "##ap": 3609,
      "▁vi": 3610,
      "▁disp": 3611,
      "##hen": 3612,
      "▁whether": 3613,
      "▁say": 3614,
      "▁!!!!!!!!!!": 3615,
      "##ases": 3616,
      "##mber": 3617,
      "▁schools": 3618,
      "##ons": 3619,
      "##ading": 3620,
      "##gr": 3621,
      "▁boston": 3622,
      "▁arrang": 3623,
      "##ode": 3624,
      "##row": 3625,
      "▁wor": 3626,
      "##gation": 3627,
      "##tit": 3628,
      "##outh": 3629,
      "▁relations": 3630,
      "##ren": 3631,
      "##ents": 3632,
      "▁fingers": 3633,
      "##arity": 3634,
      "▁afternoon": 3635,
      "▁languages": 3636,
      "▁swe": 3637,
      "##int": 3638,
      "▁meals": 3639,
      "▁ships": 3640,
      "##ame": 3641,
      "##a": 3642,
      "##iness": 3643,
      "##ard": 3644,
      "##aw": 3645,
      "▁swww": 3646,
      "▁seems": 3647,
      "▁fork": 3648,
      "▁bel": 3649,
      "▁boy": 3650,
      "▁arri": 3651,
      "##ince": 3652,
      "##ult": 3653,
      "▁news": 3654,
      "r": 3655,
      "▁e-mail": 3656,
      "##ulate": 3657,
      "▁fix": 3658,
      "▁cre": 3659,
      "▁open": 3660,
      "##ired": 3661,
      "▁power": 3662,
      "##ie": 3663,
      "▁turning": 3664,
      "##imed": 3665,
      "▁it's": 3666,
      "##ains": 3667,
      "▁improve": 3668,
      "▁ground": 3669,
      "▁source": 3670,
      "##on": 3671,
      "▁money": 3672,
      "▁nt": 3673,
      "▁miss": 3674,
      "##ly": 3675,
      "▁sm": 3676,
      "▁missed": 3677,
      "▁covered": 3678,
      "▁receive": 3679,
      "▁destro": 3680,
      "▁over": 3681,
      "▁inv": 3682,
      "##ature": 3683,
      "▁remain": 3684,
      "▁delive": 3685,
      "▁hea": 3686,
      "▁experience": 3687,
      "▁king": 3688,
      "##air": 3689,
      "▁phone": 3690,
      "▁reality": 3691,
      "▁team": 3692,
      "▁science": 3693,
      "▁mis": 3694,
      "▁citiz": 3695,
      "▁circle": 3696,
      "##ze": 3697,
      "##atives": 3698,
      "▁shop": 3699,
      "##ember": 3700,
      "▁difference": 3701,
      "▁bit": 3702,
      "##ale": 3703,
      "▁obs": 3704,
      "▁b/c": 3705,
      "▁know": 3706,
      "▁spec": 3707,
      "▁dough": 3708,
      "▁shown": 3709,
      "▁har": 3710,
      "▁drug": 3711,
      "▁deli": 3712,
      "▁environ": 3713,
      "▁prom": 3714,
      "▁luck": 3715,
      "{": 3716,
      "##isted": 3717,
      "▁spr": 3718,
      "▁country": 3719,
      "▁some": 3720,
      "##cause": 3721,
      "▁hold": 3722,
      "▁need": 3723,
      "▁wild": 3724,
      "▁amount": 3725,
      "▁try": 3726,
      "##urn": 3727,
      "▁kitt": 3728,
      "▁everything": 3729,
      "##ateg": 3730,
      "##ude": 3731,
      "##ɑ": 3732,
      "▁fund": 3733,
      "##ertai": 3734,
      "▁method": 3735,
      "▁ra": 3736,
      "▁that": 3737,
      "##ozer": 3738,
      "##aged": 3739,
      "z": 3740,
      "▁ex": 3741,
      "▁today": 3742,
      "##t": 3743,
      "▁shut": 3744,
      "##ric": 3745,
      "▁on": 3746,
      "##form": 3747,
      "▁fre": 3748,
      "▁prep": 3749,
      "▁apprec": 3750,
      "##ection": 3751,
      "##oul": 3752,
      "▁party": 3753,
      "##enti": 3754,
      "▁bas": 3755,
      "##ctions": 3756,
      "##like": 3757,
      "▁blan": 3758,
      "▁minute": 3759,
      "▁taken": 3760,
      "##ment": 3761,
      "▁thous": 3762,
      "##tery": 3763,
      "▁mr": 3764,
      "▁film": 3765,
      "▁including": 3766,
      "▁piece": 3767,
      "▁thurs": 3768,
      "▁choo": 3769,
      "##/": 3770,
      "▁mic": 3771,
      "▁middle": 3772,
      "##hin": 3773,
      "##selve": 3774,
      "▁river": 3775,
      "▁purpos": 3776,
      "##–": 3777,
      "k": 3778,
      "##led": 3779,
      "##stop": 3780,
      "##ges": 3781,
      "▁pres": 3782,
      "▁crow": 3783,
      "##ity": 3784,
      "▁save": 3785,
      "##^": 3786,
      "▁animal": 3787,
      "▁answer": 3788,
      "##man": 3789,
      "▁differences": 3790,
      "▁suit": 3791,
      "▁pret": 3792,
      "▁fare": 3793,
      "▁airplan": 3794,
      "▁whe": 3795,
      "▁document": 3796,
      "##ipped": 3797,
      "▁cooperation": 3798,
      "▁love": 3799,
      "▁perform": 3800,
      "##ides": 3801,
      "φ": 3802,
      "##ery": 3803,
      "##u": 3804,
      "##ained": 3805,
      "##ang": 3806,
      "υ": 3807,
      "##uth": 3808,
      "▁fl": 3809,
      "▁---------------------------------": 3810,
      "▁evidence": 3811,
      "▁user": 3812,
      "##overed": 3813,
      "##tice": 3814,
      "##men": 3815,
      "▁model": 3816,
      "▁“": 3817,
      "▁an": 3818,
      "##rote": 3819,
      "▁owner": 3820,
      "##so": 3821,
      "▁these": 3822,
      "##uit": 3823,
      "▁cow": 3824,
      "▁tw": 3825,
      "▁mother": 3826,
      "##ything": 3827,
      "##ises": 3828,
      "▁appear": 3829,
      "▁describ": 3830,
      "▁hum": 3831,
      "##ire": 3832,
      "##orrow": 3833,
      "▁!!!!!!": 3834,
      "##earch": 3835,
      "##aper": 3836,
      "##ched": 3837,
      "ʁ": 3838,
      "▁pl": 3839,
      "▁p": 3840,
      "##mate": 3841,
      "▁statement": 3842,
      "▁and": 3843,
      "▁hall": 3844,
      "▁doing": 3845,
      "▁til": 3846,
      "▁repl": 3847,
      "##β": 3848,
      "▁wal": 3849,
      "##ced": 3850,
      "##ority": 3851,
      "▁driving": 3852,
      "▁sounds": 3853,
      "▁bre": 3854,
      "▁aspects": 3855,
      "##ass": 3856,
      ",": 3857,
      "##oor": 3858,
      "##ops": 3859,
      "▁bet": 3860,
      "▁sit": 3861,
      "▁dust": 3862,
      "▁bag": 3863,
      "##ato": 3864,
      "▁remember": 3865,
      "▁gar": 3866,
      "▁carrying": 3867,
      "##oin": 3868,
      "##time": 3869,
      "##phere": 3870,
      "▁nap": 3871,
      "##3": 3872,
      "▁decision": 3873,
      "▁cell": 3874,
      "▁employees": 3875,
      "##z": 3876,
      "▁proble": 3877,
      "▁pass": 3878,
      "▁years": 3879,
      "▁dri": 3880,
      "##ared": 3881,
      "##-": 3882,
      "▁key": 3883,
      "▁dragon": 3884,
      "##phone": 3885,
      "##ligh": 3886,
      "##ute": 3887,
      "▁posted": 3888,
      "##tsbur": 3889,
      "##lation": 3890,
      "##yth": 3891,
      "▁needed": 3892,
      "##ands": 3893,
      "##ument": 3894,
      "▁summer": 3895,
      "▁part": 3896,
      "▁disc": 3897,
      "##oll": 3898,
      "▁fares": 3899,
      "##ino": 3900,
      "▁env": 3901,
      "##ife": 3902,
      "▁**": 3903,
      "##ening": 3904,
      "##ambment": 3905,
      "▁established": 3906,
      "##%": 3907,
      "▁round": 3908,
      "▁storm": 3909,
      "▁named": 3910,
      "▁und": 3911,
      "▁whose": 3912,
      "▁'re": 3913,
      "▁ban": 3914,
      "▁future": 3915,
      "##nding": 3916,
      "▁arrived": 3917,
      "▁think": 3918,
      "▁regar": 3919,
      "▁generation": 3920,
      "##ury": 3921,
      "##alk": 3922,
      "▁knowledge": 3923,
      "▁helped": 3924,
      "▁be": 3925,
      "▁miles": 3926,
      "▁wrote": 3927,
      "##stem": 3928,
      "▁insur": 3929,
      "▁front": 3930,
      "##ycle": 3931,
      "▁lad": 3932,
      "ς": 3933,
      "▁capacity": 3934,
      "▁astr": 3935,
      "▁num": 3936,
      "▁emer": 3937,
      "##tee": 3938,
      "▁bo": 3939,
      "▁balt": 3940,
      "##ging": 3941,
      "##very": 3942,
      "▁deal": 3943,
      "▁fail": 3944,
      "##ience": 3945,
      "##ummy": 3946,
      "##ple": 3947,
      "▁making": 3948,
      "▁section": 3949,
      "▁b": 3950,
      "▁sleep": 3951,
      "▁again": 3952,
      "▁thoughts": 3953,
      "##struc": 3954,
      "##om": 3955,
      "▁h": 3956,
      "▁bird": 3957,
      "▁room": 3958,
      "▁carry": 3959,
      "~": 3960,
      "▁lots": 3961,
      "▁text": 3962,
      "▁d": 3963,
      "▁cond": 3964,
      "▁considered": 3965,
      "▁sw": 3966,
      "▁without": 3967,
      "▁question": 3968,
      "##ο": 3969,
      "▁boys": 3970,
      "##ching": 3971,
      "##aves": 3972,
      "▁n": 3973,
      "▁him": 3974,
      "##ite": 3975,
      "▁se": 3976,
      "▁unto": 3977,
      "##ine": 3978,
      "##ac": 3979,
      "▁admin": 3980,
      "▁attacks": 3981,
      "▁first": 3982,
      "▁notwithstanding": 3983,
      "##der": 3984,
      "▁sel": 3985,
      "▁released": 3986,
      "##ender": 3987,
      "▁decl": 3988,
      "▁among": 3989,
      "▁father": 3990,
      "▁represent": 3991,
      "##lish": 3992,
      "##ays": 3993,
      "##lin": 3994,
      "▁citizens": 3995,
      "##tering": 3996,
      "▁brother": 3997,
      "▁famili": 3998,
      "ʃ": 3999,
      "▁wants": 4000,
      "##eth": 4001,
      "▁ours": 4002,
      "▁ship": 4003,
      "##ead": 4004,
      "##zation": 4005,
      "▁show": 4006,
      "##ed": 4007,
      "♥": 4008,
      "##als": 4009,
      "▁departing": 4010,
      "▁jo": 4011,
      "▁cry": 4012,
      "▁agre": 4013,
      "▁looked": 4014,
      "▁trust": 4015,
      "▁behavior": 4016,
      "##ee": 4017,
      "▁breakfast": 4018,
      "##ough": 4019,
      "▁ho": 4020,
      "▁poin": 4021,
      "▁dis": 4022,
      "##ables": 4023,
      "▁spir": 4024,
      "▁dat": 4025,
      "▁schedule": 4026,
      "▁learning": 4027,
      "▁ended": 4028,
      "▁killed": 4029,
      "##ved": 4030,
      "##craft": 4031,
      "▁interest": 4032,
      "ʊ": 4033,
      "##ring": 4034,
      "▁anyone": 4035,
      "▁exist": 4036,
      "##oring": 4037,
      "##·": 4038,
      "▁were": 4039,
      "▁april": 4040,
      "##her": 4041,
      "▁banana": 4042,
      "▁process": 4043,
      "##vail": 4044,
      "▁spend": 4045,
      "▁event": 4046,
      "##owl": 4047,
      "▁class": 4048,
      "▁moving": 4049,
      "##anc": 4050,
      "▁jobs": 4051,
      "▁:": 4052,
      "▁suc": 4053,
      "▁look": 4054,
      "▁em": 4055,
      "##ital": 4056,
      "▁vs": 4057,
      "##orm": 4058,
      "##sh": 4059,
      "▁sto": 4060,
      "▁condition": 4061,
      "▁amongst": 4062,
      "##mit": 4063,
      "##ight": 4064,
      "▁type": 4065,
      "▁da": 4066,
      "°": 4067,
      "##$": 4068,
      "▁*****": 4069,
      "##ocr": 4070,
      "▁reports": 4071,
      "▁about": 4072,
      "##using": 4073,
      "##ists": 4074,
      "▁more": 4075,
      "##ilities": 4076,
      "▁meat": 4077,
      "▁jokes": 4078,
      "##earance": 4079,
      "<": 4080,
      "▁gon": 4081,
      "▁career": 4082,
      "▁fall": 4083,
      "▁enjo": 4084,
      "▁range": 4085,
      "##sed": 4086,
      "▁proced": 4087,
      "##nd": 4088,
      "▁<": 4089,
      "▁y": 4090,
      "##ses": 4091,
      "▁looking": 4092,
      "▁went": 4093,
      "s": 4094,
      "▁----------------------------------------------------------------------": 4095
    }
  }
}