{
  "version": "1.0",
  "truncation": null,
  "padding": null,
  "added_tokens": [
    {
      "id": 535,
      "content": "[CLS]",
      "single_word": false,
      "lstrip": false,
      "rstrip": false,
      "normalized": false,
      "special": true
    },
    {
      "id": 962,
      "content": "[SEP]",
      "single_word": false,
      "lstrip": false,
      "rstrip": false,
      "normalized": false,
      "special": true
    },
    {
      "id": 2334,
      "content": "[PAD]",
      "single_word": false,
      "lstrip": false,
      "rstrip": false,
      "normalized": false,
      "special": true
    },
    {
      "id": 3499,
      "content": "[MASK]",
      "single_word": false,
      "lstrip": false,
      "rstrip": false,
      "normalized": false,
      "special": true
    },
    {
      "id": 3686,
      "content": "[UNK]",
      "single_word": false,
      "lstrip": false,
      "rstrip": false,
      "normalized": false,
      "special": true
    }
  ],
  "normalizer": {
    "type": "Sequence",
    "normalizers": [
      {
        "type": "NFD"
      },
      {
        "type": "Lowercase"
      },
      {
        "type": "StripAccents"
      }
    ]
  },
  "pre_tokenizer": {
    "type": "Sequence",
    "pretokenizers": [
      {
        "type": "Metaspace",
        "replacement": "▁",
        "prepend_scheme": "always",
        "split": true
      }
    ]
  },
  "post_processor": {
    "type": "TemplateProcessing",
    "single": [
      {
        "SpecialToken": {
          "id": "[CLS]",
          "type_id": 0
        }
      },
      {
        "Sequence": {
          "id": "A",
          "type_id": 0
        }
      },
      {
        "SpecialToken": {
          "id": "[SEP]",
          "type_id": 0
        }
      }
    ],
    "pair": [
      {
        "SpecialToken": {
          "id": "[CLS]",
          "type_id": 0
        }
      },
      {
        "Sequence": {
          "id": "A",
          "type_id": 0
        }
      },
      {
        "SpecialToken": {
          "id": "[SEP]",
          "type_id": 0
        }
      },
      {
        "Sequence": {
          "id": "B",
          "type_id": 1
        }
      },
      {
        "SpecialToken": {
          "id": "[SEP]",
          "type_id": 1
        }
      }
    ],
    "special_tokens": {
      "[CLS]": {
        "id": "[CLS]",
        "ids": [
          535
        ],
        "tokens": [
          "[CLS]"
        ]
      },
      "[SEP]": {
        "id": "[SEP]",
        "ids": [
          962
        ],
        "tokens": [
          "[SEP]"
        ]
      }
    }
  },
  "decoder": {
    "type": "Metaspace",
    "replacement": "▁",
    "prepend_scheme": "always",
    "split": true
  },
  "model": {
    "type": "WordPiece",
    "unk_token": "[UNK]",
    "continuing_subword_prefix": "##",
    "max_input_chars_per_word": 100,
    "vocab": {
      "▁thoughts": 0,
      "▁pr": 1,
      "##otw": 2,
      "##?": 3,
      "▁pocket": 4,
      "▁little": 5,
      "▁directive": 6,
      "▁anth": 7,
      "▁connec": 8,
      "##p;": 9,
      "▁as": 10,
      "##to": 11,
      "▁shop": 12,
      "▁pep": 13,
      "##nd": 14,
      "▁\"": 15,
      "▁recip": 16,
      "▁ad": 17,
      "▁pie": 18,
      "##__": 19,
      "▁introduc": 20,
      "▁mass": 21,
      "##ulate": 22,
      "▁heads": 23,
      "##ride": 24,
      "▁interv": 25,
      "▁there": 26,
      "▁date": 27,
      "▁circum": 28,
      "▁depart": 29,
      "##my": 30,
      "▁dat": 31,
      "##right": 32,
      "▁ec": 33,
      "##0s": 34,
      "▁parents": 35,
      "▁quit": 36,
      "▁involved": 37,
      "##ici": 38,
      "▁ha": 39,
      "▁must": 40,
      "##lights": 41,
      "▁proble": 42,
      "▁surv": 43,
      "▁airplan": 44,
      "▁form": 45,
      "##ecting": 46,
      "▁impact": 47,
      "##)": 48,
      "##ding": 49,
      "▁know": 50,
      "##ik": 51,
      "##aste": 52,
      "▁pittsbur": 53,
      "▁before": 54,
      "##ament": 55,
      "▁someth": 56,
      "##b": 57,
      "▁areas": 58,
      "▁last": 59,
      "▁resources": 60,
      "▁wine": 61,
      "▁standing": 62,
      "▁!!!!!": 63,
      "▁recommended": 64,
      "##ant": 65,
      "▁q": 66,
      "##ag": 67,
      "▁help": 68,
      "##pe": 69,
      "▁paint": 70,
      "▁wear": 71,
      "▁times": 72,
      "▁describe": 73,
      "▁wanted": 74,
      "▁would": 75,
      "…": 76,
      "▁hop": 77,
      "##acted": 78,
      "▁establish": 79,
      "▁appears": 80,
      "▁helps": 81,
      "▁tow": 82,
      "▁hear": 83,
      "▁opin": 84,
      "##encies": 85,
      "##essed": 86,
      "▁period": 87,
      "##fic": 88,
      "▁etc": 89,
      "▁created": 90,
      "▁bathroom": 91,
      "##ways": 92,
      "##aughter": 93,
      "æ": 94,
      "▁ear": 95,
      "▁wedding": 96,
      "##ects": 97,
      "▁wait": 98,
      "▁counterpar": 99,
      "▁saying": 100,
      "##ud": 101,
      "▁poll": 102,
      "##eries": 103,
      "▁mor": 104,
      "▁business": 105,
      "'": 106,
      "▁old": 107,
      "▁rep": 108,
      "##ino": 109,
      "##ments": 110,
      "▁mama": 111,
      "▁moved": 112,
      "▁buy": 113,
      "##aces": 114,
      "▁watch": 115,
      "▁well": 116,
      "▁driving": 117,
      "▁x": 118,
      "##ering": 119,
      "▁suff": 120,
      "▁employees": 121,
      "▁plan": 122,
      "▁replication": 123,
      "▁squ": 124,
      "##ids": 125,
      "##tle": 126,
      "▁live": 127,
      "▁code": 128,
      "▁august": 129,
      "▁y": 130,
      "▁content": 131,
      "▁aside": 132,
      "▁ap": 133,
      "▁became": 134,
      "▁quinoa": 135,
      "▁flag": 136,
      "##neath": 137,
      "▁progress": 138,
      "▁lad": 139,
      "▁col": 140,
      "ʻ": 141,
      "▁now": 142,
      "##ful": 143,
      "##tice": 144,
      "▁could": 145,
      "▁ph": 146,
      "##yp": 147,
      "▁_____": 148,
      "##ocks": 149,
      "▁spend": 150,
      "▁sens": 151,
      "##ie": 152,
      "▁best": 153,
      "▁u": 154,
      "▁activ": 155,
      "##hood": 156,
      "▁waiting": 157,
      "##oph": 158,
      "▁***": 159,
      "▁learned": 160,
      "##ping": 161,
      "▁dow": 162,
      "▁finger": 163,
      "##light": 164,
      "▁!!!?": 165,
      "##eck": 166,
      "▁apar": 167,
      "▁so": 168,
      "##elly": 169,
      "##**": 170,
      "##rel": 171,
      "##agon": 172,
      "▁gives": 173,
      "▁fig": 174,
      "▁shown": 175,
      "▁law": 176,
      "▁sleep": 177,
      "##ades": 178,
      "##in": 179,
      "▁measures": 180,
      "##nesday": 181,
      "##ell": 182,
      "##lar": 183,
      "▁explained": 184,
      "##ake": 185,
      "##val": 186,
      "▁********": 187,
      "##ball": 188,
      "##arity": 189,
      "▁mar": 190,
      "▁house": 191,
      "▁viol": 192,
      "▁vis": 193,
      "▁hist": 194,
      "▁rights": 195,
      "##—": 196,
      "##ilities": 197,
      "▁!.": 198,
      "▁needed": 199,
      "▁ne": 200,
      "▁watching": 201,
      "##actions": 202,
      "▁felt": 203,
      "##ech": 204,
      "▁cooperation": 205,
      "##^": 206,
      "▁accepted": 207,
      "▁ra": 208,
      "▁drinking": 209,
      "##earch": 210,
      "▁ton": 211,
      "▁–": 212,
      "##ointment": 213,
      "▁sc": 214,
      "▁driver": 215,
      "##inc": 216,
      "▁tar": 217,
      "##ints": 218,
      "▁fail": 219,
      "##kin": 220,
      "▁will": 221,
      "▁kn": 222,
      "▁season": 223,
      "▁estab": 224,
      "▁candid": 225,
      "##either": 226,
      "▁hers": 227,
      "▁'d": 228,
      "▁winter": 229,
      "##ligence": 230,
      "▁ov": 231,
      "▁with": 232,
      "▁wild": 233,
      "▁commission": 234,
      "–": 235,
      "▁first": 236,
      "▁influ": 237,
      "▁trees": 238,
      "▁yog": 239,
      "▁versus": 240,
      "##uting": 241,
      "▁nose": 242,
      "▁responsibility": 243,
      "▁management": 244,
      "##lers": 245,
      "▁tail": 246,
      "▁things": 247,
      "▁b/c": 248,
      "▁exhib": 249,
      "##un": 250,
      "▁...................": 251,
      "##ault": 252,
      "##kers": 253,
      "▁fields": 254,
      "▁indic": 255,
      "▁cove": 256,
      "▁grandm": 257,
      "▁ever": 258,
      "##oice": 259,
      "▁.......": 260,
      "##ished": 261,
      "##iety": 262,
      "▁hal": 263,
      "##uff": 264,
      "▁;": 265,
      "▁boy": 266,
      "▁are": 267,
      "▁corn": 268,
      "▁increased": 269,
      "▁comb": 270,
      "##y": 271,
      "##se": 272,
      "▁repe": 273,
      "▁agre": 274,
      "##str": 275,
      "▁bag": 276,
      "▁if": 277,
      "▁mater": 278,
      "##hes": 279,
      "##ead": 280,
      "▁breakfast": 281,
      "▁oc": 282,
      "▁agree": 283,
      "##imore": 284,
      "▁sched": 285,
      "▁in": 286,
      "##ured": 287,
      "##'clock": 288,
      "▁dece": 289,
      "▁said": 290,
      "▁.........": 291,
      "▁stayed": 292,
      "▁majority": 293,
      "##'": 294,
      "▁inn": 295,
      "##cing": 296,
      "▁mat": 297,
      "▁den": 298,
      "▁j": 299,
      "##um": 300,
      "▁number": 301,
      "▁bec": 302,
      "▁control": 303,
      "▁oil": 304,
      "▁wilt": 305,
      "▁file": 306,
      "▁less": 307,
      "▁study": 308,
      "▁support": 309,
      "▁jobs": 310,
      "##jects": 311,
      "▁at": 312,
      "▁meas": 313,
      "▁reality": 314,
      "▁add": 315,
      "##acts": 316,
      "▁enjoyed": 317,
      "##ious": 318,
      "r": 319,
      "##ails": 320,
      "##clock": 321,
      "##og": 322,
      "▁returned": 323,
      "▁hands": 324,
      "##act": 325,
      "▁legislation": 326,
      "▁items": 327,
      "▁order": 328,
      "▁known": 329,
      "##su": 330,
      "▁game": 331,
      "▁airports": 332,
      "▁appointment": 333,
      "▁********************************": 334,
      "▁funds": 335,
      "▁break": 336,
      "##asure": 337,
      "##selves": 338,
      "▁role": 339,
      "▁pur": 340,
      "##lo": 341,
      "▁toward": 342,
      "##±": 343,
      "##|": 344,
      "##ected": 345,
      "##ax": 346,
      "▁tele": 347,
      "##ke": 348,
      "▁about": 349,
      "▁’": 350,
      "▁kitty": 351,
      "▁until": 352,
      "##ved": 353,
      "##are": 354,
      "▁ground": 355,
      "▁inv": 356,
      "▁ir": 357,
      "▁aw": 358,
      "▁come": 359,
      ":": 360,
      "▁sister": 361,
      "##ality": 362,
      "##ases": 363,
      "▁prot": 364,
      "##ge": 365,
      "##ider": 366,
      "▁amount": 367,
      "▁p": 368,
      "▁draw": 369,
      "▁seas": 370,
      "▁arri": 371,
      "▁party": 372,
      "▁w": 373,
      "▁throughout": 374,
      "▁trav": 375,
      "▁blood": 376,
      "##ο": 377,
      "##ded": 378,
      "##vement": 379,
      "▁boys": 380,
      "##ite": 381,
      "##formation": 382,
      "##lity": 383,
      "▁cond": 384,
      "##ains": 385,
      "▁!!!!": 386,
      "▁why": 387,
      "▁campaign": 388,
      "##\"": 389,
      "▁ice": 390,
      "##ł": 391,
      "##ult": 392,
      "▁phone": 393,
      "▁mine": 394,
      "##lig": 395,
      "##tie": 396,
      "▁rout": 397,
      "##ample": 398,
      "▁sugges": 399,
      "##ad": 400,
      "▁---------------------------------": 401,
      "##om": 402,
      "”": 403,
      "##form": 404,
      "▁di": 405,
      "##co": 406,
      "▁implem": 407,
      "▁stated": 408,
      "▁atop": 409,
      "##????": 410,
      "▁range": 411,
      "##ather": 412,
      "##ual": 413,
      "o": 414,
      "##ards": 415,
      "▁united": 416,
      "▁window": 417,
      "▁starting": 418,
      "##oor": 419,
      "##ium": 420,
      "▁fore": 421,
      "##is": 422,
      "##mer": 423,
      "▁song": 424,
      "##izing": 425,
      "▁outside": 426,
      "##ill": 427,
      "##ery": 428,
      "▁interview": 429,
      "▁prac": 430,
      "▁appl": 431,
      "▁govern": 432,
      "##????????????????????????????????": 433,
      "▁explain": 434,
      "▁their": 435,
      "▁br": 436,
      "▁become": 437,
      "▁salad": 438,
      "▁buttons": 439,
      "▁post": 440,
      "$": 441,
      "▁developing": 442,
      "##ι": 443,
      "##en": 444,
      "▁people": 445,
      "##up": 446,
      "▁.": 447,
      "##sure": 448,
      "▁space": 449,
      "▁cl": 450,
      "▁fligh": 451,
      "▁called": 452,
      "▁chicken": 453,
      "▁s’": 454,
      "▁opportunity": 455,
      "▁spr": 456,
      "##ressed": 457,
      "▁miles": 458,
      "▁should": 459,
      "v": 460,
      "▁standards": 461,
      "▁ours": 462,
      "##ested": 463,
      "▁crow": 464,
      "▁lion": 465,
      "▁pu": 466,
      "▁reviews": 467,
      "▁airline": 468,
      "▁techniqu": 469,
      "▁anything": 470,
      "##…": 471,
      "##derstanding": 472,
      "▁:?": 473,
      "▁strength": 474,
      "▁convers": 475,
      "##aring": 476,
      "▁sources": 477,
      "▁options": 478,
      "▁suit": 479,
      "##ia": 480,
      "▁does": 481,
      "▁wants": 482,
      "▁pig": 483,
      "▁fare": 484,
      "▁..": 485,
      "##duction": 486,
      "▁ride": 487,
      "##ights": 488,
      "▁wond": 489,
      "▁av": 490,
      "##pp": 491,
      "▁wol": 492,
      "▁avo": 493,
      "▁regarding": 494,
      "▁o": 495,
      "▁format": 496,
      "▁disp": 497,
      "▁face": 498,
      "##nut": 499,
      "▁tom": 500,
      "▁weight": 501,
      "▁ask": 502,
      "▁micro": 503,
      "▁shoes": 504,
      "▁schedule": 505,
      "▁rooms": 506,
      "▁dev": 507,
      "▁monkey": 508,
      "##ong": 509,
      "υ": 510,
      "▁job": 511,
      "▁it": 512,
      "###": 513,
      "▁issues": 514,
      "##ank": 515,
      "##ic": 516,
      "▁going": 517,
      "##ven": 518,
      "▁coo": 519,
      "##ough": 520,
      "##am": 521,
      "▁read": 522,
      "##lan": 523,
      "▁brought": 524,
      "##esting": 525,
      "▁cent": 526,
      "##eet": 527,
      "▁continued": 528,
      "▁cartoon": 529,
      "▁wonder": 530,
      "▁clothes": 531,
      "▁ran": 532,
      "##olving": 533,
      "▁independ": 534,
      "[CLS]": 535,
      "▁bri": 536,
      "##und": 537,
      "▁stic": 538,
      "▁-----": 539,
      "▁anyone": 540,
      "▁corner": 541,
      "▁reas": 542,
      "▁bulldozer": 543,
      "▁ob": 544,
      "▁eating": 545,
      "▁quality": 546,
      "▁ab": 547,
      "▁throu": 548,
      "▁mov": 549,
      "##led": 550,
      "##ision": 551,
      "##tee": 552,
      "##-m": 553,
      "▁sl": 554,
      "▁details": 555,
      "##anded": 556,
      "▁kill": 557,
      "▁hospital": 558,
      "##par": 559,
      "##iss": 560,
      "▁everybody": 561,
      "##ze": 562,
      "##lem": 563,
      "▁administ": 564,
      "##inu": 565,
      "##fer": 566,
      "##os": 567,
      "▁arg": 568,
      "▁direc": 569,
      "▁restaurant": 570,
      "##ark": 571,
      "▁money": 572,
      "▁classes": 573,
      "##ti": 574,
      "▁jwww": 575,
      "▁organiz": 576,
      "▁family": 577,
      "▁sel": 578,
      "##iz": 579,
      "##gre": 580,
      "▁start": 581,
      "##avi": 582,
      "▁that": 583,
      "▁reached": 584,
      "##ports": 585,
      "▁nature": 586,
      "▁built": 587,
      "##oth": 588,
      "▁received": 589,
      "▁dropped": 590,
      "##...": 591,
      "▁during": 592,
      "▁among": 593,
      "▁neck": 594,
      "▁traff": 595,
      "▁tha": 596,
      "▁country": 597,
      "##ato": 598,
      "▁pivottable": 599,
      "##­": 600,
      "##uly": 601,
      "▁beginning": 602,
      "▁toy": 603,
      "##face": 604,
      "▁conf": 605,
      "##--------": 606,
      "▁stre": 607,
      "▁cons": 608,
      "▁sandwic": 609,
      "##orts": 610,
      "▁milk": 611,
      "▁answer": 612,
      "▁apprec": 613,
      "▁comp": 614,
      "▁hous": 615,
      "▁cage": 616,
      "▁cli": 617,
      "▁receive": 618,
      "▁anti": 619,
      "▁****": 620,
      "▁communication": 621,
      "##ance": 622,
      "▁conversation": 623,
      "▁dam": 624,
      "▁n": 625,
      "##ah": 626,
      "▁finished": 627,
      "▁cap": 628,
      "▁bunny": 629,
      "##ress": 630,
      "##mos": 631,
      "▁april": 632,
      "▁'ll": 633,
      "##ational": 634,
      "▁attacks": 635,
      "▁dr": 636,
      "▁head": 637,
      "##stop": 638,
      "▁meth": 639,
      "▁call": 640,
      "▁citiz": 641,
      "▁imp": 642,
      "▁lab": 643,
      "▁prefer": 644,
      "##ploy": 645,
      "##ends": 646,
      "##ures": 647,
      "##l": 648,
      "##ised": 649,
      "▁[...]": 650,
      "▁using": 651,
      "▁ow": 652,
      "▁beneath": 653,
      "##aps": 654,
      "##ld": 655,
      "##ored": 656,
      "##book": 657,
      "▁..........": 658,
      "▁appeared": 659,
      "▁farm": 660,
      "##man": 661,
      "▁scienti": 662,
      "▁women": 663,
      "▁respons": 664,
      "▁aff": 665,
      "▁credit": 666,
      "##used": 667,
      "▁notw": 668,
      "▁reach": 669,
      "▁movie": 670,
      "▁une": 671,
      "▁!!!!!!!!!!!!!!!": 672,
      "▁acc": 673,
      "▁room": 674,
      "▁hom": 675,
      "▁motor": 676,
      "▁---------------------------------------------------------------------------": 677,
      "▁ways": 678,
      "▁bot": 679,
      "▁image": 680,
      "²": 681,
      "##olog": 682,
      "▁copy": 683,
      "▁against": 684,
      "▁19": 685,
      "▁accep": 686,
      "▁dough": 687,
      "▁projects": 688,
      "▁choo": 689,
      "|": 690,
      "▁points": 691,
      "▁size": 692,
      "▁legos": 693,
      "▁cr": 694,
      "▁sug": 695,
      "▁incl": 696,
      "▁upd": 697,
      "ς": 698,
      "##alist": 699,
      "##iti": 700,
      "##uter": 701,
      "▁arrive": 702,
      "▁eleph": 703,
      "▁bul": 704,
      "##ear": 705,
      "##ep": 706,
      "##uro": 707,
      "▁diff": 708,
      "▁picture": 709,
      "▁parts": 710,
      "▁door": 711,
      "##aign": 712,
      "▁army": 713,
      "▁interests": 714,
      "##ism": 715,
      "▁baby": 716,
      "▁movies": 717,
      "▁evidence": 718,
      "▁feed": 719,
      "##il": 720,
      "▁fo": 721,
      "##9": 722,
      "##ook": 723,
      "▁menti": 724,
      "▁river": 725,
      "##ancing": 726,
      "▁lie": 727,
      "▁teh": 728,
      "▁use": 729,
      "▁adults": 730,
      "##ave": 731,
      "##amp": 732,
      "##ft": 733,
      "##eth": 734,
      "▁animals": 735,
      "▁surpr": 736,
      "▁reason": 737,
      "▁….": 738,
      "##ased": 739,
      "##usion": 740,
      "▁pub": 741,
      "▁airport": 742,
      "▁stri": 743,
      "▁bird": 744,
      "▁conte": 745,
      "##mit": 746,
      "▁sil": 747,
      "▁confir": 748,
      "##time": 749,
      "▁objec": 750,
      "▁around": 751,
      "▁food": 752,
      "##enti": 753,
      "▁@": 754,
      "▁threat": 755,
      "▁enjoy": 756,
      "##lions": 757,
      "▁next": 758,
      "▁showing": 759,
      "b": 760,
      "##`": 761,
      "▁truth": 762,
      "##mal": 763,
      "▁body": 764,
      "▁message": 765,
      "▁abo": 766,
      "▁page": 767,
      "▁acqui": 768,
      "▁rele": 769,
      "▁making": 770,
      "▁belong": 771,
      "▁companies": 772,
      "▁button": 773,
      "▁mu": 774,
      "▁society": 775,
      "▁employ": 776,
      "▁stopover": 777,
      "▁park": 778,
      "▁but": 779,
      "▁ki": 780,
      "##ve": 781,
      "▁vehic": 782,
      "▁afternoon": 783,
      "##bly": 784,
      "##enting": 785,
      "##tor": 786,
      "##other": 787,
      "▁others": 788,
      "##lection": 789,
      "##²": 790,
      "##ger": 791,
      "##8": 792,
      "##eric": 793,
      "▁determ": 794,
      "▁discovered": 795,
      "##ace": 796,
      "▁away": 797,
      "▁denver": 798,
      "##omm": 799,
      "▁&amp;": 800,
      "##]": 801,
      "▁elected": 802,
      "▁decision": 803,
      "##old": 804,
      "▁plenty": 805,
      "▁elev": 806,
      "▁girl": 807,
      "▁jun": 808,
      "##ction": 809,
      "##ru": 810,
      "▁mess": 811,
      "##be": 812,
      "##ss": 813,
      "##rou": 814,
      "▁attached": 815,
      "▁cop": 816,
      "▁works": 817,
      "▁typ": 818,
      "▁pret": 819,
      "▁milit": 820,
      "▁comment": 821,
      "▁shower": 822,
      "▁except": 823,
      "▁person": 824,
      "▁trying": 825,
      "▁descri": 826,
      "##itions": 827,
      "▁tent": 828,
      "##em": 829,
      "##tw": 830,
      "▁manag": 831,
      "▁offici": 832,
      "▁display": 833,
      "▁libr": 834,
      "▁and": 835,
      "##oss": 836,
      "##ole": 837,
      "##ine": 838,
      "▁co": 839,
      "▁across": 840,
      "▁ti": 841,
      "▁phot": 842,
      "##rup": 843,
      "▁owner": 844,
      "▁thousands": 845,
      "##+----------------": 846,
      "▁salt": 847,
      "##rew": 848,
      "▁’ll": 849,
      "▁say": 850,
      "▁feeling": 851,
      "##et": 852,
      "▁cigar": 853,
      "▁stud": 854,
      "▁med": 855,
      "σ": 856,
      "##so": 857,
      "▁pl": 858,
      "##ument": 859,
      "##hen": 860,
      "▁weeks": 861,
      "##lies": 862,
      "##acked": 863,
      "▁opening": 864,
      "▁proposal": 865,
      "▁infl": 866,
      "▁path": 867,
      "▁sle": 868,
      "▁down": 869,
      "▁birthday": 870,
      "³": 871,
      "▁problems": 872,
      "▁bowl": 873,
      "▁pet": 874,
      "▁described": 875,
      "##º": 876,
      "▁die": 877,
      "▁followed": 878,
      "▁whe": 879,
      "##rying": 880,
      "▁action": 881,
      "▁men": 882,
      "▁days": 883,
      "▁father": 884,
      "##boy": 885,
      "##air": 886,
      "▁ce": 887,
      "▁neighbor": 888,
      "▁thir": 889,
      "▁night": 890,
      "▁looks": 891,
      "▁thursday": 892,
      "▁row": 893,
      "▁speed": 894,
      "##ator": 895,
      "##red": 896,
      "▁concer": 897,
      "▁sugar": 898,
      "▁shirt": 899,
      "▁trust": 900,
      "##ized": 901,
      "▁son": 902,
      "##ject": 903,
      "▁numerous": 904,
      "##e": 905,
      "▁fish": 906,
      "▁skin": 907,
      "▁guys": 908,
      "▁hope": 909,
      "▁dou": 910,
      "##ing": 911,
      "▁pal": 912,
      "##ounds": 913,
      "▁project": 914,
      "▁happening": 915,
      "▁exposure": 916,
      "##cer": 917,
      "▁penc": 918,
      "▁schools": 919,
      "▁hotel": 920,
      "▁bac": 921,
      "##aining": 922,
      "##ection": 923,
      "▁incre": 924,
      "##ʊ": 925,
      "▁think": 926,
      "▁ey": 927,
      "##xce": 928,
      "##ε": 929,
      "##iled": 930,
      "##z": 931,
      "▁mommy": 932,
      "##ruc": 933,
      "▁raised": 934,
      "▁hur": 935,
      "▁here": 936,
      "##outh": 937,
      "▁friends": 938,
      "▁any": 939,
      "▁fixed": 940,
      "##ister": 941,
      "##fe": 942,
      "##oup": 943,
      "▁bus": 944,
      "##lin": 945,
      "##ught": 946,
      "##ap": 947,
      "##earance": 948,
      "##nel": 949,
      "▁boston": 950,
      "▁threw": 951,
      "▁pick": 952,
      "▁ll": 953,
      "▁a": 954,
      "▁needs": 955,
      "▁minutes": 956,
      "▁wish": 957,
      "▁ri": 958,
      "##ape": 959,
      "▁hosp": 960,
      "▁mountain": 961,
      "[SEP]": 962,
      "##duc": 963,
      "##alk": 964,
      "▁sm": 965,
      "▁transportation": 966,
      "▁wi": 967,
      "▁text": 968,
      "▁closed": 969,
      "##....": 970,
      "##tc": 971,
      "▁were": 972,
      "▁conduc": 973,
      "##ict": 974,
      "▁rat": 975,
      "▁leaving": 976,
      "▁scre": 977,
      "▁aft": 978,
      "*": 979,
      "▁despite": 980,
      "▁electric": 981,
      "##acking": 982,
      "▁belief": 983,
      "##oh": 984,
      "▁+": 985,
      "##j": 986,
      "##ally": 987,
      "##ive": 988,
      "▁>>": 989,
      "▁near": 990,
      "##mes": 991,
      "##wor": 992,
      "▁broken": 993,
      "##using": 994,
      "▁’s": 995,
      "▁trad": 996,
      "▁f": 997,
      "##ills": 998,
      "##ilos": 999,
      "▁mir": 1000,
      "▁dragon": 1001,
      "▁sci": 1002,
      "##ogn": 1003,
      "▁bal": 1004,
      "▁prof": 1005,
      "##tering": 1006,
      "##gr": 1007,
      "▁balloon": 1008,
      "▁estimated": 1009,
      "▁conce": 1010,
      "▁mr": 1011,
      "##ission": 1012,
      "▁occ": 1013,
      "▁‘’": 1014,
      "▁taken": 1015,
      "##ks": 1016,
      "##oted": 1017,
      "▁initi": 1018,
      "▁own": 1019,
      "##____": 1020,
      "▁wa": 1021,
      "##ert": 1022,
      "▁council": 1023,
      "▁nobody": 1024,
      "▁style": 1025,
      "▁destro": 1026,
      "##ution": 1027,
      "▁du": 1028,
      "▁inside": 1029,
      "▁terror": 1030,
      "▁user": 1031,
      "##ained": 1032,
      "##tives": 1033,
      "▁fr": 1034,
      "##ch": 1035,
      "▁ann": 1036,
      "▁master": 1037,
      "▁supp": 1038,
      "##gin": 1039,
      "##ipped": 1040,
      "##te": 1041,
      "▁many": 1042,
      "##ones": 1043,
      "▁bel": 1044,
      "##ush": 1045,
      "▁dirt": 1046,
      "ν": 1047,
      "ə": 1048,
      "▁workers": 1049,
      "▁listen": 1050,
      "▁coming": 1051,
      "##ements": 1052,
      "▁values": 1053,
      "▁por": 1054,
      "▁he": 1055,
      "▁link": 1056,
      "▁gl": 1057,
      "##at": 1058,
      "▁whale": 1059,
      "▁speech": 1060,
      "▁hair": 1061,
      "▁include": 1062,
      "##!!": 1063,
      "▁loss": 1064,
      "▁cell": 1065,
      "▁*****": 1066,
      "##ared": 1067,
      "▁history": 1068,
      "▁marriage": 1069,
      "▁—": 1070,
      "▁roo": 1071,
      "▁condition": 1072,
      "##ort": 1073,
      "##isions": 1074,
      "▁knowledge": 1075,
      "▁goods": 1076,
      "##3": 1077,
      "##ithst": 1078,
      "▁noon": 1079,
      "##kets": 1080,
      "▁future": 1081,
      "##of": 1082,
      "▁kitchen": 1083,
      "▁swim": 1084,
      "▁buil": 1085,
      "▁ach": 1086,
      ".": 1087,
      "▁newsp": 1088,
      "▁which": 1089,
      "##hip": 1090,
      "▁capac": 1091,
      "▁neighb": 1092,
      "##as": 1093,
      "▁rug": 1094,
      "▁heart": 1095,
      "##amb": 1096,
      "##mar": 1097,
      "▁represent": 1098,
      "▁brother": 1099,
      "▁nov": 1100,
      "▁function": 1101,
      "▁tur": 1102,
      "▁surp": 1103,
      "##ous": 1104,
      "▁breakf": 1105,
      "▁um": 1106,
      "▁oneself": 1107,
      "##igh": 1108,
      "z": 1109,
      "▁beat": 1110,
      "▁bu": 1111,
      "##.c": 1112,
      "▁legs": 1113,
      "▁dest": 1114,
      "▁gr": 1115,
      "▁following": 1116,
      "▁sand": 1117,
      "▁grab": 1118,
      "▁_": 1119,
      "▁told": 1120,
      "▁innov": 1121,
      "▁seen": 1122,
      "▁root": 1123,
      "}": 1124,
      "##ond": 1125,
      "▁seem": 1126,
      "▁ma": 1127,
      "##jo": 1128,
      "▁concern": 1129,
      "##ourn": 1130,
      "▁calling": 1131,
      "▁everyone": 1132,
      "##eep": 1133,
      "##{": 1134,
      "▁peop": 1135,
      "##eared": 1136,
      "▁always": 1137,
      "▁getting": 1138,
      "▁nt": 1139,
      "▁camel": 1140,
      "▁not": 1141,
      "▁numbers": 1142,
      "##ical": 1143,
      "▁citi": 1144,
      "▁im": 1145,
      "▁everything": 1146,
      "▁thru": 1147,
      "##♥": 1148,
      "▁intelligence": 1149,
      "##side": 1150,
      "▁certa": 1151,
      "##ligh": 1152,
      "▁floor": 1153,
      "▁write": 1154,
      "▁upon": 1155,
      "##aint": 1156,
      "▁technologies": 1157,
      "▁shall": 1158,
      "▁bun": 1159,
      "▁ba": 1160,
      "##o": 1161,
      "##ati": 1162,
      "▁comes": 1163,
      "##selve": 1164,
      "▁board": 1165,
      "▁cha": 1166,
      "##m": 1167,
      "▁sch": 1168,
      "##alth": 1169,
      "##orn": 1170,
      "##cent": 1171,
      "ρ": 1172,
      "##olution": 1173,
      "##aded": 1174,
      "▁instit": 1175,
      "▁payment": 1176,
      "▁cause": 1177,
      "▁reve": 1178,
      "##med": 1179,
      "▁!!!!!!!": 1180,
      "▁may": 1181,
      "▁thous": 1182,
      "▁h": 1183,
      "▁growing": 1184,
      "▁poss": 1185,
      "##al": 1186,
      "▁teach": 1187,
      "▁service": 1188,
      "▁continu": 1189,
      "##ide": 1190,
      "▁exh": 1191,
      "▁th": 1192,
      "▁talk": 1193,
      "▁pop": 1194,
      "▁boat": 1195,
      "##ten": 1196,
      "▁myself": 1197,
      "▁hors": 1198,
      "▁our": 1199,
      "▁speci": 1200,
      "##olding": 1201,
      "▁hor": 1202,
      "▁po": 1203,
      "##---": 1204,
      "##ands": 1205,
      "##aff": 1206,
      "½": 1207,
      "▁se": 1208,
      "▁bud": 1209,
      "▁particip": 1210,
      "▁vs.": 1211,
      "▁way": 1212,
      "▁character": 1213,
      "▁dey": 1214,
      "##=----": 1215,
      "▁prov": 1216,
      "▁than": 1217,
      "##ove": 1218,
      "▁pull": 1219,
      "##erv": 1220,
      "▁airlin": 1221,
      "##iqu": 1222,
      "▁pip": 1223,
      "##like": 1224,
      "▁serv": 1225,
      "▁analys": 1226,
      "▁sports": 1227,
      "##uzz": 1228,
      "▁been": 1229,
      "##ore": 1230,
      "▁ended": 1231,
      "▁lines": 1232,
      "▁property": 1233,
      "▁gon": 1234,
      "▁expl": 1235,
      "▁years": 1236,
      "▁mili": 1237,
      "##ange": 1238,
      "##ination": 1239,
      "▁fan": 1240,
      "##ether": 1241,
      "3": 1242,
      "##gle": 1243,
      "▁accept": 1244,
      "##us": 1245,
      "▁activity": 1246,
      "▁becom": 1247,
      "▁end": 1248,
      "##ches": 1249,
      "##w": 1250,
      "##port": 1251,
      "▁today": 1252,
      "##‘": 1253,
      "▁move": 1254,
      "▁lady": 1255,
      "▁consum": 1256,
      "##’t": 1257,
      "##ket": 1258,
      "##le": 1259,
      "##ar": 1260,
      "▁innovation": 1261,
      "##vest": 1262,
      "▁---=": 1263,
      "##ure": 1264,
      "▁commun": 1265,
      "▁b/": 1266,
      "▁cloth": 1267,
      "▁num": 1268,
      "▁des": 1269,
      "▁pm": 1270,
      "##amed": 1271,
      "▁organization": 1272,
      "▁married": 1273,
      "▁sector": 1274,
      ",": 1275,
      "▁tas": 1276,
      "##<": 1277,
      "▁mach": 1278,
      "▁course": 1279,
      "▁stuff": 1280,
      "▁....": 1281,
      "▁con": 1282,
      "##akes": 1283,
      "▁watched": 1284,
      "▁cig": 1285,
      "`": 1286,
      "▁goal": 1287,
      "##ount": 1288,
      "▁deal": 1289,
      "##ians": 1290,
      "##cr": 1291,
      "▁rece": 1292,
      "▁sing": 1293,
      "##olve": 1294,
      "▁hundreds": 1295,
      "▁cruise": 1296,
      "##ump": 1297,
      "▁jump": 1298,
      "▁giving": 1299,
      "▁sex": 1300,
      "##ins": 1301,
      "▁age": 1302,
      "▁started": 1303,
      "▁thy": 1304,
      "##uments": 1305,
      "▁tool": 1306,
      "▁exist": 1307,
      "▁pi": 1308,
      "▁hat": 1309,
      "##lus": 1310,
      "##”": 1311,
      "▁cre": 1312,
      "▁knows": 1313,
      "##ever": 1314,
      "##ced": 1315,
      "▁imagine": 1316,
      "▁whoever": 1317,
      "##ock": 1318,
      "▁another": 1319,
      "▁side": 1320,
      "▁rel": 1321,
      "▁band": 1322,
      "▁lead": 1323,
      "▁health": 1324,
      "##wn": 1325,
      "##tern": 1326,
      "▁gun": 1327,
      "▁term": 1328,
      "▁pill": 1329,
      "▁pulled": 1330,
      "##ulations": 1331,
      "/": 1332,
      "##ections": 1333,
      "▁chance": 1334,
      "##sh": 1335,
      "▁leg": 1336,
      "▁observed": 1337,
      "▁treatment": 1338,
      "##urday": 1339,
      "=": 1340,
      "▁did": 1341,
      "▁above": 1342,
      "▁though": 1343,
      "▁la": 1344,
      "▁included": 1345,
      "▁match": 1346,
      "##ed": 1347,
      "▁sec": 1348,
      "▁attention": 1349,
      "▁el": 1350,
      "▁resul": 1351,
      "##------": 1352,
      "##ych": 1353,
      "▁engine": 1354,
      "##all": 1355,
      "▁account": 1356,
      "▁gu": 1357,
      "▁mosqu": 1358,
      "▁weapons": 1359,
      "▁gets": 1360,
      "##inus": 1361,
      "##ened": 1362,
      "▁chang": 1363,
      "▁fund": 1364,
      "##xt": 1365,
      "▁mo": 1366,
      "▁music": 1367,
      "##ming": 1368,
      "##ist": 1369,
      "▁assoc": 1370,
      "##????????????????": 1371,
      "##pers": 1372,
      "##ined": 1373,
      "▁”": 1374,
      "##angu": 1375,
      "▁sun": 1376,
      "##overn": 1377,
      "▁befor": 1378,
      "##operation": 1379,
      "▁k": 1380,
      "▁dro": 1381,
      "▁snake": 1382,
      "▁fre": 1383,
      "▁exp": 1384,
      "▁treat": 1385,
      "▁cere": 1386,
      "▁kit": 1387,
      "▁cro": 1388,
      "##ub": 1389,
      "##els": 1390,
      "▁cust": 1391,
      "▁showed": 1392,
      "▁doll": 1393,
      "ʊ": 1394,
      "▁production": 1395,
      "▁tic": 1396,
      "##ower": 1397,
      "▁purch": 1398,
      "##ched": 1399,
      "▁comm": 1400,
      "##icul": 1401,
      "▁un": 1402,
      "##hin": 1403,
      "##ack": 1404,
      "▁ball": 1405,
      "##cle": 1406,
      "▁surround": 1407,
      "##ys": 1408,
      "▁says": 1409,
      "▁truck": 1410,
      "##onom": 1411,
      "▁stret": 1412,
      "▁ser": 1413,
      "▁child": 1414,
      "▁taking": 1415,
      "▁career": 1416,
      "▁helped": 1417,
      "▁posted": 1418,
      "▁stage": 1419,
      "▁stay": 1420,
      "▁dol": 1421,
      "φ": 1422,
      "##ottable": 1423,
      "▁holiday": 1424,
      "▁stand": 1425,
      "##ows": 1426,
      "##!": 1427,
      "▁minut": 1428,
      "▁safety": 1429,
      "▁der": 1430,
      "▁sk": 1431,
      "##erent": 1432,
      "▁cake": 1433,
      "▁dress": 1434,
      "▁birth": 1435,
      "▁leaves": 1436,
      "▁juice": 1437,
      "▁uses": 1438,
      "u": 1439,
      "▁web": 1440,
      "▁decisions": 1441,
      "##educ": 1442,
      "##liament": 1443,
      "##av": 1444,
      "##ang": 1445,
      "▁relig": 1446,
      "▁she": 1447,
      "##ashington": 1448,
      "▁econom": 1449,
      "▁settlement": 1450,
      "▁looked": 1451,
      "▁car": 1452,
      "##anted": 1453,
      "▁dwww": 1454,
      "▁butter": 1455,
      "▁contain": 1456,
      "▁opp": 1457,
      "▁inj": 1458,
      "##bon": 1459,
      "▁observ": 1460,
      "▁look": 1461,
      "##ances": 1462,
      "▁webs": 1463,
      "▁run": 1464,
      "##lled": 1465,
      "##sing": 1466,
      "▁restaur": 1467,
      "▁orig": 1468,
      "##ue": 1469,
      "▁bread": 1470,
      "##ound": 1471,
      "▁comments": 1472,
      "▁spoon": 1473,
      "▁occur": 1474,
      "▁this": 1475,
      "▁friday": 1476,
      "▁de": 1477,
      "##stances": 1478,
      "##------------": 1479,
      "▁places": 1480,
      "▁|--------+----------------------->": 1481,
      "▁began": 1482,
      "▁notwithstanding": 1483,
      "##ʃ": 1484,
      "▁bott": 1485,
      "▁ent": 1486,
      "▁respect": 1487,
      "▁hi": 1488,
      "##ind": 1489,
      "▁really": 1490,
      "▁colle": 1491,
      "▁lim": 1492,
      "▁peoples": 1493,
      "▁temper": 1494,
      "##ley": 1495,
      "▁count": 1496,
      "##;": 1497,
      "▁ships": 1498,
      "▁dep": 1499,
      "▁conv": 1500,
      "▁provided": 1501,
      "▁respon": 1502,
      "▁email": 1503,
      "##uty": 1504,
      "▁bub": 1505,
      "▁employment": 1506,
      "##room": 1507,
      "▁same": 1508,
      "▁jelly": 1509,
      "##ould": 1510,
      "▁steps": 1511,
      "▁aug": 1512,
      "##gan": 1513,
      "t": 1514,
      "▁neither": 1515,
      "▁served": 1516,
      "▁uh": 1517,
      "##ribution": 1518,
      "##aper": 1519,
      "##ached": 1520,
      "##cro": 1521,
      "▁query": 1522,
      "▁nap": 1523,
      "##ˈ": 1524,
      "▁math": 1525,
      "▁pati": 1526,
      "▁level": 1527,
      "▁connection": 1528,
      "▁track": 1529,
      "▁wan": 1530,
      "▁atlan": 1531,
      "▁reference": 1532,
      "▁few": 1533,
      "▁ke": 1534,
      "▁veget": 1535,
      "▁real": 1536,
      "##bur": 1537,
      "▁again": 1538,
      "▁))": 1539,
      "▁want": 1540,
      "##ption": 1541,
      "▁blanket": 1542,
      "##ice": 1543,
      "“": 1544,
      "▁command": 1545,
      "##gg": 1546,
      "##asing": 1547,
      "##ka": 1548,
      "▁questions": 1549,
      "▁war": 1550,
      "▁understand": 1551,
      "▁let": 1552,
      "##ow": 1553,
      "▁rock": 1554,
      "▁artic": 1555,
      "▁ur": 1556,
      "▁placed": 1557,
      "▁rate": 1558,
      "▁reduc": 1559,
      "&": 1560,
      "##yth": 1561,
      "▁effect": 1562,
      "##inks": 1563,
      "##ade": 1564,
      "##tered": 1565,
      "▁line": 1566,
      "##ons": 1567,
      "▁sub": 1568,
      "##elt": 1569,
      "▁disaster": 1570,
      "▁security": 1571,
      "▁siz": 1572,
      "▁worked": 1573,
      "▁machine": 1574,
      "##iation": 1575,
      "▁int": 1576,
      "▁detail": 1577,
      "▁town": 1578,
      "▁system": 1579,
      "▁pit": 1580,
      "▁mon": 1581,
      "▁pen": 1582,
      "##lation": 1583,
      "▁hour": 1584,
      "##lu": 1585,
      "##oot": 1586,
      "▁even": 1587,
      "##ums": 1588,
      "##atives": 1589,
      "▁fri": 1590,
      "##*": 1591,
      "▁smo": 1592,
      "##tors": 1593,
      "▁you": 1594,
      "▁shoe": 1595,
      "▁video": 1596,
      "##ambment": 1597,
      "##ness": 1598,
      "▁activities": 1599,
      "▁pencil": 1600,
      "##avor": 1601,
      "##>": 1602,
      "▁depar": 1603,
      "▁2": 1604,
      "▁hold": 1605,
      "▁=": 1606,
      "▁key": 1607,
      "▁madam": 1608,
      "▁wat": 1609,
      "##eted": 1610,
      "▁bomb": 1611,
      "##ington": 1612,
      "▁playing": 1613,
      "p": 1614,
      "▁third": 1615,
      "▁dri": 1616,
      "▁cir": 1617,
      "▁after": 1618,
      "##$": 1619,
      "▁anim": 1620,
      "▁kept": 1621,
      "▁spider": 1622,
      "##apers": 1623,
      "▁world": 1624,
      "▁tummy": 1625,
      "▁plane": 1626,
      "▁te": 1627,
      "##erved": 1628,
      "##³": 1629,
      "▁life": 1630,
      "▁....................": 1631,
      "▁je": 1632,
      "▁changed": 1633,
      "▁rule": 1634,
      "▁doub": 1635,
      "▁advant": 1636,
      "▁of": 1637,
      "##ish": 1638,
      "##tions": 1639,
      "##con": 1640,
      "▁net": 1641,
      "▁star": 1642,
      "##yed": 1643,
      "▁stopped": 1644,
      "▁charge": 1645,
      "##ple": 1646,
      "▁apple": 1647,
      "▁product": 1648,
      "▁presence": 1649,
      "▁sli": 1650,
      "##ect": 1651,
      "▁lost": 1652,
      "▁chick": 1653,
      "▁cos": 1654,
      "##very": 1655,
      "▁yo": 1656,
      "##airs": 1657,
      "▁instance": 1658,
      "▁spoke": 1659,
      "▁tour": 1660,
      "##ising": 1661,
      "##ributed": 1662,
      "▁iod": 1663,
      "▁mind": 1664,
      "▁climate": 1665,
      "▁doc": 1666,
      "▁prop": 1667,
      "▁mid": 1668,
      "▁big": 1669,
      "▁proced": 1670,
      "##ence": 1671,
      "▁mem": 1672,
      "▁plus": 1673,
      "▁expected": 1674,
      "##oney": 1675,
      "▁expect": 1676,
      "▁advice": 1677,
      "▁vac": 1678,
      "▁approach": 1679,
      "▁shows": 1680,
      "▁rail": 1681,
      "▁found": 1682,
      "▁themselves": 1683,
      "▁build": 1684,
      "▁rates": 1685,
      "▁fingers": 1686,
      "▁article": 1687,
      "▁islands": 1688,
      "▁|": 1689,
      "▁opened": 1690,
      "##board": 1691,
      "▁onto": 1692,
      "▁group": 1693,
      "▁*": 1694,
      "▁atlanta": 1695,
      "▁ago": 1696,
      "▁att": 1697,
      "▁produc": 1698,
      "▁policy": 1699,
      "▁chap": 1700,
      "▁sha": 1701,
      "▁sitting": 1702,
      "##ants": 1703,
      "▁----------------------------------------------------------------------": 1704,
      "##dle": 1705,
      "▁clean": 1706,
      "▁walked": 1707,
      "##bo": 1708,
      "▁???": 1709,
      "▁chall": 1710,
      "▁sent": 1711,
      "▁encour": 1712,
      "##owers": 1713,
      "ł": 1714,
      "##ried": 1715,
      "##cles": 1716,
      "##ling": 1717,
      "##rol": 1718,
      "▁water": 1719,
      "##·": 1720,
      "▁·": 1721,
      "##er": 1722,
      "▁screen": 1723,
      "▁experien": 1724,
      "▁flowers": 1725,
      "##gh": 1726,
      "▁vide": 1727,
      "##ories": 1728,
      "▁orders": 1729,
      "▁view": 1730,
      "▁within": 1731,
      "▁univers": 1732,
      "▁fi": 1733,
      "##ds": 1734,
      "##tic": 1735,
      "▁ought": 1736,
      "##yond": 1737,
      "▁wom": 1738,
      "▁remember": 1739,
      "##ides": 1740,
      "▁amid": 1741,
      "▁storm": 1742,
      "▁delivery": 1743,
      "▁unto": 1744,
      "▁cla": 1745,
      "q": 1746,
      "##ink": 1747,
      "##br": 1748,
      "▁bat": 1749,
      "▁sugg": 1750,
      "▁markets": 1751,
      "▁spring": 1752,
      "▁elements": 1753,
      "▁company": 1754,
      "▁terms": 1755,
      "▁degre": 1756,
      "▁benef": 1757,
      "▁def": 1758,
      "▁development": 1759,
      "##ency": 1760,
      "▁ste": 1761,
      "▁year": 1762,
      "##iting": 1763,
      "▁liked": 1764,
      "▁coffee": 1765,
      "▁dose": 1766,
      "##men": 1767,
      "▁mer": 1768,
      "▁del": 1769,
      "▁effects": 1770,
      "▁asked": 1771,
      "d": 1772,
      "▁my": 1773,
      "▁d": 1774,
      "▁,?": 1775,
      "##ences": 1776,
      "▁indust": 1777,
      "▁beach": 1778,
      "▁spell": 1779,
      "▁tri": 1780,
      "##ivers": 1781,
      "▁journ": 1782,
      "▁mus": 1783,
      "▁good": 1784,
      "▁loc": 1785,
      "▁counter": 1786,
      "##zation": 1787,
      "##day": 1788,
      "##si": 1789,
      "▁-----------------------------------------------------------------": 1790,
      "▁news": 1791,
      "▁tro": 1792,
      "##th": 1793,
      "▁contact": 1794,
      "ο": 1795,
      "##ars": 1796,
      "▁com": 1797,
      "▁tal": 1798,
      "##iction": 1799,
      "▁aut": 1800,
      "▁soil": 1801,
      "▁div": 1802,
      "▁pil": 1803,
      "▁color": 1804,
      "▁t": 1805,
      "▁writ": 1806,
      "▁poin": 1807,
      "##vel": 1808,
      "##tery": 1809,
      "▁south": 1810,
      "▁join": 1811,
      "2": 1812,
      "▁cri": 1813,
      "▁considered": 1814,
      "▁pictures": 1815,
      "▁defense": 1816,
      "▁pas": 1817,
      "▁changes": 1818,
      "▁education": 1819,
      "▁til": 1820,
      "##ner": 1821,
      "▁allowed": 1822,
      "▁your": 1823,
      "▁countries": 1824,
      "▁sti": 1825,
      "▁sty": 1826,
      "▁gone": 1827,
      "▁chan": 1828,
      "##iated": 1829,
      "▁enc": 1830,
      "##1": 1831,
      "##erta": 1832,
      "▁whose": 1833,
      "▁choose": 1834,
      "##ication": 1835,
      "▁det": 1836,
      "##ɔ": 1837,
      "▁critic": 1838,
      "##oder": 1839,
      "▁offered": 1840,
      "▁=---": 1841,
      "##&": 1842,
      "▁stock": 1843,
      "▁hall": 1844,
      "{": 1845,
      "ε": 1846,
      "▁ideas": 1847,
      "▁proposed": 1848,
      "##anding": 1849,
      "▁gri": 1850,
      "▁gener": 1851,
      "▁tiger": 1852,
      "##ps": 1853,
      "▁furn": 1854,
      "▁serve": 1855,
      "##row": 1856,
      "##_": 1857,
      "▁glass": 1858,
      "▁esc": 1859,
      "▁change": 1860,
      "▁held": 1861,
      "##if": 1862,
      "##acters": 1863,
      "##œ": 1864,
      "▁noise": 1865,
      "##out": 1866,
      "##ʁ": 1867,
      "##ety": 1868,
      "▁studies": 1869,
      "▁industry": 1870,
      "▁amidst": 1871,
      "▁downtown": 1872,
      "▁dance": 1873,
      "▁husband": 1874,
      "▁emp": 1875,
      "▁legisl": 1876,
      "▁tr": 1877,
      "##φ": 1878,
      "▁planning": 1879,
      "▁pred": 1880,
      "##ra": 1881,
      "▁’’": 1882,
      "▁ext": 1883,
      "##ema": 1884,
      "▁wind": 1885,
      "▁’m": 1886,
      "##ghting": 1887,
      "▁vol": 1888,
      "0": 1889,
      "▁e-mail": 1890,
      "▁got": 1891,
      "°": 1892,
      "##ining": 1893,
      "##oices": 1894,
      "##σ": 1895,
      "▁who's": 1896,
      "▁lose": 1897,
      "▁************************************************": 1898,
      "▁ev": 1899,
      "##een": 1900,
      "▁sandwich": 1901,
      "▁we": 1902,
      "’": 1903,
      "▁momma": 1904,
      "▁en": 1905,
      "▁sort": 1906,
      "▁eng": 1907,
      "▁art": 1908,
      "##****": 1909,
      "▁gar": 1910,
      "▁conc": 1911,
      "##wic": 1912,
      "▁sat": 1913,
      "##der": 1914,
      "##ens": 1915,
      "▁whic": 1916,
      "▁airl": 1917,
      "▁forces": 1918,
      "##ta": 1919,
      "▁enab": 1920,
      "▁share": 1921,
      "▁pro": 1922,
      "##ury": 1923,
      "▁prom": 1924,
      "##let": 1925,
      "▁create": 1926,
      "##ration": 1927,
      "##______": 1928,
      "▁ou": 1929,
      "▁request": 1930,
      "▁ind": 1931,
      "▁quino": 1932,
      "▁horsie": 1933,
      "##li": 1934,
      "▁mathema": 1935,
      "▁air": 1936,
      "▁saf": 1937,
      "##ʒ": 1938,
      "▁sell": 1939,
      "▁es": 1940,
      "▁sym": 1941,
      "##olved": 1942,
      "k": 1943,
      "▁came": 1944,
      "▁’d": 1945,
      "▁woman": 1946,
      "##hold": 1947,
      "▁arrived": 1948,
      "##tion": 1949,
      "▁event": 1950,
      "▁achie": 1951,
      "##ce": 1952,
      "▁middle": 1953,
      "▁tem": 1954,
      "▁susp": 1955,
      "##el": 1956,
      "▁intel": 1957,
      "▁fem": 1958,
      "##here": 1959,
      "##ug": 1960,
      "##orted": 1961,
      "▁holding": 1962,
      "▁medic": 1963,
      "▁killed": 1964,
      "##acks": 1965,
      "##nec": 1966,
      "▁independence": 1967,
      "▁levels": 1968,
      "##ival": 1969,
      "▁internet": 1970,
      "##sel": 1971,
      "##[": 1972,
      "▁girls": 1973,
      "##lling": 1974,
      "▁beauty": 1975,
      "▁hang": 1976,
      "▁`": 1977,
      "▁attem": 1978,
      "5": 1979,
      "▁anoth": 1980,
      "▁past": 1981,
      "▁miss": 1982,
      "▁reven": 1983,
      "##dit": 1984,
      "##ma": 1985,
      "▁pres": 1986,
      "▁famili": 1987,
      "##ning": 1988,
      "##phere": 1989,
      "##ended": 1990,
      "▁cle": 1991,
      "▁governments": 1992,
      "▁pants": 1993,
      "##ceed": 1994,
      "▁wake": 1995,
      "▁ps": 1996,
      "##iness": 1997,
      "▁spec": 1998,
      "▁staff": 1999,
      "▁happened": 2000,
      "##ities": 2001,
      "▁access": 2002,
      "▁forms": 2003,
      "##ard": 2004,
      "▁together": 2005,
      "##ises": 2006,
      "▁meals": 2007,
      "##reds": 2008,
      "▁refer": 2009,
      "▁atmos": 2010,
      "▁whatever": 2011,
      "▁novel": 2012,
      "▁liter": 2013,
      "##ging": 2014,
      "##ater": 2015,
      "▁caught": 2016,
      "▁because": 2017,
      "▁go": 2018,
      "▁struc": 2019,
      "▁'m": 2020,
      "▁gall": 2021,
      "▁doing": 2022,
      "▁arms": 2023,
      "▁takes": 2024,
      "▁!?": 2025,
      "▁list": 2026,
      "▁author": 2027,
      "▁students": 2028,
      "##ension": 2029,
      "▁species": 2030,
      "▁leader": 2031,
      "▁place": 2032,
      "▁sunday": 2033,
      "l": 2034,
      "▁bite": 2035,
      "##inated": 2036,
      "▁cros": 2037,
      "▁families": 2038,
      "▁win": 2039,
      "▁front": 2040,
      "##aster": 2041,
      "##iding": 2042,
      "##ea": 2043,
      "##tive": 2044,
      "▁characters": 2045,
      "▁culture": 2046,
      "▁ident": 2047,
      "▁station": 2048,
      "▁based": 2049,
      "##augh": 2050,
      "▁nume": 2051,
      "▁rememb": 2052,
      "##bers": 2053,
      "▁argument": 2054,
      "▁find": 2055,
      "##ted": 2056,
      "##acter": 2057,
      "▁supposed": 2058,
      "▁television": 2059,
      "▁dec": 2060,
      "##alities": 2061,
      "▁systems": 2062,
      "▁aud": 2063,
      "##ate": 2064,
      "##lief": 2065,
      "##onstr": 2066,
      "▁chee": 2067,
      "▁bit": 2068,
      "##lications": 2069,
      "▁bet": 2070,
      "##re": 2071,
      "##aries": 2072,
      "##osing": 2073,
      "▁sour": 2074,
      "▁teeth": 2075,
      "▁wh": 2076,
      "▁filled": 2077,
      "▁fil": 2078,
      "▁doggie": 2079,
      "##mitted": 2080,
      "▁swee": 2081,
      "▁plays": 2082,
      "▁ref": 2083,
      "▁can": 2084,
      "▁telephone": 2085,
      "▁shorts": 2086,
      "▁yet": 2087,
      "▁tried": 2088,
      "▁&": 2089,
      "▁choice": 2090,
      "##ents": 2091,
      "##lly": 2092,
      "##oin": 2093,
      "▁believed": 2094,
      "▁meat": 2095,
      "▁offices": 2096,
      "▁cats": 2097,
      "##ny": 2098,
      "▁----==": 2099,
      "##ulated": 2100,
      "▁plants": 2101,
      "▁site": 2102,
      "▁put": 2103,
      "##pos": 2104,
      "▁structure": 2105,
      "▁market": 2106,
      "▁muse": 2107,
      "▁shut": 2108,
      "##iv": 2109,
      "##------->": 2110,
      "▁sme": 2111,
      "▁compon": 2112,
      "▁discussion": 2113,
      "##lic": 2114,
      "##urity": 2115,
      "▁arrang": 2116,
      "##alt": 2117,
      "##eel": 2118,
      "##ident": 2119,
      "##icide": 2120,
      "▁asking": 2121,
      "▁imple": 2122,
      "##--": 2123,
      "▁cat": 2124,
      "▁different": 2125,
      "▁toast": 2126,
      "▁guid": 2127,
      "##its": 2128,
      "▁cookies": 2129,
      "▁basil": 2130,
      "▁instead": 2131,
      "▁ca": 2132,
      "▁department": 2133,
      "▁hide": 2134,
      "▁purpos": 2135,
      "▁thre": 2136,
      "▁difficul": 2137,
      "▁pe": 2138,
      "▁opposite": 2139,
      "##pts": 2140,
      "▁som": 2141,
      "▁categ": 2142,
      "##!!!!!!!!": 2143,
      "▁solution": 2144,
      "▁drop": 2145,
      "▁took": 2146,
      "▁daughter": 2147,
      "▁rev": 2148,
      "▁test": 2149,
      "▁recomm": 2150,
      "▁...": 2151,
      "##ame": 2152,
      "##sed": 2153,
      "▁under": 2154,
      "##ening": 2155,
      "##ats": 2156,
      "##elf": 2157,
      "▁letters": 2158,
      "##oo": 2159,
      "▁fill": 2160,
      "##ot": 2161,
      "▁curr": 2162,
      "▁rob": 2163,
      "▁without": 2164,
      "##tivity": 2165,
      "▁plate": 2166,
      "##pen": 2167,
      "▁writer": 2168,
      "▁bi": 2169,
      "▁anthrax": 2170,
      "##isted": 2171,
      "▁windows": 2172,
      "▁along": 2173,
      "##rated": 2174,
      "▁visited": 2175,
      "##uses": 2176,
      "▁tax": 2177,
      "▁clothing": 2178,
      "##ients": 2179,
      "▁address": 2180,
      "▁done": 2181,
      "##ial": 2182,
      "##ans": 2183,
      "##dy": 2184,
      "##vers": 2185,
      "▁soldiers": 2186,
      "##min": 2187,
      "##imed": 2188,
      "▁wheel": 2189,
      "##asts": 2190,
      "▁question": 2191,
      "##derst": 2192,
      "%": 2193,
      "##ledge": 2194,
      "▁hea": 2195,
      "##ters": 2196,
      "▁king": 2197,
      "##eration": 2198,
      "##ung": 2199,
      "▁li": 2200,
      "##}": 2201,
      "##per": 2202,
      "▁pic": 2203,
      "▁report": 2204,
      "▁performance": 2205,
      "▁me": 2206,
      "##----------": 2207,
      "▁garden": 2208,
      "##urs": 2209,
      "▁id": 2210,
      "▁looking": 2211,
      "##ume": 2212,
      "▁weap": 2213,
      "##ro": 2214,
      "▁stat": 2215,
      "▁somebody": 2216,
      "##oint": 2217,
      "##raph": 2218,
      "▁court": 2219,
      "▁princ": 2220,
      "##ght": 2221,
      "▁ign": 2222,
      "##anced": 2223,
      "▁putting": 2224,
      "▁programme": 2225,
      "▁cover": 2226,
      "8": 2227,
      "▁cow": 2228,
      "##velop": 2229,
      "▁sect": 2230,
      "##ably": 2231,
      "##cess": 2232,
      "##ouch": 2233,
      "▁each": 2234,
      "##utation": 2235,
      "##ror": 2236,
      "▁reported": 2237,
      "▁wor": 2238,
      "▁stop": 2239,
      "▁missed": 2240,
      "##owed": 2241,
      "▁euro": 2242,
      "▁conflict": 2243,
      "##body": 2244,
      "▁home": 2245,
      "▁suggest": 2246,
      "▁poli": 2247,
      "##stem": 2248,
      "▁fam": 2249,
      "▁uhhuh": 2250,
      "##ab": 2251,
      "##works": 2252,
      "▁such": 2253,
      "##orm": 2254,
      "▁cup": 2255,
      "▁given": 2256,
      "##ugg": 2257,
      "▁lives": 2258,
      "▁behavi": 2259,
      "##ork": 2260,
      "▁parties": 2261,
      "▁mother": 2262,
      "##inging": 2263,
      "▁itself": 2264,
      "##ison": 2265,
      "▁costs": 2266,
      "▁suc": 2267,
      "▁amb": 2268,
      ">": 2269,
      "▁turn": 2270,
      "▁still": 2271,
      "▁bear": 2272,
      "▁reg": 2273,
      "▁value": 2274,
      "▁var": 2275,
      "##iate": 2276,
      "##ateg": 2277,
      "▁fax": 2278,
      "▁writing": 2279,
      "##ife": 2280,
      "▁jo": 2281,
      "▁yourself": 2282,
      "##hic": 2283,
      "▁alt": 2284,
      "▁ord": 2285,
      "▁decl": 2286,
      "▁mic": 2287,
      "##za": 2288,
      "▁man": 2289,
      "▁parliament": 2290,
      "▁carrying": 2291,
      "##ain": 2292,
      "▁!!": 2293,
      "▁inf": 2294,
      "▁books": 2295,
      "▁anal": 2296,
      "##ess": 2297,
      "##aging": 2298,
      "##tsbur": 2299,
      "▁agreed": 2300,
      "▁flights": 2301,
      "▁death": 2302,
      "▁much": 2303,
      "▁meant": 2304,
      "▁besides": 2305,
      "▁franc": 2306,
      "▁ins": 2307,
      "##enty": 2308,
      "▁vote": 2309,
      "##band": 2310,
      "▁meeting": 2311,
      "▁suicide": 2312,
      "▁rest": 2313,
      "▁force": 2314,
      "##ette": 2315,
      "##ey": 2316,
      "▁atmosphere": 2317,
      "##uation": 2318,
      "▁back": 2319,
      "##ense": 2320,
      "▁lots": 2321,
      "▁from": 2322,
      "▁words": 2323,
      "▁seat": 2324,
      "▁cart": 2325,
      "▁road": 2326,
      "▁bill": 2327,
      "▁fir": 2328,
      "▁moving": 2329,
      "##sul": 2330,
      "##til": 2331,
      "▁mentioned": 2332,
      "▁website": 2333,
      "[PAD]": 2334,
      "##oun": 2335,
      "▁argu": 2336,
      "▁thanks": 2337,
      "##sts": 2338,
      "##orders": 2339,
      "▁adop": 2340,
      "▁information": 2341,
      "##ester": 2342,
      "##ign": 2343,
      "##overed": 2344,
      "##able": 2345,
      "▁had": 2346,
      "##ees": 2347,
      "▁1": 2348,
      "▁attack": 2349,
      "##ely": 2350,
      "▁theirs": 2351,
      "•": 2352,
      "##ibility": 2353,
      "▁process": 2354,
      "##ually": 2355,
      "##ered": 2356,
      "▁coup": 2357,
      "▁between": 2358,
      "▁great": 2359,
      "▁photograph": 2360,
      "▁long": 2361,
      "▁lay": 2362,
      "##ions": 2363,
      "▁freedom": 2364,
      "▁provide": 2365,
      "##self": 2366,
      "##ol": 2367,
      "##bb": 2368,
      "▁competition": 2369,
      "##eness": 2370,
      "▁philadelphia": 2371,
      "▁exper": 2372,
      "▁including": 2373,
      "##erence": 2374,
      "▁democracy": 2375,
      "##ut": 2376,
      "##vail": 2377,
      "##ented": 2378,
      "##line": 2379,
      "▁has": 2380,
      "▁woud": 2381,
      "##ʻ": 2382,
      "▁`s": 2383,
      "^": 2384,
      "▁pa": 2385,
      "▁feel": 2386,
      "▁feet": 2387,
      "▁nor": 2388,
      "▁metal": 2389,
      "▁'s": 2390,
      "▁sy": 2391,
      "##********************************": 2392,
      "##aft": 2393,
      "▁generation": 2394,
      "##g": 2395,
      "##ory": 2396,
      "##rec": 2397,
      "##ick": 2398,
      "##urch": 2399,
      "▁theory": 2400,
      "##ated": 2401,
      "▁ass": 2402,
      "▁location": 2403,
      "▁ye": 2404,
      "▁also": 2405,
      "##uth": 2406,
      "##fication": 2407,
      "##edom": 2408,
      "##ote": 2409,
      "▁re": 2410,
      "▁camp": 2411,
      "▁type": 2412,
      "▁happens": 2413,
      "##ocr": 2414,
      "▁thou": 2415,
      "▁require": 2416,
      "##eas": 2417,
      "▁francisco": 2418,
      "▁enjo": 2419,
      "▁december": 2420,
      "##ounts": 2421,
      "▁ex": 2422,
      "##erc": 2423,
      "▁population": 2424,
      "▁laws": 2425,
      "▁mod": 2426,
      "##rows": 2427,
      "##ied": 2428,
      "▁pittsburgh": 2429,
      "▁wash": 2430,
      "▁da": 2431,
      "##ri": 2432,
      "##zer": 2433,
      "▁swww": 2434,
      "▁yourselves": 2435,
      "▁rent": 2436,
      "##rop": 2437,
      "##ned": 2438,
      "▁ju": 2439,
      "▁bas": 2440,
      "▁get": 2441,
      "##----": 2442,
      "ʒ": 2443,
      "##nding": 2444,
      "▁hole": 2445,
      "▁into": 2446,
      "▁‘": 2447,
      "▁civ": 2448,
      "▁l": 2449,
      "▁store": 2450,
      "##tity": 2451,
      "##mentation": 2452,
      "##ounced": 2453,
      "▁puppy": 2454,
      "##work": 2455,
      "▁follow": 2456,
      "▁reserv": 2457,
      "▁insur": 2458,
      "##x": 2459,
      "▁dallas": 2460,
      "▁most": 2461,
      "##omp": 2462,
      "▁duck": 2463,
      "▁method": 2464,
      "▁church": 2465,
      "##ww": 2466,
      "##ret": 2467,
      "▁creating": 2468,
      "▁mech": 2469,
      "▁creation": 2470,
      "▁coun": 2471,
      "▁dogs": 2472,
      "▁ate": 2473,
      "##end": 2474,
      "##ts": 2475,
      "▁surface": 2476,
      "▁cook": 2477,
      "▁addition": 2478,
      "▁circ": 2479,
      "▁cream": 2480,
      "##uring": 2481,
      "##irst": 2482,
      "▁s": 2483,
      "▁pay": 2484,
      "##sm": 2485,
      "▁went": 2486,
      "##ril": 2487,
      "##oon": 2488,
      "##war": 2489,
      "▁search": 2490,
      "##uch": 2491,
      "##ct": 2492,
      "9": 2493,
      "##υ": 2494,
      "##tain": 2495,
      "▁obt": 2496,
      "##ich": 2497,
      "▁rules": 2498,
      "ω": 2499,
      "##........": 2500,
      "▁released": 2501,
      "##ummy": 2502,
      "▁admin": 2503,
      "##ues": 2504,
      "▁ris": 2505,
      "▁tou": 2506,
      "▁bug": 2507,
      "▁paper": 2508,
      "##ited": 2509,
      "##ers": 2510,
      "▁din": 2511,
      "▁agreement": 2512,
      "▁dis": 2513,
      "▁them": 2514,
      "##ices": 2515,
      "##ified": 2516,
      "▁these": 2517,
      "▁tea": 2518,
      "▁v": 2519,
      "▁<": 2520,
      "##ə": 2521,
      "▁try": 2522,
      "▁finish": 2523,
      "##-": 2524,
      "▁nation": 2525,
      "▁noticed": 2526,
      "##ads": 2527,
      "▁either": 2528,
      "▁discuss": 2529,
      "##als": 2530,
      "##ther": 2531,
      "▁dem": 2532,
      "▁reading": 2533,
      "▁recommend": 2534,
      "##amples": 2535,
      "▁san": 2536,
      ")": 2537,
      "▁ensure": 2538,
      "##ctions": 2539,
      "##llow": 2540,
      "▁jud": 2541,
      "▁exec": 2542,
      "▁fix": 2543,
      "▁concept": 2544,
      "##io": 2545,
      "▁audience": 2546,
      "▁card": 2547,
      "▁discus": 2548,
      "##im": 2549,
      "##qu": 2550,
      "▁pot": 2551,
      "##tures": 2552,
      "▁schol": 2553,
      "▁cost": 2554,
      "▁ro": 2555,
      "##ided": 2556,
      "▁minute": 2557,
      "##thing": 2558,
      "▁tech": 2559,
      "▁minus": 2560,
      "▁send": 2561,
      "▁impro": 2562,
      "##lication": 2563,
      "▁wo": 2564,
      "▁inclu": 2565,
      "▁egg": 2566,
      "##mon": 2567,
      "▁begin": 2568,
      "▁below": 2569,
      "▁beside": 2570,
      "##ost": 2571,
      "▁fun": 2572,
      "▁sit": 2573,
      "▁appear": 2574,
      "▁second": 2575,
      "▁july": 2576,
      "##d": 2577,
      "▁inst": 2578,
      "▁services": 2579,
      "##~": 2580,
      "▁emb": 2581,
      "~": 2582,
      "▁displ": 2583,
      "▁proper": 2584,
      "##op": 2585,
      "##ha": 2586,
      "##ility": 2587,
      "##ops": 2588,
      "##ip": 2589,
      "-": 2590,
      "▁pros": 2591,
      "▁talking": 2592,
      "▁prep": 2593,
      "##uh": 2594,
      "##++": 2595,
      "##**********************************": 2596,
      "▁knew": 2597,
      "▁na": 2598,
      "▁visit": 2599,
      "▁makes": 2600,
      "▁remain": 2601,
      "▁issu": 2602,
      "##uk": 2603,
      "▁plans": 2604,
      "##own": 2605,
      "▁save": 2606,
      "▁apart": 2607,
      "▁tree": 2608,
      "##ative": 2609,
      "1": 2610,
      "##ck": 2611,
      "▁isl": 2612,
      "▁officials": 2613,
      "##’": 2614,
      "▁return": 2615,
      "##ac": 2616,
      "▁customers": 2617,
      "##uts": 2618,
      "▁par": 2619,
      "##ince": 2620,
      "##memb": 2621,
      "##ak": 2622,
      "▁piece": 2623,
      "▁regar": 2624,
      "▁guar": 2625,
      "##anks": 2626,
      "##our": 2627,
      "##af": 2628,
      "▁yesterday": 2629,
      "▁notice": 2630,
      "##ading": 2631,
      "▁only": 2632,
      "▁improve": 2633,
      "▁hav": 2634,
      "▁appearance": 2635,
      "##.d": 2636,
      "##p": 2637,
      "##fri": 2638,
      "▁ques": 2639,
      "▁behin": 2640,
      "▁forth": 2641,
      "▁ahead": 2642,
      "▁quite": 2643,
      "##uss": 2644,
      "▁ability": 2645,
      "▁uncle": 2646,
      "▁office": 2647,
      "##inds": 2648,
      "##----------------": 2649,
      "##–": 2650,
      "##ry": 2651,
      "▁speaking": 2652,
      "▁summer": 2653,
      "▁n’t": 2654,
      "▁apartment": 2655,
      "▁anybody": 2656,
      "▁_______": 2657,
      "##ged": 2658,
      "##key": 2659,
      "▁emer": 2660,
      "▁sho": 2661,
      "▁carried": 2662,
      "▁bee": 2663,
      "▁scale": 2664,
      "▁grew": 2665,
      "##utions": 2666,
      "▁qu": 2667,
      "##orrow": 2668,
      "##ton": 2669,
      "##aking": 2670,
      "▁manner": 2671,
      "▁?!": 2672,
      "##ily": 2673,
      "▁---": 2674,
      "##phone": 2675,
      "▁import": 2676,
      "##ail": 2677,
      "##ators": 2678,
      "▁ren": 2679,
      "▁meaning": 2680,
      "##idden": 2681,
      "▁chees": 2682,
      "##me": 2683,
      "▁propos": 2684,
      "▁swe": 2685,
      "▁community": 2686,
      "▁guy": 2687,
      "▁having": 2688,
      "##'t": 2689,
      "##gency": 2690,
      "▁ants": 2691,
      "▁bedroom": 2692,
      "y": 2693,
      "▁eye": 2694,
      "▁hos": 2695,
      "▁cor": 2696,
      "▁see": 2697,
      "##ression": 2698,
      "▁like": 2699,
      "▁ben": 2700,
      "##wa": 2701,
      "▁all": 2702,
      "##-------": 2703,
      "▁alongside": 2704,
      "▁story": 2705,
      "##erate": 2706,
      "▁-----------------": 2707,
      "▁,": 2708,
      "▁november": 2709,
      "▁languages": 2710,
      "##cri": 2711,
      "##oc": 2712,
      "##pping": 2713,
      "▁visa": 2714,
      "▁inter": 2715,
      "▁environ": 2716,
      "▁president": 2717,
      "▁shape": 2718,
      "##anges": 2719,
      "▁breath": 2720,
      "▁ai": 2721,
      "▁series": 2722,
      "▁deter": 2723,
      "##place": 2724,
      "▁?": 2725,
      "▁meal": 2726,
      "▁note": 2727,
      "▁won": 2728,
      "▁techn": 2729,
      "▁pri": 2730,
      "▁effort": 2731,
      "▁belon": 2732,
      "▁option": 2733,
      "▁police": 2734,
      "▁response": 2735,
      "▁died": 2736,
      "▁where": 2737,
      "▁never": 2738,
      "▁rad": 2739,
      "▁consid": 2740,
      "▁the": 2741,
      "▁located": 2742,
      "##osed": 2743,
      "▁bom": 2744,
      "##ali": 2745,
      "▁himself": 2746,
      "▁eggs": 2747,
      "▁record": 2748,
      "▁sw": 2749,
      "▁dinner": 2750,
      "▁balt": 2751,
      "▁sales": 2752,
      "##ule": 2753,
      "▁mi": 2754,
      "▁love": 2755,
      "▁land": 2756,
      "▁names": 2757,
      "▁behind": 2758,
      "▁training": 2759,
      "##ames": 2760,
      "▁dad": 2761,
      "▁ide": 2762,
      "▁fin": 2763,
      "▁resp": 2764,
      "▁amend": 2765,
      "▁spent": 2766,
      "▁preven": 2767,
      "▁loan": 2768,
      "##---------------": 2769,
      "▁>": 2770,
      "##isco": 2771,
      "▁pre": 2772,
      "▁focus": 2773,
      "▁underneath": 2774,
      "##ders": 2775,
      "▁thank": 2776,
      "##ire": 2777,
      "▁manager": 2778,
      "##aged": 2779,
      "▁eff": 2780,
      "▁believe": 2781,
      "▁technology": 2782,
      "▁crack": 2783,
      "##resent": 2784,
      "▁morn": 2785,
      "##cakes": 2786,
      "▁failed": 2787,
      "▁facts": 2788,
      "▁reasons": 2789,
      "▁travel": 2790,
      "e": 2791,
      "▁arm": 2792,
      "##oard": 2793,
      "▁seek": 2794,
      "▁wit": 2795,
      "▁island": 2796,
      "▁tape": 2797,
      "▁media": 2798,
      "▁lo": 2799,
      "▁luck": 2800,
      "##ø": 2801,
      "▁tu": 2802,
      "▁spe": 2803,
      "▁make": 2804,
      "▁writers": 2805,
      "##ods": 2806,
      "▁an": 2807,
      "—": 2808,
      "▁table": 2809,
      "▁opinion": 2810,
      "##ib": 2811,
      "▁non": 2812,
      "▁trouble": 2813,
      "▁exce": 2814,
      "▁section": 2815,
      "▁goes": 2816,
      "##a": 2817,
      "##on": 2818,
      "▁roll": 2819,
      "##ty": 2820,
      "##uals": 2821,
      "##urned": 2822,
      "▁transport": 2823,
      "▁temperature": 2824,
      "▁describ": 2825,
      "▁prin": 2826,
      "##μ": 2827,
      "▁!!!!!!!!!!": 2828,
      "##ording": 2829,
      "##her": 2830,
      "▁pushed": 2831,
      "▁june": 2832,
      "▁res": 2833,
      "▁government": 2834,
      "▁military": 2835,
      "▁adv": 2836,
      "▁tie": 2837,
      "##ama": 2838,
      "##ired": 2839,
      "▁fell": 2840,
      "##ien": 2841,
      "▁while": 2842,
      "##ybody": 2843,
      "▁gard": 2844,
      "▁seems": 2845,
      "▁paid": 2846,
      "▁her": 2847,
      "▁mag": 2848,
      "##iron": 2849,
      "##ibilities": 2850,
      "##ked": 2851,
      "­": 2852,
      "▁ones": 2853,
      "▁challen": 2854,
      "▁hand": 2855,
      "▁am": 2856,
      "▁menu": 2857,
      "##ocracy": 2858,
      "▁someone": 2859,
      "##ee": 2860,
      "▁develop": 2861,
      "▁----": 2862,
      "▁ship": 2863,
      "##imp": 2864,
      "##ivid": 2865,
      "▁sold": 2866,
      "w": 2867,
      "▁efforts": 2868,
      "##oring": 2869,
      "▁half": 2870,
      "##art": 2871,
      "▁sea": 2872,
      "▁dog": 2873,
      "▁throw": 2874,
      "▁when": 2875,
      "##q": 2876,
      "▁mix": 2877,
      "▁...............": 2878,
      "♥": 2879,
      "▁concl": 2880,
      "▁care": 2881,
      "▁hit": 2882,
      "▁snow": 2883,
      "▁eyes": 2884,
      "▁bar": 2885,
      "▁serves": 2886,
      "##tim": 2887,
      "##adel": 2888,
      "▁beyond": 2889,
      "▁str": 2890,
      "▁cases": 2891,
      "▁offic": 2892,
      "▁airlines": 2893,
      "º": 2894,
      "##artment": 2895,
      "▁wee": 2896,
      "##+": 2897,
      "▁litt": 2898,
      "▁peace": 2899,
      "▁bike": 2900,
      "▁insp": 2901,
      "▁camera": 2902,
      "##use": 2903,
      "▁organ": 2904,
      "▁cereal": 2905,
      "▁b": 2906,
      "β": 2907,
      "▁le": 2908,
      "▁?!?": 2909,
      "▁conn": 2910,
      "▁gave": 2911,
      "▁trans": 2912,
      "ɔ": 2913,
      "▁expos": 2914,
      "▁n't": 2915,
      "##.m": 2916,
      "▁item": 2917,
      "▁one": 2918,
      "##ont": 2919,
      "+": 2920,
      ";": 2921,
      "▁repres": 2922,
      "!": 2923,
      "▁happ": 2924,
      "▁bed": 2925,
      "▁chec": 2926,
      "▁wall": 2927,
      "▁sus": 2928,
      "##ture": 2929,
      "▁chocol": 2930,
      "##%": 2931,
      "▁sup": 2932,
      "▁subject": 2933,
      "▁laugh": 2934,
      "▁estim": 2935,
      "▁fol": 2936,
      "##ional": 2937,
      "]": 2938,
      "##rit": 2939,
      "▁drink": 2940,
      "##ete": 2941,
      "▁colleag": 2942,
      "▁obs": 2943,
      "▁through": 2944,
      "##ord": 2945,
      "▁heat": 2946,
      "▁bos": 2947,
      "##isl": 2948,
      "▁trave": 2949,
      "▁very": 2950,
      "##huh": 2951,
      "▁ar": 2952,
      "▁hurt": 2953,
      "▁joke": 2954,
      "▁oper": 2955,
      "▁gen": 2956,
      "##sus": 2957,
      "##ent": 2958,
      "##riage": 2959,
      "##ef": 2960,
      "▁aboard": 2961,
      "▁em": 2962,
      "##++++": 2963,
      "##!!!!": 2964,
      "##ff": 2965,
      "▁part": 2966,
      "##tride": 2967,
      "▁press": 2968,
      "##irt": 2969,
      "##pt": 2970,
      "▁ans": 2971,
      "##****************": 2972,
      "▁groups": 2973,
      "▁committee": 2974,
      "▁coord": 2975,
      "▁**********": 2976,
      "▁sur": 2977,
      "##itt": 2978,
      "▁--": 2979,
      "▁beg": 2980,
      "▁damage": 2981,
      "x": 2982,
      "▁friend": 2983,
      "▁mur": 2984,
      "##ker": 2985,
      "▁thinking": 2986,
      "▁decades": 2987,
      "##ently": 2988,
      "##cl": 2989,
      "##ries": 2990,
      "##ges": 2991,
      "▁student": 2992,
      "▁gir": 2993,
      "▁living": 2994,
      "▁traffic": 2995,
      "▁dogg": 2996,
      "▁identi": 2997,
      "ɛ": 2998,
      "##de": 2999,
      "▁arr": 3000,
      "▁check": 3001,
      "▁those": 3002,
      "▁includes": 3003,
      "▁produce": 3004,
      "##atch": 3005,
      "▁document": 3006,
      "##ile": 3007,
      "##u": 3008,
      "##kes": 3009,
      "▁rub": 3010,
      "▁growth": 3011,
      "▁restric": 3012,
      "▁give": 3013,
      "##ests": 3014,
      "##ought": 3015,
      "##oved": 3016,
      "##any": 3017,
      "##ores": 3018,
      "▁kind": 3019,
      "##gu": 3020,
      "▁forwar": 3021,
      "▁secon": 3022,
      "▁mist": 3023,
      "▁favor": 3024,
      "▁elect": 3025,
      "▁bro": 3026,
      "▁**": 3027,
      "m": 3028,
      "▁database": 3029,
      "▁fro": 3030,
      "▁trade": 3031,
      "##iver": 3032,
      "##ity": 3033,
      "##mp": 3034,
      "▁attend": 3035,
      "▁lic": 3036,
      "▁mail": 3037,
      "▁running": 3038,
      "▁published": 3039,
      "▁states": 3040,
      "##ass": 3041,
      "▁dre": 3042,
      "##ron": 3043,
      "▁don": 3044,
      "▁wil": 3045,
      "▁mummy": 3046,
      "##lished": 3047,
      "##ession": 3048,
      "##etition": 3049,
      "▁sa": 3050,
      "▁state": 3051,
      "▁walk": 3052,
      "▁mechan": 3053,
      "▁continue": 3054,
      "▁beh": 3055,
      "▁relations": 3056,
      "##ere": 3057,
      "▁knoc": 3058,
      "▁actions": 3059,
      "▁percent": 3060,
      "j": 3061,
      "▁risk": 3062,
      "▁ac": 3063,
      "##'s": 3064,
      "##ω": 3065,
      "▁tank": 3066,
      "▁cris": 3067,
      "▁bo": 3068,
      "▁(": 3069,
      "▁sn": 3070,
      "▁princip": 3071,
      "▁column": 3072,
      "▁sign": 3073,
      "##ize": 3074,
      "▁enter": 3075,
      "▁individ": 3076,
      "▁foods": 3077,
      "▁ed": 3078,
      "##ec": 3079,
      "##tit": 3080,
      "▁surprise": 3081,
      "▁is": 3082,
      "▁working": 3083,
      "▁++++": 3084,
      "▁boxes": 3085,
      "▁types": 3086,
      "▁fac": 3087,
      "▁est": 3088,
      "▁bulld": 3089,
      "▁st": 3090,
      "▁piv": 3091,
      "▁notic": 3092,
      "##ym": 3093,
      "▁equ": 3094,
      "▁caused": 3095,
      "##ool": 3096,
      "▁pat": 3097,
      "##ome": 3098,
      "##β": 3099,
      "▁requirements": 3100,
      "▁review": 3101,
      "▁matter": 3102,
      "▁counterparty": 3103,
      "##uck": 3104,
      "##and": 3105,
      "▁trip": 3106,
      "▁:": 3107,
      "##id": 3108,
      "▁towards": 3109,
      "▁wr": 3110,
      "▁banana": 3111,
      "##ν": 3112,
      "▁fl": 3113,
      "▁chocolate": 3114,
      "##uding": 3115,
      "##www": 3116,
      "▁player": 3117,
      "▁or": 3118,
      "▁dollars": 3119,
      "▁butt": 3120,
      "▁claim": 3121,
      "▁init": 3122,
      "▁constit": 3123,
      "▁er": 3124,
      "▁arti": 3125,
      "▁treated": 3126,
      "##ward": 3127,
      "▁college": 3128,
      "##4": 3129,
      "##ne": 3130,
      "▁catch": 3131,
      "▁ep": 3132,
      "▁climb": 3133,
      "▁material": 3134,
      "▁arch": 3135,
      "▁___________": 3136,
      "##formed": 3137,
      "▁horses": 3138,
      "▁design": 3139,
      "▁-----------------------------------------------------------------------": 3140,
      "##ait": 3141,
      "▁mos": 3142,
      "▁haf": 3143,
      "▁result": 3144,
      "▁till": 3145,
      "▁bottom": 3146,
      "▁for": 3147,
      "▁enjambment": 3148,
      "▁coff": 3149,
      "##for": 3150,
      "##ion": 3151,
      "##ages": 3152,
      "▁.!": 3153,
      "▁lunch": 3154,
      "▁speak": 3155,
      "▁mathematics": 3156,
      "▁protection": 3157,
      "▁right": 3158,
      "▁!!!!!!!!!!!!!": 3159,
      "##chie": 3160,
      "##ying": 3161,
      "▁": 3162,
      "▁sh": 3163,
      "▁min": 3164,
      "▁cities": 3165,
      "▁mrs": 3166,
      "▁model": 3167,
      "#": 3168,
      "▁do": 3169,
      "▁hum": 3170,
      "##ugh": 3171,
      "▁vers": 3172,
      "##tly": 3173,
      "▁loved": 3174,
      "▁fut": 3175,
      "▁poet": 3176,
      "▁assu": 3177,
      "▁pages": 3178,
      "▁ter": 3179,
      "▁finding": 3180,
      "▁how": 3181,
      "▁forgot": 3182,
      "▁mot": 3183,
      "▁boom": 3184,
      "##6": 3185,
      "▁accident": 3186,
      "▁events": 3187,
      "##ither": 3188,
      "▁circle": 3189,
      "▁base": 3190,
      "##ending": 3191,
      "▁settle": 3192,
      "▁discussed": 3193,
      "▁daddy": 3194,
      "▁price": 3195,
      "##ulation": 3196,
      "▁deb": 3197,
      "##imb": 3198,
      "▁rem": 3199,
      "##oles": 3200,
      "▁comed": 3201,
      "▁leave": 3202,
      "▁soldi": 3203,
      "▁<<": 3204,
      "▁pup": 3205,
      "▁blan": 3206,
      "▁pour": 3207,
      "▁gi": 3208,
      "##otes": 3209,
      "▁institutions": 3210,
      "▁fire": 3211,
      "##ify": 3212,
      "▁practice": 3213,
      "##ties": 3214,
      "##den": 3215,
      "▁experi": 3216,
      "▁-------------------------------------------------": 3217,
      "▁draft": 3218,
      "##iew": 3219,
      "##mb": 3220,
      "▁trou": 3221,
      "##ver": 3222,
      "##i": 3223,
      "▁fight": 3224,
      "##ses": 3225,
      "▁dese": 3226,
      "##..": 3227,
      "g": 3228,
      "▁provides": 3229,
      "##iture": 3230,
      "▁us": 3231,
      "▁arrives": 3232,
      "▁environment": 3233,
      "##rib": 3234,
      "##aith": 3235,
      "##:": 3236,
      "▁resour": 3237,
      "▁bottle": 3238,
      "##plan": 3239,
      "▁close": 3240,
      "▁kitt": 3241,
      "▁ta": 3242,
      "▁imag": 3243,
      "▁!!!!!!": 3244,
      "▁bab": 3245,
      "▁bir": 3246,
      "▁offer": 3247,
      "##v": 3248,
      "##age": 3249,
      "##ables": 3250,
      "▁fall": 3251,
      "▁means": 3252,
      "▁success": 3253,
      "▁fit": 3254,
      "▁birds": 3255,
      "▁data": 3256,
      "▁labor": 3257,
      "##ation": 3258,
      "##nus": 3259,
      "▁'": 3260,
      "▁e-m": 3261,
      "##ible": 3262,
      "ø": 3263,
      "▁play": 3264,
      "▁its": 3265,
      "##orting": 3266,
      "▁murder": 3267,
      "▁used": 3268,
      "▁self": 3269,
      "##unt": 3270,
      "##vailable": 3271,
      "▁astride": 3272,
      "▁made": 3273,
      "##ase": 3274,
      "▁owners": 3275,
      "▁repl": 3276,
      "▁area": 3277,
      "▁cru": 3278,
      "▁dust": 3279,
      "##'re": 3280,
      "▁decide": 3281,
      "##vision": 3282,
      "▁rabbit": 3283,
      "▁maint": 3284,
      "ˈ": 3285,
      "##ph": 3286,
      "##!?": 3287,
      "▁reports": 3288,
      "##ose": 3289,
      "▁sol": 3290,
      "▁off": 3291,
      "▁mouth": 3292,
      "▁users": 3293,
      "▁ban": 3294,
      "##iving": 3295,
      "▁energy": 3296,
      "##ines": 3297,
      "▁saturday": 3298,
      "##isd": 3299,
      "▁ag": 3300,
      "##crib": 3301,
      "▁light": 3302,
      "##action": 3303,
      "##itation": 3304,
      "▁datab": 3305,
      "▁keeping": 3306,
      "##f": 3307,
      "▁hours": 3308,
      "##ates": 3309,
      "▁{": 3310,
      "▁und": 3311,
      "##ix": 3312,
      "▁step": 3313,
      "▁exc": 3314,
      "##ood": 3315,
      "▁unlike": 3316,
      "▁walking": 3317,
      "##gether": 3318,
      "##alu": 3319,
      "##ograph": 3320,
      "##ouse": 3321,
      "▁sky": 3322,
      "▁dark": 3323,
      "▁yours": 3324,
      "▁bea": 3325,
      "▁need": 3326,
      "▁betw": 3327,
      "##==": 3328,
      "▁vi": 3329,
      "▁out": 3330,
      "▁other": 3331,
      "##ɛ": 3332,
      "▁telling": 3333,
      "▁lot": 3334,
      "##ting": 3335,
      "▁arriving": 3336,
      "##/": 3337,
      "##ric": 3338,
      "##ground": 3339,
      "##get": 3340,
      "▁covered": 3341,
      "##ring": 3342,
      "▁af": 3343,
      "▁r": 3344,
      "▁cards": 3345,
      "▁mad": 3346,
      "▁cab": 3347,
      "##aves": 3348,
      "▁imm": 3349,
      "▁ya": 3350,
      "##thin": 3351,
      "▁scen": 3352,
      "▁proce": 3353,
      "▁requ": 3354,
      "▁flying": 3355,
      "##2": 3356,
      "▁fe": 3357,
      "▁gre": 3358,
      "▁wrote": 3359,
      "▁september": 3360,
      "▁version": 3361,
      "##n": 3362,
      "·": 3363,
      "▁educ": 3364,
      "▁turning": 3365,
      "##elines": 3366,
      "##.": 3367,
      "▁fear": 3368,
      "##urn": 3369,
      "[": 3370,
      "##est": 3371,
      "▁field": 3372,
      "▁pack": 3373,
      "##uted": 3374,
      "▁aspects": 3375,
      "##ls": 3376,
      "▁tell": 3377,
      "▁flight": 3378,
      "##ies": 3379,
      "##dge": 3380,
      "▁analysis": 3381,
      "▁app": 3382,
      "▁attemp": 3383,
      "▁too": 3384,
      "##ll": 3385,
      "##spite": 3386,
      "▁aircraft": 3387,
      "##ces": 3388,
      "##land": 3389,
      "##fare": 3390,
      "##over": 3391,
      "##ian": 3392,
      "▁pos": 3393,
      "(": 3394,
      "##5": 3395,
      "▁cheese": 3396,
      "▁block": 3397,
      "▁barn": 3398,
      "##chen": 3399,
      "##ight": 3400,
      "▁americ": 3401,
      "▁dinosaur": 3402,
      "##ings": 3403,
      "▁touch": 3404,
      "▁cowboy": 3405,
      "▁set": 3406,
      "▁horse": 3407,
      "##lf": 3408,
      "##ir": 3409,
      "▁rain": 3410,
      "▁established": 3411,
      "##fl": 3412,
      "▁statement": 3413,
      "▁inc": 3414,
      "▁string": 3415,
      "##acy": 3416,
      "▁required": 3417,
      "##ary": 3418,
      "▁coast": 3419,
      "##epend": 3420,
      "##ving": 3421,
      "▁commit": 3422,
      "##ath": 3423,
      "▁region": 3424,
      "##ength": 3425,
      "▁meet": 3426,
      "▁team": 3427,
      "▁be": 3428,
      "▁camer": 3429,
      "##ologies": 3430,
      "##erences": 3431,
      "▁mention": 3432,
      "##iff": 3433,
      "▁city": 3434,
      "▁monday": 3435,
      "▁sto": 3436,
      "##=": 3437,
      "▁~": 3438,
      "▁case": 3439,
      "##cross": 3440,
      "▁via": 3441,
      "▁signed": 3442,
      "▁intended": 3443,
      "##7": 3444,
      "##rous": 3445,
      "▁round": 3446,
      "▁foc": 3447,
      "▁months": 3448,
      "▁language": 3449,
      "▁push": 3450,
      "▁products": 3451,
      "▁spir": 3452,
      "▁it's": 3453,
      "▁thing": 3454,
      "##ly": 3455,
      "▁more": 3456,
      "4": 3457,
      "##king": 3458,
      "▁super": 3459,
      "##h": 3460,
      "##ɑ": 3461,
      "▁research": 3462,
      "##app": 3463,
      "▁morning": 3464,
      "▁garage": 3465,
      "▁mil": 3466,
      "▁maj": 3467,
      "▁quar": 3468,
      "▁up": 3469,
      "##ets": 3470,
      "##ble": 3471,
      "##ild": 3472,
      "▁sum": 3473,
      "▁.?": 3474,
      "▁take": 3475,
      "▁tw": 3476,
      "▁fares": 3477,
      "▁intern": 3478,
      "7": 3479,
      "▁desk": 3480,
      "▁program": 3481,
      "▁film": 3482,
      "##(": 3483,
      "▁invest": 3484,
      "▁phil": 3485,
      "▁!!!!!!!!!!!!!!!!!!!": 3486,
      "##ocol": 3487,
      "▁object": 3488,
      "▁then": 3489,
      "▁tomorrow": 3490,
      "##inn": 3491,
      "##nt": 3492,
      "▁disc": 3493,
      "##cc": 3494,
      "▁assistance": 3495,
      "▁played": 3496,
      "▁brain": 3497,
      "##order": 3498,
      "[MASK]": 3499,
      "▁char": 3500,
      "▁partic": 3501,
      "▁passed": 3502,
      "▁situation": 3503,
      "▁citizens": 3504,
      "##bs": 3505,
      "▁asp": 3506,
      "▁attempt": 3507,
      "▁gas": 3508,
      "▁vs": 3509,
      "▁exch": 3510,
      "▁foot": 3511,
      "##ots": 3512,
      "▁center": 3513,
      "##temp": 3514,
      "##ority": 3515,
      "▁anoder": 3516,
      "▁maintain": 3517,
      "▁being": 3518,
      "▁-": 3519,
      "▁val": 3520,
      "▁name": 3521,
      "▁thurs": 3522,
      "▁letter": 3523,
      "▁act": 3524,
      "▁cal": 3525,
      "▁capital": 3526,
      "▁departing": 3527,
      "##way": 3528,
      "##ived": 3529,
      "▁science": 3530,
      "▁led": 3531,
      "▁pool": 3532,
      "▁regard": 3533,
      "▁baltimore": 3534,
      "▁they": 3535,
      "##town": 3536,
      "▁pizza": 3537,
      "##ς": 3538,
      "##oll": 3539,
      "?": 3540,
      "▁''": 3541,
      "##ience": 3542,
      "▁sal": 3543,
      "##ations": 3544,
      "##portun": 3545,
      "▁results": 3546,
      "▁mount": 3547,
      "▁word": 3548,
      "▁written": 3549,
      "▁wearing": 3550,
      "▁day": 3551,
      "i": 3552,
      "▁over": 3553,
      "▁i": 3554,
      "▁les": 3555,
      "▁lea": 3556,
      "▁auth": 3557,
      "▁underst": 3558,
      "##igned": 3559,
      "##ren": 3560,
      "▁box": 3561,
      "▁grand": 3562,
      "##aced": 3563,
      "##ter": 3564,
      "▁class": 3565,
      "▁lear": 3566,
      "##od": 3567,
      "▁chair": 3568,
      "▁bunch": 3569,
      "▁glasses": 3570,
      "▁custom": 3571,
      "▁some": 3572,
      "##ast": 3573,
      "▁lack": 3574,
      "▁issue": 3575,
      "##eces": 3576,
      "▁fact": 3577,
      "##ams": 3578,
      "##lish": 3579,
      "##az": 3580,
      "▁per": 3581,
      "▁territ": 3582,
      "_": 3583,
      "▁enem": 3584,
      "##oned": 3585,
      "▁tre": 3586,
      "s": 3587,
      "▁cock": 3588,
      "▁!": 3589,
      "▁filter": 3590,
      "▁…": 3591,
      "▁boo": 3592,
      "▁cand": 3593,
      "##eeds": 3594,
      "▁left": 3595,
      "▁bre": 3596,
      "##ude": 3597,
      "▁enj": 3598,
      "▁doctor": 3599,
      "▁vet": 3600,
      "▁street": 3601,
      "##ig": 3602,
      "##zz": 3603,
      "▁conditions": 3604,
      "##acket": 3605,
      "##erated": 3606,
      "##atis": 3607,
      "▁member": 3608,
      "##alism": 3609,
      "▁challenges": 3610,
      "▁hund": 3611,
      "▁every": 3612,
      "▁che": 3613,
      "▁smal": 3614,
      "f": 3615,
      "##•": 3616,
      "▁pass": 3617,
      "▁whether": 3618,
      "##rested": 3619,
      "▁s/he": 3620,
      "▁leaders": 3621,
      "▁cry": 3622,
      "▁---------------------------------------------------------------------": 3623,
      "##itch": 3624,
      "▁regards": 3625,
      "▁gro": 3626,
      "▁members": 3627,
      "▁conference": 3628,
      "▁since": 3629,
      "##oy": 3630,
      "▁lar": 3631,
      "▁changing": 3632,
      "▁inte": 3633,
      "▁contr": 3634,
      "▁weekend": 3635,
      "▁delive": 3636,
      "##ology": 3637,
      "##nly": 3638,
      "▁los": 3639,
      "▁ourselves": 3640,
      "##ws": 3641,
      "▁env": 3642,
      "▁awa": 3643,
      "##ul": 3644,
      "##ors": 3645,
      "##ords": 3646,
      "▁week": 3647,
      "▁babies": 3648,
      "▁grandmother": 3649,
      "##gation": 3650,
      "ι": 3651,
      "▁mom": 3652,
      "\"": 3653,
      "##ρ": 3654,
      "▁ho": 3655,
      "▁economy": 3656,
      "▁basis": 3657,
      "▁rabb": 3658,
      "▁forg": 3659,
      "a": 3660,
      "▁bring": 3661,
      "##rote": 3662,
      "▁rec": 3663,
      "▁cont": 3664,
      "▁fing": 3665,
      "##an": 3666,
      "##thers": 3667,
      "▁compl": 3668,
      "▁kid": 3669,
      "##head": 3670,
      "▁|--------+----------------": 3671,
      "▁m": 3672,
      "▁point": 3673,
      "▁both": 3674,
      "##pl": 3675,
      "##rax": 3676,
      "##“": 3677,
      "▁customer": 3678,
      "▁understanding": 3679,
      "▁drug": 3680,
      "##ating": 3681,
      "▁wednesday": 3682,
      "##--------+----------------": 3683,
      "▁[": 3684,
      "##cause": 3685,
      "[UNK]": 3686,
      "▁have": 3687,
      "▁nonstop": 3688,
      "▁administration": 3689,
      "▁achieve": 3690,
      "▁yester": 3691,
      "##he": 3692,
      "▁fiel": 3693,
      "▁show": 3694,
      "##ighb": 3695,
      "ɑ": 3696,
      "▁edit": 3697,
      "▁drive": 3698,
      "▁thought": 3699,
      "▁sheet": 3700,
      "##alf": 3701,
      "▁partners": 3702,
      "▁ve": 3703,
      "▁lips": 3704,
      "▁power": 3705,
      "##????????": 3706,
      "▁consider": 3707,
      "▁mode": 3708,
      "▁conflic": 3709,
      "##pped": 3710,
      "▁wou": 3711,
      "##ycle": 3712,
      "##force": 3713,
      "▁views": 3714,
      "##one": 3715,
      "▁w/": 3716,
      "▁might": 3717,
      "##ise": 3718,
      "▁/": 3719,
      "##ender": 3720,
      "▁scr": 3721,
      "▁banan": 3722,
      "▁capacity": 3723,
      "6": 3724,
      "▁mouse": 3725,
      "▁******************************************************************": 3726,
      "##ays": 3727,
      "▁coll": 3728,
      "##ew": 3729,
      "##ternoon": 3730,
      "▁g": 3731,
      "▁saw": 3732,
      "##or": 3733,
      "▁pupp": 3734,
      "▁straw": 3735,
      "▁assist": 3736,
      "▁repair": 3737,
      "▁......": 3738,
      "##eti": 3739,
      "▁ears": 3740,
      "▁laun": 3741,
      "▁skills": 3742,
      "▁hel": 3743,
      "##rap": 3744,
      "▁stood": 3745,
      "▁memory": 3746,
      "▁rul": 3747,
      "##owl": 3748,
      "▁elections": 3749,
      "##berry": 3750,
      "##enc": 3751,
      "▁bur": 3752,
      "##jec": 3753,
      "▁dist": 3754,
      "▁open": 3755,
      "▁!!!!!!!!!!!": 3756,
      "##ale": 3757,
      "▁voice": 3758,
      "▁’re": 3759,
      "##!!!": 3760,
      "▁animal": 3761,
      "##oke": 3762,
      "▁pan": 3763,
      "▁building": 3764,
      "▁'re": 3765,
      "▁book": 3766,
      "▁ver": 3767,
      "▁counc": 3768,
      "##ition": 3769,
      "##ember": 3770,
      "▁grass": 3771,
      "▁spot": 3772,
      "▁bath": 3773,
      "▁eat": 3774,
      "##ature": 3775,
      "▁[...": 3776,
      "▁met": 3777,
      "##°": 3778,
      "##int": 3779,
      "##/he": 3780,
      "▁problem": 3781,
      "##res": 3782,
      "▁soc": 3783,
      "▁pieces": 3784,
      "##ute": 3785,
      "▁ordered": 3786,
      "▁perform": 3787,
      "##ber": 3788,
      "##ur": 3789,
      "@": 3790,
      "▁sense": 3791,
      "▁movement": 3792,
      "##yone": 3793,
      "▁top": 3794,
      "▁couple": 3795,
      "▁territory": 3796,
      "▁vacation": 3797,
      "##oration": 3798,
      "##ms": 3799,
      "▁requi": 3800,
      "▁relationship": 3801,
      "▁budget": 3802,
      "##pr": 3803,
      "▁==----": 3804,
      "▁dom": 3805,
      "##gy": 3806,
      "▁new": 3807,
      "▁bod": 3808,
      "▁har": 3809,
      "▁purpose": 3810,
      "##ient": 3811,
      "▁children": 3812,
      "▁sp": 3813,
      "▁mean": 3814,
      "##ment": 3815,
      "▁'em": 3816,
      "▁dall": 3817,
      "▁“": 3818,
      "##es": 3819,
      "##ash": 3820,
      "▁ch": 3821,
      "▁etc.": 3822,
      "##lik": 3823,
      "▁al": 3824,
      "ʁ": 3825,
      "▁wed": 3826,
      "▁guess": 3827,
      "▁cam": 3828,
      "▁recog": 3829,
      "##uled": 3830,
      "##mate": 3831,
      "##k": 3832,
      "▁allow": 3833,
      "##ulture": 3834,
      "##ay": 3835,
      "▁su": 3836,
      "##ists": 3837,
      "▁dere": 3838,
      "##oods": 3839,
      "##ei": 3840,
      "▁pers": 3841,
      "▁fly": 3842,
      "▁grow": 3843,
      "▁bought": 3844,
      "▁kids": 3845,
      "▁him": 3846,
      "▁progr": 3847,
      "##ners": 3848,
      "▁jokes": 3849,
      "##æ": 3850,
      "▁month": 3851,
      "##umn": 3852,
      "##ability": 3853,
      "▁according": 3854,
      "▁who": 3855,
      "±": 3856,
      "##phia": 3857,
      "œ": 3858,
      "▁train": 3859,
      "##********": 3860,
      "##??": 3861,
      "##esday": 3862,
      "##ili": 3863,
      "▁.....": 3864,
      "▁games": 3865,
      "▁applied": 3866,
      "▁refl": 3867,
      "▁appro": 3868,
      "▁hus": 3869,
      "▁named": 3870,
      "##c": 3871,
      "▁what": 3872,
      "##low": 3873,
      "##ithstanding": 3874,
      "▁stories": 3875,
      "<": 3876,
      "n": 3877,
      "▁interest": 3878,
      "▁century": 3879,
      "▁instruc": 3880,
      "##ention": 3881,
      "▁sounds": 3882,
      "▁differences": 3883,
      "##osite": 3884,
      "▁potty": 3885,
      "▁ret": 3886,
      "▁pain": 3887,
      "▁!!!": 3888,
      "##ception": 3889,
      "##ply": 3890,
      "▁source": 3891,
      "▁toys": 3892,
      "▁o'clock": 3893,
      "▁developed": 3894,
      "▁bl": 3895,
      "▁seeing": 3896,
      "##isting": 3897,
      "##atures": 3898,
      "▁none": 3899,
      "▁ele": 3900,
      "▁example": 3901,
      "▁license": 3902,
      "▁belie": 3903,
      "##ach": 3904,
      "▁added": 3905,
      "▁prices": 3906,
      "▁)": 3907,
      "▁iss": 3908,
      "##ching": 3909,
      "##struc": 3910,
      "▁gender": 3911,
      "##r": 3912,
      "▁no": 3913,
      "##idence": 3914,
      "▁wife": 3915,
      "##au": 3916,
      "▁streets": 3917,
      "▁d'": 3918,
      "▁iodine": 3919,
      "▁protect": 3920,
      "▁apply": 3921,
      "▁herself": 3922,
      "▁??": 3923,
      "▁small": 3924,
      "▁to": 3925,
      "▁earth": 3926,
      "▁lights": 3927,
      "▁weather": 3928,
      "##des": 3929,
      "▁e": 3930,
      "▁decided": 3931,
      "▁studying": 3932,
      "▁recogn": 3933,
      "##oul": 3934,
      "▁just": 3935,
      "▁was": 3936,
      "##friend": 3937,
      "▁avoid": 3938,
      "▁director": 3939,
      "▁experience": 3940,
      "##ott": 3941,
      "▁fork": 3942,
      "▁computer": 3943,
      "▁tuesday": 3944,
      "▁dinos": 3945,
      "▁pean": 3946,
      "▁cer": 3947,
      "##ital": 3948,
      "▁airplane": 3949,
      "##aled": 3950,
      "##0": 3951,
      "▁c": 3952,
      "##ony": 3953,
      "▁forget": 3954,
      "##umb": 3955,
      "##ov": 3956,
      "##qui": 3957,
      "▁moment": 3958,
      "##ults": 3959,
      "▁application": 3960,
      "##ca": 3961,
      "▁'ve": 3962,
      "##craft": 3963,
      "▁learning": 3964,
      "c": 3965,
      "▁cur": 3966,
      "##ht": 3967,
      "▁certain": 3968,
      "▁furniture": 3969,
      "▁cash": 3970,
      "▁teacher": 3971,
      "##tile": 3972,
      "##les": 3973,
      "▁turned": 3974,
      "▁amongst": 3975,
      "##abb": 3976,
      "▁pillow": 3977,
      "▁sept": 3978,
      "▁percentage": 3979,
      "##ozer": 3980,
      "▁wal": 3981,
      "##pite": 3982,
      "##tics": 3983,
      "▁context": 3984,
      "▁langu": 3985,
      "▁difference": 3986,
      "▁school": 3987,
      "##aw": 3988,
      "ʃ": 3989,
      "▁polic": 3990,
      "##@": 3991,
      "▁idea": 3992,
      "##s": 3993,
      "▁tonight": 3994,
      "▁seemed": 3995,
      "##ope": 3996,
      "▁noone": 3997,
      "▁?????": 3998,
      "▁exam": 3999,
      "▁behavior": 4000,
      "▁learn": 4001,
      "##ergy": 4002,
      "##ou": 4003,
      "▁compan": 4004,
      "‘": 4005,
      "▁deli": 4006,
      "▁heard": 4007,
      "▁poc": 4008,
      "▁work": 4009,
      "##alists": 4010,
      "##ticip": 4011,
      "▁task": 4012,
      "##roduc": 4013,
      "##ye": 4014,
      "▁cour": 4015,
      "##iod": 4016,
      "▁op": 4017,
      "##anger": 4018,
      "##ics": 4019,
      "▁ticket": 4020,
      "▁something": 4021,
      "▁his": 4022,
      "##ves": 4023,
      "▁hot": 4024,
      "▁sound": 4025,
      "##ode": 4026,
      "▁moon": 4027,
      "##erve": 4028,
      "##it": 4029,
      "▁present": 4030,
      "▁on": 4031,
      "▁]": 4032,
      "▁cars": 4033,
      "▁contract": 4034,
      "##aur": 4035,
      "##.doc": 4036,
      "▁blow": 4037,
      "##,": 4038,
      "##t": 4039,
      "▁philadel": 4040,
      "##--------------------------------": 4041,
      "▁opportun": 4042,
      "##ything": 4043,
      "##derstand": 4044,
      "##isation": 4045,
      "▁washington": 4046,
      "##ement": 4047,
      "##uit": 4048,
      "▁z": 4049,
      "▁answ": 4050,
      "▁keep": 4051,
      "##go": 4052,
      "##ith": 4053,
      "h": 4054,
      "▁carry": 4055,
      "▁bank": 4056,
      "▁evening": 4057,
      "μ": 4058,
      "▁feels": 4059,
      "▁cut": 4060,
      "▁by": 4061,
      "##ust": 4062,
      "▁honey": 4063,
      "▁&am": 4064,
      "▁’ve": 4065,
      "▁mis": 4066,
      "▁broke": 4067,
      "▁likes": 4068,
      "▁whom": 4069,
      "##eng": 4070,
      "▁happen": 4071,
      "▁tv": 4072,
      "▁nothing": 4073,
      "##unch": 4074,
      "▁piz": 4075,
      "▁born": 4076,
      "▁lived": 4077,
      "▁bor": 4078,
      "▁millions": 4079,
      "▁conse": 4080,
      "▁ple": 4081,
      "##round": 4082,
      "##anc": 4083,
      "##uc": 4084,
      "▁leading": 4085,
      "##tiv": 4086,
      "▁far": 4087,
      "▁port": 4088,
      "▁time": 4089,
      "▁position": 4090,
      "▁secret": 4091,
      "##mber": 4092,
      "##st": 4093,
      "##liday": 4094,
      "▁debate": 4095
    }
  }
}