{
  "version": "1.0",
  "truncation": null,
  "padding": null,
  "added_tokens": [
    {
      "id": 8086,
      "content": "[UNK]",
      "single_word": false,
      "lstrip": false,
      "rstrip": false,
      "normalized": false,
      "special": true
    },
    {
      "id": 8904,
      "content": "[CLS]",
      "single_word": false,
      "lstrip": false,
      "rstrip": false,
      "normalized": false,
      "special": true
    },
    {
      "id": 9219,
      "content": "[SEP]",
      "single_word": false,
      "lstrip": false,
      "rstrip": false,
      "normalized": false,
      "special": true
    },
    {
      "id": 13865,
      "content": "[MASK]",
      "single_word": false,
      "lstrip": false,
      "rstrip": false,
      "normalized": false,
      "special": true
    },
    {
      "id": 16073,
      "content": "[PAD]",
      "single_word": false,
      "lstrip": false,
      "rstrip": false,
      "normalized": false,
      "special": true
    }
  ],
  "normalizer": {
    "type": "Sequence",
    "normalizers": [
      {
        "type": "NFD"
      },
      {
        "type": "Lowercase"
      },
      {
        "type": "StripAccents"
      }
    ]
  },
  "pre_tokenizer": {
    "type": "Sequence",
    "pretokenizers": [
      {
        "type": "Metaspace",
        "replacement": "▁",
        "prepend_scheme": "always",
        "split": true
      }
    ]
  },
  "post_processor": {
    "type": "TemplateProcessing",
    "single": [
      {
        "SpecialToken": {
          "id": "[CLS]",
          "type_id": 0
        }
      },
      {
        "Sequence": {
          "id": "A",
          "type_id": 0
        }
      },
      {
        "SpecialToken": {
          "id": "[SEP]",
          "type_id": 0
        }
      }
    ],
    "pair": [
      {
        "SpecialToken": {
          "id": "[CLS]",
          "type_id": 0
        }
      },
      {
        "Sequence": {
          "id": "A",
          "type_id": 0
        }
      },
      {
        "SpecialToken": {
          "id": "[SEP]",
          "type_id": 0
        }
      },
      {
        "Sequence": {
          "id": "B",
          "type_id": 1
        }
      },
      {
        "SpecialToken": {
          "id": "[SEP]",
          "type_id": 1
        }
      }
    ],
    "special_tokens": {
      "[CLS]": {
        "id": "[CLS]",
        "ids": [
          8904
        ],
        "tokens": [
          "[CLS]"
        ]
      },
      "[SEP]": {
        "id": "[SEP]",
        "ids": [
          9219
        ],
        "tokens": [
          "[SEP]"
        ]
      }
    }
  },
  "decoder": {
    "type": "Metaspace",
    "replacement": "▁",
    "prepend_scheme": "always",
    "split": true
  },
  "model": {
    "type": "Unigram",
    "unk_id": 8086,
    "vocab": [
      [
        "▁granddaughter",
        -10.939999625279574
      ],
      [
        "charge",
        -10.060310276021394
      ],
      [
        "▁christen",
        -11.45872565331883
      ],
      [
        "▁catch",
        -10.210311427765449
      ],
      [
        "cog",
        -12.581357311213583
      ],
      [
        "rther",
        -8.522476295223875
      ],
      [
        "▁spouse",
        -11.27977464181231
      ],
      [
        "▁government",
        -6.885512764396745
      ],
      [
        "▁backward",
        -9.00047516982305
      ],
      [
        "▁encounter",
        -10.011700049842151
      ],
      [
        "urs",
        -10.142705409681424
      ],
      [
        "▁des",
        -11.521768099225937
      ],
      [
        "ad",
        -10.619369818771165
      ],
      [
        "▁depose",
        -11.464257613605094
      ],
      [
        "▁election",
        -7.9683799249190885
      ],
      [
        "▁genre",
        -10.691942556166012
      ],
      [
        "▁pebble",
        -11.273830634647304
      ],
      [
        "novate",
        -12.459542085071194
      ],
      [
        "▁creation",
        -8.706263701021896
      ],
      [
        "▁gum",
        -9.89093645924753
      ],
      [
        "cca",
        -8.529799121128653
      ],
      [
        "micron",
        -12.694974152414533
      ],
      [
        "▁social",
        -6.614955515202298
      ],
      [
        "▁found",
        -8.773743516303433
      ],
      [
        "▁har",
        -8.702449984832002
      ],
      [
        "▁po",
        -7.826023911263647
      ],
      [
        "▁th",
        -6.19741338827232
      ],
      [
        "▁congrat",
        -12.773359098502954
      ],
      [
        "aught",
        -10.940495193021956
      ],
      [
        "▁vein",
        -10.183509642073224
      ],
      [
        "wish",
        -13.822776168884072
      ],
      [
        "nger",
        -12.608635018374038
      ],
      [
        "appoint",
        -9.820632183439097
      ],
      [
        "▁extra",
        -10.312779204884329
      ],
      [
        "ho",
        -11.734257522352875
      ],
      [
        "▁spin",
        -9.968969027101275
      ],
      [
        "serve",
        -10.100496419794691
      ],
      [
        "▁services",
        -7.915552815076071
      ],
      [
        "▁out",
        -9.53554766593308
      ],
      [
        "ma",
        -6.56637832689829
      ],
      [
        "▁gas",
        -7.888531449362072
      ],
      [
        "▁acc",
        -10.057827661434171
      ],
      [
        "leg",
        -9.7988857797683
      ],
      [
        "▁site",
        -7.518478616572673
      ],
      [
        "▁pimple",
        -10.180511922937333
      ],
      [
        "▁lea",
        -8.576236304730331
      ],
      [
        "▁bust",
        -10.707159102064837
      ],
      [
        "agne",
        -10.94373416598323
      ],
      [
        "▁bridge",
        -8.718690456989545
      ],
      [
        "▁styl",
        -12.153131088162425
      ],
      [
        "▁appoint",
        -11.273505030745207
      ],
      [
        "ember",
        -8.263459487200047
      ],
      [
        "over",
        -8.292291013070475
      ],
      [
        "▁abide",
        -10.677816934548815
      ],
      [
        "▁home",
        -6.822900762943623
      ],
      [
        "▁respondent",
        -10.939927847711866
      ],
      [
        "▁medium",
        -8.67425860716604
      ],
      [
        "lature",
        -12.465336677048915
      ],
      [
        "▁bullf",
        -12.76693384501679
      ],
      [
        "▁over",
        -5.746199670579694
      ],
      [
        "▁battl",
        -10.789798519796987
      ],
      [
        "▁bar",
        -8.005070048054838
      ],
      [
        "▁execut",
        -10.411975526183868
      ],
      [
        "▁substantiat",
        -11.458725623509984
      ],
      [
        "log",
        -11.766407609645983
      ],
      [
        "uffl",
        -12.66854232853404
      ],
      [
        ")",
        -4.681454226988154
      ],
      [
        "▁spread",
        -8.61092097078106
      ],
      [
        "pop",
        -10.861779171918512
      ],
      [
        "▁river",
        -8.379756155037423
      ],
      [
        "▁north",
        -9.000615381126636
      ],
      [
        "▁glue",
        -10.025809881225593
      ],
      [
        "vocation",
        -11.835758083013099
      ],
      [
        "▁plott",
        -10.635998005245568
      ],
      [
        "▁dash",
        -10.195253487093881
      ],
      [
        "▁extinction",
        -10.323238294046195
      ],
      [
        "laze",
        -10.64229091785613
      ],
      [
        "▁challenge",
        -9.903584821016157
      ],
      [
        "▁drip",
        -11.213261426414757
      ],
      [
        "scour",
        -11.461796238813426
      ],
      [
        "ght",
        -13.843806434183607
      ],
      [
        "▁w",
        -9.628995265208458
      ],
      [
        "▁wai",
        -10.238905340473138
      ],
      [
        "erance",
        -10.751381533479236
      ],
      [
        "▁visit",
        -8.501755053373776
      ],
      [
        "ndo",
        -7.136043383997401
      ],
      [
        "▁alleg",
        -11.774789623181194
      ],
      [
        "▁regain",
        -10.626631285643823
      ],
      [
        "uke",
        -8.795708905311347
      ],
      [
        "ver",
        -12.069948448966699
      ],
      [
        "▁brush",
        -9.044226130735694
      ],
      [
        "▁deposit",
        -10.13780969394471
      ],
      [
        "▁occupation",
        -9.228976422796881
      ],
      [
        "price",
        -12.527232608056236
      ],
      [
        "▁attri",
        -11.285192981277293
      ],
      [
        "▁souv",
        -12.78452675462261
      ],
      [
        "▁pickle",
        -10.180805003780344
      ],
      [
        "▁translat",
        -11.778050831353697
      ],
      [
        "antic",
        -8.283408264444146
      ],
      [
        "▁corporat",
        -11.823207502478764
      ],
      [
        "▁blizzard",
        -10.939904892914413
      ],
      [
        "▁clarify",
        -9.869289628014036
      ],
      [
        "▁disturb",
        -9.744563884475317
      ],
      [
        "▁im",
        -11.546928329488
      ],
      [
        "iden",
        -13.250112504346138
      ],
      [
        "$",
        -11.380685289420022
      ],
      [
        "hm",
        -8.212943245658627
      ],
      [
        "▁shark",
        -8.749869721611184
      ],
      [
        "-",
        -8.731955288757932
      ],
      [
        "nclude",
        -12.482077653852208
      ],
      [
        "tl",
        -8.50920686371289
      ],
      [
        "▁hide",
        -10.330927458324586
      ],
      [
        "▁bay",
        -11.207580006667513
      ],
      [
        "▁fi",
        -10.440047787115914
      ],
      [
        "▁vo",
        -11.650498308716477
      ],
      [
        "▁franc",
        -11.775524136381877
      ],
      [
        "▁fuck",
        -10.176534600256034
      ],
      [
        "▁robe",
        -9.868228895502686
      ],
      [
        "▁c",
        -7.115854882496244
      ],
      [
        "▁high",
        -6.500572263972546
      ],
      [
        "y",
        -7.530712123467335
      ],
      [
        "▁john",
        -6.479427457483174
      ],
      [
        "cros",
        -8.919574608515576
      ],
      [
        "▁cal",
        -10.61975332912108
      ],
      [
        "arriv",
        -11.618158084935562
      ],
      [
        "argo",
        -12.58521521734416
      ],
      [
        "l",
        -3.3832330531517893
      ],
      [
        "▁mutant",
        -10.69003968691085
      ],
      [
        "▁eyeglass",
        -11.279610539893335
      ],
      [
        "▁va",
        -13.559484283827024
      ],
      [
        "dil",
        -9.912106249026754
      ],
      [
        "▁initiative",
        -8.815618867769002
      ],
      [
        "▁li",
        -9.360770019549522
      ],
      [
        "▁hypnotize",
        -10.948672851553809
      ],
      [
        "igation",
        -11.001319697107116
      ],
      [
        "▁double",
        -8.177273405532732
      ],
      [
        "▁pollute",
        -11.923203611451704
      ],
      [
        "▁.",
        -6.602433684213668
      ],
      [
        "ten-",
        -11.801518103434546
      ],
      [
        "▁advis",
        -11.595908116854812
      ],
      [
        "▁mid-",
        -9.630156239702886
      ],
      [
        "ess",
        -7.730748269343373
      ],
      [
        "▁outfit",
        -9.674209596388266
      ],
      [
        "▁effic",
        -11.778181989999911
      ],
      [
        "▁finger",
        -10.962368948285208
      ],
      [
        "▁mu",
        -7.392537216598347
      ],
      [
        "▁trap",
        -10.371651561131294
      ],
      [
        "▁ted",
        -8.827633905704563
      ],
      [
        "▁airport",
        -7.5612516643699745
      ],
      [
        "que",
        -11.029584057105167
      ],
      [
        "▁description",
        -8.885766420067249
      ],
      [
        "▁v",
        -10.549009922820543
      ],
      [
        "ley",
        -7.147190260073397
      ],
      [
        "text",
        -10.34215346893099
      ],
      [
        "ked",
        -8.653914115640674
      ],
      [
        "loite",
        -12.538610441980612
      ],
      [
        "▁architect",
        -9.22886153251232
      ],
      [
        "europ",
        -6.79352500653621
      ],
      [
        "othe",
        -12.588082962991333
      ],
      [
        "▁spice",
        -10.191547967069472
      ],
      [
        "▁origin",
        -8.940877074688899
      ],
      [
        "year",
        -9.654558617546174
      ],
      [
        "sell",
        -12.579628759485999
      ],
      [
        "▁slip",
        -10.621068442642704
      ],
      [
        "▁disti",
        -11.998959714735353
      ],
      [
        "▁cottage",
        -10.32326474532205
      ],
      [
        "resume",
        -10.38287400397426
      ],
      [
        "▁forge",
        -11.220133968126738
      ],
      [
        "be",
        -8.086772398805067
      ],
      [
        "ston",
        -4.6869837569322375
      ],
      [
        "▁park",
        -7.930236432806555
      ],
      [
        "▁wh",
        -6.667104945947118
      ],
      [
        "▁lawyer",
        -9.131838516621936
      ],
      [
        "▁sting",
        -10.153307100770103
      ],
      [
        "se",
        -10.437721176173625
      ],
      [
        "▁lea",
        -10.720165779681286
      ],
      [
        "▁sphere",
        -11.583554203245978
      ],
      [
        "tus",
        -11.99916295242264
      ],
      [
        "▁plague",
        -10.690222386598663
      ],
      [
        "▁toast",
        -7.949871417357507
      ],
      [
        "▁score",
        -9.174898047653443
      ],
      [
        "▁saturday",
        -7.459641993461222
      ],
      [
        "▁studio",
        -9.473439062818745
      ],
      [
        "ain",
        -11.675299876279881
      ],
      [
        "▁avenue",
        -10.180423618138963
      ],
      [
        "▁char",
        -10.249796448788063
      ],
      [
        "▁juggl",
        -11.458772198902304
      ],
      [
        "▁colonialis",
        -11.28883396434588
      ],
      [
        "▁topic",
        -8.92352575399677
      ],
      [
        "ers",
        -8.863334231704634
      ],
      [
        "▁giv",
        -7.768671001064653
      ],
      [
        "▁antenna",
        -11.275447460373222
      ],
      [
        "confidence",
        -12.49286718400459
      ],
      [
        "ffer",
        -13.155422503184889
      ],
      [
        "▁perceive",
        -9.231072865854188
      ],
      [
        "▁cit",
        -6.729612885917478
      ],
      [
        "ilk",
        -11.844480177088549
      ],
      [
        "▁etc",
        -7.831200992880532
      ],
      [
        "▁cru",
        -10.094442743455176
      ],
      [
        "▁harp",
        -10.518785283372713
      ],
      [
        "ult",
        -8.881242005085934
      ],
      [
        "▁report",
        -6.981526467991148
      ],
      [
        "be",
        -10.797699139960514
      ],
      [
        "▁congratulation",
        -9.846602331839426
      ],
      [
        "cule",
        -11.146323236848149
      ],
      [
        "▁161",
        -7.9233438715856765
      ],
      [
        "▁south",
        -8.782060894222123
      ],
      [
        "s",
        -2.0008107369486137
      ],
      [
        "▁flag-",
        -11.779796896229108
      ],
      [
        "z",
        -8.474407620128483
      ],
      [
        "▁500",
        -7.441701247372007
      ],
      [
        "securit",
        -12.752713066923224
      ],
      [
        "▁divorc",
        -11.458726005861681
      ],
      [
        "u",
        -5.9829718967998025
      ],
      [
        "aid",
        -8.194850112635836
      ],
      [
        "▁3.",
        -7.874861696343271
      ],
      [
        "▁1",
        -4.047171860870492
      ],
      [
        "▁ribbon",
        -9.395390913884537
      ],
      [
        "▁every",
        -8.138839326173517
      ],
      [
        "▁ooz",
        -10.75961585141122
      ],
      [
        "▁tap",
        -10.854487862826728
      ],
      [
        "▁dolphin",
        -9.185308799073072
      ],
      [
        "▁ghost",
        -8.522026974575533
      ],
      [
        "hunh",
        -8.187789420112253
      ],
      [
        "▁myster",
        -10.925112964485283
      ],
      [
        "▁david",
        -7.478392607824283
      ],
      [
        "w",
        -5.189900606426425
      ],
      [
        "▁charit",
        -10.182413378471317
      ],
      [
        "▁una",
        -9.58033815336934
      ],
      [
        "▁show",
        -7.720672780257837
      ],
      [
        "▁staircase",
        -10.18086845324205
      ],
      [
        "▁convert",
        -8.916979657935837
      ],
      [
        "fe",
        -9.264869618385895
      ],
      [
        "▁record",
        -7.560625084791284
      ],
      [
        "phi",
        -7.256567440791212
      ],
      [
        "▁star",
        -7.691582309390991
      ],
      [
        "▁un",
        -6.526291615881251
      ],
      [
        "▁curricul",
        -10.939910578490581
      ],
      [
        "estimate",
        -11.78816608253267
      ],
      [
        "▁unload",
        -10.625455751683091
      ],
      [
        "essential",
        -8.030097004760375
      ],
      [
        "▁statue",
        -9.473393883367033
      ],
      [
        "air",
        -9.601034974304415
      ],
      [
        "▁tupperw",
        -11.150624162301106
      ],
      [
        "mesh",
        -11.76349499656178
      ],
      [
        "parti",
        -12.288942360606754
      ],
      [
        "assemble",
        -12.244397984394327
      ],
      [
        "med",
        -9.650791541270365
      ],
      [
        "▁uncons",
        -11.933981171520603
      ],
      [
        "▁hik",
        -9.657785929657823
      ],
      [
        "▁approv",
        -12.81679155620072
      ],
      [
        "▁g",
        -7.240861415586581
      ],
      [
        "▁***",
        -11.706988063870577
      ],
      [
        "▁enj",
        -8.749334416016175
      ],
      [
        "▁appea",
        -10.818767504427955
      ],
      [
        "▁impulse",
        -10.180390933438593
      ],
      [
        "ro",
        -9.323176805322918
      ],
      [
        "lonialis",
        -12.772822498118504
      ],
      [
        "▁us",
        -6.5218719918286725
      ],
      [
        "▁decreas",
        -11.1933336764611
      ],
      [
        "tline",
        -11.948262085376937
      ],
      [
        "▁form",
        -9.59344289641272
      ],
      [
        "▁merc",
        -9.987280237277725
      ],
      [
        "▁26",
        -6.742655354865676
      ],
      [
        "▁uni",
        -8.075029178804023
      ],
      [
        "himi",
        -11.948753346831122
      ],
      [
        "ction",
        -10.20359974163638
      ],
      [
        "▁necessit",
        -10.323530890686566
      ],
      [
        "▁doctorate",
        -10.943633481869917
      ],
      [
        "▁underl",
        -10.362021746953104
      ],
      [
        "▁please",
        -8.564434024630248
      ],
      [
        "▁broadcast",
        -10.011721082281243
      ],
      [
        "roller",
        -12.497573561997633
      ],
      [
        "h",
        -5.561550694199753
      ],
      [
        "▁signature",
        -9.857247070051049
      ],
      [
        "surp",
        -11.465304750548892
      ],
      [
        "pane",
        -7.941965455979306
      ],
      [
        "▁opening",
        -9.346164612703248
      ],
      [
        "▁takeoff",
        -10.490029004863286
      ],
      [
        "▁prog",
        -12.758230155712402
      ],
      [
        "▁under",
        -9.799071239036792
      ],
      [
        "▁key",
        -8.14409345474584
      ],
      [
        "▁neighborhood",
        -9.179155149044018
      ],
      [
        "▁mm",
        -6.005830975174888
      ],
      [
        "edition",
        -12.16633424802246
      ],
      [
        "▁earth",
        -8.08146730037077
      ],
      [
        "pair",
        -10.926711096084848
      ],
      [
        "al",
        -4.268364097368864
      ],
      [
        "24",
        -7.880928057440414
      ],
      [
        "quiet",
        -12.648240403541994
      ],
      [
        "ffe",
        -11.79796606334209
      ],
      [
        "to",
        -7.034425037071648
      ],
      [
        "▁jump",
        -7.5777361657240965
      ],
      [
        "ece",
        -13.73830126811627
      ],
      [
        "▁sole",
        -9.195735449713705
      ],
      [
        "ver",
        -10.035555650788586
      ],
      [
        "▁dangl",
        -10.375856842531736
      ],
      [
        "▁addresse",
        -10.334277048633115
      ],
      [
        "▁correct",
        -9.744555531978136
      ],
      [
        "▁milk",
        -10.625895806374423
      ],
      [
        "forest",
        -12.592028106395855
      ],
      [
        "▁unpack",
        -11.459040203378136
      ],
      [
        "▁deep",
        -7.726823443598322
      ],
      [
        "▁arti",
        -8.507847060315108
      ],
      [
        "▁tir",
        -7.751708177182447
      ],
      [
        "▁hard",
        -6.981459197999821
      ],
      [
        "▁uh",
        -7.780351736788767
      ],
      [
        "h",
        -4.449069131649335
      ],
      [
        "place",
        -11.367324829742865
      ],
      [
        "ca",
        -8.771865620995449
      ],
      [
        "▁para",
        -9.757925177699484
      ],
      [
        "▁toda",
        -6.2594712784645425
      ],
      [
        "▁transp",
        -11.42431423818229
      ],
      [
        "▁along",
        -7.533964767221531
      ],
      [
        "▁marine",
        -8.910730113300986
      ],
      [
        "▁rivalr",
        -11.297663689512426
      ],
      [
        "speci",
        -6.56809779980563
      ],
      [
        "▁lot",
        -6.30055360306495
      ],
      [
        "▁iso",
        -8.64559312004692
      ],
      [
        "▁exchange",
        -8.782254691704907
      ],
      [
        "▁neighbourhood",
        -10.490295276191029
      ],
      [
        "▁i",
        -10.246461464565362
      ],
      [
        "▁pranks",
        -11.276501137021395
      ],
      [
        "nourish",
        -11.458726098200492
      ],
      [
        "▁jew",
        -9.046506583596429
      ],
      [
        "▁swed",
        -10.754940661608641
      ],
      [
        "sci",
        -12.729876771166623
      ],
      [
        "▁gee",
        -9.033828458047047
      ],
      [
        "milk",
        -12.848059006022917
      ],
      [
        "▁bowl",
        -7.963580400683718
      ],
      [
        "▁work",
        -6.08027060229216
      ],
      [
        "▁cork",
        -11.564929581494587
      ],
      [
        "reju",
        -12.561761909903082
      ],
      [
        "▁embar",
        -9.850676065097934
      ],
      [
        "friend",
        -12.314649573613961
      ],
      [
        "▁use",
        -7.272169915173135
      ],
      [
        "▁alter",
        -9.364013232035528
      ],
      [
        "▁women",
        -7.442741641281108
      ],
      [
        "▁success",
        -8.426858743832414
      ],
      [
        "d",
        -6.706410308402972
      ],
      [
        "▁latin",
        -8.981739572321317
      ],
      [
        "ever",
        -12.565215827436278
      ],
      [
        "▁surplus",
        -10.323244578709842
      ],
      [
        "▁intent",
        -11.285413903395451
      ],
      [
        "▁diamond",
        -11.773287365347645
      ],
      [
        "ooooo",
        -12.71015855894965
      ],
      [
        "▁snowboard",
        -10.692196312922295
      ],
      [
        "gold",
        -11.621291938377288
      ],
      [
        "▁immigra",
        -9.88461925695492
      ],
      [
        "ill",
        -8.319060593976758
      ],
      [
        "alia",
        -12.59272598914648
      ],
      [
        "▁hideout",
        -10.32335962818571
      ],
      [
        "▁reneg",
        -11.462159075972657
      ],
      [
        "▁gymnas",
        -11.785956325184777
      ],
      [
        "▁servant",
        -9.846311266297969
      ],
      [
        "▁electron",
        -11.773176878627808
      ],
      [
        "ariti",
        -12.079808809468396
      ],
      [
        "▁phono",
        -11.74556993235213
      ],
      [
        "▁novella",
        -10.691943224951507
      ],
      [
        "▁tear",
        -10.104146523702394
      ],
      [
        "▁lengthen",
        -11.458725659073927
      ],
      [
        "▁speci",
        -8.547934984831322
      ],
      [
        "▁war",
        -11.32649407648056
      ],
      [
        "▁print",
        -9.165388728112386
      ],
      [
        "cit",
        -9.264774206758755
      ],
      [
        "▁descendant",
        -10.489905035940263
      ],
      [
        "kee",
        -6.352695755114187
      ],
      [
        "hold",
        -10.892694620397984
      ],
      [
        "▁coincide",
        -10.251147162270897
      ],
      [
        "▁nut",
        -9.312096125136705
      ],
      [
        "▁s",
        -6.320466937627674
      ],
      [
        "▁shoo",
        -10.576299720082153
      ],
      [
        "▁age",
        -11.642930579187926
      ],
      [
        "▁realize",
        -8.060523133677941
      ],
      [
        "▁desir",
        -11.742933213599017
      ],
      [
        "▁organis",
        -12.767165011740985
      ],
      [
        "tool",
        -12.22939300350873
      ],
      [
        "▁julie",
        -8.714252839677888
      ],
      [
        "ay",
        -9.58424050121083
      ],
      [
        "los",
        -11.133893137226078
      ],
      [
        "h",
        -4.6934243343720325
      ],
      [
        "▁spider",
        -8.450628084977096
      ],
      [
        "▁dung",
        -10.494555526606883
      ],
      [
        "▁secure",
        -9.59335314794649
      ],
      [
        "mpt",
        -10.55332066482665
      ],
      [
        "▁texture",
        -11.27858145301362
      ],
      [
        "▁forward",
        -6.90085416688369
      ],
      [
        "th",
        -7.040131993427264
      ],
      [
        "▁eatin",
        -11.00932500495928
      ],
      [
        "_",
        -4.773377875289404
      ],
      [
        "hi",
        -8.442534427418508
      ],
      [
        "▁peek",
        -10.38250772454571
      ],
      [
        "▁expecta",
        -10.688653425815293
      ],
      [
        "▁combin",
        -9.986583167913755
      ],
      [
        "▁subscri",
        -9.882600660849604
      ],
      [
        "▁pretend",
        -8.139216432580561
      ],
      [
        "▁crunch",
        -11.775418099237429
      ],
      [
        "▁organ",
        -11.271942731340047
      ],
      [
        "370",
        -12.417666083685557
      ],
      [
        "-",
        -5.0561714688933765
      ],
      [
        "▁info",
        -8.921418511408705
      ],
      [
        "▁snuggl",
        -11.458727100189531
      ],
      [
        "▁wri",
        -11.172848600327079
      ],
      [
        "row",
        -12.588313249467822
      ],
      [
        "sourc",
        -11.330806737146437
      ],
      [
        "▁consist",
        -9.283652398662763
      ],
      [
        "surface",
        -12.318068783022667
      ],
      [
        "tch",
        -10.504962608329652
      ],
      [
        "▁purchase",
        -8.519796011439709
      ],
      [
        "e",
        -9.487298196508139
      ],
      [
        "oma",
        -11.24043579504498
      ],
      [
        "▁anyway",
        -7.149342360070847
      ],
      [
        "▁displac",
        -11.43605535990105
      ],
      [
        "▁stro",
        -11.773691908496524
      ],
      [
        "▁scru",
        -10.933474737781639
      ],
      [
        "▁spons",
        -12.541020937199367
      ],
      [
        "imate",
        -7.97804560746793
      ],
      [
        "national",
        -7.263849459139401
      ],
      [
        "▁card",
        -7.578167837352291
      ],
      [
        "▁compass",
        -10.576310476195376
      ],
      [
        "▁country",
        -6.877329436870177
      ],
      [
        "▁cater",
        -10.547351018830371
      ],
      [
        "▁incur",
        -10.961586156380983
      ],
      [
        "▁viewpoint",
        -10.696695414061397
      ],
      [
        "▁conclude",
        -8.698352782806548
      ],
      [
        "▁rev",
        -10.800028028577628
      ],
      [
        "hos",
        -7.461527069413849
      ],
      [
        "▁carb",
        -11.128715256438728
      ],
      [
        "inema",
        -11.29387493826818
      ],
      [
        "▁excu",
        -12.032605247987416
      ],
      [
        "****************",
        -9.642473869126556
      ],
      [
        "▁hamburger",
        -10.180830883524681
      ],
      [
        "ybod",
        -11.817981083564167
      ],
      [
        "trie",
        -12.618515853236483
      ],
      [
        "▁mal",
        -10.574905733376664
      ],
      [
        "▁phon",
        -11.20935143254488
      ],
      [
        "iance",
        -10.922254415490118
      ],
      [
        "l",
        -4.943432235573655
      ],
      [
        "llor",
        -11.555320249531778
      ],
      [
        "▁mont",
        -7.067933171742557
      ],
      [
        "▁shot",
        -8.874846030227769
      ],
      [
        "▁green",
        -6.684628782587111
      ],
      [
        "▁mosque",
        -9.13461918208773
      ],
      [
        "▁cris",
        -8.776211245334267
      ],
      [
        "▁ups",
        -8.907195307082878
      ],
      [
        "▁tax",
        -10.951911453053553
      ],
      [
        "▁dem",
        -8.547346343809084
      ],
      [
        "▁eve",
        -8.968259718078635
      ],
      [
        "▁parakeet",
        -9.524446078957537
      ],
      [
        "▁heat",
        -8.236059890982714
      ],
      [
        "▁sh",
        -9.731195872392286
      ],
      [
        "▁hi",
        -9.625753892037153
      ],
      [
        "▁death-",
        -12.81210633744389
      ],
      [
        "▁dais",
        -11.394130893921929
      ],
      [
        "▁wi",
        -9.007041050919739
      ],
      [
        "▁habitat",
        -10.234718536884758
      ],
      [
        "ger",
        -8.743162195474664
      ],
      [
        "▁jug",
        -10.787146879490207
      ],
      [
        "ail",
        -10.41383685862511
      ],
      [
        "ize",
        -10.360224280629454
      ],
      [
        "▁made",
        -5.751019815800901
      ],
      [
        "▁ver",
        -9.365781145034882
      ],
      [
        "▁custod",
        -11.275018182118275
      ],
      [
        "ars",
        -11.582132112021702
      ],
      [
        "▁consequence",
        -8.885754305197231
      ],
      [
        "▁bear",
        -8.442463514443517
      ],
      [
        "▁poison",
        -10.180404378474462
      ],
      [
        "▁unif",
        -12.263419379456753
      ],
      [
        "ement",
        -13.302570464324955
      ],
      [
        "pus",
        -11.03694194150375
      ],
      [
        "ly",
        -6.04520852120544
      ],
      [
        "▁they",
        -4.1663145534812855
      ],
      [
        "▁knot",
        -9.760517456913801
      ],
      [
        "▁mode",
        -9.985740828317674
      ],
      [
        "▁opinon",
        -11.773260880848762
      ],
      [
        "▁anyway",
        -6.660623151807425
      ],
      [
        "ature",
        -10.23205325913874
      ],
      [
        "▁da",
        -7.903378949837745
      ],
      [
        "▁crashe",
        -10.491287712122011
      ],
      [
        "▁vista",
        -11.774860149714176
      ],
      [
        "▁aim",
        -9.698131669426509
      ],
      [
        "be",
        -8.597054455590966
      ],
      [
        "▁secret",
        -8.395133393554037
      ],
      [
        "create",
        -11.50999684465562
      ],
      [
        "▁foli",
        -11.620060556167937
      ],
      [
        "ains",
        -12.08906298992819
      ],
      [
        "▁optimize",
        -11.458814787491649
      ],
      [
        "ecess",
        -7.46000355533633
      ],
      [
        "▁p",
        -6.041044992314117
      ],
      [
        "▁foot",
        -7.799326629897729
      ],
      [
        "▁travel",
        -7.316864703250338
      ],
      [
        "▁place",
        -5.958361894195045
      ],
      [
        "ty",
        -7.973812938011873
      ],
      [
        "▁luggage",
        -10.48993029369655
      ],
      [
        "▁revisit",
        -10.631252763409883
      ],
      [
        "▁mac",
        -8.771312055590968
      ],
      [
        "▁cur",
        -10.983557072878169
      ],
      [
        "▁earl",
        -7.23689365952583
      ],
      [
        "▁gentle",
        -8.812094959625956
      ],
      [
        "▁appe",
        -13.828885682502568
      ],
      [
        "▁p",
        -9.237570785962834
      ],
      [
        "more",
        -7.0924871061843655
      ],
      [
        "ith",
        -10.93844610480004
      ],
      [
        "▁freedom",
        -8.049469168506521
      ],
      [
        "▁veto",
        -10.626658189778096
      ],
      [
        "gun",
        -12.43276509576311
      ],
      [
        "▁dee",
        -11.558243070559435
      ],
      [
        "get",
        -10.22512405160739
      ],
      [
        "▁respons",
        -11.91313232793853
      ],
      [
        "▁anti",
        -9.831102236041021
      ],
      [
        "+",
        -10.834960006133095
      ],
      [
        "▁cockpit",
        -11.27324317758649
      ],
      [
        "▁yel",
        -11.43272824388439
      ],
      [
        "li",
        -9.328186833833218
      ],
      [
        "▁loot",
        -11.291569826158504
      ],
      [
        "▁de",
        -8.377010357385638
      ],
      [
        "▁recount",
        -11.463091414351286
      ],
      [
        "▁shrugg",
        -10.177679289386054
      ],
      [
        "▁recei",
        -11.054087373461623
      ],
      [
        "ed",
        -10.65285276824677
      ],
      [
        "▁go",
        -8.937660472253366
      ],
      [
        "▁undertake",
        -9.547930132674637
      ],
      [
        "doo",
        -11.451784989885073
      ],
      [
        "▁nan",
        -10.922411791727086
      ],
      [
        "▁fixed",
        -7.9833664899746974
      ],
      [
        "section",
        -11.317682997592582
      ],
      [
        "▁duster",
        -11.343585176635822
      ],
      [
        "tise",
        -12.755757255521845
      ],
      [
        "▁belong",
        -7.909109751690545
      ],
      [
        "▁menac",
        -11.458766907737152
      ],
      [
        "▁ten",
        -9.307976029476437
      ],
      [
        "el",
        -8.693053101394023
      ],
      [
        "lips",
        -12.449974790514638
      ],
      [
        "▁tra",
        -12.299309697117545
      ],
      [
        "▁referral",
        -10.939904894007523
      ],
      [
        "▁sense",
        -11.184044833454122
      ],
      [
        "comfort",
        -10.369659430208431
      ],
      [
        "ul",
        -11.779300943834244
      ],
      [
        "skat",
        -11.416433829534629
      ],
      [
        "▁hol",
        -8.13481318438749
      ],
      [
        "▁bomba",
        -12.795938006356046
      ],
      [
        "▁sailor",
        -10.324792954098381
      ],
      [
        "odd",
        -10.361072109418897
      ],
      [
        "uste",
        -11.568613004501128
      ],
      [
        "▁cons",
        -8.568533098711479
      ],
      [
        "▁penetrate",
        -10.958726050468238
      ],
      [
        "▁stadium",
        -10.323346700902471
      ],
      [
        "▁36",
        -7.450209700463729
      ],
      [
        "▁explo",
        -11.080067678952908
      ],
      [
        "▁theodor",
        -8.14327177728987
      ],
      [
        "bilit",
        -9.369090616152354
      ],
      [
        "▁hap",
        -10.025493549919657
      ],
      [
        "▁en",
        -6.905990043207903
      ],
      [
        "out",
        -7.947446852270071
      ],
      [
        "▁reaction",
        -9.180400212209104
      ],
      [
        "compete",
        -12.75723368463165
      ],
      [
        "▁conceit",
        -11.77382910535629
      ],
      [
        "▁prosecutor",
        -10.057114585067875
      ],
      [
        "ha",
        -8.933413049716464
      ],
      [
        "▁finish",
        -9.755899183278283
      ],
      [
        "▁alt.animals.f",
        -12.82787610347656
      ],
      [
        "▁conspira",
        -10.489908918163803
      ],
      [
        "h",
        -8.082311726515218
      ],
      [
        "▁whip",
        -12.457959683268538
      ],
      [
        "▁lands",
        -11.96367657754994
      ],
      [
        "stair",
        -12.777944320211512
      ],
      [
        "▁stee",
        -10.383549793503548
      ],
      [
        "▁playwright",
        -9.672612432628721
      ],
      [
        "▁jelly",
        -9.46018501767399
      ],
      [
        "▁transferr",
        -9.886727081633742
      ],
      [
        "▁enron",
        -9.718722672858188
      ],
      [
        "front",
        -9.838124573628022
      ],
      [
        "cker",
        -10.943710185217597
      ],
      [
        "nam",
        -11.246796261251173
      ],
      [
        "hav",
        -10.876058165513452
      ],
      [
        "public",
        -8.50236306359554
      ],
      [
        "▁exp",
        -8.896005215647598
      ],
      [
        "▁to",
        -8.426954044671419
      ],
      [
        "▁enjoy",
        -6.958235282635592
      ],
      [
        "▁encounter",
        -10.180409228217268
      ],
      [
        "▁rust",
        -10.747334829047519
      ],
      [
        "▁brea",
        -11.849109259668008
      ],
      [
        "ari",
        -7.987987158299443
      ],
      [
        "▁calculation",
        -9.78452951762091
      ],
      [
        "omp",
        -13.051220133697194
      ],
      [
        "▁gu",
        -12.56222665739358
      ],
      [
        "▁rough",
        -11.343726185405197
      ],
      [
        "▁sea",
        -7.3126104372612515
      ],
      [
        "ntenance",
        -10.226227705566144
      ],
      [
        "ts",
        -13.777480956780607
      ],
      [
        "▁suff",
        -11.48020724091109
      ],
      [
        "▁four",
        -4.645122731153732
      ],
      [
        "▁saw",
        -11.178634673289515
      ],
      [
        "▁replication",
        -8.782361462914606
      ],
      [
        "▁33",
        -8.115683701920268
      ],
      [
        "▁merit",
        -9.946273982645128
      ],
      [
        "▁depre",
        -12.659078379376375
      ],
      [
        "rack",
        -11.932384343681527
      ],
      [
        "▁conv",
        -12.4385683808161
      ],
      [
        "---",
        -10.542734627330935
      ],
      [
        "▁const",
        -12.551116022873272
      ],
      [
        "▁eng",
        -7.5444635519219165
      ],
      [
        "▁ruin",
        -9.946334420690988
      ],
      [
        "▁tugg",
        -10.37563285589351
      ],
      [
        "cast",
        -11.978128612016615
      ],
      [
        "▁dissolv",
        -11.75640894811475
      ],
      [
        "position",
        -12.33374598467486
      ],
      [
        "foot",
        -12.20731619875667
      ],
      [
        "▁boyfriend",
        -9.757303829113809
      ],
      [
        "▁monument",
        -10.489941805467556
      ],
      [
        "▁counte",
        -11.971614450857833
      ],
      [
        "negotiate",
        -12.202629170348768
      ],
      [
        "▁por",
        -11.754283806384288
      ],
      [
        "▁depiction",
        -10.939924672509585
      ],
      [
        "▁prox",
        -11.803157458527776
      ],
      [
        "▁default",
        -9.178979870432766
      ],
      [
        "path",
        -10.413960897403486
      ],
      [
        "▁transi",
        -11.339111151919385
      ],
      [
        "▁184",
        -7.760163752357872
      ],
      [
        "▁bib",
        -10.06971338438722
      ],
      [
        "▁inten",
        -11.660899940961222
      ],
      [
        "four",
        -8.162111098210765
      ],
      [
        "back",
        -9.129340063380724
      ],
      [
        "▁pledg",
        -12.714880525091266
      ],
      [
        "▁manufacturer",
        -9.529219025847796
      ],
      [
        "nd",
        -9.236601350363305
      ],
      [
        "is",
        -6.944029365249886
      ],
      [
        "▁gotte",
        -9.31265395207345
      ],
      [
        "explain",
        -12.680097792313662
      ],
      [
        "▁as",
        -4.879682590360853
      ],
      [
        "pend",
        -11.06001789562377
      ],
      [
        "8t",
        -11.967930291136108
      ],
      [
        "▁jig",
        -10.691948925617263
      ],
      [
        "▁pledge",
        -9.950432742257854
      ],
      [
        "▁expire",
        -9.633637099111574
      ],
      [
        "▁se",
        -9.542558868457908
      ],
      [
        "▁jam",
        -10.179894580085405
      ],
      [
        "arma",
        -12.093252168540669
      ],
      [
        "mind",
        -12.462905925361442
      ],
      [
        "▁fluid",
        -9.755466248895644
      ],
      [
        "▁un",
        -8.043236926596183
      ],
      [
        "▁needle",
        -10.08114296171805
      ],
      [
        "'",
        -10.925660239071423
      ],
      [
        "on",
        -5.927544266561199
      ],
      [
        "▁lock",
        -10.087857412942707
      ],
      [
        "▁hung",
        -10.555867697826377
      ],
      [
        "▁fea",
        -12.743123583915699
      ],
      [
        "▁rap",
        -11.667773224124275
      ],
      [
        "▁b",
        -5.988397352287272
      ],
      [
        "▁yawn",
        -10.008741128442212
      ],
      [
        "▁disruption",
        -10.939964040834713
      ],
      [
        "▁interest",
        -7.287781118285221
      ],
      [
        "▁act",
        -8.354462346394513
      ],
      [
        "signature",
        -12.577103070931358
      ],
      [
        "▁liaison",
        -11.77324123561004
      ],
      [
        "▁casino",
        -11.773575850598915
      ],
      [
        "thesi",
        -10.962387010087607
      ],
      [
        "ev",
        -12.690008886723533
      ],
      [
        "i",
        -3.6573677594667693
      ],
      [
        "w",
        -10.925660239071423
      ],
      [
        "▁produc",
        -9.460620216478585
      ],
      [
        "▁glamo",
        -10.490650691485621
      ],
      [
        "▁sort",
        -7.687512588688635
      ],
      [
        "tin",
        -13.561209082673187
      ],
      [
        "▁nerd",
        -11.276638545393805
      ],
      [
        "▁cheap",
        -9.734012213920199
      ],
      [
        "▁mine",
        -7.3549003857745685
      ],
      [
        "▁dea",
        -11.505207162389922
      ],
      [
        "▁en",
        -7.426478329342391
      ],
      [
        "▁caus",
        -8.900027625784086
      ],
      [
        "▁pest",
        -10.341141848931654
      ],
      [
        "▁wig",
        -11.325998850223888
      ],
      [
        "▁i",
        -7.733415807312335
      ],
      [
        "▁over",
        -5.6506729416107095
      ],
      [
        "▁recycl",
        -11.459152047827263
      ],
      [
        "▁loose",
        -9.536347820091168
      ],
      [
        "ivat",
        -12.498085325067928
      ],
      [
        "attack",
        -11.902224502501493
      ],
      [
        "▁compound",
        -10.375576661577485
      ],
      [
        "▁mistake",
        -8.549480359088655
      ],
      [
        "▁african",
        -9.946103293688711
      ],
      [
        "▁hemis",
        -12.793743129107371
      ],
      [
        "▁mak",
        -11.605569412375514
      ],
      [
        "▁care",
        -8.009467513872664
      ],
      [
        "▁kath",
        -8.839823713984172
      ],
      [
        "▁murder",
        -9.744417734275082
      ],
      [
        "▁cafe",
        -9.460458520457703
      ],
      [
        "n",
        -4.842692419104057
      ],
      [
        "▁spell",
        -8.438578417452812
      ],
      [
        "▁pursuit",
        -10.323377147752705
      ],
      [
        "▁wiki",
        -7.863494163401468
      ],
      [
        "fall",
        -10.380079650271687
      ],
      [
        "▁fisher",
        -10.833850534966563
      ],
      [
        "▁hairpin",
        -11.275277934904697
      ],
      [
        "shadow",
        -12.318497130053498
      ],
      [
        "▁success",
        -8.22835123492166
      ],
      [
        "▁africa",
        -7.552096036445813
      ],
      [
        "▁policy",
        -7.923950273875583
      ],
      [
        "▁palace",
        -9.84660168495111
      ],
      [
        "▁syllable",
        -11.773238995002686
      ],
      [
        "▁smack",
        -10.958761714101747
      ],
      [
        "payer",
        -10.839119313031034
      ],
      [
        "▁valu",
        -10.742818018737335
      ],
      [
        "▁creat",
        -8.00466740362287
      ],
      [
        "5",
        -3.9349924025881613
      ],
      [
        "▁reca",
        -12.752577053478321
      ],
      [
        "▁ph",
        -9.73468707431758
      ],
      [
        "▁ma",
        -8.067773987165063
      ],
      [
        "▁innocen",
        -12.754824469043616
      ],
      [
        "ercur",
        -11.144203194992505
      ],
      [
        "et",
        -8.520137268692363
      ],
      [
        "pse",
        -12.408549257260367
      ],
      [
        "s",
        -2.856836203130575
      ],
      [
        "claim",
        -12.158161440783392
      ],
      [
        "hills",
        -12.748144382504169
      ],
      [
        "d",
        -2.637497417406923
      ],
      [
        "▁grocery",
        -10.079490966358495
      ],
      [
        "▁tun",
        -10.465068209857588
      ],
      [
        "vid",
        -10.259031293326384
      ],
      [
        "old",
        -9.528845702195468
      ],
      [
        "@enron",
        -4.892469852536547
      ],
      [
        "▁offer",
        -6.973364069203792
      ],
      [
        "▁populate",
        -9.76081277287819
      ],
      [
        "summer",
        -11.37000090545493
      ],
      [
        "▁gall",
        -9.815934369441802
      ],
      [
        "▁aggr",
        -11.426077352863178
      ],
      [
        "hurt",
        -12.602858857053779
      ],
      [
        "▁strain",
        -9.900034521624876
      ],
      [
        "eeth",
        -8.567450570883672
      ],
      [
        "▁frog",
        -9.596854603501564
      ],
      [
        "▁stomach",
        -9.178801566480708
      ],
      [
        "▁land",
        -7.4255578404570235
      ],
      [
        "▁blank",
        -10.942984007877184
      ],
      [
        "▁adjust",
        -8.81943056587951
      ],
      [
        "▁protect",
        -7.6478212800122485
      ],
      [
        "▁f",
        -8.821102863888438
      ],
      [
        "▁financi",
        -12.267971462810053
      ],
      [
        "rabbit",
        -11.501610557846249
      ],
      [
        "at",
        -7.706429681576975
      ],
      [
        "▁03/0",
        -7.937845980829839
      ],
      [
        "so",
        -7.2618511862300625
      ],
      [
        "▁drag",
        -9.756971879213626
      ],
      [
        "news",
        -8.123167760465929
      ],
      [
        "▁occurr",
        -8.562198231586656
      ],
      [
        "lapse",
        -10.654050809932839
      ],
      [
        "▁braz",
        -8.706006771373104
      ],
      [
        "arm",
        -10.622733502795475
      ],
      [
        "45",
        -10.689999243527975
      ],
      [
        "▁review",
        -8.033199575130796
      ],
      [
        "▁dec",
        -7.5533179389977425
      ],
      [
        "▁rapporteur",
        -9.395633588975457
      ],
      [
        "▁wire",
        -9.535869335546177
      ],
      [
        "ego",
        -12.78330892703813
      ],
      [
        "▁woo",
        -11.016576585201506
      ],
      [
        "▁zeal",
        -11.807675730369454
      ],
      [
        "▁natural",
        -6.989556970057124
      ],
      [
        "2",
        -9.646328218597908
      ],
      [
        "▁reco",
        -8.935903232023188
      ],
      [
        "▁tour",
        -10.39720374638068
      ],
      [
        "▁lol",
        -7.00934076015975
      ],
      [
        "▁pea",
        -10.953058294514326
      ],
      [
        "▁tag",
        -9.028384148317294
      ],
      [
        "ance",
        -11.496086980958138
      ],
      [
        "▁federa",
        -10.374695756547737
      ],
      [
        "▁native",
        -10.328439454078403
      ],
      [
        "▁sha",
        -13.23449182350222
      ],
      [
        "ast",
        -8.046489252248225
      ],
      [
        "stone",
        -9.812748268030642
      ],
      [
        "▁thinn",
        -11.635002523375663
      ],
      [
        "▁lace",
        -11.950704281177654
      ],
      [
        "▁misfortune",
        -10.939950145267304
      ],
      [
        "▁previous",
        -8.331232841109763
      ],
      [
        "oide",
        -12.227301976207968
      ],
      [
        "/16/200",
        -8.037406325703525
      ],
      [
        "▁regret",
        -9.489790445532266
      ],
      [
        "di",
        -8.690586142430135
      ],
      [
        "▁circu",
        -10.316346426818226
      ],
      [
        "shor",
        -9.683157785239645
      ],
      [
        ":00",
        -6.2272021234326935
      ],
      [
        "ounce",
        -10.561102899163927
      ],
      [
        "27",
        -8.112471739942134
      ],
      [
        "▁commun",
        -12.394664047914285
      ],
      [
        "▁campus",
        -9.758087247688
      ],
      [
        "n-",
        -7.42919141064054
      ],
      [
        "▁altho",
        -5.525065334463033
      ],
      [
        "▁marketplace",
        -11.29551120457728
      ],
      [
        "see",
        -9.049613460170495
      ],
      [
        "▁surro",
        -12.459170478213188
      ],
      [
        "▁assistan",
        -8.545786959433562
      ],
      [
        "sing",
        -8.692224253441063
      ],
      [
        "wor",
        -12.487241547110047
      ],
      [
        "▁chair",
        -8.753974215158204
      ],
      [
        "his",
        -9.32851135510752
      ],
      [
        "rass",
        -10.450110222781099
      ],
      [
        "▁mob",
        -10.736590192558007
      ],
      [
        "hone",
        -10.968646525565584
      ],
      [
        "cement",
        -12.033399257275878
      ],
      [
        "▁smu",
        -13.229708411310515
      ],
      [
        "▁amaze",
        -9.86882489442777
      ],
      [
        "▁old",
        -5.586906487994287
      ],
      [
        "▁begu",
        -8.858236529005222
      ],
      [
        "▁se",
        -8.598162436825039
      ],
      [
        "▁cup",
        -8.899798667538578
      ],
      [
        "nstitut",
        -11.521577612278305
      ],
      [
        "u",
        -8.070949385963766
      ],
      [
        "▁pr",
        -7.570935983409841
      ],
      [
        "▁increas",
        -12.667110140504244
      ],
      [
        "▁gene",
        -7.92645367918931
      ],
      [
        "▁stands",
        -11.844774879860758
      ],
      [
        "f",
        -7.674786905690743
      ],
      [
        "▁wednesday",
        -6.677675889378232
      ],
      [
        "▁pixie",
        -10.323336678667678
      ],
      [
        "▁award",
        -8.96713422943199
      ],
      [
        "ement",
        -11.861325857601045
      ],
      [
        "refli",
        -12.47190633786005
      ],
      [
        "▁bar",
        -10.05648783414817
      ],
      [
        "▁o",
        -12.326071694749007
      ],
      [
        "alize",
        -10.492262414875944
      ],
      [
        "▁humili",
        -11.774006849137264
      ],
      [
        "hol",
        -7.43404099862988
      ],
      [
        "unt",
        -11.400528838904616
      ],
      [
        "roach",
        -11.7322831086743
      ],
      [
        "▁shove",
        -10.398867040825184
      ],
      [
        "▁quiet",
        -11.306876991365803
      ],
      [
        "▁offering",
        -10.979438205713418
      ],
      [
        "uk",
        -8.585657331079851
      ],
      [
        "▁breath",
        -8.891083838013964
      ],
      [
        "▁promise",
        -9.350642910273638
      ],
      [
        "us",
        -8.503979686221008
      ],
      [
        "▁picture",
        -6.895166329756622
      ],
      [
        "▁arrival",
        -8.849838322401354
      ],
      [
        "need",
        -9.922703557848802
      ],
      [
        "show",
        -11.634505610817913
      ],
      [
        "▁alarm",
        -10.958738354538575
      ],
      [
        "▁180",
        -7.778578773183078
      ],
      [
        "▁damn",
        -10.956427749957351
      ],
      [
        "▁vegeta",
        -11.275045018827027
      ],
      [
        "▁ceme",
        -11.357405050851652
      ],
      [
        "on",
        -8.1917012505937
      ],
      [
        "!!!!!!!!!!!",
        -12.390566855407181
      ],
      [
        "▁ab",
        -8.805039313032388
      ],
      [
        "pe",
        -11.944381132877231
      ],
      [
        "acco",
        -11.328339147083003
      ],
      [
        "▁truck",
        -7.440402334510807
      ],
      [
        "all",
        -11.056333033340897
      ],
      [
        "▁shout",
        -9.15195904554747
      ],
      [
        "▁alaska",
        -8.522270976061442
      ],
      [
        "▁mou",
        -13.176622130944763
      ],
      [
        "▁pupil",
        -11.774414090512789
      ],
      [
        "▁exterminat",
        -11.273607935360294
      ],
      [
        "-o",
        -13.815758241094926
      ],
      [
        "d",
        -4.701714546391115
      ],
      [
        "figure",
        -13.828375359379809
      ],
      [
        "▁cha",
        -8.455887804187281
      ],
      [
        "▁redeem",
        -10.625537037087533
      ],
      [
        "orie",
        -12.763145414833907
      ],
      [
        "▁affliction",
        -10.48990705619978
      ],
      [
        "meet",
        -12.52443034166892
      ],
      [
        "oget",
        -6.134195808425582
      ],
      [
        "▁agenc",
        -8.502941689436444
      ],
      [
        "▁cross-",
        -11.776093482725123
      ],
      [
        "▁superhero",
        -11.273250135031756
      ],
      [
        "siz",
        -12.760911041946274
      ],
      [
        "▁outfi",
        -12.014804526440367
      ],
      [
        "▁bla",
        -11.385624851889096
      ],
      [
        "▁responsi",
        -7.657283662955391
      ],
      [
        "▁hundred",
        -5.955365271488084
      ],
      [
        "▁manufactur",
        -10.298044789864178
      ],
      [
        "-",
        -12.303800120175861
      ],
      [
        "▁displacement",
        -10.489930221885288
      ],
      [
        "▁s",
        -7.2016004436635175
      ],
      [
        "▁tend",
        -8.614622362102224
      ],
      [
        "▁declin",
        -10.48108522121559
      ],
      [
        "▁mac",
        -11.425948057826924
      ],
      [
        "▁batt",
        -12.215961505890357
      ],
      [
        "▁motivat",
        -11.621220227185681
      ],
      [
        "▁==",
        -12.464802984085608
      ],
      [
        "▁negotiator",
        -11.773717512051583
      ],
      [
        "▁fuck",
        -11.778735163763052
      ],
      [
        "ment",
        -8.426674424199724
      ],
      [
        "when",
        -7.381382499901413
      ],
      [
        "gh",
        -8.435082989855095
      ],
      [
        "▁cock",
        -12.181992047087654
      ],
      [
        "al",
        -7.165407135913335
      ],
      [
        "militar",
        -11.56820952419248
      ],
      [
        "▁je",
        -8.382911921986597
      ],
      [
        "▁shop-",
        -11.80168543927914
      ],
      [
        "▁grade",
        -9.501003494370028
      ],
      [
        "▁num",
        -12.063999843060612
      ],
      [
        "hush",
        -12.248439594521818
      ],
      [
        "▁protest",
        -9.534081895430205
      ],
      [
        "▁car",
        -8.758508331102655
      ],
      [
        "off",
        -9.980675388468486
      ],
      [
        "nstant",
        -10.101259788612444
      ],
      [
        "iday",
        -11.310764414540769
      ],
      [
        "▁resolve",
        -9.642685334669686
      ],
      [
        "▁conce",
        -10.279745226660157
      ],
      [
        "▁jacket",
        -9.336799605821227
      ],
      [
        "▁whi",
        -7.9186955548608084
      ],
      [
        "▁barrette",
        -10.939932662614222
      ],
      [
        "▁summari",
        -11.452863909971796
      ],
      [
        "▁attract",
        -8.538253893795229
      ],
      [
        "▁struggle",
        -10.202497375495566
      ],
      [
        "maker",
        -12.310929910806351
      ],
      [
        "▁barrel",
        -9.3959245261683
      ],
      [
        "tive",
        -10.393638677826782
      ],
      [
        "ucki",
        -10.274417932843773
      ],
      [
        "▁canape",
        -11.773653979859759
      ],
      [
        "▁increas",
        -8.53900235210116
      ],
      [
        "sel",
        -8.826133072965293
      ],
      [
        "imple",
        -12.004464690144992
      ],
      [
        "▁recieve",
        -10.175399798595071
      ],
      [
        "▁vlog",
        -9.130900042606777
      ],
      [
        "shire",
        -8.824234239091169
      ],
      [
        "▁tel",
        -10.065799689057256
      ],
      [
        "▁buff",
        -11.276931795344387
      ],
      [
        "cular",
        -8.054159040621263
      ],
      [
        "▁pat",
        -10.649402164164414
      ],
      [
        "litter",
        -11.017855584570045
      ],
      [
        "dden",
        -8.011444756232686
      ],
      [
        "done",
        -6.7834521924648845
      ],
      [
        "▁scribble",
        -9.534255413808545
      ],
      [
        "▁yoyo",
        -9.945827867270534
      ],
      [
        "ja",
        -11.335066923533693
      ],
      [
        "▁milit",
        -10.696523997912452
      ],
      [
        "cut",
        -10.581990512418892
      ],
      [
        "p",
        -7.066816683755824
      ],
      [
        "▁preci",
        -11.747983594617702
      ],
      [
        "▁glu",
        -10.06386345682719
      ],
      [
        "▁chase",
        -9.577074334807683
      ],
      [
        "▁sink",
        -9.140249979742165
      ],
      [
        "02",
        -10.723611256071086
      ],
      [
        "▁teen",
        -11.33537551281972
      ],
      [
        "dream",
        -11.545506190495892
      ],
      [
        "nationalit",
        -12.573037121990266
      ],
      [
        "▁t",
        -6.423821213326638
      ],
      [
        "nce",
        -8.780311225222537
      ],
      [
        "▁quart",
        -12.71987679151103
      ],
      [
        "▁salut",
        -12.228659179737923
      ],
      [
        "▁conjunction",
        -10.939904919764782
      ],
      [
        "▁lo",
        -9.872435665564204
      ],
      [
        "▁adh",
        -12.013548608549938
      ],
      [
        "▁justify",
        -10.176005862372051
      ],
      [
        "▁cin",
        -10.157588754628804
      ],
      [
        "▁adam",
        -6.007165886733898
      ],
      [
        "olli",
        -11.223409135020486
      ],
      [
        "▁percentage",
        -8.034499338474683
      ],
      [
        "▁roa",
        -11.67242812652639
      ],
      [
        "▁dispute",
        -10.62732526487285
      ],
      [
        "ath",
        -10.70113426733852
      ],
      [
        "▁modern",
        -7.2893754413007565
      ],
      [
        "▁believer",
        -11.77365854579654
      ],
      [
        "▁creep",
        -10.958890239629502
      ],
      [
        "axi",
        -10.707507818674149
      ],
      [
        "change",
        -11.490811199933914
      ],
      [
        "unk",
        -12.638987039581608
      ],
      [
        "▁mel",
        -12.738649504092391
      ],
      [
        "▁delinquen",
        -11.773238234282083
      ],
      [
        "▁guild",
        -11.274399217758488
      ],
      [
        "▁best",
        -11.406265472516603
      ],
      [
        "▁public",
        -9.230118482397986
      ],
      [
        "▁refund",
        -9.946371830972797
      ],
      [
        "▁eth",
        -10.836518064771056
      ],
      [
        "▁root",
        -10.63104711627929
      ],
      [
        "re",
        -7.027030272216266
      ],
      [
        "nex",
        -7.029111693797481
      ],
      [
        "▁gr",
        -12.076289944740271
      ],
      [
        "▁book",
        -7.527313072312097
      ],
      [
        "urate",
        -12.862025542752717
      ],
      [
        "▁prepar",
        -8.757126478595298
      ],
      [
        "▁infield",
        -11.802389446404513
      ],
      [
        "▁second",
        -6.165745746144752
      ],
      [
        "▁fath",
        -12.469466331578964
      ],
      [
        "yo",
        -13.477506734468584
      ],
      [
        "▁advert",
        -9.84711650035719
      ],
      [
        "lande",
        -12.437091890013582
      ],
      [
        "▁corpse",
        -11.325464962354172
      ],
      [
        "radi",
        -9.607586242160833
      ],
      [
        "▁drink",
        -8.003145371128067
      ],
      [
        "▁trademark",
        -11.458889552925358
      ],
      [
        "burg",
        -8.80369572149876
      ],
      [
        "▁worm",
        -8.852222979900482
      ],
      [
        "malad",
        -11.970161917946209
      ],
      [
        "▁nit",
        -12.116891657516858
      ],
      [
        "▁girl",
        -6.672321988464917
      ],
      [
        "▁guideline",
        -8.886442932006556
      ],
      [
        "wikihow",
        -8.399266911201764
      ],
      [
        "iz",
        -10.678765593047146
      ],
      [
        "mobili",
        -11.904194228907501
      ],
      [
        "▁preserv",
        -12.40513458221364
      ],
      [
        "cept",
        -12.43264122637503
      ],
      [
        "▁adhere",
        -11.17290569555546
      ],
      [
        "▁pen",
        -8.078169800458557
      ],
      [
        "revision",
        -11.635339438833519
      ],
      [
        "▁publish",
        -11.769261703677113
      ],
      [
        "▁rat",
        -8.64368571488226
      ],
      [
        "allow",
        -11.240035021764804
      ],
      [
        "▁kne",
        -7.241416540283398
      ],
      [
        "▁hono",
        -11.280363035328442
      ],
      [
        "▁p",
        -8.027474020344874
      ],
      [
        "▁inquir",
        -9.524281857111704
      ],
      [
        "▁weapon",
        -8.039189673866753
      ],
      [
        "▁fundamental",
        -7.691354906365133
      ],
      [
        "▁plan",
        -8.307157985587114
      ],
      [
        "▁treasure",
        -10.342224126674916
      ],
      [
        "v",
        -13.477506734468584
      ],
      [
        "▁who",
        -5.033694261489916
      ],
      [
        "rote",
        -7.59018499466834
      ],
      [
        "▁editors",
        -10.41326242069361
      ],
      [
        "▁scare",
        -9.20458049062011
      ],
      [
        "made",
        -10.120059527937936
      ],
      [
        "wa",
        -12.514819785449527
      ],
      [
        "▁sacri",
        -12.787730263254957
      ],
      [
        "`",
        -11.770631529841472
      ],
      [
        "crimin",
        -12.674812544105603
      ],
      [
        "▁street",
        -7.817149434523229
      ],
      [
        "call",
        -11.523315542197567
      ],
      [
        "▁brainwash",
        -10.95877571065879
      ],
      [
        "▁pyjama",
        -10.180467152074769
      ],
      [
        "▁zin",
        -10.72582636998642
      ],
      [
        "▁",
        -2.345074069766005
      ],
      [
        "▁buzzer",
        -10.941810941520515
      ],
      [
        "▁contingent",
        -11.27740824950854
      ],
      [
        "▁commence",
        -10.625801526851067
      ],
      [
        "traction",
        -10.923792516057338
      ],
      [
        "-20",
        -12.777073413550012
      ],
      [
        "▁renewa",
        -10.689916823279187
      ],
      [
        "ongo",
        -8.619095877807524
      ],
      [
        "▁perch",
        -11.46296376594109
      ],
      [
        "▁twink",
        -10.974217608451905
      ],
      [
        "▁anti-",
        -11.650352575505751
      ],
      [
        "▁gua",
        -9.93303267443629
      ],
      [
        "▁squeak",
        -10.00903609307047
      ],
      [
        "view",
        -12.000493681329093
      ],
      [
        "w-",
        -7.609720658197754
      ],
      [
        "au",
        -11.955927600049655
      ],
      [
        "▁bi",
        -10.513209550487332
      ],
      [
        "▁captain",
        -9.67243583661241
      ],
      [
        "mas",
        -7.6727106750395855
      ],
      [
        "▁smash",
        -10.375470894077244
      ],
      [
        "▁crocodil",
        -11.273238357818816
      ],
      [
        "▁confi",
        -11.59306650759455
      ],
      [
        "▁stretch",
        -9.755592690110804
      ],
      [
        "pour",
        -11.754048004659262
      ],
      [
        "ier",
        -12.024310590840324
      ],
      [
        "f",
        -6.1929281367797975
      ],
      [
        "▁assembl",
        -11.119961166005762
      ],
      [
        "▁tit",
        -10.153702829967653
      ],
      [
        "▁soft",
        -7.795608770514
      ],
      [
        "▁smooth",
        -9.734346849495914
      ],
      [
        "▁emm",
        -8.778445433297952
      ],
      [
        "▁round",
        -6.813480593206066
      ],
      [
        ".",
        -12.707635305583393
      ],
      [
        "▁award",
        -9.340104188335406
      ],
      [
        "▁incre",
        -12.034860316891326
      ],
      [
        "stoo",
        -10.869723171068461
      ],
      [
        "▁override",
        -10.959138156899225
      ],
      [
        "▁finaliz",
        -10.632792941184837
      ],
      [
        "▁formalism",
        -11.314001202995257
      ],
      [
        "less",
        -11.436733970083996
      ],
      [
        "▁open",
        -6.700602120712368
      ],
      [
        "pi",
        -8.620780129111488
      ],
      [
        "▁saint",
        -10.691929621870612
      ],
      [
        "***",
        -10.264982179695927
      ],
      [
        "▁rodent",
        -10.940102079811407
      ],
      [
        "ng",
        -8.848283490047828
      ],
      [
        "▁rebuil",
        -12.326106616136915
      ],
      [
        "▁cr",
        -9.971838562355774
      ],
      [
        "law",
        -11.037782025692607
      ],
      [
        "bo",
        -11.241528047934572
      ],
      [
        "lea",
        -12.333397362174413
      ],
      [
        "▁fu",
        -9.933028808457937
      ],
      [
        "burn",
        -11.227588816663001
      ],
      [
        "▁sleigh",
        -11.773252690882982
      ],
      [
        "▁stake",
        -10.713655881822273
      ],
      [
        "ed",
        -2.876766076595114
      ],
      [
        "▁care",
        -7.907577963490083
      ],
      [
        "▁over-",
        -11.780491533062088
      ],
      [
        "▁197",
        -6.181383886766783
      ],
      [
        "▁w",
        -7.904385979257153
      ],
      [
        "end",
        -9.56710488498962
      ],
      [
        "▁staple",
        -10.690374706954703
      ],
      [
        "x",
        -11.925660239071421
      ],
      [
        "math",
        -10.622196780096099
      ],
      [
        "istenc",
        -9.725837985392056
      ],
      [
        "▁descen",
        -11.849794409996614
      ],
      [
        "ican",
        -7.78911050047105
      ],
      [
        "▁color",
        -8.649343940973306
      ],
      [
        "pond",
        -11.995295152455302
      ],
      [
        "▁movie",
        -7.387667716695778
      ],
      [
        "▁our",
        -5.4680531288304906
      ],
      [
        "▁conflict",
        -8.630558669183499
      ],
      [
        "1990",
        -10.32691710807471
      ],
      [
        "▁ba",
        -7.679762023073685
      ],
      [
        "▁bleach",
        -10.490176034605723
      ],
      [
        "08",
        -8.081303445404517
      ],
      [
        "k",
        -4.824478571806009
      ],
      [
        "▁stagger",
        -10.958828837059231
      ],
      [
        "▁summaris",
        -11.550615396120406
      ],
      [
        "▁spe",
        -11.492324633209325
      ],
      [
        "breeder",
        -10.957006911170456
      ],
      [
        "▁perform",
        -7.9516644364622575
      ],
      [
        "niversa",
        -10.270643949518591
      ],
      [
        "▁deck",
        -9.862851386476672
      ],
      [
        "erie",
        -11.248425290702347
      ],
      [
        "▁http",
        -11.773279607039797
      ],
      [
        "s",
        -3.3173752150766376
      ],
      [
        "▁national",
        -6.406663850264038
      ],
      [
        "regions",
        -11.303989665529372
      ],
      [
        "▁'",
        -8.111149863688397
      ],
      [
        "thma",
        -11.342052681658792
      ],
      [
        "▁tak",
        -6.717722372292699
      ],
      [
        "▁thre",
        -8.490099273367072
      ],
      [
        "_",
        -4.900921085182438
      ],
      [
        "▁leopard",
        -11.307595861501229
      ],
      [
        "▁suit",
        -8.985778026150616
      ],
      [
        "▁blan",
        -8.557475670081105
      ],
      [
        "▁reptile",
        -10.489923459548073
      ],
      [
        "promotion",
        -12.582023639194396
      ],
      [
        "▁hiss",
        -11.084614010500765
      ],
      [
        "t",
        -4.811399238543655
      ],
      [
        "▁bc",
        -10.030823083387792
      ],
      [
        "c",
        -11.925660239071421
      ],
      [
        "▁lexico",
        -11.773243300167046
      ],
      [
        "ld",
        -12.54733491527661
      ],
      [
        "▁full",
        -6.361760699344071
      ],
      [
        "▁oak",
        -10.32745487993734
      ],
      [
        "isti",
        -9.925926837850664
      ],
      [
        "▁down",
        -5.192616129128126
      ],
      [
        "utilize",
        -10.625463411992387
      ],
      [
        "morning",
        -10.69859193660186
      ],
      [
        "▁close",
        -7.11502240079139
      ],
      [
        "▁personal",
        -7.73883688352381
      ],
      [
        "▁wiggl",
        -10.00883140088853
      ],
      [
        "▁rumor",
        -10.491094645673146
      ],
      [
        "▁artichoke",
        -10.939904889911878
      ],
      [
        "▁certificat",
        -11.7333213518591
      ],
      [
        "▁smuggl",
        -11.11373529962717
      ],
      [
        "▁ensur",
        -8.932108183470353
      ],
      [
        "▁minimu",
        -12.765887134371523
      ],
      [
        "bat",
        -11.808849954109576
      ],
      [
        "▁refugee",
        -9.46624148950065
      ],
      [
        "rup",
        -9.98831441521431
      ],
      [
        "ights",
        -10.314675954494128
      ],
      [
        "▁1",
        -10.931602993117998
      ],
      [
        "▁substitute",
        -10.950186817982384
      ],
      [
        "bite",
        -12.7901667391377
      ],
      [
        "band",
        -9.950554848000966
      ],
      [
        "▁blind",
        -8.740435884048367
      ],
      [
        "sort",
        -10.636178946038308
      ],
      [
        "▁wait",
        -6.4435862654354095
      ],
      [
        "mas",
        -12.228995326448441
      ],
      [
        "stant",
        -8.552767185439565
      ],
      [
        "▁pach",
        -8.716145453005208
      ],
      [
        "crop",
        -12.573310809868449
      ],
      [
        "▁garb",
        -9.689904659700115
      ],
      [
        "▁mistress",
        -11.274274422846688
      ],
      [
        "introduc",
        -13.623381584712593
      ],
      [
        "▁than",
        -9.626784327825048
      ],
      [
        "▁us",
        -7.3584463314768165
      ],
      [
        "▁snor",
        -11.033034083448028
      ],
      [
        "ocation",
        -12.85939316751838
      ],
      [
        "▁view",
        -8.258169616922892
      ],
      [
        "▁tin",
        -7.625313974643603
      ],
      [
        "▁meta",
        -10.287195766189344
      ],
      [
        "me",
        -8.872752258031433
      ],
      [
        "clo",
        -8.222269335033062
      ],
      [
        "trooper",
        -11.9062896144163
      ],
      [
        "te",
        -7.071888424677393
      ],
      [
        "fi",
        -12.77470058569384
      ],
      [
        "▁ailment",
        -11.27375959133466
      ],
      [
        "lines",
        -9.485874622998882
      ],
      [
        "among",
        -10.114427603570839
      ],
      [
        "him",
        -8.090238517203447
      ],
      [
        "▁jihadis",
        -10.951317686750697
      ],
      [
        "▁buil",
        -7.856162297499796
      ],
      [
        "▁imm",
        -11.580544596856653
      ],
      [
        "▁22",
        -6.821468071390161
      ],
      [
        "ge",
        -8.118621365486504
      ],
      [
        "ess",
        -8.366410517912175
      ],
      [
        "▁ja",
        -9.49987441781681
      ],
      [
        "hou",
        -12.521539516566062
      ],
      [
        "▁builder",
        -10.947903272517406
      ],
      [
        "▁shorts",
        -8.92938331588757
      ],
      [
        "▁te",
        -10.138159968443658
      ],
      [
        "▁pri",
        -8.56855636069049
      ],
      [
        "▁label",
        -9.849402403090842
      ],
      [
        "derma",
        -11.671368412853791
      ],
      [
        "fold",
        -11.329311221714445
      ],
      [
        "▁gal",
        -8.760894731335892
      ],
      [
        "rigge",
        -11.477878751387912
      ],
      [
        "mom",
        -12.83655062446735
      ],
      [
        "▁!!!!",
        -9.976697986141936
      ],
      [
        "spos",
        -9.538910020897028
      ],
      [
        "▁perse",
        -10.855389667695754
      ],
      [
        "scend",
        -13.451345622035708
      ],
      [
        "ro",
        -11.2202639666164
      ],
      [
        "▁e",
        -9.832786323880768
      ],
      [
        "mole",
        -11.095108326084457
      ],
      [
        "▁la",
        -8.644930468398599
      ],
      [
        "▁olive",
        -10.325132364644887
      ],
      [
        "l",
        -6.758199687090753
      ],
      [
        "|",
        -9.71992686283465
      ],
      [
        "▁squea",
        -12.46633556498446
      ],
      [
        "▁evi",
        -10.09501951052522
      ],
      [
        "▁ball",
        -7.087949948917329
      ],
      [
        "ch",
        -7.364946314041537
      ],
      [
        "ept",
        -11.715792842731371
      ],
      [
        "▁important",
        -8.994454849100647
      ],
      [
        "▁foods",
        -9.414474108005841
      ],
      [
        "▁split",
        -10.52370138841691
      ],
      [
        "▁commu",
        -11.46411832325718
      ],
      [
        "▁pad",
        -11.10453757131176
      ],
      [
        "▁with",
        -9.28585943181657
      ],
      [
        "▁tracer",
        -11.293383557931419
      ],
      [
        "lia",
        -9.700253784792553
      ],
      [
        "▁politician",
        -9.595896139780441
      ],
      [
        "intif",
        -12.811021988540638
      ],
      [
        "▁uphold",
        -10.644607613795992
      ],
      [
        "▁conten",
        -10.668644523220832
      ],
      [
        "discuss",
        -13.027525058305615
      ],
      [
        "▁mineral",
        -10.180576217206646
      ],
      [
        "▁rule",
        -9.498378461293761
      ],
      [
        "▁advert",
        -12.458968565707751
      ],
      [
        "▁excite",
        -9.744419735341996
      ],
      [
        "▁method",
        -7.916862768325506
      ],
      [
        "▁north",
        -8.50620785573341
      ],
      [
        "ion",
        -12.593739443721898
      ],
      [
        "rench",
        -7.337084724346421
      ],
      [
        "▁ge",
        -9.980967270631677
      ],
      [
        "leading",
        -10.686011657242565
      ],
      [
        "▁taper",
        -11.304980994921396
      ],
      [
        "▁marginali",
        -10.375400389990173
      ],
      [
        "▁intens",
        -8.68512790491527
      ],
      [
        "▁-",
        -2.719908429384735
      ],
      [
        "▁appro",
        -8.103909467891734
      ],
      [
        "▁sub",
        -9.659288312934274
      ],
      [
        "▁harmonise",
        -10.379349057462107
      ],
      [
        "ress",
        -9.707556406647406
      ],
      [
        "estin",
        -11.81334067423182
      ],
      [
        "abet",
        -11.956095007270289
      ],
      [
        "▁forecast",
        -10.323261697784549
      ],
      [
        "▁agricultur",
        -9.001047309943969
      ],
      [
        "▁savio",
        -12.738169637369268
      ],
      [
        "▁gu",
        -9.10484022815382
      ],
      [
        "▁passion",
        -9.46448117737368
      ],
      [
        "▁cha",
        -10.908177146885915
      ],
      [
        "tic",
        -9.891044267181542
      ],
      [
        "▁wheez",
        -10.958925858465303
      ],
      [
        "touch",
        -13.681197667947874
      ],
      [
        "ula",
        -7.8655581337808815
      ],
      [
        "▁serving",
        -10.060151123870847
      ],
      [
        "purpos",
        -12.769970901266204
      ],
      [
        "togen",
        -12.027992078703164
      ],
      [
        "▁hatch",
        -10.617539123774906
      ],
      [
        "▁cabb",
        -12.812046838791707
      ],
      [
        "▁town",
        -7.366491294841997
      ],
      [
        "▁sara",
        -6.708077875948279
      ],
      [
        "▁shake",
        -10.99855041651658
      ],
      [
        "▁emitt",
        -10.719279613934258
      ],
      [
        "▁value",
        -7.239929170484043
      ],
      [
        "pe",
        -8.669610901389861
      ],
      [
        "relate",
        -12.231888726472867
      ],
      [
        "▁haircut",
        -9.595821595975401
      ],
      [
        "▁dictator",
        -10.873468731890776
      ],
      [
        "undra",
        -12.814195957199304
      ],
      [
        "▁long",
        -10.72007700084245
      ],
      [
        "ovid",
        -12.79363286030702
      ],
      [
        "htm",
        -10.520791102268927
      ],
      [
        "hed",
        -12.17815840285402
      ],
      [
        "▁t",
        -7.15943510415031
      ],
      [
        "▁banner",
        -10.055721331528538
      ],
      [
        "▁educate",
        -9.404391758100541
      ],
      [
        "▁shop",
        -9.757703357156307
      ],
      [
        "nounce",
        -13.21892074469947
      ],
      [
        "▁general",
        -9.285180285924392
      ],
      [
        "▁advise",
        -11.818022710763977
      ],
      [
        "▁heat",
        -9.71226296886555
      ],
      [
        "▁casualt",
        -10.331414913341948
      ],
      [
        "▁bake",
        -11.812631887093962
      ],
      [
        "▁mu",
        -5.496880053479114
      ],
      [
        "▁memor",
        -8.270675350972942
      ],
      [
        "▁accomplishe",
        -11.65918178565418
      ],
      [
        "▁200,000",
        -7.7571469335051155
      ],
      [
        "ythm",
        -11.027282416549637
      ],
      [
        "very",
        -8.143274354969591
      ],
      [
        "ar",
        -7.075727222635783
      ],
      [
        "it",
        -7.619367739875833
      ],
      [
        "ca",
        -9.554308594660705
      ],
      [
        "▁temp",
        -10.588743429687328
      ],
      [
        "▁include",
        -7.061085876825674
      ],
      [
        "later",
        -5.988474399927434
      ],
      [
        "ext",
        -10.389671360496573
      ],
      [
        "ril",
        -10.734525560078948
      ],
      [
        "▁shift",
        -10.175490223528428
      ],
      [
        "metal",
        -12.389754639605174
      ],
      [
        "reservation",
        -12.54280942052142
      ],
      [
        "▁summer",
        -7.634630922369871
      ],
      [
        "d-",
        -7.703659643226237
      ],
      [
        "driver",
        -9.721282188294449
      ],
      [
        "lift",
        -12.091224211647479
      ],
      [
        "▁)",
        -8.967339649659891
      ],
      [
        "whil",
        -8.721459407085504
      ],
      [
        "ar",
        -7.063891730229105
      ],
      [
        "▁ext",
        -12.681420608363997
      ],
      [
        "thi",
        -6.816229796495275
      ],
      [
        "▁finish",
        -7.390927051909596
      ],
      [
        "ators",
        -10.507171999715709
      ],
      [
        "▁chamber",
        -10.941363915181757
      ],
      [
        "▁in",
        -10.646524597685804
      ],
      [
        "▁dry",
        -8.577557739989558
      ],
      [
        "rod",
        -11.776451448136156
      ],
      [
        "sel",
        -9.133677608802627
      ],
      [
        "change",
        -10.712926284232378
      ],
      [
        "dy",
        -8.843321184105331
      ],
      [
        "▁u",
        -8.713562446948547
      ],
      [
        "▁environment",
        -7.931126139641606
      ],
      [
        "▁launch",
        -9.588841997332441
      ],
      [
        "▁punch",
        -8.91668404709228
      ],
      [
        "nger",
        -10.29292179943609
      ],
      [
        "▁stripe",
        -10.23625864901136
      ],
      [
        "atu",
        -11.074327926036066
      ],
      [
        "▁dempsey",
        -11.27323988963459
      ],
      [
        "▁m",
        -9.554469384811476
      ],
      [
        "ffici",
        -8.176448879623912
      ],
      [
        "▁spann",
        -10.632733669214016
      ],
      [
        "▁scho",
        -7.858178035989682
      ],
      [
        "▁legi",
        -8.41232019307709
      ],
      [
        "▁exercis",
        -11.11324161649689
      ],
      [
        "▁revenue",
        -9.000857031170487
      ],
      [
        "▁narrow",
        -8.395233541677003
      ],
      [
        "▁salon",
        -9.086900209794798
      ],
      [
        "▁12",
        -5.2458269485953
      ],
      [
        "hen",
        -8.51936552547652
      ],
      [
        "terior",
        -10.107027334161197
      ],
      [
        "lick",
        -13.311736565198443
      ],
      [
        "▁sacrifice",
        -10.37539229013642
      ],
      [
        "▁rep",
        -8.553982279391816
      ],
      [
        "▁quit",
        -10.552507898864086
      ],
      [
        "▁waterfall",
        -10.69303944883506
      ],
      [
        "▁issue",
        -7.020976742071823
      ],
      [
        "▁mari",
        -7.872290944246012
      ],
      [
        "▁trash",
        -11.47526372448275
      ],
      [
        "16",
        -7.239998889600365
      ],
      [
        "▁peni",
        -10.839176328831153
      ],
      [
        "▁fake",
        -11.300526076895467
      ],
      [
        "ding",
        -8.718424413211814
      ],
      [
        "▁demonstrat",
        -10.908466487076097
      ],
      [
        "▁creativ",
        -8.751475986366145
      ],
      [
        "▁cha",
        -9.7163047945591
      ],
      [
        "▁landscape",
        -9.755766326136797
      ],
      [
        "it",
        -10.578996187675033
      ],
      [
        "▁trick",
        -9.747989662756476
      ],
      [
        "nny",
        -11.336319944510334
      ],
      [
        "place",
        -9.554230934812187
      ],
      [
        "raf",
        -8.270774331526528
      ],
      [
        "b",
        -6.825311492901869
      ],
      [
        "▁canad",
        -8.545422567737946
      ],
      [
        "▁manage",
        -8.279946590380614
      ],
      [
        "▁emerge",
        -9.38954857975813
      ],
      [
        "▁butt",
        -12.477777609297064
      ],
      [
        "▁conclusion",
        -8.750172020761742
      ],
      [
        "▁smalle",
        -7.835216647211118
      ],
      [
        "97",
        -12.773902682030881
      ],
      [
        "▁co",
        -7.453099625397209
      ],
      [
        "▁fi",
        -4.740511853306687
      ],
      [
        "▁dump",
        -10.323636228627171
      ],
      [
        "order",
        -10.486093322102002
      ],
      [
        "mous",
        -8.168457951585989
      ],
      [
        "▁dismiss",
        -10.270601876005362
      ],
      [
        "▁behave",
        -10.532273809375848
      ],
      [
        "▁achiev",
        -8.898995402808437
      ],
      [
        "score",
        -12.153666155755833
      ],
      [
        "▁fu",
        -8.357007391882515
      ],
      [
        "▁definition",
        -8.928968390511578
      ],
      [
        "▁official",
        -8.16627635265981
      ],
      [
        "sylv",
        -8.887908351306098
      ],
      [
        "about",
        -11.172965359855436
      ],
      [
        "come",
        -12.452255681122287
      ],
      [
        "▁colonial",
        -12.769120913342253
      ],
      [
        "▁conno",
        -12.791441134309625
      ],
      [
        "▁clown",
        -9.395287036420182
      ],
      [
        "*****",
        -11.55114666431147
      ],
      [
        "▁stroll",
        -12.060155923284025
      ],
      [
        "▁reschedule",
        -11.16927660074089
      ],
      [
        "▁f",
        -6.753051150091313
      ],
      [
        "▁low",
        -7.220900580056894
      ],
      [
        "ife",
        -10.2843738259449
      ],
      [
        "way",
        -7.632897704296731
      ],
      [
        "▁alr",
        -8.353446800509932
      ],
      [
        "03",
        -7.891446333354343
      ],
      [
        "▁admirer",
        -11.783405527850544
      ],
      [
        "low",
        -8.699569245665831
      ],
      [
        "▁grate",
        -11.603363194765134
      ],
      [
        "▁qa",
        -7.134338267906523
      ],
      [
        "teur",
        -11.092693942348484
      ],
      [
        "▁uncle",
        -8.575485046568254
      ],
      [
        "▁blood",
        -8.88841293054746
      ],
      [
        "▁reach",
        -7.623129132054625
      ],
      [
        "▁oc",
        -11.26263805492211
      ],
      [
        "▁familia",
        -12.434141908715656
      ],
      [
        "▁co-star",
        -11.273321053139647
      ],
      [
        "▁meat",
        -8.105176892505767
      ],
      [
        "skirt",
        -12.561796317478043
      ],
      [
        "▁smi",
        -12.455926901947953
      ],
      [
        "personaliz",
        -12.41488574446664
      ],
      [
        "ded",
        -7.664095298121266
      ],
      [
        "tome",
        -12.438250994878477
      ],
      [
        "▁shu",
        -12.30550970281121
      ],
      [
        "▁sati",
        -10.117304001181171
      ],
      [
        "noth",
        -9.805417396928092
      ],
      [
        "▁imm",
        -10.710225304513974
      ],
      [
        "er",
        -6.470632969663978
      ],
      [
        "▁rec",
        -11.690909482314941
      ],
      [
        "▁st",
        -9.70613933354561
      ],
      [
        "rocco",
        -11.859552634533577
      ],
      [
        "▁ass",
        -9.316524138411612
      ],
      [
        "neck",
        -11.51797713223456
      ],
      [
        "▁elaborate",
        -11.458727008111964
      ],
      [
        "▁deal",
        -7.715989102374261
      ],
      [
        "wood",
        -9.40260489095257
      ],
      [
        "development",
        -11.869238220107027
      ],
      [
        "▁reduc",
        -9.075227997464417
      ],
      [
        "▁consumer",
        -9.005271056704325
      ],
      [
        "▁academi",
        -11.774562100386666
      ],
      [
        "ho",
        -13.331044045789548
      ],
      [
        "▁fingernail",
        -11.775462204997794
      ],
      [
        "▁con",
        -7.391996245884695
      ],
      [
        "▁beginner",
        -10.489905153091858
      ],
      [
        "▁baker",
        -10.350221872326157
      ],
      [
        "▁cp",
        -11.291192365463893
      ],
      [
        "▁moth",
        -10.507662615322317
      ],
      [
        "▁thro",
        -11.610312718731503
      ],
      [
        "▁pilot",
        -8.78237212644001
      ],
      [
        "post",
        -13.675093249879065
      ],
      [
        "▁go",
        -6.738425845394443
      ],
      [
        "al",
        -5.95872636162754
      ],
      [
        "▁chop",
        -11.283890807901546
      ],
      [
        "▁hun",
        -11.913028083423328
      ],
      [
        "t",
        -4.296542088812357
      ],
      [
        "ivel",
        -12.791253359805747
      ],
      [
        "▁telephone",
        -8.66217121956061
      ],
      [
        "▁paste",
        -11.152475712327192
      ],
      [
        "oo",
        -12.771529110249816
      ],
      [
        "▁stylist",
        -10.941183437987315
      ],
      [
        "▁scene",
        -8.48642822517001
      ],
      [
        "▁nat",
        -8.983100514700261
      ],
      [
        "▁rub",
        -8.944506932418118
      ],
      [
        "▁camp",
        -8.413896221185386
      ],
      [
        "▁measur",
        -10.126382994541565
      ],
      [
        "gni",
        -12.865406870985739
      ],
      [
        "buy",
        -11.966671412156957
      ],
      [
        "▁!!!!!!!!!!",
        -11.835042718013746
      ],
      [
        "sis",
        -12.333623327525007
      ],
      [
        "▁song",
        -7.919251948714502
      ],
      [
        "jective",
        -12.773837504325275
      ],
      [
        "▁stimulat",
        -10.175392293971926
      ],
      [
        "▁sprit",
        -11.777809050399457
      ],
      [
        "▁v",
        -9.371694162279908
      ],
      [
        "▁alley",
        -11.229343223213668
      ],
      [
        "▁dig",
        -11.804744565681208
      ],
      [
        "▁slum",
        -10.93503368115338
      ],
      [
        "▁replacement",
        -9.846534439799173
      ],
      [
        "▁geno",
        -10.791532875012063
      ],
      [
        "▁hurry",
        -9.44378856143484
      ],
      [
        "▁strangle",
        -11.458790070423893
      ],
      [
        "▁til",
        -10.08890471521851
      ],
      [
        "▁48",
        -8.04902289070852
      ],
      [
        "▁diet",
        -9.67760430775865
      ],
      [
        "seek",
        -12.500207460992938
      ],
      [
        "▁boil",
        -10.693598220332618
      ],
      [
        "▁wrapp",
        -11.097257469494371
      ],
      [
        "curr",
        -11.130428556522366
      ],
      [
        "ter",
        -8.831206181277171
      ],
      [
        "introduction",
        -10.812637752872735
      ],
      [
        "▁steve",
        -8.197645767411604
      ],
      [
        "▁conduit",
        -11.773566648634826
      ],
      [
        "▁circl",
        -12.584070781973015
      ],
      [
        "invest",
        -12.124624620238379
      ],
      [
        "▁a",
        -6.484556626444801
      ],
      [
        "▁readers",
        -9.269912823219016
      ],
      [
        "sphere",
        -8.28516894859234
      ],
      [
        "▁si",
        -9.68576921674075
      ],
      [
        "▁charl",
        -7.222016558532928
      ],
      [
        "▁consult",
        -9.7445485960796
      ],
      [
        "▁oakl",
        -6.086037196608399
      ],
      [
        "▁goggl",
        -12.059495251201128
      ],
      [
        "▁cow",
        -8.149890248455867
      ],
      [
        "▁sleep",
        -7.3867615725125875
      ],
      [
        "▁mur",
        -12.269522202789725
      ],
      [
        "oh",
        -5.75281353938016
      ],
      [
        "▁missi",
        -8.92979991051639
      ],
      [
        "x",
        -7.618871757219306
      ],
      [
        "▁poet",
        -8.509221116818596
      ],
      [
        "▁micro",
        -8.074317963048511
      ],
      [
        "▁gate",
        -9.348686127291923
      ],
      [
        "▁write",
        -12.749547706358213
      ],
      [
        "▁armchair",
        -11.275917042148176
      ],
      [
        "▁accent",
        -11.48283615526582
      ],
      [
        "▁ar",
        -7.66241252467595
      ],
      [
        "week",
        -12.181939956118198
      ],
      [
        "▁broad",
        -7.998462488971848
      ],
      [
        "▁ld2d-#693",
        -9.724436662520883
      ],
      [
        "exica",
        -8.20624673493705
      ],
      [
        "ther",
        -5.232010347024702
      ],
      [
        "▁pas",
        -7.821620048628746
      ],
      [
        "▁destin",
        -9.754402379291285
      ],
      [
        "▁bak",
        -11.27177209824641
      ],
      [
        "▁lever",
        -10.793766194200199
      ],
      [
        "▁substitute",
        -10.822485321768516
      ],
      [
        "▁knock",
        -11.274077937879825
      ],
      [
        "ea",
        -13.104392647885902
      ],
      [
        "▁solid",
        -9.856745728702556
      ],
      [
        "umor",
        -11.94875613718334
      ],
      [
        "▁before",
        -6.6514196137008295
      ],
      [
        "lly",
        -8.610261953662853
      ],
      [
        "▁deteriorat",
        -11.01797744989361
      ],
      [
        "enture",
        -12.579669196697228
      ],
      [
        "▁damn",
        -9.227687236554834
      ],
      [
        "janu",
        -7.393387375893962
      ],
      [
        "▁corps",
        -12.059091446603555
      ],
      [
        "▁feather",
        -9.132554777286956
      ],
      [
        "mi",
        -12.02403660576998
      ],
      [
        "▁recommend",
        -6.895939823875512
      ],
      [
        "people",
        -8.687031762784274
      ],
      [
        "▁conversion",
        -10.69187108654597
      ],
      [
        "▁embedd",
        -9.869434000832122
      ],
      [
        "▁b",
        -12.241560312219251
      ],
      [
        "erran",
        -12.17917296873174
      ],
      [
        "top",
        -9.507026003803755
      ],
      [
        "scient",
        -12.672495545864196
      ],
      [
        "▁cal",
        -10.33518619338456
      ],
      [
        "▁so",
        -12.01206692527214
      ],
      [
        "bino",
        -10.599124816835698
      ],
      [
        "▁mcdonald",
        -8.889927420835093
      ],
      [
        "manuel",
        -8.75511960697962
      ],
      [
        "▁barg",
        -11.289107082781753
      ],
      [
        "▁album",
        -10.93990831945152
      ],
      [
        "6-1.",
        -10.218502006232566
      ],
      [
        "ctiv",
        -7.934144041055749
      ],
      [
        "fect",
        -7.810865185202944
      ],
      [
        "cify",
        -12.462745904440254
      ],
      [
        "▁astronom",
        -11.766034024911722
      ],
      [
        "▁zip",
        -10.648250389434395
      ],
      [
        "tray",
        -12.746551481530544
      ],
      [
        "▁blanket",
        -8.498890151939841
      ],
      [
        "▁independent",
        -12.088882713110344
      ],
      [
        "wise",
        -7.250263014346251
      ],
      [
        "▁final",
        -10.08726768172686
      ],
      [
        "▁paint",
        -8.972620721315323
      ],
      [
        "▁ap",
        -10.151783606805223
      ],
      [
        "▁printer",
        -10.955841773293752
      ],
      [
        "▁convention",
        -9.45824550001243
      ],
      [
        "ade",
        -12.386965897927887
      ],
      [
        "▁processor",
        -10.510731460603468
      ],
      [
        "weav",
        -12.350316924860785
      ],
      [
        "▁professional",
        -9.22965234931517
      ],
      [
        "▁be",
        -6.418192732652731
      ],
      [
        "▁s",
        -8.614769031835209
      ],
      [
        "▁disinf",
        -11.67649696533419
      ],
      [
        "▁up",
        -5.004285843445531
      ],
      [
        "ark",
        -11.439388255807351
      ],
      [
        "0",
        -8.736261159740835
      ],
      [
        "▁arrange",
        -8.659840971283762
      ],
      [
        "▁fec",
        -12.01216420733392
      ],
      [
        "icure",
        -12.849968579034266
      ],
      [
        "▁blood",
        -8.339393517935303
      ],
      [
        "▁tickl",
        -10.852215701959326
      ],
      [
        "do",
        -8.922653752225704
      ],
      [
        "▁sub",
        -9.632716355258115
      ],
      [
        "▁trim",
        -9.877510487838935
      ],
      [
        "▁acquir",
        -9.511154169961484
      ],
      [
        "n",
        -4.701494973042649
      ],
      [
        "▁modu",
        -11.795339816191124
      ],
      [
        "jection",
        -10.32148127434371
      ],
      [
        "▁buzz",
        -10.958735137065993
      ],
      [
        "laborat",
        -8.9054204932505
      ],
      [
        "▁furni",
        -8.849717458017198
      ],
      [
        "ghett",
        -10.489924311472477
      ],
      [
        "resent",
        -11.373964920308698
      ],
      [
        "▁fur",
        -8.230479166097357
      ],
      [
        "▁lead",
        -9.012292082712904
      ],
      [
        "limb",
        -11.562396033390469
      ],
      [
        "▁f",
        -11.570644583811621
      ],
      [
        "▁paris",
        -7.2632016687549665
      ],
      [
        "▁exten",
        -8.930532507267808
      ],
      [
        "▁controll",
        -9.936234030398749
      ],
      [
        "▁cascade",
        -11.273458164769451
      ],
      [
        "▁ag",
        -11.083605184455314
      ],
      [
        "itude",
        -10.554894065670284
      ],
      [
        "l",
        -12.810278406305953
      ],
      [
        "▁hol",
        -11.45330634208705
      ],
      [
        "▁ag",
        -6.359684494857315
      ],
      [
        "of",
        -9.72713078997091
      ],
      [
        "uni",
        -10.9721184248622
      ],
      [
        "▁wield",
        -10.625537843783844
      ],
      [
        "▁sump",
        -10.084760981576363
      ],
      [
        "deration",
        -12.320869198668506
      ],
      [
        "vict",
        -12.459280057623097
      ],
      [
        "▁qui",
        -6.449378746013751
      ],
      [
        "auti",
        -6.786796365666034
      ],
      [
        "▁terror",
        -8.89548695744383
      ],
      [
        "▁gla",
        -10.764001975023302
      ],
      [
        "▁ballast",
        -11.781645153082469
      ],
      [
        "▁inequalit",
        -9.847596516670041
      ],
      [
        "ipulation",
        -11.798173859984221
      ],
      [
        "▁sub-",
        -11.280182868402571
      ],
      [
        "▁bad",
        -6.056861771555049
      ],
      [
        "ful",
        -10.214173596185605
      ],
      [
        "▁formula",
        -10.490003354583301
      ],
      [
        "▁safe",
        -7.253644350897146
      ],
      [
        "▁advancement",
        -10.694932297189386
      ],
      [
        "▁accompli",
        -12.773234459287021
      ],
      [
        "/",
        -3.479256089764042
      ],
      [
        "wbo",
        -12.810206248481382
      ],
      [
        "serv",
        -12.88785399358967
      ],
      [
        "▁equation",
        -10.690289572925696
      ],
      [
        "▁circle",
        -8.204498082954158
      ],
      [
        "▁refus",
        -9.153500385357804
      ],
      [
        "▁skydiv",
        -11.773964127969188
      ],
      [
        "▁wha",
        -10.921036575603832
      ],
      [
        "▁eta",
        -11.898042135851732
      ],
      [
        "null",
        -11.540705257852109
      ],
      [
        "▁gear",
        -10.512563377795647
      ],
      [
        "▁tick",
        -11.857039705607265
      ],
      [
        "▁influen",
        -12.774859995171129
      ],
      [
        "apri",
        -7.848198512512113
      ],
      [
        "▁wors",
        -7.1919873934551335
      ],
      [
        "▁crypt",
        -11.835530331712345
      ],
      [
        "▁accu",
        -8.3566766183063
      ],
      [
        "▁bum",
        -12.088780552046527
      ],
      [
        "▁rectif",
        -10.970555379032861
      ],
      [
        "▁doubt",
        -9.444180129155395
      ],
      [
        "ful",
        -5.211743761945356
      ],
      [
        "ail",
        -10.20842914982504
      ],
      [
        "▁initiat",
        -11.080524148633113
      ],
      [
        "▁dive",
        -12.689422565787856
      ],
      [
        "on-in",
        -11.798678390663499
      ],
      [
        "▁outcome",
        -9.131262407900113
      ],
      [
        "odd",
        -8.367472074936865
      ],
      [
        "ic",
        -6.031345409737585
      ],
      [
        "toward",
        -10.5930503330447
      ],
      [
        "▁nest",
        -11.544519048764402
      ],
      [
        "nate",
        -13.698996517315438
      ],
      [
        "le",
        -8.50795881827378
      ],
      [
        "▁sound",
        -8.023774597671515
      ],
      [
        "▁execution",
        -9.39557459833006
      ],
      [
        "eparation",
        -10.770325384792613
      ],
      [
        "▁pew",
        -10.957269150251278
      ],
      [
        "▁frown",
        -10.6265895858662
      ],
      [
        "qu",
        -8.710015999172573
      ],
      [
        "duck",
        -11.539571751544008
      ],
      [
        "▁watch",
        -9.051034090490687
      ],
      [
        "san",
        -8.940219519766172
      ],
      [
        "+",
        -4.96382852617071
      ],
      [
        "lation",
        -11.52206470840211
      ],
      [
        "▁rad",
        -11.023343816538008
      ],
      [
        "▁presiden",
        -11.73182336201788
      ],
      [
        "▁pur",
        -13.270925834830798
      ],
      [
        "▁interview",
        -8.17924208247545
      ],
      [
        "ove",
        -8.910776172545935
      ],
      [
        "▁camps",
        -11.579402508966139
      ],
      [
        "▁fract",
        -11.930885973920443
      ],
      [
        "▁mot",
        -11.146758084275968
      ],
      [
        "▁science",
        -8.217354337862405
      ],
      [
        "amb",
        -8.830642224973976
      ],
      [
        "▁intersect",
        -12.77152854534696
      ],
      [
        "▁provocation",
        -10.489928597602297
      ],
      [
        "▁checker",
        -11.980659200914445
      ],
      [
        "▁tor",
        -12.415139234508775
      ],
      [
        "ome",
        -11.659178025091506
      ],
      [
        "▁intellect",
        -11.773236626314914
      ],
      [
        "aire",
        -12.050737498529205
      ],
      [
        "▁!",
        -6.89487113485091
      ],
      [
        "unh",
        -8.2816865387236
      ],
      [
        "▁jur",
        -10.434258648377964
      ],
      [
        "▁rip",
        -10.904917869116167
      ],
      [
        "igu",
        -12.539247222754025
      ],
      [
        "▁counteract",
        -11.458838176913352
      ],
      [
        "▁survive",
        -8.607826943963541
      ],
      [
        "▁re",
        -6.479732183788573
      ],
      [
        "inth",
        -8.865730002401458
      ],
      [
        "▁corr",
        -12.463962126789447
      ],
      [
        "inform",
        -11.975984751002738
      ],
      [
        "▁interpret",
        -9.041564964558667
      ],
      [
        "▁strange",
        -8.178787220278208
      ],
      [
        "▁patient",
        -9.054981465162111
      ],
      [
        "▁dra",
        -13.320602956228731
      ],
      [
        "▁skull",
        -10.489915407868907
      ],
      [
        "it",
        -10.015461713398222
      ],
      [
        "▁opposite",
        -9.96884649416458
      ],
      [
        "▁beginning",
        -8.45083686555959
      ],
      [
        "room",
        -11.473186397732578
      ],
      [
        "▁ris",
        -11.98921979414389
      ],
      [
        "▁cloth",
        -8.504324616228901
      ],
      [
        "▁shav",
        -11.891973925834867
      ],
      [
        "▁further",
        -7.053770262695196
      ],
      [
        "▁hall",
        -8.28283908688302
      ],
      [
        "ride",
        -10.169111190305681
      ],
      [
        "balanc",
        -11.231409541198653
      ],
      [
        "blossom",
        -12.650855750714928
      ],
      [
        "▁basic",
        -7.651982902971502
      ],
      [
        "va",
        -11.680551196597364
      ],
      [
        "▁implement",
        -8.187586598347401
      ],
      [
        "▁creator",
        -10.709302939196505
      ],
      [
        "dopt",
        -12.77072794394369
      ],
      [
        "▁clos",
        -8.852234879791947
      ],
      [
        "▁sociolog",
        -12.773221548109786
      ],
      [
        "▁arabia",
        -8.84560321853664
      ],
      [
        "▁place",
        -7.751819224249484
      ],
      [
        "▁wri",
        -10.516370978935342
      ],
      [
        "▁rail",
        -9.05091098101946
      ],
      [
        "broke",
        -12.495020631055034
      ],
      [
        "▁sensation",
        -10.498163079541897
      ],
      [
        "▁morta",
        -11.388665581313159
      ],
      [
        "hang",
        -11.982093936339393
      ],
      [
        "▁wa",
        -8.663363787750685
      ],
      [
        "nch",
        -10.785609837942253
      ],
      [
        "$",
        -12.380504421628848
      ],
      [
        "ama",
        -11.237737879309469
      ],
      [
        "▁privilege",
        -10.3232382317162
      ],
      [
        "onut",
        -12.860123832124172
      ],
      [
        "▁acc",
        -8.655995196591189
      ],
      [
        "▁bec",
        -7.4976419712532465
      ],
      [
        "▁contr",
        -10.328297190109145
      ],
      [
        "▁shopp",
        -9.300199971019865
      ],
      [
        "▁downgrad",
        -11.45872605701496
      ],
      [
        "beg",
        -13.81209308757012
      ],
      [
        "vide",
        -12.524465980223038
      ],
      [
        "▁tow",
        -8.970471478745981
      ],
      [
        "gg",
        -8.950611876821956
      ],
      [
        "▁rolle",
        -10.204789143604737
      ],
      [
        "▁on",
        -11.41378886164738
      ],
      [
        "▁pedest",
        -11.773428413725341
      ],
      [
        "ell",
        -10.07021442505913
      ],
      [
        "▁effe",
        -8.498075812823595
      ],
      [
        "ow",
        -9.241642650415976
      ],
      [
        "▁mile",
        -9.303746877945933
      ],
      [
        "▁iron",
        -9.342819183993807
      ],
      [
        "idate",
        -12.834347288881249
      ],
      [
        "▁grand",
        -9.623452027568234
      ],
      [
        "05",
        -7.77009832959355
      ],
      [
        "▁alphabet",
        -10.180381078520568
      ],
      [
        "▁shoot",
        -10.695967580235425
      ],
      [
        "time",
        -7.784743556258181
      ],
      [
        "treat",
        -11.897334852427779
      ],
      [
        "lib",
        -12.327829003568933
      ],
      [
        "▁e",
        -8.780833583811516
      ],
      [
        "▁skip",
        -9.439206609939403
      ],
      [
        "▁ra",
        -8.401367810982183
      ],
      [
        "▁frogg",
        -11.27403053046959
      ],
      [
        "▁zoom",
        -11.372545313197962
      ],
      [
        "▁adorn",
        -10.627364208440655
      ],
      [
        "▁believe",
        -6.538158286587613
      ],
      [
        "or",
        -6.1111258282432015
      ],
      [
        "▁lotus",
        -11.847094183844614
      ],
      [
        "access",
        -7.2958226824187085
      ],
      [
        "98",
        -7.379829568726602
      ],
      [
        "fill",
        -11.355194037317581
      ],
      [
        "▁sponsor",
        -9.633815477170808
      ],
      [
        "▁reject",
        -9.212291352067611
      ],
      [
        "que",
        -9.914467728432218
      ],
      [
        "rate",
        -8.26366824356731
      ],
      [
        "ous-",
        -11.779974533976803
      ],
      [
        "attache",
        -13.13486942534589
      ],
      [
        "ral",
        -12.014008022688905
      ],
      [
        "▁gna",
        -11.563271364656403
      ],
      [
        "▁direct",
        -7.339736906234009
      ],
      [
        "▁scrap",
        -10.692373255319644
      ],
      [
        "▁suitcase",
        -9.395739891970878
      ],
      [
        "▁board",
        -9.283379317465256
      ],
      [
        "▁provid",
        -8.342887990288133
      ],
      [
        "cente",
        -12.1063412122276
      ],
      [
        "▁consist",
        -8.977508520569982
      ],
      [
        "▁yo",
        -9.375395264527263
      ],
      [
        "nfluence",
        -12.777713126307738
      ],
      [
        "▁athlete",
        -10.689905051302846
      ],
      [
        "▁sha",
        -7.984547637263843
      ],
      [
        "▁practice",
        -9.269161214107651
      ],
      [
        "▁scor",
        -10.32189268471475
      ],
      [
        "▁03",
        -7.814221325841951
      ],
      [
        "z",
        -6.815512705175175
      ],
      [
        "▁satisf",
        -10.373382612376304
      ],
      [
        "▁simmer",
        -11.476201331609799
      ],
      [
        "▁excerpt",
        -11.27323883069774
      ],
      [
        "bert",
        -8.930519845259447
      ],
      [
        "▁schedule",
        -8.64038540932323
      ],
      [
        "▁abo",
        -10.836265554701646
      ],
      [
        "▁wide",
        -7.946241760470722
      ],
      [
        "h-",
        -8.278533145245685
      ],
      [
        "amon",
        -10.569478169768761
      ],
      [
        "econ",
        -9.797493051880517
      ],
      [
        "▁impos",
        -10.386393876069556
      ],
      [
        "▁crea",
        -10.597251084756808
      ],
      [
        "cial",
        -6.719047619607357
      ],
      [
        "amble",
        -11.798223711881466
      ],
      [
        "▁elevator",
        -8.849933841185155
      ],
      [
        "▁grey",
        -10.697726708816155
      ],
      [
        "▁questi",
        -12.45802374843698
      ],
      [
        "▁hind",
        -10.94374086087665
      ],
      [
        "▁fil",
        -9.800267382549963
      ],
      [
        "▁drug",
        -8.818405833714749
      ],
      [
        "▁disclose",
        -10.175851081647977
      ],
      [
        "▁squi",
        -12.672422339152606
      ],
      [
        "osi",
        -11.529352672880568
      ],
      [
        "▁broom",
        -9.757964870240254
      ],
      [
        "whe",
        -9.046355872460186
      ],
      [
        "▁junction",
        -10.942293907902172
      ],
      [
        "▁eas",
        -6.711564089444368
      ],
      [
        "t",
        -5.407537891802747
      ],
      [
        "wo",
        -10.600779294355887
      ],
      [
        "▁well",
        -9.950531924242057
      ],
      [
        "▁counselor",
        -11.278076972171778
      ],
      [
        "turd",
        -12.558094786416246
      ],
      [
        "▁level",
        -7.2906322342151615
      ],
      [
        "eze",
        -12.543721099145275
      ],
      [
        "▁wrestl",
        -11.273317929381024
      ],
      [
        "fic",
        -8.248341248449556
      ],
      [
        "▁darken",
        -10.958751464664225
      ],
      [
        "▁camel",
        -8.239435387422052
      ],
      [
        "▁frontier",
        -10.940615064558049
      ],
      [
        "▁calendar",
        -9.595767423330186
      ],
      [
        "struct",
        -13.36061203270127
      ],
      [
        "▁comme",
        -13.418384819357339
      ],
      [
        "▁183",
        -7.019067651698266
      ],
      [
        "▁insert",
        -10.175394578197603
      ],
      [
        "▁cook",
        -9.187747095685538
      ],
      [
        "loom",
        -10.689522521740207
      ],
      [
        "ember",
        -6.199609196682592
      ],
      [
        "▁local",
        -9.391494651183747
      ],
      [
        "▁35",
        -7.615261362120063
      ],
      [
        "▁flame",
        -10.189856602229934
      ],
      [
        "▁crap",
        -9.77025305539043
      ],
      [
        "▁shout",
        -11.373684915059348
      ],
      [
        "▁limitation",
        -9.397412605076264
      ],
      [
        "wreck",
        -11.65264897239593
      ],
      [
        "emerg",
        -12.28878720871548
      ],
      [
        ".",
        -7.015451316975299
      ],
      [
        "ors",
        -9.051417770812643
      ],
      [
        "even",
        -6.785405311067583
      ],
      [
        "parent",
        -11.030676312235173
      ],
      [
        "lement",
        -11.922283265401367
      ],
      [
        "ov",
        -8.666308487738302
      ],
      [
        "▁innovator",
        -11.273332741545442
      ],
      [
        "▁continu",
        -8.721055627285242
      ],
      [
        "alcon",
        -12.793797675611012
      ],
      [
        "ential",
        -8.797934300308357
      ],
      [
        "lack",
        -8.262966808700385
      ],
      [
        "▁pe",
        -10.776425122448485
      ],
      [
        "▁flock",
        -10.96217482258553
      ],
      [
        "ieve",
        -11.6883658134631
      ],
      [
        "side",
        -7.369361114905498
      ],
      [
        "▁luncheon",
        -10.691017001097777
      ],
      [
        "▁sod",
        -10.213325887194209
      ],
      [
        "▁synt",
        -10.469190777276184
      ],
      [
        "▁twa",
        -7.598795238109675
      ],
      [
        "culat",
        -11.740305327917849
      ],
      [
        "▁pseudo",
        -12.773241896114799
      ],
      [
        "▁pow",
        -9.416816415760849
      ],
      [
        "▁horizon",
        -10.32327614165981
      ],
      [
        "l",
        -6.794751193104144
      ],
      [
        "ppe",
        -11.656594409540231
      ],
      [
        "▁their",
        -5.253175569214527
      ],
      [
        "ouche",
        -13.076043804845265
      ],
      [
        "e",
        -2.362962577693258
      ],
      [
        "▁window",
        -7.499944372457918
      ],
      [
        "▁l",
        -7.140823422198626
      ],
      [
        "secure",
        -12.394907607891394
      ],
      [
        "▁taste",
        -9.047437663988228
      ],
      [
        "▁introduce",
        -8.200117681523333
      ],
      [
        "fuge",
        -11.778766632259403
      ],
      [
        "▁actin",
        -12.690448802177276
      ],
      [
        "▁mudd",
        -11.990273621654488
      ],
      [
        "▁boot",
        -8.41034997564369
      ],
      [
        "verse",
        -12.5450735406513
      ],
      [
        "▁candle",
        -9.525306503921104
      ],
      [
        "▁demo",
        -10.639823069899254
      ],
      [
        "cient",
        -7.904563397838827
      ],
      [
        "▁invi",
        -11.472631905628068
      ],
      [
        "29",
        -8.124025895334459
      ],
      [
        "▁starfighter",
        -10.940058893983055
      ],
      [
        "toxic",
        -8.738201219962104
      ],
      [
        "▁banjo",
        -9.67221548751638
      ],
      [
        "▁dispute",
        -9.946108072676836
      ],
      [
        "land",
        -6.085513073209679
      ],
      [
        "▁cite",
        -9.5459805419673
      ],
      [
        "▁rip",
        -9.553219506168208
      ],
      [
        "▁curs",
        -10.292307855413611
      ],
      [
        "zz",
        -13.77011681013951
      ],
      [
        "▁dough",
        -10.490748399157523
      ],
      [
        "las",
        -5.086626234963578
      ],
      [
        "▁rediscover",
        -11.461628668357633
      ],
      [
        "▁penaliz",
        -10.95911426657
      ],
      [
        "odifie",
        -12.651924068136733
      ],
      [
        "▁synthes",
        -11.275363238887607
      ],
      [
        "product",
        -11.497251019040128
      ],
      [
        "there",
        -8.216130868877705
      ],
      [
        "ran",
        -11.033837865383152
      ],
      [
        "▁branch",
        -9.281241963938962
      ],
      [
        "r",
        -6.977308910407106
      ],
      [
        "ural",
        -7.5258585411169365
      ],
      [
        "washe",
        -11.676042517146684
      ],
      [
        "▁bare",
        -11.304030699987981
      ],
      [
        "imitation",
        -12.778461614927242
      ],
      [
        "▁la",
        -6.3692025320130305
      ],
      [
        "comic",
        -12.607020027513487
      ],
      [
        "▁medit",
        -10.731101295648708
      ],
      [
        "eating",
        -9.326087453784256
      ],
      [
        "▁terre",
        -8.899785459248099
      ],
      [
        "contain",
        -11.613614607635947
      ],
      [
        "witz",
        -8.826510089463113
      ],
      [
        "▁firm",
        -8.508222602148178
      ],
      [
        "▁youth",
        -9.457706658846948
      ],
      [
        "▁ecosystem",
        -10.490017302670573
      ],
      [
        "▁petunia",
        -8.817908409057186
      ],
      [
        "▁return",
        -6.980570236197516
      ],
      [
        "▁easi",
        -7.509591222627236
      ],
      [
        "▁seek",
        -7.794721868270505
      ],
      [
        "▁worr",
        -10.587724416161395
      ],
      [
        "▁commissioner",
        -8.896838249590106
      ],
      [
        "▁deit",
        -11.422907663114236
      ],
      [
        "▁irr",
        -11.68520707208821
      ],
      [
        "▁operat",
        -9.416450268859371
      ],
      [
        "▁calculat",
        -11.790446580600584
      ],
      [
        "nd",
        -9.289802796372587
      ],
      [
        "▁hand",
        -6.56696640154705
      ],
      [
        "▁55",
        -7.91227191075213
      ],
      [
        "▁herd",
        -11.504721229027925
      ],
      [
        "▁define",
        -8.349527247807606
      ],
      [
        "▁act",
        -8.184328326643946
      ],
      [
        "▁do",
        -3.6858831645663166
      ],
      [
        "▁loudspeaker",
        -11.273238238407382
      ],
      [
        "▁brows",
        -10.640354212315016
      ],
      [
        "▁wine",
        -7.974479771150688
      ],
      [
        "icul",
        -10.011565789722885
      ],
      [
        "tabilit",
        -11.376170700305954
      ],
      [
        "▁arr",
        -12.210178088974233
      ],
      [
        "gma",
        -11.706199733201636
      ],
      [
        "▁murderer",
        -9.781025185561585
      ],
      [
        "termin",
        -8.662441013121043
      ],
      [
        "one",
        -8.36886201174637
      ],
      [
        "▁clarif",
        -12.477720061260241
      ],
      [
        "▁saying",
        -11.298738972057862
      ],
      [
        "▁scheduler",
        -12.182845524130608
      ],
      [
        "ist",
        -8.180588807304527
      ],
      [
        "▁crusade",
        -11.773568681360304
      ],
      [
        "▁tail",
        -8.27541322576376
      ],
      [
        "▁inside",
        -9.46233372822567
      ],
      [
        "▁back",
        -7.198322209245933
      ],
      [
        "an",
        -6.60307352696869
      ],
      [
        "▁irritate",
        -10.625395056527775
      ],
      [
        "▁squash",
        -10.690573991519265
      ],
      [
        "▁capitaliz",
        -11.458752755294963
      ],
      [
        "▁st",
        -8.887894830876608
      ],
      [
        "▁wear",
        -10.669592507053903
      ],
      [
        "▁fade",
        -10.342587340894681
      ],
      [
        "▁persist",
        -10.011515116857513
      ],
      [
        "▁tende",
        -11.786423736811766
      ],
      [
        "▁hijacker",
        -10.939904892292835
      ],
      [
        "fica",
        -9.620643891558247
      ],
      [
        "dl",
        -7.48629222181447
      ],
      [
        "▁fresh",
        -10.50154538243678
      ],
      [
        "▁weari",
        -12.643718361022787
      ],
      [
        "nea",
        -7.945544065619691
      ],
      [
        "tibi",
        -12.817401457275006
      ],
      [
        "▁enforc",
        -11.05550151826971
      ],
      [
        "▁cream",
        -8.591699040273452
      ],
      [
        "▁stock",
        -10.971450643945232
      ],
      [
        "▁prospe",
        -8.745895016024662
      ],
      [
        "▁developi",
        -12.44940059768799
      ],
      [
        "cas",
        -10.118523848242196
      ],
      [
        "▁top",
        -13.054530276123923
      ],
      [
        "▁fili",
        -11.400529362999947
      ],
      [
        "▁202",
        -8.147300128301447
      ],
      [
        "▁fusion",
        -11.774140255166886
      ],
      [
        "▁customer",
        -7.345825571549641
      ],
      [
        "▁wh",
        -11.28246861509878
      ],
      [
        "opening",
        -12.508183191672638
      ],
      [
        "our",
        -12.706052039156132
      ],
      [
        "▁recruit",
        -9.633814215439674
      ],
      [
        "neil",
        -8.745850550132939
      ],
      [
        "▁stage",
        -10.400845360312383
      ],
      [
        "nit",
        -10.649345170977387
      ],
      [
        "▁oath",
        -9.526505438995438
      ],
      [
        "ttle",
        -12.38577875347731
      ],
      [
        "ure",
        -8.481545821213981
      ],
      [
        "ketch",
        -9.613269896184484
      ],
      [
        "▁shin",
        -9.889384735954986
      ],
      [
        "▁freez",
        -11.746369935090518
      ],
      [
        "tan",
        -11.819315909719993
      ],
      [
        "▁ver",
        -10.11940231883247
      ],
      [
        "▁tomb",
        -10.975574013470496
      ],
      [
        "begin",
        -13.30260197125226
      ],
      [
        "s",
        -3.6131603665375174
      ],
      [
        "▁trait",
        -11.215956495960231
      ],
      [
        "▁juror",
        -11.277313091402572
      ],
      [
        "oration",
        -10.144592791079322
      ],
      [
        "nouncement",
        -10.061136430202517
      ],
      [
        "▁bol",
        -11.513495355136277
      ],
      [
        "▁fem",
        -8.086254267535903
      ],
      [
        "▁thought",
        -7.977650455183031
      ],
      [
        "▁hands",
        -7.653048427068458
      ],
      [
        "▁ja",
        -7.665119366539596
      ],
      [
        "▁cuff",
        -11.16609765868663
      ],
      [
        "k",
        -12.810278406305976
      ],
      [
        "▁blossom",
        -10.962489202894266
      ],
      [
        "ue",
        -11.121320559934416
      ],
      [
        "ed",
        -4.334742310907727
      ],
      [
        "▁film",
        -8.226575880902082
      ],
      [
        "▁rate",
        -9.543643414632466
      ],
      [
        "▁ac",
        -7.677514205205262
      ],
      [
        "▁shelter",
        -10.175393356959152
      ],
      [
        "▁harris",
        -8.596390851244903
      ],
      [
        "de",
        -11.783538262690449
      ],
      [
        "▁shipp",
        -9.449519615975987
      ],
      [
        "▁stir",
        -9.615253065266337
      ],
      [
        "kers",
        -11.284009432866132
      ],
      [
        "▁ed",
        -8.498362540789758
      ],
      [
        "escribe",
        -13.198544643280986
      ],
      [
        "die",
        -13.230603186937964
      ],
      [
        "▁cur",
        -6.97220494149292
      ],
      [
        "▁perk",
        -11.467113420432941
      ],
      [
        "▁recom",
        -11.387249267350347
      ],
      [
        "▁whir",
        -11.465714188681
      ],
      [
        "ach",
        -11.32161465434035
      ],
      [
        "▁inherit",
        -10.175392321062581
      ],
      [
        "▁pickup",
        -11.773825515806719
      ],
      [
        "▁nudg",
        -11.466849482371483
      ],
      [
        "▁delic",
        -7.956604256464347
      ],
      [
        "▁phrase",
        -11.474682877386758
      ],
      [
        "▁fry",
        -10.768344324990624
      ],
      [
        "▁civil",
        -7.471119864049314
      ],
      [
        "at",
        -8.319654424440706
      ],
      [
        "▁pan",
        -8.545889898467802
      ],
      [
        "▁snack",
        -9.457643400553204
      ],
      [
        "ric",
        -10.411470317655589
      ],
      [
        "▁rev",
        -11.5019519173915
      ],
      [
        "▁spawn",
        -9.869151390240038
      ],
      [
        "▁vowel",
        -11.273302752077784
      ],
      [
        "▁blackline",
        -10.625395653823658
      ],
      [
        "▁strain",
        -9.442303807227562
      ],
      [
        "▁theft",
        -10.689959669563613
      ],
      [
        "▁turn",
        -6.08920135787137
      ],
      [
        "▁pai",
        -7.895712621623877
      ],
      [
        "▁union",
        -8.92634418163254
      ],
      [
        "rench",
        -11.755726072079655
      ],
      [
        "▁prison",
        -9.947125800958162
      ],
      [
        "▁public",
        -6.428328946192325
      ],
      [
        "▁46",
        -7.6882435757337255
      ],
      [
        "▁sand",
        -12.095189228864655
      ],
      [
        "▁suck",
        -8.73240815058813
      ],
      [
        "▁groan",
        -10.375972410080676
      ],
      [
        "▁parade",
        -10.33571172909463
      ],
      [
        "▁surpass",
        -10.958749149590945
      ],
      [
        "quarter",
        -9.655533178468916
      ],
      [
        "ti",
        -10.591217614813804
      ],
      [
        "▁dramatise",
        -11.458725637998048
      ],
      [
        "pi",
        -11.801566064510906
      ],
      [
        "▁re",
        -7.5452357933588035
      ],
      [
        "▁aisle",
        -10.180581756361775
      ],
      [
        "graduate",
        -11.62439144031101
      ],
      [
        "pole",
        -12.681292556016938
      ],
      [
        "cram",
        -12.608486520741248
      ],
      [
        "ombat",
        -12.857352606315265
      ],
      [
        "▁pedicure",
        -10.689905310435199
      ],
      [
        "enchant",
        -11.782268941928653
      ],
      [
        "▁sca",
        -11.892197498731068
      ],
      [
        "▁omni",
        -11.347627243724135
      ],
      [
        "▁manage",
        -8.391616270655689
      ],
      [
        "▁sympathizer",
        -10.93991012381378
      ],
      [
        "owled",
        -12.386375126797995
      ],
      [
        "▁fy0",
        -11.448660729791408
      ],
      [
        "res",
        -10.150917423092839
      ],
      [
        "▁scr",
        -12.860247301155281
      ],
      [
        "▁preach",
        -10.37663299543736
      ],
      [
        "boy",
        -11.148508411704395
      ],
      [
        "▁tramp",
        -10.958757797444138
      ],
      [
        "rave",
        -12.285693127208157
      ],
      [
        "▁crash",
        -9.80506277058945
      ],
      [
        "▁deed",
        -10.327921759894327
      ],
      [
        "co",
        -7.935002140716888
      ],
      [
        "operation",
        -8.652364499709357
      ],
      [
        "▁claw",
        -10.191752632746617
      ],
      [
        "50",
        -11.21403414043978
      ],
      [
        "▁great",
        -10.948572917860242
      ],
      [
        "▁vis",
        -11.537214229573419
      ],
      [
        "▁mem",
        -7.151990926484831
      ],
      [
        "gie",
        -11.443778119376233
      ],
      [
        "▁strap",
        -9.458457629179978
      ],
      [
        "esce",
        -12.711358205396923
      ],
      [
        "▁br",
        -7.532766402496921
      ],
      [
        "▁lid",
        -10.251715857878107
      ],
      [
        "▁wil",
        -10.327329674474207
      ],
      [
        "s",
        -3.9323488869734184
      ],
      [
        "▁buy",
        -11.271019838092801
      ],
      [
        "▁…",
        -9.511839873390812
      ],
      [
        "ps",
        -11.339766023284282
      ],
      [
        "▁bam",
        -11.563498917531115
      ],
      [
        "▁divers",
        -12.288133454539791
      ],
      [
        "thet",
        -12.362325814170237
      ],
      [
        "▁impe",
        -12.331353225962511
      ],
      [
        "nic",
        -8.989530190194408
      ],
      [
        "▁sl",
        -9.644130469898581
      ],
      [
        "▁partnership",
        -9.396139158480732
      ],
      [
        "▁nagg",
        -11.462714970759134
      ],
      [
        "▁order",
        -7.0683616184004965
      ],
      [
        "▁not",
        -9.962454232860741
      ],
      [
        "▁aw",
        -8.032608869412481
      ],
      [
        "▁sign",
        -8.028757848219367
      ],
      [
        "▁iraq",
        -6.530461722568982
      ],
      [
        "▁tablespoon",
        -11.274131796189499
      ],
      [
        "nalize",
        -12.70030721772722
      ],
      [
        "▁conced",
        -13.081601036084692
      ],
      [
        "folk",
        -12.424834338449307
      ],
      [
        "lope",
        -8.384813019016756
      ],
      [
        "phone",
        -8.54395323145769
      ],
      [
        "▁bye",
        -11.987303959266677
      ],
      [
        "▁killi",
        -11.716952034777506
      ],
      [
        "▁employe",
        -12.29514295181935
      ],
      [
        "▁observe",
        -8.234673799315816
      ],
      [
        "▁kind",
        -6.281756110445684
      ],
      [
        "▁vot",
        -10.234130492254568
      ],
      [
        "au",
        -8.086235558981384
      ],
      [
        "stant",
        -9.52843838057906
      ],
      [
        "▁constraint",
        -11.273273018529384
      ],
      [
        "▁reflection",
        -9.672665978009473
      ],
      [
        "▁kit",
        -11.0126868991769
      ],
      [
        "the",
        -10.76682349143477
      ],
      [
        "▁announc",
        -9.965328572264346
      ],
      [
        "▁cool",
        -10.015080797584833
      ],
      [
        "pant",
        -12.120410135659357
      ],
      [
        "cocka",
        -12.633942094225496
      ],
      [
        "ch",
        -10.038999779297553
      ],
      [
        "▁laud",
        -11.523371755060518
      ],
      [
        "▁diagram",
        -10.48990740149059
      ],
      [
        "lish",
        -12.172193503398011
      ],
      [
        "▁bad",
        -7.974493665338207
      ],
      [
        "▁manag",
        -9.33288579656999
      ],
      [
        "▁ho",
        -11.2656895150595
      ],
      [
        "▁dip",
        -11.248515995065794
      ],
      [
        "▁surface",
        -11.519452354742773
      ],
      [
        "▁merry",
        -10.324977691923955
      ],
      [
        "▁exhibit",
        -8.78209530859843
      ],
      [
        "▁cave",
        -9.437284868758166
      ],
      [
        "▁rall",
        -11.47745432396188
      ],
      [
        "▁pray",
        -10.794733881109824
      ],
      [
        "▁well-",
        -11.77622961069727
      ],
      [
        "start",
        -11.085274568306424
      ],
      [
        "▁j",
        -10.299932557909178
      ],
      [
        "pow",
        -12.794357300337252
      ],
      [
        "-s",
        -12.132725967088758
      ],
      [
        "▁butter",
        -10.375994616189736
      ],
      [
        "▁adv",
        -10.46657199333415
      ],
      [
        "▁clim",
        -12.467690259042426
      ],
      [
        "▁publi",
        -12.455324981102388
      ],
      [
        "▁he",
        -5.355777969941404
      ],
      [
        "▁ab",
        -10.632331053805617
      ],
      [
        "▁ticket",
        -7.551476073925579
      ],
      [
        "▁chemist",
        -11.246838150250724
      ],
      [
        "ling",
        -8.418304361618898
      ],
      [
        "q",
        -8.447486124737829
      ],
      [
        "▁visuali",
        -11.773495486817533
      ],
      [
        "▁ab",
        -9.672168907805968
      ],
      [
        "▁shopp",
        -9.08431180265642
      ],
      [
        "▁merger",
        -11.273271348822709
      ],
      [
        "▁hook",
        -10.528118167021825
      ],
      [
        "▁gesture",
        -10.323405869440206
      ],
      [
        "▁stay",
        -9.139504318211568
      ],
      [
        "▁mil",
        -11.407433740469912
      ],
      [
        "ssion",
        -10.67220306730987
      ],
      [
        "▁detai",
        -12.787704412256584
      ],
      [
        "lk",
        -11.906754185972487
      ],
      [
        "▁seas",
        -12.195743187083686
      ],
      [
        "im",
        -8.615798311590094
      ],
      [
        "have",
        -7.697358281809178
      ],
      [
        "▁retriev",
        -11.26713144036615
      ],
      [
        "▁rib",
        -10.394919727692624
      ],
      [
        "▁’",
        -11.773238715956467
      ],
      [
        "▁fundamental",
        -10.940228963618733
      ],
      [
        "▁archiv",
        -12.739257526956036
      ],
      [
        "rium",
        -11.915051335287233
      ],
      [
        "▁pu",
        -11.015974259840275
      ],
      [
        "▁interrogate",
        -10.958725629032177
      ],
      [
        "▁le",
        -8.94580613049544
      ],
      [
        "fertili",
        -10.940065194753018
      ],
      [
        "min",
        -11.597313169916276
      ],
      [
        "▁",
        -0.7082085629404791
      ],
      [
        "ffici",
        -7.440923749614953
      ],
      [
        "▁rott",
        -11.170678539053863
      ],
      [
        "ly",
        -8.960168132771333
      ],
      [
        "▁suspens",
        -10.71095628770386
      ],
      [
        "test",
        -12.183804202442282
      ],
      [
        "▁designer",
        -9.768460725518304
      ],
      [
        "mark",
        -11.624983236971703
      ],
      [
        "us",
        -7.778989704250542
      ],
      [
        "▁emotion",
        -9.953428975142131
      ],
      [
        "se",
        -5.848595306507164
      ],
      [
        "▁smuggl",
        -10.95391452431548
      ],
      [
        "ander",
        -12.625467460901143
      ],
      [
        "enlist",
        -12.651141804997383
      ],
      [
        "▁crumple",
        -10.958725669378174
      ],
      [
        "hibit",
        -9.740940334280875
      ],
      [
        "▁fore",
        -7.543247836527128
      ],
      [
        "▁bus",
        -7.809044279453613
      ],
      [
        "regulation",
        -10.523204035958944
      ],
      [
        "hin",
        -10.355812176309545
      ],
      [
        "▁pollut",
        -9.232408207612227
      ],
      [
        "▁'",
        -6.425214222828881
      ],
      [
        "▁under",
        -8.791371382061273
      ],
      [
        "▁che",
        -8.11942795497131
      ],
      [
        "tenance",
        -11.1580145678412
      ],
      [
        "▁starter",
        -11.063974026323052
      ],
      [
        "▁l",
        -8.448925875892499
      ],
      [
        "ond",
        -9.458937709762106
      ],
      [
        "▁traged",
        -9.131172633742391
      ],
      [
        "elder",
        -11.918526528527309
      ],
      [
        "▁vom",
        -11.991138318949915
      ],
      [
        "▁bus",
        -7.029018912513156
      ],
      [
        "▁cere",
        -8.791412552377636
      ],
      [
        "▁host",
        -8.873476020623873
      ],
      [
        "▁display",
        -9.395743140437938
      ],
      [
        "aima",
        -8.079505454571885
      ],
      [
        "▁admir",
        -10.655360742090064
      ],
      [
        "ee",
        -12.636215525118004
      ],
      [
        "▁hair",
        -6.944238025410231
      ],
      [
        "▁press",
        -8.694795303775445
      ],
      [
        "shoppe",
        -12.862410155899076
      ],
      [
        "▁cru",
        -7.923423889224828
      ],
      [
        "▁flash",
        -9.756119420561465
      ],
      [
        "▁runn",
        -7.605528184991227
      ],
      [
        "▁over",
        -8.492208141243934
      ],
      [
        "up",
        -8.61674309158935
      ],
      [
        "houston",
        -6.467223978381896
      ],
      [
        "▁ju",
        -12.468411362773118
      ],
      [
        "▁spel",
        -11.510630349740909
      ],
      [
        "▁pal",
        -10.447778914381022
      ],
      [
        "▁tha",
        -7.359273592220826
      ],
      [
        "i",
        -1.9310834849042582
      ],
      [
        "▁spurt",
        -11.800524541530917
      ],
      [
        "▁inno",
        -8.951007284532166
      ],
      [
        "istur",
        -12.52286955754001
      ],
      [
        "▁pitt",
        -5.113689389671724
      ],
      [
        "▁official",
        -7.866087547902182
      ],
      [
        "▁ho",
        -7.724711078792276
      ],
      [
        "▁ques",
        -11.237247756873401
      ],
      [
        "▁snow",
        -8.485608213939331
      ],
      [
        "til",
        -7.784555654766264
      ],
      [
        "▁predict",
        -10.961787199849843
      ],
      [
        "▁driver",
        -8.561144673301047
      ],
      [
        "rec",
        -7.563249920027834
      ],
      [
        "▁neg",
        -10.828741648439458
      ],
      [
        "▁du",
        -12.00309263339031
      ],
      [
        "▁bras",
        -12.019427231523023
      ],
      [
        "▁elect",
        -8.201859762683116
      ],
      [
        "▁grow",
        -6.927318966077519
      ],
      [
        "rpor",
        -8.898781282948459
      ],
      [
        "▁remark",
        -9.758327908940744
      ],
      [
        "▁pioneer",
        -10.48993956053039
      ],
      [
        "tter",
        -5.970593096106856
      ],
      [
        "rat",
        -9.878870002268075
      ],
      [
        "f",
        -6.725442176541105
      ],
      [
        "▁plat",
        -11.923703433550228
      ],
      [
        "s",
        -2.358705181573896
      ],
      [
        "d",
        -8.02655417968824
      ],
      [
        "bell",
        -11.43364887645175
      ],
      [
        "▁emp",
        -8.965802136832416
      ],
      [
        "▁paraphrase",
        -10.95872595269444
      ],
      [
        "▁gentlem",
        -9.45778793582256
      ],
      [
        "ado",
        -9.638975043158752
      ],
      [
        "▁normal",
        -7.658449048554527
      ],
      [
        "quar",
        -8.189122043769014
      ],
      [
        "um",
        -13.844340738273104
      ],
      [
        "▁represent",
        -7.84192061450014
      ],
      [
        "******",
        -12.400348347525032
      ],
      [
        "▁file",
        -9.438616817551106
      ],
      [
        "unkie",
        -11.850074378877537
      ],
      [
        "▁wa",
        -9.240034987883696
      ],
      [
        "clav",
        -12.024486781950898
      ],
      [
        "html",
        -8.780028593509847
      ],
      [
        "trial",
        -12.285601589460505
      ],
      [
        "▁scramble",
        -11.773248069396184
      ],
      [
        "▁she",
        -8.874428171868676
      ],
      [
        "hib",
        -11.796430582800186
      ],
      [
        "equa",
        -9.103317030142794
      ],
      [
        "▁slum",
        -12.811501198624171
      ],
      [
        "▁vi",
        -9.86363909990573
      ],
      [
        "/28/200",
        -7.807337910770702
      ],
      [
        "▁inter",
        -9.644798076540011
      ],
      [
        "▁vig",
        -11.361804259565929
      ],
      [
        "vel",
        -11.376202139920373
      ],
      [
        "▁vent",
        -11.527437115048368
      ],
      [
        "eenth",
        -11.276315344820642
      ],
      [
        "differentiate",
        -11.240000493577954
      ],
      [
        "▁erupt",
        -10.625393422511785
      ],
      [
        "ound",
        -11.475220092546776
      ],
      [
        "▁range",
        -11.041565656187245
      ],
      [
        "▁vaca",
        -12.798529722113962
      ],
      [
        "▁disconnect",
        -10.62582991372099
      ],
      [
        "▁string",
        -8.560099086022408
      ],
      [
        "▁rever",
        -12.258319049518843
      ],
      [
        "▁sculpture",
        -10.323293148143621
      ],
      [
        "▁im",
        -8.742284964328041
      ],
      [
        "▁engineer",
        -9.093352946491583
      ],
      [
        "▁conn",
        -11.659946649501153
      ],
      [
        "gree",
        -11.701713950007028
      ],
      [
        "▁solution",
        -8.124155898744544
      ],
      [
        "▁purple",
        -8.497585440049448
      ],
      [
        "▁die",
        -7.499057144464232
      ],
      [
        "giere",
        -8.590973921814255
      ],
      [
        "▁avant",
        -11.773483795373922
      ],
      [
        "▁cord",
        -9.832754429297928
      ],
      [
        "▁hut",
        -10.3619111694074
      ],
      [
        "▁dr",
        -10.93701680339682
      ],
      [
        "initi",
        -8.114636936740103
      ],
      [
        "mber",
        -8.447307536392834
      ],
      [
        "▁quill",
        -11.836824280025498
      ],
      [
        "stin",
        -13.777147769717885
      ],
      [
        "▁church",
        -8.27826585323804
      ],
      [
        "w",
        -8.6748208709817
      ],
      [
        "▁menace",
        -11.276545801931018
      ],
      [
        "▁sentiment",
        -10.180391833880348
      ],
      [
        "▁eve",
        -10.794610569481222
      ],
      [
        "uffin",
        -10.97897481242274
      ],
      [
        "perate",
        -12.36514720973961
      ],
      [
        "igg",
        -12.685534681946189
      ],
      [
        "2",
        -3.9783356324857158
      ],
      [
        "▁import",
        -6.248272192306516
      ],
      [
        "ce",
        -7.0321333004113775
      ],
      [
        "ppl",
        -12.087139450434016
      ],
      [
        "▁duration",
        -10.180741080094627
      ],
      [
        "▁process",
        -9.845681825194033
      ],
      [
        "rumbl",
        -11.455820190639344
      ],
      [
        "rise",
        -11.162792124906755
      ],
      [
        "ect",
        -7.2808766303213615
      ],
      [
        "label",
        -12.3004023861002
      ],
      [
        "▁fift",
        -7.892158422901294
      ],
      [
        "▁babi",
        -8.898908419547736
      ],
      [
        "adam",
        -9.216338588004056
      ],
      [
        "▁soooo",
        -9.804418989245214
      ],
      [
        "▁bit",
        -6.88813386894788
      ],
      [
        "▁conven",
        -7.88587878792263
      ],
      [
        "▁devis",
        -10.417779703652418
      ],
      [
        "▁deficienc",
        -9.595932814081452
      ],
      [
        "▁game",
        -8.832114507090001
      ],
      [
        "▁accept",
        -7.361994743307135
      ],
      [
        "houl",
        -11.807582595963563
      ],
      [
        "▁flesh",
        -10.627978240501086
      ],
      [
        "en",
        -7.943837636808619
      ],
      [
        "phon",
        -11.999920874598079
      ],
      [
        "▁plen",
        -8.676531931936038
      ],
      [
        "▁assertion",
        -11.273271145774576
      ],
      [
        "▁downfall",
        -11.77668316246505
      ],
      [
        "action",
        -9.727903636242443
      ],
      [
        "▁aris",
        -9.957506700012306
      ],
      [
        "▁vol",
        -8.93541986315855
      ],
      [
        "▁neocons",
        -11.356820219088283
      ],
      [
        "▁uniform",
        -9.458025448171398
      ],
      [
        "▁soc",
        -8.698566430622956
      ],
      [
        "aulin",
        -12.77907922557717
      ],
      [
        "▁sap",
        -10.474785123495685
      ],
      [
        "▁b",
        -7.433845621039356
      ],
      [
        "▁budgie",
        -10.689936099770962
      ],
      [
        "▁an",
        -9.820616148417278
      ],
      [
        "cul",
        -11.589167237604185
      ],
      [
        "cula",
        -6.981336390567085
      ],
      [
        "cracker",
        -12.48084419461171
      ],
      [
        "▁correspond",
        -10.958728732830176
      ],
      [
        "▁deserve",
        -9.026390977354469
      ],
      [
        "▁valid",
        -10.492933932073017
      ],
      [
        "▁beatle",
        -8.424777107674224
      ],
      [
        "▁fl",
        -8.818865307513212
      ],
      [
        "▁quarto",
        -11.277569390243027
      ],
      [
        "husband",
        -12.215119779198767
      ],
      [
        "oot",
        -10.638484927662859
      ],
      [
        "▁sing",
        -8.947672389427074
      ],
      [
        "▁mutate",
        -11.4587482480665
      ],
      [
        "▁interrogat",
        -12.771176617328914
      ],
      [
        "happ",
        -8.59277947238414
      ],
      [
        "▁create",
        -6.916483019848426
      ],
      [
        "▁pain",
        -8.466293840566218
      ],
      [
        "▁eyebrow",
        -10.68992546498831
      ],
      [
        "d",
        -5.393842617965879
      ],
      [
        "▁parachute",
        -10.689911495539732
      ],
      [
        "▁apply",
        -7.699492334367162
      ],
      [
        "cycle",
        -12.331414108401365
      ],
      [
        "▁nigh",
        -12.606916908129248
      ],
      [
        "▁we",
        -8.206342723049602
      ],
      [
        "▁venture",
        -9.765838833320071
      ],
      [
        "▁god",
        -7.15099595577349
      ],
      [
        "term",
        -11.65121771711902
      ],
      [
        "ball",
        -10.48814541215298
      ],
      [
        "migrate",
        -11.257419354409215
      ],
      [
        "▁replica",
        -12.772639176423331
      ],
      [
        "▁improvement",
        -8.850086089309052
      ],
      [
        "▁ap",
        -8.127609042448702
      ],
      [
        "▁goat",
        -8.88678769132553
      ],
      [
        "▁strat",
        -8.896394560797244
      ],
      [
        "▁chess",
        -9.443600863764663
      ],
      [
        "itable",
        -8.318636918082632
      ],
      [
        "▁stack",
        -10.969885260985986
      ],
      [
        "▁la",
        -9.290215450803133
      ],
      [
        "oo",
        -8.764520716342055
      ],
      [
        "▁road",
        -8.76210881242689
      ],
      [
        "▁dom",
        -8.508771283202908
      ],
      [
        "▁even",
        -11.491028490480456
      ],
      [
        "20",
        -6.596750384748944
      ],
      [
        "▁testi",
        -11.088747800983583
      ],
      [
        "▁colla",
        -12.483591407436208
      ],
      [
        "bbles",
        -12.78305797578216
      ],
      [
        "▁network",
        -8.523930789544362
      ],
      [
        "▁password",
        -9.086022181650534
      ],
      [
        "▁uv",
        -9.602954807763526
      ],
      [
        "like",
        -8.617602280843219
      ],
      [
        "▁becom",
        -9.051990026645438
      ],
      [
        "en",
        -8.828279140917061
      ],
      [
        "▁weekend",
        -8.020070915304803
      ],
      [
        "▁virus",
        -9.689582504241578
      ],
      [
        "47",
        -11.273841400201045
      ],
      [
        "▁seed",
        -8.963363592938329
      ],
      [
        "’",
        -11.119861525668208
      ],
      [
        "▁ambi",
        -10.616562697530046
      ],
      [
        "▁pay",
        -10.507941570696987
      ],
      [
        "▁actor",
        -9.082290270584325
      ],
      [
        "▁fre",
        -13.213851509105357
      ],
      [
        "▁join",
        -12.800384744821356
      ],
      [
        "▁surpris",
        -10.71640502089398
      ],
      [
        "ertise",
        -11.708040651865225
      ],
      [
        "▁anyw",
        -8.205410913995946
      ],
      [
        "▁dand",
        -8.815149696962646
      ],
      [
        "▁assist",
        -10.372103845330432
      ],
      [
        "ins",
        -12.167094736746972
      ],
      [
        "▁spill",
        -8.918939825192812
      ],
      [
        "▁mis",
        -9.586183829478502
      ],
      [
        "▁ignore",
        -8.690690195797188
      ],
      [
        "tend",
        -11.697571659895495
      ],
      [
        "belt",
        -12.492769978955382
      ],
      [
        "▁mark",
        -8.602526147128756
      ],
      [
        "▁quarrel",
        -11.773303118667767
      ],
      [
        "m",
        -6.7697770087744225
      ],
      [
        "▁work",
        -5.663812961351836
      ],
      [
        "▁blame",
        -9.251880993408966
      ],
      [
        "▁grasshopper",
        -11.773256635488435
      ],
      [
        "▁whi",
        -8.851405274144836
      ],
      [
        "rent",
        -11.037617359250897
      ],
      [
        "▁further",
        -10.175394279011858
      ],
      [
        "town",
        -8.823763077922745
      ],
      [
        "▁grab",
        -12.559726024950542
      ],
      [
        "▁slow",
        -7.370680472423794
      ],
      [
        "▁base",
        -7.834168420247934
      ],
      [
        "▁un",
        -8.043704201988048
      ],
      [
        "zip",
        -10.382085699359514
      ],
      [
        "▁modif",
        -9.646394137373854
      ],
      [
        "▁thieve",
        -10.96201414470015
      ],
      [
        "fi",
        -8.088029578901322
      ],
      [
        "▁ap",
        -8.946868135636084
      ],
      [
        "▁incubat",
        -10.323422872196318
      ],
      [
        "▁become",
        -6.846957219988554
      ],
      [
        "▁contra",
        -12.460657371724109
      ],
      [
        "▁updat",
        -10.536455177965196
      ],
      [
        "▁crown",
        -10.340385220123277
      ],
      [
        "▁clue",
        -10.349609316576641
      ],
      [
        "▁bun",
        -9.568657790649363
      ],
      [
        "rison",
        -11.779871263913552
      ],
      [
        "tima",
        -11.802039053428658
      ],
      [
        "endum",
        -12.829476665599874
      ],
      [
        "own",
        -5.651585842620452
      ],
      [
        "▁streams",
        -11.000256249478682
      ],
      [
        "▁cham",
        -12.10462996102074
      ],
      [
        "▁continu",
        -9.162919533482437
      ],
      [
        "▁freezer",
        -9.849984050053827
      ],
      [
        "ian",
        -8.945209482744852
      ],
      [
        "ister",
        -11.3531502333551
      ],
      [
        "▁growl",
        -12.460368161917184
      ],
      [
        "▁non",
        -8.674722093820106
      ],
      [
        "▁",
        -1.2052669954522912
      ],
      [
        "▁que",
        -11.839203122671723
      ],
      [
        "▁beat",
        -10.640452620267824
      ],
      [
        "▁defie",
        -12.031097339606418
      ],
      [
        "19",
        -8.81243243825633
      ],
      [
        "ntage",
        -12.246306031826869
      ],
      [
        "▁de",
        -4.941992651973221
      ],
      [
        "▁involvement",
        -9.458058716092498
      ],
      [
        "gy",
        -12.153593570331381
      ],
      [
        "▁structure",
        -10.030556818710727
      ],
      [
        "▁graveyard",
        -11.773823105213404
      ],
      [
        "▁gag",
        -11.937717502244778
      ],
      [
        "▁sampl",
        -11.187002919896356
      ],
      [
        "▁vir",
        -11.952507621475219
      ],
      [
        "▁economist",
        -9.956460328573538
      ],
      [
        "▁de",
        -7.219112376193933
      ],
      [
        "▁af",
        -7.921499307680733
      ],
      [
        "▁w",
        -7.847448350576819
      ],
      [
        "w",
        -10.77059528735586
      ],
      [
        "long",
        -11.83410893504668
      ],
      [
        "▁phy",
        -12.008378954029116
      ],
      [
        "▁pati",
        -12.096696666243304
      ],
      [
        "▁suite",
        -10.014612130102822
      ],
      [
        "x3",
        -12.68344863270835
      ],
      [
        "▁chief",
        -9.780707473282849
      ],
      [
        "▁green",
        -8.39765180919198
      ],
      [
        "gs",
        -11.232579897892219
      ],
      [
        "rigi",
        -12.165814929529999
      ],
      [
        "quino",
        -8.779177159805705
      ],
      [
        "ple",
        -11.125222066321479
      ],
      [
        "▁troupe",
        -11.773856582996622
      ],
      [
        "▁magazine",
        -9.131337675166439
      ],
      [
        "▁jen",
        -8.699936609149585
      ],
      [
        "▁dun",
        -11.974484456302083
      ],
      [
        "▁fur",
        -10.944162075299184
      ],
      [
        "a",
        -4.91602068502491
      ],
      [
        "▁preci",
        -8.670177033616888
      ],
      [
        "▁bug",
        -8.262162682660595
      ],
      [
        "record",
        -11.383700372594697
      ],
      [
        "den",
        -7.186659619903961
      ],
      [
        "cade",
        -11.596549339733526
      ],
      [
        "fect",
        -8.121719426551081
      ],
      [
        "▁religion",
        -8.761036812868753
      ],
      [
        "▁professional",
        -9.824956674643577
      ],
      [
        "_",
        -6.861397086100121
      ],
      [
        "▁supplie",
        -9.356384929205083
      ],
      [
        "▁lipstick",
        -9.457924388288818
      ],
      [
        "right",
        -10.235822436657799
      ],
      [
        "▁rut",
        -11.721757025362166
      ],
      [
        "ound",
        -5.611240752798639
      ],
      [
        "▁bow",
        -10.024494802162101
      ],
      [
        "▁oppress",
        -10.958757495163
      ],
      [
        "tivat",
        -11.743643308260172
      ],
      [
        "o-",
        -12.328029044604367
      ],
      [
        "port",
        -6.55451838609997
      ],
      [
        "▁bet",
        -8.494679605789248
      ],
      [
        "omi",
        -10.180247273248364
      ],
      [
        "▁celebrate",
        -10.189970557977702
      ],
      [
        "▁questionnaire",
        -10.180384258726692
      ],
      [
        "▁berr",
        -10.504231833695512
      ],
      [
        "inc",
        -12.697381923558112
      ],
      [
        "▁entire",
        -11.774832037295916
      ],
      [
        "▁pasture",
        -10.944574572339274
      ],
      [
        "shima",
        -8.712955792332206
      ],
      [
        "▁bra",
        -10.590767608392705
      ],
      [
        "im",
        -10.90542895618356
      ],
      [
        "▁worshiper",
        -11.815215157440559
      ],
      [
        "▁update",
        -9.307863758981759
      ],
      [
        "▁invent",
        -9.024819165760555
      ],
      [
        "▁fac",
        -8.919032331187946
      ],
      [
        "▁tonn",
        -12.045852566368305
      ],
      [
        "▁ruin",
        -9.15065426852602
      ],
      [
        "▁precondition",
        -11.773969468202981
      ],
      [
        "creator",
        -12.648894949377414
      ],
      [
        "▁part",
        -6.00607986887265
      ],
      [
        "▁tosse",
        -10.644474014296277
      ],
      [
        "▁disorder",
        -10.18187632299297
      ],
      [
        "tten",
        -10.152820242262626
      ],
      [
        "po",
        -13.346240009104433
      ],
      [
        "ripp",
        -9.84662978482131
      ],
      [
        "ock",
        -11.282748040683346
      ],
      [
        "ivate",
        -8.30544793868032
      ],
      [
        "consider",
        -10.409560436766172
      ],
      [
        "▁expressionist",
        -11.778216474614371
      ],
      [
        "▁poa",
        -11.395104798751975
      ],
      [
        "che",
        -11.960837310637285
      ],
      [
        "herita",
        -11.023151833732936
      ],
      [
        "adde",
        -13.606688497317176
      ],
      [
        "▁ah",
        -6.656152075760502
      ],
      [
        "▁restore",
        -10.187625731101289
      ],
      [
        "b",
        -7.441949052032088
      ],
      [
        "a",
        -6.510816364016302
      ],
      [
        "▁ord",
        -12.095388610198066
      ],
      [
        "???",
        -11.494198687124818
      ],
      [
        "▁stone",
        -8.864242688939608
      ],
      [
        "▁near",
        -11.48820308838556
      ],
      [
        "▁meter",
        -9.350208906298048
      ],
      [
        "▁contractor",
        -10.203143352953969
      ],
      [
        "▁cours",
        -11.488796239352585
      ],
      [
        "▁27",
        -7.027180110542156
      ],
      [
        "tour",
        -11.99623141648534
      ],
      [
        "▁free",
        -11.230483581492624
      ],
      [
        "▁newspaper",
        -8.474831834522206
      ],
      [
        "rap",
        -8.34558805081588
      ],
      [
        "ip",
        -13.3714266543688
      ],
      [
        "c",
        -4.470036614899309
      ],
      [
        "▁chick",
        -10.08868318531701
      ],
      [
        "hat",
        -3.789532303880037
      ],
      [
        "▁vice",
        -9.692539807610677
      ],
      [
        "▁developer",
        -9.595757923429725
      ],
      [
        "▁creak",
        -11.491040125749564
      ],
      [
        "▁reproduc",
        -10.92077373984186
      ],
      [
        "being",
        -10.560723666659772
      ],
      [
        "line",
        -8.746739938429302
      ],
      [
        "o",
        -6.877907499943204
      ],
      [
        "eol",
        -10.464810609810806
      ],
      [
        "▁singular",
        -11.781428620751088
      ],
      [
        "▁squirrel",
        -9.5244456590472
      ],
      [
        "v",
        -7.503686046903618
      ],
      [
        "rof",
        -11.408719359555471
      ],
      [
        "decide",
        -12.638070548640876
      ],
      [
        "we",
        -11.275208440188432
      ],
      [
        "adian",
        -8.264198113393562
      ],
      [
        "▁maximi",
        -12.458538637789541
      ],
      [
        "truck",
        -10.633382203875605
      ],
      [
        "▁roar",
        -9.953289317899433
      ],
      [
        "▁wel",
        -5.239750120745514
      ],
      [
        "▁guide",
        -10.114764973786704
      ],
      [
        "▁instigate",
        -10.958725626949771
      ],
      [
        "▁to",
        -4.828081713777489
      ],
      [
        "▁launcher",
        -11.311004660832307
      ],
      [
        "arth",
        -12.764369862251824
      ],
      [
        "▁harden",
        -11.459143677170001
      ],
      [
        "round",
        -8.511471382146699
      ],
      [
        "▁explor",
        -9.779672797640773
      ],
      [
        "▁shak",
        -10.315322505285643
      ],
      [
        "▁dwel",
        -12.554424956417549
      ],
      [
        "▁hybrid",
        -11.273238276021818
      ],
      [
        "▁malfunction",
        -10.958726343675103
      ],
      [
        "▁provok",
        -10.902337150025188
      ],
      [
        "▁fac",
        -12.158793343620426
      ],
      [
        "▁litera",
        -8.260239688870755
      ],
      [
        "▁explore",
        -8.748329199679617
      ],
      [
        "▁trumpe",
        -11.45877551936662
      ],
      [
        "▁t",
        -7.718890268702155
      ],
      [
        "▁fourt",
        -7.691191378294574
      ],
      [
        "▁twenty",
        -4.856647518973699
      ],
      [
        "▁entertain",
        -9.228861604649396
      ],
      [
        "▁emphasise",
        -11.45872562584216
      ],
      [
        "structure",
        -11.866219560702163
      ],
      [
        "▁download",
        -9.761589825058374
      ],
      [
        "rust",
        -11.88905127966491
      ],
      [
        "▁crop",
        -12.455096683188597
      ],
      [
        "ominate",
        -10.358807714120648
      ],
      [
        "▁9",
        -5.844827498647502
      ],
      [
        "▁amnest",
        -11.77528497868199
      ],
      [
        "▁vacation",
        -11.458736368785699
      ],
      [
        "▁isolat",
        -11.526565329520537
      ],
      [
        "▁profile",
        -9.756268150149182
      ],
      [
        "▁distributor",
        -11.781061188358366
      ],
      [
        "▁donat",
        -11.692482295662332
      ],
      [
        "▁desk",
        -8.049248096674694
      ],
      [
        "ese",
        -10.064450891872804
      ],
      [
        "▁soo",
        -11.932922535819028
      ],
      [
        "just",
        -8.055736815112477
      ],
      [
        "▁arm",
        -10.372080532130106
      ],
      [
        "▁dwell",
        -11.770672748642319
      ],
      [
        "▁a",
        -6.746763213277558
      ],
      [
        "▁dep",
        -12.436950373133385
      ],
      [
        "▁masterpiece",
        -10.69106406598766
      ],
      [
        "▁alternat",
        -9.536629011223768
      ],
      [
        "▁ha",
        -4.961582746137713
      ],
      [
        "▁hole",
        -8.025201042018933
      ],
      [
        "▁lamb",
        -9.82998832970348
      ],
      [
        "▁can",
        -8.360583560335318
      ],
      [
        "▁thank",
        -6.299459731837786
      ],
      [
        "▁hop",
        -8.4796290412475
      ],
      [
        "ra",
        -11.607781359324651
      ],
      [
        "▁ker",
        -12.79710823751579
      ],
      [
        "▁interfer",
        -11.295583025342504
      ],
      [
        "▁de",
        -8.13898466470365
      ],
      [
        "▁fever",
        -9.524510242015868
      ],
      [
        "ney",
        -7.546892535134333
      ],
      [
        "▁flourish",
        -10.0116362904511
      ],
      [
        "▁biolog",
        -10.503666925181385
      ],
      [
        "▁muslim",
        -8.966332328986669
      ],
      [
        "look",
        -11.990908314182747
      ],
      [
        "▁headache",
        -9.946781566409028
      ],
      [
        "▁lieutenant",
        -10.489905068377004
      ],
      [
        "▁distanc",
        -8.970483599606446
      ],
      [
        "verno",
        -8.537916246858382
      ],
      [
        "▁bear",
        -7.377920124535902
      ],
      [
        "▁sizzl",
        -11.494292379640301
      ],
      [
        "▁paradi",
        -10.713646868203334
      ],
      [
        "h",
        -7.309483709560473
      ],
      [
        "▁short",
        -10.481665591767538
      ],
      [
        "father",
        -10.269476397881295
      ],
      [
        "▁rally",
        -10.940440204825528
      ],
      [
        "▁research",
        -9.634070957828724
      ],
      [
        "rch",
        -11.598045447666909
      ],
      [
        "▁pa",
        -10.189800772962526
      ],
      [
        "▁as",
        -5.1827083301970625
      ],
      [
        "▁gon",
        -5.350338757148288
      ],
      [
        "▁featur",
        -10.061648558782196
      ],
      [
        ";",
        -11.773238221275866
      ],
      [
        "▁hippo",
        -11.763635599632163
      ],
      [
        "▁poo",
        -9.644573121750733
      ],
      [
        "sources",
        -10.193072889870548
      ],
      [
        "▁determina",
        -12.726099082136736
      ],
      [
        "▁cann",
        -10.728253680964112
      ],
      [
        "▁comp",
        -11.268328528001746
      ],
      [
        "^",
        -12.810278406305976
      ],
      [
        "▁sens",
        -10.514955308771725
      ],
      [
        "▁polar",
        -12.789110040302285
      ],
      [
        "r",
        -5.952620551118476
      ],
      [
        "▁secre",
        -12.76221613892644
      ],
      [
        "▁registr",
        -10.570691209243382
      ],
      [
        "▁shit",
        -11.67154420347797
      ],
      [
        "▁contrast",
        -9.847659472906479
      ],
      [
        "porte",
        -11.842307513486368
      ],
      [
        "▁out",
        -4.814863351036432
      ],
      [
        "▁ga",
        -9.703023709009663
      ],
      [
        "▁rightholder",
        -11.27495183126984
      ],
      [
        "▁surge",
        -10.65013085191778
      ],
      [
        "▁commentar",
        -10.122500482625712
      ],
      [
        "spear",
        -7.586705536594994
      ],
      [
        "▁expe",
        -10.29727691418903
      ],
      [
        "▁hope",
        -7.864830532406359
      ],
      [
        "▁stage",
        -8.669637184100624
      ],
      [
        "▁_",
        -3.86424851706071
      ],
      [
        "▁collapse",
        -9.496938658474816
      ],
      [
        "▁bin",
        -11.461938559852124
      ],
      [
        "rinkle",
        -12.642876715407418
      ],
      [
        "▁representative",
        -9.042786689722734
      ],
      [
        "▁fro",
        -8.847864777376085
      ],
      [
        "▁not",
        -7.200425170962376
      ],
      [
        "stroke",
        -12.70874836185576
      ],
      [
        "ilar",
        -7.306926894076488
      ],
      [
        "▁deal",
        -7.6621603068830595
      ],
      [
        "▁thumb",
        -10.056183715392478
      ],
      [
        "regulate",
        -12.170228676536551
      ],
      [
        "▁iron",
        -11.459078267273279
      ],
      [
        "▁dignit",
        -9.849136098363585
      ],
      [
        "ary",
        -6.703871217344126
      ],
      [
        "yard",
        -9.687213338254665
      ],
      [
        "hiki",
        -10.47753199537475
      ],
      [
        "▁spear",
        -9.284403542511928
      ],
      [
        "▁shel",
        -8.974684019918165
      ],
      [
        "nside",
        -10.445755577588109
      ],
      [
        "▁lea",
        -9.958561884498923
      ],
      [
        "▁stuff",
        -7.26975512796463
      ],
      [
        "▁sho",
        -9.527808698623717
      ],
      [
        "▁red",
        -6.333813204650047
      ],
      [
        "▁space",
        -8.599297990621825
      ],
      [
        "▁displease",
        -11.459190120291556
      ],
      [
        "▁mirror",
        -9.1787003585915
      ],
      [
        "so",
        -4.878830597655819
      ],
      [
        "ssor",
        -10.178124532335026
      ],
      [
        "ematic",
        -10.956496292170822
      ],
      [
        "ou",
        -11.026065425264347
      ],
      [
        "▁bat",
        -10.307725546008989
      ],
      [
        "▁ones",
        -7.821097955049515
      ],
      [
        "▁t",
        -13.04700383885649
      ],
      [
        "▁programme",
        -11.458725623696708
      ],
      [
        "▁cro",
        -12.62963541312459
      ],
      [
        "lows",
        -12.243469674320915
      ],
      [
        "person",
        -10.145670172414256
      ],
      [
        "▁de",
        -7.133759330193251
      ],
      [
        "mum",
        -8.88381328645902
      ],
      [
        "▁paw",
        -11.52662772642753
      ],
      [
        "▁botan",
        -11.774122335086181
      ],
      [
        "▁extensi",
        -8.616793546727472
      ],
      [
        "ocean",
        -12.438398208595688
      ],
      [
        "owe",
        -11.377686670406305
      ],
      [
        "▁grain",
        -9.536128138630984
      ],
      [
        "coat",
        -10.57190116467065
      ],
      [
        "▁reass",
        -12.44344266547707
      ],
      [
        "ock",
        -13.022776315377131
      ],
      [
        "▁strength",
        -8.7821834038438
      ],
      [
        "▁couch",
        -9.042490085983113
      ],
      [
        "clip",
        -12.227171494262421
      ],
      [
        "andy",
        -8.500200177357831
      ],
      [
        "otch",
        -11.464356690273588
      ],
      [
        "garit",
        -12.860294909161558
      ],
      [
        "▁apron",
        -10.490670558629855
      ],
      [
        "w",
        -5.491188161949157
      ],
      [
        "▁dance",
        -9.069633632679107
      ],
      [
        "y",
        -7.14930709824996
      ],
      [
        "▁attribute",
        -10.69450022871777
      ],
      [
        "▁oct",
        -7.1764947533015455
      ],
      [
        "▁stipe",
        -11.470230917143658
      ],
      [
        "compensate",
        -12.244286831589852
      ],
      [
        "power",
        -12.476930194181776
      ],
      [
        "▁christ",
        -10.966910576508294
      ],
      [
        "unt",
        -11.934024348406124
      ],
      [
        "▁brood",
        -10.636847841274632
      ],
      [
        "▁mullah",
        -11.773239305386936
      ],
      [
        "▁stray",
        -11.461187654433697
      ],
      [
        "▁medicine",
        -8.885587275814311
      ],
      [
        "gant",
        -8.758087245915043
      ],
      [
        "▁mu",
        -8.607033421237961
      ],
      [
        "pard",
        -11.924997563267627
      ],
      [
        "▁mus",
        -7.898406140039116
      ],
      [
        "▁sta",
        -10.324857998028987
      ],
      [
        "wled",
        -12.306845513467886
      ],
      [
        "▁cancellation",
        -10.68990511295895
      ],
      [
        "anim",
        -11.78387397597943
      ],
      [
        "▁partners",
        -9.569835597116983
      ],
      [
        "natur",
        -8.720647510231409
      ],
      [
        "▁b",
        -6.06939314395327
      ],
      [
        "▁pro",
        -9.092972692859167
      ],
      [
        "7",
        -8.553180840361604
      ],
      [
        "igator",
        -9.088023251123804
      ],
      [
        "▁quarte",
        -12.861920098629394
      ],
      [
        "mmy",
        -12.078546454054177
      ],
      [
        "▁ban",
        -10.428852256605355
      ],
      [
        "hack",
        -10.762165975807862
      ],
      [
        "▁par",
        -8.955352051088164
      ],
      [
        "subscribe",
        -11.272411559209992
      ],
      [
        "▁educat",
        -11.157337092448616
      ],
      [
        "▁estimate",
        -9.528699744111977
      ],
      [
        "orize",
        -11.953226634835028
      ],
      [
        "▁debut",
        -10.483316735437986
      ],
      [
        "alate",
        -11.038784199849633
      ],
      [
        "▁disco",
        -11.167456043268135
      ],
      [
        "rip",
        -8.860992111503464
      ],
      [
        "▁1",
        -10.310817735385482
      ],
      [
        "n",
        -5.575385108590868
      ],
      [
        "▁prove",
        -8.168219478103088
      ],
      [
        "▁fe",
        -9.865529364780565
      ],
      [
        "▁pull",
        -10.872569158008373
      ],
      [
        "meal",
        -11.36516609712303
      ],
      [
        "▁marking",
        -11.368371796348608
      ],
      [
        "enc",
        -12.08466421855513
      ],
      [
        "+cr",
        -12.722590487123098
      ],
      [
        "▁hur",
        -12.875150071139352
      ],
      [
        "▁twist",
        -9.28344110355502
      ],
      [
        "z",
        -9.606113698618241
      ],
      [
        "▁very",
        -4.371071920638461
      ],
      [
        "▁sailboat",
        -11.273529651192032
      ],
      [
        "▁humanit",
        -9.481453327670307
      ],
      [
        "st",
        -8.269047321114932
      ],
      [
        "▁defender",
        -10.69170015094749
      ],
      [
        "▁retai",
        -12.480776360368766
      ],
      [
        "etail",
        -8.950157100059991
      ],
      [
        "road",
        -10.700331404150326
      ],
      [
        "act",
        -11.473575239300231
      ],
      [
        "▁ethic",
        -10.527382264317222
      ],
      [
        "em",
        -12.213124534693176
      ],
      [
        "mort",
        -12.403603002507651
      ],
      [
        "co.",
        -11.469867101309077
      ],
      [
        "86",
        -12.773653618952597
      ],
      [
        "▁correlat",
        -10.343712997273979
      ],
      [
        "key",
        -12.0559922874312
      ],
      [
        "▁prob",
        -11.392969708555642
      ],
      [
        "enjoy",
        -12.383477079257474
      ],
      [
        "▁her",
        -8.795030697821932
      ],
      [
        "▁vera",
        -12.64686034619211
      ],
      [
        "▁e-mail",
        -10.625392700940735
      ],
      [
        "▁ide",
        -12.595781229837458
      ],
      [
        "gator",
        -10.30250809702601
      ],
      [
        "▁smith",
        -8.118485197165942
      ],
      [
        "▁moral",
        -10.70185900565572
      ],
      [
        "▁hope",
        -6.850381843185085
      ],
      [
        "physic",
        -11.681228567531146
      ],
      [
        "▁away",
        -12.155942261870063
      ],
      [
        "▁fine",
        -9.17096915012598
      ],
      [
        "▁carolin",
        -8.18586582049517
      ],
      [
        "▁recruit",
        -9.672557326637698
      ],
      [
        "..........",
        -12.04219046270542
      ],
      [
        "▁exit",
        -10.330006517544586
      ],
      [
        "▁ye",
        -3.803495247716296
      ],
      [
        "▁alternat",
        -10.958820138777142
      ],
      [
        "jump",
        -13.7661968015152
      ],
      [
        "▁cheer",
        -10.62581300808273
      ],
      [
        "▁jungle",
        -9.846398603383165
      ],
      [
        "▁reta",
        -12.832590116483138
      ],
      [
        "every",
        -9.010438236282951
      ],
      [
        "......",
        -13.08817150327664
      ],
      [
        "▁insurgenc",
        -10.334865846558573
      ],
      [
        "▁dwelling",
        -11.27718255132606
      ],
      [
        "rip",
        -12.340333782888482
      ],
      [
        "rete",
        -10.089488959079896
      ],
      [
        "▁symbol",
        -9.5955631244746
      ],
      [
        "▁self-",
        -11.458726379487555
      ],
      [
        "ail",
        -5.888541626445163
      ],
      [
        "▁micron",
        -10.783968184052174
      ],
      [
        "▁proto",
        -10.358115146632478
      ],
      [
        "er",
        -7.476797335921252
      ],
      [
        "▁roar",
        -8.86883153585313
      ],
      [
        "bank",
        -11.867406017672632
      ],
      [
        "▁reg",
        -8.561505855911198
      ],
      [
        "▁delegate",
        -10.328841656473417
      ],
      [
        "▁stream",
        -10.17670891606647
      ],
      [
        "▁inspect",
        -10.95877639804007
      ],
      [
        "▁ministr",
        -10.94755077569456
      ],
      [
        "▁donna",
        -8.728485479836607
      ],
      [
        "▁consi",
        -9.58112823406974
      ],
      [
        "do",
        -6.801638483122261
      ],
      [
        "▁kick",
        -8.610188776671855
      ],
      [
        "shot",
        -12.17553200448917
      ],
      [
        "▁abu",
        -10.695314148927853
      ],
      [
        "▁pro",
        -9.36840749901554
      ],
      [
        "ou",
        -5.693854455428379
      ],
      [
        "evolv",
        -11.255217829402971
      ],
      [
        "▁commitment",
        -9.04267150767593
      ],
      [
        "▁figur",
        -10.8475558747127
      ],
      [
        "▁export",
        -9.749730464864463
      ],
      [
        "▁08",
        -8.198729272252168
      ],
      [
        "tion",
        -8.221898973466955
      ],
      [
        "travel",
        -12.99327496354155
      ],
      [
        "▁cheer",
        -10.028038082985084
      ],
      [
        "emora",
        -11.331325002993829
      ],
      [
        "▁runflat",
        -11.77331249452727
      ],
      [
        "▁input",
        -10.181034729939215
      ],
      [
        "▁secretion",
        -11.807398875743587
      ],
      [
        "▁greet",
        -9.4499122373485
      ],
      [
        "▁ind",
        -8.9686852054047
      ],
      [
        "pass",
        -10.666494512214095
      ],
      [
        "test",
        -11.705071043083239
      ],
      [
        "▁proportion",
        -10.057165533992457
      ],
      [
        "c",
        -8.636068432795373
      ],
      [
        "▁gain",
        -9.604904481259664
      ],
      [
        "▁originate",
        -9.98649700429147
      ],
      [
        "▁blog",
        -9.146173484971518
      ],
      [
        "▁communicate",
        -9.521573590225628
      ],
      [
        "▁starv",
        -10.001618699123265
      ],
      [
        "▁undermin",
        -10.882330974817817
      ],
      [
        "▁dept",
        -12.833423134063553
      ],
      [
        "ww",
        -11.076520667939029
      ],
      [
        "▁conver",
        -10.26334077020191
      ],
      [
        "sty",
        -8.85578389730623
      ],
      [
        "▁lodg",
        -10.499915905256039
      ],
      [
        "repar",
        -12.733433306158846
      ],
      [
        "dnes",
        -12.243106444613764
      ],
      [
        "mines",
        -11.405133850429207
      ],
      [
        "▁deliver",
        -8.575857104014391
      ],
      [
        "▁in",
        -3.238740417683939
      ],
      [
        "▁sett",
        -10.051318922042409
      ],
      [
        "▁trumpet",
        -10.689906944630359
      ],
      [
        "sit",
        -11.389425223436325
      ],
      [
        "▁accus",
        -10.522531768736979
      ],
      [
        ".com",
        -10.940525493319383
      ],
      [
        "▁cre",
        -13.711565349128406
      ],
      [
        "ernate",
        -11.459581754410177
      ],
      [
        "▁bate",
        -12.870433726585114
      ],
      [
        "ever",
        -7.831432693761964
      ],
      [
        "▁3",
        -8.94659246165607
      ],
      [
        "▁hack",
        -10.430233966129034
      ],
      [
        "worth",
        -9.968157502497512
      ],
      [
        "▁financ",
        -10.960369016567316
      ],
      [
        "ba",
        -8.523275629336801
      ],
      [
        "▁funnel",
        -9.846314884896987
      ],
      [
        "▁exemp",
        -12.772299112652547
      ],
      [
        "ima",
        -8.4999921288141
      ],
      [
        "▁steer",
        -10.377419313835233
      ],
      [
        "is",
        -7.450562292556078
      ],
      [
        "▁dash",
        -10.968388493884556
      ],
      [
        "frighten",
        -12.390224401098646
      ],
      [
        "▁raid",
        -10.516207023691686
      ],
      [
        "▁categori",
        -10.549999442735533
      ],
      [
        "▁pizza",
        -8.202275232138575
      ],
      [
        "as",
        -6.594058164000631
      ],
      [
        "▁you",
        -12.858193045384432
      ],
      [
        "ling",
        -9.851475203658675
      ],
      [
        "▁asset",
        -9.09245478106449
      ],
      [
        "▁distribute",
        -8.56609744035245
      ],
      [
        "▁golf",
        -10.055645249424009
      ],
      [
        "nvoy",
        -11.126285451661712
      ],
      [
        "▁don",
        -8.194150076501575
      ],
      [
        "▁tom",
        -7.1224014349360925
      ],
      [
        "ala",
        -10.602663603178703
      ],
      [
        "nlight",
        -11.658630004791412
      ],
      [
        "▁may",
        -6.779272039943927
      ],
      [
        "transport",
        -12.227300274942046
      ],
      [
        "▁lace",
        -11.064689893751407
      ],
      [
        "▁ca",
        -8.639878754911013
      ],
      [
        "▁pl",
        -3.2601159934010724
      ],
      [
        "▁heir",
        -11.275507188505152
      ],
      [
        "▁smil",
        -9.379714844081331
      ],
      [
        "▁asses",
        -9.747512681475484
      ],
      [
        "ort",
        -11.16745425350411
      ],
      [
        "gia",
        -12.05373334343836
      ],
      [
        "▁ghost",
        -10.055416886236879
      ],
      [
        "/",
        -9.843508640385355
      ],
      [
        "▁resource",
        -8.261327467282946
      ],
      [
        "▁junk",
        -9.775193164213752
      ],
      [
        "▁mu",
        -10.588931053125789
      ],
      [
        "▁mumm",
        -8.308236560832473
      ],
      [
        "lause",
        -10.767449149847028
      ],
      [
        "▁total",
        -9.458182933252637
      ],
      [
        "dance",
        -11.021022087546621
      ],
      [
        "uit",
        -11.143140328262028
      ],
      [
        "▁vel",
        -11.81100502095464
      ],
      [
        "▁sigh",
        -10.151819997786745
      ],
      [
        "were",
        -7.167827169458954
      ],
      [
        "▁membrane",
        -11.773239317012834
      ],
      [
        "▁jett",
        -11.4591744165544
      ],
      [
        "▁fan",
        -8.171227595709313
      ],
      [
        "▁foll",
        -11.809581816700547
      ],
      [
        "▁agree",
        -7.253405628739583
      ],
      [
        "▁lake",
        -10.33990018124596
      ],
      [
        "▁:",
        -3.3193574782257853
      ],
      [
        "▁hur",
        -9.44152278590518
      ],
      [
        "▁sixt",
        -10.69072221709317
      ],
      [
        "10",
        -6.928772068030855
      ],
      [
        "tor",
        -12.484019335357504
      ],
      [
        "▁paul",
        -6.298893274257382
      ],
      [
        "▁danc",
        -9.731567653605886
      ],
      [
        "imon",
        -11.08697098021067
      ],
      [
        "cialize",
        -11.919731668974407
      ],
      [
        "▁river-",
        -11.783543470601561
      ],
      [
        "▁fulfil",
        -10.925225358278373
      ],
      [
        "hi",
        -12.596011167150566
      ],
      [
        "▁standard",
        -7.83768209548655
      ],
      [
        "▁practi",
        -12.778586146059919
      ],
      [
        "etc",
        -12.35248599605457
      ],
      [
        "▁vei",
        -12.503992732359226
      ],
      [
        "▁prisoner",
        -10.329862467998474
      ],
      [
        "ada",
        -12.384019383754717
      ],
      [
        "oint",
        -8.647521673000428
      ],
      [
        "ar",
        -8.992498660980536
      ],
      [
        "help",
        -10.455531735605998
      ],
      [
        "▁keep",
        -10.572442978894397
      ],
      [
        "▁labour",
        -11.45875452667877
      ],
      [
        "▁exp",
        -10.367243970403123
      ],
      [
        "re",
        -6.446717059356223
      ],
      [
        "▁30",
        -5.898121181112609
      ],
      [
        "▁farrier",
        -9.755593012663416
      ],
      [
        "bell",
        -11.242726315262964
      ],
      [
        "▁d",
        -8.66826635577538
      ],
      [
        "▁st",
        -7.41836189483927
      ],
      [
        "▁office",
        -7.4078300031256905
      ],
      [
        "▁whistle",
        -10.180425717776298
      ],
      [
        "stein",
        -8.430337405064101
      ],
      [
        "…",
        -9.197828780273426
      ],
      [
        "shop",
        -10.584577449204158
      ],
      [
        "▁acorn",
        -11.283936421524933
      ],
      [
        "vest",
        -12.477232801242035
      ],
      [
        "▁fa",
        -11.426764418963366
      ],
      [
        "▁impa",
        -10.498242054825536
      ],
      [
        "▁extension",
        -9.756282613702744
      ],
      [
        "▁forb",
        -12.517176732791846
      ],
      [
        "▁here",
        -4.079579998525942
      ],
      [
        "▁pur",
        -8.532968015008763
      ],
      [
        "▁what",
        -9.596570129206693
      ],
      [
        "▁rain",
        -8.26077810030512
      ],
      [
        "▁713",
        -7.230148690097462
      ],
      [
        "▁filter",
        -8.242819720730548
      ],
      [
        "▁hand",
        -8.679727894075862
      ],
      [
        "communication",
        -11.513155179286944
      ],
      [
        "borate",
        -12.463091033161799
      ],
      [
        "▁bedroom",
        -8.661050574088472
      ],
      [
        "s",
        -7.035194481589117
      ],
      [
        "▁one",
        -6.966178114737579
      ],
      [
        "▁pose",
        -10.975631087843187
      ],
      [
        "▁fed",
        -11.790047146484376
      ],
      [
        "▁poo",
        -8.913267724032092
      ],
      [
        "apping",
        -12.035231124839749
      ],
      [
        "chair",
        -10.88066362799341
      ],
      [
        "the",
        -3.8465712775810488
      ],
      [
        "▁smart",
        -11.276784839838578
      ],
      [
        "ko",
        -8.453083237861447
      ],
      [
        "▁battle",
        -11.189652838706685
      ],
      [
        "▁sway",
        -9.869892786801692
      ],
      [
        "inera",
        -11.877812515612073
      ],
      [
        "▁unfr",
        -11.84375184353045
      ],
      [
        "d",
        -10.889404706649984
      ],
      [
        "▁declare",
        -8.58821911898314
      ],
      [
        "▁serio",
        -12.867512530524825
      ],
      [
        "▁niche",
        -11.273939539788575
      ],
      [
        "-hea",
        -12.618676859303696
      ],
      [
        "▁suppose",
        -7.33864174470321
      ],
      [
        "▁rein",
        -10.134623504804269
      ],
      [
        "▁retaliate",
        -10.958725654355826
      ],
      [
        "▁charm",
        -11.463867735654787
      ],
      [
        "hes",
        -13.2536395611446
      ],
      [
        "▁sa",
        -7.430530327026167
      ],
      [
        "...",
        -9.194120139503523
      ],
      [
        "▁carrot",
        -9.228721349605152
      ],
      [
        "▁fixation",
        -11.274979716569208
      ],
      [
        "anes",
        -12.827945605353722
      ],
      [
        "▁dangerou",
        -7.459571200643842
      ],
      [
        "able",
        -11.41644640451951
      ],
      [
        "▁advocate",
        -11.458725961477867
      ],
      [
        "▁arrest",
        -9.02482456647259
      ],
      [
        "obby",
        -8.650562995330045
      ],
      [
        "▁brush",
        -10.097008720516628
      ],
      [
        "▁housewi",
        -12.004893039920342
      ],
      [
        "▁competition",
        -8.630823985428336
      ],
      [
        "▁panel",
        -9.336960649617383
      ],
      [
        "ve",
        -10.92566035959162
      ],
      [
        "▁185",
        -7.780257981405974
      ],
      [
        "▁prol",
        -12.047891282322357
      ],
      [
        "▁relat",
        -7.4710557473296095
      ],
      [
        "▁whoop",
        -11.280331667339174
      ],
      [
        "▁au",
        -11.840180027425346
      ],
      [
        "▁clut",
        -11.678381561854124
      ],
      [
        "▁imme",
        -7.436168493080066
      ],
      [
        "▁peer",
        -10.526115900729813
      ],
      [
        "surf",
        -11.741327145546709
      ],
      [
        "▁jame",
        -7.865659626642098
      ],
      [
        "guide",
        -12.608001694332353
      ],
      [
        "nic",
        -12.62657139082082
      ],
      [
        "ons",
        -8.658922783906405
      ],
      [
        "▁mor",
        -12.640865663171189
      ],
      [
        "▁man",
        -10.605370595596376
      ],
      [
        "▁wo",
        -10.651105859145055
      ],
      [
        "▁philosoph",
        -9.592902424669022
      ],
      [
        "▁retreat",
        -10.176327441615475
      ],
      [
        "▁librarian",
        -9.458338943336898
      ],
      [
        "▁at",
        -9.875443606246005
      ],
      [
        "▁book",
        -6.463781992232558
      ],
      [
        "▁sanit",
        -11.001376918625647
      ],
      [
        "rong",
        -9.238709557233575
      ],
      [
        "▁wha",
        -8.988824741698977
      ],
      [
        "▁1.5",
        -7.392708969603497
      ],
      [
        "▁slow",
        -10.823988768909054
      ],
      [
        "▁sc",
        -11.232061577871788
      ],
      [
        "▁sigh",
        -11.78028889025272
      ],
      [
        "▁appropriat",
        -10.958725623450555
      ],
      [
        "▁wra",
        -12.363099204893093
      ],
      [
        "ration",
        -10.205945867129673
      ],
      [
        "▁pupp",
        -8.718260697530635
      ],
      [
        "▁penalt",
        -9.755654975880708
      ],
      [
        "ph",
        -12.045428740667285
      ],
      [
        "▁easter",
        -8.082890581363323
      ],
      [
        "▁jellyfish",
        -9.755824323816963
      ],
      [
        "err",
        -12.583100016776102
      ],
      [
        "▁forget",
        -7.8047061598920475
      ],
      [
        "▁cycle",
        -8.837617824772785
      ],
      [
        "udge",
        -11.926042943960152
      ],
      [
        "▁take",
        -9.551030000585184
      ],
      [
        "▁proli",
        -12.615706706274779
      ],
      [
        "▁earl",
        -11.36319366899552
      ],
      [
        "▁assum",
        -9.165025065780604
      ],
      [
        "possesse",
        -12.26346739597778
      ],
      [
        "▁out",
        -8.07198983097419
      ],
      [
        "▁swirl",
        -10.175406740353349
      ],
      [
        "▁diaper",
        -8.849746328309694
      ],
      [
        "▁nurse",
        -9.366395403479604
      ],
      [
        "▁ri",
        -10.819887071530054
      ],
      [
        "▁car",
        -9.983080030822261
      ],
      [
        "player",
        -11.259602368667473
      ],
      [
        "▁second",
        -8.630368830389557
      ],
      [
        "▁baghdad",
        -8.751361734165386
      ],
      [
        "▁ski",
        -8.926232473245435
      ],
      [
        "▁paper",
        -6.7798710585755195
      ],
      [
        "ck",
        -10.640762823743701
      ],
      [
        "▁shower",
        -12.184825104088397
      ],
      [
        "▁disease",
        -8.855813014577175
      ],
      [
        "▁experienc",
        -9.952192018245142
      ],
      [
        "nal",
        -8.493617167852463
      ],
      [
        "▁operator",
        -8.65938123268148
      ],
      [
        "▁embr",
        -11.553689232734905
      ],
      [
        "finish",
        -13.174655498450068
      ],
      [
        "▁gasp",
        -10.378746515845485
      ],
      [
        "▁en",
        -9.59890442297582
      ],
      [
        "▁cho",
        -8.869016965844683
      ],
      [
        "▁prom",
        -11.244776372474956
      ],
      [
        "▁gir",
        -12.735249684928194
      ],
      [
        "▁alway",
        -5.519820572217112
      ],
      [
        "▁pl",
        -11.198238648643517
      ],
      [
        "▁la",
        -4.882717315011144
      ],
      [
        "▁detr",
        -7.449546577722738
      ],
      [
        "▁refiner",
        -10.078684498804057
      ],
      [
        "▁interrupt",
        -9.634030986194858
      ],
      [
        "tri",
        -11.308753405015638
      ],
      [
        "election",
        -11.75467730794933
      ],
      [
        "-",
        -7.3813609241780345
      ],
      [
        "▁mingle",
        -10.988608212319129
      ],
      [
        "▁analog",
        -10.940349048118838
      ],
      [
        "conveni",
        -12.291589293298706
      ],
      [
        "ed",
        -7.667241707785551
      ],
      [
        "▁diffe",
        -5.787677870707446
      ],
      [
        "receive",
        -12.385035827806743
      ],
      [
        "▁characteri",
        -12.458477735106012
      ],
      [
        "▁ad",
        -9.0960026141677
      ],
      [
        "▁white",
        -6.200269289236962
      ],
      [
        "▁be",
        -8.527159747118574
      ],
      [
        "hem",
        -13.98800345435682
      ],
      [
        "▁decrease",
        -10.083583195963014
      ],
      [
        "▁enlarge",
        -11.675042734425105
      ],
      [
        "▁brothe",
        -12.810828274739915
      ],
      [
        "charge",
        -12.683021150392042
      ],
      [
        "▁gam",
        -11.330784336224413
      ],
      [
        "▁trace",
        -10.807113277960994
      ],
      [
        "▁go",
        -8.891681579650308
      ],
      [
        "vious",
        -7.665292336190957
      ],
      [
        "kipper",
        -10.693142980659854
      ],
      [
        "▁chris",
        -7.724535802396346
      ],
      [
        "ke",
        -8.192817609318134
      ],
      [
        "rati",
        -10.336561067532806
      ],
      [
        "▁deadline",
        -10.057373406372163
      ],
      [
        "ific",
        -8.136613750682837
      ],
      [
        "▁snip",
        -11.285920439878685
      ],
      [
        "settl",
        -12.448275392488798
      ],
      [
        "▁pant",
        -10.695635090295202
      ],
      [
        "▁grave",
        -9.886732654570265
      ],
      [
        "▁medicat",
        -10.967016016119356
      ],
      [
        "▁floati",
        -12.246586210003326
      ],
      [
        "▁eight",
        -5.45617522748721
      ],
      [
        "mate",
        -11.491013477729869
      ],
      [
        "▁preacher",
        -10.939956208767597
      ],
      [
        "▁thr",
        -4.171737371864407
      ],
      [
        "▁king",
        -8.87705253806394
      ],
      [
        "▁relaxe",
        -13.46903323800876
      ],
      [
        "▁je",
        -9.523857047716103
      ],
      [
        "▁defend",
        -9.145912033232495
      ],
      [
        "▁sheet",
        -8.479359562198741
      ],
      [
        "calculation",
        -11.145237692460611
      ],
      [
        "▁mix",
        -8.5503199672976
      ],
      [
        "legal",
        -11.227378246964719
      ],
      [
        "▁leave",
        -5.929274021604734
      ],
      [
        "▁surpris",
        -8.309669101209067
      ],
      [
        "▁meeting",
        -7.504920745745158
      ],
      [
        "▁che",
        -11.660900317551818
      ],
      [
        "▁prep",
        -11.915613226836745
      ],
      [
        "▁convinc",
        -10.731426916810456
      ],
      [
        "▁unravel",
        -10.958727349387452
      ],
      [
        "▁resu",
[...]
