{
  "version": "1.0",
  "truncation": null,
  "padding": null,
  "added_tokens": [
    {
      "id": 3272,
      "content": "[PAD]",
      "single_word": false,
      "lstrip": false,
      "rstrip": false,
      "normalized": false,
      "special": true
    },
    {
      "id": 3863,
      "content": "[MASK]",
      "single_word": false,
      "lstrip": false,
      "rstrip": false,
      "normalized": false,
      "special": true
    },
    {
      "id": 3961,
      "content": "[UNK]",
      "single_word": false,
      "lstrip": false,
      "rstrip": false,
      "normalized": false,
      "special": true
    },
    {
      "id": 6486,
      "content": "[CLS]",
      "single_word": false,
      "lstrip": false,
      "rstrip": false,
      "normalized": false,
      "special": true
    },
    {
      "id": 6686,
      "content": "[SEP]",
      "single_word": false,
      "lstrip": false,
      "rstrip": false,
      "normalized": false,
      "special": true
    }
  ],
  "normalizer": {
    "type": "Sequence",
    "normalizers": [
      {
        "type": "NFD"
      },
      {
        "type": "Lowercase"
      },
      {
        "type": "StripAccents"
      }
    ]
  },
  "pre_tokenizer": {
    "type": "Sequence",
    "pretokenizers": [
      {
        "type": "Metaspace",
        "replacement": "▁",
        "prepend_scheme": "always",
        "split": true
      }
    ]
  },
  "post_processor": {
    "type": "TemplateProcessing",
    "single": [
      {
        "SpecialToken": {
          "id": "[CLS]",
          "type_id": 0
        }
      },
      {
        "Sequence": {
          "id": "A",
          "type_id": 0
        }
      },
      {
        "SpecialToken": {
          "id": "[SEP]",
          "type_id": 0
        }
      }
    ],
    "pair": [
      {
        "SpecialToken": {
          "id": "[CLS]",
          "type_id": 0
        }
      },
      {
        "Sequence": {
          "id": "A",
          "type_id": 0
        }
      },
      {
        "SpecialToken": {
          "id": "[SEP]",
          "type_id": 0
        }
      },
      {
        "Sequence": {
          "id": "B",
          "type_id": 1
        }
      },
      {
        "SpecialToken": {
          "id": "[SEP]",
          "type_id": 1
        }
      }
    ],
    "special_tokens": {
      "[CLS]": {
        "id": "[CLS]",
        "ids": [
          6486
        ],
        "tokens": [
          "[CLS]"
        ]
      },
      "[SEP]": {
        "id": "[SEP]",
        "ids": [
          6686
        ],
        "tokens": [
          "[SEP]"
        ]
      }
    }
  },
  "decoder": {
    "type": "Metaspace",
    "replacement": "▁",
    "prepend_scheme": "always",
    "split": true
  },
  "model": {
    "type": "WordPiece",
    "unk_token": "[UNK]",
    "continuing_subword_prefix": "##",
    "max_input_chars_per_word": 100,
    "vocab": {
      "▁candy": 0,
      "▁squirt": 1,
      "▁slipped": 2,
      "▁cognition": 3,
      "##p;": 4,
      "##to": 5,
      "▁chat": 6,
      "▁introduc": 7,
      "##ulate": 8,
      "▁allocated": 9,
      "▁circles": 10,
      "▁interv": 11,
      "▁there": 12,
      "▁date": 13,
      "▁circum": 14,
      "##my": 15,
      "▁dies": 16,
      "▁ec": 17,
      "##0s": 18,
      "▁involved": 19,
      "▁quit": 20,
      "▁ha": 21,
      "▁must": 22,
      "▁proble": 23,
      "▁airplan": 24,
      "▁boots": 25,
      "▁tells": 26,
      "▁form": 27,
      "##wi": 28,
      "##inger": 29,
      "##aste": 30,
      "##ament": 31,
      "▁forgotten": 32,
      "▁areas": 33,
      "▁resources": 34,
      "##son": 35,
      "▁recommended": 36,
      "▁q": 37,
      "##ortion": 38,
      "▁paint": 39,
      "▁pun": 40,
      "▁wanted": 41,
      "##mped": 42,
      "##iece": 43,
      "▁football": 44,
      "▁establish": 45,
      "▁appears": 46,
      "##encies": 47,
      "▁guidelines": 48,
      "▁created": 49,
      "▁bathroom": 50,
      "##ways": 51,
      "▁wedding": 52,
      "##ects": 53,
      "▁wait": 54,
      "▁laundry": 55,
      "▁old": 56,
      "##aces": 57,
      "▁buy": 58,
      "▁map": 59,
      "▁watch": 60,
      "▁well": 61,
      "▁iran": 62,
      "▁employees": 63,
      "▁suff": 64,
      "▁replication": 65,
      "▁childhood": 66,
      "▁squ": 67,
      "▁pile": 68,
      "##-p": 69,
      "▁y": 70,
      "▁daily": 71,
      "▁bench": 72,
      "##ful": 73,
      "▁transmed": 74,
      "##ocks": 75,
      "▁spend": 76,
      "▁buc": 77,
      "▁u": 78,
      "▁headed": 79,
      "##utes": 80,
      "##ortant": 81,
      "▁!!!?": 82,
      "▁gives": 83,
      "▁gallon": 84,
      "▁fig": 85,
      "▁once": 86,
      "▁indian": 87,
      "▁hard": 88,
      "##nesday": 89,
      "▁practices": 90,
      "##cently": 91,
      "##cally": 92,
      "▁mar": 93,
      "##chang": 94,
      "##read": 95,
      "▁rip": 96,
      "▁oblig": 97,
      "##actions": 98,
      "▁felt": 99,
      "▁finance": 100,
      "▁ra": 101,
      "##ointment": 102,
      "▁driver": 103,
      "▁donkey": 104,
      "▁identify": 105,
      "▁fail": 106,
      "▁will": 107,
      "▁spons": 108,
      "▁amendment": 109,
      "▁sir": 110,
      "▁with": 111,
      "▁commission": 112,
      "▁upside": 113,
      "▁first": 114,
      "▁forward": 115,
      "▁trees": 116,
      "▁hasid": 117,
      "▁mid-": 118,
      "▁outcome": 119,
      "▁papers": 120,
      "▁management": 121,
      "▁coinc": 122,
      "▁cradle": 123,
      "▁mistakes": 124,
      "##atme": 125,
      "##un": 126,
      "▁conduct": 127,
      "▁...................": 128,
      "##ioned": 129,
      "▁indic": 130,
      "▁ever": 131,
      "##oice": 132,
      "##arr": 133,
      "##ished": 134,
      "▁distributed": 135,
      "▁dried": 136,
      "▁reserve": 137,
      "▁boy": 138,
      "▁sometimes": 139,
      "##se": 140,
      "▁partnership": 141,
      "▁info": 142,
      "##ead": 143,
      "▁forehead": 144,
      "▁nut": 145,
      "##inity": 146,
      "▁continent": 147,
      "▁outc": 148,
      "▁said": 149,
      "▁demon": 150,
      "##cing": 151,
      "▁inn": 152,
      "▁obtained": 153,
      "▁mat": 154,
      "▁inves": 155,
      "▁cfl": 156,
      "##estiv": 157,
      "▁oil": 158,
      "▁control": 159,
      "▁bec": 160,
      "▁tires": 161,
      "▁jobs": 162,
      "▁support": 163,
      "##jects": 164,
      "▁reality": 165,
      "▁enjoyed": 166,
      "##igrants": 167,
      "▁alleged": 168,
      "##ails": 169,
      "▁darkness": 170,
      "▁known": 171,
      "▁soldier": 172,
      "▁********************************": 173,
      "▁funds": 174,
      "▁pur": 175,
      "##±": 176,
      "##ke": 177,
      "▁tragedies": 178,
      "▁divid": 179,
      "##arians": 180,
      "##ality": 181,
      "##ider": 182,
      "▁prot": 183,
      "▁draw": 184,
      "##igr": 185,
      "▁lean": 186,
      "▁party": 187,
      "▁blood": 188,
      "▁abilities": 189,
      "▁wipe": 190,
      "▁equip": 191,
      "##formation": 192,
      "##lity": 193,
      "▁campaign": 194,
      "▁scan": 195,
      "▁ice": 196,
      "▁programs": 197,
      "▁phone": 198,
      "▁soft": 199,
      "▁updates": 200,
      "##ackers": 201,
      "▁server": 202,
      "##ad": 203,
      "”": 204,
      "##eak": 205,
      "▁bon": 206,
      "▁gent": 207,
      "##ual": 208,
      "##ards": 209,
      "▁starting": 210,
      "▁window": 211,
      "▁examination": 212,
      "▁song": 213,
      "##izing": 214,
      "##ill": 215,
      "▁scored": 216,
      "▁mm": 217,
      "##????????????????????????????????": 218,
      "▁rap": 219,
      "▁become": 220,
      "▁enh": 221,
      "▁devoted": 222,
      "▁developing": 223,
      "▁filed": 224,
      "▁fligh": 225,
      "▁autumn": 226,
      "▁sim": 227,
      "▁limitations": 228,
      "##hap": 229,
      "▁lion": 230,
      "▁wolves": 231,
      "▁airline": 232,
      "▁jury": 233,
      "##derstanding": 234,
      "▁associated": 235,
      "▁strength": 236,
      "▁rising": 237,
      "▁sources": 238,
      "▁painting": 239,
      "▁does": 240,
      "▁realised": 241,
      "▁analy": 242,
      "▁ask": 243,
      "▁schedule": 244,
      "▁lil": 245,
      "##ong": 246,
      "##fact": 247,
      "##arked": 248,
      "▁encouraged": 249,
      "▁globe": 250,
      "▁interpre": 251,
      "▁kiss": 252,
      "▁read": 253,
      "▁profession": 254,
      "▁quartile": 255,
      "▁myce": 256,
      "▁clothes": 257,
      "▁mood": 258,
      "▁proposals": 259,
      "##ito": 260,
      "▁bri": 261,
      "▁stic": 262,
      "▁-----": 263,
      "▁bulldozer": 264,
      "▁tracks": 265,
      "▁ob": 266,
      "##led": 267,
      "##tee": 268,
      "##-m": 269,
      "▁hospital": 270,
      "▁transp": 271,
      "▁wished": 272,
      "##iss": 273,
      "▁mud": 274,
      "▁baking": 275,
      "▁hun": 276,
      "##ti": 277,
      "▁alter": 278,
      "▁reached": 279,
      "##avi": 280,
      "##oth": 281,
      "▁received": 282,
      "▁sunlight": 283,
      "▁delta": 284,
      "##ato": 285,
      "▁dna": 286,
      "▁amounts": 287,
      "▁cycl": 288,
      "▁surrounded": 289,
      "##.pd": 290,
      "##uly": 291,
      "▁consumers": 292,
      "▁straps": 293,
      "▁implications": 294,
      "▁hous": 295,
      "▁rank": 296,
      "▁n": 297,
      "▁stopping": 298,
      "▁cap": 299,
      "▁facilitate": 300,
      "▁limb": 301,
      "▁'ll": 302,
      "▁dr": 303,
      "▁meth": 304,
      "▁call": 305,
      "▁crossed": 306,
      "##ploy": 307,
      "##l": 308,
      "▁[...]": 309,
      "▁using": 310,
      "##ican": 311,
      "▁beneath": 312,
      "##ored": 313,
      "##ld": 314,
      "##aps": 315,
      "##icult": 316,
      "##book": 317,
      "▁infr": 318,
      "▁farm": 319,
      "▁pulling": 320,
      "▁concerns": 321,
      "▁fruits": 322,
      "##hing": 323,
      "▁communic": 324,
      "▁beetle": 325,
      "▁introduce": 326,
      "▁credit": 327,
      "▁methods": 328,
      "▁gel": 329,
      "▁hopes": 330,
      "▁bot": 331,
      "▁points": 332,
      "▁lan": 333,
      "▁analysts": 334,
      "▁legos": 335,
      "##heet": 336,
      "▁americans": 337,
      "ς": 338,
      "▁scar": 339,
      "##ep": 340,
      "▁sav": 341,
      "▁lif": 342,
      "▁destiny": 343,
      "▁potato": 344,
      "▁tort": 345,
      "##ism": 346,
      "##ook": 347,
      "▁ill": 348,
      "##ancing": 349,
      "##tured": 350,
      "▁arguing": 351,
      "▁escaped": 352,
      "▁adults": 353,
      "##ave": 354,
      "##amp": 355,
      "▁animals": 356,
      "▁bird": 357,
      "▁conte": 358,
      "##time": 359,
      "▁agency": 360,
      "##enti": 361,
      "▁showing": 362,
      "▁pilot": 363,
      "▁tastes": 364,
      "▁excel": 365,
      "##oil": 366,
      "▁alternative": 367,
      "▁accum": 368,
      "▁ki": 369,
      "##other": 370,
      "▁charged": 371,
      "▁assigned": 372,
      "##²": 373,
      "##ger": 374,
      "▁l2": 375,
      "▁sandwiches": 376,
      "▁determ": 377,
      "##oli": 378,
      "##ace": 379,
      "##omm": 380,
      "▁overalls": 381,
      "##omic": 382,
      "▁tribe": 383,
      "▁plenty": 384,
      "▁unit": 385,
      "▁alt.": 386,
      "▁mess": 387,
      "##be": 388,
      "##roleum": 389,
      "##rou": 390,
      "▁milit": 391,
      "▁pret": 392,
      "▁comment": 393,
      "▁offici": 394,
      "▁youn": 395,
      "▁messages": 396,
      "▁chairs": 397,
      "▁resc": 398,
      "▁co": 399,
      "▁across": 400,
      "▁appe": 401,
      "▁demanding": 402,
      "##essment": 403,
      "##acked": 404,
      "▁constituency": 405,
      "▁ded": 406,
      "▁sle": 407,
      "▁twist": 408,
      "▁hosting": 409,
      "▁die": 410,
      "##rying": 411,
      "▁biting": 412,
      "▁yellow": 413,
      "##boy": 414,
      "##dered": 415,
      "▁ce": 416,
      "▁neighbor": 417,
      "▁thir": 418,
      "▁candidate": 419,
      "##ator": 420,
      "##red": 421,
      "▁chemicals": 422,
      "##ized": 423,
      "▁son": 424,
      "##ject": 425,
      "##e": 426,
      "▁parti": 427,
      "##urt": 428,
      "▁squirrel": 429,
      "##ing": 430,
      "##hus": 431,
      "▁project": 432,
      "▁exposure": 433,
      "▁staring": 434,
      "▁peanuts": 435,
      "▁schools": 436,
      "##aining": 437,
      "▁ey": 438,
      "##xce": 439,
      "##ε": 440,
      "▁dolph": 441,
      "▁here": 442,
      "##nowled": 443,
      "##outh": 444,
      "##ensity": 445,
      "▁any": 446,
      "▁fixed": 447,
      "##fe": 448,
      "##oup": 449,
      "▁bus": 450,
      "##lin": 451,
      "##ught": 452,
      "▁acquis": 453,
      "▁studio": 454,
      "▁boston": 455,
      "▁threw": 456,
      "▁wrong": 457,
      "▁minutes": 458,
      "▁wish": 459,
      "▁markets": 460,
      "▁transportation": 461,
      "##play": 462,
      "##....": 463,
      "##tc": 464,
      "▁scre": 465,
      "▁assumed": 466,
      "##icians": 467,
      "▁sword": 468,
      "##ive": 469,
      "##ilos": 470,
      "▁mir": 471,
      "▁las": 472,
      "▁dragon": 473,
      "▁vend": 474,
      "▁prof": 475,
      "▁contracts": 476,
      "##antly": 477,
      "▁median": 478,
      "▁‘’": 479,
      "▁initi": 480,
      "##____": 481,
      "▁formed": 482,
      "▁fr": 483,
      "▁simply": 484,
      "▁aim": 485,
      "▁master": 486,
      "▁load": 487,
      "▁dirt": 488,
      "▁grown": 489,
      "##ody": 490,
      "▁policeman": 491,
      "▁greetings": 492,
      "▁he": 493,
      "##at": 494,
      "▁governor": 495,
      "▁speech": 496,
      "##-w": 497,
      "▁loss": 498,
      "##ared": 499,
      "▁foreigners": 500,
      "▁spaces": 501,
      "▁roo": 502,
      "▁condition": 503,
      "▁candidates": 504,
      "##isions": 505,
      "▁goods": 506,
      "▁kitchen": 507,
      "▁captain": 508,
      "▁ach": 509,
      ".": 510,
      "▁sentence": 511,
      "▁political": 512,
      "▁satisf": 513,
      "▁breakf": 514,
      "▁oneself": 515,
      "z": 516,
      "▁sush": 517,
      "▁bu": 518,
      "▁legs": 519,
      "▁dest": 520,
      "▁orange": 521,
      "▁innov": 522,
      "▁seen": 523,
      "▁root": 524,
      "▁6": 525,
      "}": 526,
      "▁concern": 527,
      "##ourn": 528,
      "▁vic": 529,
      "##eep": 530,
      "▁mult": 531,
      "##eared": 532,
      "▁describes": 533,
      "▁giraffe": 534,
      "▁numbers": 535,
      "##ical": 536,
      "▁component": 537,
      "▁chest": 538,
      "▁floor": 539,
      "▁technologies": 540,
      "▁zoo": 541,
      "▁steak": 542,
      "##xim": 543,
      "##o": 544,
      "▁appropri": 545,
      "▁aimed": 546,
      "##m": 547,
      "##iry": 548,
      "▁instit": 549,
      "▁h": 550,
      "▁facing": 551,
      "##ci": 552,
      "▁losing": 553,
      "▁hors": 554,
      "##olding": 555,
      "▁accordance": 556,
      "##aff": 557,
      "▁bud": 558,
      "▁orient": 559,
      "▁popularity": 560,
      "▁dey": 561,
      "##=----": 562,
      "▁plot": 563,
      "##ove": 564,
      "▁browser": 565,
      "##apes": 566,
      "▁grain": 567,
      "▁pip": 568,
      "▁holes": 569,
      "▁been": 570,
      "▁ga": 571,
      "▁danger": 572,
      "▁wiggle": 573,
      "##-b": 574,
      "▁vacuum": 575,
      "▁ther": 576,
      "##ination": 577,
      "▁tug": 578,
      "##us": 579,
      "##port": 580,
      "▁today": 581,
      "##‘": 582,
      "▁lady": 583,
      "##lets": 584,
      "##ar": 585,
      "▁innovation": 586,
      "▁tra": 587,
      "▁dump": 588,
      "▁cloth": 589,
      "##eros": 590,
      "▁sector": 591,
      ",": 592,
      "▁shoo": 593,
      "##<": 594,
      "##onal": 595,
      "▁municip": 596,
      "▁course": 597,
      "▁scientist": 598,
      "▁stuff": 599,
      "▁watched": 600,
      "##ount": 601,
      "▁deal": 602,
      "##olve": 603,
      "▁alread": 604,
      "▁hundreds": 605,
      "▁recording": 606,
      "▁temperatures": 607,
      "▁cruise": 608,
      "▁explore": 609,
      "▁print": 610,
      "▁attorney": 611,
      "▁ens": 612,
      "▁picking": 613,
      "▁giving": 614,
      "▁often": 615,
      "##acamole": 616,
      "▁fears": 617,
      "▁side": 618,
      "▁band": 619,
      "▁attracted": 620,
      "▁health": 621,
      "▁magic": 622,
      "##tern": 623,
      "▁pill": 624,
      "▁balloons": 625,
      "##ulations": 626,
      "▁gang": 627,
      "▁proc": 628,
      "▁subscrib": 629,
      "▁enemy": 630,
      "▁la": 631,
      "▁mushroom": 632,
      "##err": 633,
      "▁already": 634,
      "##all": 635,
      "▁engine": 636,
      "▁colour": 637,
      "##ened": 638,
      "▁fund": 639,
      "##xt": 640,
      "▁coat": 641,
      "##ires": 642,
      "▁mo": 643,
      "##ecess": 644,
      "##ist": 645,
      "▁haircut": 646,
      "▁assoc": 647,
      "▁reflects": 648,
      "▁”": 649,
      "▁taxi": 650,
      "▁snake": 651,
      "##itled": 652,
      "▁fre": 653,
      "▁profile": 654,
      "▁fold": 655,
      "▁increase": 656,
      "▁cro": 657,
      "▁situations": 658,
      "▁doll": 659,
      "##oses": 660,
      "▁investig": 661,
      "▁concent": 662,
      "▁un": 663,
      "▁stret": 664,
      "##ys": 665,
      "▁helic": 666,
      "▁traveling": 667,
      "▁posted": 668,
      "▁dol": 669,
      "φ": 670,
      "▁tasks": 671,
      "▁submitted": 672,
      "▁holiday": 673,
      "▁sk": 674,
      "##2d-": 675,
      "▁dress": 676,
      "▁uses": 677,
      "▁juice": 678,
      "u": 679,
      "▁attitudes": 680,
      "##ang": 681,
      "▁econom": 682,
      "▁indicated": 683,
      "##bon": 684,
      "##ances": 685,
      "##ffic": 686,
      "▁restaur": 687,
      "▁orig": 688,
      "▁centuries": 689,
      "▁persp": 690,
      "▁element": 691,
      "▁comments": 692,
      "##ener": 693,
      "▁manuscri": 694,
      "▁marketing": 695,
      "▁posts": 696,
      "##tification": 697,
      "▁spacetime": 698,
      "▁temper": 699,
      "▁mystery": 700,
      "##zing": 701,
      "▁count": 702,
      "##;": 703,
      "▁muscles": 704,
      "▁ships": 705,
      "▁dep": 706,
      "▁conv": 707,
      "##iciency": 708,
      "▁chips": 709,
      "▁email": 710,
      "##uty": 711,
      "▁bub": 712,
      "▁potential": 713,
      "##ould": 714,
      "▁booked": 715,
      "▁neither": 716,
      "▁complaint": 717,
      "▁transf": 718,
      "▁vod": 719,
      "##cro": 720,
      "▁math": 721,
      "▁pati": 722,
      "▁track": 723,
      "▁atlan": 724,
      "▁epm": 725,
      "▁real": 726,
      "▁pattern": 727,
      "##bur": 728,
      "##ption": 729,
      "▁blanket": 730,
      "▁want": 731,
      "▁command": 732,
      "##ice": 733,
      "▁war": 734,
      "▁let": 735,
      "##ow": 736,
      "▁rock": 737,
      "▁artic": 738,
      "▁ur": 739,
      "▁silver": 740,
      "##cularly": 741,
      "&": 742,
      "##yth": 743,
      "##inks": 744,
      "▁worship": 745,
      "▁dying": 746,
      "▁relating": 747,
      "##sex": 748,
      "▁sub": 749,
      "▁collab": 750,
      "▁worked": 751,
      "▁conviction": 752,
      "▁machine": 753,
      "##iation": 754,
      "▁detail": 755,
      "▁dragged": 756,
      "▁apolog": 757,
      "##eign": 758,
      "▁freezer": 759,
      "##teries": 760,
      "##atives": 761,
      "▁collap": 762,
      "▁you": 763,
      "▁faculty": 764,
      "▁magazine": 765,
      "▁corners": 766,
      "▁resume": 767,
      "▁activities": 768,
      "▁licen": 769,
      "▁hr": 770,
      "▁priorities": 771,
      "##isters": 772,
      "▁=": 773,
      "##eted": 774,
      "▁remains": 775,
      "p": 776,
      "▁dri": 777,
      "▁after": 778,
      "▁world": 779,
      "##³": 780,
      "▁....................": 781,
      "▁rule": 782,
      "▁changed": 783,
      "▁creates": 784,
      "▁pajamas": 785,
      "▁cabb": 786,
      "##yed": 787,
      "##ple": 788,
      "▁star": 789,
      "##veland": 790,
      "▁units": 791,
      "▁product": 792,
      "##atic": 793,
      "▁presence": 794,
      "##okes": 795,
      "▁instance": 796,
      "##very": 797,
      "▁select": 798,
      "▁high": 799,
      "▁guerr": 800,
      "▁doc": 801,
      "▁prop": 802,
      "▁passing": 803,
      "▁equals": 804,
      "▁big": 805,
      "▁ribbon": 806,
      "▁marry": 807,
      "▁attempted": 808,
      "▁expect": 809,
      "▁advice": 810,
      "▁approach": 811,
      "##warded": 812,
      "▁found": 813,
      "##tiles": 814,
      "▁themselves": 815,
      "▁rates": 816,
      "▁islands": 817,
      "▁|": 818,
      "▁rom": 819,
      "▁ago": 820,
      "▁produc": 821,
      "▁involving": 822,
      "▁----------------------------------------------------------------------": 823,
      "▁clean": 824,
      "##dle": 825,
      "▁accord": 826,
      "▁click": 827,
      "▁chall": 828,
      "ł": 829,
      "##enience": 830,
      "▁water": 831,
      "##·": 832,
      "##ognition": 833,
      "▁advise": 834,
      "▁screen": 835,
      "▁shame": 836,
      "▁vide": 837,
      "▁accounts": 838,
      "▁discount": 839,
      "##ster": 840,
      "##zed": 841,
      "▁within": 842,
      "▁fi": 843,
      "▁distribution": 844,
      "▁artist": 845,
      "▁delivery": 846,
      "▁cla": 847,
      "▁denied": 848,
      "▁economists": 849,
      "##br": 850,
      "▁package": 851,
      "▁poo": 852,
      "##ifies": 853,
      "▁spring": 854,
      "▁km": 855,
      "▁perhap": 856,
      "▁spin": 857,
      "▁dose": 858,
      "▁sushi": 859,
      "▁mer": 860,
      "▁laughter": 861,
      "▁journ": 862,
      "##ivers": 863,
      "▁loc": 864,
      "##zation": 865,
      "##rigu": 866,
      "##nce": 867,
      "▁toile": 868,
      "▁assassination": 869,
      "ο": 870,
      "##ars": 871,
      "▁com": 872,
      "▁components": 873,
      "▁beds": 874,
      "##acles": 875,
      "▁south": 876,
      "▁brows": 877,
      "▁pas": 878,
      "▁til": 879,
      "▁chan": 880,
      "▁gone": 881,
      "▁countries": 882,
      "▁sti": 883,
      "▁sty": 884,
      "▁judgments": 885,
      "▁purple": 886,
      "▁continental": 887,
      "▁adm": 888,
      "▁whose": 889,
      "▁preferred": 890,
      "▁gym": 891,
      "▁=---": 892,
      "##itals": 893,
      "##&": 894,
      "▁receiving": 895,
      "ε": 896,
      "##anding": 897,
      "▁gri": 898,
      "▁tiger": 899,
      "▁glass": 900,
      "▁artworks": 901,
      "##œ": 902,
      "▁studies": 903,
      "▁minimum": 904,
      "▁literature": 905,
      "▁dance": 906,
      "##overs": 907,
      "▁legisl": 908,
      "▁planning": 909,
      "##ra": 910,
      "▁houses": 911,
      "▁neighbors": 912,
      "▁ready": 913,
      "▁vol": 914,
      "▁got": 915,
      "##ining": 916,
      "##oices": 917,
      "▁who's": 918,
      "▁registered": 919,
      "▁ev": 920,
      "▁waited": 921,
      "▁eng": 922,
      "##eer": 923,
      "##****": 924,
      "##wic": 925,
      "▁chief": 926,
      "##river": 927,
      "▁pro": 928,
      "##agraph": 929,
      "▁encourage": 930,
      "##let": 931,
      "▁request": 932,
      "▁quino": 933,
      "▁fa": 934,
      "##ius": 935,
      "##ree": 936,
      "▁woman": 937,
      "▁achie": 938,
      "##ce": 939,
      "▁tem": 940,
      "▁unf": 941,
      "##el": 942,
      "▁completed": 943,
      "▁aven": 944,
      "##here": 945,
      "##orted": 946,
      "▁medic": 947,
      "▁wondering": 948,
      "▁killed": 949,
      "▁blame": 950,
      "##acks": 951,
      "▁wines": 952,
      "##rif": 953,
      "▁failure": 954,
      "▁hoped": 955,
      "##lling": 956,
      "##mm": 957,
      "▁beauty": 958,
      "▁hang": 959,
      "##hibited": 960,
      "▁`": 961,
      "5": 962,
      "▁dancing": 963,
      "▁past": 964,
      "▁shar": 965,
      "▁lick": 966,
      "##dit": 967,
      "##uries": 968,
      "▁becoming": 969,
      "▁famili": 970,
      "▁flo": 971,
      "▁buses": 972,
      "▁phones": 973,
      "▁important": 974,
      "▁mold": 975,
      "▁ang": 976,
      "▁symbol": 977,
      "##ceed": 978,
      "▁wake": 979,
      "▁nat": 980,
      "##ocation": 981,
      "##tles": 982,
      "▁spec": 983,
      "##opath": 984,
      "▁staff": 985,
      "##ighter": 986,
      "▁bulb": 987,
      "##ises": 988,
      "▁refer": 989,
      "▁atmos": 990,
      "▁whatever": 991,
      "▁ceo": 992,
      "▁oatmeal": 993,
      "▁faced": 994,
      "##ging": 995,
      "▁doing": 996,
      "▁arms": 997,
      "▁lip": 998,
      "▁drawn": 999,
      "▁takes": 1000,
      "##pec": 1001,
      "▁hearings": 1002,
      "▁oct": 1003,
      "▁seed": 1004,
      "▁place": 1005,
      "▁violation": 1006,
      "▁phase": 1007,
      "##aster": 1008,
      "##ea": 1009,
      "##ressing": 1010,
      "▁arrange": 1011,
      "▁characteris": 1012,
      "##ives": 1013,
      "▁rein": 1014,
      "▁nume": 1015,
      "##bers": 1016,
      "▁television": 1017,
      "▁firm": 1018,
      "▁mig": 1019,
      "▁teeth": 1020,
      "▁wh": 1021,
      "▁afric": 1022,
      "▁spiders": 1023,
      "▁swee": 1024,
      "▁holds": 1025,
      "▁bric": 1026,
      "▁telephone": 1027,
      "▁jur": 1028,
      "▁welfare": 1029,
      "▁assemb": 1030,
      "▁cats": 1031,
      "##ny": 1032,
      "▁microscope": 1033,
      "▁shut": 1034,
      "▁discussion": 1035,
      "▁pockets": 1036,
      "##ident": 1037,
      "##icide": 1038,
      "▁models": 1039,
      "▁asking": 1040,
      "##--": 1041,
      "##cean": 1042,
      "▁containing": 1043,
      "▁cookies": 1044,
      "▁ca": 1045,
      "▁hide": 1046,
      "▁debated": 1047,
      "▁seeds": 1048,
      "▁purpos": 1049,
      "▁thre": 1050,
      "▁spirit": 1051,
      "▁pron": 1052,
      "##pts": 1053,
      "▁som": 1054,
      "▁vegetables": 1055,
      "▁agencies": 1056,
      "▁solution": 1057,
      "##ipping": 1058,
      "▁waiver": 1059,
      "##ios": 1060,
      "▁test": 1061,
      "▁under": 1062,
      "##ening": 1063,
      "▁workforce": 1064,
      "▁curr": 1065,
      "▁theat": 1066,
      "##ot": 1067,
      "▁implementing": 1068,
      "▁rob": 1069,
      "▁dinosaurs": 1070,
      "▁rental": 1071,
      "▁plate": 1072,
      "▁traders": 1073,
      "▁influenced": 1074,
      "▁windows": 1075,
      "▁clothing": 1076,
      "▁blew": 1077,
      "##dy": 1078,
      "##onents": 1079,
      "▁files": 1080,
      "▁tips": 1081,
      "%": 1082,
      "▁recognized": 1083,
      "▁female": 1084,
      "▁archit": 1085,
      "▁defin": 1086,
      "▁me": 1087,
      "▁id": 1088,
      "▁scene": 1089,
      "##iousness": 1090,
      "##ales": 1091,
      "##ro": 1092,
      "▁waters": 1093,
      "##raph": 1094,
      "▁meetings": 1095,
      "▁russ": 1096,
      "▁programme": 1097,
      "▁indianapolis": 1098,
      "▁particular": 1099,
      "▁reported": 1100,
      "▁stop": 1101,
      "▁missed": 1102,
      "▁profit": 1103,
      "▁suggest": 1104,
      "##stem": 1105,
      "##iel": 1106,
      "▁uhhuh": 1107,
      "▁expression": 1108,
      "▁such": 1109,
      "▁sweater": 1110,
      "▁lives": 1111,
      "▁behavi": 1112,
      "▁mother": 1113,
      "▁pretending": 1114,
      "▁itself": 1115,
      "▁still": 1116,
      "▁bear": 1117,
      "▁var": 1118,
      "##ife": 1119,
      "▁intervention": 1120,
      "##ateg": 1121,
      "▁concepts": 1122,
      "▁alt": 1123,
      "▁yourself": 1124,
      "##oop": 1125,
      "▁parliament": 1126,
      "▁fash": 1127,
      "##aging": 1128,
      "▁compete": 1129,
      "▁bubbles": 1130,
      "##rog": 1131,
      "▁besides": 1132,
      "▁scenes": 1133,
      "▁vote": 1134,
      "▁shopping": 1135,
      "▁meeting": 1136,
      "▁suicide": 1137,
      "##ey": 1138,
      "▁charl": 1139,
      "▁coordination": 1140,
      "▁eval": 1141,
      "##uation": 1142,
      "▁lots": 1143,
      "▁from": 1144,
      "▁jews": 1145,
      "▁words": 1146,
      "▁seat": 1147,
      "▁remembered": 1148,
      "▁bill": 1149,
      "▁fir": 1150,
      "##til": 1151,
      "▁thanks": 1152,
      "##erts": 1153,
      "▁bits": 1154,
      "▁coup": 1155,
      "▁assessing": 1156,
      "▁taxes": 1157,
      "▁hoof": 1158,
      "▁bean": 1159,
      "▁leash": 1160,
      "▁photograph": 1161,
      "##-s": 1162,
      "##ions": 1163,
      "▁provide": 1164,
      "▁burn": 1165,
      "▁democracy": 1166,
      "##vail": 1167,
      "▁votes": 1168,
      "▁burden": 1169,
      "▁pa": 1170,
      "##rem": 1171,
      "▁contained": 1172,
      "▁feel": 1173,
      "▁feet": 1174,
      "▁generation": 1175,
      "▁sy": 1176,
      "▁barrel": 1177,
      "▁assault": 1178,
      "▁bil": 1179,
      "▁grapes": 1180,
      "▁cooking": 1181,
      "▁location": 1182,
      "▁junk": 1183,
      "▁trunk": 1184,
      "##ocr": 1185,
      "▁fur": 1186,
      "##eas": 1187,
      "##itional": 1188,
      "▁dism": 1189,
      "##erc": 1190,
      "▁enthusi": 1191,
      "##otch": 1192,
      "▁therefore": 1193,
      "▁mod": 1194,
      "##ober": 1195,
      "##ied": 1196,
      "▁pittsburgh": 1197,
      "##zer": 1198,
      "▁angel": 1199,
      "##ned": 1200,
      "▁get": 1201,
      "ʒ": 1202,
      "▁hole": 1203,
      "▁‘": 1204,
      "▁pocketbook": 1205,
      "##dly": 1206,
      "▁store": 1207,
      "▁fung": 1208,
      "##unct": 1209,
      "▁shade": 1210,
      "##x": 1211,
      "▁flavor": 1212,
      "▁method": 1213,
      "##ww": 1214,
      "▁dogs": 1215,
      "##ida": 1216,
      "▁categories": 1217,
      "▁circ": 1218,
      "▁cream": 1219,
      "▁pir": 1220,
      "▁s": 1221,
      "▁pay": 1222,
      "##sm": 1223,
      "▁dry": 1224,
      "##ril": 1225,
      "▁flew": 1226,
      "▁search": 1227,
      "▁sake": 1228,
      "##ct": 1229,
      "##tain": 1230,
      "▁washing": 1231,
      "##asis": 1232,
      "##ich": 1233,
      "ω": 1234,
      "▁assass": 1235,
      "##........": 1236,
      "▁released": 1237,
      "##iating": 1238,
      "##ummy": 1239,
      "▁fries": 1240,
      "##clo": 1241,
      "▁connected": 1242,
      "##ers": 1243,
      "▁harmonisation": 1244,
      "▁weapon": 1245,
      "##ə": 1246,
      "▁habit": 1247,
      "▁nation": 1248,
      "▁jul": 1249,
      "▁partner": 1250,
      "▁cabinet": 1251,
      "▁dem": 1252,
      "▁endeav": 1253,
      "##ously": 1254,
      "▁jud": 1255,
      "▁20": 1256,
      "▁persu": 1257,
      "▁generations": 1258,
      "▁card": 1259,
      "▁discus": 1260,
      "▁contributed": 1261,
      "▁explan": 1262,
      "▁ro": 1263,
      "▁relation": 1264,
      "▁tech": 1265,
      "▁minus": 1266,
      "▁inclu": 1267,
      "##mon": 1268,
      "▁emerging": 1269,
      "▁narr": 1270,
      "##tis": 1271,
      "▁understood": 1272,
      "▁ladies": 1273,
      "##quarters": 1274,
      "▁bearing": 1275,
      "▁paths": 1276,
      "▁sheep": 1277,
      "▁wel": 1278,
      "##lium": 1279,
      "▁pros": 1280,
      "▁talking": 1281,
      "##uh": 1282,
      "▁remain": 1283,
      "▁makes": 1284,
      "▁declined": 1285,
      "▁declared": 1286,
      "##ieties": 1287,
      "1": 1288,
      "##ck": 1289,
      "▁isl": 1290,
      "▁walls": 1291,
      "▁trading": 1292,
      "##uts": 1293,
      "▁statute": 1294,
      "##ince": 1295,
      "##ng": 1296,
      "▁launch": 1297,
      "▁regar": 1298,
      "##af": 1299,
      "▁appearance": 1300,
      "▁hav": 1301,
      "▁forth": 1302,
      "▁tutor": 1303,
      "▁ability": 1304,
      "▁uncle": 1305,
      "▁collected": 1306,
      "##aph": 1307,
      "##ry": 1308,
      "▁difficulty": 1309,
      "▁nail": 1310,
      "▁speaking": 1311,
      "▁summer": 1312,
      "▁apartment": 1313,
      "▁beaches": 1314,
      "▁carried": 1315,
      "▁grew": 1316,
      "▁instructor": 1317,
      "##utions": 1318,
      "##orrow": 1319,
      "##ton": 1320,
      "##aking": 1321,
      "▁ten": 1322,
      "▁periods": 1323,
      "▁capt": 1324,
      "▁chem": 1325,
      "##ators": 1326,
      "▁confid": 1327,
      "▁propos": 1328,
      "▁swe": 1329,
      "▁administrator": 1330,
      "▁disease": 1331,
      "▁checked": 1332,
      "▁ants": 1333,
      "▁bedroom": 1334,
      "▁gram": 1335,
      "▁functions": 1336,
      "▁hos": 1337,
      "▁cor": 1338,
      "▁see": 1339,
      "▁neighborhood": 1340,
      "##ression": 1341,
      "▁ben": 1342,
      "▁joh": 1343,
      "##rely": 1344,
      "▁visa": 1345,
      "▁pover": 1346,
      "▁prosec": 1347,
      "▁ai": 1348,
      "▁container": 1349,
      "▁lands": 1350,
      "▁pri": 1351,
      "▁trends": 1352,
      "▁option": 1353,
      "▁response": 1354,
      "##xts": 1355,
      "▁located": 1356,
      "▁publication": 1357,
      "##osed": 1358,
      "▁pumpkin": 1359,
      "▁innovations": 1360,
      "▁bom": 1361,
      "▁congratulations": 1362,
      "##s.": 1363,
      "▁congratulate": 1364,
      "▁loves": 1365,
      "▁immigration": 1366,
      "##ceived": 1367,
      "▁teaching": 1368,
      "▁dad": 1369,
      "▁ide": 1370,
      "▁spent": 1371,
      "▁preven": 1372,
      "▁public": 1373,
      "▁possibilities": 1374,
      "▁focus": 1375,
      "▁mice": 1376,
      "▁underneath": 1377,
      "▁associate": 1378,
      "▁eff": 1379,
      "▁reasons": 1380,
      "▁hed": 1381,
      "▁seek": 1382,
      "e": 1383,
      "▁towns": 1384,
      "▁luck": 1385,
      "##inoc": 1386,
      "▁minds": 1387,
      "##nies": 1388,
      "▁disl": 1389,
      "##ods": 1390,
      "▁campus": 1391,
      "▁dining": 1392,
      "##ib": 1393,
      "▁trouble": 1394,
      "▁exce": 1395,
      "▁section": 1396,
      "▁secretary": 1397,
      "▁operate": 1398,
      "▁frag": 1399,
      "▁temperature": 1400,
      "▁prin": 1401,
      "▁shipped": 1402,
      "▁revised": 1403,
      "##her": 1404,
      "▁properties": 1405,
      "▁government": 1406,
      "▁military": 1407,
      "▁adv": 1408,
      "▁corp": 1409,
      "▁while": 1410,
      "##ybody": 1411,
      "▁her": 1412,
      "▁citizen": 1413,
      "##iron": 1414,
      "##unc": 1415,
      "­": 1416,
      "▁syrup": 1417,
      "▁ones": 1418,
      "##lines": 1419,
      "▁diseas": 1420,
      "▁ship": 1421,
      "▁approval": 1422,
      "▁concl": 1423,
      "▁prevail": 1424,
      "##stit": 1425,
      "▁themes": 1426,
      "▁...............": 1427,
      "▁care": 1428,
      "##waukee": 1429,
      "▁hit": 1430,
      "▁cases": 1431,
      "##lit": 1432,
      "▁pride": 1433,
      "##arity": 1434,
      "▁wee": 1435,
      "##+": 1436,
      "▁bike": 1437,
      "▁camera": 1438,
      "▁cereal": 1439,
      "▁insp": 1440,
      "▁organ": 1441,
      "##ady": 1442,
      "▁resear": 1443,
      "▁sauce": 1444,
      "▁conn": 1445,
      "ɔ": 1446,
      "▁possibility": 1447,
      "▁n't": 1448,
      "▁banks": 1449,
      "▁lessons": 1450,
      "▁item": 1451,
      "##ont": 1452,
      "+": 1453,
      "▁combination": 1454,
      "▁argued": 1455,
      "▁repres": 1456,
      "##ctive": 1457,
      "▁magn": 1458,
      "▁chec": 1459,
      "▁conserv": 1460,
      "▁sus": 1461,
      "##%": 1462,
      "▁sup": 1463,
      "▁laugh": 1464,
      "▁subject": 1465,
      "▁estim": 1466,
      "▁fighting": 1467,
      "▁ge": 1468,
      "▁colleag": 1469,
      "▁killing": 1470,
      "▁trave": 1471,
      "##isl": 1472,
      "▁designer": 1473,
      "##ertain": 1474,
      "▁oper": 1475,
      "▁em": 1476,
      "▁insight": 1477,
      "##!!!!": 1478,
      "##ff": 1479,
      "▁recipe": 1480,
      "▁groups": 1481,
      "▁**********": 1482,
      "##itt": 1483,
      "▁shel": 1484,
      "x": 1485,
      "▁friend": 1486,
      "##ker": 1487,
      "▁thinking": 1488,
      "▁opposition": 1489,
      "▁student": 1490,
      "##cl": 1491,
      "▁living": 1492,
      "▁topic": 1493,
      "▁recorder": 1494,
      "##fully": 1495,
      "##ately": 1496,
      "▁those": 1497,
      "▁exploration": 1498,
      "##atch": 1499,
      "▁suggesting": 1500,
      "##itate": 1501,
      "▁sett": 1502,
      "##kes": 1503,
      "▁rac": 1504,
      "▁monit": 1505,
      "▁suppl": 1506,
      "▁adapted": 1507,
      "▁principles": 1508,
      "▁frequ": 1509,
      "##asa": 1510,
      "▁**": 1511,
      "▁bell": 1512,
      "##mp": 1513,
      "##oodle": 1514,
      "▁states": 1515,
      "##ass": 1516,
      "▁limous": 1517,
      "▁motiv": 1518,
      "▁mummy": 1519,
      "▁longer": 1520,
      "▁oak": 1521,
      "▁therap": 1522,
      "▁knoc": 1523,
      "j": 1524,
      "▁risk": 1525,
      "▁ac": 1526,
      "##'s": 1527,
      "▁colors": 1528,
      "▁perio": 1529,
      "▁princip": 1530,
      "▁prepared": 1531,
      "▁lighting": 1532,
      "##eys": 1533,
      "##ize": 1534,
      "▁pounds": 1535,
      "▁foods": 1536,
      "##ec": 1537,
      "##tit": 1538,
      "▁working": 1539,
      "▁diseases": 1540,
      "▁judge": 1541,
      "##tick": 1542,
      "▁fac": 1543,
      "▁distric": 1544,
      "▁bulld": 1545,
      "▁guarantee": 1546,
      "▁st": 1547,
      "▁operation": 1548,
      "##ym": 1549,
      "▁statistics": 1550,
      "▁contributions": 1551,
      "##ome": 1552,
      "▁ducks": 1553,
      "▁femur": 1554,
      "▁election": 1555,
      "▁counterparty": 1556,
      "##and": 1557,
      "▁trip": 1558,
      "##id": 1559,
      "▁testing": 1560,
      "▁kinds": 1561,
      "##ν": 1562,
      "▁fl": 1563,
      "▁chocolate": 1564,
      "##www": 1565,
      "▁player": 1566,
      "▁bags": 1567,
      "##erves": 1568,
      "▁claim": 1569,
      "▁init": 1570,
      "##icked": 1571,
      "▁treated": 1572,
      "##ward": 1573,
      "##4": 1574,
      "▁arch": 1575,
      "▁ep": 1576,
      "▁milwaukee": 1577,
      "▁material": 1578,
      "▁horses": 1579,
      "▁-----------------------------------------------------------------------": 1580,
      "▁till": 1581,
      "##ago": 1582,
      "▁lets": 1583,
      "▁recru": 1584,
      "▁better": 1585,
      "▁pref": 1586,
      "▁mathematics": 1587,
      "▁protection": 1588,
      "▁right": 1589,
      "##chie": 1590,
      "▁sh": 1591,
      "▁sust": 1592,
      "#": 1593,
      "##ansion": 1594,
      "▁hum": 1595,
      "##ashed": 1596,
      "▁peanut": 1597,
      "▁loved": 1598,
      "##ris": 1599,
      "▁stretch": 1600,
      "▁pages": 1601,
      "▁finding": 1602,
      "▁boom": 1603,
      "##ither": 1604,
      "##istan": 1605,
      "▁settle": 1606,
      "▁pennies": 1607,
      "▁deb": 1608,
      "▁promote": 1609,
      "▁leave": 1610,
      "▁fallen": 1611,
      "▁analyses": 1612,
      "▁comedy": 1613,
      "▁fire": 1614,
      "▁expectations": 1615,
      "▁scul": 1616,
      "▁trou": 1617,
      "▁phenomenon": 1618,
      "##i": 1619,
      "▁introducing": 1620,
      "▁fight": 1621,
      "▁mistake": 1622,
      "▁boot": 1623,
      "▁forb": 1624,
      "▁title": 1625,
      "▁shirts": 1626,
      "▁environment": 1627,
      "##aith": 1628,
      "▁resour": 1629,
      "▁bottle": 1630,
      "##plan": 1631,
      "▁tables": 1632,
      "▁exchang": 1633,
      "▁pipeline": 1634,
      "▁offer": 1635,
      "##v": 1636,
      "▁ballet": 1637,
      "▁birds": 1638,
      "##view": 1639,
      "▁lawyer": 1640,
      "▁drove": 1641,
      "▁condem": 1642,
      "▁'": 1643,
      "##aping": 1644,
      "▁edition": 1645,
      "##orting": 1646,
      "▁self": 1647,
      "▁destroy": 1648,
      "##unt": 1649,
      "##vailable": 1650,
      "▁astride": 1651,
      "##ase": 1652,
      "▁repl": 1653,
      "▁dust": 1654,
      "▁definitely": 1655,
      "▁black": 1656,
      "▁sol": 1657,
      "##ugged": 1658,
      "▁off": 1659,
      "##lie": 1660,
      "▁discussing": 1661,
      "▁ban": 1662,
      "##ines": 1663,
      "▁ag": 1664,
      "▁keeping": 1665,
      "▁midnight": 1666,
      "▁hours": 1667,
      "##cend": 1668,
      "##ograph": 1669,
      "▁sky": 1670,
      "▁dark": 1671,
      "▁target": 1672,
      "▁celebr": 1673,
      "▁need": 1674,
      "▁vi": 1675,
      "▁gained": 1676,
      "▁ambul": 1677,
      "▁other": 1678,
      "▁covered": 1679,
      "▁mixed": 1680,
      "▁phr": 1681,
      "▁blog": 1682,
      "▁cab": 1683,
      "▁imm": 1684,
      "▁scen": 1685,
      "▁requ": 1686,
      "▁reef": 1687,
      "▁fear": 1688,
      "▁pyram": 1689,
      "▁attemp": 1690,
      "▁connecting": 1691,
      "▁too": 1692,
      "▁instructions": 1693,
      "##fare": 1694,
      "▁spos": 1695,
      "▁buildings": 1696,
      "##ight": 1697,
      "▁americ": 1698,
      "▁decline": 1699,
      "##ings": 1700,
      "▁texts": 1701,
      "▁rain": 1702,
      "##fl": 1703,
      "##0's": 1704,
      "▁statement": 1705,
      "▁string": 1706,
      "##worms": 1707,
      "▁swa": 1708,
      "▁programmes": 1709,
      "▁smoke": 1710,
      "##ev": 1711,
      "▁gd": 1712,
      "▁hate": 1713,
      "▁wizard": 1714,
      "▁negotiations": 1715,
      "▁~": 1716,
      "▁case": 1717,
      "▁alliance": 1718,
      "##erm": 1719,
      "▁round": 1720,
      "▁language": 1721,
      "▁products": 1722,
      "▁unity": 1723,
      "▁super": 1724,
      "▁patience": 1725,
      "##icate": 1726,
      "##ets": 1727,
      "▁european": 1728,
      "▁gold": 1729,
      "▁total": 1730,
      "▁fares": 1731,
      "▁tip": 1732,
      "▁invest": 1733,
      "▁tun": 1734,
      "▁dollar": 1735,
      "▁then": 1736,
      "##cc": 1737,
      "▁assistance": 1738,
      "▁played": 1739,
      "▁passed": 1740,
      "##ob": 1741,
      "▁investigate": 1742,
      "▁shared": 1743,
      "##eeze": 1744,
      "##ots": 1745,
      "▁foot": 1746,
      "▁jam": 1747,
      "##ority": 1748,
      "▁drag": 1749,
      "##otted": 1750,
      "##entiality": 1751,
      "▁backs": 1752,
      "##acing": 1753,
      "▁pool": 1754,
      "▁pizza": 1755,
      "▁tor": 1756,
      "▁acquired": 1757,
      "?": 1758,
      "▁emergency": 1759,
      "▁qui": 1760,
      "▁written": 1761,
      "▁burst": 1762,
      "▁wearing": 1763,
      "##ologists": 1764,
      "▁american": 1765,
      "▁i": 1766,
      "▁establishing": 1767,
      "▁theater": 1768,
      "▁lear": 1769,
      "##ief": 1770,
      "▁variety": 1771,
      "▁agreements": 1772,
      "##uge": 1773,
      "▁compos": 1774,
      "▁enem": 1775,
      "_": 1776,
      "▁cock": 1777,
      "▁dish": 1778,
      "▁flat": 1779,
      "▁rope": 1780,
      "▁young": 1781,
      "▁boo": 1782,
      "▁cand": 1783,
      "▁smiling": 1784,
      "##ude": 1785,
      "▁lifted": 1786,
      "▁session": 1787,
      "▁tam": 1788,
      "##ig": 1789,
      "▁conditions": 1790,
      "##acket": 1791,
      "##pol": 1792,
      "▁hund": 1793,
      "▁frozen": 1794,
      "▁every": 1795,
      "▁virus": 1796,
      "##enda": 1797,
      "##aurs": 1798,
      "▁whether": 1799,
      "▁abs": 1800,
      "▁essence": 1801,
      "▁cry": 1802,
      "##itical": 1803,
      "▁gro": 1804,
      "▁conference": 1805,
      "##irl": 1806,
      "▁since": 1807,
      "##iam": 1808,
      "▁inte": 1809,
      "▁adult": 1810,
      "▁weekend": 1811,
      "▁ladder": 1812,
      "##ology": 1813,
      "▁positions": 1814,
      "▁extension": 1815,
      "▁week": 1816,
      "▁detective": 1817,
      "▁attributed": 1818,
      "##ront": 1819,
      "ι": 1820,
      "▁destination": 1821,
      "\"": 1822,
      "▁rabb": 1823,
      "▁restriction": 1824,
      "##rote": 1825,
      "▁references": 1826,
      "▁facil": 1827,
      "▁ham": 1828,
      "##ounce": 1829,
      "##head": 1830,
      "▁point": 1831,
      "▁m": 1832,
      "##keys": 1833,
      "▁boil": 1834,
      "▁actors": 1835,
      "##riendly": 1836,
      "▁drug": 1837,
      "▁wednesday": 1838,
      "▁organizations": 1839,
      "##cause": 1840,
      "▁nonstop": 1841,
      "▁administration": 1842,
      "▁ignored": 1843,
      "▁tasted": 1844,
      "##he": 1845,
      "▁legislature": 1846,
      "▁show": 1847,
      "▁recipient": 1848,
      "ɑ": 1849,
      "##essing": 1850,
      "▁thought": 1851,
      "▁sheet": 1852,
      "##alf": 1853,
      "▁appreciated": 1854,
      "▁ve": 1855,
      "▁financ": 1856,
      "##nets": 1857,
      "▁power": 1858,
      "##????????": 1859,
      "▁mode": 1860,
      "▁soda": 1861,
      "##ycle": 1862,
      "▁kicked": 1863,
      "▁laughing": 1864,
      "▁fee": 1865,
      "▁mouse": 1866,
      "▁******************************************************************": 1867,
      "##do": 1868,
      "##ays": 1869,
      "▁harm": 1870,
      "▁belly": 1871,
      "##ew": 1872,
      "▁depends": 1873,
      "▁pupp": 1874,
      "▁assuming": 1875,
      "▁payments": 1876,
      "##or": 1877,
      "▁clay": 1878,
      "##arters": 1879,
      "▁argue": 1880,
      "##tled": 1881,
      "▁ears": 1882,
      "▁stranger": 1883,
      "▁palace": 1884,
      "▁crush": 1885,
      "##rap": 1886,
      "▁stood": 1887,
      "▁memory": 1888,
      "▁soli": 1889,
      "##enc": 1890,
      "##jec": 1891,
      "▁supermarket": 1892,
      "▁audio": 1893,
      "##tices": 1894,
      "##ale": 1895,
      "▁’re": 1896,
      "##oke": 1897,
      "##la": 1898,
      "▁book": 1899,
      "##inal": 1900,
      "▁ver": 1901,
      "##acting": 1902,
      "##93": 1903,
      "##°": 1904,
      "▁skip": 1905,
      "##80s": 1906,
      "▁ordered": 1907,
      "##ute": 1908,
      "##iring": 1909,
      "@": 1910,
      "▁sac": 1911,
      "▁necess": 1912,
      "▁territory": 1913,
      "▁voices": 1914,
      "##oration": 1915,
      "▁requi": 1916,
      "##orated": 1917,
      "▁dom": 1918,
      "▁bod": 1919,
      "▁stores": 1920,
      "▁slide": 1921,
      "▁membership": 1922,
      "▁sail": 1923,
      "▁children": 1924,
      "▁sp": 1925,
      "▁considering": 1926,
      "▁switch": 1927,
      "▁experts": 1928,
      "ʁ": 1929,
      "▁recog": 1930,
      "▁urs": 1931,
      "▁dere": 1932,
      "##oods": 1933,
      "▁dead": 1934,
      "▁dign": 1935,
      "▁composition": 1936,
      "▁tickle": 1937,
      "▁grow": 1938,
      "▁bought": 1939,
      "▁him": 1940,
      "##icing": 1941,
      "▁harry": 1942,
      "▁doubts": 1943,
      "▁month": 1944,
      "##ability": 1945,
      "▁clo": 1946,
      "##********": 1947,
      "▁.....": 1948,
      "##esday": 1949,
      "▁applied": 1950,
      "▁refl": 1951,
      "▁least": 1952,
      "▁greet": 1953,
      "▁pin": 1954,
      "▁verif": 1955,
      "▁dates": 1956,
      "▁reserves": 1957,
      "▁main": 1958,
      "n": 1959,
      "##py": 1960,
      "##ention": 1961,
      "▁ped": 1962,
      "##osite": 1963,
      "▁!!!": 1964,
      "##esh": 1965,
      "▁conducted": 1966,
      "▁none": 1967,
      "▁ele": 1968,
      "▁hidden": 1969,
      "▁iss": 1970,
      "##forming": 1971,
      "##struc": 1972,
      "▁interpreted": 1973,
      "##idence": 1974,
      "▁traged": 1975,
      "▁begun": 1976,
      "▁lantern": 1977,
      "▁mirror": 1978,
      "##attle": 1979,
      "▁polaroids": 1980,
      "▁supply": 1981,
      "▁sometime": 1982,
      "▁gather": 1983,
      "▁was": 1984,
      "▁director": 1985,
      "▁fork": 1986,
      "▁maintained": 1987,
      "▁notebook": 1988,
      "▁cer": 1989,
      "▁play+": 1990,
      "##aled": 1991,
      "▁forget": 1992,
      "##umb": 1993,
      "▁meow": 1994,
      "▁societies": 1995,
      "▁moment": 1996,
      "▁application": 1997,
      "##ca": 1998,
      "▁'ve": 1999,
      "▁learning": 2000,
      "##ht": 2001,
      "▁pair": 2002,
      "▁cash": 2003,
      "##tile": 2004,
      "##yn": 2005,
      "##les": 2006,
      "▁turned": 2007,
      "▁starts": 2008,
      "▁uk": 2009,
      "▁pillow": 2010,
      "▁sept": 2011,
      "▁snack": 2012,
      "▁knife": 2013,
      "##s": 2014,
      "##ope": 2015,
      "▁quick": 2016,
      "▁foll": 2017,
      "▁heard": 2018,
      "▁poc": 2019,
      "▁u.": 2020,
      "▁maintenance": 2021,
      "##anger": 2022,
      "▁roof": 2023,
      "▁destroyed": 2024,
      "▁ticket": 2025,
      "▁moon": 2026,
      "##erve": 2027,
      "▁on": 2028,
      "▁]": 2029,
      "▁cars": 2030,
      "▁fulf": 2031,
      "▁contract": 2032,
      "##icking": 2033,
      "##t": 2034,
      "▁frame": 2035,
      "▁wrap": 2036,
      "▁possession": 2037,
      "##iac": 2038,
      "▁incom": 2039,
      "##ulating": 2040,
      "h": 2041,
      "▁fungi": 2042,
      "▁relationships": 2043,
      "▁by": 2044,
      "▁cross": 2045,
      "##roduction": 2046,
      "▁honey": 2047,
      "▁’ve": 2048,
      "▁mis": 2049,
      "▁whom": 2050,
      "##eng": 2051,
      "▁flood": 2052,
      "▁tv": 2053,
      "##unch": 2054,
      "▁millions": 2055,
      "▁conse": 2056,
      "▁define": 2057,
      "▁later": 2058,
      "▁bor": 2059,
      "▁syn": 2060,
      "##anc": 2061,
      "##round": 2062,
      "##idding": 2063,
      "▁port": 2064,
      "▁time": 2065,
      "##st": 2066,
      "▁traveler": 2067,
      "▁debate": 2068,
      "▁explanation": 2069,
      "▁pr": 2070,
      "▁nights": 2071,
      "▁america": 2072,
      "▁anth": 2073,
      "▁balance": 2074,
      "▁controls": 2075,
      "▁shop": 2076,
      "##nd": 2077,
      "▁recip": 2078,
      "▁restri": 2079,
      "▁ad": 2080,
      "##__": 2081,
      "▁staying": 2082,
      "▁depart": 2083,
      "▁parents": 2084,
      "##ici": 2085,
      "▁existence": 2086,
      "##lights": 2087,
      "▁surv": 2088,
      "▁tub": 2089,
      "▁pittsbur": 2090,
      "▁before": 2091,
      "▁mayonna": 2092,
      "▁joined": 2093,
      "##igning": 2094,
      "▁last": 2095,
      "▁resulting": 2096,
      "▁chosen": 2097,
      "##cp": 2098,
      "▁lettuce": 2099,
      "▁ski": 2100,
      "▁standing": 2101,
      "##ag": 2102,
      "##pe": 2103,
      "▁wear": 2104,
      "…": 2105,
      "##essed": 2106,
      "▁addressed": 2107,
      "▁period": 2108,
      "▁sear": 2109,
      "▁enjoying": 2110,
      "▁ear": 2111,
      "▁priv": 2112,
      "▁sod": 2113,
      "##ud": 2114,
      "▁poll": 2115,
      "▁mor": 2116,
      "##ino": 2117,
      "▁consideration": 2118,
      "▁geomet": 2119,
      "##itated": 2120,
      "▁committed": 2121,
      "##ering": 2122,
      "▁smelled": 2123,
      "##ids": 2124,
      "▁code": 2125,
      "##uil": 2126,
      "▁ap": 2127,
      "▁quinoa": 2128,
      "▁progress": 2129,
      "▁free": 2130,
      "##books": 2131,
      "▁ph": 2132,
      "▁club": 2133,
      "##yp": 2134,
      "▁sunsh": 2135,
      "▁dow": 2136,
      "▁toilet": 2137,
      "##light": 2138,
      "##eck": 2139,
      "▁experim": 2140,
      "##agon": 2141,
      "▁law": 2142,
      "▁sleep": 2143,
      "▁funeral": 2144,
      "▁attempting": 2145,
      "▁streng": 2146,
      "##lar": 2147,
      "▁arab": 2148,
      "▁divers": 2149,
      "##ake": 2150,
      "▁handled": 2151,
      "##istic": 2152,
      "##val": 2153,
      "##ball": 2154,
      "▁photo": 2155,
      "▁macaroni": 2156,
      "▁rights": 2157,
      "##ilities": 2158,
      "▁needed": 2159,
      "▁watching": 2160,
      "▁coupons": 2161,
      "▁accepted": 2162,
      "##emb": 2163,
      "▁vine": 2164,
      "▁drinking": 2165,
      "##earch": 2166,
      "▁sc": 2167,
      "##riend": 2168,
      "▁kn": 2169,
      "##zac": 2170,
      "▁incorporated": 2171,
      "▁candid": 2172,
      "▁hill": 2173,
      "▁ov": 2174,
      "▁eas": 2175,
      "–": 2176,
      "▁mornings": 2177,
      "▁yog": 2178,
      "▁strip": 2179,
      "▁avoiding": 2180,
      "▁bottles": 2181,
      "▁lesson": 2182,
      "▁sight": 2183,
      "##uting": 2184,
      "##eignty": 2185,
      "▁nose": 2186,
      "▁tail": 2187,
      "▁b/c": 2188,
      "##ault": 2189,
      "▁fields": 2190,
      "▁beard": 2191,
      "##iety": 2192,
      "▁tac": 2193,
      "##uff": 2194,
      "▁waiter": 2195,
      "▁corn": 2196,
      "##y": 2197,
      "▁regime": 2198,
      "▁addiction": 2199,
      "▁bag": 2200,
      "▁mater": 2201,
      "▁illust": 2202,
      "▁jew": 2203,
      "▁vessel": 2204,
      "▁breakfast": 2205,
      "##arg": 2206,
      "▁regions": 2207,
      "▁shift": 2208,
      "▁agree": 2209,
      "##gry": 2210,
      "▁in": 2211,
      "▁stayed": 2212,
      "▁sons": 2213,
      "##met": 2214,
      "##um": 2215,
      "▁j": 2216,
      "▁number": 2217,
      "▁wilt": 2218,
      "▁meas": 2219,
      "▁add": 2220,
      "▁belongs": 2221,
      "▁refrigerator": 2222,
      "▁returned": 2223,
      "▁hands": 2224,
      "##act": 2225,
      "▁order": 2226,
      "##idents": 2227,
      "▁documents": 2228,
      "▁break": 2229,
      "##pri": 2230,
      "▁toward": 2231,
      "▁lawy": 2232,
      "##|": 2233,
      "##ected": 2234,
      "▁attempts": 2235,
      "▁insects": 2236,
      "▁about": 2237,
      "▁’": 2238,
      "▁californ": 2239,
      "##are": 2240,
      "▁update": 2241,
      "▁ir": 2242,
      "##ases": 2243,
      "▁p": 2244,
      "▁pract": 2245,
      "▁engineering": 2246,
      "▁trav": 2247,
      "▁bound": 2248,
      "▁poor": 2249,
      "##ο": 2250,
      "▁tens": 2251,
      "##ded": 2252,
      "##ite": 2253,
      "▁veg": 2254,
      "▁cond": 2255,
      "##lig": 2256,
      "##ł": 2257,
      "##vil": 2258,
      "##not": 2259,
      "▁depend": 2260,
      "▁special": 2261,
      "▁guards": 2262,
      "▁---------------------------------": 2263,
      "▁trained": 2264,
      "▁nav": 2265,
      "▁dated": 2266,
      "▁atop": 2267,
      "##ather": 2268,
      "▁united": 2269,
      "▁http://www": 2270,
      "▁swimming": 2271,
      "##oxide": 2272,
      "##oor": 2273,
      "##ium": 2274,
      "▁computers": 2275,
      "▁explain": 2276,
      "▁exception": 2277,
      "▁flex": 2278,
      "▁highl": 2279,
      "▁abandoned": 2280,
      "$": 2281,
      "##ips": 2282,
      "▁assured": 2283,
      "▁imagined": 2284,
      "##rectly": 2285,
      "##ι": 2286,
      "▁resistance": 2287,
      "##up": 2288,
      "##inning": 2289,
      "▁called": 2290,
      "▁chicken": 2291,
      "▁s’": 2292,
      "##ressed": 2293,
      "▁opportunity": 2294,
      "##ested": 2295,
      "▁standards": 2296,
      "##000": 2297,
      "▁ours": 2298,
      "▁prosp": 2299,
      "▁helping": 2300,
      "▁factory": 2301,
      "▁jellyfish": 2302,
      "▁paperwork": 2303,
      "##engers": 2304,
      "▁options": 2305,
      "▁females": 2306,
      "▁wants": 2307,
      "▁pig": 2308,
      "##duction": 2309,
      "▁readers": 2310,
      "▁av": 2311,
      "##pp": 2312,
      "▁wol": 2313,
      "▁o": 2314,
      "▁format": 2315,
      "▁disp": 2316,
      "▁face": 2317,
      "##nut": 2318,
      "▁knowing": 2319,
      "▁job": 2320,
      "##ic": 2321,
      "▁going": 2322,
      "##ven": 2323,
      "##ough": 2324,
      "##am": 2325,
      "##lan": 2326,
      "▁monarch": 2327,
      "▁brought": 2328,
      "▁continued": 2329,
      "▁premium": 2330,
      "▁oz": 2331,
      "▁recommendation": 2332,
      "▁wand": 2333,
      "▁anyone": 2334,
      "▁facilities": 2335,
      "▁reas": 2336,
      "▁average": 2337,
      "▁limited": 2338,
      "▁ab": 2339,
      "▁mov": 2340,
      "##ald": 2341,
      "##ision": 2342,
      "▁tongue": 2343,
      "▁kill": 2344,
      "▁everybody": 2345,
      "##ze": 2346,
      "##faction": 2347,
      "▁destruction": 2348,
      "▁candle": 2349,
      "▁treatments": 2350,
      "▁hire": 2351,
      "##-1": 2352,
      "▁export": 2353,
      "▁restaurant": 2354,
      "▁money": 2355,
      "▁jwww": 2356,
      "▁constitu": 2357,
      "▁rapporteur": 2358,
      "▁family": 2359,
      "▁sting": 2360,
      "##iz": 2361,
      "▁representative": 2362,
      "▁lat": 2363,
      "▁nature": 2364,
      "▁during": 2365,
      "▁tha": 2366,
      "▁tomatoes": 2367,
      "▁beginning": 2368,
      "▁champ": 2369,
      "▁oppose": 2370,
      "##--------": 2371,
      "▁stre": 2372,
      "▁sandwic": 2373,
      "▁rode": 2374,
      "▁apprec": 2375,
      "▁construc": 2376,
      "▁california": 2377,
      "▁cage": 2378,
      "▁receive": 2379,
      "##jected": 2380,
      "▁dam": 2381,
      "▁voted": 2382,
      "▁bunny": 2383,
      "▁april": 2384,
      "##ational": 2385,
      "▁balances": 2386,
      "▁funny": 2387,
      "##stop": 2388,
      "▁imp": 2389,
      "▁sure": 2390,
      "▁4": 2391,
      "▁ow": 2392,
      "▁audit": 2393,
      "▁welc": 2394,
      "▁scienti": 2395,
      "▁rapporte": 2396,
      "▁respons": 2397,
      "▁charlotte": 2398,
      "▁aff": 2399,
      "▁crimin": 2400,
      "▁notw": 2401,
      "▁reach": 2402,
      "▁award": 2403,
      "▁puzzle": 2404,
      "▁!!!!!!!!!!!!!!!": 2405,
      "▁acc": 2406,
      "▁brings": 2407,
      "▁hom": 2408,
      "▁motor": 2409,
      "▁hip": 2410,
      "▁image": 2411,
      "##areness": 2412,
      "##olog": 2413,
      "▁pointed": 2414,
      "▁congr": 2415,
      "▁locked": 2416,
      "▁choo": 2417,
      "|": 2418,
      "▁size": 2419,
      "▁minn": 2420,
      "▁london": 2421,
      "▁cr": 2422,
      "##eal": 2423,
      "▁upd": 2424,
      "##alist": 2425,
      "##uter": 2426,
      "▁arrive": 2427,
      "▁eleph": 2428,
      "▁bul": 2429,
      "▁army": 2430,
      "▁contin": 2431,
      "▁gover": 2432,
      "▁door": 2433,
      "▁tap": 2434,
      "▁expand": 2435,
      "##vely": 2436,
      "▁manual": 2437,
      "▁baby": 2438,
      "▁host": 2439,
      "▁grandma": 2440,
      "##9": 2441,
      "▁lie": 2442,
      "▁criticism": 2443,
      "▁teh": 2444,
      "▁cleveland": 2445,
      "##ney": 2446,
      "##eth": 2447,
      "▁travelling": 2448,
      "▁….": 2449,
      "##ased": 2450,
      "▁airport": 2451,
      "▁gradu": 2452,
      "##mit": 2453,
      "▁objec": 2454,
      "▁@": 2455,
      "▁threat": 2456,
      "▁nice": 2457,
      "b": 2458,
      "▁kissed": 2459,
      "##`": 2460,
      "##rors": 2461,
      "▁abo": 2462,
      "▁glow": 2463,
      "▁defeated": 2464,
      "▁figure": 2465,
      "▁reminder": 2466,
      "▁but": 2467,
      "##atched": 2468,
      "▁afternoon": 2469,
      "##enting": 2470,
      "▁as400": 2471,
      "▁gain": 2472,
      "▁handle": 2473,
      "▁proceed": 2474,
      "▁denver": 2475,
      "▁schema": 2476,
      "▁&amp;": 2477,
      "▁rats": 2478,
      "▁elev": 2479,
      "▁conver": 2480,
      "▁accomplish": 2481,
      "▁shower": 2482,
      "▁attached": 2483,
      "##eav": 2484,
      "▁intercon": 2485,
      "▁person": 2486,
      "▁mop": 2487,
      "##em": 2488,
      "▁inven": 2489,
      "##fter": 2490,
      "▁and": 2491,
      "##oss": 2492,
      "##ole": 2493,
      "▁stair": 2494,
      "##ine": 2495,
      "▁phot": 2496,
      "▁vice": 2497,
      "▁neg": 2498,
      "##aughters": 2499,
      "▁’ll": 2500,
      "▁feeling": 2501,
      "▁supports": 2502,
      "▁victims": 2503,
      "##so": 2504,
      "▁amended": 2505,
      "▁squeeze": 2506,
      "▁drinks": 2507,
      "▁terrorist": 2508,
      "▁weeks": 2509,
      "▁performances": 2510,
      "▁investment": 2511,
      "▁flies": 2512,
      "▁path": 2513,
      "##ada": 2514,
      "▁follows": 2515,
      "##apping": 2516,
      "##lion": 2517,
      "³": 2518,
      "▁sorry": 2519,
      "▁guard": 2520,
      "▁bowl": 2521,
      "▁pet": 2522,
      "▁described": 2523,
      "▁whe": 2524,
      "##ils": 2525,
      "▁episode": 2526,
      "▁buck": 2527,
      "▁leads": 2528,
      "▁dealer": 2529,
      "▁looks": 2530,
      "▁speed": 2531,
      "▁shake": 2532,
      "▁shirt": 2533,
      "▁trust": 2534,
      "▁inh": 2535,
      "▁numerous": 2536,
      "▁skin": 2537,
      "▁decre": 2538,
      "▁password": 2539,
      "##ounds": 2540,
      "▁profess": 2541,
      "##cer": 2542,
      "▁penc": 2543,
      "▁hotel": 2544,
      "##ection": 2545,
      "▁hur": 2546,
      "▁demonstrated": 2547,
      "▁friends": 2548,
      "▁displayed": 2549,
      "##ister": 2550,
      "##ological": 2551,
      "##ap": 2552,
      "▁pick": 2553,
      "▁warming": 2554,
      "▁ri": 2555,
      "▁edge": 2556,
      "▁racket": 2557,
      "▁relax": 2558,
      "##duc": 2559,
      "▁sm": 2560,
      "▁text": 2561,
      "▁elevator": 2562,
      "▁conduc": 2563,
      "▁poems": 2564,
      "##enom": 2565,
      "▁theatre": 2566,
      "▁despite": 2567,
      "▁electricity": 2568,
      "▁roar": 2569,
      "▁grill": 2570,
      "▁>>": 2571,
      "▁usually": 2572,
      "##wor": 2573,
      "▁suggestions": 2574,
      "▁’s": 2575,
      "##ills": 2576,
      "▁politics": 2577,
      "▁poetry": 2578,
      "▁interp": 2579,
      "▁estimated": 2580,
      "▁mr": 2581,
      "▁occ": 2582,
      "▁own": 2583,
      "##ert": 2584,
      "▁council": 2585,
      "▁nobody": 2586,
      "▁destro": 2587,
      "▁terror": 2588,
      "##ained": 2589,
      "▁vodka": 2590,
      "▁clin": 2591,
      "▁ann": 2592,
      "▁patient": 2593,
      "##gin": 2594,
      "##ipped": 2595,
      "▁recon": 2596,
      "▁recommendations": 2597,
      "▁cited": 2598,
      "##ush": 2599,
      "▁appreciation": 2600,
      "##ully": 2601,
      "▁farmer": 2602,
      "▁threatened": 2603,
      "▁stress": 2604,
      "▁museum": 2605,
      "▁values": 2606,
      "▁por": 2607,
      "▁procedure": 2608,
      "▁monitor": 2609,
      "##irts": 2610,
      "▁undert": 2611,
      "▁stomach": 2612,
      "▁include": 2613,
      "▁gath": 2614,
      "##!!": 2615,
      "▁cell": 2616,
      "▁toronto": 2617,
      "▁valu": 2618,
      "▁identifies": 2619,
      "▁marriage": 2620,
      "##eled": 2621,
      "##ort": 2622,
      "▁bye": 2623,
      "▁responses": 2624,
      "▁future": 2625,
      "##of": 2626,
      "▁major": 2627,
      "▁supper": 2628,
      "##antee": 2629,
      "▁pollution": 2630,
      "▁waves": 2631,
      "▁ket": 2632,
      "▁which": 2633,
      "▁neighb": 2634,
      "▁rin": 2635,
      "▁heart": 2636,
      "##mar": 2637,
      "▁rocks": 2638,
      "▁psychology": 2639,
      "▁productivity": 2640,
      "▁riding": 2641,
      "▁surp": 2642,
      "##pse": 2643,
      "##ous": 2644,
      "▁installing": 2645,
      "##orter": 2646,
      "##tes": 2647,
      "##.c": 2648,
      "▁sand": 2649,
      "▁grab": 2650,
      "▁_": 2651,
      "##asters": 2652,
      "▁told": 2653,
      "▁anticip": 2654,
      "##jo": 2655,
      "▁calling": 2656,
      "▁everyone": 2657,
      "▁plain": 2658,
      "▁peop": 2659,
      "▁iodised": 2660,
      "▁prayer": 2661,
      "▁always": 2662,
      "▁getting": 2663,
      "▁nt": 2664,
      "▁stone": 2665,
      "▁lacking": 2666,
      "▁sen": 2667,
      "▁flav": 2668,
      "▁strike": 2669,
      "▁squir": 2670,
      "▁im": 2671,
      "▁doughnut": 2672,
      "▁everything": 2673,
      "▁notch": 2674,
      "▁bun": 2675,
      "▁comes": 2676,
      "▁cha": 2677,
      "▁pled": 2678,
      "▁reve": 2679,
      "▁surrounding": 2680,
      "▁alt.animals": 2681,
      "▁inch": 2682,
      "▁!!!!!!!": 2683,
      "▁may": 2684,
      "▁thous": 2685,
      "▁growing": 2686,
      "▁teach": 2687,
      "▁fate": 2688,
      "▁scribb": 2689,
      "▁th": 2690,
      "▁pop": 2691,
      "▁boat": 2692,
      "▁talk": 2693,
      "##otyp": 2694,
      "▁our": 2695,
      "▁homeopath": 2696,
      "▁speci": 2697,
      "▁fer": 2698,
      "▁hor": 2699,
      "##---": 2700,
      "▁particip": 2701,
      "▁vs.": 2702,
      "▁solve": 2703,
      "▁reflection": 2704,
      "▁advertis": 2705,
      "▁than": 2706,
      "▁pull": 2707,
      "##iqu": 2708,
      "▁unc": 2709,
      "##like": 2710,
      "##uzz": 2711,
      "▁louis": 2712,
      "▁listening": 2713,
      "▁p.m.": 2714,
      "▁property": 2715,
      "▁uv": 2716,
      "▁dating": 2717,
      "##ange": 2718,
      "3": 2719,
      "▁connect": 2720,
      "▁accept": 2721,
      "▁becom": 2722,
      "▁end": 2723,
      "##ashing": 2724,
      "▁huge": 2725,
      "▁move": 2726,
      "▁passage": 2727,
      "▁ld2d-": 2728,
      "##ket": 2729,
      "##le": 2730,
      "▁parakeet": 2731,
      "▁---=": 2732,
      "##ure": 2733,
      "▁des": 2734,
      "##apolis": 2735,
      "▁married": 2736,
      "▁filtering": 2737,
      "##placement": 2738,
      "##akes": 2739,
      "▁....": 2740,
      "▁cig": 2741,
      "##uations": 2742,
      "`": 2743,
      "▁incen": 2744,
      "▁official": 2745,
      "▁tray": 2746,
      "##ians": 2747,
      "▁winds": 2748,
      "▁rece": 2749,
      "▁missile": 2750,
      "▁expert": 2751,
      "▁jump": 2752,
      "▁crap": 2753,
      "##atory": 2754,
      "▁passion": 2755,
      "▁entering": 2756,
      "##uments": 2757,
      "▁sin": 2758,
      "▁knows": 2759,
      "##chup": 2760,
      "▁bic": 2761,
      "##ager": 2762,
      "##ock": 2763,
      "##-1.doc": 2764,
      "▁occupation": 2765,
      "▁gun": 2766,
      "▁elephant": 2767,
      "##sually": 2768,
      "▁leg": 2769,
      "▁did": 2770,
      "▁default": 2771,
      "▁clar": 2772,
      "##ych": 2773,
      "##------": 2774,
      "▁artists": 2775,
      "▁sought": 2776,
      "▁mosques": 2777,
      "▁cray": 2778,
      "##otte": 2779,
      "▁pretend": 2780,
      "##pers": 2781,
      "##ined": 2782,
      "##angu": 2783,
      "▁cleaning": 2784,
      "▁monster": 2785,
      "##operation": 2786,
      "▁k": 2787,
      "▁friendly": 2788,
      "##ayed": 2789,
      "▁late": 2790,
      "▁acceptance": 2791,
      "##issors": 2792,
      "▁sou": 2793,
      "▁forwarded": 2794,
      "##ub": 2795,
      "##liance": 2796,
      "▁craw": 2797,
      "▁cust": 2798,
      "##onna": 2799,
      "##ched": 2800,
      "##70s": 2801,
      "▁surround": 2802,
      "▁says": 2803,
      "##onom": 2804,
      "▁helped": 2805,
      "▁festival": 2806,
      "##att": 2807,
      "▁congrat": 2808,
      "▁prec": 2809,
      "##ottable": 2810,
      "▁stand": 2811,
      "▁networks": 2812,
      "▁large": 2813,
      "▁minut": 2814,
      "▁offering": 2815,
      "▁der": 2816,
      "▁english": 2817,
      "▁cake": 2818,
      "▁leaves": 2819,
      "##isture": 2820,
      "▁decisions": 2821,
      "##liament": 2822,
      "##av": 2823,
      "▁envelop": 2824,
      "▁she": 2825,
      "▁procedures": 2826,
      "▁car": 2827,
      "▁checking": 2828,
      "▁prove": 2829,
      "▁opp": 2830,
      "▁observ": 2831,
      "▁spa": 2832,
      "▁selection": 2833,
      "▁montreal": 2834,
      "##rating": 2835,
      "▁contro": 2836,
      "▁suggests": 2837,
      "▁wrest": 2838,
      "▁spoon": 2839,
      "▁banjo": 2840,
      "##boat": 2841,
      "▁non-": 2842,
      "##uration": 2843,
      "▁happiness": 2844,
      "▁friday": 2845,
      "▁de": 2846,
      "##stances": 2847,
      "▁|--------+----------------------->": 2848,
      "▁exceed": 2849,
      "▁notwithstanding": 2850,
      "▁hi": 2851,
      "▁colle": 2852,
      "▁backed": 2853,
      "▁receipt": 2854,
      "##avery": 2855,
      "▁improvement": 2856,
      "▁circumstances": 2857,
      "▁que": 2858,
      "##room": 2859,
      "▁jelly": 2860,
      "▁served": 2861,
      "▁transformation": 2862,
      "##gan": 2863,
      "t": 2864,
      "##ribution": 2865,
      "##ached": 2866,
      "▁nap": 2867,
      "▁reference": 2868,
      "▁mids": 2869,
      "##gg": 2870,
      "▁placed": 2871,
      "▁rate": 2872,
      "▁penalty": 2873,
      "##ade": 2874,
      "▁targets": 2875,
      "▁charges": 2876,
      "▁giant": 2877,
      "▁resist": 2878,
      "##elt": 2879,
      "▁security": 2880,
      "▁siz": 2881,
      "▁certainly": 2882,
      "▁int": 2883,
      "▁system": 2884,
      "▁pit": 2885,
      "▁pen": 2886,
      "##lation": 2887,
      "▁hour": 2888,
      "▁bew": 2889,
      "▁even": 2890,
      "▁reduction": 2891,
      "▁fri": 2892,
      "##*": 2893,
      "▁smo": 2894,
      "##tors": 2895,
      "▁construction": 2896,
      "▁suspect": 2897,
      "▁video": 2898,
      "▁consciousness": 2899,
      "▁st.": 2900,
      "▁depar": 2901,
      "▁hold": 2902,
      "▁true": 2903,
      "▁key": 2904,
      "▁elephants": 2905,
      "▁playing": 2906,
      "▁cir": 2907,
      "##$": 2908,
      "▁kept": 2909,
      "▁u.s.": 2910,
      "▁doub": 2911,
      "▁folks": 2912,
      "##tions": 2913,
      "▁apple": 2914,
      "▁stopped": 2915,
      "▁charge": 2916,
      "▁bush": 2917,
      "##ect": 2918,
      "▁cos": 2919,
      "▁suffered": 2920,
      "▁spoke": 2921,
      "##ributed": 2922,
      "▁mind": 2923,
      "▁climate": 2924,
      "▁guest": 2925,
      "▁convention": 2926,
      "▁oppos": 2927,
      "▁mid": 2928,
      "▁consequ": 2929,
      "▁prev": 2930,
      "##eli": 2931,
      "▁attr": 2932,
      "▁fingers": 2933,
      "##alls": 2934,
      "▁article": 2935,
      "##orate": 2936,
      "▁fiction": 2937,
      "##board": 2938,
      "▁onto": 2939,
      "▁erase": 2940,
      "▁vendors": 2941,
      "▁chap": 2942,
      "▁channel": 2943,
      "▁poster": 2944,
      "▁desp": 2945,
      "##owers": 2946,
      "##ried": 2947,
      "▁identifying": 2948,
      "▁regulation": 2949,
      "##ime": 2950,
      "▁·": 2951,
      "##ho": 2952,
      "▁experien": 2953,
      "##gh": 2954,
      "▁coincidence": 2955,
      "▁obst": 2956,
      "▁8": 2957,
      "▁orders": 2958,
      "▁queries": 2959,
      "▁ven": 2960,
      "▁ought": 2961,
      "▁diaper": 2962,
      "▁reaching": 2963,
      "▁amid": 2964,
      "##ink": 2965,
      "▁bat": 2966,
      "▁sugg": 2967,
      "▁cod": 2968,
      "▁development": 2969,
      "##iting": 2970,
      "▁liked": 2971,
      "##men": 2972,
      "▁specify": 2973,
      "▁mul": 2974,
      "▁effects": 2975,
      "▁asked": 2976,
      "##ician": 2977,
      "d": 2978,
      "▁whis": 2979,
      "▁spell": 2980,
      "▁mus": 2981,
      "▁good": 2982,
      "▁counter": 2983,
      "##day": 2984,
      "▁-----------------------------------------------------------------": 2985,
      "▁tro": 2986,
      "▁scissors": 2987,
      "▁soil": 2988,
      "▁°": 2989,
      "▁writ": 2990,
      "##most": 2991,
      "▁nursies": 2992,
      "▁crop": 2993,
      "▁founder": 2994,
      "▁cerem": 2995,
      "▁cri": 2996,
      "▁considered": 2997,
      "▁pictures": 2998,
      "▁defense": 2999,
      "▁pipe": 3000,
      "▁changes": 3001,
      "▁canc": 3002,
      "▁wondered": 3003,
      "##ner": 3004,
      "▁napkin": 3005,
      "▁derived": 3006,
      "▁shark": 3007,
      "▁bent": 3008,
      "##uated": 3009,
      "##oder": 3010,
      "▁resolution": 3011,
      "▁stock": 3012,
      "##orti": 3013,
      "▁struck": 3014,
      "▁laura": 3015,
      "▁pud": 3016,
      "▁fits": 3017,
      "##out": 3018,
      "▁network": 3019,
      "▁amidst": 3020,
      "▁finds": 3021,
      "▁males": 3022,
      "▁tr": 3023,
      "##φ": 3024,
      "▁fever": 3025,
      "▁liquid": 3026,
      "##ghting": 3027,
      "▁sweep": 3028,
      "0": 3029,
      "▁e-mail": 3030,
      "°": 3031,
      "▁http://www.": 3032,
      "##ancers": 3033,
      "##σ": 3034,
      "##gl": 3035,
      "▁************************************************": 3036,
      "##erating": 3037,
      "##een": 3038,
      "▁we": 3039,
      "’": 3040,
      "▁momma": 3041,
      "▁receives": 3042,
      "▁sort": 3043,
      "▁blocks": 3044,
      "▁sat": 3045,
      "▁restrictions": 3046,
      "▁temples": 3047,
      "##ury": 3048,
      "##.pdf": 3049,
      "▁create": 3050,
      "▁shit": 3051,
      "##nuts": 3052,
      "##icular": 3053,
      "▁ou": 3054,
      "▁xml": 3055,
      "▁cele": 3056,
      "▁sell": 3057,
      "▁es": 3058,
      "##arl": 3059,
      "##tion": 3060,
      "▁fem": 3061,
      "##ug": 3062,
      "▁conversations": 3063,
      "▁ok": 3064,
      "▁bears": 3065,
      "▁principle": 3066,
      "##nec": 3067,
      "▁levels": 3068,
      "##ival": 3069,
      "▁internet": 3070,
      "##sel": 3071,
      "##sets": 3072,
      "▁feature": 3073,
      "▁eliminate": 3074,
      "▁miss": 3075,
      "##omach": 3076,
      "▁social": 3077,
      "▁features": 3078,
      "##ma": 3079,
      "▁benefits": 3080,
      "##ning": 3081,
      "##phere": 3082,
      "▁novelist": 3083,
      "▁governments": 3084,
      "▁associ": 3085,
      "##orage": 3086,
      "##iness": 3087,
      "▁debt": 3088,
      "▁conclu": 3089,
      "##tuce": 3090,
      "▁resulted": 3091,
      "▁hiking": 3092,
      "##reds": 3093,
      "▁novel": 3094,
      "▁liter": 3095,
      "▁caught": 3096,
      "▁fought": 3097,
      "▁go": 3098,
      "▁polaro": 3099,
      "▁'m": 3100,
      "▁discover": 3101,
      "##laimed": 3102,
      "▁violence": 3103,
      "▁list": 3104,
      "▁newspaper": 3105,
      "##ension": 3106,
      "▁cott": 3107,
      "▁carbon": 3108,
      "▁leader": 3109,
      "▁families": 3110,
      "l": 3111,
      "##inated": 3112,
      "##ustration": 3113,
      "▁win": 3114,
      "▁front": 3115,
      "▁pressure": 3116,
      "▁flower": 3117,
      "▁carries": 3118,
      "▁contribution": 3119,
      "▁india": 3120,
      "▁factor": 3121,
      "▁ident": 3122,
      "▁based": 3123,
      "▁adjust": 3124,
      "▁beef": 3125,
      "▁extended": 3126,
      "##ted": 3127,
      "##ares": 3128,
      "▁regist": 3129,
      "##ishing": 3130,
      "##lications": 3131,
      "▁poop": 3132,
      "▁struggle": 3133,
      "▁filled": 3134,
      "▁doggie": 3135,
      "##fting": 3136,
      "▁plays": 3137,
      "▁shorts": 3138,
      "▁hambur": 3139,
      "##ular": 3140,
      "▁gamb": 3141,
      "##itive": 3142,
      "▁cultures": 3143,
      "▁becomes": 3144,
      "▁meat": 3145,
      "▁claims": 3146,
      "▁colon": 3147,
      "▁----==": 3148,
      "▁snakes": 3149,
      "▁silk": 3150,
      "▁rolling": 3151,
      "▁reinfor": 3152,
      "▁factors": 3153,
      "▁structure": 3154,
      "▁muse": 3155,
      "##etro": 3156,
      "▁arrang": 3157,
      "▁landed": 3158,
      "▁cat": 3159,
      "▁toast": 3160,
      "▁ends": 3161,
      "▁fat": 3162,
      "▁crops": 3163,
      "▁alone": 3164,
      "▁brass": 3165,
      "▁emphas": 3166,
      "▁basil": 3167,
      "##oking": 3168,
      "▁evolving": 3169,
      "##aq": 3170,
      "▁petersburg": 3171,
      "▁walks": 3172,
      "▁took": 3173,
      "▁subs": 3174,
      "▁...": 3175,
      "##sed": 3176,
      "▁letters": 3177,
      "##oo": 3178,
      "##tivity": 3179,
      "##pen": 3180,
      "##ours": 3181,
      "▁bi": 3182,
      "▁resource": 3183,
      "▁reservation": 3184,
      "▁anthrax": 3185,
      "##isted": 3186,
      "▁appointed": 3187,
      "##uses": 3188,
      "##rated": 3189,
      "▁visited": 3190,
      "##ourse": 3191,
      "▁address": 3192,
      "▁done": 3193,
      "▁captured": 3194,
      "##ans": 3195,
      "▁wore": 3196,
      "▁figures": 3197,
      "▁opens": 3198,
      "##min": 3199,
      "##imed": 3200,
      "##asts": 3201,
      "▁hea": 3202,
      "▁scenar": 3203,
      "▁newark": 3204,
      "▁performed": 3205,
      "##ules": 3206,
      "▁guerrillas": 3207,
      "▁decade": 3208,
      "##isms": 3209,
      "##where": 3210,
      "▁li": 3211,
      "▁gcp": 3212,
      "▁report": 3213,
      "##burg": 3214,
      "##rest": 3215,
      "▁cried": 3216,
      "##back": 3217,
      "##ume": 3218,
      "▁court": 3219,
      "▁somebody": 3220,
      "▁goat": 3221,
      "▁january": 3222,
      "▁provisions": 3223,
      "▁origins": 3224,
      "▁cow": 3225,
      "▁monaster": 3226,
      "▁stro": 3227,
      "##ably": 3228,
      "▁si": 3229,
      "▁alle": 3230,
      "▁each": 3231,
      "##ror": 3232,
      "▁wor": 3233,
      "▁conflict": 3234,
      "▁euro": 3235,
      "▁attended": 3236,
      "▁lamb": 3237,
      "▁home": 3238,
      "▁poli": 3239,
      "▁fam": 3240,
      "▁realism": 3241,
      "##ab": 3242,
      "▁pushing": 3243,
      "##ugg": 3244,
      "▁promoting": 3245,
      "##ork": 3246,
      "##zations": 3247,
      "##inging": 3248,
      "##itement": 3249,
      "▁peters": 3250,
      "▁amb": 3251,
      "▁split": 3252,
      "▁writing": 3253,
      "▁jo": 3254,
      "▁shad": 3255,
      "▁complex": 3256,
      "▁turb": 3257,
      "▁flights": 3258,
      "▁death": 3259,
      "▁extend": 3260,
      "▁hamb": 3261,
      "##ellow": 3262,
      "▁impacts": 3263,
      "▁radiation": 3264,
      "▁bran": 3265,
      "▁asks": 3266,
      "▁skill": 3267,
      "▁cart": 3268,
      "▁surgery": 3269,
      "▁spending": 3270,
      "▁website": 3271,
      "[PAD]": 3272,
      "##oun": 3273,
      "▁hobby": 3274,
      "##cape": 3275,
      "##ign": 3276,
      "##able": 3277,
      "##tail": 3278,
      "▁crimes": 3279,
      "▁attack": 3280,
      "▁figured": 3281,
      "▁pilg": 3282,
      "##ually": 3283,
      "▁great": 3284,
      "▁long": 3285,
      "##self": 3286,
      "▁goals": 3287,
      "▁philadelphia": 3288,
      "▁exper": 3289,
      "▁genius": 3290,
      "##erence": 3291,
      "▁rum": 3292,
      "▁grape": 3293,
      "##roph": 3294,
      "▁'s": 3295,
      "##********************************": 3296,
      "▁opposed": 3297,
      "▁soul": 3298,
      "▁kil": 3299,
      "▁mosque": 3300,
      "##ick": 3301,
      "▁theory": 3302,
      "▁objectives": 3303,
      "##fication": 3304,
      "##lined": 3305,
      "##jection": 3306,
      "▁depending": 3307,
      "▁re": 3308,
      "▁cous": 3309,
      "▁attitude": 3310,
      "▁enjo": 3311,
      "▁december": 3312,
      "##ounts": 3313,
      "▁removed": 3314,
      "##eb": 3315,
      "▁privacy": 3316,
      "##rows": 3317,
      "##animals": 3318,
      "▁wig": 3319,
      "▁rent": 3320,
      "▁glove": 3321,
      "##ulf": 3322,
      "##nding": 3323,
      "▁dealing": 3324,
      "▁into": 3325,
      "▁l": 3326,
      "##makers": 3327,
      "##tity": 3328,
      "▁china": 3329,
      "##ounced": 3330,
      "▁technique": 3331,
      "▁most": 3332,
      "##enings": 3333,
      "▁church": 3334,
      "▁alt.animals.": 3335,
      "▁mech": 3336,
      "▁signs": 3337,
      "▁ate": 3338,
      "##ts": 3339,
      "▁surface": 3340,
      "▁customs": 3341,
      "▁cook": 3342,
      "##inder": 3343,
      "▁claimed": 3344,
      "▁confidence": 3345,
      "##alty": 3346,
      "▁shoulder": 3347,
      "##affle": 3348,
      "▁goose": 3349,
      "▁adoption": 3350,
      "##ina": 3351,
      "▁rules": 3352,
      "▁duckie": 3353,
      "▁flir": 3354,
      "▁paper": 3355,
      "▁dis": 3356,
      "▁them": 3357,
      "▁these": 3358,
      "▁v": 3359,
      "##ima": 3360,
      "##-": 3361,
      "##ract": 3362,
      "▁discuss": 3363,
      "▁philosophy": 3364,
      "▁falls": 3365,
      "▁pony": 3366,
      "▁acted": 3367,
      "▁ensure": 3368,
      "##ctions": 3369,
      "##llow": 3370,
      "##ization": 3371,
      "##io": 3372,
      "▁purchase": 3373,
      "▁http": 3374,
      "▁introduction": 3375,
      "▁pot": 3376,
      "▁ignore": 3377,
      "▁coach": 3378,
      "##tures": 3379,
      "▁cost": 3380,
      "▁suggestion": 3381,
      "##ided": 3382,
      "▁send": 3383,
      "▁realized": 3384,
      "▁faith": 3385,
      "##istence": 3386,
      "##di": 3387,
      "▁efficiency": 3388,
      "▁below": 3389,
      "▁beside": 3390,
      "▁rescue": 3391,
      "▁appear": 3392,
      "▁sit": 3393,
      "▁gum": 3394,
      "▁recruit": 3395,
      "▁july": 3396,
      "▁inst": 3397,
      "▁celeb": 3398,
      "▁knew": 3399,
      "##**********************************": 3400,
      "▁fle": 3401,
      "##ative": 3402,
      "▁officials": 3403,
      "▁return": 3404,
      "##ishment": 3405,
      "▁par": 3406,
      "▁guar": 3407,
      "▁piece": 3408,
      "▁yesterday": 3409,
      "▁concerning": 3410,
      "▁ingredients": 3411,
      "▁pow": 3412,
      "##p": 3413,
      "##fri": 3414,
      "▁stands": 3415,
      "##inds": 3416,
      "▁quite": 3417,
      "##uss": 3418,
      "▁office": 3419,
      "▁tons": 3420,
      "▁invented": 3421,
      "▁_______": 3422,
      "▁emer": 3423,
      "▁notes": 3424,
      "▁fab": 3425,
      "▁reads": 3426,
      "▁distingu": 3427,
      "▁?!": 3428,
      "▁import": 3429,
      "▁wing": 3430,
      "▁escape": 3431,
      "##idden": 3432,
      "▁interesting": 3433,
      "▁community": 3434,
      "##ird": 3435,
      "▁having": 3436,
      "##'t": 3437,
      "y": 3438,
      "▁probably": 3439,
      "▁eye": 3440,
      "▁compli": 3441,
      "▁lying": 3442,
      "▁financial": 3443,
      "▁ld": 3444,
      "##wa": 3445,
      "▁all": 3446,
      "▁story": 3447,
      "▁-----------------": 3448,
      "▁novels": 3449,
      "▁touched": 3450,
      "▁leaned": 3451,
      "▁environ": 3452,
      "##omination": 3453,
      "▁structures": 3454,
      "##eral": 3455,
      "##tingu": 3456,
      "##lect": 3457,
      "▁flooding": 3458,
      "##oir": 3459,
      "##orum": 3460,
      "▁income": 3461,
      "▁where": 3462,
      "▁never": 3463,
      "▁consid": 3464,
      "▁approached": 3465,
      "##ali": 3466,
      "▁himself": 3467,
      "▁balt": 3468,
      "▁dinner": 3469,
      "▁schem": 3470,
      "▁land": 3471,
      "▁inspired": 3472,
      "▁spea": 3473,
      "▁fin": 3474,
      "▁diet": 3475,
      "##isco": 3476,
      "##½": 3477,
      "▁admit": 3478,
      "▁beings": 3479,
      "▁crack": 3480,
      "##ership": 3481,
      "▁failed": 3482,
      "##ucks": 3483,
      "▁island": 3484,
      "##inist": 3485,
      "##ceptions": 3486,
      "▁spe": 3487,
      "▁founded": 3488,
      "▁writers": 3489,
      "▁an": 3490,
      "▁balls": 3491,
      "▁nails": 3492,
      "▁goes": 3493,
      "▁sees": 3494,
      "▁ginger": 3495,
      "▁swit": 3496,
      "▁wheat": 3497,
      "▁cycle": 3498,
      "▁farrier": 3499,
      "▁potatoes": 3500,
      "##ingly": 3501,
      "▁mailings": 3502,
      "▁agriculture": 3503,
      "▁deny": 3504,
      "▁raise": 3505,
      "▁white": 3506,
      "##ired": 3507,
      "##ien": 3508,
      "▁fantasy": 3509,
      "##outs": 3510,
      "##yl": 3511,
      "▁hand": 3512,
      "▁develop": 3513,
      "▁measure": 3514,
      "▁nove": 3515,
      "▁sea": 3516,
      "▁throw": 3517,
      "▁when": 3518,
      "##q": 3519,
      "▁oath": 3520,
      "♥": 3521,
      "▁plat": 3522,
      "▁bar": 3523,
      "▁serves": 3524,
      "▁generate": 3525,
      "##adel": 3526,
      "▁acknowledge": 3527,
      "▁articles": 3528,
      "▁offic": 3529,
      "▁airlines": 3530,
      "º": 3531,
      "▁welcomed": 3532,
      "▁peace": 3533,
      "▁litt": 3534,
      "##use": 3535,
      "▁cas": 3536,
      "β": 3537,
      "##fications": 3538,
      "▁?!?": 3539,
      "▁vict": 3540,
      "▁trans": 3541,
      "▁expos": 3542,
      "▁implemented": 3543,
      "▁awareness": 3544,
      "##.m": 3545,
      "▁crisis": 3546,
      "▁helicop": 3547,
      "▁drama": 3548,
      "▁jacket": 3549,
      "▁one": 3550,
      "##ukee": 3551,
      "##ticians": 3552,
      "▁bed": 3553,
      "##ped": 3554,
      "▁posed": 3555,
      "▁chocol": 3556,
      "▁suck": 3557,
      "▁fol": 3558,
      "##inental": 3559,
      "]": 3560,
      "▁drink": 3561,
      "▁through": 3562,
      "▁heat": 3563,
      "▁bos": 3564,
      "▁manufact": 3565,
      "▁caps": 3566,
      "▁very": 3567,
      "▁ar": 3568,
      "▁disapp": 3569,
      "▁hurt": 3570,
      "##riage": 3571,
      "▁specific": 3572,
      "▁aboard": 3573,
      "▁revolution": 3574,
      "▁temp": 3575,
      "##alog": 3576,
      "▁feelings": 3577,
      "▁headquarters": 3578,
      "▁passengers": 3579,
      "▁sur": 3580,
      "▁trash": 3581,
      "▁--": 3582,
      "▁damage": 3583,
      "##itations": 3584,
      "▁mur": 3585,
      "▁soon": 3586,
      "▁decades": 3587,
      "##ently": 3588,
      "##ges": 3589,
      "▁dogg": 3590,
      "▁identi": 3591,
      "▁tampa": 3592,
      "##tainty": 3593,
      "▁arr": 3594,
      "##de": 3595,
      "▁surge": 3596,
      "▁matters": 3597,
      "▁prohibited": 3598,
      "▁memories": 3599,
      "▁document": 3600,
      "##ile": 3601,
      "▁contacted": 3602,
      "▁rub": 3603,
      "▁crayons": 3604,
      "##centi": 3605,
      "▁give": 3606,
      "##ests": 3607,
      "##oved": 3608,
      "▁angeles": 3609,
      "▁visits": 3610,
      "##ores": 3611,
      "▁locom": 3612,
      "▁mist": 3613,
      "▁snitch": 3614,
      "▁elect": 3615,
      "▁preparation": 3616,
      "##uis": 3617,
      "▁zone": 3618,
      "##:/": 3619,
      "##iver": 3620,
      "##ity": 3621,
      "▁particularly": 3622,
      "▁horn": 3623,
      "▁sleeping": 3624,
      "▁published": 3625,
      "▁dre": 3626,
      "▁floating": 3627,
      "##ron": 3628,
      "▁screwdriver": 3629,
      "##ull": 3630,
      "▁permitted": 3631,
      "##etition": 3632,
      "▁participating": 3633,
      "▁state": 3634,
      "##down": 3635,
      "##ere": 3636,
      "▁cris": 3637,
      "▁wik": 3638,
      "▁current": 3639,
      "▁crash": 3640,
      "▁tric": 3641,
      "▁mechanism": 3642,
      "▁eaten": 3643,
      "▁boxes": 3644,
      "▁referred": 3645,
      "##umbled": 3646,
      "▁equ": 3647,
      "▁caused": 3648,
      "▁sang": 3649,
      "##ool": 3650,
      "##oms": 3651,
      "▁examples": 3652,
      "▁requirements": 3653,
      "▁review": 3654,
      "##uck": 3655,
      "##essions": 3656,
      "▁shed": 3657,
      "##bal": 3658,
      "##oe": 3659,
      "▁granted": 3660,
      "▁wr": 3661,
      "##qual": 3662,
      "▁obl": 3663,
      "▁parent": 3664,
      "▁butt": 3665,
      "▁unemployment": 3666,
      "▁constit": 3667,
      "▁vacc": 3668,
      "▁climb": 3669,
      "▁replaced": 3670,
      "▁poverty": 3671,
      "▁cheap": 3672,
      "##verage": 3673,
      "▁patients": 3674,
      "▁design": 3675,
      "##ait": 3676,
      "▁cells": 3677,
      "▁refin": 3678,
      "▁bottom": 3679,
      "▁for": 3680,
      "▁tube": 3681,
      "▁knees": 3682,
      "▁yea": 3683,
      "##ion": 3684,
      "▁lunch": 3685,
      "▁.!": 3686,
      "▁integ": 3687,
      "##ying": 3688,
      "▁lit": 3689,
      "▁toll": 3690,
      "▁fut": 3691,
      "▁ter": 3692,
      "▁cuck": 3693,
      "▁how": 3694,
      "▁forgot": 3695,
      "▁mot": 3696,
      "▁translation": 3697,
      "▁liber": 3698,
      "##6": 3699,
      "▁accident": 3700,
      "##ending": 3701,
      "▁events": 3702,
      "##vert": 3703,
      "▁covering": 3704,
      "▁eur": 3705,
      "▁price": 3706,
      "▁log": 3707,
      "▁pup": 3708,
      "▁pour": 3709,
      "##ify": 3710,
      "##otes": 3711,
      "▁institutions": 3712,
      "▁summary": 3713,
      "##ses": 3714,
      "▁surr": 3715,
      "##itting": 3716,
      "▁arrives": 3717,
      "##:": 3718,
      "▁kitt": 3719,
      "##illed": 3720,
      "▁injury": 3721,
      "▁bir": 3722,
      "##enef": 3723,
      "▁tear": 3724,
      "▁device": 3725,
      "▁fall": 3726,
      "▁festivals": 3727,
      "▁data": 3728,
      "▁propose": 3729,
      "▁generators": 3730,
      "##esty": 3731,
      "##ooks": 3732,
      "▁murder": 3733,
      "▁locations": 3734,
      "##aid": 3735,
      "▁used": 3736,
      "▁imagination": 3737,
      "##'re": 3738,
      "##tise": 3739,
      "▁decide": 3740,
      "##vision": 3741,
      "ˈ": 3742,
      "##!?": 3743,
      "▁radio": 3744,
      "##rael": 3745,
      "▁intentions": 3746,
      "##issions": 3747,
      "▁mouth": 3748,
      "▁users": 3749,
      "▁laund": 3750,
      "##uits": 3751,
      "▁light": 3752,
      "##f": 3753,
      "▁informed": 3754,
      "▁uti": 3755,
      "▁managers": 3756,
      "▁{": 3757,
      "▁hoping": 3758,
      "▁chickens": 3759,
      "##ood": 3760,
      "▁walking": 3761,
      "▁causing": 3762,
      "##alu": 3763,
      "▁bron": 3764,
      "▁q1": 3765,
      "##ributing": 3766,
      "##ideration": 3767,
      "▁obsf": 3768,
      "▁betw": 3769,
      "##==": 3770,
      "▁sor": 3771,
      "▁out": 3772,
      "##ainly": 3773,
      "▁shadow": 3774,
      "##ting": 3775,
      "▁arriving": 3776,
      "##ric": 3777,
      "##ground": 3778,
      "▁borders": 3779,
      "▁cabbage": 3780,
      "##aves": 3781,
      "▁environments": 3782,
      "▁ya": 3783,
      "##thin": 3784,
      "▁practicing": 3785,
      "##2": 3786,
      "##ache": 3787,
      "▁wrote": 3788,
      "▁september": 3789,
      "▁conclusion": 3790,
      "▁expanded": 3791,
      "▁preserved": 3792,
      "##thy": 3793,
      "##.": 3794,
      "▁field": 3795,
      "▁pack": 3796,
      "##ls": 3797,
      "▁residents": 3798,
      "##dge": 3799,
      "▁ignor": 3800,
      "▁commissioner": 3801,
      "▁proved": 3802,
      "##life": 3803,
      "▁reply": 3804,
      "##over": 3805,
      "▁pee": 3806,
      "▁linked": 3807,
      "▁arrangements": 3808,
      "▁block": 3809,
      "▁barn": 3810,
      "##chen": 3811,
      "▁dinosaur": 3812,
      "##orded": 3813,
      "▁grant": 3814,
      "▁transition": 3815,
      "▁set": 3816,
      "▁perhaps": 3817,
      "##lf": 3818,
      "▁invite": 3819,
      "▁strive": 3820,
      "▁coast": 3821,
      "##epend": 3822,
      "▁commit": 3823,
      "##ving": 3824,
      "##ath": 3825,
      "##ength": 3826,
      "▁meet": 3827,
      "▁declar": 3828,
      "▁team": 3829,
      "##ologies": 3830,
      "▁mention": 3831,
      "▁questioned": 3832,
      "▁signed": 3833,
      "▁doubt": 3834,
      "▁ling": 3835,
      "##rous": 3836,
      "▁spir": 3837,
      "##king": 3838,
      "▁signing": 3839,
      "▁phenomen": 3840,
      "▁research": 3841,
      "▁refuge": 3842,
      "▁up": 3843,
      "##.s": 3844,
      "▁sum": 3845,
      "▁lun": 3846,
      "▁aqu": 3847,
      "▁intern": 3848,
      "▁sights": 3849,
      "▁critics": 3850,
      "▁desk": 3851,
      "##(": 3852,
      "▁phil": 3853,
      "##ocol": 3854,
      "▁definition": 3855,
      "▁mountains": 3856,
      "▁destruc": 3857,
      "▁licenses": 3858,
      "▁doctors": 3859,
      "##eor": 3860,
      "▁grumb": 3861,
      "▁worms": 3862,
      "[MASK]": 3863,
      "▁char": 3864,
      "▁crit": 3865,
      "▁citizens": 3866,
      "▁importance": 3867,
      "##ials": 3868,
      "▁gas": 3869,
      "▁vs": 3870,
      "##temp": 3871,
      "▁publish": 3872,
      "▁being": 3873,
      "▁thurs": 3874,
      "▁name": 3875,
      "▁experienced": 3876,
      "▁sticks": 3877,
      "##way": 3878,
      "▁led": 3879,
      "▁science": 3880,
      "##inking": 3881,
      "▁actor": 3882,
      "##oll": 3883,
      "##ience": 3884,
      "▁sal": 3885,
      "##portun": 3886,
      "▁length": 3887,
      "▁day": 3888,
      "▁neuro": 3889,
      "##lent": 3890,
      "▁manuf": 3891,
      "▁bunch": 3892,
      "##od": 3893,
      "▁planet": 3894,
      "▁lack": 3895,
      "▁yelling": 3896,
      "##eren": 3897,
      "##set": 3898,
      "▁shuttle": 3899,
      "▁per": 3900,
      "▁deficiency": 3901,
      "▁tre": 3902,
      "▁vehicle": 3903,
      "▁routine": 3904,
      "▁…": 3905,
      "▁motorc": 3906,
      "▁doctor": 3907,
      "▁vet": 3908,
      "▁domain": 3909,
      "▁category": 3910,
      "▁member": 3911,
      "▁topics": 3912,
      "▁che": 3913,
      "▁smal": 3914,
      "▁morality": 3915,
      "▁retail": 3916,
      "▁s/he": 3917,
      "##itch": 3918,
      "▁origin": 3919,
      "▁cincinnati": 3920,
      "▁lar": 3921,
      "▁delive": 3922,
      "##oves": 3923,
      "▁ourselves": 3924,
      "▁fox": 3925,
      "▁tot": 3926,
      "▁awa": 3927,
      "##ul": 3928,
      "##ors": 3929,
      "##pan": 3930,
      "▁babies": 3931,
      "##ularly": 3932,
      "▁participate": 3933,
      "▁kittens": 3934,
      "▁recall": 3935,
      "▁grandmother": 3936,
      "##gation": 3937,
      "▁experiment": 3938,
      "▁mom": 3939,
      "▁ho": 3940,
      "##ρ": 3941,
      "▁economy": 3942,
      "▁basis": 3943,
      "a": 3944,
      "##ula": 3945,
      "▁authors": 3946,
      "▁welcome": 3947,
      "▁cont": 3948,
      "▁fing": 3949,
      "##an": 3950,
      "▁installed": 3951,
      "##uggles": 3952,
      "▁kid": 3953,
      "▁funnel": 3954,
      "▁subst": 3955,
      "▁survey": 3956,
      "▁clown": 3957,
      "▁stepping": 3958,
      "▁[": 3959,
      "▁moun": 3960,
      "[UNK]": 3961,
      "##bility": 3962,
      "▁achieve": 3963,
      "▁yester": 3964,
      "##afts": 3965,
      "▁laser": 3966,
      "##ighb": 3967,
      "▁able": 3968,
      "▁guests": 3969,
      "##erted": 3970,
      "▁partners": 3971,
      "▁harmon": 3972,
      "##force": 3973,
      "▁drill": 3974,
      "▁w/": 3975,
      "▁might": 3976,
      "▁/": 3977,
      "▁singing": 3978,
      "▁scr": 3979,
      "▁indicate": 3980,
      "▁coll": 3981,
      "▁improved": 3982,
      "##uling": 3983,
      "▁authorities": 3984,
      "▁saw": 3985,
      "▁straw": 3986,
      "▁examining": 3987,
      "▁refusing": 3988,
      "▁israel": 3989,
      "▁......": 3990,
      "##eti": 3991,
      "##alization": 3992,
      "▁liqu": 3993,
      "▁concrete": 3994,
      "▁rul": 3995,
      "▁elections": 3996,
      "##berry": 3997,
      "##ky": 3998,
      "▁ic": 3999,
      "▁bur": 4000,
      "▁lemon": 4001,
      "##pensive": 4002,
      "##mission": 4003,
      "##uate": 4004,
      "▁guit": 4005,
      "▁gift": 4006,
      "##rance": 4007,
      "▁'re": 4008,
      "##loy": 4009,
      "▁manage": 4010,
      "▁met": 4011,
      "▁[...": 4012,
      "▁soc": 4013,
      "##/he": 4014,
      "▁transfer": 4015,
      "##ber": 4016,
      "▁square": 4017,
      "▁movement": 4018,
      "##tician": 4019,
      "▁top": 4020,
      "▁cocktail": 4021,
      "▁pra": 4022,
      "▁enable": 4023,
      "▁isd": 4024,
      "▁victory": 4025,
      "▁possible": 4026,
      "##ment": 4027,
      "▁'em": 4028,
      "▁“": 4029,
      "##ash": 4030,
      "▁al": 4031,
      "▁cam": 4032,
      "▁repeat": 4033,
      "##irus": 4034,
      "▁allow": 4035,
      "##ay": 4036,
      "##abilities": 4037,
      "##ists": 4038,
      "▁affected": 4039,
      "▁counterfe": 4040,
      "▁hippop": 4041,
      "▁fence": 4042,
      "▁fly": 4043,
      "▁licensor": 4044,
      "▁seats": 4045,
      "▁jokes": 4046,
      "##æ": 4047,
      "▁according": 4048,
      "▁games": 4049,
      "œ": 4050,
      "▁hero": 4051,
      "▁named": 4052,
      "▁motorcycle": 4053,
      "##c": 4054,
      "▁what": 4055,
      "##low": 4056,
      "▁stories": 4057,
      "##ns": 4058,
      "<": 4059,
      "▁sounds": 4060,
      "▁mechanics": 4061,
      "##icted": 4062,
      "▁disability": 4063,
      "▁ret": 4064,
      "▁images": 4065,
      "##cope": 4066,
      "▁ceiling": 4067,
      "▁jumped": 4068,
      "##ply": 4069,
      "▁source": 4070,
      "▁toys": 4071,
      "▁paying": 4072,
      "▁shakes": 4073,
      "▁developed": 4074,
      "▁seeing": 4075,
      "▁conclude": 4076,
      "▁belie": 4077,
      "▁adopt": 4078,
      "▁prices": 4079,
      "▁no": 4080,
      "▁wife": 4081,
      "▁talked": 4082,
      "▁streets": 4083,
      "##agement": 4084,
      "▁apply": 4085,
      "▁preparing": 4086,
      "▁earth": 4087,
      "▁answers": 4088,
      "▁swung": 4089,
      "##des": 4090,
      "▁obtain": 4091,
      "▁amendments": 4092,
      "##oul": 4093,
      "▁emails": 4094,
      "▁naima": 4095,
      "##rier": 4096,
      "▁interf": 4097,
      "##unction": 4098,
      "##cery": 4099,
      "▁c": 4100,
      "▁defined": 4101,
      "##qui": 4102,
      "▁selected": 4103,
      "##ml": 4104,
      "▁tab": 4105,
      "##craft": 4106,
      "▁cur": 4107,
      "▁rose": 4108,
      "▁conform": 4109,
      "▁furniture": 4110,
      "▁bad": 4111,
      "▁proof": 4112,
      "▁impression": 4113,
      "▁complete": 4114,
      "▁reminded": 4115,
      "▁amongst": 4116,
      "##auce": 4117,
      "▁percentage": 4118,
      "##ozer": 4119,
      "##tics": 4120,
      "ʃ": 4121,
      "▁polic": 4122,
      "▁seemed": 4123,
      "▁verse": 4124,
      "##ergy": 4125,
      "‘": 4126,
      "▁pricing": 4127,
      "▁revenue": 4128,
      "##alists": 4129,
      "##roduc": 4130,
      "##ye": 4131,
      "▁op": 4132,
      "▁vlog": 4133,
      "##ically": 4134,
      "▁something": 4135,
      "▁his": 4136,
      "▁hot": 4137,
      "##ode": 4138,
      "##unte": 4139,
      "▁actually": 4140,
      "▁blow": 4141,
      "▁occas": 4142,
      "##,": 4143,
      "▁lined": 4144,
      "▁personality": 4145,
      "▁reproduc": 4146,
      "##tiveness": 4147,
      "▁opportun": 4148,
      "##ything": 4149,
      "##derstand": 4150,
      "##isation": 4151,
      "##box": 4152,
      "▁keeps": 4153,
      "##go": 4154,
      "##ith": 4155,
      "▁cows": 4156,
      "▁degrees": 4157,
      "▁feels": 4158,
      "▁approved": 4159,
      "▁negoti": 4160,
      "▁tunnel": 4161,
      "##place": 4162,
      "▁nothing": 4163,
      "##aches": 4164,
      "▁chalk": 4165,
      "▁leading": 4166,
      "▁greeted": 4167,
      "▁far": 4168,
      "##tiv": 4169,
      "▁soy": 4170,
      "##attered": 4171,
      "##liday": 4172,
      "▁calls": 4173,
      "▁thoughts": 4174,
      "▁gathered": 4175,
      "▁pace": 4176,
      "▁preserve": 4177,
      "##?": 4178,
      "▁directive": 4179,
      "▁avoided": 4180,
      "▁helicopters": 4181,
      "▁ingred": 4182,
      "▁pie": 4183,
      "▁mass": 4184,
      "▁heads": 4185,
      "##ero": 4186,
      "▁traveled": 4187,
      "##ued": 4188,
      "▁integr": 4189,
      "##right": 4190,
      "##gue": 4191,
      "▁authority": 4192,
      "▁concluded": 4193,
      "##)": 4194,
      "▁yeah": 4195,
      "▁enough": 4196,
      "▁cler": 4197,
      "▁populations": 4198,
      "▁explo": 4199,
      "##ant": 4200,
      "▁help": 4201,
      "▁describe": 4202,
      "▁would": 4203,
      "▁hop": 4204,
      "▁helps": 4205,
      "▁opin": 4206,
      "▁islamists": 4207,
      "▁global": 4208,
      "▁arrested": 4209,
      "##aughter": 4210,
      "æ": 4211,
      "##eries": 4212,
      "▁business": 4213,
      "'": 4214,
      "▁prod": 4215,
      "▁rep": 4216,
      "##ments": 4217,
      "▁driving": 4218,
      "▁dar": 4219,
      "▁plan": 4220,
      "##tle": 4221,
      "▁live": 4222,
      "▁powers": 4223,
      "▁august": 4224,
      "▁content": 4225,
      "▁aside": 4226,
      "▁became": 4227,
      "▁perf": 4228,
      "▁hung": 4229,
      "▁flag": 4230,
      "##neath": 4231,
      "▁thro": 4232,
      "▁reflected": 4233,
      "##tice": 4234,
      "##ilize": 4235,
      "▁diss": 4236,
      "▁_____": 4237,
      "▁sens": 4238,
      "▁adver": 4239,
      "▁architect": 4240,
      "##ie": 4241,
      "▁activ": 4242,
      "##hood": 4243,
      "▁learned": 4244,
      "▁allig": 4245,
      "▁recorded": 4246,
      "##ping": 4247,
      "▁finger": 4248,
      "▁swinging": 4249,
      "▁switched": 4250,
      "▁apar": 4251,
      "▁so": 4252,
      "##rel": 4253,
      "##less": 4254,
      "##ox": 4255,
      "▁march": 4256,
      "▁concre": 4257,
      "##in": 4258,
      "▁measures": 4259,
      "##ell": 4260,
      "▁explained": 4261,
      "▁organized": 4262,
      "▁alar": 4263,
      "▁viol": 4264,
      "##enn": 4265,
      "▁vis": 4266,
      "▁fair": 4267,
      "▁!.": 4268,
      "▁favour": 4269,
      "▁cooperation": 4270,
      "##utor": 4271,
      "##kin": 4272,
      "##inc": 4273,
      "##cut": 4274,
      "▁astr": 4275,
      "▁season": 4276,
      "▁estab": 4277,
      "▁former": 4278,
      "▁wild": 4279,
      "▁influ": 4280,
      "▁tire": 4281,
      "▁intervening": 4282,
      "##alize": 4283,
      "▁versus": 4284,
      "▁thri": 4285,
      "▁towed": 4286,
      "▁columns": 4287,
      "▁freedoms": 4288,
      "##kers": 4289,
      "▁iraq": 4290,
      "▁mike": 4291,
      "##mpl": 4292,
      "▁.......": 4293,
      "▁elbow": 4294,
      "▁applications": 4295,
      "▁hal": 4296,
      "▁;": 4297,
      "▁soci": 4298,
      "▁absence": 4299,
      "▁are": 4300,
      "▁fortune": 4301,
      "▁jus": 4302,
      "▁agre": 4303,
      "▁if": 4304,
      "▁educated": 4305,
      "▁oc": 4306,
      "##imore": 4307,
      "▁sched": 4308,
      "##ured": 4309,
      "##'clock": 4310,
      "▁tomato": 4311,
      "##oni": 4312,
      "▁majority": 4313,
      "▁realize": 4314,
      "▁seeking": 4315,
      "▁vegetable": 4316,
      "##acts": 4317,
      "▁promise": 4318,
      "▁general": 4319,
      "##ious": 4320,
      "r": 4321,
      "##clock": 4322,
      "##og": 4323,
      "▁leaf": 4324,
      "▁accomm": 4325,
      "##overy": 4326,
      "▁items": 4327,
      "▁transl": 4328,
      "##su": 4329,
      "▁airports": 4330,
      "##gers": 4331,
      "▁serving": 4332,
      "▁appointment": 4333,
      "##asure": 4334,
      "##unic": 4335,
      "▁role": 4336,
      "##lo": 4337,
      "▁broad": 4338,
      "▁shakespeare": 4339,
      "▁tele": 4340,
      "▁kitty": 4341,
      "▁until": 4342,
      "##ved": 4343,
      "▁ground": 4344,
      "▁inv": 4345,
      "▁pyr": 4346,
      "##ral": 4347,
      "##ge": 4348,
      "▁amount": 4349,
      "▁tourism": 4350,
      "▁distance": 4351,
      "▁stamp": 4352,
      "▁seas": 4353,
      "##keep": 4354,
      "▁consequences": 4355,
      "▁dal": 4356,
      "##ains": 4357,
      "##onto": 4358,
      "▁collection": 4359,
      "##lities": 4360,
      "▁mine": 4361,
      "##tie": 4362,
      "##real": 4363,
      "▁rout": 4364,
      "##hered": 4365,
      "##ample": 4366,
      "▁sugges": 4367,
      "▁withdraw": 4368,
      "▁centre": 4369,
      "##co": 4370,
      "##vements": 4371,
      "##ounded": 4372,
      "▁di": 4373,
      "▁stated": 4374,
      "▁range": 4375,
      "▁imprisoned": 4376,
      "##is": 4377,
      "▁outside": 4378,
      "▁interview": 4379,
      "##ery": 4380,
      "▁terrorists": 4381,
      "▁worm": 4382,
      "▁govern": 4383,
      "▁buttons": 4384,
      "▁their": 4385,
      "▁br": 4386,
      "▁salad": 4387,
      "▁connections": 4388,
      "▁cages": 4389,
      "▁meter": 4390,
      "▁post": 4391,
      "▁dishes": 4392,
      "##en": 4393,
      "▁people": 4394,
      "##ease": 4395,
      "▁3": 4396,
      "##ologist": 4397,
      "▁space": 4398,
      "##-c": 4399,
      "▁crow": 4400,
      "▁spr": 4401,
      "▁islam": 4402,
      "▁miles": 4403,
      "v": 4404,
      "##umble": 4405,
      "▁pu": 4406,
      "▁techniqu": 4407,
      "▁anything": 4408,
      "##…": 4409,
      "▁declaration": 4410,
      "▁:?": 4411,
      "##aring": 4412,
      "▁epis": 4413,
      "##ia": 4414,
      "▁purchased": 4415,
      "▁fare": 4416,
      "▁..": 4417,
      "▁regarding": 4418,
      "▁sections": 4419,
      "▁documented": 4420,
      "▁division": 4421,
      "▁avo": 4422,
      "##ern": 4423,
      "▁micro": 4424,
      "▁indicates": 4425,
      "▁shoes": 4426,
      "▁rooms": 4427,
      "▁dev": 4428,
      "▁monkey": 4429,
      "▁gallery": 4430,
      "υ": 4431,
      "##eers": 4432,
      "▁teen": 4433,
      "###": 4434,
      "##ank": 4435,
      "##gar": 4436,
      "▁coo": 4437,
      "▁implement": 4438,
      "##ctly": 4439,
      "▁invitation": 4440,
      "##esting": 4441,
      "▁ensuring": 4442,
      "▁targ": 4443,
      "▁sectors": 4444,
      "▁wonder": 4445,
      "▁ran": 4446,
      "▁independ": 4447,
      "▁businesses": 4448,
      "▁basket": 4449,
      "▁corner": 4450,
      "▁collapsed": 4451,
      "▁quality": 4452,
      "▁throu": 4453,
      "▁inequ": 4454,
      "▁details": 4455,
      "▁landscape": 4456,
      "##par": 4457,
      "▁producers": 4458,
      "##lem": 4459,
      "▁administ": 4460,
      "##ane": 4461,
      "##inu": 4462,
      "##fer": 4463,
      "##os": 4464,
      "▁defend": 4465,
      "▁acts": 4466,
      "▁desert": 4467,
      "▁saved": 4468,
      "▁direc": 4469,
      "##ark": 4470,
      "▁teams": 4471,
      "##eets": 4472,
      "▁memoir": 4473,
      "▁generated": 4474,
      "▁incorp": 4475,
      "##gery": 4476,
      "▁start": 4477,
      "▁representatives": 4478,
      "▁navy": 4479,
      "▁built": 4480,
      "▁mycelium": 4481,
      "▁lord": 4482,
      "##...": 4483,
      "▁filtered": 4484,
      "▁score": 4485,
      "▁pivottable": 4486,
      "##­": 4487,
      "▁toy": 4488,
      "▁rang": 4489,
      "##rates": 4490,
      "##face": 4491,
      "##orts": 4492,
      "▁milk": 4493,
      "##orized": 4494,
      "##ance": 4495,
      "##ah": 4496,
      "▁finished": 4497,
      "##00": 4498,
      "##ress": 4499,
      "##mos": 4500,
      "##aroni": 4501,
      "##r.": 4502,
      "##porte": 4503,
      "▁houston": 4504,
      "##rate": 4505,
      "▁..........": 4506,
      "▁appeared": 4507,
      "▁homes": 4508,
      "##man": 4509,
      "##perity": 4510,
      "▁easy": 4511,
      "▁women": 4512,
      "▁executed": 4513,
      "##rons": 4514,
      "▁acknowled": 4515,
      "▁negotiated": 4516,
      "▁samples": 4517,
      "▁muscle": 4518,
      "▁steam": 4519,
      "##used": 4520,
      "▁ess": 4521,
      "▁texas": 4522,
      "##gement": 4523,
      "▁---------------------------------------------------------------------------": 4524,
      "▁restaurants": 4525,
      "▁copy": 4526,
      "▁cancel": 4527,
      "▁knight": 4528,
      "##iration": 4529,
      "▁dolphin": 4530,
      "▁charm": 4531,
      "▁sentences": 4532,
      "▁deliver": 4533,
      "##nam": 4534,
      "▁insurance": 4535,
      "▁adam": 4536,
      "##ship": 4537,
      "##ear": 4538,
      "##uro": 4539,
      "▁picture": 4540,
      "▁shr": 4541,
      "##aign": 4542,
      "▁examine": 4543,
      "▁interests": 4544,
      "▁surprised": 4545,
      "▁movies": 4546,
      "▁feed": 4547,
      "▁crowd": 4548,
      "##il": 4549,
      "▁farmers": 4550,
      "▁stars": 4551,
      "▁justice": 4552,
      "▁increases": 4553,
      "##ft": 4554,
      "▁declare": 4555,
      "▁village": 4556,
      "##minated": 4557,
      "##usion": 4558,
      "▁trib": 4559,
      "##word": 4560,
      "▁dispute": 4561,
      "▁rather": 4562,
      "▁degree": 4563,
      "▁smoking": 4564,
      "▁beautiful": 4565,
      "▁sil": 4566,
      "▁confir": 4567,
      "##lions": 4568,
      "▁next": 4569,
      "▁truth": 4570,
      "##astruc": 4571,
      "##arks": 4572,
      "▁body": 4573,
      "▁message": 4574,
      "▁sss": 4575,
      "▁making": 4576,
      "▁belong": 4577,
      "##elled": 4578,
      "▁pursu": 4579,
      "▁button": 4580,
      "▁mu": 4581,
      "▁faces": 4582,
      "▁employ": 4583,
      "▁stopover": 4584,
      "▁bands": 4585,
      "▁gras": 4586,
      "##ve": 4587,
      "▁increasing": 4588,
      "▁achieving": 4589,
      "▁guessed": 4590,
      "##bly": 4591,
      "▁gains": 4592,
      "##tor": 4593,
      "##8": 4594,
      "##eric": 4595,
      "▁discovered": 4596,
      "▁packed": 4597,
      "▁away": 4598,
      "▁lobby": 4599,
      "▁elected": 4600,
      "▁decision": 4601,
      "▁pursue": 4602,
      "##old": 4603,
      "▁jun": 4604,
      "##ction": 4605,
      "##ru": 4606,
      "##ss": 4607,
      "▁cop": 4608,
      "▁typ": 4609,
      "▁except": 4610,
      "▁trying": 4611,
      "▁descri": 4612,
      "▁hammer": 4613,
      "▁tent": 4614,
      "▁entitled": 4615,
      "▁terrorism": 4616,
      "▁display": 4617,
      "▁libr": 4618,
      "▁achievements": 4619,
      "▁ti": 4620,
      "▁salt": 4621,
      "##rew": 4622,
      "▁exerc": 4623,
      "▁wheels": 4624,
      "▁cigar": 4625,
      "▁stud": 4626,
      "▁lifetime": 4627,
      "▁med": 4628,
      "▁please": 4629,
      "▁mission": 4630,
      "##ument": 4631,
      "##hen": 4632,
      "##.com": 4633,
      "▁proposal": 4634,
      "▁status": 4635,
      "▁adapt": 4636,
      "▁pets": 4637,
      "▁infl": 4638,
      "▁down": 4639,
      "▁problems": 4640,
      "▁foreign": 4641,
      "▁action": 4642,
      "▁men": 4643,
      "▁days": 4644,
      "▁father": 4645,
      "▁negot": 4646,
      "##air": 4647,
      "##orities": 4648,
      "##hib": 4649,
      "▁thursday": 4650,
      "▁adding": 4651,
      "▁gentle": 4652,
      "##usted": 4653,
      "▁broom": 4654,
      "▁stepped": 4655,
      "▁fish": 4656,
      "##ok": 4657,
      "▁guys": 4658,
      "▁expanding": 4659,
      "▁hope": 4660,
      "▁enforcement": 4661,
      "▁happening": 4662,
      "▁determined": 4663,
      "▁bac": 4664,
      "▁think": 4665,
      "##idd": 4666,
      "▁mommy": 4667,
      "▁raised": 4668,
      "▁strugg": 4669,
      "##fort": 4670,
      "▁repa": 4671,
      "##earance": 4672,
      "▁photos": 4673,
      "##oked": 4674,
      "▁vot": 4675,
      "▁ll": 4676,
      "▁youth": 4677,
      "▁hosp": 4678,
      "▁mountain": 4679,
      "▁closed": 4680,
      "##ict": 4681,
      "▁rat": 4682,
      "##ocity": 4683,
      "▁vaccine": 4684,
      "▁aft": 4685,
      "▁chic": 4686,
      "▁eats": 4687,
      "▁electric": 4688,
      "##acking": 4689,
      "▁belief": 4690,
      "▁timing": 4691,
      "##j": 4692,
      "##ally": 4693,
      "##iles": 4694,
      "▁near": 4695,
      "##mes": 4696,
      "▁broken": 4697,
      "##using": 4698,
      "▁trad": 4699,
      "▁f": 4700,
      "▁paul": 4701,
      "▁suitcase": 4702,
      "▁sci": 4703,
      "##ogn": 4704,
      "##sent": 4705,
      "##enced": 4706,
      "▁exercise": 4707,
      "▁fli": 4708,
      "▁ruin": 4709,
      "▁wolf": 4710,
      "▁evalu": 4711,
      "▁bandaid": 4712,
      "▁taken": 4713,
      "##oted": 4714,
      "▁counterfeiting": 4715,
      "▁researchers": 4716,
      "▁earliest": 4717,
      "▁style": 4718,
      "##ution": 4719,
      "▁attacked": 4720,
      "##unk": 4721,
      "##sive": 4722,
      "##te": 4723,
      "##ones": 4724,
      "▁purse": 4725,
      "ν": 4726,
      "▁workers": 4727,
      "▁advance": 4728,
      "##ements": 4729,
      "▁behalf": 4730,
      "▁phys": 4731,
      "▁consc": 4732,
      "▁whale": 4733,
      "▁hair": 4734,
      "▁seam": 4735,
      "▁jail": 4736,
      "▁somewhere": 4737,
      "▁—": 4738,
      "▁quan": 4739,
      "▁heading": 4740,
      "##3": 4741,
      "##kets": 4742,
      "##tai": 4743,
      "▁swim": 4744,
      "▁baseball": 4745,
      "▁buil": 4746,
      "▁neph": 4747,
      "▁horror": 4748,
      "▁newsp": 4749,
      "▁strateg": 4750,
      "##hip": 4751,
      "▁capac": 4752,
      "▁taste": 4753,
      "##ano": 4754,
      "##amb": 4755,
      "▁represent": 4756,
      "▁brother": 4757,
      "▁hy": 4758,
      "▁falling": 4759,
      "▁gr": 4760,
      "▁arrival": 4761,
      "▁rag": 4762,
      "▁laid": 4763,
      "▁multipl": 4764,
      "##yr": 4765,
      "▁airfare": 4766,
      "##{": 4767,
      "▁oh": 4768,
      "▁anyth": 4769,
      "▁enron": 4770,
      "▁particles": 4771,
      "▁fees": 4772,
      "▁thru": 4773,
      "##♥": 4774,
      "▁intelligence": 4775,
      "▁tick": 4776,
      "▁write": 4777,
      "▁forest": 4778,
      "▁trials": 4779,
      "▁miracle": 4780,
      "▁shall": 4781,
      "▁gal": 4782,
      "##selve": 4783,
      "▁jose": 4784,
      "▁opportunities": 4785,
      "▁agenda": 4786,
      "▁reviewed": 4787,
      "▁platform": 4788,
      "##alth": 4789,
      "##orn": 4790,
      "##cent": 4791,
      "▁cause": 4792,
      "##tiff": 4793,
      "▁prett": 4794,
      "##ific": 4795,
      "##al": 4796,
      "▁service": 4797,
      "▁continu": 4798,
      "##tually": 4799,
      "▁revers": 4800,
      "▁exh": 4801,
      "##ten": 4802,
      "##ural": 4803,
      "▁accommod": 4804,
      "##odes": 4805,
      "##ands": 4806,
      "½": 4807,
      "▁volume": 4808,
      "▁se": 4809,
      "▁modify": 4810,
      "▁character": 4811,
      "▁survive": 4812,
      "▁airlin": 4813,
      "▁1970s": 4814,
      "▁serv": 4815,
      "▁analys": 4816,
      "▁sports": 4817,
      "###6": 4818,
      "##amus": 4819,
      "##ore": 4820,
      "▁cast": 4821,
      "▁directions": 4822,
      "▁promp": 4823,
      "▁gh": 4824,
      "▁bucket": 4825,
      "##gle": 4826,
      "▁contains": 4827,
      "▁washed": 4828,
      "▁frost": 4829,
      "##nels": 4830,
      "▁activity": 4831,
      "▁implementation": 4832,
      "##ches": 4833,
      "##w": 4834,
      "▁chr": 4835,
      "##ield": 4836,
      "##amole": 4837,
      "▁consum": 4838,
      "▁solid": 4839,
      "▁counsel": 4840,
      "##’t": 4841,
      "▁evolution": 4842,
      "##vest": 4843,
      "▁b/": 4844,
      "▁num": 4845,
      "▁pm": 4846,
      "▁pepper": 4847,
      "▁tas": 4848,
      "▁examined": 4849,
      "▁holidays": 4850,
      "##tling": 4851,
      "▁fellow": 4852,
      "▁goal": 4853,
      "##cr": 4854,
      "▁certific": 4855,
      "▁availability": 4856,
      "▁sex": 4857,
      "▁hearing": 4858,
      "▁deck": 4859,
      "##ins": 4860,
      "▁thy": 4861,
      "▁exist": 4862,
      "▁hat": 4863,
      "▁spear": 4864,
      "▁convin": 4865,
      "▁cre": 4866,
      "▁maps": 4867,
      "##ever": 4868,
      "##ced": 4869,
      "▁adopted": 4870,
      "▁whoever": 4871,
      "▁modified": 4872,
      "▁shore": 4873,
      "▁rel": 4874,
      "▁boss": 4875,
      "▁copies": 4876,
      "##wn": 4877,
      "▁represents": 4878,
      "▁deployed": 4879,
      "▁clou": 4880,
      "##itely": 4881,
      "##pre": 4882,
      "▁term": 4883,
      "▁agents": 4884,
      "▁percenti": 4885,
      "▁pulled": 4886,
      "/": 4887,
      "▁chance": 4888,
      "##sh": 4889,
      "▁treatment": 4890,
      "▁observed": 4891,
      "##ickness": 4892,
      "▁though": 4893,
      "▁included": 4894,
      "##ed": 4895,
      "▁resul": 4896,
      "▁occasion": 4897,
      "▁account": 4898,
      "▁correc": 4899,
      "▁teasp": 4900,
      "▁marked": 4901,
      "▁weapons": 4902,
      "▁gets": 4903,
      "##inus": 4904,
      "##iful": 4905,
      "##fin": 4906,
      "▁socks": 4907,
      "▁hiding": 4908,
      "▁arrangement": 4909,
      "▁foundation": 4910,
      "▁dro": 4911,
      "▁signature": 4912,
      "▁exp": 4913,
      "▁contacts": 4914,
      "▁regarded": 4915,
      "▁stick": 4916,
      "▁treat": 4917,
      "▁kit": 4918,
      "▁jungle": 4919,
      "▁slee": 4920,
      "▁showed": 4921,
      "ʊ": 4922,
      "▁uni": 4923,
      "▁production": 4924,
      "##ower": 4925,
      "▁comm": 4926,
      "##fted": 4927,
      "##ack": 4928,
      "▁introduced": 4929,
      "##cle": 4930,
      "▁hurts": 4931,
      "▁truck": 4932,
      "##90s": 4933,
      "▁stage": 4934,
      "▁smell": 4935,
      "▁moisture": 4936,
      "▁stay": 4937,
      "▁worry": 4938,
      "##ows": 4939,
      "##!": 4940,
      "##erent": 4941,
      "##uropean": 4942,
      "▁birth": 4943,
      "##eria": 4944,
      "▁web": 4945,
      "▁approve": 4946,
      "▁relig": 4947,
      "▁videos": 4948,
      "▁stem": 4949,
      "▁handed": 4950,
      "▁offers": 4951,
      "##ashington": 4952,
      "▁settlement": 4953,
      "▁ru": 4954,
      "##anted": 4955,
      "▁dwww": 4956,
      "▁contain": 4957,
      "▁refriger": 4958,
      "▁puts": 4959,
      "▁hitting": 4960,
      "▁corpor": 4961,
      "▁run": 4962,
      "##sing": 4963,
      "▁plant": 4964,
      "▁bread": 4965,
      "▁arrest": 4966,
      "▁raining": 4967,
      "▁newspapers": 4968,
      "▁occur": 4969,
      "▁reduced": 4970,
      "▁this": 4971,
      "▁applying": 4972,
      "▁lap": 4973,
      "▁managed": 4974,
      "▁refused": 4975,
      "▁powder": 4976,
      "##------------": 4977,
      "▁speaker": 4978,
      "▁bott": 4979,
      "##ocated": 4980,
      "▁momm": 4981,
      "##ind": 4982,
      "▁really": 4983,
      "▁peoples": 4984,
      "▁landing": 4985,
      "▁provided": 4986,
      "▁respon": 4987,
      "▁thrown": 4988,
      "▁pho": 4989,
      "▁investigation": 4990,
      "▁sussex": 4991,
      "▁same": 4992,
      "▁steps": 4993,
      "▁provision": 4994,
      "▁uh": 4995,
      "##aper": 4996,
      "▁graduate": 4997,
      "▁query": 4998,
      "▁connection": 4999,
      "▁feedback": 5000,
      "▁wan": 5001,
      "##ictions": 5002,
      "▁agent": 5003,
      "▁few": 5004,
      "▁ble": 5005,
      "“": 5006,
      "##ka": 5007,
      "▁strong": 5008,
      "##asing": 5009,
      "▁bills": 5010,
      "▁understand": 5011,
      "▁yard": 5012,
      "▁reduc": 5013,
      "▁neighbour": 5014,
      "▁judg": 5015,
      "##ticks": 5016,
      "##uscri": 5017,
      "▁miam": 5018,
      "##ons": 5019,
      "▁town": 5020,
      "▁integration": 5021,
      "##wear": 5022,
      "##ware": 5023,
      "▁accompanied": 5024,
      "##ifying": 5025,
      "▁shoe": 5026,
      "▁lies": 5027,
      "▁expensive": 5028,
      "▁explanations": 5029,
      "▁belt": 5030,
      "▁copied": 5031,
      "##avor": 5032,
      "▁2": 5033,
      "▁letting": 5034,
      "▁sending": 5035,
      "##ington": 5036,
      "##iously": 5037,
      "▁basketball": 5038,
      "▁okay": 5039,
      "▁third": 5040,
      "▁challenge": 5041,
      "##ior": 5042,
      "▁anim": 5043,
      "▁wars": 5044,
      "▁manufacturers": 5045,
      "##apers": 5046,
      "▁tummy": 5047,
      "▁plane": 5048,
      "##gging": 5049,
      "▁life": 5050,
      "▁je": 5051,
      "▁infrastruc": 5052,
      "▁doors": 5053,
      "▁god": 5054,
      "▁dividends": 5055,
      "##ailed": 5056,
      "##gage": 5057,
      "##airs": 5058,
      "▁apr": 5059,
      "▁avocado": 5060,
      "##ence": 5061,
      "▁comple": 5062,
      "▁renew": 5063,
      "▁pops": 5064,
      "▁bodies": 5065,
      "▁rail": 5066,
      "▁shows": 5067,
      "▁rise": 5068,
      "▁paintings": 5069,
      "▁opened": 5070,
      "▁atlanta": 5071,
      "▁policy": 5072,
      "▁sitting": 5073,
      "▁operator": 5074,
      "##ants": 5075,
      "▁walked": 5076,
      "##bo": 5077,
      "▁???": 5078,
      "▁priority": 5079,
      "▁sent": 5080,
      "▁encour": 5081,
      "##rol": 5082,
      "##er": 5083,
      "##elling": 5084,
      "##ories": 5085,
      "▁butterfl": 5086,
      "▁overcome": 5087,
      "▁cheek": 5088,
      "##vening": 5089,
      "▁univers": 5090,
      "▁tags": 5091,
      "##tic": 5092,
      "▁gis": 5093,
      "##yond": 5094,
      "##ides": 5095,
      "▁divided": 5096,
      "▁officer": 5097,
      "▁storm": 5098,
      "▁aesthe": 5099,
      "▁unto": 5100,
      "q": 5101,
      "▁elements": 5102,
      "▁company": 5103,
      "▁degre": 5104,
      "▁benef": 5105,
      "▁def": 5106,
      "▁journey": 5107,
      "▁year": 5108,
      "▁coffee": 5109,
      "##reat": 5110,
      "▁route": 5111,
      "##://": 5112,
      "▁interact": 5113,
      "▁layout": 5114,
      "▁reduces": 5115,
      "▁sad": 5116,
      "▁strain": 5117,
      "##ences": 5118,
      "▁,?": 5119,
      "▁returning": 5120,
      "▁beach": 5121,
      "▁tri": 5122,
      "##top": 5123,
      "▁rib": 5124,
      "▁fighter": 5125,
      "▁industries": 5126,
      "▁news": 5127,
      "##si": 5128,
      "##th": 5129,
      "▁contact": 5130,
      "▁waitress": 5131,
      "▁tal": 5132,
      "▁div": 5133,
      "▁pil": 5134,
      "▁color": 5135,
      "▁t": 5136,
      "▁roared": 5137,
      "▁join": 5138,
      "2": 5139,
      "##aying": 5140,
      "▁bone": 5141,
      "▁existed": 5142,
      "▁alco": 5143,
      "▁allowed": 5144,
      "##ssible": 5145,
      "##aser": 5146,
      "▁incident": 5147,
      "▁choose": 5148,
      "##ɔ": 5149,
      "▁offered": 5150,
      "▁rush": 5151,
      "▁links": 5152,
      "▁significance": 5153,
      "▁esc": 5154,
      "▁held": 5155,
      "##if": 5156,
      "##acters": 5157,
      "▁noise": 5158,
      "##ʁ": 5159,
      "▁tradition": 5160,
      "##ety": 5161,
      "▁downtown": 5162,
      "▁emp": 5163,
      "▁ext": 5164,
      "##ema": 5165,
      "▁advised": 5166,
      "▁lose": 5167,
      "▁regre": 5168,
      "▁thread": 5169,
      "##enture": 5170,
      "▁accompan": 5171,
      "▁release": 5172,
      "▁en": 5173,
      "▁tourists": 5174,
      "▁conc": 5175,
      "▁gar": 5176,
      "▁jar": 5177,
      "##ens": 5178,
      "▁donations": 5179,
      "▁forces": 5180,
      "▁sovereignty": 5181,
      "##ta": 5182,
      "▁phrase": 5183,
      "▁substances": 5184,
      "▁prom": 5185,
      "▁battery": 5186,
      "##ration": 5187,
      "##______": 5188,
      "▁initiated": 5189,
      "▁insights": 5190,
      "▁mathema": 5191,
      "##ially": 5192,
      "▁difficult": 5193,
      "▁saf": 5194,
      "▁bones": 5195,
      "##ʒ": 5196,
      "##hold": 5197,
      "▁arrived": 5198,
      "▁hurry": 5199,
      "▁middle": 5200,
      "▁susp": 5201,
      "##iling": 5202,
      "##ularity": 5203,
      "▁wid": 5204,
      "▁independence": 5205,
      "▁racing": 5206,
      "##[": 5207,
      "▁punch": 5208,
      "▁attem": 5209,
      "▁dreamed": 5210,
      "▁anoth": 5211,
      "▁grows": 5212,
      "##illas": 5213,
      "▁vehicles": 5214,
      "▁mush": 5215,
      "▁cartoons": 5216,
      "▁three": 5217,
      "▁full": 5218,
      "▁vision": 5219,
      "▁infrastructure": 5220,
      "▁pants": 5221,
      "▁cher": 5222,
      "##ard": 5223,
      "▁together": 5224,
      "▁meals": 5225,
      "▁spl": 5226,
      "▁impl": 5227,
      "▁deaths": 5228,
      "▁submit": 5229,
      "▁spread": 5230,
      "▁conde": 5231,
      "▁struc": 5232,
      "▁gall": 5233,
      "▁swallow": 5234,
      "▁inflation": 5235,
      "▁antiqu": 5236,
      "▁author": 5237,
      "▁writes": 5238,
      "▁consul": 5239,
      "▁answered": 5240,
      "▁cros": 5241,
      "##iding": 5242,
      "##path": 5243,
      "▁culture": 5244,
      "##utiful": 5245,
      "##umin": 5246,
      "▁station": 5247,
      "▁rememb": 5248,
      "##eline": 5249,
      "▁argument": 5250,
      "▁find": 5251,
      "▁cin": 5252,
      "▁systems": 5253,
      "▁waste": 5254,
      "▁aud": 5255,
      "▁claiming": 5256,
      "##ate": 5257,
      "▁mum": 5258,
      "▁chee": 5259,
      "▁bit": 5260,
      "▁miami": 5261,
      "##aries": 5262,
      "▁launched": 5263,
      "##mitted": 5264,
      "▁guil": 5265,
      "▁statements": 5266,
      "▁yet": 5267,
      "▁tried": 5268,
      "▁&": 5269,
      "##ents": 5270,
      "##oin": 5271,
      "▁offices": 5272,
      "▁firms": 5273,
      "##issed": 5274,
      "▁site": 5275,
      "▁put": 5276,
      "▁assume": 5277,
      "▁designs": 5278,
      "▁client": 5279,
      "▁compon": 5280,
      "##tainly": 5281,
      "##lic": 5282,
      "##urity": 5283,
      "▁communities": 5284,
      "##eel": 5285,
      "▁jeep": 5286,
      "▁comput": 5287,
      "▁imple": 5288,
      "▁popcorn": 5289,
      "▁different": 5290,
      "▁department": 5291,
      "▁chim": 5292,
      "▁pe": 5293,
      "▁opposite": 5294,
      "▁mile": 5295,
      "▁represented": 5296,
      "##!!!!!!!!": 5297,
      "##vation": 5298,
      "▁drop": 5299,
      "▁absorb": 5300,
      "▁medicine": 5301,
      "▁daughter": 5302,
      "▁causes": 5303,
      "▁rev": 5304,
      "▁solutions": 5305,
      "▁recomm": 5306,
      "##ats": 5307,
      "##ame": 5308,
      "▁fellows": 5309,
      "▁fill": 5310,
      "▁allies": 5311,
      "▁writer": 5312,
      "▁copyright": 5313,
      "##ients": 5314,
      "##bir": 5315,
      "▁tax": 5316,
      "##jamas": 5317,
      "##illa": 5318,
      "▁question": 5319,
      "##derst": 5320,
      "##ledge": 5321,
      "▁race": 5322,
      "▁demonstrate": 5323,
      "▁tennis": 5324,
      "▁garden": 5325,
      "▁looking": 5326,
      "▁hoo": 5327,
      "▁happy": 5328,
      "▁beliefs": 5329,
      "##rent": 5330,
      "##acle": 5331,
      "▁ign": 5332,
      "##anced": 5333,
      "▁putting": 5334,
      "▁cover": 5335,
      "##egr": 5336,
      "▁songs": 5337,
      "##utation": 5338,
      "##owed": 5339,
      "##has": 5340,
      "##works": 5341,
      "▁compared": 5342,
      "##ison": 5343,
      "▁costs": 5344,
      ">": 5345,
      "▁reg": 5346,
      "▁seating": 5347,
      "##hic": 5348,
      "▁ord": 5349,
      "▁decl": 5350,
      "▁savings": 5351,
      "▁mic": 5352,
      "##ipl": 5353,
      "▁anal": 5354,
      "▁inf": 5355,
      "▁!!": 5356,
      "▁direction": 5357,
      "##ess": 5358,
      "▁agreed": 5359,
      "▁meant": 5360,
      "▁height": 5361,
      "##uce": 5362,
      "▁measured": 5363,
      "##enty": 5364,
      "▁paragraph": 5365,
      "##band": 5366,
      "▁transit": 5367,
      "▁force": 5368,
      "##alsa": 5369,
      "▁prepar": 5370,
      "▁pod": 5371,
      "▁zero": 5372,
      "▁assets": 5373,
      "▁back": 5374,
      "▁whil": 5375,
      "▁mechanic": 5376,
      "▁bright": 5377,
      "▁patterns": 5378,
      "##iveness": 5379,
      "▁quote": 5380,
      "▁moving": 5381,
      "##sul": 5382,
      "▁blown": 5383,
      "▁bow": 5384,
      "##orders": 5385,
      "▁information": 5386,
      "##ester": 5387,
      "##ansas": 5388,
      "##overed": 5389,
      "▁capability": 5390,
      "##ees": 5391,
      "##ely": 5392,
      "•": 5393,
      "##ibility": 5394,
      "▁desire": 5395,
      "##ered": 5396,
      "▁strategies": 5397,
      "▁between": 5398,
      "▁commitment": 5399,
      "▁lay": 5400,
      "##que": 5401,
      "▁mr.": 5402,
      "##ol": 5403,
      "▁including": 5404,
      "##ut": 5405,
      "##ented": 5406,
      "##ilosoph": 5407,
      "▁tourist": 5408,
      "^": 5409,
      "##aft": 5410,
      "##g": 5411,
      "##ory": 5412,
      "##iders": 5413,
      "▁dun": 5414,
      "▁ye": 5415,
      "▁also": 5416,
      "##uth": 5417,
      "##esthe": 5418,
      "▁camp": 5419,
      "▁weekends": 5420,
      "▁type": 5421,
      "▁happens": 5422,
      "▁require": 5423,
      "▁francisco": 5424,
      "▁fright": 5425,
      "▁laws": 5426,
      "▁da": 5427,
      "▁deals": 5428,
      "▁swww": 5429,
      "##rop": 5430,
      "▁closing": 5431,
      "▁climbed": 5432,
      "▁rocket": 5433,
      "▁highligh": 5434,
      "▁ju": 5435,
      "▁bas": 5436,
      "##mentation": 5437,
      "▁evolved": 5438,
      "▁puppy": 5439,
      "▁follow": 5440,
      "▁reserv": 5441,
      "##pop": 5442,
      "##udes": 5443,
      "▁licens": 5444,
      "##omp": 5445,
      "##ret": 5446,
      "##ancy": 5447,
      "▁coun": 5448,
      "▁housing": 5449,
      "▁interference": 5450,
      "##end": 5451,
      "▁microphone": 5452,
      "##uring": 5453,
      "##irst": 5454,
      "▁bridge": 5455,
      "▁editors": 5456,
      "▁passes": 5457,
      "##oon": 5458,
      "##war": 5459,
      "9": 5460,
      "##leum": 5461,
      "##υ": 5462,
      "##ulars": 5463,
      "▁strategy": 5464,
      "▁expertise": 5465,
      "▁owned": 5466,
      "##ues": 5467,
      "▁ris": 5468,
      "##ited": 5469,
      "▁soldiers": 5470,
      "##ified": 5471,
      "▁tel": 5472,
      "##.m.": 5473,
      "▁remind": 5474,
      "##pond": 5475,
      "▁noticed": 5476,
      "##ads": 5477,
      "▁either": 5478,
      "##als": 5479,
      "▁reading": 5480,
      "##amples": 5481,
      "▁san": 5482,
      "▁reception": 5483,
      "▁scenario": 5484,
      "▁concept": 5485,
      "▁audience": 5486,
      "▁playw": 5487,
      "▁ports": 5488,
      "▁roads": 5489,
      "##lication": 5490,
      "▁wo": 5491,
      "▁egg": 5492,
      "▁foli": 5493,
      "▁listing": 5494,
      "▁rice": 5495,
      "▁runs": 5496,
      "▁fun": 5497,
      "▁gardens": 5498,
      "▁second": 5499,
      "▁fav": 5500,
      "##d": 5501,
      "▁services": 5502,
      "▁pink": 5503,
      "▁emb": 5504,
      "~": 5505,
      "▁displ": 5506,
      "▁evac": 5507,
      "▁proper": 5508,
      "▁border": 5509,
      "##op": 5510,
      "##ha": 5511,
      "▁owe": 5512,
      "##ility": 5513,
      "##ops": 5514,
      "##ip": 5515,
      "▁slip": 5516,
      "▁duties": 5517,
      "▁prep": 5518,
      "##entions": 5519,
      "▁visit": 5520,
      "▁tree": 5521,
      "##’": 5522,
      "▁entities": 5523,
      "##ac": 5524,
      "▁commitments": 5525,
      "▁feat": 5526,
      "##memb": 5527,
      "▁expansion": 5528,
      "##ak": 5529,
      "▁produced": 5530,
      "▁vint": 5531,
      "##.d": 5532,
      "▁ques": 5533,
      "▁affect": 5534,
      "▁invol": 5535,
      "##----------------": 5536,
      "##–": 5537,
      "▁bee": 5538,
      "##ged": 5539,
      "▁anybody": 5540,
      "▁purposes": 5541,
      "▁separ": 5542,
      "▁believes": 5543,
      "▁qu": 5544,
      "▁turtle": 5545,
      "▁manner": 5546,
      "▁elim": 5547,
      "▁involve": 5548,
      "##ily": 5549,
      "▁meaning": 5550,
      "▁chees": 5551,
      "##me": 5552,
      "▁interconnect": 5553,
      "▁specialist": 5554,
      "▁inspection": 5555,
      "##izes": 5556,
      "##-------": 5557,
      "▁alongside": 5558,
      "▁enti": 5559,
      "▁fault": 5560,
      "▁knocked": 5561,
      "##apped": 5562,
      "▁recover": 5563,
      "▁rolled": 5564,
      "▁,": 5565,
      "▁november": 5566,
      "▁languages": 5567,
      "▁arrow": 5568,
      "##oc": 5569,
      "##pping": 5570,
      "▁university": 5571,
      "▁inter": 5572,
      "▁tests": 5573,
      "▁shape": 5574,
      "▁satellite": 5575,
      "▁breath": 5576,
      "▁deter": 5577,
      "▁filters": 5578,
      "▁note": 5579,
      "▁techn": 5580,
      "▁effort": 5581,
      "▁clos": 5582,
      "▁belon": 5583,
      "▁vari": 5584,
      "▁weake": 5585,
      "▁senators": 5586,
      "▁police": 5587,
      "▁rad": 5588,
      "▁the": 5589,
      "▁eggs": 5590,
      "▁sw": 5591,
      "▁200": 5592,
      "▁sales": 5593,
      "▁afford": 5594,
      "##ule": 5595,
      "▁investi": 5596,
      "▁love": 5597,
      "▁behind": 5598,
      "▁coc": 5599,
      "##ames": 5600,
      "▁dolphins": 5601,
      "▁pretty": 5602,
      "▁carol": 5603,
      "▁>": 5604,
      "##rops": 5605,
      "▁pre": 5606,
      "##ders": 5607,
      "▁thank": 5608,
      "▁exclu": 5609,
      "##laim": 5610,
      "▁rif": 5611,
      "▁rainbow": 5612,
      "▁believe": 5613,
      "▁technology": 5614,
      "##-d": 5615,
      "▁asylum": 5616,
      "##resent": 5617,
      "##otion": 5618,
      "▁kick": 5619,
      "##tch": 5620,
      "▁htt": 5621,
      "▁wit": 5622,
      "##oard": 5623,
      "▁ripped": 5624,
      "▁local": 5625,
      "▁allowing": 5626,
      "▁tu": 5627,
      "▁spotted": 5628,
      "▁make": 5629,
      "—": 5630,
      "▁non": 5631,
      "▁heav": 5632,
      "▁hearts": 5633,
      "##a": 5634,
      "##on": 5635,
      "▁worksh": 5636,
      "▁collect": 5637,
      "▁bull": 5638,
      "▁robot": 5639,
      "##urned": 5640,
      "##ean": 5641,
      "▁transport": 5642,
      "▁legacy": 5643,
      "▁!!!!!!!!!!": 5644,
      "▁pushed": 5645,
      "▁york": 5646,
      "##inating": 5647,
      "▁res": 5648,
      "##ama": 5649,
      "▁fell": 5650,
      "▁hell": 5651,
      "▁ignorance": 5652,
      "▁seems": 5653,
      "▁quickly": 5654,
      "▁cleaned": 5655,
      "##ensus": 5656,
      "##mo": 5657,
      "▁sticker": 5658,
      "##ked": 5659,
      "##ee": 5660,
      "##iency": 5661,
      "▁equipment": 5662,
      "##ivid": 5663,
      "##bed": 5664,
      "w": 5665,
      "▁rene": 5666,
      "▁half": 5667,
      "▁guidance": 5668,
      "▁eyes": 5669,
      "##hol": 5670,
      "##tim": 5671,
      "▁str": 5672,
      "▁initiative": 5673,
      "▁separate": 5674,
      "##artment": 5675,
      "▁mou": 5676,
      "▁continues": 5677,
      "▁b": 5678,
      "▁couch": 5679,
      ";": 5680,
      "!": 5681,
      "▁happ": 5682,
      "▁tag": 5683,
      "▁wall": 5684,
      "##ategy": 5685,
      "▁salon": 5686,
      "##ional": 5687,
      "##rit": 5688,
      "##ete": 5689,
      "##enders": 5690,
      "▁obs": 5691,
      "▁certificate": 5692,
      "##ord": 5693,
      "##huh": 5694,
      "▁joke": 5695,
      "▁gen": 5696,
      "##sus": 5697,
      "##ef": 5698,
      "##++++": 5699,
      "▁reform": 5700,
      "▁press": 5701,
      "##ential": 5702,
      "##irt": 5703,
      "▁woke": 5704,
      "##pt": 5705,
      "▁committee": 5706,
      "▁depth": 5707,
      "▁philosoph": 5708,
      "▁dim": 5709,
      "##ries": 5710,
      "▁traffic": 5711,
      "▁gir": 5712,
      "▁shock": 5713,
      "▁fabric": 5714,
      "▁check": 5715,
      "▁includes": 5716,
      "▁produce": 5717,
      "▁execute": 5718,
      "▁sant": 5719,
      "▁lasted": 5720,
      "##u": 5721,
      "▁sites": 5722,
      "▁heels": 5723,
      "▁equality": 5724,
      "##usions": 5725,
      "▁repeated": 5726,
      "▁growth": 5727,
      "##uality": 5728,
      "▁fed": 5729,
      "▁exists": 5730,
      "▁kind": 5731,
      "##gu": 5732,
      "▁forwar": 5733,
      "▁secon": 5734,
      "▁reduce": 5735,
      "▁bro": 5736,
      "▁defic": 5737,
      "##ier": 5738,
      "▁fro": 5739,
      "▁trade": 5740,
      "▁attend": 5741,
      "▁wiz": 5742,
      "▁documentation": 5743,
      "▁running": 5744,
      "▁garbage": 5745,
      "▁ties": 5746,
      "▁toes": 5747,
      "##lished": 5748,
      "▁walk": 5749,
      "▁mechan": 5750,
      "▁continue": 5751,
      "▁relations": 5752,
      "▁refri": 5753,
      "▁announced": 5754,
      "▁hams": 5755,
      "▁trial": 5756,
      "▁operations": 5757,
      "##ω": 5758,
      "▁tank": 5759,
      "▁nations": 5760,
      "##quis": 5761,
      "▁minister": 5762,
      "▁(": 5763,
      "▁column": 5764,
      "▁enter": 5765,
      "▁analyst": 5766,
      "▁ed": 5767,
      "##equ": 5768,
      "▁surprise": 5769,
      "▁is": 5770,
      "▁types": 5771,
      "▁transaction": 5772,
      "▁piv": 5773,
      "##ference": 5774,
      "▁ml": 5775,
      "▁outfit": 5776,
      "▁notic": 5777,
      "▁pat": 5778,
      "▁behaviors": 5779,
      "▁materials": 5780,
      "##auc": 5781,
      "▁demonstr": 5782,
      "▁matter": 5783,
      "▁correspond": 5784,
      "▁:": 5785,
      "##icke": 5786,
      "▁dollars": 5787,
      "▁arti": 5788,
      "▁codes": 5789,
      "▁mont": 5790,
      "▁statue": 5791,
      "##formed": 5792,
      "▁actress": 5793,
      "▁cooked": 5794,
      "▁valley": 5795,
      "▁haf": 5796,
      "▁continuing": 5797,
      "▁speak": 5798,
      "##athers": 5799,
      "▁participation": 5800,
      "▁!!!!!!!!!!!!!": 5801,
      "▁mayor": 5802,
      "▁model": 5803,
      "▁presented": 5804,
      "▁further": 5805,
      "##tly": 5806,
      "▁vers": 5807,
      "▁brush": 5808,
      "▁poet": 5809,
      "▁lists": 5810,
      "▁assu": 5811,
      "▁circle": 5812,
      "▁base": 5813,
      "▁hyp": 5814,
      "▁outf": 5815,
      "▁daddy": 5816,
      "▁http://": 5817,
      "##asses": 5818,
      "▁rem": 5819,
      "▁comed": 5820,
      "▁trail": 5821,
      "▁vegas": 5822,
      "▁<<": 5823,
      "##kle": 5824,
      "▁gi": 5825,
      "▁practice": 5826,
      "##ties": 5827,
      "##den": 5828,
      "▁-------------------------------------------------": 5829,
      "▁draft": 5830,
      "##iew": 5831,
      "##inter": 5832,
      "##mb": 5833,
      "##ocent": 5834,
      "##ver": 5835,
      "▁rot": 5836,
      "▁dessert": 5837,
      "▁individuals": 5838,
      "g": 5839,
      "▁provides": 5840,
      "▁transactions": 5841,
      "▁close": 5842,
      "▁ta": 5843,
      "▁imag": 5844,
      "▁asyl": 5845,
      "##aganda": 5846,
      "▁beans": 5847,
      "##ables": 5848,
      "▁means": 5849,
      "▁fit": 5850,
      "##ih": 5851,
      "▁labor": 5852,
      "##nus": 5853,
      "▁e-m": 5854,
      "▁era": 5855,
      "▁limit": 5856,
      "▁its": 5857,
      "▁permission": 5858,
      "▁sharing": 5859,
      "▁recognize": 5860,
      "▁driven": 5861,
      "##aling": 5862,
      "▁cru": 5863,
      "##ph": 5864,
      "##ose": 5865,
      "▁knee": 5866,
      "##iving": 5867,
      "▁energy": 5868,
      "▁earthqu": 5869,
      "▁saturday": 5870,
      "##isd": 5871,
      "▁requests": 5872,
      "##action": 5873,
      "▁spears": 5874,
      "▁datab": 5875,
      "▁affects": 5876,
      "##ix": 5877,
      "▁delete": 5878,
      "▁compar": 5879,
      "▁yours": 5880,
      "▁bea": 5881,
      "▁sover": 5882,
      "▁operating": 5883,
      "▁machines": 5884,
      "▁lot": 5885,
      "##400": 5886,
      "▁petroleum": 5887,
      "##/": 5888,
      "##ring": 5889,
      "▁af": 5890,
      "▁r": 5891,
      "▁cards": 5892,
      "▁mad": 5893,
      "▁veter": 5894,
      "##omed": 5895,
      "▁lin": 5896,
      "##fore": 5897,
      "▁profits": 5898,
      "▁folio": 5899,
      "##ensions": 5900,
      "▁spokes": 5901,
      "▁spray": 5902,
      "▁turning": 5903,
      "##urn": 5904,
      "##est": 5905,
      "▁tell": 5906,
      "▁flight": 5907,
      "##ies": 5908,
      "▁uncer": 5909,
      "▁advertising": 5910,
      "▁app": 5911,
      "▁aircraft": 5912,
      "▁pos": 5913,
      "▁noted": 5914,
      "▁players": 5915,
      "▁incitement": 5916,
      "▁cheese": 5917,
      "▁touch": 5918,
      "▁horse": 5919,
      "▁constitution": 5920,
      "▁initiatives": 5921,
      "▁inc": 5922,
      "##acy": 5923,
      "▁required": 5924,
      "##ary": 5925,
      "▁oatme": 5926,
      "▁picked": 5927,
      "▁be": 5928,
      "▁discovery": 5929,
      "##iff": 5930,
      "▁john": 5931,
      "▁seesaw": 5932,
      "##=": 5933,
      "▁marsh": 5934,
      "▁coordin": 5935,
      "##cross": 5936,
      "##7": 5937,
      "▁months": 5938,
      "▁it's": 5939,
      "▁thing": 5940,
      "##ly": 5941,
      "▁more": 5942,
      "4": 5943,
      "##h": 5944,
      "##sp": 5945,
      "##ɑ": 5946,
      "##app": 5947,
      "▁morning": 5948,
      "▁garage": 5949,
      "▁mil": 5950,
      "##corn": 5951,
      "▁.?": 5952,
      "▁aunt": 5953,
      "▁performing": 5954,
      "▁earli": 5955,
      "##enance": 5956,
      "▁!!!!!!!!!!!!!!!!!!!": 5957,
      "##lim": 5958,
      "▁object": 5959,
      "##inn": 5960,
      "▁drawer": 5961,
      "##ocked": 5962,
      "▁disc": 5963,
      "##onds": 5964,
      "##mans": 5965,
      "▁planes": 5966,
      "##order": 5967,
      "▁prem": 5968,
      "▁partic": 5969,
      "##ental": 5970,
      "▁situation": 5971,
      "▁scam": 5972,
      "▁exch": 5973,
      "▁center": 5974,
      "▁squi": 5975,
      "▁moments": 5976,
      "▁val": 5977,
      "▁-": 5978,
      "▁act": 5979,
      "▁correspondence": 5980,
      "▁capital": 5981,
      "▁departing": 5982,
      "##ived": 5983,
      "▁regard": 5984,
      "▁baltimore": 5985,
      "##town": 5986,
      "▁politicians": 5987,
      "▁''": 5988,
      "▁word": 5989,
      "▁contrib": 5990,
      "i": 5991,
      "▁les": 5992,
      "▁auth": 5993,
      "▁pitch": 5994,
      "##igned": 5995,
      "##ghts": 5996,
      "##isf": 5997,
      "##aced": 5998,
      "▁box": 5999,
      "▁grand": 6000,
      "▁class": 6001,
      "▁chair": 6002,
      "▁glasses": 6003,
      "▁some": 6004,
      "##ast": 6005,
      "##tr": 6006,
      "▁issue": 6007,
      "▁fact": 6008,
      "##oned": 6009,
      "##gets": 6010,
      "s": 6011,
      "##leg": 6012,
      "▁filter": 6013,
      "▁ing": 6014,
      "##eeds": 6015,
      "▁attachment": 6016,
      "▁left": 6017,
      "▁enj": 6018,
      "▁street": 6019,
      "▁quest": 6020,
      "##atis": 6021,
      "##alism": 6022,
      "▁challenges": 6023,
      "▁scholars": 6024,
      "▁perspective": 6025,
      "▁pancakes": 6026,
      "▁pass": 6027,
      "▁limousine": 6028,
      "▁bacon": 6029,
      "▁regards": 6030,
      "▁members": 6031,
      "##oy": 6032,
      "▁projected": 6033,
      "▁changing": 6034,
      "▁re-": 6035,
      "##ept": 6036,
      "##nly": 6037,
      "▁los": 6038,
      "▁bang": 6039,
      "##ws": 6040,
      "▁purchasing": 6041,
      "##$$": 6042,
      "▁slope": 6043,
      "##ords": 6044,
      "▁influence": 6045,
      "▁humanity": 6046,
      "▁affair": 6047,
      "▁passport": 6048,
      "▁yoga": 6049,
      "##na": 6050,
      "▁rec": 6051,
      "##akers": 6052,
      "▁shops": 6053,
      "▁uniform": 6054,
      "▁|--------+----------------": 6055,
      "##pl": 6056,
      "##rax": 6057,
      "##“": 6058,
      "▁winning": 6059,
      "##off": 6060,
      "##--------+----------------": 6061,
      "▁cinnamon": 6062,
      "▁have": 6063,
      "▁audi": 6064,
      "▁espec": 6065,
      "##spec": 6066,
      "▁fiel": 6067,
      "▁explos": 6068,
      "▁edit": 6069,
      "▁drive": 6070,
      "▁cookie": 6071,
      "▁occasions": 6072,
      "▁consider": 6073,
      "▁views": 6074,
      "▁conflic": 6075,
      "##pped": 6076,
      "##one": 6077,
      "▁gap": 6078,
      "▁banan": 6079,
      "▁capacity": 6080,
      "6": 6081,
      "##ertai": 6082,
      "▁alligator": 6083,
      "▁g": 6084,
      "▁abe": 6085,
      "▁tex": 6086,
      "▁sweetie": 6087,
      "▁skills": 6088,
      "▁reputation": 6089,
      "▁turns": 6090,
      "##rism": 6091,
      "▁humans": 6092,
      "▁theme": 6093,
      "▁promised": 6094,
      "▁dist": 6095,
      "▁shares": 6096,
      "▁international": 6097,
      "▁fant": 6098,
      "▁animal": 6099,
      "##owing": 6100,
      "##lor": 6101,
      "##ition": 6102,
      "▁spot": 6103,
      "▁bath": 6104,
      "▁eat": 6105,
      "▁consumer": 6106,
      "##ature": 6107,
      "▁breaking": 6108,
      "##int": 6109,
      "▁pieces": 6110,
      "▁problem": 6111,
      "▁soup": 6112,
      "▁several": 6113,
      "▁sense": 6114,
      "##ms": 6115,
      "▁maintaining": 6116,
      "▁cups": 6117,
      "▁new": 6118,
      "▁express": 6119,
      "##ient": 6120,
      "▁coop": 6121,
      "▁busy": 6122,
      "▁dall": 6123,
      "##es": 6124,
      "▁etc.": 6125,
      "▁east": 6126,
      "▁spoken": 6127,
      "▁seconds": 6128,
      "▁cargo": 6129,
      "##k": 6130,
      "▁jih": 6131,
      "▁cheapest": 6132,
      "##ei": 6133,
      "▁pers": 6134,
      "▁succeed": 6135,
      "##osen": 6136,
      "▁wire": 6137,
      "##umn": 6138,
      "±": 6139,
      "##phia": 6140,
      "##??": 6141,
      "##ili": 6142,
      "##ana": 6143,
      "▁appro": 6144,
      "▁install": 6145,
      "##ithstanding": 6146,
      "▁century": 6147,
      "▁bugs": 6148,
      "▁chef": 6149,
      "▁potty": 6150,
      "▁penny": 6151,
      "▁trains": 6152,
      "▁o'clock": 6153,
      "▁bl": 6154,
      "##isting": 6155,
      "##atures": 6156,
      "▁example": 6157,
      "▁license": 6158,
      "##ach": 6159,
      "▁added": 6160,
      "▁)": 6161,
      "▁gender": 6162,
      "##r": 6163,
      "▁leadership": 6164,
      "▁adventure": 6165,
      "▁casual": 6166,
      "▁iodine": 6167,
      "▁sem": 6168,
      "▁herself": 6169,
      "▁small": 6170,
      "▁to": 6171,
      "▁oven": 6172,
      "▁weather": 6173,
      "##ele": 6174,
      "##cept": 6175,
      "▁decided": 6176,
      "▁just": 6177,
      "▁compens": 6178,
      "▁assessment": 6179,
      "▁describing": 6180,
      "▁computer": 6181,
      "▁dinos": 6182,
      "##orp": 6183,
      "##ital": 6184,
      "▁airplane": 6185,
      "▁managing": 6186,
      "##0": 6187,
      "##care": 6188,
      "▁involvement": 6189,
      "c": 6190,
      "##illing": 6191,
      "▁teacher": 6192,
      "##abb": 6193,
      "▁requested": 6194,
      "▁wal": 6195,
      "##orld": 6196,
      "▁school": 6197,
      "▁achieved": 6198,
      "▁ant": 6199,
      "▁lego": 6200,
      "▁idea": 6201,
      "▁tonight": 6202,
      "▁exam": 6203,
      "▁techniques": 6204,
      "▁behavior": 6205,
      "▁brooms": 6206,
      "▁learn": 6207,
      "▁quantity": 6208,
      "##ou": 6209,
      "▁tend": 6210,
      "##ticip": 6211,
      "▁tale": 6212,
      "▁task": 6213,
      "▁consumption": 6214,
      "▁beer": 6215,
      "▁supermar": 6216,
      "##iod": 6217,
      "##ector": 6218,
      "##ics": 6219,
      "▁owl": 6220,
      "▁core": 6221,
      "##ves": 6222,
      "▁sound": 6223,
      "##oving": 6224,
      "▁red": 6225,
      "▁yoy": 6226,
      "##.doc": 6227,
      "▁sump": 6228,
      "##ague": 6229,
      "▁philadel": 6230,
      "##forcement": 6231,
      "▁z": 6232,
      "▁keep": 6233,
      "▁stones": 6234,
      "▁x3": 6235,
      "▁carry": 6236,
      "μ": 6237,
      "▁phenom": 6238,
      "▁hes": 6239,
      "##ust": 6240,
      "▁advantage": 6241,
      "▁broke": 6242,
      "▁surve": 6243,
      "▁happen": 6244,
      "▁recr": 6245,
      "▁ple": 6246,
      "##uc": 6247,
      "▁avail": 6248,
      "##0th": 6249,
      "▁position": 6250,
      "▁secret": 6251,
      "▁opinions": 6252,
      "▁male": 6253,
      "▁ursula": 6254,
      "##otw": 6255,
      "▁crawl": 6256,
      "##ousness": 6257,
      "▁pocket": 6258,
      "▁little": 6259,
      "▁connec": 6260,
      "▁as": 6261,
      "▁pep": 6262,
      "▁\"": 6263,
      "▁lake": 6264,
      "▁representation": 6265,
      "##pathy": 6266,
      "▁dat": 6267,
      "▁entertain": 6268,
      "##ruption": 6269,
      "▁silence": 6270,
      "▁guarant": 6271,
      "▁provin": 6272,
      "▁stretched": 6273,
      "##ecting": 6274,
      "▁impact": 6275,
      "▁objects": 6276,
      "▁outs": 6277,
      "▁planned": 6278,
      "▁know": 6279,
      "##ding": 6280,
      "##emic": 6281,
      "##ik": 6282,
      "▁architecture": 6283,
      "▁someth": 6284,
      "##b": 6285,
      "##ptions": 6286,
      "▁fuel": 6287,
      "▁hug": 6288,
      "##erest": 6289,
      "▁wine": 6290,
      "▁!!!!!": 6291,
      "▁times": 6292,
      "▁arguments": 6293,
      "##acted": 6294,
      "▁tow": 6295,
      "▁hear": 6296,
      "##eds": 6297,
      "##fic": 6298,
      "▁etc": 6299,
      "##log": 6300,
      "▁software": 6301,
      "▁poem": 6302,
      "▁prevent": 6303,
      "▁occurred": 6304,
      "▁counterpar": 6305,
      "▁saying": 6306,
      "▁mama": 6307,
      "▁survived": 6308,
      "▁moved": 6309,
      "▁10": 6310,
      "▁x": 6311,
      "▁dentist": 6312,
      "▁sizes": 6313,
      "▁editor": 6314,
      "▁inviting": 6315,
      "▁rays": 6316,
      "▁lad": 6317,
      "▁col": 6318,
      "ʻ": 6319,
      "▁estate": 6320,
      "▁now": 6321,
      "▁instr": 6322,
      "▁could": 6323,
      "▁mosquito": 6324,
      "▁denti": 6325,
      "▁best": 6326,
      "▁shell": 6327,
      "▁waiting": 6328,
      "##oph": 6329,
      "▁***": 6330,
      "##esaw": 6331,
      "▁reflect": 6332,
      "▁stirrup": 6333,
      "##elly": 6334,
      "▁shown": 6335,
      "##**": 6336,
      "▁iron": 6337,
      "##ades": 6338,
      "▁dy": 6339,
      "##rong": 6340,
      "▁********": 6341,
      "▁house": 6342,
      "▁hist": 6343,
      "##—": 6344,
      "▁ne": 6345,
      "▁manufactur": 6346,
      "##ech": 6347,
      "##^": 6348,
      "▁universe": 6349,
      "▁ton": 6350,
      "▁–": 6351,
      "▁tar": 6352,
      "##ints": 6353,
      "##either": 6354,
      "▁hers": 6355,
      "▁'d": 6356,
      "▁winter": 6357,
      "##ligence": 6358,
      "▁secure": 6359,
      "▁listened": 6360,
      "▁responsibility": 6361,
      "▁assistant": 6362,
      "##lers": 6363,
      "▁things": 6364,
      "▁exhib": 6365,
      "▁cult": 6366,
      "▁chasing": 6367,
      "▁films": 6368,
      "▁cove": 6369,
      "▁grandm": 6370,
      "▁experiences": 6371,
      "▁cracker": 6372,
      "▁extrem": 6373,
      "##titudes": 6374,
      "▁increased": 6375,
      "▁grit": 6376,
      "▁comb": 6377,
      "▁pix": 6378,
      "▁repe": 6379,
      "##str": 6380,
      "##hes": 6381,
      "▁panel": 6382,
      "##iced": 6383,
      "▁grav": 6384,
      "▁dressed": 6385,
      "▁attach": 6386,
      "▁dece": 6387,
      "▁.........": 6388,
      "▁underm": 6389,
      "##'": 6390,
      "▁den": 6391,
      "▁bringing": 6392,
      "▁less": 6393,
      "▁file": 6394,
      "▁pad": 6395,
      "▁study": 6396,
      "▁quarter": 6397,
      "▁at": 6398,
      "▁emissions": 6399,
      "▁laughed": 6400,
      "▁forced": 6401,
      "▁legislation": 6402,
      "▁distur": 6403,
      "▁pasta": 6404,
      "▁begins": 6405,
      "▁game": 6406,
      "##selves": 6407,
      "▁cliff": 6408,
      "##ax": 6409,
      "▁certai": 6410,
      "▁protected": 6411,
      "▁aw": 6412,
      "▁come": 6413,
      ":": 6414,
      "▁sister": 6415,
      "▁emerged": 6416,
      "▁arri": 6417,
      "▁w": 6418,
      "▁throughout": 6419,
      "##vement": 6420,
      "▁boys": 6421,
      "▁civili": 6422,
      "▁!!!!": 6423,
      "▁why": 6424,
      "▁finally": 6425,
      "▁library": 6426,
      "##aming": 6427,
      "##\"": 6428,
      "##ult": 6429,
      "▁searching": 6430,
      "##om": 6431,
      "##form": 6432,
      "▁implem": 6433,
      "▁diego": 6434,
      "##????": 6435,
      "o": 6436,
      "▁fore": 6437,
      "▁selling": 6438,
      "##mer": 6439,
      "▁prac": 6440,
      "▁subjects": 6441,
      "▁appl": 6442,
      "▁occup": 6443,
      "▁abuse": 6444,
      "▁stops": 6445,
      "##asp": 6446,
      "##oral": 6447,
      "▁jos": 6448,
      "▁human": 6449,
      "▁.": 6450,
      "##sure": 6451,
      "▁cl": 6452,
      "▁george": 6453,
      "▁distinguish": 6454,
      "##ployment": 6455,
      "▁receip": 6456,
      "▁should": 6457,
      "##bow": 6458,
      "▁cupboard": 6459,
      "▁worth": 6460,
      "▁reviews": 6461,
      "##ondon": 6462,
      "▁convers": 6463,
      "▁moves": 6464,
      "▁suit": 6465,
      "▁dignity": 6466,
      "▁ride": 6467,
      "##ights": 6468,
      "▁wond": 6469,
      "▁tom": 6470,
      "▁weight": 6471,
      "▁weekday": 6472,
      "▁contest": 6473,
      "##ablish": 6474,
      "▁contents": 6475,
      "▁mixture": 6476,
      "▁it": 6477,
      "▁issues": 6478,
      "▁lamp": 6479,
      "▁pump": 6480,
      "▁orlando": 6481,
      "▁cent": 6482,
      "##eet": 6483,
      "▁cartoon": 6484,
      "##olving": 6485,
      "[CLS]": 6486,
      "##und": 6487,
      "▁eating": 6488,
      "▁satel": 6489,
      "##anded": 6490,
      "▁stuck": 6491,
      "▁sl": 6492,
      "▁errors": 6493,
      "▁sar": 6494,
      "▁swing": 6495,
      "▁brief": 6496,
      "▁arg": 6497,
      "▁mark": 6498,
      "##inction": 6499,
      "▁classes": 6500,
      "▁organiz": 6501,
      "▁sel": 6502,
      "##gre": 6503,
      "▁that": 6504,
      "##ports": 6505,
      "▁wildlife": 6506,
      "▁dropped": 6507,
      "▁presentation": 6508,
      "##night": 6509,
      "▁among": 6510,
      "▁neck": 6511,
      "▁traff": 6512,
      "▁country": 6513,
      "▁0": 6514,
      "▁conf": 6515,
      "▁cons": 6516,
      "▁answer": 6517,
      "▁comp": 6518,
      "▁perceived": 6519,
      "▁wiki": 6520,
      "▁cli": 6521,
      "▁anti": 6522,
      "▁****": 6523,
      "▁communication": 6524,
      "▁conversation": 6525,
      "▁courses": 6526,
      "##bit": 6527,
      "▁undertake": 6528,
      "▁sink": 6529,
      "▁attacks": 6530,
      "▁head": 6531,
      "▁citiz": 6532,
      "▁prefer": 6533,
      "##uma": 6534,
      "▁lab": 6535,
      "##ends": 6536,
      "##ures": 6537,
      "##tt": 6538,
      "▁phoenix": 6539,
      "##ised": 6540,
      "##ai": 6541,
      "▁carriage": 6542,
      "▁fort": 6543,
      "▁uncertainty": 6544,
      "▁remarks": 6545,
      "▁seal": 6546,
      "▁movie": 6547,
      "▁une": 6548,
      "▁room": 6549,
      "##aked": 6550,
      "▁pledged": 6551,
      "▁ways": 6552,
      "²": 6553,
      "▁allows": 6554,
      "▁towel": 6555,
      "▁stir": 6556,
      "▁accep": 6557,
      "▁against": 6558,
      "▁19": 6559,
      "▁robo": 6560,
      "▁dough": 6561,
      "▁projects": 6562,
      "▁jeans": 6563,
      "▁sug": 6564,
      "▁incl": 6565,
      "##iti": 6566,
      "▁boyfriend": 6567,
      "▁journal": 6568,
      "▁diff": 6569,
      "▁parts": 6570,
      "▁evidence": 6571,
      "▁fo": 6572,
      "▁menti": 6573,
      "▁welf": 6574,
      "▁river": 6575,
      "▁use": 6576,
      "▁remove": 6577,
      "▁surpr": 6578,
      "▁reason": 6579,
      "▁wagon": 6580,
      "▁pub": 6581,
      "▁stri": 6582,
      "▁entity": 6583,
      "▁around": 6584,
      "▁food": 6585,
      "▁enjoy": 6586,
      "▁stairs": 6587,
      "▁rever": 6588,
      "▁reveal": 6589,
      "▁artwork": 6590,
      "▁wednesdays": 6591,
      "##mal": 6592,
      "▁guinea": 6593,
      "##bre": 6594,
      "▁lock": 6595,
      "▁acqui": 6596,
      "▁page": 6597,
      "▁heel": 6598,
      "▁rele": 6599,
      "##orth": 6600,
      "▁companies": 6601,
      "##nect": 6602,
      "▁evaluation": 6603,
      "▁society": 6604,
      "▁park": 6605,
      "▁datash": 6606,
      "▁vehic": 6607,
      "▁taught": 6608,
      "▁others": 6609,
      "##appy": 6610,
      "▁printed": 6611,
      "▁portion": 6612,
      "▁checks": 6613,
      "##ift": 6614,
      "▁union": 6615,
      "▁portr": 6616,
      "##]": 6617,
      "▁earned": 6618,
      "▁girl": 6619,
      "▁works": 6620,
      "##ros": 6621,
      "▁christ": 6622,
      "▁mac": 6623,
      "▁duty": 6624,
      "##itions": 6625,
      "##tw": 6626,
      "▁manag": 6627,
      "▁cave": 6628,
      "▁listed": 6629,
      "▁magaz": 6630,
      "▁crying": 6631,
      "▁dee": 6632,
      "▁duel": 6633,
      "##igg": 6634,
      "▁bronze": 6635,
      "##rup": 6636,
      "▁geor": 6637,
      "▁owner": 6638,
      "▁thousands": 6639,
      "▁criteria": 6640,
      "##+----------------": 6641,
      "▁say": 6642,
      "##et": 6643,
      "##gs": 6644,
      "σ": 6645,
      "##lite": 6646,
      "▁pl": 6647,
      "##lies": 6648,
      "▁drawing": 6649,
      "##aker": 6650,
      "▁opening": 6651,
      "▁grounds": 6652,
      "▁signific": 6653,
      "▁birthday": 6654,
      "##ields": 6655,
      "▁scribble": 6656,
      "##º": 6657,
      "▁followed": 6658,
      "▁findings": 6659,
      "▁wealth": 6660,
      "▁night": 6661,
      "▁row": 6662,
      "▁concer": 6663,
      "▁sugar": 6664,
      "▁remained": 6665,
      "▁dou": 6666,
      "▁designed": 6667,
      "▁pal": 6668,
      "▁religion": 6669,
      "▁psych": 6670,
      "▁incre": 6671,
      "##ʊ": 6672,
      "##iled": 6673,
      "##z": 6674,
      "##ruc": 6675,
      "▁abbre": 6676,
      "▁developer": 6677,
      "▁crackers": 6678,
      "##come": 6679,
      "##nel": 6680,
      "▁conferences": 6681,
      "▁a": 6682,
      "▁needs": 6683,
      "##d-": 6684,
      "##ape": 6685,
      "[SEP]": 6686,
      "##alk": 6687,
      "▁wi": 6688,
      "▁were": 6689,
      "▁expecting": 6690,
      "▁leaving": 6691,
      "▁concerned": 6692,
      "▁missing": 6693,
      "*": 6694,
      "▁due": 6695,
      "##oh": 6696,
      "▁+": 6697,
      "▁bal": 6698,
      "##tering": 6699,
      "##gr": 6700,
      "▁combined": 6701,
      "▁balloon": 6702,
      "▁conce": 6703,
      "##ission": 6704,
      "##ks": 6705,
      "▁wa": 6706,
      "▁excellent": 6707,
      "▁affairs": 6708,
      "▁du": 6709,
      "▁inside": 6710,
      "▁user": 6711,
      "▁identified": 6712,
      "##tives": 6713,
      "▁throwing": 6714,
      "▁depos": 6715,
      "##ch": 6716,
      "▁withd": 6717,
      "▁supp": 6718,
      "▁scheduled": 6719,
      "▁many": 6720,
      "##put": 6721,
      "▁bel": 6722,
      "ə": 6723,
      "▁focused": 6724,
      "▁digging": 6725,
      "▁listen": 6726,
      "##anim": 6727,
      "▁coming": 6728,
      "▁link": 6729,
      "▁gl": 6730,
      "▁dav": 6731,
      "▁else": 6732,
      "##orms": 6733,
      "▁*****": 6734,
      "##bol": 6735,
      "▁bananas": 6736,
      "▁establishment": 6737,
      "▁history": 6738,
      "▁tested": 6739,
      "##veral": 6740,
      "▁seventh": 6741,
      "▁knowledge": 6742,
      "▁noon": 6743,
      "##ithst": 6744,
      "▁setup": 6745,
      "▁rug": 6746,
      "##as": 6747,
      "##eland": 6748,
      "▁nov": 6749,
      "▁function": 6750,
      "▁tur": 6751,
      "▁troops": 6752,
      "##ification": 6753,
      "▁um": 6754,
      "##igh": 6755,
      "▁beat": 6756,
      "▁following": 6757,
      "##oting": 6758,
      "##ond": 6759,
      "▁seem": 6760,
      "▁ma": 6761,
      "▁dess": 6762,
      "▁crayon": 6763,
      "▁extent": 6764,
      "▁camel": 6765,
      "▁not": 6766,
      "▁citi": 6767,
      "▁produces": 6768,
      "##adle": 6769,
      "##side": 6770,
      "##ligh": 6771,
      "##aint": 6772,
      "▁upon": 6773,
      "▁processes": 6774,
      "▁developments": 6775,
      "▁surf": 6776,
      "▁ba": 6777,
      "##ati": 6778,
      "▁inhabit": 6779,
      "▁board": 6780,
      "▁dra": 6781,
      "▁sch": 6782,
      "▁nurs": 6783,
      "ρ": 6784,
      "##olution": 6785,
      "##aded": 6786,
      "▁payment": 6787,
      "▁sequ": 6788,
      "##med": 6789,
      "▁destin": 6790,
      "▁vill": 6791,
      "##scope": 6792,
      "▁poles": 6793,
      "▁poss": 6794,
      "##ide": 6795,
      "▁myself": 6796,
      "▁po": 6797,
      "##owled": 6798,
      "▁way": 6799,
      "▁prov": 6800,
      "##erv": 6801,
      "▁puzz": 6802,
      "##mely": 6803,
      "▁dig": 6804,
      "▁highly": 6805,
      "▁hoc": 6806,
      "▁ended": 6807,
      "▁lines": 6808,
      "▁soap": 6809,
      "##olves": 6810,
      "▁gon": 6811,
      "▁expl": 6812,
      "##ville": 6813,
      "▁years": 6814,
      "▁mili": 6815,
      "▁fan": 6816,
      "##ether": 6817,
      "▁consu": 6818,
      "▁cred": 6819,
      "▁witch": 6820,
      "▁comparison": 6821,
      "▁grammar": 6822,
      "▁commun": 6823,
      "▁gulf": 6824,
      "##uum": 6825,
      "##amed": 6826,
      "▁organization": 6827,
      "▁hamster": 6828,
      "▁mach": 6829,
      "▁con": 6830,
      "##aos": 6831,
      "▁monks": 6832,
      "▁soccer": 6833,
      "▁amer": 6834,
      "▁revision": 6835,
      "▁sing": 6836,
      "▁grad": 6837,
      "▁classroom": 6838,
      "▁smile": 6839,
      "▁bars": 6840,
      "▁recently": 6841,
      "##ump": 6842,
      "▁age": 6843,
      "▁started": 6844,
      "▁tool": 6845,
      "▁pi": 6846,
      "▁scientists": 6847,
      "##lus": 6848,
      "##”": 6849,
      "▁imagine": 6850,
      "##bably": 6851,
      "▁another": 6852,
      "▁lead": 6853,
      "▁tolerate": 6854,
      "▁van": 6855,
      "▁fans": 6856,
      "▁issued": 6857,
      "##com": 6858,
      "▁fishing": 6859,
      "##inally": 6860,
      "##ective": 6861,
      "▁7": 6862,
      "▁suffer": 6863,
      "##anda": 6864,
      "##ections": 6865,
      "▁breast": 6866,
      "##urday": 6867,
      "=": 6868,
      "▁above": 6869,
      "▁match": 6870,
      "▁sec": 6871,
      "▁attention": 6872,
      "▁sonnets": 6873,
      "▁el": 6874,
      "▁thinks": 6875,
      "▁gu": 6876,
      "▁mosqu": 6877,
      "##oma": 6878,
      "▁aspect": 6879,
      "▁chang": 6880,
      "##umes": 6881,
      "▁dialog": 6882,
      "##ming": 6883,
      "▁music": 6884,
      "▁west": 6885,
      "##ado": 6886,
      "▁dail": 6887,
      "##????????????????": 6888,
      "▁sun": 6889,
      "##overn": 6890,
      "▁befor": 6891,
      "▁visiting": 6892,
      "▁cere": 6893,
      "▁venture": 6894,
      "##els": 6895,
      "▁chapter": 6896,
      "▁tic": 6897,
      "▁purch": 6898,
      "##icul": 6899,
      "##eding": 6900,
      "▁dolly": 6901,
      "##hin": 6902,
      "▁ball": 6903,
      "▁invited": 6904,
      "##arm": 6905,
      "▁exchange": 6906,
      "▁ser": 6907,
      "▁child": 6908,
      "▁taking": 6909,
      "▁career": 6910,
      "▁roles": 6911,
      "▁dw": 6912,
      "▁shadows": 6913,
      "▁saving": 6914,
      "▁gifts": 6915,
      "▁safety": 6916,
      "##educ": 6917,
      "▁seattle": 6918,
      "##gel": 6919,
      "▁replace": 6920,
      "▁looked": 6921,
      "▁inj": 6922,
      "▁butter": 6923,
      "▁flu": 6924,
      "▁look": 6925,
      "▁spre": 6926,
      "▁webs": 6927,
      "▁revealed": 6928,
      "##lled": 6929,
      "▁rh": 6930,
      "▁ocean": 6931,
      "▁exposed": 6932,
      "##ue": 6933,
      "▁frid": 6934,
      "##ound": 6935,
      "▁calendar": 6936,
      "▁gn": 6937,
      "▁subscri": 6938,
      "##mented": 6939,
      "▁bumble": 6940,
      "▁places": 6941,
      "▁available": 6942,
      "##lando": 6943,
      "▁began": 6944,
      "▁two": 6945,
      "▁ent": 6946,
      "##ʃ": 6947,
      "▁respect": 6948,
      "▁lim": 6949,
      "▁cutting": 6950,
      "▁interviewed": 6951,
      "##ley": 6952,
      "▁conclusions": 6953,
      "▁household": 6954,
      "▁employment": 6955,
      "▁aug": 6956,
      "##inate": 6957,
      "▁curves": 6958,
      "▁district": 6959,
      "##ˈ": 6960,
      "▁level": 6961,
      "##cre": 6962,
      "▁ke": 6963,
      "▁veget": 6964,
      "▁))": 6965,
      "▁again": 6966,
      "▁discip": 6967,
      "▁drank": 6968,
      "▁questions": 6969,
      "▁census": 6970,
      "▁tragedy": 6971,
      "▁requirement": 6972,
      "▁laying": 6973,
      "▁effect": 6974,
      "▁rabbits": 6975,
      "▁discussions": 6976,
      "##tered": 6977,
      "▁line": 6978,
      "▁disaster": 6979,
      "▁strengthen": 6980,
      "▁mon": 6981,
      "▁low": 6982,
      "##lu": 6983,
      "##oot": 6984,
      "##ums": 6985,
      "▁climbing": 6986,
      "▁divisions": 6987,
      "▁departure": 6988,
      "##ambment": 6989,
      "▁inform": 6990,
      "##ness": 6991,
      "▁stability": 6992,
      "▁pencil": 6993,
      "##etter": 6994,
      "##>": 6995,
      "▁coverage": 6996,
      "▁bomb": 6997,
      "▁madam": 6998,
      "▁wat": 6999,
      "▁spider": 7000,
      "▁mich": 7001,
      "▁te": 7002,
      "##erved": 7003,
      "▁routes": 7004,
      "##arch": 7005,
      "▁witn": 7006,
      "▁advant": 7007,
      "##ish": 7008,
      "##con": 7009,
      "▁of": 7010,
      "▁net": 7011,
      "##wood": 7012,
      "▁ozone": 7013,
      "▁ceremony": 7014,
      "▁sli": 7015,
      "▁lost": 7016,
      "▁chick": 7017,
      "▁terr": 7018,
      "▁murders": 7019,
      "▁yo": 7020,
      "▁iod": 7021,
      "▁tour": 7022,
      "##ising": 7023,
      "▁proced": 7024,
      "▁mem": 7025,
      "▁common": 7026,
      "▁plus": 7027,
      "▁expected": 7028,
      "▁cries": 7029,
      "##oney": 7030,
      "▁vac": 7031,
      "▁versions": 7032,
      "##imum": 7033,
      "▁build": 7034,
      "▁fashion": 7035,
      "▁drops": 7036,
      "▁group": 7037,
      "▁*": 7038,
      "▁att": 7039,
      "▁sha": 7040,
      "▁bother": 7041,
      "▁improving": 7042,
      "▁estimate": 7043,
      "▁goo": 7044,
      "##cles": 7045,
      "▁background": 7046,
      "##ling": 7047,
      "▁santorum": 7048,
      "▁risks": 7049,
      "▁flowers": 7050,
      "▁sale": 7051,
      "▁applies": 7052,
      "▁sarah": 7053,
      "▁lifesty": 7054,
      "▁view": 7055,
      "##ds": 7056,
      "▁wom": 7057,
      "▁remember": 7058,
      "▁providing": 7059,
      "▁terms": 7060,
      "▁shelf": 7061,
      "▁brand": 7062,
      "##ency": 7063,
      "▁ste": 7064,
      "▁enthus": 7065,
      "▁quoted": 7066,
      "▁del": 7067,
      "▁volunte": 7068,
      "▁my": 7069,
      "▁d": 7070,
      "▁indust": 7071,
      "▁remaining": 7072,
      "##iction": 7073,
      "▁aut": 7074,
      "▁expressed": 7075,
      "▁directed": 7076,
      "##vel": 7077,
      "##tery": 7078,
      "▁co-": 7079,
      "##inded": 7080,
      "▁education": 7081,
      "▁your": 7082,
      "▁batteries": 7083,
      "▁roc": 7084,
      "▁deteri": 7085,
      "##iated": 7086,
      "▁enc": 7087,
      "##1": 7088,
      "▁flash": 7089,
      "▁difficulties": 7090,
      "##ication": 7091,
      "▁det": 7092,
      "▁critic": 7093,
      "##aped": 7094,
      "▁supporting": 7095,
      "▁hall": 7096,
      "{": 7097,
      "▁ideas": 7098,
      "▁proposed": 7099,
      "▁early": 7100,
      "▁dilem": 7101,
      "▁gener": 7102,
      "##ps": 7103,
      "▁furn": 7104,
      "▁serve": 7105,
      "##row": 7106,
      "##_": 7107,
      "▁change": 7108,
      "▁convinced": 7109,
      "▁industry": 7110,
      "▁husband": 7111,
      "▁blink": 7112,
      "▁pred": 7113,
      "▁’’": 7114,
      "▁wind": 7115,
      "▁’m": 7116,
      "▁jan": 7117,
      "▁volley": 7118,
      "▁inquiry": 7119,
      "▁chew": 7120,
      "▁sandwich": 7121,
      "##scrib": 7122,
      "▁intend": 7123,
      "▁art": 7124,
      "##irc": 7125,
      "▁tops": 7126,
      "▁focusing": 7127,
      "##.xls": 7128,
      "##der": 7129,
      "▁airl": 7130,
      "▁chicago": 7131,
      "▁enab": 7132,
      "▁share": 7133,
      "▁friendship": 7134,
      "##astic": 7135,
      "▁ind": 7136,
      "▁extr": 7137,
      "▁horsie": 7138,
      "##li": 7139,
      "##arture": 7140,
      "##icated": 7141,
      "▁air": 7142,
      "▁sym": 7143,
      "##olved": 7144,
      "k": 7145,
      "▁came": 7146,
      "▁’d": 7147,
      "▁officers": 7148,
      "▁event": 7149,
      "▁roman": 7150,
      "▁intel": 7151,
      "▁holding": 7152,
      "▁carrot": 7153,
      "▁tractor": 7154,
      "▁girls": 7155,
      "▁reducing": 7156,
      "▁reven": 7157,
      "▁pres": 7158,
      "##ended": 7159,
      "▁evenings": 7160,
      "▁settings": 7161,
      "▁cle": 7162,
      "▁sock": 7163,
      "▁aims": 7164,
      "▁ps": 7165,
      "▁mys": 7166,
      "▁happened": 7167,
      "##ities": 7168,
      "▁access": 7169,
      "▁forms": 7170,
      "##ater": 7171,
      "▁because": 7172,
      "▁aid": 7173,
      "▁confirmed": 7174,
      "##erful": 7175,
      "##fts": 7176,
      "▁lik": 7177,
      "▁apples": 7178,
      "▁!?": 7179,
      "▁students": 7180,
      "▁species": 7181,
      "▁interpret": 7182,
      "▁sunday": 7183,
      "▁bite": 7184,
      "▁advis": 7185,
      "▁counterfeit": 7186,
      "▁latest": 7187,
      "##tive": 7188,
      "##mping": 7189,
      "▁certi": 7190,
      "▁characters": 7191,
      "▁pointing": 7192,
      "▁paused": 7193,
      "##augh": 7194,
      "▁supposed": 7195,
      "##acter": 7196,
      "▁dec": 7197,
      "##alities": 7198,
      "##lief": 7199,
      "##onstr": 7200,
      "##titude": 7201,
      "▁records": 7202,
      "▁bet": 7203,
      "##osing": 7204,
      "##re": 7205,
      "▁sour": 7206,
      "▁shoot": 7207,
      "▁sew": 7208,
      "##zen": 7209,
      "▁fil": 7210,
      "▁festiv": 7211,
      "##olis": 7212,
      "▁setting": 7213,
      "▁ref": 7214,
      "▁can": 7215,
      "▁achievement": 7216,
      "▁cupcakes": 7217,
      "▁demand": 7218,
      "▁choice": 7219,
      "▁funded": 7220,
      "##lly": 7221,
      "▁believed": 7222,
      "##ulated": 7223,
      "▁plants": 7224,
      "▁spill": 7225,
      "▁tension": 7226,
      "##pos": 7227,
      "▁market": 7228,
      "##iv": 7229,
      "##------->": 7230,
      "▁sme": 7231,
      "▁loans": 7232,
      "▁chairman": 7233,
      "##alt": 7234,
      "▁parking": 7235,
      "▁guid": 7236,
      "##its": 7237,
      "▁instead": 7238,
      "▁plastic": 7239,
      "▁difficul": 7240,
      "▁categ": 7241,
      "##namon": 7242,
      "##nesses": 7243,
      "▁addressing": 7244,
      "▁regret": 7245,
      "##elf": 7246,
      "▁discre": 7247,
      "▁confusion": 7248,
      "▁fu": 7249,
      "▁without": 7250,
      "▁apol": 7251,
      "▁along": 7252,
      "##ial": 7253,
      "##vers": 7254,
      "▁cincinn": 7255,
      "▁wheel": 7256,
      "▁determine": 7257,
      "▁fles": 7258,
      "##cake": 7259,
      "##ters": 7260,
      "▁king": 7261,
      "##eration": 7262,
      "##ung": 7263,
      "##alized": 7264,
      "##}": 7265,
      "##per": 7266,
      "##sters": 7267,
      "▁pic": 7268,
      "▁performance": 7269,
      "##----------": 7270,
      "▁entry": 7271,
      "##urs": 7272,
      "▁carro": 7273,
      "▁fame": 7274,
      "▁weap": 7275,
      "##oint": 7276,
      "▁stat": 7277,
      "▁admitted": 7278,
      "▁diapers": 7279,
      "▁princ": 7280,
      "##ght": 7281,
      "##house": 7282,
      "▁a.m.": 7283,
      "##.x": 7284,
      "8": 7285,
      "▁interested": 7286,
      "##velop": 7287,
      "▁sect": 7288,
      "##adas": 7289,
      "▁accomp": 7290,
      "##edness": 7291,
      "##cess": 7292,
      "##mited": 7293,
      "##ouch": 7294,
      "##po": 7295,
      "##eting": 7296,
      "##body": 7297,
      "##orm": 7298,
      "▁dresses": 7299,
      "▁cup": 7300,
      "▁given": 7301,
      "▁parties": 7302,
      "▁suc": 7303,
      "▁turn": 7304,
      "▁value": 7305,
      "##iate": 7306,
      "▁plaintiff": 7307,
      "▁fax": 7308,
      "▁parad": 7309,
      "##za": 7310,
      "▁man": 7311,
      "▁carrying": 7312,
      "##ain": 7313,
      "▁books": 7314,
      "▁distinction": 7315,
      "##tsbur": 7316,
      "▁much": 7317,
      "▁collecting": 7318,
      "▁franc": 7319,
      "▁ins": 7320,
      "▁prote": 7321,
      "▁rest": 7322,
      "##ette": 7323,
      "▁atmosphere": 7324,
      "▁lawyers": 7325,
      "##ense": 7326,
      "##abit": 7327,
      "▁road": 7328,
      "▁mentioned": 7329,
      "▁argu": 7330,
      "▁gate": 7331,
      "##sts": 7332,
      "▁adop": 7333,
      "▁dream": 7334,
      "▁had": 7335,
      "▁1": 7336,
      "▁theirs": 7337,
      "▁process": 7338,
      "▁processing": 7339,
      "▁freedom": 7340,
      "##bb": 7341,
      "▁competition": 7342,
      "##list": 7343,
      "##eness": 7344,
      "▁crossing": 7345,
      "▁north": 7346,
      "▁chess": 7347,
      "##line": 7348,
      "▁has": 7349,
      "▁woud": 7350,
      "##ʻ": 7351,
      "▁`s": 7352,
      "▁rubber": 7353,
      "▁nor": 7354,
      "▁metal": 7355,
      "▁dipl": 7356,
      "##option": 7357,
      "##rec": 7358,
      "▁observation": 7359,
      "▁diplom": 7360,
      "##urch": 7361,
      "▁clear": 7362,
      "##ated": 7363,
      "▁ass": 7364,
      "##edom": 7365,
      "##ote": 7366,
      "▁sep": 7367,
      "▁thou": 7368,
      "▁uvb": 7369,
      "##aus": 7370,
      "▁suggested": 7371,
      "▁ex": 7372,
      "▁dollie": 7373,
      "▁population": 7374,
      "▁palm": 7375,
      "▁banj": 7376,
      "▁wash": 7377,
      "##ri": 7378,
      "▁lou": 7379,
      "▁yourselves": 7380,
      "##cinn": 7381,
      "▁licensed": 7382,
      "▁settled": 7383,
      "##----": 7384,
      "▁civ": 7385,
      "▁administr": 7386,
      "▁pray": 7387,
      "##work": 7388,
      "▁insur": 7389,
      "▁ketchup": 7390,
      "▁dallas": 7391,
      "▁duck": 7392,
      "▁creation": 7393,
      "▁creating": 7394,
      "▁ol": 7395,
      "▁trips": 7396,
      "▁addition": 7397,
      "##ocado": 7398,
      "▁cohesion": 7399,
      "▁went": 7400,
      "▁mut": 7401,
      "##uch": 7402,
      "▁hanging": 7403,
      "▁obt": 7404,
      "▁viewed": 7405,
      "▁facul": 7406,
      "▁admin": 7407,
      "▁tou": 7408,
      "▁bug": 7409,
      "▁agreement": 7410,
      "▁din": 7411,
      "▁regulations": 7412,
      "##lection": 7413,
      "##ices": 7414,
      "▁finish": 7415,
      "▁poin": 7416,
      "▁tea": 7417,
      "▁<": 7418,
      "▁try": 7419,
      "▁guacamole": 7420,
      "▁bicycle": 7421,
      "▁wood": 7422,
      "▁operators": 7423,
      "▁execution": 7424,
      "▁dan": 7425,
      "##ther": 7426,
      "▁recommend": 7427,
      ")": 7428,
      "▁sisters": 7429,
      "▁exec": 7430,
      "▁fix": 7431,
      "▁pronounced": 7432,
      "▁keys": 7433,
      "##im": 7434,
      "##qu": 7435,
      "▁schol": 7436,
      "▁propaganda": 7437,
      "▁minute": 7438,
      "##thing": 7439,
      "▁impro": 7440,
      "##arian": 7441,
      "▁natural": 7442,
      "▁begin": 7443,
      "▁tast": 7444,
      "▁adj": 7445,
      "##ost": 7446,
      "▁pleasure": 7447,
      "▁adap": 7448,
      "##ecks": 7449,
      "##~": 7450,
      "##ael": 7451,
      "▁suspected": 7452,
      "▁calend": 7453,
      "▁seekers": 7454,
      "-": 7455,
      "##++": 7456,
      "▁na": 7457,
      "▁issu": 7458,
      "▁plans": 7459,
      "##uk": 7460,
      "▁chose": 7461,
      "##own": 7462,
      "▁acting": 7463,
      "▁save": 7464,
      "▁apart": 7465,
      "▁customers": 7466,
      "##rition": 7467,
      "▁notice": 7468,
      "##uals": 7469,
      "▁cupcake": 7470,
      "##anks": 7471,
      "##our": 7472,
      "##ading": 7473,
      "▁only": 7474,
      "▁improve": 7475,
      "##une": 7476,
      "▁behin": 7477,
      "▁ahead": 7478,
      "▁cold": 7479,
      "▁priest": 7480,
      "▁n’t": 7481,
      "##key": 7482,
      "▁cohes": 7483,
      "▁sho": 7484,
      "▁scale": 7485,
      "▁individual": 7486,
      "▁sides": 7487,
      "▁dreams": 7488,
      "▁chances": 7489,
      "▁---": 7490,
      "##phone": 7491,
      "##ail": 7492,
      "▁ren": 7493,
      "▁jihad": 7494,
      "▁yogurt": 7495,
      "▁attract": 7496,
      "▁munic": 7497,
      "▁photography": 7498,
      "##store": 7499,
      "▁guy": 7500,
      "##gency": 7501,
      "▁brothers": 7502,
      "▁adds": 7503,
      "▁like": 7504,
      "▁inqu": 7505,
      "##.com/": 7506,
      "##cked": 7507,
      "##erate": 7508,
      "▁summ": 7509,
      "▁mas": 7510,
      "##rs": 7511,
      "▁giraff": 7512,
      "##cri": 7513,
      "▁descriptions": 7514,
      "▁glo": 7515,
      "▁poodle": 7516,
      "▁president": 7517,
      "▁ld2d-#693": 7518,
      "##anges": 7519,
      "▁talent": 7520,
      "▁series": 7521,
      "▁capture": 7522,
      "▁?": 7523,
      "▁meal": 7524,
      "▁talks": 7525,
      "▁won": 7526,
      "▁initial": 7527,
      "▁awarded": 7528,
      "##pd": 7529,
      "▁rolls": 7530,
      "▁died": 7531,
      "▁arranged": 7532,
      "▁record": 7533,
      "▁requires": 7534,
      "▁hedge": 7535,
      "▁litter": 7536,
      "▁supporters": 7537,
      "▁mi": 7538,
      "▁names": 7539,
      "▁stol": 7540,
      "▁training": 7541,
      "▁amend": 7542,
      "▁resp": 7543,
      "▁loan": 7544,
      "▁feathers": 7545,
      "##hea": 7546,
      "##---------------": 7547,
      "▁boats": 7548,
      "##ran": 7549,
      "▁bubble": 7550,
      "▁recent": 7551,
      "▁responded": 7552,
      "##ire": 7553,
      "##aged": 7554,
      "▁manager": 7555,
      "▁supported": 7556,
      "▁refuse": 7557,
      "##the": 7558,
      "▁morn": 7559,
      "##cakes": 7560,
      "▁facts": 7561,
      "▁travel": 7562,
      "▁arm": 7563,
      "▁warning": 7564,
      "▁tape": 7565,
      "▁media": 7566,
      "▁lo": 7567,
      "▁contrast": 7568,
      "##ø": 7569,
      "##igration": 7570,
      "▁crime": 7571,
      "▁visitors": 7572,
      "▁table": 7573,
      "▁fruit": 7574,
      "▁opinion": 7575,
      "▁standard": 7576,
      "##inea": 7577,
      "▁roll": 7578,
      "##ty": 7579,
      "##case": 7580,
      "▁describ": 7581,
      "##μ": 7582,
      "▁participants": 7583,
      "##ording": 7584,
      "▁loo": 7585,
      "▁june": 7586,
      "##ointed": 7587,
      "▁tie": 7588,
      "▁gard": 7589,
      "▁paid": 7590,
      "▁mag": 7591,
      "▁existing": 7592,
      "▁organize": 7593,
      "##ibilities": 7594,
      "▁kitten": 7595,
      "▁challen": 7596,
      "▁respond": 7597,
      "▁am": 7598,
      "▁menu": 7599,
      "##ocracy": 7600,
      "▁someone": 7601,
      "▁----": 7602,
      "▁throat": 7603,
      "##ede": 7604,
      "##imp": 7605,
      "▁presents": 7606,
      "▁sold": 7607,
      "##oring": 7608,
      "▁efforts": 7609,
      "##no": 7610,
      "##art": 7611,
      "▁mix": 7612,
      "▁dog": 7613,
      "▁snow": 7614,
      "▁sleeve": 7615,
      "##uary": 7616,
      "▁beyond": 7617,
      "▁chart": 7618,
      "▁crew": 7619,
      "▁mathematician": 7620,
      "##asion": 7621,
      "##ribute": 7622,
      "▁medium": 7623,
      "▁facility": 7624,
      "▁hay": 7625,
      "▁cabin": 7626,
      "▁le": 7627,
      "▁gave": 7628,
      "▁qa": 7629,
      "▁screw": 7630,
      "▁enterpr": 7631,
      "▁ending": 7632,
      "▁aband": 7633,
      "##ooth": 7634,
      "▁responsibilities": 7635,
      "##ture": 7636,
      "▁wave": 7637,
      "##pet": 7638,
      "▁universities": 7639,
      "▁balzac": 7640,
      "##iny": 7641,
      "▁asc": 7642,
      "▁calc": 7643,
      "##ent": 7644,
      "▁rais": 7645,
      "▁hon": 7646,
      "▁part": 7647,
      "▁prepare": 7648,
      "▁memphis": 7649,
      "▁exhibit": 7650,
      "▁requiring": 7651,
      "▁girlfriend": 7652,
      "▁ans": 7653,
      "##****************": 7654,
      "▁coord": 7655,
      "▁beg": 7656,
      "▁interaction": 7657,
      "▁currency": 7658,
      "##structed": 7659,
      "▁flow": 7660,
      "ɛ": 7661,
      "▁kidding": 7662,
      "##aze": 7663,
      "##tims": 7664,
      "##ites": 7665,
      "##fish": 7666,
      "##ex": 7667,
      "▁chain": 7668,
      "▁restric": 7669,
      "##ought": 7670,
      "##yst": 7671,
      "▁favor": 7672,
      "m": 7673,
      "▁guide": 7674,
      "▁database": 7675,
      "▁settlers": 7676,
      "▁dealt": 7677,
      "▁lic": 7678,
      "▁mail": 7679,
      "▁compare": 7680,
      "▁don": 7681,
      "▁wil": 7682,
      "##driver": 7683,
      "##ession": 7684,
      "▁sa": 7685,
      "▁beh": 7686,
      "▁actions": 7687,
      "▁percent": 7688,
      "▁5": 7689,
      "▁bo": 7690,
      "▁sn": 7691,
      "▁sign": 7692,
      "▁arts": 7693,
      "▁quinn": 7694,
      "▁individ": 7695,
      "▁ring": 7696,
      "▁statis": 7697,
      "▁++++": 7698,
      "##knowled": 7699,
      "▁sev": 7700,
      "▁est": 7701,
      "##coon": 7702,
      "▁promotion": 7703,
      "##β": 7704,
      "▁towards": 7705,
      "▁banana": 7706,
      "▁assess": 7707,
      "##uding": 7708,
      "▁or": 7709,
      "##peare": 7710,
      "▁er": 7711,
      "▁catch": 7712,
      "##ne": 7713,
      "▁college": 7714,
      "##icals": 7715,
      "▁confirm": 7716,
      "▁playwright": 7717,
      "▁professor": 7718,
      "▁___________": 7719,
      "##loyed": 7720,
      "▁purs": 7721,
      "##asm": 7722,
      "▁mos": 7723,
      "▁result": 7724,
      "▁enjambment": 7725,
      "▁coff": 7726,
      "##for": 7727,
      "##ages": 7728,
      "▁vanilla": 7729,
      "▁": 7730,
      "▁cities": 7731,
      "▁min": 7732,
      "▁mrs": 7733,
      "▁hotels": 7734,
      "▁notion": 7735,
      "▁do": 7736,
      "##eg": 7737,
      "##ugh": 7738,
      "##actor": 7739,
      "▁turkey": 7740,
      "▁policies": 7741,
      "▁journals": 7742,
      "▁translated": 7743,
      "▁slept": 7744,
      "▁discussed": 7745,
      "▁inches": 7746,
      "##ulation": 7747,
      "##imb": 7748,
      "##oles": 7749,
      "▁soldi": 7750,
      "##urop": 7751,
      "▁whole": 7752,
      "▁blan": 7753,
      "▁experi": 7754,
      "▁warned": 7755,
      "▁dese": 7756,
      "▁tickets": 7757,
      "##..": 7758,
      "##iture": 7759,
      "▁iv": 7760,
      "▁us": 7761,
      "▁tools": 7762,
      "##rib": 7763,
      "▁econ": 7764,
      "▁gotten": 7765,
      "##asy": 7766,
      "##uggle": 7767,
      "▁!!!!!!": 7768,
      "▁drew": 7769,
      "▁bab": 7770,
      "##amas": 7771,
      "▁description": 7772,
      "##age": 7773,
      "▁docum": 7774,
      "##rim": 7775,
      "▁success": 7776,
      "▁entertainment": 7777,
      "##ation": 7778,
      "▁vess": 7779,
      "##ible": 7780,
      "▁cigarette": 7781,
      "ø": 7782,
      "▁play": 7783,
      "▁nest": 7784,
      "▁garb": 7785,
      "▁survival": 7786,
      "▁made": 7787,
      "▁owners": 7788,
      "▁trag": 7789,
      "##erving": 7790,
      "▁area": 7791,
      "▁rabbit": 7792,
      "▁maint": 7793,
      "▁agric": 7794,
      "▁reports": 7795,
      "##iliation": 7796,
      "▁manip": 7797,
      "▁sample": 7798,
      "▁error": 7799,
      "##crib": 7800,
      "##itation": 7801,
      "##ates": 7802,
      "▁und": 7803,
      "▁step": 7804,
      "▁exc": 7805,
      "▁unlike": 7806,
      "##gether": 7807,
      "▁containers": 7808,
      "##ouse": 7809,
      "▁nur": 7810,
      "▁altern": 7811,
      "▁fired": 7812,
      "##ɛ": 7813,
      "▁telling": 7814,
      "▁interface": 7815,
      "##get": 7816,
      "▁impris": 7817,
      "▁vit": 7818,
      "▁cafe": 7819,
      "▁flying": 7820,
      "▁proce": 7821,
      "##nis": 7822,
      "▁cord": 7823,
      "▁fe": 7824,
      "▁gre": 7825,
      "##respond": 7826,
      "▁version": 7827,
      "▁colleagues": 7828,
      "##n": 7829,
      "·": 7830,
      "▁educ": 7831,
      "##elines": 7832,
      "##uted": 7833,
      "[": 7834,
      "▁aspects": 7835,
      "▁analysis": 7836,
      "▁stream": 7837,
      "▁economic": 7838,
      "##ll": 7839,
      "##land": 7840,
      "##ces": 7841,
      "▁reaction": 7842,
      "##ian": 7843,
      "(": 7844,
      "##5": 7845,
      "▁branches": 7846,
      "▁studied": 7847,
      "▁trader": 7848,
      "▁cowboy": 7849,
      "##ir": 7850,
      "▁established": 7851,
      "▁quack": 7852,
      "▁choices": 7853,
      "##nic": 7854,
      "▁shoulders": 7855,
      "##enix": 7856,
      "##timate": 7857,
      "▁region": 7858,
      "▁drugs": 7859,
      "▁knock": 7860,
      "▁camer": 7861,
      "##erences": 7862,
      "▁missiles": 7863,
      "▁city": 7864,
      "▁monday": 7865,
      "▁sto": 7866,
      "▁refers": 7867,
      "▁via": 7868,
      "▁europe": 7869,
      "▁intended": 7870,
      "▁excuse": 7871,
      "▁distribute": 7872,
      "▁foc": 7873,
      "▁push": 7874,
      "▁percentiles": 7875,
      "##phis": 7876,
      "▁identity": 7877,
      "##ais": 7878,
      "▁suffering": 7879,
      "▁traditions": 7880,
      "▁maj": 7881,
      "▁quar": 7882,
      "##ble": 7883,
      "##ild": 7884,
      "▁tw": 7885,
      "##ufact": 7886,
      "▁take": 7887,
      "▁worn": 7888,
      "7": 7889,
      "▁program": 7890,
      "▁film": 7891,
      "##ertainly": 7892,
      "▁tomorrow": 7893,
      "##nt": 7894,
      "▁recognition": 7895,
      "▁brain": 7896,
      "▁expense": 7897,
      "▁tours": 7898,
      "▁bombs": 7899,
      "##bs": 7900,
      "▁favorite": 7901,
      "▁asp": 7902,
      "▁attempt": 7903,
      "##ativity": 7904,
      "▁maintain": 7905,
      "▁anoder": 7906,
      "▁letter": 7907,
      "▁cal": 7908,
      "##uffs": 7909,
      "▁they": 7910,
      "##ς": 7911,
      "▁employed": 7912,
      "##ations": 7913,
      "▁results": 7914,
      "▁mount": 7915,
      "▁moth": 7916,
      "##60s": 7917,
      "▁over": 7918,
      "###693": 7919,
      "▁lea": 7920,
      "▁underst": 7921,
      "▁rags": 7922,
      "##ren": 7923,
      "##ter": 7924,
      "▁custom": 7925,
      "▁intrigu": 7926,
      "##eces": 7927,
      "▁absor": 7928,
      "##ams": 7929,
      "▁ber": 7930,
      "##lish": 7931,
      "##az": 7932,
      "▁territ": 7933,
      "##apse": 7934,
      "▁storage": 7935,
      "▁!": 7936,
      "▁bre": 7937,
      "▁sounded": 7938,
      "▁cy": 7939,
      "▁polar": 7940,
      "##zz": 7941,
      "##erated": 7942,
      "▁breathe": 7943,
      "##azed": 7944,
      "##ike": 7945,
      "f": 7946,
      "##•": 7947,
      "▁defe": 7948,
      "▁reviewing": 7949,
      "##rested": 7950,
      "▁plaster": 7951,
      "▁leaders": 7952,
      "▁cancer": 7953,
      "▁---------------------------------------------------------------------": 7954,
      "▁jumping": 7955,
      "▁contr": 7956,
      "▁env": 7957,
      "▁rebuil": 7958,
      "##raw": 7959,
      "▁congress": 7960,
      "▁forg": 7961,
      "##pa": 7962,
      "▁bring": 7963,
      "▁delivered": 7964,
      "##ler": 7965,
      "▁handling": 7966,
      "##thers": 7967,
      "▁compl": 7968,
      "▁legend": 7969,
      "##aws": 7970,
      "▁both": 7971,
      "▁movements": 7972,
      "▁customer": 7973,
      "▁understanding": 7974,
      "▁lover": 7975,
      "▁tos": 7976,
      "▁appreciate": 7977,
      "##ating": 7978,
      "##goti": 7979,
      "▁guns": 7980,
      "▁transform": 7981,
      "▁kansas": 7982,
      "▁short": 7983,
      "▁suppose": 7984,
      "▁framework": 7985,
      "▁suite": 7986,
      "▁green": 7987,
      "▁dc": 7988,
      "▁lips": 7989,
      "▁extre": 7990,
      "▁relief": 7991,
      "▁slice": 7992,
      "▁strawberry": 7993,
      "▁wou": 7994,
      "▁retired": 7995,
      "##ise": 7996,
      "##ender": 7997,
      "▁contribute": 7998,
      "▁blue": 7999,
      "▁economies": 8000,
      "▁stillman": 8001,
      "##ternoon": 8002,
      "▁especially": 8003,
      "▁dioxide": 8004,
      "▁assist": 8005,
      "▁repair": 8006,
      "##mall": 8007,
      "▁consult": 8008,
      "##raction": 8009,
      "▁tied": 8010,
      "▁laun": 8011,
      "▁hel": 8012,
      "##aly": 8013,
      "##owl": 8014,
      "##cience": 8015,
      "▁nephew": 8016,
      "▁nash": 8017,
      "▁open": 8018,
      "▁!!!!!!!!!!!": 8019,
      "▁voice": 8020,
      "##!!!": 8021,
      "▁alcohol": 8022,
      "▁parks": 8023,
      "▁pan": 8024,
      "▁building": 8025,
      "▁librarians": 8026,
      "▁counc": 8027,
      "##ember": 8028,
      "▁grass": 8029,
      "▁equival": 8030,
      "▁calif": 8031,
      "▁predators": 8032,
      "▁reconciliation": 8033,
      "##res": 8034,
      "▁galleries": 8035,
      "▁perform": 8036,
      "##ur": 8037,
      "▁tack": 8038,
      "▁buying": 8039,
      "##ribb": 8040,
      "▁couple": 8041,
      "##yone": 8042,
      "##oured": 8043,
      "▁vacation": 8044,
      "▁relationship": 8045,
      "▁budget": 8046,
      "##pr": 8047,
      "▁theories": 8048,
      "▁==----": 8049,
      "##gy": 8050,
      "▁isda": 8051,
      "▁mel": 8052,
      "##bing": 8053,
      "▁har": 8054,
      "▁purpose": 8055,
      "▁motion": 8056,
      "▁mean": 8057,
      "▁clock": 8058,
      "▁ch": 8059,
      "##berries": 8060,
      "##lik": 8061,
      "▁wed": 8062,
      "▁guess": 8063,
      "##uled": 8064,
      "##atisfaction": 8065,
      "##mate": 8066,
      "##arly": 8067,
      "##aks": 8068,
      "##ulture": 8069,
      "▁su": 8070,
      "▁national": 8071,
      "##ann": 8072,
      "▁kids": 8073,
      "▁progr": 8074,
      "▁reconc": 8075,
      "##ners": 8076,
      "▁who": 8077,
      "▁fine": 8078,
      "▁train": 8079,
      "▁engage": 8080,
      "▁almost": 8081,
      "▁piano": 8082,
      "▁concentration": 8083,
      "▁hus": 8084,
      "▁paris": 8085,
      "▁prosperity": 8086,
      "▁instruc": 8087,
      "▁interest": 8088,
      "▁pol": 8089,
      "▁differences": 8090,
      "▁promoted": 8091,
      "▁tooth": 8092,
      "▁pain": 8093,
      "##ception": 8094,
      "▁teachers": 8095,
      "##load": 8096,
      "##uf": 8097,
      "▁seized": 8098,
      "▁mutation": 8099,
      "▁defining": 8100,
      "▁wip": 8101,
      "##ching": 8102,
      "##au": 8103,
      "▁d'": 8104,
      "▁protect": 8105,
      "▁??": 8106,
      "▁lights": 8107,
      "▁e": 8108,
      "##bles": 8109,
      "▁studying": 8110,
      "▁recogn": 8111,
      "##friend": 8112,
      "▁avoid": 8113,
      "▁experience": 8114,
      "##ott": 8115,
      "▁battle": 8116,
      "▁tol": 8117,
      "▁spokesman": 8118,
      "▁tuesday": 8119,
      "▁funding": 8120,
      "▁pean": 8121,
      "##ony": 8122,
      "##ov": 8123,
      "▁unem": 8124,
      "##ography": 8125,
      "▁attorn": 8126,
      "▁mines": 8127,
      "##ults": 8128,
      "▁confidentiality": 8129,
      "▁oakland": 8130,
      "▁certain": 8131,
      "##bby": 8132,
      "▁accused": 8133,
      "▁diversity": 8134,
      "▁wanting": 8135,
      "▁referen": 8136,
      "▁beet": 8137,
      "##omet": 8138,
      "▁context": 8139,
      "▁langu": 8140,
      "▁difference": 8141,
      "##aw": 8142,
      "▁prison": 8143,
      "▁reb": 8144,
      "##@": 8145,
      "▁parake": 8146,
      "▁however": 8147,
      "▁noone": 8148,
      "▁?????": 8149,
      "▁compan": 8150,
      "▁grid": 8151,
      "▁deli": 8152,
      "▁work": 8153,
      "▁interviews": 8154,
      "▁cour": 8155,
      "▁extremely": 8156,
      "##it": 8157,
      "▁present": 8158,
      "▁rebuild": 8159,
      "##aur": 8160,
      "##enth": 8161,
      "▁shot": 8162,
      "##ears": 8163,
      "##--------------------------------": 8164,
      "▁laur": 8165,
      "▁washington": 8166,
      "##ement": 8167,
      "##uit": 8168,
      "▁eth": 8169,
      "▁answ": 8170,
      "▁disappeared": 8171,
      "▁benefit": 8172,
      "▁replacement": 8173,
      "▁bank": 8174,
      "▁evening": 8175,
      "▁cut": 8176,
      "##gest": 8177,
      "▁merc": 8178,
      "▁&am": 8179,
      "▁likes": 8180,
      "▁entered": 8181,
      "▁supplies": 8182,
      "▁maybe": 8183,
      "▁persons": 8184,
      "▁gol": 8185,
      "▁piz": 8186,
      "▁vom": 8187,
      "▁born": 8188,
      "▁lived": 8189,
      "##mber": 8190,
      "▁branch": 8191
    }
  }
}