{
  "version": "1.0",
  "truncation": null,
  "padding": null,
  "added_tokens": [
    {
      "id": 2597,
      "content": "[SEP]",
      "single_word": false,
      "lstrip": false,
      "rstrip": false,
      "normalized": false,
      "special": true
    },
    {
      "id": 4299,
      "content": "[MASK]",
      "single_word": false,
      "lstrip": false,
      "rstrip": false,
      "normalized": false,
      "special": true
    },
    {
      "id": 6372,
      "content": "[UNK]",
      "single_word": false,
      "lstrip": false,
      "rstrip": false,
      "normalized": false,
      "special": true
    },
    {
      "id": 8797,
      "content": "[PAD]",
      "single_word": false,
      "lstrip": false,
      "rstrip": false,
      "normalized": false,
      "special": true
    },
    {
      "id": 10281,
      "content": "[CLS]",
      "single_word": false,
      "lstrip": false,
      "rstrip": false,
      "normalized": false,
      "special": true
    }
  ],
  "normalizer": {
    "type": "Sequence",
    "normalizers": [
      {
        "type": "NFD"
      },
      {
        "type": "Lowercase"
      },
      {
        "type": "StripAccents"
      }
    ]
  },
  "pre_tokenizer": {
    "type": "Sequence",
    "pretokenizers": [
      {
        "type": "Metaspace",
        "replacement": "▁",
        "prepend_scheme": "always",
        "split": true
      }
    ]
  },
  "post_processor": {
    "type": "TemplateProcessing",
    "single": [
      {
        "SpecialToken": {
          "id": "[CLS]",
          "type_id": 0
        }
      },
      {
        "Sequence": {
          "id": "A",
          "type_id": 0
        }
      },
      {
        "SpecialToken": {
          "id": "[SEP]",
          "type_id": 0
        }
      }
    ],
    "pair": [
      {
        "SpecialToken": {
          "id": "[CLS]",
          "type_id": 0
        }
      },
      {
        "Sequence": {
          "id": "A",
          "type_id": 0
        }
      },
      {
        "SpecialToken": {
          "id": "[SEP]",
          "type_id": 0
        }
      },
      {
        "Sequence": {
          "id": "B",
          "type_id": 1
        }
      },
      {
        "SpecialToken": {
          "id": "[SEP]",
          "type_id": 1
        }
      }
    ],
    "special_tokens": {
      "[CLS]": {
        "id": "[CLS]",
        "ids": [
          10281
        ],
        "tokens": [
          "[CLS]"
        ]
      },
      "[SEP]": {
        "id": "[SEP]",
        "ids": [
          2597
        ],
        "tokens": [
          "[SEP]"
        ]
      }
    }
  },
  "decoder": {
    "type": "Metaspace",
    "replacement": "▁",
    "prepend_scheme": "always",
    "split": true
  },
  "model": {
    "type": "WordPiece",
    "unk_token": "[UNK]",
    "continuing_subword_prefix": "##",
    "max_input_chars_per_word": 100,
    "vocab": {
      "##ternoon": 0,
      "▁hills": 1,
      "▁prefer": 2,
      "▁benef": 3,
      "▁dish": 4,
      "▁cabins": 5,
      "▁moved": 6,
      "##ulture": 7,
      "##chest": 8,
      "▁grapes": 9,
      "##utes": 10,
      "▁particles": 11,
      "##bit": 12,
      "##(s)": 13,
      "▁filing": 14,
      "▁folding": 15,
      "▁agreement": 16,
      "▁consorti": 17,
      "▁winds": 18,
      "##chie": 19,
      "##ppled": 20,
      "▁abilities": 21,
      "▁spears": 22,
      "##ssive": 23,
      "##ighten": 24,
      "▁california": 25,
      "##.n": 26,
      "##liance": 27,
      "▁twin": 28,
      "▁chanting": 29,
      "##rec": 30,
      "▁introduce": 31,
      "▁violation": 32,
      "▁pancake": 33,
      "##ory": 34,
      "▁hav": 35,
      "##ented": 36,
      "▁ske": 37,
      "##tal": 38,
      "▁hamas": 39,
      "##-3": 40,
      "▁functionality": 41,
      "▁bait": 42,
      "▁quiddit": 43,
      "▁telling": 44,
      "▁dinos": 45,
      "▁afford": 46,
      "▁grounded": 47,
      "▁stol": 48,
      "▁advancement": 49,
      "▁bec": 50,
      "▁knoc": 51,
      "▁printed": 52,
      "▁p.m.": 53,
      "##pi": 54,
      "▁sanctuary": 55,
      "▁camp": 56,
      "▁graduates": 57,
      "##ah": 58,
      "▁exagg": 59,
      "##aucr": 60,
      "▁gods": 61,
      "▁conferen": 62,
      "##olic": 63,
      "##utching": 64,
      "▁ext": 65,
      "▁roman": 66,
      "▁sometime": 67,
      "▁modes": 68,
      "▁horsie": 69,
      "▁portrait": 70,
      "▁kinematics": 71,
      "##utter": 72,
      "▁wildlife": 73,
      "##ract": 74,
      "▁spl": 75,
      "▁accommodation": 76,
      "##maries": 77,
      "▁everybody": 78,
      "▁suppl": 79,
      "##ean": 80,
      "##ario": 81,
      "▁abandoned": 82,
      "##yon": 83,
      "▁backup": 84,
      "▁alarm": 85,
      "##food": 86,
      "▁producer": 87,
      "##kton": 88,
      "▁sustain": 89,
      "▁repairs": 90,
      "▁chinese": 91,
      "▁penc": 92,
      "##ecutive": 93,
      "▁gunfire": 94,
      "▁accel": 95,
      "g": 96,
      "▁tattoo": 97,
      "##ure": 98,
      "##way": 99,
      "▁whereabouts": 100,
      "##be": 101,
      "▁aim": 102,
      "##olly": 103,
      "▁millennium": 104,
      "▁converted": 105,
      "##oming": 106,
      "▁headquarters": 107,
      "▁lumin": 108,
      "##tain": 109,
      "##alked": 110,
      "▁relig": 111,
      "▁structures": 112,
      "▁author": 113,
      "##self": 114,
      "##!!": 115,
      "##ek": 116,
      "▁downloaded": 117,
      "##ground": 118,
      "▁raised": 119,
      "##bolism": 120,
      "▁immensity": 121,
      "##93": 122,
      "▁plur": 123,
      "▁doctorate": 124,
      "▁acted": 125,
      "▁happens": 126,
      "▁plaster": 127,
      "▁neigh": 128,
      "▁manners": 129,
      "▁elephant": 130,
      "▁francisco": 131,
      "▁frogg": 132,
      "▁cultural": 133,
      "##ł": 134,
      "▁walk": 135,
      "▁report": 136,
      "##ams": 137,
      "▁highlights": 138,
      "▁complained": 139,
      "##eted": 140,
      "▁fringes": 141,
      "▁alterations": 142,
      "##ket": 143,
      "▁dwell": 144,
      "##fore": 145,
      "▁saving": 146,
      "▁ted": 147,
      "##io": 148,
      "##ption": 149,
      "▁cpa": 150,
      "▁unc": 151,
      "▁conges": 152,
      "▁compet": 153,
      "##cade": 154,
      "▁symptoms": 155,
      "▁succeeded": 156,
      "▁secret": 157,
      "▁apartment": 158,
      "##ady": 159,
      "▁fash": 160,
      "▁types": 161,
      "▁seal": 162,
      "▁di": 163,
      "▁cau": 164,
      "▁smooth": 165,
      "▁filled": 166,
      "▁disappointment": 167,
      "▁manuf": 168,
      "▁cruise": 169,
      "▁trip": 170,
      "##}": 171,
      "▁pun": 172,
      "▁entity": 173,
      "▁updates": 174,
      "▁financing": 175,
      "▁tokyo": 176,
      "▁bearing": 177,
      "##eriff": 178,
      "##-6": 179,
      "▁histor": 180,
      "▁amazed": 181,
      "##osm": 182,
      "##ged": 183,
      "▁paper": 184,
      "##onto": 185,
      "▁fungi": 186,
      "▁illness": 187,
      "▁tru": 188,
      "##lications": 189,
      "##the": 190,
      "▁fill": 191,
      "▁percentile": 192,
      "##ours": 193,
      "▁carrier": 194,
      "▁vietnam": 195,
      "▁socks": 196,
      "##eled": 197,
      "▁arrested": 198,
      "▁behaviour": 199,
      "▁bumped": 200,
      "▁hones": 201,
      "▁nashville": 202,
      "▁substant": 203,
      "##light": 204,
      "▁directly": 205,
      "##hone": 206,
      "##tician": 207,
      "##atements": 208,
      "▁populations": 209,
      "▁summoned": 210,
      "##----------": 211,
      "▁golf": 212,
      "▁lifting": 213,
      "▁search": 214,
      "##mly": 215,
      "▁occupying": 216,
      "▁workmanship": 217,
      "▁soap": 218,
      "##rier": 219,
      "▁lim": 220,
      "▁spite": 221,
      "##ised": 222,
      "▁chips": 223,
      "▁repe": 224,
      "▁vot": 225,
      "▁cauldron": 226,
      "▁mess": 227,
      "▁indicated": 228,
      "▁this": 229,
      "▁injury": 230,
      "▁lan": 231,
      "▁reop": 232,
      "▁keyboard": 233,
      "▁anywhere": 234,
      "▁sakes": 235,
      "▁explo": 236,
      "▁elements": 237,
      "▁luna": 238,
      "▁formed": 239,
      "▁leash": 240,
      "▁snail": 241,
      "▁driver": 242,
      "##cuz": 243,
      "▁update": 244,
      "▁e": 245,
      "▁knots": 246,
      "▁attempting": 247,
      "▁adopted": 248,
      "▁notified": 249,
      "▁disperse": 250,
      "▁&amp;": 251,
      "##lipop": 252,
      "▁discour": 253,
      "▁intercon": 254,
      "##org": 255,
      "▁buildings": 256,
      "##ab": 257,
      "▁americ": 258,
      "▁alley": 259,
      "##ile": 260,
      "##ener": 261,
      "▁sl": 262,
      "▁york": 263,
      "▁fly": 264,
      "▁fully": 265,
      "▁candle": 266,
      "▁transferred": 267,
      "▁retrieve": 268,
      "▁hired": 269,
      "##anks": 270,
      "▁trading": 271,
      "▁neighbours": 272,
      "##aroni": 273,
      "▁fitting": 274,
      "▁coins": 275,
      "▁perceive": 276,
      "▁sle": 277,
      "▁call": 278,
      "▁plugged": 279,
      "▁tragedy": 280,
      "▁thwar": 281,
      "##30": 282,
      "▁vast": 283,
      "##ua": 284,
      "▁stup": 285,
      "▁apart": 286,
      "##onated": 287,
      "▁united": 288,
      "##by": 289,
      "▁tampa": 290,
      "##yone": 291,
      "▁cheeks": 292,
      "##udge": 293,
      "▁head": 294,
      "▁disobedience": 295,
      "▁wom": 296,
      "▁argues": 297,
      "▁writing": 298,
      "▁seed": 299,
      "##hed": 300,
      "##eas": 301,
      "▁beneath": 302,
      "▁treatment": 303,
      "▁redes": 304,
      "##ances": 305,
      "##owers": 306,
      "▁incompetence": 307,
      "▁mare": 308,
      "▁scrub": 309,
      "##xy": 310,
      "▁peoples": 311,
      "▁therapist": 312,
      "▁thinked": 313,
      "▁cant": 314,
      "▁pounce": 315,
      "▁deserve": 316,
      "▁incident": 317,
      "##iece": 318,
      "▁around": 319,
      "▁limited": 320,
      "▁courtyard": 321,
      "▁novelty": 322,
      "▁dro": 323,
      "▁expired": 324,
      "##anes": 325,
      "▁monaster": 326,
      "▁accord": 327,
      "▁peel": 328,
      "##ickness": 329,
      "##==": 330,
      "▁hm": 331,
      "##ossing": 332,
      "##-fe": 333,
      "▁licensor": 334,
      "▁opposed": 335,
      "▁ensu": 336,
      "▁underp": 337,
      "▁habit": 338,
      "▁wishes": 339,
      "##val": 340,
      "▁fas": 341,
      "▁flip": 342,
      "▁structured": 343,
      "▁resisted": 344,
      "▁listing": 345,
      "▁caf": 346,
      "##olves": 347,
      "##yards": 348,
      "▁den": 349,
      "▁altering": 350,
      "##reation": 351,
      "▁pud": 352,
      "##encies": 353,
      "▁discip": 354,
      "▁premise": 355,
      "▁battles": 356,
      "▁tumbled": 357,
      "▁outside": 358,
      "▁added": 359,
      "##tise": 360,
      "▁froggy": 361,
      "##keling": 362,
      "##key": 363,
      "▁kippers": 364,
      "▁regulations": 365,
      "▁experts": 366,
      "▁silkies": 367,
      "▁counterfe": 368,
      "##ww": 369,
      "▁photograp": 370,
      "▁digest": 371,
      "▁started": 372,
      "▁dram": 373,
      "##y0": 374,
      "▁then": 375,
      "▁employer": 376,
      "▁beard": 377,
      "▁notic": 378,
      "##kering": 379,
      "▁islands": 380,
      "▁drain": 381,
      "▁ep": 382,
      "##pre": 383,
      "▁bother": 384,
      "▁library": 385,
      "▁marry": 386,
      "▁magnitude": 387,
      "▁describing": 388,
      "▁infrastruc": 389,
      "▁|--------+----------------": 390,
      "▁connecting": 391,
      "▁existence": 392,
      "▁flats": 393,
      "▁way": 394,
      "▁breath": 395,
      "▁nations": 396,
      "▁troops": 397,
      "▁cosplay": 398,
      "▁keeping": 399,
      "▁alcoho": 400,
      "▁1920s": 401,
      "▁raped": 402,
      "##entieth": 403,
      "▁walked": 404,
      "##dress": 405,
      "▁prominence": 406,
      "▁sick": 407,
      "▁forefinger": 408,
      "##ply": 409,
      "▁swa": 410,
      "▁no.": 411,
      "▁skin": 412,
      "##derst": 413,
      "▁requires": 414,
      "##etes": 415,
      "▁ens": 416,
      "▁chicks": 417,
      "▁cool": 418,
      "▁iq": 419,
      "▁unit": 420,
      "▁arise": 421,
      "##dens": 422,
      "▁gee": 423,
      "##acket": 424,
      "##arco": 425,
      "▁bureaucracy": 426,
      "##kened": 427,
      "▁mill": 428,
      "▁black": 429,
      "##elf": 430,
      "▁sty": 431,
      "▁gaps": 432,
      "▁helpers": 433,
      "▁sheds": 434,
      "▁challenges": 435,
      "▁astronom": 436,
      "▁pitcher": 437,
      "##waves": 438,
      "▁aw": 439,
      "##fish": 440,
      "▁insect": 441,
      "▁tank": 442,
      "▁acknowled": 443,
      "▁especially": 444,
      "▁complexion": 445,
      "▁bath": 446,
      "▁elev": 447,
      "▁holiday": 448,
      "▁referr": 449,
      "▁processed": 450,
      "##oleum": 451,
      "▁captain": 452,
      "▁peeing": 453,
      "▁contains": 454,
      "▁buff": 455,
      "▁adds": 456,
      "▁slipped": 457,
      "▁banned": 458,
      "##orie": 459,
      "▁arrive": 460,
      "▁purchase": 461,
      "▁batch": 462,
      "▁non": 463,
      "▁biograph": 464,
      "▁shut": 465,
      "▁famous": 466,
      "▁conced": 467,
      "▁investigation": 468,
      "##tered": 469,
      "##uropean": 470,
      "▁duties": 471,
      "▁pipes": 472,
      "▁hideout": 473,
      "▁grains": 474,
      "▁flops": 475,
      "▁cheating": 476,
      "##lly": 477,
      "▁registration": 478,
      "▁taiwan": 479,
      "▁peeling": 480,
      "##gal": 481,
      "##ack": 482,
      "▁girls": 483,
      "##ast": 484,
      "▁widely": 485,
      "##iting": 486,
      "▁junk": 487,
      "ε": 488,
      "▁toe": 489,
      "##zac": 490,
      "▁rum": 491,
      "##or": 492,
      "▁bunk": 493,
      "▁reasonable": 494,
      "##gs": 495,
      "##ty": 496,
      "##asingly": 497,
      "##nus": 498,
      "▁anybody": 499,
      "▁!!!!!!!!!!!": 500,
      "##ackers": 501,
      "##-d": 502,
      "▁coord": 503,
      "▁reintroduction": 504,
      "##ceed": 505,
      "▁requi": 506,
      "▁metering": 507,
      "▁superv": 508,
      "▁shel": 509,
      "▁bottle": 510,
      "▁particle": 511,
      "ν": 512,
      "▁ic": 513,
      "▁consensus": 514,
      "▁horizon": 515,
      "##aches": 516,
      "▁garbage": 517,
      "##icks": 518,
      "▁superiority": 519,
      "▁state": 520,
      "▁attorneys": 521,
      "##inned": 522,
      "##ader": 523,
      "▁smuggling": 524,
      "▁dedicated": 525,
      "▁tanker": 526,
      "c": 527,
      "▁spaces": 528,
      "▁radi": 529,
      "▁costumes": 530,
      "▁mathematicians": 531,
      "▁building": 532,
      "##erals": 533,
      "▁attrition": 534,
      "▁closet": 535,
      "▁patch": 536,
      "▁rolling": 537,
      "▁fragilities": 538,
      "##10": 539,
      "##eign": 540,
      "##inqu": 541,
      "▁scr": 542,
      "##rr": 543,
      "##????????": 544,
      "▁guarant": 545,
      "▁under": 546,
      "▁police": 547,
      "▁bars": 548,
      "▁submitted": 549,
      "##dam": 550,
      "▁echo": 551,
      "▁rage": 552,
      "▁streamed": 553,
      "▁lik": 554,
      "▁thanks": 555,
      "▁saturday": 556,
      "##arred": 557,
      "▁participated": 558,
      "▁prejud": 559,
      "▁generations": 560,
      "▁puffs": 561,
      "▁ba": 562,
      "▁difficul": 563,
      "▁eight": 564,
      "▁stood": 565,
      "▁flavor": 566,
      "▁adoles": 567,
      "▁adv": 568,
      "8": 569,
      "▁cer": 570,
      "##ur": 571,
      "##ees": 572,
      "▁mor": 573,
      "▁peanut": 574,
      "▁lod": 575,
      "▁exploration": 576,
      "▁evil": 577,
      "▁disconnect": 578,
      "▁reign": 579,
      "##ial": 580,
      "▁improved": 581,
      "▁bits": 582,
      "▁enters": 583,
      "▁wildcard": 584,
      "##ada": 585,
      "▁goals": 586,
      "▁contin": 587,
      "▁customer": 588,
      "▁hearts": 589,
      "▁dipped": 590,
      "▁fabrications": 591,
      "▁monitor": 592,
      "##heet": 593,
      "▁sidewalk": 594,
      "▁mutants": 595,
      "▁solving": 596,
      "##ub": 597,
      "▁six": 598,
      "▁demonstrated": 599,
      "▁leaders": 600,
      "▁sets": 601,
      "▁intervals": 602,
      "##.com/": 603,
      "▁achieve": 604,
      "##ag": 605,
      "▁grammar": 606,
      "▁hated": 607,
      "##ories": 608,
      "▁hi": 609,
      "▁reliability": 610,
      "##zen": 611,
      "##weight": 612,
      "▁housed": 613,
      "##ogh": 614,
      "▁colony": 615,
      "##orkers": 616,
      "▁brown": 617,
      "▁crosst": 618,
      "5": 619,
      "▁exchang": 620,
      "▁sacrifice": 621,
      "▁recurring": 622,
      "▁gentlemen": 623,
      "▁riding": 624,
      "▁theodor": 625,
      "##izes": 626,
      "▁bi": 627,
      "##$$": 628,
      "▁tds": 629,
      "▁steward": 630,
      "▁sad": 631,
      "▁manner": 632,
      "▁tremb": 633,
      "▁cabbage": 634,
      "▁threshold": 635,
      "▁bed": 636,
      "▁advance": 637,
      "▁mixture": 638,
      "▁emission": 639,
      "##lets": 640,
      "▁happ": 641,
      "▁bonus": 642,
      "##erance": 643,
      "▁marshmallow": 644,
      "▁condemned": 645,
      "▁preference": 646,
      "▁corp": 647,
      "▁lig": 648,
      "▁arabs": 649,
      "▁strengthened": 650,
      "▁like": 651,
      "##orying": 652,
      "##inn": 653,
      "▁u.s.": 654,
      "##otape": 655,
      "##aks": 656,
      "##acles": 657,
      "▁referred": 658,
      "▁muscle": 659,
      "▁laugh": 660,
      "▁calf": 661,
      "▁lo": 662,
      "▁precision": 663,
      "▁owls": 664,
      "##cur": 665,
      "▁fle": 666,
      "▁patrons": 667,
      "▁nationality": 668,
      "▁chrom": 669,
      "▁ess": 670,
      "##uted": 671,
      "▁tast": 672,
      "▁wrinkles": 673,
      "▁inde": 674,
      "▁los": 675,
      "▁'": 676,
      "##ico": 677,
      "▁shouted": 678,
      "▁ehr": 679,
      "▁flooring": 680,
      "▁frame": 681,
      "▁il": 682,
      "##d": 683,
      "▁cabin": 684,
      "▁unde": 685,
      "▁starfighter": 686,
      "▁syn": 687,
      "▁devices": 688,
      "▁farmer": 689,
      "##erated": 690,
      "▁en": 691,
      "##eel": 692,
      "▁messed": 693,
      "▁equipped": 694,
      "▁passengers": 695,
      "▁pot": 696,
      "▁street": 697,
      "▁staff": 698,
      "##ʒ": 699,
      "##ept": 700,
      "▁quoted": 701,
      "▁topic": 702,
      "▁runner": 703,
      "##eat": 704,
      "##ording": 705,
      "##austed": 706,
      "▁prov": 707,
      ":": 708,
      "▁meth": 709,
      "▁increasingly": 710,
      "▁py": 711,
      "▁scream": 712,
      "▁picket": 713,
      "▁miam": 714,
      "▁fault": 715,
      "▁return": 716,
      "##/2005": 717,
      "▁ambulances": 718,
      "▁underneath": 719,
      "##ven": 720,
      "##ilization": 721,
      "▁liquidation": 722,
      "▁initiation": 723,
      "▁omission": 724,
      "▁capital": 725,
      "▁analys": 726,
      "▁appreciated": 727,
      "▁$$$": 728,
      "##nas": 729,
      "##igr": 730,
      "▁figured": 731,
      "▁fishing": 732,
      "▁youtu": 733,
      "▁sp": 734,
      "##emb": 735,
      "##ieve": 736,
      "▁arab": 737,
      "▁chimney": 738,
      "▁seven": 739,
      "▁holt": 740,
      "▁comment": 741,
      "##gets": 742,
      "▁satellite": 743,
      "▁commenced": 744,
      "##airs": 745,
      "▁see": 746,
      "##ultural": 747,
      "▁spilling": 748,
      "▁images": 749,
      "▁separated": 750,
      "▁tablets": 751,
      "▁locomotion": 752,
      "▁characterized": 753,
      "▁distorts": 754,
      "▁sank": 755,
      "▁narrowed": 756,
      "▁lil": 757,
      "##eros": 758,
      "##chen": 759,
      "▁beers": 760,
      "▁tickle": 761,
      "!": 762,
      "▁binoc": 763,
      "▁suggesting": 764,
      "▁predators": 765,
      "##mor": 766,
      "▁passage": 767,
      "▁pay": 768,
      "##vet": 769,
      "…": 770,
      "▁uti": 771,
      "▁afters": 772,
      "▁sym": 773,
      "##wor": 774,
      "▁engineered": 775,
      "▁deepen": 776,
      "▁certificate": 777,
      "▁payroll": 778,
      "▁france": 779,
      "▁yarns": 780,
      "▁contributions": 781,
      "▁excuse": 782,
      "▁ferry": 783,
      "▁derivatives": 784,
      "▁confirmation": 785,
      "▁stacked": 786,
      "##less": 787,
      "##enity": 788,
      "▁inside": 789,
      "##;": 790,
      "##astic": 791,
      "▁whole": 792,
      "▁coffee": 793,
      "▁declaration": 794,
      "▁drivers": 795,
      "▁apartments": 796,
      "▁bib": 797,
      "▁swirling": 798,
      "▁halls": 799,
      "▁provide": 800,
      "▁times": 801,
      "▁resembled": 802,
      "▁underlined": 803,
      "▁bur": 804,
      "▁levels": 805,
      "▁tweeted": 806,
      "▁leather": 807,
      "▁generals": 808,
      "▁crowd": 809,
      "▁valuing": 810,
      "▁priorit": 811,
      "▁drew": 812,
      "▁promoting": 813,
      "▁manufacturer": 814,
      "▁liberals": 815,
      "▁repub": 816,
      "▁intake": 817,
      "▁tem": 818,
      "▁evacuated": 819,
      "▁terminated": 820,
      "▁oak": 821,
      "##pes": 822,
      "##uel": 823,
      "▁dr.": 824,
      "▁surgeon": 825,
      "▁battling": 826,
      "▁creators": 827,
      "▁wether": 828,
      "▁importing": 829,
      "▁newsgroups": 830,
      "▁piano": 831,
      "▁glimpse": 832,
      "##oo": 833,
      "##rolled": 834,
      "##reg": 835,
      "##ular": 836,
      "▁doz": 837,
      "▁trucks": 838,
      "▁quad": 839,
      "▁metascience": 840,
      "+": 841,
      "▁diet": 842,
      "▁puppet": 843,
      "▁repurp": 844,
      "▁waterway": 845,
      "▁ro": 846,
      "▁chip": 847,
      "▁snitch": 848,
      "▁wealth": 849,
      "▁vince": 850,
      "▁practices": 851,
      "##ency": 852,
      "▁airlines": 853,
      "▁fem": 854,
      "▁histories": 855,
      "##+work": 856,
      "▁tended": 857,
      "##isons": 858,
      "##cep": 859,
      "▁dose": 860,
      "##uv": 861,
      "▁falling": 862,
      "##goround": 863,
      "##cano": 864,
      "##ected": 865,
      "▁pyjamas": 866,
      "▁pa": 867,
      "▁energy": 868,
      "▁copyright": 869,
      "▁fostering": 870,
      "##uised": 871,
      "▁early": 872,
      "▁pref": 873,
      "▁inflation": 874,
      "▁maintaining": 875,
      "##ner": 876,
      "▁communicate": 877,
      "▁bow": 878,
      "▁quickly": 879,
      "▁cafe": 880,
      "▁reptile": 881,
      "▁antip": 882,
      "▁etc": 883,
      "▁mous": 884,
      "▁filed": 885,
      "##agie": 886,
      "▁yaw": 887,
      "▁actress": 888,
      "▁quan": 889,
      "▁flee": 890,
      "##aul": 891,
      "▁omitted": 892,
      "▁barrels": 893,
      "▁attached": 894,
      "##ti": 895,
      "##ideration": 896,
      "▁shrap": 897,
      "##½": 898,
      "##moon": 899,
      "##awatt": 900,
      "##ibs": 901,
      "▁damp": 902,
      "##pe": 903,
      "##vir": 904,
      "▁lines": 905,
      "▁hell": 906,
      "##ually": 907,
      "▁chang": 908,
      "▁fixed": 909,
      "▁yiddish": 910,
      "##iqu": 911,
      "##tim": 912,
      "▁or": 913,
      "▁curb": 914,
      "▁titles": 915,
      "▁lollipop": 916,
      "▁began": 917,
      "##ribution": 918,
      "▁augmentation": 919,
      "▁immedi": 920,
      "▁forums": 921,
      "▁wondering": 922,
      "▁deleted": 923,
      "▁abol": 924,
      "▁principles": 925,
      "▁infant": 926,
      "##kating": 927,
      "▁dealt": 928,
      "##rial": 929,
      "▁bartender": 930,
      "▁stayed": 931,
      "▁fount": 932,
      "▁meal": 933,
      "▁total": 934,
      "▁kid": 935,
      "##lace": 936,
      "▁investigations": 937,
      "##lam": 938,
      "▁twice": 939,
      "▁qualified": 940,
      "▁switched": 941,
      "##inded": 942,
      "▁tempura": 943,
      "▁doom": 944,
      "▁inqu": 945,
      "▁waived": 946,
      "▁young": 947,
      "##boats": 948,
      "##oting": 949,
      "▁myth": 950,
      "▁recogn": 951,
      "▁cognition": 952,
      "▁options": 953,
      "##ə": 954,
      "▁slang": 955,
      "▁definition": 956,
      "##isco": 957,
      "##o": 958,
      "▁mask": 959,
      "▁needles": 960,
      "▁scope": 961,
      "##ik": 962,
      "▁glaze": 963,
      "##nocentrism": 964,
      "##agging": 965,
      "▁courtesy": 966,
      "##hind": 967,
      "##ught": 968,
      "▁watching": 969,
      "▁absorbed": 970,
      "▁atlanta": 971,
      "▁nar": 972,
      "▁initial": 973,
      "▁fung": 974,
      "▁restaur": 975,
      "##itions": 976,
      "▁electric": 977,
      "▁fallen": 978,
      "##aphr": 979,
      "▁notebook": 980,
      "##oplane": 981,
      "▁transcri": 982,
      "▁outro": 983,
      "▁theater": 984,
      "##ssibly": 985,
      "▁stim": 986,
      "▁exe": 987,
      "##inc": 988,
      "▁belie": 989,
      "▁pills": 990,
      "▁claiming": 991,
      "▁dair": 992,
      "▁amendments": 993,
      "##nown": 994,
      "▁anatomy": 995,
      "##eri": 996,
      "▁burs": 997,
      "▁appearance": 998,
      "##­": 999,
      "▁initiatives": 1000,
      "##03": 1001,
      "▁pivottable": 1002,
      "▁rope": 1003,
      "▁rhy": 1004,
      "▁interconnect": 1005,
      "##ancing": 1006,
      "@": 1007,
      "▁ebbed": 1008,
      "▁underm": 1009,
      "▁salary": 1010,
      "▁olives": 1011,
      "▁airports": 1012,
      "▁las": 1013,
      "▁shorts": 1014,
      "▁driven": 1015,
      "▁engine": 1016,
      "▁seattle": 1017,
      "▁spot": 1018,
      "▁nav": 1019,
      "▁sunburn": 1020,
      "▁ansi": 1021,
      "##ticians": 1022,
      "##umbs": 1023,
      "▁organis": 1024,
      "##string": 1025,
      "##-98": 1026,
      "▁grands": 1027,
      "##hment": 1028,
      "##yg": 1029,
      "▁pre-": 1030,
      "▁yards": 1031,
      "##ather": 1032,
      "▁smell": 1033,
      "##ond": 1034,
      "▁removed": 1035,
      "##tition": 1036,
      "▁green": 1037,
      "▁truck": 1038,
      "▁wiggle": 1039,
      "##fact": 1040,
      "▁witn": 1041,
      "▁engaging": 1042,
      "##stances": 1043,
      "▁copied": 1044,
      "▁foreigners": 1045,
      "▁best": 1046,
      "▁succ": 1047,
      "▁inquiries": 1048,
      "▁adop": 1049,
      "▁rais": 1050,
      "▁reviewer": 1051,
      "▁collabor": 1052,
      "▁bited": 1053,
      "▁nineteenth": 1054,
      "##oner": 1055,
      "▁sold": 1056,
      "▁sou": 1057,
      "▁plans": 1058,
      "▁threat": 1059,
      "▁w/": 1060,
      "▁facilitate": 1061,
      "▁flush": 1062,
      "##len": 1063,
      "▁rectangle": 1064,
      "▁prim": 1065,
      "##undity": 1066,
      "▁envoy": 1067,
      "▁refriger": 1068,
      "▁mechanics": 1069,
      "▁needs": 1070,
      "▁triv": 1071,
      "▁harmony": 1072,
      "▁asylum": 1073,
      "▁bam": 1074,
      "##etery": 1075,
      "▁ti": 1076,
      "##bod": 1077,
      "▁stung": 1078,
      "▁link": 1079,
      "▁arrangement": 1080,
      "▁guardsmen": 1081,
      "##icomed": 1082,
      "▁motorist": 1083,
      "▁lord": 1084,
      "▁monologue": 1085,
      "6": 1086,
      "##iration": 1087,
      "##ft": 1088,
      "▁influenced": 1089,
      "▁ranks": 1090,
      "##ashington": 1091,
      "▁lids": 1092,
      "▁somewhere": 1093,
      "▁deeply": 1094,
      "▁pit": 1095,
      "▁publishing": 1096,
      "▁tiles": 1097,
      "▁accumulated": 1098,
      "▁quit": 1099,
      "▁federation": 1100,
      "▁budget": 1101,
      "▁marbles": 1102,
      "▁crossed": 1103,
      "##alation": 1104,
      "##rust": 1105,
      "▁diplomats": 1106,
      "▁before": 1107,
      "▁interested": 1108,
      "▁mow": 1109,
      "▁l2": 1110,
      "##ves": 1111,
      "▁hook": 1112,
      "##rif": 1113,
      "▁dance": 1114,
      "##s": 1115,
      "▁biology": 1116,
      "▁revisions": 1117,
      "▁sector": 1118,
      "▁recipe": 1119,
      "▁puss": 1120,
      "▁ducks": 1121,
      "##oli": 1122,
      "▁baked": 1123,
      "▁cact": 1124,
      "▁rags": 1125,
      "▁styrofoam": 1126,
      "▁greatly": 1127,
      "##ledge": 1128,
      "▁hair": 1129,
      "##alc": 1130,
      "▁republic": 1131,
      "▁apar": 1132,
      "##knowled": 1133,
      "▁planning": 1134,
      "▁arguments": 1135,
      "##+": 1136,
      "##gether": 1137,
      "▁trainers": 1138,
      "##ometer": 1139,
      "▁politicians": 1140,
      "▁lev": 1141,
      "##yday": 1142,
      "▁engineers": 1143,
      "▁searches": 1144,
      "▁causing": 1145,
      "▁must": 1146,
      "▁capture": 1147,
      "##amps": 1148,
      "▁control": 1149,
      "##ered": 1150,
      "▁language": 1151,
      "▁watered": 1152,
      "##aces": 1153,
      "▁riders": 1154,
      "▁sailor": 1155,
      "▁deliveries": 1156,
      "▁surrender": 1157,
      "▁tales": 1158,
      "##ization": 1159,
      "▁midter": 1160,
      "▁generating": 1161,
      "▁airlin": 1162,
      "▁yep": 1163,
      "▁example": 1164,
      "▁rumors": 1165,
      "##rd": 1166,
      "##bb": 1167,
      "▁cultures": 1168,
      "▁uniforms": 1169,
      "##oks": 1170,
      "▁largely": 1171,
      "▁descri": 1172,
      "▁highlighting": 1173,
      "##rael": 1174,
      "##tivity": 1175,
      "▁collaboration": 1176,
      "▁merchant": 1177,
      "▁korea": 1178,
      "▁fores": 1179,
      "##el": 1180,
      "▁alt.": 1181,
      "▁dangerous": 1182,
      "▁walls": 1183,
      "▁imprisoned": 1184,
      "▁4th": 1185,
      "##lut": 1186,
      "▁scam": 1187,
      "▁renting": 1188,
      "▁esc": 1189,
      "##og": 1190,
      "▁helmet": 1191,
      "▁foots": 1192,
      "▁d'": 1193,
      "▁geared": 1194,
      "▁donkey": 1195,
      "▁values": 1196,
      "▁exploited": 1197,
      "▁dr": 1198,
      "▁solution": 1199,
      "▁any": 1200,
      "▁effort": 1201,
      "##edicated": 1202,
      "▁embarked": 1203,
      "▁welf": 1204,
      "▁conservatives": 1205,
      "##ke": 1206,
      "▁giraffe": 1207,
      "▁interview": 1208,
      "▁honesty": 1209,
      "##ras": 1210,
      "▁pec": 1211,
      "##r.": 1212,
      "▁active": 1213,
      "▁attraction": 1214,
      "▁retrieval": 1215,
      "▁deficiency": 1216,
      "##liness": 1217,
      "▁stuttering": 1218,
      "▁ppl": 1219,
      "##nly": 1220,
      "▁stealing": 1221,
      "▁collateral": 1222,
      "##tives": 1223,
      "▁worn": 1224,
      "▁zawahiri": 1225,
      "##urities": 1226,
      "▁screamed": 1227,
      "▁beetles": 1228,
      "▁inj": 1229,
      "▁23rd": 1230,
      "##na": 1231,
      "▁jus": 1232,
      "▁trapped": 1233,
      "##oster": 1234,
      "##rophe": 1235,
      "##itch": 1236,
      "##chant": 1237,
      "▁antiquity": 1238,
      "▁attributed": 1239,
      "▁ar": 1240,
      "▁economic": 1241,
      "▁pil": 1242,
      "▁co-st": 1243,
      "▁temp": 1244,
      "▁marching": 1245,
      "##-pos": 1246,
      "▁squash": 1247,
      "▁perfection": 1248,
      "▁asked": 1249,
      "##ingly": 1250,
      "▁provision": 1251,
      "▁insul": 1252,
      "▁ought": 1253,
      "▁matter": 1254,
      "▁prolon": 1255,
      "▁confisc": 1256,
      "▁throwing": 1257,
      "▁contract": 1258,
      "▁light": 1259,
      "##areness": 1260,
      "▁rating": 1261,
      "▁ug": 1262,
      "▁died": 1263,
      "▁movement": 1264,
      "▁subscri": 1265,
      "▁substantiation": 1266,
      "▁mean": 1267,
      "▁ec": 1268,
      "##ults": 1269,
      "▁educ": 1270,
      "##cross": 1271,
      "##ography": 1272,
      "▁homosexuality": 1273,
      "##ophobia": 1274,
      "▁motel": 1275,
      "##rigu": 1276,
      "▁t+re": 1277,
      "▁currently": 1278,
      "▁starts": 1279,
      "▁crocod": 1280,
      "▁declare": 1281,
      "##worm": 1282,
      "▁climber": 1283,
      "▁fr": 1284,
      "##aria": 1285,
      "##ulator": 1286,
      "▁grader": 1287,
      "▁extract": 1288,
      "##anding": 1289,
      "##ilter": 1290,
      "▁unfortunately": 1291,
      "▁win": 1292,
      "##aint": 1293,
      "▁conducting": 1294,
      "▁struggled": 1295,
      "▁visualization": 1296,
      "▁cups": 1297,
      "##tings": 1298,
      "##aq": 1299,
      "▁accessories": 1300,
      "▁houston": 1301,
      "▁fundam": 1302,
      "▁monopoly": 1303,
      "▁woman": 1304,
      "▁engagement": 1305,
      "▁(": 1306,
      "##con": 1307,
      "▁linger": 1308,
      "▁skis": 1309,
      "▁celebrities": 1310,
      "▁stole": 1311,
      "▁doll": 1312,
      "▁shines": 1313,
      "▁rust": 1314,
      "##mented": 1315,
      "▁physical": 1316,
      "▁sti": 1317,
      "##istem": 1318,
      "▁enthusiasts": 1319,
      "▁disappeared": 1320,
      "▁volunteer": 1321,
      "▁skirt": 1322,
      "##force": 1323,
      "▁cashier": 1324,
      "##ership": 1325,
      "▁watched": 1326,
      "▁oven": 1327,
      "▁harmonisation": 1328,
      "▁poison": 1329,
      "▁revolves": 1330,
      "▁remed": 1331,
      "▁relevance": 1332,
      "▁embarr": 1333,
      "▁hot": 1334,
      "##ante": 1335,
      "▁flatbread": 1336,
      "##olds": 1337,
      "▁dry": 1338,
      "##cience": 1339,
      "▁wallet": 1340,
      "▁kills": 1341,
      "▁flicked": 1342,
      "▁wint": 1343,
      "▁victory": 1344,
      "##omination": 1345,
      "[": 1346,
      "▁doc": 1347,
      "▁trends": 1348,
      "▁lur": 1349,
      "▁succeed": 1350,
      "▁he": 1351,
      "▁inviting": 1352,
      "##50": 1353,
      "##minated": 1354,
      "▁sa": 1355,
      "##umb": 1356,
      "▁eliminated": 1357,
      "▁occur": 1358,
      "##eal": 1359,
      "▁lick": 1360,
      "##inny": 1361,
      "##ota": 1362,
      "▁cracked": 1363,
      "▁predator": 1364,
      "▁horror": 1365,
      "▁sss": 1366,
      "▁completing": 1367,
      "▁lieutenant": 1368,
      "##c": 1369,
      "▁category": 1370,
      "##ujah": 1371,
      "▁signals": 1372,
      "▁grocery": 1373,
      "▁wages": 1374,
      "▁aftermath": 1375,
      "▁charcoal": 1376,
      "▁end": 1377,
      "▁doctors": 1378,
      "▁domains": 1379,
      "▁gives": 1380,
      "▁booked": 1381,
      "▁wizard": 1382,
      "▁sharing": 1383,
      "▁bludgers": 1384,
      "▁forbidding": 1385,
      "▁oposs": 1386,
      "▁continues": 1387,
      "##tis": 1388,
      "▁laun": 1389,
      "##ignment": 1390,
      "▁hardship": 1391,
      "▁flourish": 1392,
      "ʒ": 1393,
      "▁congrat": 1394,
      "▁behin": 1395,
      "▁curric": 1396,
      "▁industries": 1397,
      "▁effects": 1398,
      "▁integrity": 1399,
      "▁garb": 1400,
      "▁prin": 1401,
      "▁mandate": 1402,
      "▁spirit": 1403,
      "▁veto": 1404,
      "▁samp": 1405,
      "▁regulate": 1406,
      "▁lid": 1407,
      "##entials": 1408,
      "▁distract": 1409,
      "▁vehicle": 1410,
      "##otal": 1411,
      "▁reversion": 1412,
      "▁ensuring": 1413,
      "##inger": 1414,
      "##lf": 1415,
      "▁hence": 1416,
      "▁stared": 1417,
      "▁exac": 1418,
      "▁geometries": 1419,
      "##tc": 1420,
      "▁ging": 1421,
      "#": 1422,
      "▁wind": 1423,
      "##1": 1424,
      "##ri": 1425,
      "▁gleaming": 1426,
      "▁brushed": 1427,
      "▁stand": 1428,
      "▁stepped": 1429,
      "##vol": 1430,
      "▁photo": 1431,
      "▁personality": 1432,
      "▁soy": 1433,
      "##ashes": 1434,
      "##+room": 1435,
      "▁circular": 1436,
      "▁spelling": 1437,
      "▁layer": 1438,
      "▁stir": 1439,
      "##oprop": 1440,
      "##pt": 1441,
      "▁trigger": 1442,
      "▁date": 1443,
      "▁fallout": 1444,
      "▁aun": 1445,
      "▁instrument": 1446,
      "▁richard": 1447,
      "##______": 1448,
      "▁headed": 1449,
      "▁standardisation": 1450,
      "##mometer": 1451,
      "▁examining": 1452,
      "##aties": 1453,
      "##tingu": 1454,
      "▁tuesday": 1455,
      "▁mutation": 1456,
      "##itled": 1457,
      "▁is": 1458,
      "##otograp": 1459,
      "▁tush": 1460,
      "▁extre": 1461,
      "##war": 1462,
      "▁labels": 1463,
      "▁rain": 1464,
      "##±": 1465,
      "▁inquiry": 1466,
      "▁ivory": 1467,
      "▁d2": 1468,
      "##usion": 1469,
      "▁disclose": 1470,
      "##erate": 1471,
      "▁alt": 1472,
      "▁mes": 1473,
      "##lik": 1474,
      "▁offers": 1475,
      "▁reduction": 1476,
      "▁mounted": 1477,
      "##ugged": 1478,
      "▁disgust": 1479,
      "▁24": 1480,
      "▁sleeps": 1481,
      "▁transpar": 1482,
      "▁forefront": 1483,
      "▁...................": 1484,
      "▁mapped": 1485,
      "##pics": 1486,
      "▁wel": 1487,
      "▁separ": 1488,
      "▁hurried": 1489,
      "▁panted": 1490,
      "▁200": 1491,
      "▁coherence": 1492,
      "▁inventory": 1493,
      "##irst": 1494,
      "▁yellow": 1495,
      "▁continents": 1496,
      "▁2006": 1497,
      "▁consider": 1498,
      "▁year": 1499,
      "▁toys": 1500,
      "▁diaper": 1501,
      "▁bin": 1502,
      "▁isolated": 1503,
      "▁laur": 1504,
      "▁disease": 1505,
      "▁rush": 1506,
      "▁colleagues": 1507,
      "▁qu": 1508,
      "▁grandfather": 1509,
      "▁refinery": 1510,
      "▁accomplish": 1511,
      "##sually": 1512,
      "##wise": 1513,
      "▁kids": 1514,
      ">": 1515,
      "]": 1516,
      "▁info": 1517,
      "▁aging": 1518,
      "##ooling": 1519,
      "##cul": 1520,
      "▁phenomen": 1521,
      "▁strong": 1522,
      "▁conject": 1523,
      "##osystem": 1524,
      "▁stroke": 1525,
      "▁occurr": 1526,
      "▁o'clock": 1527,
      "▁finding": 1528,
      "▁flying": 1529,
      "##umped": 1530,
      "▁interceptor": 1531,
      "▁mull": 1532,
      "▁image": 1533,
      "▁distingu": 1534,
      "##-year": 1535,
      "▁emotions": 1536,
      "▁dinosaur": 1537,
      "▁revis": 1538,
      "##ound": 1539,
      "▁furs": 1540,
      "##pped": 1541,
      "▁ants": 1542,
      "▁traveling": 1543,
      "▁acts": 1544,
      "▁,?": 1545,
      "▁advisor": 1546,
      "##aggeration": 1547,
      "▁reconstr": 1548,
      "▁something": 1549,
      "##ran": 1550,
      "▁drop": 1551,
      "▁nuis": 1552,
      "▁turns": 1553,
      "▁appetite": 1554,
      "##ounts": 1555,
      "▁orchestra": 1556,
      "▁sectors": 1557,
      "##iri": 1558,
      "▁perhaps": 1559,
      "▁ta": 1560,
      "▁mist": 1561,
      "▁david": 1562,
      "▁shame": 1563,
      "▁youn": 1564,
      "▁champions": 1565,
      "▁contacting": 1566,
      "▁locom": 1567,
      "▁campaigns": 1568,
      "▁=": 1569,
      "▁puts": 1570,
      "▁his": 1571,
      "▁sticks": 1572,
      "▁r": 1573,
      "▁sash": 1574,
      "▁nibb": 1575,
      "▁crises": 1576,
      "a": 1577,
      "▁sugar": 1578,
      "▁columbus": 1579,
      "▁shirt": 1580,
      "##arm": 1581,
      "##estab": 1582,
      "▁garage": 1583,
      "▁sunsh": 1584,
      "▁waive": 1585,
      "##uttering": 1586,
      "▁horsemen": 1587,
      "##07.doc": 1588,
      "▁recite": 1589,
      "▁fa": 1590,
      "##orders": 1591,
      "▁means": 1592,
      "##veland": 1593,
      "▁authority": 1594,
      "▁breakf": 1595,
      "▁marsh": 1596,
      "▁hammer": 1597,
      "▁sweat": 1598,
      "##olog": 1599,
      "##formed": 1600,
      "▁megawatt": 1601,
      "##ena": 1602,
      "▁squashed": 1603,
      "▁broken": 1604,
      "▁absorbing": 1605,
      "▁salinity": 1606,
      "▁redistribution": 1607,
      "▁disint": 1608,
      "▁lingu": 1609,
      "▁warran": 1610,
      "▁correctly": 1611,
      "▁penalty": 1612,
      "▁background": 1613,
      "▁launch": 1614,
      "▁designated": 1615,
      "▁toast": 1616,
      "##eav": 1617,
      "▁ups": 1618,
      "▁winking": 1619,
      "▁boats": 1620,
      "▁obedience": 1621,
      "▁kh": 1622,
      "▁viol": 1623,
      "▁national": 1624,
      "▁will": 1625,
      "▁rank": 1626,
      "▁distribution": 1627,
      "▁capac": 1628,
      "##!!!": 1629,
      "▁advis": 1630,
      "▁rape": 1631,
      "▁suggested": 1632,
      "##3i": 1633,
      "▁versus": 1634,
      "▁independ": 1635,
      "▁trumpets": 1636,
      "▁response": 1637,
      "▁alto": 1638,
      "▁read": 1639,
      "▁fact": 1640,
      "▁neoc": 1641,
      "▁soul": 1642,
      "▁facil": 1643,
      "##eds": 1644,
      "##fort": 1645,
      "▁moment": 1646,
      "▁share": 1647,
      "▁guaranty": 1648,
      "▁lose": 1649,
      "▁louds": 1650,
      "▁shyness": 1651,
      "▁licen": 1652,
      "▁fucking": 1653,
      "▁tents": 1654,
      "▁bandaid": 1655,
      "##ete": 1656,
      "##ocratic": 1657,
      "▁testimony": 1658,
      "##ronym": 1659,
      "▁wool": 1660,
      "##gins": 1661,
      "▁gam": 1662,
      "▁towards": 1663,
      "##jo": 1664,
      "##ail": 1665,
      "##oung": 1666,
      "▁meters": 1667,
      "▁lunch": 1668,
      "▁seller": 1669,
      "▁anchored": 1670,
      "▁blame": 1671,
      "##rested": 1672,
      "▁kg": 1673,
      "##ol": 1674,
      "▁caus": 1675,
      "##woo": 1676,
      "##ines": 1677,
      "▁undertake": 1678,
      "##ments": 1679,
      "▁establishment": 1680,
      "▁excepted": 1681,
      "▁suddenly": 1682,
      "▁relatively": 1683,
      "▁asking": 1684,
      "▁eee": 1685,
      "##raeli": 1686,
      "▁crackers": 1687,
      "▁pastels": 1688,
      "▁hibernation": 1689,
      "##oun": 1690,
      "##iron": 1691,
      "▁nove": 1692,
      "▁dol": 1693,
      "▁tackle": 1694,
      "▁believe": 1695,
      "##ionary": 1696,
      "▁bookst": 1697,
      "▁employee": 1698,
      "▁represents": 1699,
      "▁wandering": 1700,
      "▁nuc": 1701,
      "▁staircase": 1702,
      "▁recommends": 1703,
      "▁homeopathy": 1704,
      "##ba": 1705,
      "▁fet": 1706,
      "▁sensitivity": 1707,
      "▁compromise": 1708,
      "▁concern": 1709,
      "▁publications": 1710,
      "▁prisoner": 1711,
      "##aws": 1712,
      "▁given": 1713,
      "##ike": 1714,
      "▁pub": 1715,
      "▁traffick": 1716,
      "##rils": 1717,
      "##ecution": 1718,
      "▁boycott": 1719,
      "▁lip": 1720,
      "##ctuation": 1721,
      "▁showed": 1722,
      "▁mummy": 1723,
      "▁liquid": 1724,
      "▁difficulties": 1725,
      "▁suffered": 1726,
      "▁intervening": 1727,
      "##enience": 1728,
      "▁christ": 1729,
      "▁affirm": 1730,
      "##mpath": 1731,
      "##eap": 1732,
      "▁many": 1733,
      "▁clerics": 1734,
      "##in": 1735,
      "##ific": 1736,
      "▁staged": 1737,
      "##ck": 1738,
      "▁gift": 1739,
      "▁raffle": 1740,
      "▁boots": 1741,
      "▁subsidi": 1742,
      "▁gum": 1743,
      "▁basketball": 1744,
      "##ualize": 1745,
      "▁cinema": 1746,
      "▁submits": 1747,
      "▁hidden": 1748,
      "##front": 1749,
      "##ower": 1750,
      "▁incl": 1751,
      "▁laundry": 1752,
      "▁provisions": 1753,
      "▁russian": 1754,
      "▁rin": 1755,
      "▁vehicles": 1756,
      "▁=---": 1757,
      "▁popular": 1758,
      "▁thawed": 1759,
      "▁attic": 1760,
      "▁death": 1761,
      "##are": 1762,
      "▁breathing": 1763,
      "▁canc": 1764,
      "▁disag": 1765,
      "##room": 1766,
      "▁airplane": 1767,
      "▁-----------------------------------------------------------------": 1768,
      "##xth": 1769,
      "▁contro": 1770,
      "▁sigh": 1771,
      "##ocrats": 1772,
      "##ablish": 1773,
      "##fare": 1774,
      "##aints": 1775,
      "##ida": 1776,
      "▁ukra": 1777,
      "##inews": 1778,
      "▁retal": 1779,
      "▁resources": 1780,
      "▁noted": 1781,
      "▁soft": 1782,
      "▁pg": 1783,
      "▁majority": 1784,
      "▁packed": 1785,
      "▁predicted": 1786,
      "▁whil": 1787,
      "##igg": 1788,
      "▁shipment": 1789,
      "##omm": 1790,
      "##isms": 1791,
      "▁saus": 1792,
      "##ow": 1793,
      "##de": 1794,
      "▁fu": 1795,
      "▁biologists": 1796,
      "▁integrate": 1797,
      "##usts": 1798,
      "##used": 1799,
      "▁tall": 1800,
      "▁obligations": 1801,
      "▁calculate": 1802,
      "▁stret": 1803,
      "▁oppression": 1804,
      "▁identi": 1805,
      "##tiles": 1806,
      "##iety": 1807,
      "##father": 1808,
      "##gry": 1809,
      "▁servers": 1810,
      "▁poli": 1811,
      "▁viewpoints": 1812,
      "▁abs": 1813,
      "▁frid": 1814,
      "▁folio": 1815,
      "▁company": 1816,
      "▁hiking": 1817,
      "▁processes": 1818,
      "▁bleachers": 1819,
      "##aign": 1820,
      "##ibility": 1821,
      "▁supporters": 1822,
      "##ans": 1823,
      "▁cider": 1824,
      "▁matching": 1825,
      "▁curves": 1826,
      "▁supporting": 1827,
      "▁overlooked": 1828,
      "▁ld2d-#69345-1.doc": 1829,
      "▁aboard": 1830,
      "▁fairs": 1831,
      "▁chaps": 1832,
      "▁convince": 1833,
      "▁companions": 1834,
      "▁monster": 1835,
      "▁scribb": 1836,
      "▁expected": 1837,
      "▁assume": 1838,
      "##kay": 1839,
      "##ewing": 1840,
      "▁pound": 1841,
      "▁tradition": 1842,
      "▁belon": 1843,
      "▁november": 1844,
      "▁featured": 1845,
      "##----------------": 1846,
      "##ild": 1847,
      "##odes": 1848,
      "##gate": 1849,
      "##acity": 1850,
      "▁now": 1851,
      "##tish": 1852,
      "##keting": 1853,
      "##tiation": 1854,
      "##information": 1855,
      "▁gisb": 1856,
      "▁deleg": 1857,
      "▁cri": 1858,
      "##astruc": 1859,
      "▁matched": 1860,
      "##dict": 1861,
      "▁budgets": 1862,
      "▁qualities": 1863,
      "▁guidance": 1864,
      "▁warehouse": 1865,
      "▁critic": 1866,
      "▁makers": 1867,
      "##-boat": 1868,
      "▁trunk": 1869,
      "▁hurting": 1870,
      "##esty": 1871,
      "##ouk": 1872,
      "▁bunny": 1873,
      "▁feared": 1874,
      "▁withdraw": 1875,
      "▁disintegration": 1876,
      "##inging": 1877,
      "▁encomp": 1878,
      "##”s": 1879,
      "▁ensure": 1880,
      "##<": 1881,
      "▁mexican": 1882,
      "▁diving": 1883,
      "▁ropes": 1884,
      "▁returning": 1885,
      "▁according": 1886,
      "▁kissing": 1887,
      "▁foss": 1888,
      "▁surrounded": 1889,
      "▁prev": 1890,
      "##6-1.xls": 1891,
      "▁affect": 1892,
      "##hip": 1893,
      "▁awards": 1894,
      "▁underlying": 1895,
      "▁system": 1896,
      "▁production": 1897,
      "▁remedies": 1898,
      "##ish": 1899,
      "▁split": 1900,
      "▁wren": 1901,
      "##port": 1902,
      "##ousness": 1903,
      "##tiv": 1904,
      "▁tort": 1905,
      "▁asset": 1906,
      "▁technician": 1907,
      "▁’": 1908,
      "▁bid": 1909,
      "▁sop": 1910,
      "▁autonomy": 1911,
      "##ith": 1912,
      "▁wheels": 1913,
      "##onsumers": 1914,
      "##ename": 1915,
      "▁parked": 1916,
      "##orama": 1917,
      "▁disapp": 1918,
      "▁positive": 1919,
      "▁novelists": 1920,
      "##gery": 1921,
      "▁accelerated": 1922,
      "▁anim": 1923,
      "▁negotiations": 1924,
      "▁plate": 1925,
      "##obs": 1926,
      "▁twenty": 1927,
      "▁adam": 1928,
      "##itial": 1929,
      "▁---=": 1930,
      "##gth": 1931,
      "▁tools": 1932,
      "▁simpli": 1933,
      "▁purch": 1934,
      "▁wrestle": 1935,
      "▁increasing": 1936,
      "▁indianapolis": 1937,
      "▁shrapnel": 1938,
      "##rect": 1939,
      "▁barrel": 1940,
      "▁politician": 1941,
      "▁sculpt": 1942,
      "▁august": 1943,
      "▁professionals": 1944,
      "▁airport": 1945,
      "▁wik": 1946,
      "##lift": 1947,
      "##ked": 1948,
      "##itical": 1949,
      "▁resolved": 1950,
      "##iled": 1951,
      "▁mute": 1952,
      "▁dog": 1953,
      "▁hamburger": 1954,
      "▁bicycle": 1955,
      "▁swaying": 1956,
      "▁although": 1957,
      "▁beaters": 1958,
      "##odder": 1959,
      "▁cleaners": 1960,
      "▁war": 1961,
      "▁neighboring": 1962,
      "▁barrette": 1963,
      "▁commerce": 1964,
      "▁flags": 1965,
      "▁setoff": 1966,
      "▁crooks": 1967,
      "_": 1968,
      "##tarian": 1969,
      "##aliation": 1970,
      "▁genes": 1971,
      "▁attend": 1972,
      "▁systems": 1973,
      "▁patter": 1974,
      "▁connects": 1975,
      "▁assumes": 1976,
      "##ral": 1977,
      "▁cir": 1978,
      "▁dvd": 1979,
      "##making": 1980,
      "▁discount": 1981,
      "▁provin": 1982,
      "▁outbre": 1983,
      "▁emperor": 1984,
      "▁duel": 1985,
      "##99": 1986,
      "▁administrator": 1987,
      "##tains": 1988,
      "▁description": 1989,
      "▁python": 1990,
      "##oes": 1991,
      "▁bible": 1992,
      "##els": 1993,
      "▁described": 1994,
      "▁exclaim": 1995,
      "##avor": 1996,
      "▁operation": 1997,
      "▁knees": 1998,
      "▁prototyp": 1999,
      "##enture": 2000,
      "▁summaries": 2001,
      "▁gathering": 2002,
      "▁dwibbling": 2003,
      "▁mini": 2004,
      "▁herself": 2005,
      "▁!": 2006,
      "▁stupid": 2007,
      "▁agents": 2008,
      "▁define": 2009,
      "▁dating": 2010,
      "▁prosperity": 2011,
      "▁chasing": 2012,
      "##ravated": 2013,
      "▁controvers": 2014,
      "▁only": 2015,
      "▁beauty": 2016,
      "▁insist": 2017,
      "##lics": 2018,
      "▁humanities": 2019,
      "▁tran": 2020,
      "▁tooth": 2021,
      "▁ethics": 2022,
      "▁stev": 2023,
      "##ouch": 2024,
      "▁benefit": 2025,
      "▁customers": 2026,
      "▁hind": 2027,
      "▁understood": 2028,
      "▁ignorance": 2029,
      "##ss.xls": 2030,
      "##ials": 2031,
      "▁d.": 2032,
      "▁rhymes": 2033,
      "▁dreamed": 2034,
      "##overn": 2035,
      "▁manager": 2036,
      "▁pixel": 2037,
      "x": 2038,
      "▁wiel": 2039,
      "▁adjust": 2040,
      "▁deposition": 2041,
      "##ful": 2042,
      "▁collections": 2043,
      "##yroc": 2044,
      "▁solidarity": 2045,
      "▁names": 2046,
      "▁october": 2047,
      "▁que": 2048,
      "##ginally": 2049,
      "▁instance": 2050,
      "v": 2051,
      "▁fri": 2052,
      "▁pancakes": 2053,
      "##emen": 2054,
      "▁second-class": 2055,
      "▁parliament": 2056,
      "▁west": 2057,
      "▁database": 2058,
      "▁played": 2059,
      "##orted": 2060,
      "▁politics": 2061,
      "##:/": 2062,
      "▁2001": 2063,
      "▁chess": 2064,
      "▁me": 2065,
      "▁down": 2066,
      "▁structure": 2067,
      "▁cann": 2068,
      "##lessly": 2069,
      "▁syria": 2070,
      "##uster": 2071,
      "##amati": 2072,
      "##city": 2073,
      "▁nationalities": 2074,
      "##fec": 2075,
      "▁scoop": 2076,
      "##enda": 2077,
      "▁fascination": 2078,
      "▁refus": 2079,
      "▁starters": 2080,
      "▁closed": 2081,
      "▁click": 2082,
      "▁sunglasses": 2083,
      "##umulation": 2084,
      "▁tube": 2085,
      "▁remaining": 2086,
      "▁queso": 2087,
      "##gain": 2088,
      "▁warmth": 2089,
      "▁departures": 2090,
      "▁styrof": 2091,
      "▁rebels": 2092,
      "▁drill": 2093,
      "##????????????????????????????????": 2094,
      "##gu": 2095,
      "▁gucker": 2096,
      "▁conflicts": 2097,
      "▁cust": 2098,
      "▁toss": 2099,
      "▁flir": 2100,
      "▁schem": 2101,
      "▁radiation": 2102,
      "▁delta": 2103,
      "▁cart": 2104,
      "▁armaments": 2105,
      "▁mary": 2106,
      "##velled": 2107,
      "▁rumbling": 2108,
      "▁ambassad": 2109,
      "▁sound": 2110,
      "▁torture": 2111,
      "▁foisted": 2112,
      "▁traged": 2113,
      "▁release": 2114,
      "▁pirate": 2115,
      "▁jig": 2116,
      "▁bub": 2117,
      "▁easing": 2118,
      "▁fungus": 2119,
      "▁expects": 2120,
      "##leys": 2121,
      "▁grandma": 2122,
      "▁broad": 2123,
      "▁disper": 2124,
      "▁whom": 2125,
      "###": 2126,
      "▁rbi": 2127,
      "##points": 2128,
      "##isl": 2129,
      "▁criminal": 2130,
      "▁marketers": 2131,
      "▁resist": 2132,
      "▁reaction": 2133,
      "##esday": 2134,
      "▁electricity": 2135,
      "▁shelf": 2136,
      "▁boyfriend": 2137,
      "▁pyr": 2138,
      "▁heard": 2139,
      "▁mind": 2140,
      "▁strike": 2141,
      "▁devote": 2142,
      "##aed": 2143,
      "##ael": 2144,
      "▁valley": 2145,
      "##ectives": 2146,
      "▁perm": 2147,
      "▁surprise": 2148,
      "##opes": 2149,
      "▁donor": 2150,
      "▁maybe": 2151,
      "▁texas": 2152,
      "▁commissioner": 2153,
      "▁paw": 2154,
      "▁cloth": 2155,
      "##aurs": 2156,
      "▁yelling": 2157,
      "▁voters": 2158,
      "▁lasts": 2159,
      "▁responsibility": 2160,
      "##lit": 2161,
      "▁discussions": 2162,
      "▁ops": 2163,
      "▁locking": 2164,
      "##ures": 2165,
      "▁stad": 2166,
      "▁rows": 2167,
      "▁axis": 2168,
      "▁autof": 2169,
      "##corn": 2170,
      "▁fan": 2171,
      "##gest": 2172,
      "▁ver": 2173,
      "▁done": 2174,
      "▁mids": 2175,
      "▁peter": 2176,
      "▁cen": 2177,
      "##onstr": 2178,
      "▁muttered": 2179,
      "▁casualties": 2180,
      "▁student": 2181,
      "▁painted": 2182,
      "▁someone": 2183,
      "▁|": 2184,
      "##ages": 2185,
      "##uct": 2186,
      "▁init": 2187,
      "▁avo": 2188,
      "▁frequented": 2189,
      "▁taco": 2190,
      "▁exaggerated": 2191,
      "▁sav": 2192,
      "▁minding": 2193,
      "▁reported": 2194,
      "▁supper": 2195,
      "##aping": 2196,
      "▁tup": 2197,
      "##ineered": 2198,
      "##ml": 2199,
      "▁current": 2200,
      "▁considers": 2201,
      "▁single": 2202,
      "▁tomb": 2203,
      "▁chart": 2204,
      "1": 2205,
      "▁easi": 2206,
      "▁significance": 2207,
      "##uments": 2208,
      "▁recr": 2209,
      "▁servants": 2210,
      "##alising": 2211,
      "▁liver": 2212,
      "##ails": 2213,
      "▁rebuil": 2214,
      "##use": 2215,
      "▁eyes": 2216,
      "▁reflect": 2217,
      "▁abst": 2218,
      "▁fli": 2219,
      "▁login": 2220,
      "▁overs": 2221,
      "▁nut": 2222,
      "▁scholar": 2223,
      "##grader": 2224,
      "##bye": 2225,
      "▁lanes": 2226,
      "▁yrs": 2227,
      "▁tan": 2228,
      "▁counter": 2229,
      "▁sup": 2230,
      "▁mechan": 2231,
      "▁toward": 2232,
      "▁workforce": 2233,
      "▁sympathize": 2234,
      "▁skittles": 2235,
      "▁communic": 2236,
      "▁ann": 2237,
      "▁road": 2238,
      "▁examined": 2239,
      "▁jap": 2240,
      "▁bowls": 2241,
      "▁bol": 2242,
      "▁discoveries": 2243,
      "▁am": 2244,
      "▁defined": 2245,
      "▁pending": 2246,
      "##sand": 2247,
      "▁imag": 2248,
      "▁husbands": 2249,
      "▁apron": 2250,
      "▁when": 2251,
      "▁desp": 2252,
      "▁investig": 2253,
      "▁bott": 2254,
      "▁ip": 2255,
      "▁acup": 2256,
      "▁apol": 2257,
      "▁microphone": 2258,
      "▁proclaimed": 2259,
      "▁busted": 2260,
      "▁facet": 2261,
      "▁handled": 2262,
      "▁jackets": 2263,
      "▁ye": 2264,
      "##lds": 2265,
      "▁tortilla": 2266,
      "▁consumerism": 2267,
      "▁cereal": 2268,
      "▁grants": 2269,
      "▁fin": 2270,
      "▁mum": 2271,
      "▁understands": 2272,
      "▁but": 2273,
      "▁cle": 2274,
      "##par": 2275,
      "▁sailed": 2276,
      "##oys": 2277,
      "▁cors": 2278,
      "##nel": 2279,
      "▁sides": 2280,
      "▁sustainability": 2281,
      "▁asp": 2282,
      "▁snowboard": 2283,
      "▁streets": 2284,
      "▁appointment": 2285,
      "▁mercury": 2286,
      "##one": 2287,
      "ɑ": 2288,
      "##here": 2289,
      "▁cake": 2290,
      "▁organization": 2291,
      "▁sausages": 2292,
      "▁tricycle": 2293,
      "▁kidn": 2294,
      "##rite": 2295,
      "▁marks": 2296,
      "##yness": 2297,
      "##inu": 2298,
      "▁bap": 2299,
      "▁caring": 2300,
      "##3n": 2301,
      "▁copy": 2302,
      "▁wording": 2303,
      "▁dictate": 2304,
      "▁array": 2305,
      "▁hams": 2306,
      "▁neither": 2307,
      "▁~": 2308,
      "▁trend": 2309,
      "▁recovered": 2310,
      "##ientific": 2311,
      "▁effectiveness": 2312,
      "##orities": 2313,
      "##ɔ": 2314,
      "▁revers": 2315,
      "▁bowf": 2316,
      "▁manuscri": 2317,
      "▁kicking": 2318,
      "▁incorporates": 2319,
      "▁message": 2320,
      "▁ey": 2321,
      "▁challenge": 2322,
      "▁hoops": 2323,
      "▁manor": 2324,
      "▁scores": 2325,
      "##uma": 2326,
      "▁relates": 2327,
      "▁notw": 2328,
      "▁misfortune": 2329,
      "▁counseling": 2330,
      "▁postponed": 2331,
      "▁legitimacy": 2332,
      "##hm": 2333,
      "▁contacted": 2334,
      "##prisingly": 2335,
      "▁simplicity": 2336,
      "##ibilities": 2337,
      "▁keeps": 2338,
      "▁governments": 2339,
      "##-l": 2340,
      "▁intrud": 2341,
      "##rap": 2342,
      "▁paintings": 2343,
      "##tax": 2344,
      "##att": 2345,
      "▁santa": 2346,
      "▁ingred": 2347,
      "##lization": 2348,
      "▁fing": 2349,
      "▁celebrations": 2350,
      "▁podcast": 2351,
      "▁.........": 2352,
      "▁adapting": 2353,
      "▁chall": 2354,
      "##mely": 2355,
      "▁evolved": 2356,
      "▁brass": 2357,
      "▁praise": 2358,
      "##paper": 2359,
      "▁bugs": 2360,
      "▁allows": 2361,
      "▁cuts": 2362,
      "▁sophie": 2363,
      "▁seem": 2364,
      "##arded": 2365,
      "▁++++": 2366,
      "##ya": 2367,
      "▁interval": 2368,
      "▁hip": 2369,
      "▁horse": 2370,
      "▁waves": 2371,
      "▁july": 2372,
      "▁stolen": 2373,
      "▁magaz": 2374,
      "▁recover": 2375,
      "▁yo": 2376,
      "##98": 2377,
      "▁staying": 2378,
      "##osity": 2379,
      "▁shrew": 2380,
      "▁mwh": 2381,
      "▁reduc": 2382,
      "▁indust": 2383,
      "▁root": 2384,
      "##imizing": 2385,
      "▁neck": 2386,
      "▁effected": 2387,
      "##arth": 2388,
      "²": 2389,
      "▁cage": 2390,
      "▁establishments": 2391,
      "##erings": 2392,
      "▁chapter": 2393,
      "▁perme": 2394,
      "▁celebr": 2395,
      "##oved": 2396,
      "▁persists": 2397,
      "##eep": 2398,
      "▁dusting": 2399,
      "▁uh": 2400,
      "##ationed": 2401,
      "##ilize": 2402,
      "▁priority": 2403,
      "▁engaged": 2404,
      "##ably": 2405,
      "▁tele": 2406,
      "▁jews": 2407,
      "▁gratitude": 2408,
      "##uts": 2409,
      "##oughly": 2410,
      "▁broaden": 2411,
      "▁tre": 2412,
      "##ologists": 2413,
      "##ertainly": 2414,
      "▁centre": 2415,
      "▁avail": 2416,
      "▁giant": 2417,
      "▁vodka": 2418,
      "▁cent": 2419,
      "▁lamb": 2420,
      "▁pel": 2421,
      "▁construction": 2422,
      "##icious": 2423,
      "▁rent": 2424,
      "▁storage": 2425,
      "▁carolina": 2426,
      "##illance": 2427,
      "▁scare": 2428,
      "▁imbalance": 2429,
      "▁tearing": 2430,
      "▁gene": 2431,
      "▁melted": 2432,
      "▁cy": 2433,
      "▁sink": 2434,
      "##unch": 2435,
      "▁madness": 2436,
      "##nut": 2437,
      "##osite": 2438,
      "##ithst": 2439,
      "▁well": 2440,
      "▁gard": 2441,
      "▁quote": 2442,
      "▁journey": 2443,
      "▁gtee": 2444,
      "▁glad": 2445,
      "▁likeness": 2446,
      "▁yoyo": 2447,
      "##ocated": 2448,
      "##hf": 2449,
      "▁hop": 2450,
      "##achment": 2451,
      "▁po": 2452,
      "▁modified": 2453,
      "▁&": 2454,
      "##igned": 2455,
      "▁bleed": 2456,
      "▁shrouded": 2457,
      "▁prayers": 2458,
      "▁realize": 2459,
      "▁scub": 2460,
      "▁hal": 2461,
      "▁iraqi": 2462,
      "##emic": 2463,
      "▁adj": 2464,
      "▁oatme": 2465,
      "##ellers": 2466,
      "▁populated": 2467,
      "▁if": 2468,
      "▁doorman": 2469,
      "▁******************************************************************": 2470,
      "▁departments": 2471,
      "##pour": 2472,
      "▁antenna": 2473,
      "▁substituted": 2474,
      "▁enough": 2475,
      "▁signoff": 2476,
      "▁freezing": 2477,
      "▁subj": 2478,
      "##tr": 2479,
      "▁conservation": 2480,
      "##**": 2481,
      "▁display": 2482,
      "▁finished": 2483,
      "▁admired": 2484,
      "▁steam": 2485,
      "▁formal": 2486,
      "▁b/": 2487,
      "▁phd": 2488,
      "##anim": 2489,
      "##gel": 2490,
      "▁robes": 2491,
      "▁thrive": 2492,
      "▁dripping": 2493,
      "▁discre": 2494,
      "▁jud": 2495,
      "▁water": 2496,
      "▁rider": 2497,
      "##ence": 2498,
      "##minate": 2499,
      "▁disclaimer": 2500,
      "▁vessels": 2501,
      "▁borrowers": 2502,
      "▁marrying": 2503,
      "▁rates": 2504,
      "▁hamsters": 2505,
      "▁tamed": 2506,
      "▁weight": 2507,
      "▁reaffirm": 2508,
      "▁sev": 2509,
      "▁remembering": 2510,
      "▁epc": 2511,
      "▁mur": 2512,
      "▁voc": 2513,
      "▁plaintiff": 2514,
      "▁center": 2515,
      "▁....": 2516,
      "▁accomplished": 2517,
      "▁prize": 2518,
      "▁uv": 2519,
      "▁output": 2520,
      "▁aud": 2521,
      "▁parameters": 2522,
      "▁bread": 2523,
      "▁ign": 2524,
      "##affle": 2525,
      "##erry": 2526,
      "##works": 2527,
      "▁assemble": 2528,
      "▁anatom": 2529,
      "▁chemistry": 2530,
      "▁wrest": 2531,
      "##ately": 2532,
      "▁payers": 2533,
      "▁disl": 2534,
      "▁tripped": 2535,
      "##ge": 2536,
      "▁htt": 2537,
      "▁artists": 2538,
      "▁bricks": 2539,
      "▁achie": 2540,
      "▁israeli": 2541,
      "▁chase": 2542,
      "▁disb": 2543,
      "▁reportedly": 2544,
      "▁chat": 2545,
      "▁contractor": 2546,
      "▁demanded": 2547,
      "▁man": 2548,
      "##eachment": 2549,
      "▁innov": 2550,
      "▁conventions": 2551,
      "##09": 2552,
      "▁inputs": 2553,
      "▁acqui": 2554,
      "▁interact": 2555,
      "▁dese": 2556,
      "##unge": 2557,
      "##peakers": 2558,
      "##ρ": 2559,
      "##osed": 2560,
      "▁properties": 2561,
      "##children": 2562,
      "▁pigs": 2563,
      "##atis": 2564,
      "▁restrictions": 2565,
      "▁v02": 2566,
      "▁cycles": 2567,
      "▁favor": 2568,
      "▁clin": 2569,
      "##angers": 2570,
      "▁bell": 2571,
      "▁entering": 2572,
      "##bles": 2573,
      "▁motive": 2574,
      "▁scientific": 2575,
      "▁rel": 2576,
      "##pse": 2577,
      "▁dreams": 2578,
      "▁annex": 2579,
      "▁initiative": 2580,
      "##d-": 2581,
      "▁pregn": 2582,
      "▁aband": 2583,
      "▁grf": 2584,
      "▁leaning": 2585,
      "▁regim": 2586,
      "##ural": 2587,
      "▁sliding": 2588,
      "▁tired": 2589,
      "▁rate": 2590,
      "##ians": 2591,
      "▁except": 2592,
      "▁hobby": 2593,
      "▁advances": 2594,
      "##copes": 2595,
      "▁untied": 2596,
      "[SEP]": 2597,
      "▁row": 2598,
      "▁besides": 2599,
      "▁mail": 2600,
      "▁seating": 2601,
      "▁blowing": 2602,
      "▁toof": 2603,
      "▁gallon": 2604,
      "▁fab": 2605,
      "▁dal": 2606,
      "▁drugs": 2607,
      "▁2014": 2608,
      "▁characteristics": 2609,
      "▁candles": 2610,
      "▁syrup": 2611,
      "▁sessions": 2612,
      "▁unic": 2613,
      "▁varieties": 2614,
      "##gings": 2615,
      "▁actors": 2616,
      "▁aper": 2617,
      "##oh": 2618,
      "▁league": 2619,
      "##erina": 2620,
      "##rowave": 2621,
      "▁outliers": 2622,
      "▁buyers": 2623,
      "##aling": 2624,
      "▁popsicle": 2625,
      "##eria": 2626,
      "##...@": 2627,
      "▁directing": 2628,
      "▁imprison": 2629,
      "▁beep": 2630,
      "▁meet": 2631,
      "▁soils": 2632,
      "▁certific": 2633,
      "▁mouths": 2634,
      "##urally": 2635,
      "▁writer": 2636,
      "▁summit": 2637,
      "▁promised": 2638,
      "▁weake": 2639,
      "▁pieces": 2640,
      "▁cia": 2641,
      "▁yiel": 2642,
      "▁auth": 2643,
      "▁sc": 2644,
      "▁concerns": 2645,
      "▁stage": 2646,
      "▁somebody": 2647,
      "▁attr": 2648,
      "▁exa": 2649,
      "##ews": 2650,
      "▁chalkboard": 2651,
      "▁q": 2652,
      "##erent": 2653,
      "##eurs": 2654,
      "▁contractors": 2655,
      "▁thigh": 2656,
      "▁visits": 2657,
      "▁despit": 2658,
      "▁vod": 2659,
      "##mble": 2660,
      "▁pseudonym": 2661,
      "▁hierarch": 2662,
      "▁declined": 2663,
      "▁effective": 2664,
      "▁charl": 2665,
      "▁memor": 2666,
      "##arrassment": 2667,
      "▁galois": 2668,
      "▁crust": 2669,
      "▁manufactured": 2670,
      "▁communication": 2671,
      "▁mesh": 2672,
      "##ulses": 2673,
      "▁deployment": 2674,
      "▁mounds": 2675,
      "▁pho": 2676,
      "▁ahead": 2677,
      "▁eu": 2678,
      "▁health": 2679,
      "##aries": 2680,
      "▁paradig": 2681,
      "▁beet": 2682,
      "▁simulation": 2683,
      "##holes": 2684,
      "▁hauled": 2685,
      "▁yogh": 2686,
      "▁lie": 2687,
      "▁___________": 2688,
      "▁distinction": 2689,
      "##au": 2690,
      "▁wallpaper": 2691,
      "##oof": 2692,
      "##lu": 2693,
      "##alf": 2694,
      "▁waist": 2695,
      "##ational": 2696,
      "##’": 2697,
      "▁pocket": 2698,
      "▁ourselves": 2699,
      "▁detroit": 2700,
      "##ugs": 2701,
      "▁apost": 2702,
      "▁sandals": 2703,
      "▁answered": 2704,
      "##oma": 2705,
      "▁muscles": 2706,
      ")": 2707,
      "▁application": 2708,
      "▁tuna": 2709,
      "▁administ": 2710,
      "▁worse": 2711,
      "##esting": 2712,
      "▁pod": 2713,
      "▁rac": 2714,
      "▁responds": 2715,
      "▁exam": 2716,
      "▁loud": 2717,
      "▁burb": 2718,
      "##aining": 2719,
      "▁representation": 2720,
      "▁founder": 2721,
      "##emporary": 2722,
      "▁rhythm": 2723,
      "▁frontier": 2724,
      "▁won": 2725,
      "##agraph": 2726,
      "▁misunderstanding": 2727,
      "▁balls": 2728,
      "▁cures": 2729,
      "##rop": 2730,
      "▁surplus": 2731,
      "▁weekday": 2732,
      "##alu": 2733,
      "##³": 2734,
      "▁work": 2735,
      "▁cheese": 2736,
      "▁beside": 2737,
      "▁should": 2738,
      "▁del": 2739,
      "##inth": 2740,
      "▁darkness": 2741,
      "▁1970s": 2742,
      "▁groceries": 2743,
      "▁machinery": 2744,
      "▁fred": 2745,
      "##no": 2746,
      "▁answers": 2747,
      "▁using": 2748,
      "##uri": 2749,
      "##place": 2750,
      "##omp": 2751,
      "##hold": 2752,
      "▁impacts": 2753,
      "▁hostages": 2754,
      "##com": 2755,
      "▁fundamental": 2756,
      "▁hatred": 2757,
      "▁too": 2758,
      "▁dirty": 2759,
      "▁x3-9890": 2760,
      "▁stop": 2761,
      "##stache": 2762,
      "▁insulation": 2763,
      "▁acquaint": 2764,
      "▁ursula": 2765,
      "▁weekend": 2766,
      "▁stickerbirds": 2767,
      "▁wager": 2768,
      "▁blurred": 2769,
      "▁arrayed": 2770,
      "▁paints": 2771,
      "▁forever": 2772,
      "▁credence": 2773,
      "▁o": 2774,
      "▁dh": 2775,
      "▁receives": 2776,
      "##se": 2777,
      "▁fresh": 2778,
      "▁cycle": 2779,
      "▁emper": 2780,
      "▁°": 2781,
      "▁prem": 2782,
      "▁introduction": 2783,
      "▁marking": 2784,
      "▁contend": 2785,
      "▁hospitals": 2786,
      "##=----": 2787,
      "▁job": 2788,
      "▁bulbs": 2789,
      "▁gripped": 2790,
      "▁proved": 2791,
      "▁totally": 2792,
      "##rog": 2793,
      "##bes": 2794,
      "▁shoes": 2795,
      "▁cupcakes": 2796,
      "▁county": 2797,
      "▁diarr": 2798,
      "##mentation": 2799,
      "▁environments": 2800,
      "▁appointments": 2801,
      "##inction": 2802,
      "##auce": 2803,
      "▁rob": 2804,
      "▁pony": 2805,
      "▁hasid": 2806,
      "▁hashtag": 2807,
      "▁supp": 2808,
      "▁ag": 2809,
      "▁winging": 2810,
      "##/2": 2811,
      "▁blud": 2812,
      "▁dais": 2813,
      "▁karma": 2814,
      "##omore": 2815,
      "##90's": 2816,
      "##ows": 2817,
      "▁entirely": 2818,
      "▁circulation": 2819,
      "##7.doc": 2820,
      "▁instr": 2821,
      "##erilla": 2822,
      "##medi": 2823,
      "▁patron": 2824,
      "▁zeitgeist": 2825,
      "▁penn": 2826,
      "##duction": 2827,
      "##lus": 2828,
      "▁shout": 2829,
      "▁revenge": 2830,
      "▁glanced": 2831,
      "▁val": 2832,
      "##neath": 2833,
      "▁containers": 2834,
      "##ν": 2835,
      "▁timing": 2836,
      "▁dip": 2837,
      "▁subst": 2838,
      "▁admir": 2839,
      "▁jurisd": 2840,
      "▁encourage": 2841,
      "▁mhm": 2842,
      "▁filtering": 2843,
      "▁moors": 2844,
      "##ups": 2845,
      "##lled": 2846,
      "▁isda": 2847,
      "##iated": 2848,
      "▁persp": 2849,
      "▁leaves": 2850,
      "▁stretched": 2851,
      "▁spill": 2852,
      "##ative": 2853,
      "##-qu": 2854,
      "##ansas": 2855,
      "▁ld2d-#6939": 2856,
      "▁luminol": 2857,
      "▁approaches": 2858,
      "▁fligh": 2859,
      "▁safety": 2860,
      "▁paired": 2861,
      "▁rendered": 2862,
      "▁germs": 2863,
      "##zing": 2864,
      "##aun": 2865,
      "▁provoke": 2866,
      "▁shouting": 2867,
      "▁abandon": 2868,
      "▁substance": 2869,
      "##nages": 2870,
      "##inking": 2871,
      "▁attachment": 2872,
      "##ov": 2873,
      "▁judge": 2874,
      "▁chem": 2875,
      "▁admissions": 2876,
      "##eop": 2877,
      "▁magazines": 2878,
      "▁museum": 2879,
      "▁bared": 2880,
      "##raw": 2881,
      "▁age": 2882,
      "▁back": 2883,
      "##owar": 2884,
      "▁resilience": 2885,
      "##amed": 2886,
      "▁required": 2887,
      "##alised": 2888,
      "##ette": 2889,
      "▁secrets": 2890,
      "▁anc": 2891,
      "▁wisd": 2892,
      "##iff": 2893,
      "##istor": 2894,
      "##gue": 2895,
      "▁fantasy": 2896,
      "▁kind": 2897,
      "▁wandered": 2898,
      "▁mature": 2899,
      "▁principle": 2900,
      "▁audiences": 2901,
      "▁chewed": 2902,
      "▁mechanism": 2903,
      "▁jet": 2904,
      "▁breaking": 2905,
      "▁indeed": 2906,
      "▁passing": 2907,
      "▁cyclones": 2908,
      "▁terrain": 2909,
      "▁graduating": 2910,
      "▁restric": 2911,
      "▁profic": 2912,
      "▁crashed": 2913,
      "▁ena": 2914,
      "##ess": 2915,
      "▁dus": 2916,
      "##gor": 2917,
      "▁cuffs": 2918,
      "▁expl": 2919,
      "##89": 2920,
      "▁intr": 2921,
      "##ater": 2922,
      "##h": 2923,
      "▁deadbol": 2924,
      "▁layover": 2925,
      "##aponize": 2926,
      "▁rice": 2927,
      "##ods": 2928,
      "▁immediately": 2929,
      "▁form": 2930,
      "▁hotdog": 2931,
      "▁ears": 2932,
      "▁incorporated": 2933,
      "▁eyeb": 2934,
      "▁sol": 2935,
      "##ounded": 2936,
      "▁ties": 2937,
      "##ocentrism": 2938,
      "##ubs": 2939,
      "▁exhaus": 2940,
      "▁yourselves": 2941,
      "▁chronic": 2942,
      "▁leaving": 2943,
      "▁ascending": 2944,
      "##ecuted": 2945,
      "▁mov": 2946,
      "▁sections": 2947,
      "▁shape": 2948,
      "▁establish": 2949,
      "▁martyr": 2950,
      "▁ri": 2951,
      "##ips": 2952,
      "▁develops": 2953,
      "▁slammed": 2954,
      "##ec": 2955,
      "##ares": 2956,
      "▁spread": 2957,
      "##entil": 2958,
      "▁sci": 2959,
      "▁determine": 2960,
      "##ference": 2961,
      "##tes": 2962,
      "▁case": 2963,
      "▁lives": 2964,
      "▁orchestrated": 2965,
      "▁ribbons": 2966,
      "▁childbir": 2967,
      "##uter": 2968,
      "##ouses": 2969,
      "▁prel": 2970,
      "##eef": 2971,
      "/": 2972,
      "##oitation": 2973,
      "##eti": 2974,
      "▁brainw": 2975,
      "▁creations": 2976,
      "▁cooked": 2977,
      "▁benefited": 2978,
      "▁airplanes": 2979,
      "##onde": 2980,
      "▁phantom": 2981,
      "½": 2982,
      "▁identified": 2983,
      "▁libr": 2984,
      "##co": 2985,
      "▁scar": 2986,
      "##lights": 2987,
      "##itation": 2988,
      "▁vitamin": 2989,
      "▁jewel": 2990,
      "▁28": 2991,
      "##enance": 2992,
      "▁carn": 2993,
      "▁personally": 2994,
      "▁rec": 2995,
      "##ighb": 2996,
      "▁practice": 2997,
      "##keep": 2998,
      "▁hummus": 2999,
      "##resent": 3000,
      "▁frozen": 3001,
      "##umed": 3002,
      "▁half": 3003,
      "▁generali": 3004,
      "▁bases": 3005,
      "▁judgement": 3006,
      "▁astride": 3007,
      "▁individ": 3008,
      "##atitude": 3009,
      "▁develop": 3010,
      "▁corporation": 3011,
      "##vening": 3012,
      "▁treatise": 3013,
      "▁mel": 3014,
      "##uro": 3015,
      "##keeping": 3016,
      "▁tossed": 3017,
      "▁cages": 3018,
      "▁meanings": 3019,
      "▁ind": 3020,
      "▁distraction": 3021,
      "▁reimb": 3022,
      "▁rabbi": 3023,
      "▁conse": 3024,
      "▁muffs": 3025,
      "▁gd": 3026,
      "▁uses": 3027,
      "▁imple": 3028,
      "##umps": 3029,
      "▁biz": 3030,
      "▁distric": 3031,
      "▁shores": 3032,
      "▁assembly": 3033,
      "##iction": 3034,
      "▁arrival": 3035,
      "▁accumulate": 3036,
      "▁injured": 3037,
      "▁abcs": 3038,
      "▁audit": 3039,
      "▁moreover": 3040,
      "▁advised": 3041,
      "▁trick": 3042,
      "▁geography": 3043,
      "▁peroxide": 3044,
      "▁terror": 3045,
      "▁india": 3046,
      "▁knife": 3047,
      "▁tariff": 3048,
      "▁equivalence": 3049,
      "##arize": 3050,
      "##enced": 3051,
      "▁designed": 3052,
      "##ir": 3053,
      "▁cl": 3054,
      "▁quiz": 3055,
      "##1-1.doc": 3056,
      "▁lettuce": 3057,
      "##nec": 3058,
      "▁exists": 3059,
      "##nt": 3060,
      "▁hus": 3061,
      "▁addiction": 3062,
      "▁grumble": 3063,
      "##arf": 3064,
      "▁wishing": 3065,
      "▁emergency": 3066,
      "▁islets": 3067,
      "▁forehead": 3068,
      "▁simpl": 3069,
      "##aly": 3070,
      "▁recommend": 3071,
      "▁managed": 3072,
      "▁mouf": 3073,
      "▁unicorn": 3074,
      "▁honey": 3075,
      "▁tubes": 3076,
      "▁virtue": 3077,
      "▁gap": 3078,
      "▁prospect": 3079,
      "##portedly": 3080,
      "▁add": 3081,
      "▁fireplaces": 3082,
      "▁teeth": 3083,
      "▁maw": 3084,
      "▁motorcycle": 3085,
      "▁stuff": 3086,
      "▁dessert": 3087,
      "##edness": 3088,
      "##ificant": 3089,
      "▁tile": 3090,
      "##ivers": 3091,
      "##gre": 3092,
      "▁allegations": 3093,
      "▁pains": 3094,
      "▁persuaded": 3095,
      "▁grave": 3096,
      "▁compatibility": 3097,
      "▁newark": 3098,
      "▁launched": 3099,
      "▁silkie": 3100,
      "▁clues": 3101,
      "##inate": 3102,
      "##body": 3103,
      "▁faun": 3104,
      "œ": 3105,
      "▁assisting": 3106,
      "▁reminds": 3107,
      "▁opponent": 3108,
      "▁firstly": 3109,
      "##onishment": 3110,
      "▁hackers": 3111,
      "▁cance": 3112,
      "▁flipped": 3113,
      "▁quinoa": 3114,
      "▁fedayeen": 3115,
      "▁citizen": 3116,
      "##erer": 3117,
      "▁embr": 3118,
      "▁decisions": 3119,
      "▁burrow": 3120,
      "▁accuses": 3121,
      "▁debut": 3122,
      "##opath": 3123,
      "▁motto": 3124,
      "▁household": 3125,
      "▁behave": 3126,
      "▁oct": 3127,
      "##storm": 3128,
      "▁steak": 3129,
      "▁shipped": 3130,
      "▁bab": 3131,
      "##irus": 3132,
      "##pers": 3133,
      "▁bureaucr": 3134,
      "▁sculp": 3135,
      "▁distinguishes": 3136,
      "▁experiences": 3137,
      "##....": 3138,
      "▁rud": 3139,
      "▁repos": 3140,
      "▁italy": 3141,
      "▁lungs": 3142,
      "▁telephone": 3143,
      "▁flew": 3144,
      "▁handle": 3145,
      "▁amid": 3146,
      "▁bothered": 3147,
      "▁sha": 3148,
      "##erco": 3149,
      "##,": 3150,
      "▁characteris": 3151,
      "▁mir": 3152,
      "▁effect": 3153,
      "▁orlando": 3154,
      "##cularly": 3155,
      "▁opening": 3156,
      "▁opin": 3157,
      "▁comedy": 3158,
      "##umbled": 3159,
      "##rowed": 3160,
      "▁rotation": 3161,
      "##igate": 3162,
      "▁curse": 3163,
      "##mb": 3164,
      "▁spos": 3165,
      "▁crack": 3166,
      "▁screen": 3167,
      "▁terr": 3168,
      "▁customizing": 3169,
      "▁all": 3170,
      "##spec": 3171,
      "##continent": 3172,
      "▁separating": 3173,
      "##lings": 3174,
      "▁p.m": 3175,
      "▁editor": 3176,
      "##ologist": 3177,
      "▁temper": 3178,
      "▁waiting": 3179,
      "▁buying": 3180,
      "▁appell": 3181,
      "▁sought": 3182,
      "▁futures": 3183,
      "▁between": 3184,
      "##ooped": 3185,
      "##ks": 3186,
      "▁penalties": 3187,
      "##oads": 3188,
      "▁aug": 3189,
      "▁continue": 3190,
      "▁privile": 3191,
      "##rating": 3192,
      "##attered": 3193,
      "##ooked": 3194,
      "▁recognize": 3195,
      "##****************": 3196,
      "##uation": 3197,
      "▁playing": 3198,
      "▁gps": 3199,
      "##ently": 3200,
      "▁murdered": 3201,
      "▁nin": 3202,
      "▁steal": 3203,
      "▁shirts": 3204,
      "▁direction": 3205,
      "##omas": 3206,
      "##irts": 3207,
      "▁bitmap": 3208,
      "##-house": 3209,
      "▁target": 3210,
      "▁noone": 3211,
      "##otch": 3212,
      "##ator": 3213,
      "▁consumers": 3214,
      "▁backing": 3215,
      "▁committ": 3216,
      "▁quarter": 3217,
      "##ractions": 3218,
      "▁jihad": 3219,
      "▁expelling": 3220,
      "▁skitt": 3221,
      "▁gets": 3222,
      "▁thirds": 3223,
      "▁atrophy": 3224,
      "▁shock": 3225,
      "##-------": 3226,
      "▁shudder": 3227,
      "▁rapidly": 3228,
      "##dent": 3229,
      "▁observance": 3230,
      "▁photographer": 3231,
      "▁defeated": 3232,
      "▁pep": 3233,
      "▁designer": 3234,
      "▁convicts": 3235,
      "▁ball": 3236,
      "##owled": 3237,
      "▁commissioners": 3238,
      "▁sisters": 3239,
      "▁russians": 3240,
      "▁tell": 3241,
      "▁queen": 3242,
      "▁brushing": 3243,
      "▁pennies": 3244,
      "▁video": 3245,
      "▁threatened": 3246,
      "▁businessman": 3247,
      "▁fellow": 3248,
      "▁’re": 3249,
      "▁reintroduced": 3250,
      "▁monit": 3251,
      "▁2004": 3252,
      "##ators": 3253,
      "▁observation": 3254,
      "▁intercep": 3255,
      "▁reconciliation": 3256,
      "▁vaccines": 3257,
      "▁blessed": 3258,
      "▁roms": 3259,
      "▁wound": 3260,
      "▁offic": 3261,
      "▁sack": 3262,
      "▁bankn": 3263,
      "▁emerged": 3264,
      "▁obtained": 3265,
      "##rent": 3266,
      "▁concentration": 3267,
      "##istribution": 3268,
      "▁accordance": 3269,
      "▁supplies": 3270,
      "▁dark": 3271,
      "##af": 3272,
      "##hic": 3273,
      "▁?": 3274,
      "▁remains": 3275,
      "▁expiration": 3276,
      "##tained": 3277,
      "##roenter": 3278,
      "##sst": 3279,
      "##ortion": 3280,
      "▁reside": 3281,
      "▁convers": 3282,
      "##pily": 3283,
      "##rax": 3284,
      "▁cradle": 3285,
      "▁adhering": 3286,
      "▁vit": 3287,
      "▁sph": 3288,
      "▁biographers": 3289,
      "▁19": 3290,
      "▁legend": 3291,
      "▁dallas": 3292,
      "▁momm": 3293,
      "▁functions": 3294,
      "▁lights": 3295,
      "##-e": 3296,
      "##adas": 3297,
      "##ws": 3298,
      "##ghting": 3299,
      "##cp": 3300,
      "▁consists": 3301,
      "▁history": 3302,
      "##cence": 3303,
      "▁preci": 3304,
      "▁rooms": 3305,
      "▁sag": 3306,
      "▁inequality": 3307,
      "▁throw": 3308,
      "▁imagine": 3309,
      "▁posting": 3310,
      "▁keys": 3311,
      "▁shrimp": 3312,
      "##igh": 3313,
      "▁traced": 3314,
      "▁avoid": 3315,
      "##aker": 3316,
      "▁videoc": 3317,
      "##erd": 3318,
      "##day": 3319,
      "▁stability": 3320,
      "▁inscri": 3321,
      "##irling": 3322,
      "▁penis": 3323,
      "▁rude": 3324,
      "▁dow": 3325,
      "##\"": 3326,
      "▁pan-d": 3327,
      "##ignation": 3328,
      "▁combine": 3329,
      "▁assumptions": 3330,
      "▁uhh": 3331,
      "▁reads": 3332,
      "▁transition": 3333,
      "▁discontent": 3334,
      "##tiality": 3335,
      "▁tsar": 3336,
      "▁surviving": 3337,
      "▁manufactur": 3338,
      "▁contested": 3339,
      "▁tatt": 3340,
      "##s.": 3341,
      "▁grace": 3342,
      "##wrec": 3343,
      "▁petroleum": 3344,
      "▁salt": 3345,
      "▁prompted": 3346,
      "▁af": 3347,
      "##ber": 3348,
      "▁tennis": 3349,
      "##imited": 3350,
      "▁basil": 3351,
      "##arc": 3352,
      "▁float": 3353,
      "▁hesitate": 3354,
      "▁clothes": 3355,
      "##back": 3356,
      "▁servings": 3357,
      "▁shortly": 3358,
      "▁centuries": 3359,
      "▁regain": 3360,
      "▁books": 3361,
      "▁enemies": 3362,
      "▁substit": 3363,
      "▁manipulating": 3364,
      "▁dived": 3365,
      "▁consult": 3366,
      "▁existed": 3367,
      "##onin": 3368,
      "▁”": 3369,
      "##bons": 3370,
      "▁helpful": 3371,
      "▁moun": 3372,
      "▁ld2d-": 3373,
      "▁countries": 3374,
      "▁featuring": 3375,
      "▁trouble": 3376,
      "##ary": 3377,
      "▁lengths": 3378,
      "##ica": 3379,
      "▁wink": 3380,
      "▁bachel": 3381,
      "##eless": 3382,
      "▁alth": 3383,
      "▁actions": 3384,
      "▁tex": 3385,
      "▁whilst": 3386,
      "##ion": 3387,
      "##oc": 3388,
      "▁curr": 3389,
      "##mall": 3390,
      "▁slid": 3391,
      "▁custom": 3392,
      "##tibility": 3393,
      "##ril": 3394,
      "▁collects": 3395,
      "##vated": 3396,
      "▁term": 3397,
      "▁peak": 3398,
      "▁mm": 3399,
      "▁train": 3400,
      "▁hotel": 3401,
      "▁butter": 3402,
      "▁recovering": 3403,
      "▁machines": 3404,
      "##backs": 3405,
      "##ributed": 3406,
      "##ulating": 3407,
      "##nesses": 3408,
      "▁rather": 3409,
      "▁i.e.": 3410,
      "▁dynam": 3411,
      "▁mig": 3412,
      "▁expel": 3413,
      "3": 3414,
      "▁conte": 3415,
      "▁protocol": 3416,
      "▁instructors": 3417,
      "▁fishes": 3418,
      "▁criminals": 3419,
      "▁saved": 3420,
      "▁cropdusters": 3421,
      "▁avenue": 3422,
      "▁83n": 3423,
      "▁fleeing": 3424,
      "▁coordination": 3425,
      "##onsum": 3426,
      "▁ice": 3427,
      "▁wang": 3428,
      "▁banging": 3429,
      "▁economies": 3430,
      "▁tro": 3431,
      "##φ": 3432,
      "▁techn": 3433,
      "##ision": 3434,
      "▁carve": 3435,
      "##prints": 3436,
      "##helf": 3437,
      "▁themselves": 3438,
      "▁warming": 3439,
      "▁tal": 3440,
      "▁president": 3441,
      "▁'ve": 3442,
      "▁sudd": 3443,
      "▁diale": 3444,
      "##pill": 3445,
      "##angut": 3446,
      "##enna": 3447,
      "▁blueberries": 3448,
      "▁dup": 3449,
      "▁duty": 3450,
      "▁strol": 3451,
      "▁ready": 3452,
      "▁contrast": 3453,
      "##ugg": 3454,
      "▁chris": 3455,
      "▁tolerance": 3456,
      "##bblers": 3457,
      "▁alone": 3458,
      "▁handed": 3459,
      "▁spouting": 3460,
      "▁remembered": 3461,
      "▁offense": 3462,
      "▁tragicomed": 3463,
      "▁ignor": 3464,
      "##ecting": 3465,
      "▁muse": 3466,
      "▁doctr": 3467,
      "▁altern": 3468,
      "▁enron.xls": 3469,
      "##mited": 3470,
      "▁crosses": 3471,
      "##thma": 3472,
      "▁volume": 3473,
      "▁profile": 3474,
      "▁approximation": 3475,
      "##naires": 3476,
      "▁deprived": 3477,
      "▁situated": 3478,
      "▁lacks": 3479,
      "▁um": 3480,
      "▁coast": 3481,
      "▁ski": 3482,
      "▁faced": 3483,
      "▁cheat": 3484,
      "▁jigsaw": 3485,
      "▁imm": 3486,
      "▁task": 3487,
      "▁innovations": 3488,
      "▁ostrich": 3489,
      "▁scrambled": 3490,
      "▁exchange": 3491,
      "##itivity": 3492,
      "▁disagre": 3493,
      "▁saf": 3494,
      "▁portra": 3495,
      "▁nud": 3496,
      "▁military": 3497,
      "▁truly": 3498,
      "##imb": 3499,
      "▁getting": 3500,
      "“": 3501,
      "▁bombing": 3502,
      "▁necks": 3503,
      "##either": 3504,
      "▁commentary": 3505,
      "▁re-elected": 3506,
      "▁depending": 3507,
      "##down": 3508,
      "▁funerals": 3509,
      "▁dollars": 3510,
      "▁cour": 3511,
      "##raction": 3512,
      "▁conve": 3513,
      "▁rewards": 3514,
      "▁owned": 3515,
      "##ipelag": 3516,
      "▁destinations": 3517,
      "▁doo": 3518,
      "▁volumes": 3519,
      "##ributes": 3520,
      "##wit": 3521,
      "▁examination": 3522,
      "▁wipe": 3523,
      "ł": 3524,
      "▁bright": 3525,
      "▁elder": 3526,
      "##others": 3527,
      "▁associate": 3528,
      "##mental": 3529,
      "▁dictionary": 3530,
      "▁sand": 3531,
      "##ap": 3532,
      "▁observe": 3533,
      "▁teething": 3534,
      "▁distr": 3535,
      "##ases": 3536,
      "▁say": 3537,
      "▁bands": 3538,
      "##ons": 3539,
      "▁heels": 3540,
      "▁lotos": 3541,
      "##times": 3542,
      "##row": 3543,
      "▁approached": 3544,
      "▁fulf": 3545,
      "▁bombed": 3546,
      "##outh": 3547,
      "▁relations": 3548,
      "##oop": 3549,
      "▁elephants": 3550,
      "▁initiate": 3551,
      "▁enri": 3552,
      "▁tickles": 3553,
      "▁ships": 3554,
      "▁trauma": 3555,
      "▁meals": 3556,
      "##ame": 3557,
      "▁interrup": 3558,
      "##iu": 3559,
      "▁finances": 3560,
      "▁9": 3561,
      "▁philosopher": 3562,
      "▁supports": 3563,
      "##aw": 3564,
      "▁targ": 3565,
      "▁fork": 3566,
      "▁overflow": 3567,
      "▁%": 3568,
      "▁pea": 3569,
      "▁moral": 3570,
      "▁therefore": 3571,
      "▁llms": 3572,
      "▁e-mail": 3573,
      "##vas": 3574,
      "▁matches": 3575,
      "▁pressures": 3576,
      "▁agric": 3577,
      "▁appreciation": 3578,
      "##tened": 3579,
      "▁it's": 3580,
      "##igital": 3581,
      "##ains": 3582,
      "▁p.s": 3583,
      "##grad": 3584,
      "▁blending": 3585,
      "▁ground": 3586,
      "▁royalist": 3587,
      "▁nt": 3588,
      "▁covered": 3589,
      "▁receive": 3590,
      "##athers": 3591,
      "▁approximately": 3592,
      "▁over": 3593,
      "▁resolution": 3594,
      "▁emerging": 3595,
      "▁reality": 3596,
      "▁bridge": 3597,
      "▁phone": 3598,
      "▁science": 3599,
      "##gie": 3600,
      "▁celeb": 3601,
      "▁reactions": 3602,
      "##asis": 3603,
      "▁committed": 3604,
      "▁shop": 3605,
      "▁phoenix": 3606,
      "▁capt": 3607,
      "##piles": 3608,
      "▁stone": 3609,
      "▁conquest": 3610,
      "▁bees": 3611,
      "▁dough": 3612,
      "▁monies": 3613,
      "▁pursued": 3614,
      "▁channe": 3615,
      "▁b&b": 3616,
      "▁gov": 3617,
      "▁municip": 3618,
      "##dation": 3619,
      "▁acknowledging": 3620,
      "▁traveled": 3621,
      "▁spanish": 3622,
      "▁resolve": 3623,
      "▁mitchell": 3624,
      "▁entry": 3625,
      "##cause": 3626,
      "▁pleasant": 3627,
      "▁heroes": 3628,
      "▁fraud": 3629,
      "▁hust": 3630,
      "##resident": 3631,
      "##cts": 3632,
      "▁kitt": 3633,
      "▁fund": 3634,
      "▁everything": 3635,
      "##itting": 3636,
      "▁illustrate": 3637,
      "##ertai": 3638,
      "▁method": 3639,
      "▁ra": 3640,
      "▁engineering": 3641,
      "##lections": 3642,
      "▁elbows": 3643,
      "▁transporting": 3644,
      "##ream": 3645,
      "▁boasts": 3646,
      "##-war": 3647,
      "▁ex": 3648,
      "▁reconc": 3649,
      "▁dilem": 3650,
      "▁dissemination": 3651,
      "▁fre": 3652,
      "▁prep": 3653,
      "▁apprec": 3654,
      "▁adap": 3655,
      "▁enjoyment": 3656,
      "▁frustration": 3657,
      "##otions": 3658,
      "▁choke": 3659,
      "##que": 3660,
      "▁warn": 3661,
      "▁owl": 3662,
      "▁true": 3663,
      "##viously": 3664,
      "▁including": 3665,
      "▁hero": 3666,
      "▁memories": 3667,
      "▁middle": 3668,
      "▁orange": 3669,
      "▁mic": 3670,
      "▁realities": 3671,
      "##iot": 3672,
      "▁weaponize": 3673,
      "▁travelling": 3674,
      "▁gates": 3675,
      "##led": 3676,
      "##erious": 3677,
      "##stop": 3678,
      "▁cottage": 3679,
      "##ges": 3680,
      "▁weakness": 3681,
      "▁pres": 3682,
      "▁possess": 3683,
      "##ported": 3684,
      "▁quidditch": 3685,
      "##stairs": 3686,
      "▁somewhat": 3687,
      "##kind": 3688,
      "▁instructed": 3689,
      "▁targeted": 3690,
      "▁assortment": 3691,
      "▁cooperation": 3692,
      "▁love": 3693,
      "▁attach": 3694,
      "▁llm": 3695,
      "▁eaten": 3696,
      "▁busy": 3697,
      "▁evidence": 3698,
      "▁white": 3699,
      "▁agency": 3700,
      "##tice": 3701,
      "▁furnished": 3702,
      "▁fixtures": 3703,
      "▁compound": 3704,
      "▁chasers": 3705,
      "▁empty": 3706,
      "▁uvb": 3707,
      "▁expressed": 3708,
      "▁tugged": 3709,
      "▁trousers": 3710,
      "▁males": 3711,
      "▁libraries": 3712,
      "▁kang": 3713,
      "▁kins": 3714,
      "▁identify": 3715,
      "▁pretended": 3716,
      "▁cow": 3717,
      "▁wednesdays": 3718,
      "▁7th": 3719,
      "▁tower": 3720,
      "##/2000": 3721,
      "##uttered": 3722,
      "▁racket": 3723,
      "##chup": 3724,
      "▁trot": 3725,
      "▁compli": 3726,
      "▁amm": 3727,
      "##ched": 3728,
      "##ql": 3729,
      "##ob": 3730,
      "##tively": 3731,
      "▁tam": 3732,
      "▁seconds": 3733,
      "▁quack": 3734,
      "▁pride": 3735,
      "▁writed": 3736,
      "▁specify": 3737,
      "▁preorder": 3738,
      "▁posture": 3739,
      "▁offering": 3740,
      "▁doing": 3741,
      "##ority": 3742,
      "▁driving": 3743,
      "▁ripping": 3744,
      "▁limous": 3745,
      "▁spre": 3746,
      "▁injustice": 3747,
      "##etter": 3748,
      "▁sit": 3749,
      "▁gambling": 3750,
      "▁eczema": 3751,
      "▁meets": 3752,
      "▁quest": 3753,
      "▁7": 3754,
      "▁discomfort": 3755,
      "▁whiff": 3756,
      "▁audiobooks": 3757,
      "▁alerts": 3758,
      "▁pimple": 3759,
      "▁gf": 3760,
      "▁improvements": 3761,
      "##oin": 3762,
      "▁approx": 3763,
      "▁cred": 3764,
      "##phere": 3765,
      "▁fris": 3766,
      "▁climbing": 3767,
      "▁nap": 3768,
      "##rick": 3769,
      "##rates": 3770,
      "▁voices": 3771,
      "##3": 3772,
      "▁importance": 3773,
      "▁interior": 3774,
      "##essing": 3775,
      "▁emitting": 3776,
      "▁proble": 3777,
      "▁dri": 3778,
      "##ared": 3779,
      "▁voted": 3780,
      "##eterm": 3781,
      "##lation": 3782,
      "##tsbur": 3783,
      "▁posted": 3784,
      "▁applies": 3785,
      "▁daytime": 3786,
      "▁hotline": 3787,
      "##ands": 3788,
      "▁deserves": 3789,
      "▁appreciate": 3790,
      "▁dope": 3791,
      "##actor": 3792,
      "▁sale": 3793,
      "▁commodity": 3794,
      "▁stressed": 3795,
      "▁kilomet": 3796,
      "▁restricted": 3797,
      "▁ruined": 3798,
      "▁interjection": 3799,
      "▁cuc": 3800,
      "▁'re": 3801,
      "▁conjunction": 3802,
      "##sl": 3803,
      "▁editing": 3804,
      "▁scaven": 3805,
      "##perc": 3806,
      "▁regar": 3807,
      "▁orn": 3808,
      "▁knowledge": 3809,
      "▁moves": 3810,
      "▁barb": 3811,
      "▁miles": 3812,
      "##isf": 3813,
      "▁diseases": 3814,
      "##usement": 3815,
      "▁entrep": 3816,
      "▁represented": 3817,
      "##inary": 3818,
      "▁nowhere": 3819,
      "▁e.g.": 3820,
      "▁kittens": 3821,
      "▁awesome": 3822,
      "▁probably": 3823,
      "▁adopt": 3824,
      "▁personal": 3825,
      "▁wakes": 3826,
      "▁drizz": 3827,
      "▁indignation": 3828,
      "▁density": 3829,
      "▁emer": 3830,
      "▁num": 3831,
      "##tee": 3832,
      "##uned": 3833,
      "▁deal": 3834,
      "▁fail": 3835,
      "▁conde": 3836,
      "▁tourism": 3837,
      "##unately": 3838,
      "##cessful": 3839,
      "▁hiring": 3840,
      "▁spots": 3841,
      "▁flood": 3842,
      "▁records": 3843,
      "▁anyway": 3844,
      "▁itinerary": 3845,
      "##struc": 3846,
      "##apes": 3847,
      "##andon": 3848,
      "##200": 3849,
      "▁ashes": 3850,
      "▁handles": 3851,
      "~": 3852,
      "▁lots": 3853,
      "##loyed": 3854,
      "▁belly": 3855,
      "##pins": 3856,
      "▁corpor": 3857,
      "▁broker": 3858,
      "##v.": 3859,
      "▁shuff": 3860,
      "▁missing": 3861,
      "▁pressure": 3862,
      "▁4": 3863,
      "▁calls": 3864,
      "##chang": 3865,
      "▁identifies": 3866,
      "▁flooded": 3867,
      "▁entered": 3868,
      "▁fair": 3869,
      "▁attacks": 3870,
      "▁satel": 3871,
      "▁admin": 3872,
      "▁specializing": 3873,
      "##itives": 3874,
      "▁first": 3875,
      "▁notwithstanding": 3876,
      "##ential": 3877,
      "##der": 3878,
      "▁sel": 3879,
      "▁dried": 3880,
      "▁pyth": 3881,
      "▁represent": 3882,
      "▁credited": 3883,
      "##igation": 3884,
      "▁alig": 3885,
      "▁citizens": 3886,
      "##aid": 3887,
      "##alling": 3888,
      "##liflower": 3889,
      "##400": 3890,
      "##enny": 3891,
      "▁reporting": 3892,
      "▁racking": 3893,
      "▁tiss": 3894,
      "▁nursery": 3895,
      "▁ship": 3896,
      "##ainly": 3897,
      "▁urging": 3898,
      "▁drills": 3899,
      "▁clue": 3900,
      "▁departing": 3901,
      "▁jo": 3902,
      "▁comple": 3903,
      "▁looked": 3904,
      "▁humanity": 3905,
      "▁gath": 3906,
      "▁harp": 3907,
      "##:1": 3908,
      "▁suck": 3909,
      "▁pipeline": 3910,
      "▁theat": 3911,
      "▁southeast": 3912,
      "▁comp.sources.unix": 3913,
      "##tail": 3914,
      "##craft": 3915,
      "▁wasting": 3916,
      "##aven": 3917,
      "▁interviewed": 3918,
      "▁bou": 3919,
      "▁mayonna": 3920,
      "▁operations": 3921,
      "##bt": 3922,
      "▁were": 3923,
      "▁coincidence": 3924,
      "▁confused": 3925,
      "▁wellbeing": 3926,
      "▁persistence": 3927,
      "▁pickle": 3928,
      "##tm": 3929,
      "▁class": 3930,
      "##istency": 3931,
      "##otion": 3932,
      "▁completely": 3933,
      "##-s": 3934,
      "▁cabinet": 3935,
      "▁undermine": 3936,
      "▁:": 3937,
      "▁damaged": 3938,
      "▁unfold": 3939,
      "▁canopy": 3940,
      "▁comp.s": 3941,
      "▁s&": 3942,
      "▁sto": 3943,
      "▁alert": 3944,
      "##ctive": 3945,
      "▁gle": 3946,
      "▁joint": 3947,
      "▁linguistics": 3948,
      "▁avoiding": 3949,
      "##cery": 3950,
      "##oala": 3951,
      "▁strut": 3952,
      "##gence": 3953,
      "▁nuisance": 3954,
      "▁controversy": 3955,
      "▁about": 3956,
      "▁ancest": 3957,
      "▁election": 3958,
      "▁beaches": 3959,
      "##assed": 3960,
      "▁spind": 3961,
      "<": 3962,
      "▁gon": 3963,
      "##jected": 3964,
      "▁range": 3965,
      "▁signature": 3966,
      "▁reservations": 3967,
      "▁proced": 3968,
      "##otte": 3969,
      "▁popup": 3970,
      "##ses": 3971,
      "##ended": 3972,
      "▁went": 3973,
      "▁pix": 3974,
      "▁seg": 3975,
      "▁evolve": 3976,
      "▁relics": 3977,
      "▁hamp": 3978,
      "▁langu": 3979,
      "▁potential": 3980,
      "##outs": 3981,
      "▁comfor": 3982,
      "▁loun": 3983,
      "##x": 3984,
      "##idding": 3985,
      "▁tears": 3986,
      "##ali": 3987,
      "##agon": 3988,
      "▁fruit": 3989,
      "▁baker": 3990,
      "▁bum": 3991,
      "##istan": 3992,
      "▁months": 3993,
      "##aste": 3994,
      "▁fer": 3995,
      "▁charlie": 3996,
      "▁seamst": 3997,
      "▁occasions": 3998,
      "▁publicly": 3999,
      "▁width": 4000,
      "▁demonstration": 4001,
      "▁alt.animals.cat": 4002,
      "##roph": 4003,
      "▁displacement": 4004,
      "##itters": 4005,
      "▁abroad": 4006,
      "##alizing": 4007,
      "▁-----": 4008,
      "▁dots": 4009,
      "▁childcare": 4010,
      "▁authorship": 4011,
      "▁bookstore": 4012,
      "▁scand": 4013,
      "▁soon": 4014,
      "▁aer": 4015,
      "##terations": 4016,
      "##ration": 4017,
      "▁explan": 4018,
      "▁reinforcing": 4019,
      "▁stress": 4020,
      "▁slept": 4021,
      "▁weakening": 4022,
      "▁rally": 4023,
      "▁auster": 4024,
      "▁respecting": 4025,
      "▁paris": 4026,
      "▁mineral": 4027,
      "▁patients": 4028,
      "▁landed": 4029,
      "▁feels": 4030,
      "▁kidding": 4031,
      "▁requirement": 4032,
      "##bra": 4033,
      "▁i.e": 4034,
      "▁drafting": 4035,
      "##eeze": 4036,
      "##ocol": 4037,
      "##eno": 4038,
      "▁screams": 4039,
      "▁influx": 4040,
      "##ittering": 4041,
      "##erole": 4042,
      "▁twentieth": 4043,
      "▁rescue": 4044,
      "▁autobiography": 4045,
      "▁silver": 4046,
      "##ote": 4047,
      "▁places": 4048,
      "##look": 4049,
      "##zer": 4050,
      "▁warhol": 4051,
      "##urbs": 4052,
      "▁staring": 4053,
      "▁hoc": 4054,
      "▁triumph": 4055,
      "##umber": 4056,
      "▁nothing": 4057,
      "▁constit": 4058,
      "##.d": 4059,
      "##onds": 4060,
      "▁neighbourhood": 4061,
      "##worms": 4062,
      "##raph": 4063,
      "▁wednesday": 4064,
      "##nutrition": 4065,
      "▁yoy": 4066,
      "▁ranked": 4067,
      "▁behind": 4068,
      "▁fish": 4069,
      "▁tax": 4070,
      "▁killers": 4071,
      "##ticip": 4072,
      "▁ide": 4073,
      "##tles": 4074,
      "▁explode": 4075,
      "▁factory": 4076,
      "▁dependency": 4077,
      "▁ones": 4078,
      "▁inversion": 4079,
      "▁05": 4080,
      "▁compel": 4081,
      "##book": 4082,
      "▁era": 4083,
      "▁jer": 4084,
      "▁families": 4085,
      "▁crab": 4086,
      "▁allocated": 4087,
      "▁restri": 4088,
      "▁composed": 4089,
      "▁build": 4090,
      "▁consc": 4091,
      "▁obsc": 4092,
      "▁smile": 4093,
      "▁favorites": 4094,
      "▁clothespin": 4095,
      "▁dav": 4096,
      "▁concre": 4097,
      "▁fasc": 4098,
      "▁hospitality": 4099,
      "▁ancestors": 4100,
      "##ront": 4101,
      "▁crushed": 4102,
      "##akes": 4103,
      "▁octopus": 4104,
      "▁commons": 4105,
      "▁regarded": 4106,
      "▁drank": 4107,
      "▁lips": 4108,
      "▁turkey": 4109,
      "▁dock": 4110,
      "##inting": 4111,
      "▁revealed": 4112,
      "##will": 4113,
      "▁cali": 4114,
      "▁labour": 4115,
      "▁assuming": 4116,
      "##perity": 4117,
      "▁directors": 4118,
      "▁falls": 4119,
      "▁librarians": 4120,
      "▁tug": 4121,
      "##rie": 4122,
      "▁20s": 4123,
      "▁developer": 4124,
      "▁court": 4125,
      "▁sett": 4126,
      "▁involving": 4127,
      "▁hash": 4128,
      "▁23": 4129,
      "▁struggle": 4130,
      "##iments": 4131,
      "▁soybean": 4132,
      "▁capitalism": 4133,
      "▁edges": 4134,
      "▁fps": 4135,
      "▁aspirations": 4136,
      "##alties": 4137,
      "▁bitsy": 4138,
      "##7": 4139,
      "▁extending": 4140,
      "*": 4141,
      "▁mba": 4142,
      "▁stif": 4143,
      "▁insurg": 4144,
      "▁face": 4145,
      "▁finish": 4146,
      "▁upd": 4147,
      "##ig": 4148,
      "▁no": 4149,
      "▁stair": 4150,
      "##20s": 4151,
      "▁symphony": 4152,
      "##held": 4153,
      "▁sust": 4154,
      "##code": 4155,
      "▁disli": 4156,
      "##.com": 4157,
      "▁talking": 4158,
      "##acks": 4159,
      "▁panting": 4160,
      "▁recieve": 4161,
      "##unct": 4162,
      "##roc": 4163,
      "▁headache": 4164,
      "▁mention": 4165,
      "▁harmonica": 4166,
      "▁mam": 4167,
      "▁been": 4168,
      "▁occurrence": 4169,
      "##my": 4170,
      "▁swap": 4171,
      "▁&am": 4172,
      "▁caff": 4173,
      "▁mul": 4174,
      "▁mode": 4175,
      "##fortable": 4176,
      "▁enchil": 4177,
      "##w": 4178,
      "##ribute": 4179,
      "##word": 4180,
      "##keepers": 4181,
      "##erog": 4182,
      "▁earthqu": 4183,
      "##ocate": 4184,
      "▁predict": 4185,
      "▁jurisdiction": 4186,
      "▁insisted": 4187,
      "▁justify": 4188,
      "##urned": 4189,
      "##date": 4190,
      "▁curs": 4191,
      "▁waste": 4192,
      "▁organisations": 4193,
      "##gmented": 4194,
      "▁dep": 4195,
      "▁income": 4196,
      "▁tr": 4197,
      "▁snatched": 4198,
      "##cuse": 4199,
      "▁dilemmas": 4200,
      "##utin": 4201,
      "##icked": 4202,
      "▁performing": 4203,
      "▁stones": 4204,
      "##ield": 4205,
      "▁kick": 4206,
      "##ruary": 4207,
      "▁confirmed": 4208,
      "▁novella": 4209,
      "▁crude": 4210,
      "▁washed": 4211,
      "▁heavy": 4212,
      "▁putted": 4213,
      "▁oper": 4214,
      "▁puzzle": 4215,
      "▁chu": 4216,
      "▁wave": 4217,
      "##bernation": 4218,
      "▁told": 4219,
      "▁pizza": 4220,
      "▁prere": 4221,
      "##eling": 4222,
      "▁oils": 4223,
      "▁towar": 4224,
      "▁opportun": 4225,
      "##giveness": 4226,
      "▁sequence": 4227,
      "▁whales": 4228,
      "##asley": 4229,
      "▁fuse": 4230,
      "##>": 4231,
      "▁caused": 4232,
      "##riend": 4233,
      "▁situations": 4234,
      "##irm": 4235,
      "##bably": 4236,
      "▁tai": 4237,
      "▁trigg": 4238,
      "##oam": 4239,
      "##fa": 4240,
      "▁underst": 4241,
      "▁decree": 4242,
      "▁philosophy": 4243,
      "##ent": 4244,
      "▁mant": 4245,
      "▁dynamics": 4246,
      "▁tog": 4247,
      "##/1": 4248,
      "▁arriving": 4249,
      "▁farrier": 4250,
      "▁assessed": 4251,
      "##puts": 4252,
      "▁visitor": 4253,
      "▁sid": 4254,
      "▁solem": 4255,
      "▁dinner": 4256,
      "▁artworks": 4257,
      "▁mapping": 4258,
      "▁comprom": 4259,
      "##ns": 4260,
      "##pot": 4261,
      "##rics": 4262,
      "▁suppressed": 4263,
      "##ib": 4264,
      "##ffective": 4265,
      "##ising": 4266,
      "▁summ": 4267,
      "▁ridic": 4268,
      "▁hailed": 4269,
      "▁puppy": 4270,
      "▁two": 4271,
      "##gatory": 4272,
      "▁i": 4273,
      "▁dando": 4274,
      "##vers": 4275,
      "##tag": 4276,
      "▁ltte": 4277,
      "▁incen": 4278,
      "##rogen": 4279,
      "▁nip": 4280,
      "##fri": 4281,
      "##em": 4282,
      "▁trav": 4283,
      "▁suggestions": 4284,
      "▁cham": 4285,
      "##atnot": 4286,
      "##iel": 4287,
      "▁extent": 4288,
      "##inance": 4289,
      "▁landlord": 4290,
      "▁shepherd": 4291,
      "▁dand": 4292,
      "▁recognised": 4293,
      "##site": 4294,
      "##ique": 4295,
      "##ich": 4296,
      "▁binoculars": 4297,
      "▁artworld": 4298,
      "[MASK]": 4299,
      "▁repaid": 4300,
      "##ties": 4301,
      "▁pall": 4302,
      "▁finger": 4303,
      "##sel": 4304,
      "##rying": 4305,
      "##ouring": 4306,
      "▁smeared": 4307,
      "▁timed": 4308,
      "▁tel": 4309,
      "▁plastic": 4310,
      "▁qaeda": 4311,
      "##bone": 4312,
      "▁mh": 4313,
      "▁fixing": 4314,
      "##ressions": 4315,
      "##idd": 4316,
      "▁suspension": 4317,
      "▁mort": 4318,
      "▁endeavor": 4319,
      "##he": 4320,
      "▁milk": 4321,
      "##idity": 4322,
      "▁laptops": 4323,
      "▁doubt": 4324,
      "▁stakes": 4325,
      "▁poems": 4326,
      "##waukee": 4327,
      "▁excl": 4328,
      "▁studio": 4329,
      "▁warranty": 4330,
      "##uistics": 4331,
      "▁headline": 4332,
      "▁says": 4333,
      "▁buyer": 4334,
      "##appy": 4335,
      "▁violating": 4336,
      "▁orphan": 4337,
      "##haki": 4338,
      "▁mug": 4339,
      "▁efficient": 4340,
      "##angled": 4341,
      "##ituting": 4342,
      "##ych": 4343,
      "##arch": 4344,
      "##ff": 4345,
      "▁cold": 4346,
      "##-in": 4347,
      "▁detained": 4348,
      "##os": 4349,
      "▁cherished": 4350,
      "##ded": 4351,
      "##elag": 4352,
      "▁teachers": 4353,
      "▁ome": 4354,
      "##arized": 4355,
      "▁rise": 4356,
      "▁confidentiality": 4357,
      "##r": 4358,
      "##uting": 4359,
      "##lions": 4360,
      "▁derived": 4361,
      "▁jihadis": 4362,
      "▁scrap": 4363,
      "▁hairs": 4364,
      "##atic": 4365,
      "▁topper": 4366,
      "▁oink": 4367,
      "▁dispatch": 4368,
      "▁shops": 4369,
      "▁outcom": 4370,
      "##iny": 4371,
      "##hield": 4372,
      "▁medicine": 4373,
      "▁gang": 4374,
      "▁progression": 4375,
      "##uties": 4376,
      "▁oli": 4377,
      "##tai": 4378,
      "##owering": 4379,
      "##wan": 4380,
      "▁tou": 4381,
      "##gging": 4382,
      "▁artich": 4383,
      "▁sixth": 4384,
      "##op": 4385,
      "▁tolerate": 4386,
      "##thritis": 4387,
      "##ehouse": 4388,
      "##aster": 4389,
      "##tie": 4390,
      "##king": 4391,
      "▁bids": 4392,
      "▁overcome": 4393,
      "▁dime": 4394,
      "▁oatmeal": 4395,
      "▁olds": 4396,
      "##usions": 4397,
      "▁menu": 4398,
      "##gn": 4399,
      "▁sky": 4400,
      "▁acquire": 4401,
      "▁gogg": 4402,
      "▁good": 4403,
      "▁announcing": 4404,
      "▁dialing": 4405,
      "▁rattled": 4406,
      "▁daughter": 4407,
      "▁coali": 4408,
      "▁deteriorated": 4409,
      "▁anthrax": 4410,
      "▁sweater": 4411,
      "▁pregnancy": 4412,
      "▁porch": 4413,
      "##sical": 4414,
      "▁displays": 4415,
      "▁roared": 4416,
      "▁tankers": 4417,
      "##onom": 4418,
      "▁cost": 4419,
      "▁institution": 4420,
      "▁[...]": 4421,
      "▁observing": 4422,
      "##acking": 4423,
      "▁inno": 4424,
      "▁bulb": 4425,
      "▁forest": 4426,
      "▁africa": 4427,
      "##esh": 4428,
      "▁justification": 4429,
      "▁genders": 4430,
      "▁volati": 4431,
      "▁moaned": 4432,
      "##ommerce": 4433,
      "▁kibbutz": 4434,
      "##p;": 4435,
      "▁spine": 4436,
      "▁console": 4437,
      "▁conscience": 4438,
      "▁applic": 4439,
      "▁count": 4440,
      "##estone": 4441,
      "##ited": 4442,
      "▁09": 4443,
      "##0's": 4444,
      "▁play+": 4445,
      "▁associations": 4446,
      "▁follow": 4447,
      "##izing": 4448,
      "▁doggie": 4449,
      "##outu": 4450,
      "▁explains": 4451,
      "▁makes": 4452,
      "▁tin": 4453,
      "##vance": 4454,
      "##enger": 4455,
      "▁wreck": 4456,
      "##igrate": 4457,
      "▁astronauts": 4458,
      "▁promises": 4459,
      "▁roam": 4460,
      "▁draping": 4461,
      "▁eff": 4462,
      "▁treaties": 4463,
      "▁explaining": 4464,
      "##pec": 4465,
      "##ssi": 4466,
      "▁gloves": 4467,
      "##ily": 4468,
      "▁guil": 4469,
      "##abb": 4470,
      "▁drawer": 4471,
      "▁alleg": 4472,
      "##asses": 4473,
      "▁physician": 4474,
      "▁mass": 4475,
      "▁parade": 4476,
      "▁miami": 4477,
      "▁heaven": 4478,
      "▁colonies": 4479,
      "▁creative": 4480,
      "▁alligator": 4481,
      "##ij": 4482,
      "##zas": 4483,
      "##imately": 4484,
      "##vern": 4485,
      "▁willingness": 4486,
      "▁it": 4487,
      "▁game": 4488,
      "##ondon": 4489,
      "##top": 4490,
      "##is": 4491,
      "▁physi": 4492,
      "▁fuzz": 4493,
      "▁ben": 4494,
      "▁stirring": 4495,
      "▁hu": 4496,
      "##oss": 4497,
      "##card": 4498,
      "▁infinity": 4499,
      "##ression": 4500,
      "▁du": 4501,
      "##line": 4502,
      "▁cash": 4503,
      "▁invite": 4504,
      "▁nat": 4505,
      "##osure": 4506,
      "▁requiring": 4507,
      "▁misery": 4508,
      "▁scen": 4509,
      "##ters": 4510,
      "▁extinction": 4511,
      "##uah": 4512,
      "▁furn": 4513,
      "▁taper": 4514,
      "▁schedules": 4515,
      "▁commentators": 4516,
      "▁resul": 4517,
      "▁larg": 4518,
      "▁fourth": 4519,
      "▁package": 4520,
      "▁hanging": 4521,
      "▁considerations": 4522,
      "▁classroom": 4523,
      "▁increase": 4524,
      "▁quick": 4525,
      "##tra": 4526,
      "##akers": 4527,
      "##gy": 4528,
      "##ainted": 4529,
      "##asts": 4530,
      "▁cigar": 4531,
      "##ert": 4532,
      "▁tim": 4533,
      "▁buffet": 4534,
      "▁william": 4535,
      "##entiality": 4536,
      "▁acquis": 4537,
      "▁wounded": 4538,
      "▁mom": 4539,
      "▁compensate": 4540,
      "▁floor": 4541,
      "##/200": 4542,
      "▁pool": 4543,
      "##ards": 4544,
      "▁thousand": 4545,
      "▁spear": 4546,
      "▁priorities": 4547,
      "▁judges": 4548,
      "▁sour": 4549,
      "##fares": 4550,
      "▁pencils": 4551,
      "▁inh": 4552,
      "▁cigarettes": 4553,
      "▁bend": 4554,
      "▁context": 4555,
      "##ering": 4556,
      "▁cooker": 4557,
      "▁prote": 4558,
      "▁fluid": 4559,
      "▁bladder": 4560,
      "▁thumb": 4561,
      "▁mit": 4562,
      "▁attacking": 4563,
      "##alancing": 4564,
      "▁prop": 4565,
      "▁identifying": 4566,
      "▁sentence": 4567,
      "▁everywhere": 4568,
      "▁extend": 4569,
      "▁bounded": 4570,
      "▁extremist": 4571,
      "##ointed": 4572,
      "▁lions": 4573,
      "▁cat": 4574,
      "▁styling": 4575,
      "▁surren": 4576,
      "▁’d": 4577,
      "▁sleeves": 4578,
      "▁speech": 4579,
      "▁regions": 4580,
      "▁dang": 4581,
      "##dish": 4582,
      "▁achieving": 4583,
      "▁swear": 4584,
      "##velop": 4585,
      "##?": 4586,
      "##nies": 4587,
      "▁bumble": 4588,
      "▁governing": 4589,
      "##”": 4590,
      "▁ate": 4591,
      "▁infected": 4592,
      "##well": 4593,
      "##animals": 4594,
      "▁liabilities": 4595,
      "▁chin": 4596,
      "▁permission": 4597,
      "▁coupons": 4598,
      "▁gcp": 4599,
      "▁labyrinth": 4600,
      "▁mails": 4601,
      "▁jam": 4602,
      "▁mornings": 4603,
      "▁com": 4604,
      "▁recommending": 4605,
      "▁regarding": 4606,
      "▁fighting": 4607,
      "▁gown": 4608,
      "▁defense": 4609,
      "▁mines": 4610,
      "▁pretend": 4611,
      "##7th": 4612,
      "▁submit": 4613,
      "##mally": 4614,
      "▁placement": 4615,
      "▁mark": 4616,
      "▁inhabitants": 4617,
      "▁raising": 4618,
      "▁impl": 4619,
      "▁liked": 4620,
      "▁friendship": 4621,
      "▁oversight": 4622,
      "▁resentment": 4623,
      "▁discussed": 4624,
      "▁weather": 4625,
      "##ax": 4626,
      "▁introduc": 4627,
      "▁bray": 4628,
      "##asc": 4629,
      "▁sun": 4630,
      "##ission": 4631,
      "▁computing": 4632,
      "▁marx": 4633,
      "##ham": 4634,
      "▁ju": 4635,
      "▁guid": 4636,
      "▁taping": 4637,
      "##dle": 4638,
      "▁bang": 4639,
      "▁move": 4640,
      "▁dealing": 4641,
      "##dayeen": 4642,
      "-": 4643,
      "##den": 4644,
      "▁never": 4645,
      "▁arrives": 4646,
      "▁lisa": 4647,
      "▁laughs": 4648,
      "▁abstract": 4649,
      "##idency": 4650,
      "▁lasting": 4651,
      "▁manuscript": 4652,
      "##land": 4653,
      "▁watch": 4654,
      "▁quite": 4655,
      "▁compiling": 4656,
      "▁tv": 4657,
      "▁hey": 4658,
      "▁lec": 4659,
      "##lic": 4660,
      "▁administr": 4661,
      "▁beings": 4662,
      "▁ru": 4663,
      "▁chec": 4664,
      "##pos": 4665,
      "▁forwarded": 4666,
      "▁collection": 4667,
      "▁jih": 4668,
      "▁le": 4669,
      "▁champagne": 4670,
      "▁everyone": 4671,
      "▁deny": 4672,
      "##oundings": 4673,
      "▁kung": 4674,
      "▁our": 4675,
      "▁accounting": 4676,
      "##ason": 4677,
      "▁blaming": 4678,
      "▁awarded": 4679,
      "▁framed": 4680,
      "▁meowing": 4681,
      "##leenex": 4682,
      "▁contam": 4683,
      "##lief": 4684,
      "##esp": 4685,
      "##icke": 4686,
      "▁install": 4687,
      "▁danced": 4688,
      "▁delivering": 4689,
      "▁glu": 4690,
      "##umph": 4691,
      "▁recommended": 4692,
      "##ager": 4693,
      "▁foreign": 4694,
      "▁infr": 4695,
      "▁leadership": 4696,
      "▁present": 4697,
      "##ackets": 4698,
      "▁nailed": 4699,
      "##espan": 4700,
      "▁20": 4701,
      "▁appro": 4702,
      "##ronic": 4703,
      "▁duckies": 4704,
      "##st": 4705,
      "▁coat": 4706,
      "▁relevant": 4707,
      "▁certai": 4708,
      "▁movements": 4709,
      "▁nuts": 4710,
      "##zers": 4711,
      "▁citi": 4712,
      "##-y": 4713,
      "##epted": 4714,
      "##lar": 4715,
      "##world": 4716,
      "▁lawsuit": 4717,
      "▁sunb": 4718,
      "▁tapering": 4719,
      "##fi": 4720,
      "▁political": 4721,
      "▁hun": 4722,
      "▁horsesho": 4723,
      "▁signing": 4724,
      "##’t": 4725,
      "▁complaint": 4726,
      "▁champ": 4727,
      "▁epistem": 4728,
      "▁worksh": 4729,
      "▁waiver": 4730,
      "▁markers": 4731,
      "'": 4732,
      "▁malf": 4733,
      "▁flu": 4734,
      "▁dollar": 4735,
      "##eem": 4736,
      "##li": 4737,
      "▁heavens": 4738,
      "##ce": 4739,
      "▁deficit": 4740,
      "▁protects": 4741,
      "▁parish": 4742,
      "##ends": 4743,
      "##ʻ": 4744,
      "▁stars": 4745,
      "▁waterways": 4746,
      "▁souls": 4747,
      "##8th": 4748,
      "▁chand": 4749,
      "##table": 4750,
      "##---------------": 4751,
      "▁": 4752,
      "▁macaroni": 4753,
      "▁buttons": 4754,
      "##illa": 4755,
      "▁jwww": 4756,
      "▁ang": 4757,
      "▁ax": 4758,
      "▁anem": 4759,
      "▁interviews": 4760,
      "▁displaying": 4761,
      "▁argue": 4762,
      "▁genres": 4763,
      "▁redesigning": 4764,
      "##ship": 4765,
      "▁comparing": 4766,
      "▁rubber": 4767,
      "▁logo": 4768,
      "##atees": 4769,
      "▁chlor": 4770,
      "▁envir": 4771,
      "▁arranging": 4772,
      "▁fast": 4773,
      "▁drives": 4774,
      "▁tonight": 4775,
      "##cakes": 4776,
      "▁badly": 4777,
      "▁leave": 4778,
      "▁step": 4779,
      "▁salesman": 4780,
      "▁intriguing": 4781,
      "▁alphabets": 4782,
      "▁theories": 4783,
      "▁monsters": 4784,
      "▁refineries": 4785,
      "▁permitted": 4786,
      "▁cursor": 4787,
      "##utation": 4788,
      "▁iss": 4789,
      "▁collaborated": 4790,
      "##hance": 4791,
      "▁allowance": 4792,
      "▁trunks": 4793,
      "▁swimming": 4794,
      "▁messing": 4795,
      "▁naturalist": 4796,
      "▁unders": 4797,
      "▁microscope": 4798,
      "▁fuck": 4799,
      "##iented": 4800,
      "▁spreadsheet": 4801,
      "##erned": 4802,
      "▁civil": 4803,
      "##tive": 4804,
      "##/ps": 4805,
      "▁side": 4806,
      "▁aggregate": 4807,
      "▁allig": 4808,
      "▁behalf": 4809,
      "▁wondered": 4810,
      "▁plight": 4811,
      "▁refri": 4812,
      "▁tighten": 4813,
      "▁grade": 4814,
      "▁tame": 4815,
      "▁bite": 4816,
      "▁counting": 4817,
      "##dents": 4818,
      "▁bef": 4819,
      "▁selected": 4820,
      "▁cleaned": 4821,
      "##g": 4822,
      "▁evenings": 4823,
      "▁hole": 4824,
      "▁pretense": 4825,
      "▁hire": 4826,
      "▁affairs": 4827,
      "▁paddistocks": 4828,
      "▁necessary": 4829,
      "##ieved": 4830,
      "▁bloo": 4831,
      "▁concur": 4832,
      "▁theropods": 4833,
      "▁bench": 4834,
      "▁cal": 4835,
      "▁commanders": 4836,
      "▁relationship": 4837,
      "▁referendum": 4838,
      "▁palet": 4839,
      "##ual": 4840,
      "##och": 4841,
      "▁guessed": 4842,
      "##mer": 4843,
      "##-w": 4844,
      "▁sixties": 4845,
      "▁ab": 4846,
      "▁mas": 4847,
      "##itoring": 4848,
      "##iencies": 4849,
      "##nch": 4850,
      "▁audience": 4851,
      "▁cop": 4852,
      "##ject": 4853,
      "▁extr": 4854,
      "▁c": 4855,
      "##erv": 4856,
      "##ipp": 4857,
      "▁exp": 4858,
      "▁cookie": 4859,
      "▁vio": 4860,
      "▁tur": 4861,
      "▁responded": 4862,
      "##eos": 4863,
      "▁threatening": 4864,
      "##erness": 4865,
      "▁returned": 4866,
      "▁guar": 4867,
      "##pon": 4868,
      "▁dall": 4869,
      "##amas": 4870,
      "▁miti": 4871,
      "▁eggy": 4872,
      "▁speaking": 4873,
      "▁gel": 4874,
      "▁speakers": 4875,
      "##ene": 4876,
      "▁basic": 4877,
      "▁provided": 4878,
      "▁unloading": 4879,
      "▁howled": 4880,
      "▁conformity": 4881,
      "▁rid": 4882,
      "▁birth": 4883,
      "▁taught": 4884,
      "▁manip": 4885,
      "▁welcome": 4886,
      "▁debts": 4887,
      "▁shark": 4888,
      "##ament": 4889,
      "▁downtown": 4890,
      "▁zone": 4891,
      "▁gear": 4892,
      "▁ins": 4893,
      "▁remnants": 4894,
      "▁welfare": 4895,
      "##rof": 4896,
      "▁disney": 4897,
      "▁extremely": 4898,
      "##ive": 4899,
      "##lor": 4900,
      "▁what": 4901,
      "▁av": 4902,
      "▁pyramid": 4903,
      "##iz": 4904,
      "▁noise": 4905,
      "▁corruption": 4906,
      "##auts": 4907,
      "##xal": 4908,
      "▁warranties": 4909,
      "▁calories": 4910,
      "▁window": 4911,
      "▁experim": 4912,
      "▁becom": 4913,
      "▁overt": 4914,
      "▁nation": 4915,
      "▁met": 4916,
      "▁heritage": 4917,
      "##ened": 4918,
      "▁marginalized": 4919,
      "▁camel": 4920,
      "▁eating": 4921,
      "##esy": 4922,
      "▁begin": 4923,
      "▁dot": 4924,
      "▁crosstab": 4925,
      "##real": 4926,
      "▁overal": 4927,
      "▁m": 4928,
      "##ito": 4929,
      "▁licked": 4930,
      "▁essay": 4931,
      "▁sque": 4932,
      "▁glo": 4933,
      "▁complications": 4934,
      "▁obstacles": 4935,
      "▁failed": 4936,
      "▁brig": 4937,
      "▁handker": 4938,
      "▁merrygoround": 4939,
      "##olis": 4940,
      "▁pact": 4941,
      "▁distractions": 4942,
      "▁shortage": 4943,
      "▁friendly": 4944,
      "▁tens": 4945,
      "▁emotion": 4946,
      "▁thinks": 4947,
      "##bern": 4948,
      "▁disob": 4949,
      "▁crash": 4950,
      "▁modernity": 4951,
      "▁perspectives": 4952,
      "▁rim": 4953,
      "##ace": 4954,
      "▁measures": 4955,
      "▁ports": 4956,
      "##power": 4957,
      "▁lantern": 4958,
      "▁theirs": 4959,
      "▁201": 4960,
      "▁novel": 4961,
      "▁collec": 4962,
      "##ip": 4963,
      "▁opt": 4964,
      "▁umbrella": 4965,
      "##ued": 4966,
      "##ouse": 4967,
      "▁int": 4968,
      "##/he": 4969,
      "▁revol": 4970,
      "▁magic": 4971,
      "##orist": 4972,
      "▁alongside": 4973,
      "▁pled": 4974,
      "▁funny": 4975,
      "##oe": 4976,
      "▁becoming": 4977,
      "▁week": 4978,
      "▁mystery": 4979,
      "▁witnessed": 4980,
      "▁agent": 4981,
      "▁loans": 4982,
      "▁blink": 4983,
      "▁browser": 4984,
      "▁parents": 4985,
      "▁stagg": 4986,
      "##mering": 4987,
      "##pping": 4988,
      "##owned": 4989,
      "▁por": 4990,
      "▁shrunk": 4991,
      "▁blanket": 4992,
      "▁battle": 4993,
      "▁openness": 4994,
      "▁atop": 4995,
      "▁realized": 4996,
      "▁clan": 4997,
      "▁mild": 4998,
      "▁correct": 4999,
      "▁bone": 5000,
      "▁artwork": 5001,
      "▁download": 5002,
      "▁third": 5003,
      "▁gains": 5004,
      "▁sponge": 5005,
      "##che": 5006,
      "▁defended": 5007,
      "▁automobile": 5008,
      "##ault": 5009,
      "▁perhap": 5010,
      "▁eye": 5011,
      "##itating": 5012,
      "##ullness": 5013,
      "▁puppets": 5014,
      "▁flashing": 5015,
      "▁illusions": 5016,
      "##ates": 5017,
      "▁wrec": 5018,
      "▁mosquito": 5019,
      "▁strip": 5020,
      "▁convenience": 5021,
      "##phia": 5022,
      "▁individuals": 5023,
      "▁appliances": 5024,
      "##eason": 5025,
      "▁remainder": 5026,
      "▁cherry": 5027,
      "▁highlighted": 5028,
      "##wn": 5029,
      "▁x33": 5030,
      "▁comparisons": 5031,
      "▁st": 5032,
      "▁attendance": 5033,
      "▁oxy": 5034,
      "▁invented": 5035,
      "▁serve": 5036,
      "▁include": 5037,
      "▁loyalty": 5038,
      "▁jelly": 5039,
      "▁indian": 5040,
      "▁vend": 5041,
      "▁stretching": 5042,
      "▁es": 5043,
      "▁ree": 5044,
      "▁ages": 5045,
      "▁pulled": 5046,
      "##rality": 5047,
      "▁ruler": 5048,
      "▁clerks": 5049,
      "▁frequent": 5050,
      "▁ranges": 5051,
      "▁researchers": 5052,
      "▁input": 5053,
      "▁grinning": 5054,
      "▁sings": 5055,
      "▁discovery": 5056,
      "▁experiment": 5057,
      "ø": 5058,
      "▁recognition": 5059,
      "▁butterflies": 5060,
      "▁ideals": 5061,
      "▁presence": 5062,
      "▁collaborate": 5063,
      "▁depos": 5064,
      "▁mercy": 5065,
      "▁during": 5066,
      "▁journalist": 5067,
      "▁dentist": 5068,
      "##iches": 5069,
      "▁crieth": 5070,
      "▁nope": 5071,
      "▁turnout": 5072,
      "▁rails": 5073,
      "▁cornfl": 5074,
      "▁screw": 5075,
      "▁anoth": 5076,
      "▁rapporte": 5077,
      "##tiveness": 5078,
      "▁guarantee": 5079,
      "▁upload": 5080,
      "▁mentality": 5081,
      "▁steps": 5082,
      "▁bridges": 5083,
      "▁salon": 5084,
      "▁sworn": 5085,
      "##gers": 5086,
      "▁change": 5087,
      "▁thrift": 5088,
      "▁retiring": 5089,
      "##ertain": 5090,
      "▁banan": 5091,
      "##inea": 5092,
      "▁altered": 5093,
      "▁kissed": 5094,
      "##subscrib": 5095,
      "##old": 5096,
      "▁cros": 5097,
      "▁joining": 5098,
      "▁cand": 5099,
      "▁shakespeare": 5100,
      "##ounced": 5101,
      "▁stap": 5102,
      "▁islamist": 5103,
      "▁virt": 5104,
      "▁mim": 5105,
      "▁vote": 5106,
      "▁obe": 5107,
      "##urday": 5108,
      "▁space": 5109,
      "▁ob": 5110,
      "▁ssh": 5111,
      "▁mumbled": 5112,
      "▁preserved": 5113,
      "▁attrib": 5114,
      "##night": 5115,
      "▁demonstrations": 5116,
      "▁bounds": 5117,
      "▁dresser": 5118,
      "▁florida": 5119,
      "▁w": 5120,
      "##erc": 5121,
      "##orit": 5122,
      "▁trial": 5123,
      "▁circum": 5124,
      "▁usb": 5125,
      "▁combining": 5126,
      "##ros": 5127,
      "###693": 5128,
      "▁shoo": 5129,
      "▁conforms": 5130,
      "##aus": 5131,
      "##bo": 5132,
      "▁squirted": 5133,
      "##earing": 5134,
      "▁·": 5135,
      "▁duck": 5136,
      "▁sneeze": 5137,
      "▁ratings": 5138,
      "▁seaman": 5139,
      "##ocks": 5140,
      "▁submarines": 5141,
      "▁defend": 5142,
      "▁own": 5143,
      "▁ost": 5144,
      "▁supported": 5145,
      "▁cannon": 5146,
      "▁ability": 5147,
      "▁ownership": 5148,
      "▁advise": 5149,
      "▁pines": 5150,
      "##tic": 5151,
      "▁acceler": 5152,
      "▁hood": 5153,
      "##cessarily": 5154,
      "▁bord": 5155,
      "▁.?": 5156,
      "▁emp": 5157,
      "##iner": 5158,
      "##ε": 5159,
      "▁stick": 5160,
      "▁incurred": 5161,
      "▁scored": 5162,
      "▁der": 5163,
      "▁shots": 5164,
      "▁exce": 5165,
      "▁others": 5166,
      "▁'s": 5167,
      "▁depend": 5168,
      "▁hare": 5169,
      "▁realist": 5170,
      "▁asserted": 5171,
      "▁altitude": 5172,
      "##onti": 5173,
      "▁german": 5174,
      "▁bund": 5175,
      "▁breakdown": 5176,
      "º": 5177,
      "▁outcome": 5178,
      "▁fishie": 5179,
      "▁judgment": 5180,
      "▁army": 5181,
      "##-b": 5182,
      "▁interacting": 5183,
      "▁prepare": 5184,
      "##orage": 5185,
      "▁registered": 5186,
      "▁advers": 5187,
      "▁---------------------------------------------------------------------": 5188,
      "▁fiction": 5189,
      "▁further": 5190,
      "▁speculation": 5191,
      "▁equity": 5192,
      "##berries": 5193,
      "▁enacting": 5194,
      "##actions": 5195,
      ";": 5196,
      "▁received": 5197,
      "▁prison": 5198,
      "▁de": 5199,
      "##lig": 5200,
      "##usting": 5201,
      "▁flocked": 5202,
      "▁failure": 5203,
      "##uction": 5204,
      "▁dorm": 5205,
      "▁maker": 5206,
      "##ithstanding": 5207,
      "##od": 5208,
      "▁fant": 5209,
      "▁pops": 5210,
      "▁trump": 5211,
      "▁asser": 5212,
      "▁pdf": 5213,
      "##elty": 5214,
      "##cove": 5215,
      "▁parachute": 5216,
      "▁supermar": 5217,
      "▁mankind": 5218,
      "##oods": 5219,
      "▁sits": 5220,
      "▁indic": 5221,
      "##aland": 5222,
      "▁compares": 5223,
      "▁mexico": 5224,
      "▁p.": 5225,
      "▁argument": 5226,
      "##anged": 5227,
      "▁uva": 5228,
      "▁196": 5229,
      "▁accept": 5230,
      "▁advantage": 5231,
      "▁mostly": 5232,
      "▁ring": 5233,
      "▁null": 5234,
      "##erved": 5235,
      "▁foc": 5236,
      "▁snake": 5237,
      "▁18": 5238,
      "##ruptc": 5239,
      "▁broccoli": 5240,
      "▁ration": 5241,
      "▁dail": 5242,
      "▁underwear": 5243,
      "▁coinc": 5244,
      "▁adjusted": 5245,
      "▁citing": 5246,
      "##thes": 5247,
      "▁found": 5248,
      "▁tantrums": 5249,
      "▁tells": 5250,
      "##erted": 5251,
      "▁rene": 5252,
      "▁by": 5253,
      "##e": 5254,
      "▁wander": 5255,
      "▁collect": 5256,
      "▁hosts": 5257,
      "▁welc": 5258,
      "▁specials": 5259,
      "▁scribble": 5260,
      "▁enculturation": 5261,
      "▁schema": 5262,
      "##ulsion": 5263,
      "▁robo": 5264,
      "▁tunnel": 5265,
      "▁trees": 5266,
      "▁forgiven": 5267,
      "▁flexibility": 5268,
      "##ritis": 5269,
      "▁stic": 5270,
      "▁continu": 5271,
      "##ets": 5272,
      "▁suffering": 5273,
      "▁gravity": 5274,
      "▁medium": 5275,
      "▁family": 5276,
      "▁yog": 5277,
      "▁outsiders": 5278,
      "▁sighed": 5279,
      "▁sandwic": 5280,
      "##erest": 5281,
      "##enfranch": 5282,
      "▁upside": 5283,
      "▁advantages": 5284,
      "▁pe": 5285,
      "▁arrange": 5286,
      "▁tested": 5287,
      "##+cro": 5288,
      "▁darn": 5289,
      "▁amer": 5290,
      "▁ireland": 5291,
      "▁rises": 5292,
      "▁twi": 5293,
      "##ranch": 5294,
      "##oil": 5295,
      "▁birthday": 5296,
      "##ploy": 5297,
      "▁belongs": 5298,
      "▁succession": 5299,
      "##anese": 5300,
      "▁priest": 5301,
      "▁rest": 5302,
      "▁cats": 5303,
      "▁screws": 5304,
      "▁invention": 5305,
      "▁locked": 5306,
      "##feration": 5307,
      "▁treaty": 5308,
      "▁scri": 5309,
      "▁danny": 5310,
      "##onge": 5311,
      "▁there": 5312,
      "##cri": 5313,
      "▁kit": 5314,
      "▁shad": 5315,
      "▁demon": 5316,
      "▁comp": 5317,
      "▁craft": 5318,
      "▁hes": 5319,
      "▁portions": 5320,
      "▁strain": 5321,
      "▁divide": 5322,
      "##igorate": 5323,
      "##nce": 5324,
      "##erti": 5325,
      "##nic": 5326,
      "##enuity": 5327,
      "##imp": 5328,
      "##.x": 5329,
      "##il": 5330,
      "▁grand": 5331,
      "▁projecting": 5332,
      "▁confron": 5333,
      "▁endeav": 5334,
      "##cs": 5335,
      "##owners": 5336,
      "▁---": 5337,
      "##mbling": 5338,
      "▁indicator": 5339,
      "▁originally": 5340,
      "▁scramb": 5341,
      "##jectory": 5342,
      "▁spacecraft": 5343,
      "▁one": 5344,
      "▁bad": 5345,
      "##eeper": 5346,
      "##ede": 5347,
      "▁enl": 5348,
      "▁rot": 5349,
      "▁bic": 5350,
      "▁interpreted": 5351,
      "▁temperatures": 5352,
      "▁needle": 5353,
      "▁detractors": 5354,
      "##-for": 5355,
      "▁lens": 5356,
      "ɛ": 5357,
      "##ili": 5358,
      "##cat": 5359,
      "▁sur": 5360,
      "▁play+ground": 5361,
      "▁implement": 5362,
      "▁witch": 5363,
      "##do": 5364,
      "▁_____": 5365,
      "▁glancing": 5366,
      "▁nick": 5367,
      "▁folds": 5368,
      "▁computer": 5369,
      "▁rushed": 5370,
      "##face": 5371,
      "▁savi": 5372,
      "▁citations": 5373,
      "##apse": 5374,
      "▁identities": 5375,
      "▁preven": 5376,
      "##ʊ": 5377,
      "▁surviv": 5378,
      "▁inhab": 5379,
      "▁transferring": 5380,
      "##bean": 5381,
      "▁season": 5382,
      "▁mweta": 5383,
      "▁hugging": 5384,
      "▁pressed": 5385,
      "▁negotiating": 5386,
      "▁subform": 5387,
      "▁hybri": 5388,
      "▁london": 5389,
      "▁rad": 5390,
      "▁spo": 5391,
      "p": 5392,
      "▁fuel": 5393,
      "▁deputy": 5394,
      "▁consu": 5395,
      "▁rental": 5396,
      "▁underw": 5397,
      "▁emb": 5398,
      "▁conclude": 5399,
      "##uge": 5400,
      "▁pointed": 5401,
      "##ucky": 5402,
      "▁economy": 5403,
      "##ugging": 5404,
      "▁writings": 5405,
      "▁’s": 5406,
      "▁traders": 5407,
      "▁layers": 5408,
      "▁combination": 5409,
      "▁marketing": 5410,
      "▁cheer": 5411,
      "▁worry": 5412,
      "▁buck": 5413,
      "▁charity": 5414,
      "▁poster": 5415,
      "▁deployed": 5416,
      "▁cat-flap": 5417,
      "▁candidate": 5418,
      "▁evac": 5419,
      "▁banj": 5420,
      "##ague": 5421,
      "▁e-m": 5422,
      "▁themes": 5423,
      "▁implemented": 5424,
      "▁bunch": 5425,
      "▁folded": 5426,
      "▁snowing": 5427,
      "▁duration": 5428,
      "▁deregulation": 5429,
      "▁cup": 5430,
      "▁obtaining": 5431,
      "▁fug": 5432,
      "▁strawberry": 5433,
      "▁prestige": 5434,
      "▁adver": 5435,
      "▁recording": 5436,
      "▁1990s": 5437,
      "▁rescued": 5438,
      "▁suspended": 5439,
      "##eralize": 5440,
      "▁percent": 5441,
      "▁opera": 5442,
      "##‘": 5443,
      "▁recomm": 5444,
      "▁luv": 5445,
      "▁chair": 5446,
      "▁vitam": 5447,
      "▁rfp": 5448,
      "▁agencies": 5449,
      "▁mid-": 5450,
      "▁necessarily": 5451,
      "▁translations": 5452,
      "##akistan": 5453,
      "▁eng": 5454,
      "##eland": 5455,
      "▁hill": 5456,
      "##idence": 5457,
      "▁characteristic": 5458,
      "▁mike": 5459,
      "▁google": 5460,
      "▁seized": 5461,
      "##ligence": 5462,
      "##ait": 5463,
      "▁loo": 5464,
      "▁librarian": 5465,
      "▁traditions": 5466,
      "##uating": 5467,
      "▁warning": 5468,
      "▁vendors": 5469,
      "##dr": 5470,
      "##oose": 5471,
      "▁vehic": 5472,
      "▁table": 5473,
      "▁hassle": 5474,
      "▁require": 5475,
      "▁evaluation": 5476,
      "▁particip": 5477,
      "▁results": 5478,
      "##rows": 5479,
      "##pp": 5480,
      "▁beyond": 5481,
      "▁resulted": 5482,
      "▁guitar": 5483,
      "▁origin": 5484,
      "▁level": 5485,
      "▁databases": 5486,
      "##inding": 5487,
      "▁birds": 5488,
      "##ainder": 5489,
      "▁pla": 5490,
      "##rant": 5491,
      "▁performances": 5492,
      "▁forwarding": 5493,
      "▁psychology": 5494,
      "##onents": 5495,
      "▁voting": 5496,
      "▁wat": 5497,
      "▁heights": 5498,
      "▁chill": 5499,
      "▁killer": 5500,
      "▁residence": 5501,
      "▁cuckoo": 5502,
      "##9": 5503,
      "▁post": 5504,
      "▁version": 5505,
      "▁p&l": 5506,
      "##-f": 5507,
      "▁episode": 5508,
      "▁abandonment": 5509,
      "##hakes": 5510,
      "▁teasing": 5511,
      "▁clock": 5512,
      "▁star": 5513,
      "▁tours": 5514,
      "▁verge": 5515,
      "▁concluded": 5516,
      "▁exit": 5517,
      "▁cutting": 5518,
      "▁soup": 5519,
      "▁belonged": 5520,
      "▁former": 5521,
      "▁kiw": 5522,
      "▁hab": 5523,
      "▁petersburg": 5524,
      "▁tape": 5525,
      "▁gi": 5526,
      "##inism": 5527,
      "##ere": 5528,
      "▁mer": 5529,
      "▁enlargement": 5530,
      "▁fled": 5531,
      "▁embarrass": 5532,
      "▁operate": 5533,
      "##arely": 5534,
      "▁flirting": 5535,
      "▁slowed": 5536,
      "▁endor": 5537,
      "▁documents": 5538,
      "##ints": 5539,
      "▁accomplishment": 5540,
      "##ining": 5541,
      "▁sequences": 5542,
      "▁canned": 5543,
      "##ety": 5544,
      "##pres": 5545,
      "▁providers": 5546,
      "▁poor": 5547,
      "##tt": 5548,
      "▁fit": 5549,
      "▁ask": 5550,
      "▁urine": 5551,
      "▁text.htm": 5552,
      "▁users": 5553,
      "▁artill": 5554,
      "▁equally": 5555,
      "##vation": 5556,
      "▁flea": 5557,
      "▁encour": 5558,
      "▁hon": 5559,
      "##kly": 5560,
      "▁murders": 5561,
      "▁master": 5562,
      "▁statements": 5563,
      "▁manipulate": 5564,
      "▁discrim": 5565,
      "##17": 5566,
      "▁id": 5567,
      "##vil": 5568,
      "▁ts": 5569,
      "▁intellect": 5570,
      "##'s": 5571,
      "▁..": 5572,
      "▁distortions": 5573,
      "▁friendships": 5574,
      "▁along": 5575,
      "▁passion": 5576,
      "▁sst": 5577,
      "▁horm": 5578,
      "##{": 5579,
      "▁pulls": 5580,
      "▁card": 5581,
      "▁ease": 5582,
      "▁fath": 5583,
      "##oy": 5584,
      "▁tacoma": 5585,
      "▁excer": 5586,
      "▁trusted": 5587,
      "▁nite": 5588,
      "##pts": 5589,
      "▁guard": 5590,
      "▁neologism": 5591,
      "##ado": 5592,
      "▁mashed": 5593,
      "▁grabbing": 5594,
      "▁erup": 5595,
      "##lear": 5596,
      "▁charm": 5597,
      "▁determination": 5598,
      "##ycling": 5599,
      "▁stating": 5600,
      "▁diction": 5601,
      "▁eagle": 5602,
      "▁viet": 5603,
      "##eur": 5604,
      "▁instructions": 5605,
      "▁attitudes": 5606,
      "##formation": 5607,
      "##owing": 5608,
      "▁disenfranch": 5609,
      "▁procedure": 5610,
      "▁arr": 5611,
      "▁strategy": 5612,
      "▁mired": 5613,
      "▁debtors": 5614,
      "▁ranch": 5615,
      "▁doughnut": 5616,
      "▁monarch": 5617,
      "▁pledged": 5618,
      "▁goes": 5619,
      "▁intelligence": 5620,
      "▁mand": 5621,
      "▁ail": 5622,
      "▁plane": 5623,
      "▁datasheets": 5624,
      "▁plague": 5625,
      "##olve": 5626,
      "▁lifted": 5627,
      "▁reopen": 5628,
      "##erished": 5629,
      "▁mirror": 5630,
      "##ersion": 5631,
      "▁through": 5632,
      "▁booking": 5633,
      "##anting": 5634,
      "▁successfully": 5635,
      "▁nost": 5636,
      "▁suff": 5637,
      "▁hope": 5638,
      "▁banks": 5639,
      "##uscri": 5640,
      "▁chick": 5641,
      "▁reducing": 5642,
      "▁cream": 5643,
      "▁shares": 5644,
      "▁lun": 5645,
      "▁rejected": 5646,
      "▁tow": 5647,
      "▁washing": 5648,
      "##itive": 5649,
      "▁intolerance": 5650,
      "▁magazine": 5651,
      "▁though": 5652,
      "▁neolog": 5653,
      "##tocks.pdf": 5654,
      "▁mindset": 5655,
      "##atted": 5656,
      "▁rubble": 5657,
      "##ont": 5658,
      "▁truth": 5659,
      "▁acquired": 5660,
      "▁managers": 5661,
      "▁nine": 5662,
      "▁losses": 5663,
      "##auc": 5664,
      "▁programmes": 5665,
      "▁twins": 5666,
      "▁dil": 5667,
      "##arities": 5668,
      "▁prove": 5669,
      "▁vice-president": 5670,
      "##pted": 5671,
      "##ways": 5672,
      "▁rov": 5673,
      "▁peric": 5674,
      "##hee": 5675,
      "▁towns": 5676,
      "##sting": 5677,
      "▁dragged": 5678,
      "##ume": 5679,
      "▁testament": 5680,
      "▁embraced": 5681,
      "##omin": 5682,
      "▁guys": 5683,
      "##ues": 5684,
      "▁internship": 5685,
      "##aca": 5686,
      "▁worshippers": 5687,
      "▁lea": 5688,
      "##kers": 5689,
      "▁drow": 5690,
      "▁females": 5691,
      "▁humped": 5692,
      "▁skipping": 5693,
      "▁midst": 5694,
      "▁daring": 5695,
      "##ketch": 5696,
      "▁rig": 5697,
      "▁analysts": 5698,
      "▁realization": 5699,
      "▁gently": 5700,
      "▁british": 5701,
      "▁yelled": 5702,
      "▁referee": 5703,
      "##thern": 5704,
      "▁sugges": 5705,
      "##where": 5706,
      "▁bottom": 5707,
      "##enses": 5708,
      "▁embargo": 5709,
      "▁crime": 5710,
      "##cked": 5711,
      "▁drilling": 5712,
      "##esame": 5713,
      "##oras": 5714,
      "##uz": 5715,
      "▁knee": 5716,
      "▁perception": 5717,
      "▁law": 5718,
      "▁record": 5719,
      "▁prayer": 5720,
      "▁ml": 5721,
      "▁counterpar": 5722,
      "##ake": 5723,
      "##al": 5724,
      "##ouble": 5725,
      "##ane": 5726,
      "▁pear": 5727,
      "▁publishers": 5728,
      "▁intervention": 5729,
      "▁plaintiffs": 5730,
      "▁approve": 5731,
      "▁reversal": 5732,
      "▁ty": 5733,
      "▁extra": 5734,
      "▁arts": 5735,
      "▁migrant": 5736,
      "▁quali": 5737,
      "▁station": 5738,
      "##amb": 5739,
      "▁status": 5740,
      "##aj": 5741,
      "▁risk": 5742,
      "▁enemy": 5743,
      "▁gotted": 5744,
      "▁wrapped": 5745,
      "##jamas": 5746,
      "▁ecology": 5747,
      "▁taxes": 5748,
      "##eys": 5749,
      "▁running": 5750,
      "▁assured": 5751,
      "##organ": 5752,
      "##ose": 5753,
      "▁tab": 5754,
      "▁vow": 5755,
      "##........": 5756,
      "##born": 5757,
      "##xim": 5758,
      "▁seiz": 5759,
      "▁agreed": 5760,
      "▁weapon": 5761,
      "▁dys": 5762,
      "▁evaluated": 5763,
      "▁fo": 5764,
      "▁hydrogen": 5765,
      "▁assault": 5766,
      "##derstand": 5767,
      "▁sales": 5768,
      "▁greetings": 5769,
      "▁smashed": 5770,
      "##ortment": 5771,
      "▁poke": 5772,
      "▁hunt": 5773,
      "##agle": 5774,
      "##enas": 5775,
      "##jec": 5776,
      "▁island": 5777,
      "▁assoc": 5778,
      "##mping": 5779,
      "▁narr": 5780,
      "▁transformed": 5781,
      "▁controllers": 5782,
      "▁equip": 5783,
      "▁catch": 5784,
      "▁univers": 5785,
      "##oxide": 5786,
      "##dron": 5787,
      "▁phrases": 5788,
      "▁revived": 5789,
      "##advant": 5790,
      "▁encompass": 5791,
      "##pple": 5792,
      "##cades": 5793,
      "▁trag": 5794,
      "▁pumped": 5795,
      "▁selling": 5796,
      "▁overcharges": 5797,
      "▁enjoying": 5798,
      "▁concert": 5799,
      "▁dun": 5800,
      "▁information": 5801,
      "▁vision": 5802,
      "▁verse": 5803,
      "##err": 5804,
      "▁descend": 5805,
      "##itated": 5806,
      "▁equ": 5807,
      "▁austral": 5808,
      "##ool": 5809,
      "▁directive": 5810,
      "▁hairdresser": 5811,
      "▁pestic": 5812,
      "▁temples": 5813,
      "##hes": 5814,
      "##œ": 5815,
      "▁hurts": 5816,
      "##ribb": 5817,
      "▁cherries": 5818,
      "##equ": 5819,
      "##ock": 5820,
      "##eine": 5821,
      "▁reas": 5822,
      "##lav": 5823,
      "##9th": 5824,
      "▁e-commerce": 5825,
      "▁artic": 5826,
      "▁hay": 5827,
      "▁masts": 5828,
      "▁philadelphia": 5829,
      "##respond": 5830,
      "▁clips": 5831,
      "▁someth": 5832,
      "▁europe": 5833,
      "▁common": 5834,
      "▁carbon": 5835,
      "##ickened": 5836,
      "▁breakthrough": 5837,
      "▁a": 5838,
      "▁bat": 5839,
      "▁prizes": 5840,
      "▁doorway": 5841,
      "▁longing": 5842,
      "##let": 5843,
      "▁dilemma": 5844,
      "▁producing": 5845,
      "▁depends": 5846,
      "▁stories": 5847,
      "▁stampede": 5848,
      "##unds": 5849,
      "▁aust": 5850,
      "▁landings": 5851,
      "▁investment": 5852,
      "##our": 5853,
      "▁break": 5854,
      "##lie": 5855,
      "##alia": 5856,
      "▁monitoring": 5857,
      "▁landscapes": 5858,
      "▁waf": 5859,
      "▁procr": 5860,
      "##asters": 5861,
      "▁strawberries": 5862,
      "▁panic": 5863,
      "▁tool": 5864,
      "##ghted": 5865,
      "▁crawl": 5866,
      "▁bicycles": 5867,
      "##lane": 5868,
      "▁ev": 5869,
      "##vement": 5870,
      "▁set": 5871,
      "▁currency": 5872,
      "##innia": 5873,
      "##letter": 5874,
      "▁disciples": 5875,
      "▁shakes": 5876,
      "##illed": 5877,
      "▁certificates": 5878,
      "▁lifeboats": 5879,
      "▁directed": 5880,
      "▁messages": 5881,
      "##petence": 5882,
      "▁sounded": 5883,
      "▁attracted": 5884,
      "▁formulate": 5885,
      "##hikii": 5886,
      "##otto": 5887,
      "▁offended": 5888,
      "▁lasted": 5889,
      "##stall": 5890,
      "▁telescope": 5891,
      "▁breed": 5892,
      "##lity": 5893,
      "▁liability": 5894,
      "▁]": 5895,
      "▁perceived": 5896,
      "▁melting": 5897,
      "▁grav": 5898,
      "▁every": 5899,
      "▁trash": 5900,
      "##70s": 5901,
      "▁aunt": 5902,
      "▁dictatorship": 5903,
      "##ym": 5904,
      "▁previous": 5905,
      "▁rejects": 5906,
      "▁markup": 5907,
      "▁particular": 5908,
      "##ress": 5909,
      "##ss": 5910,
      "▁hockey": 5911,
      "▁specifics": 5912,
      "▁loan": 5913,
      "▁bure": 5914,
      "▁explain": 5915,
      "▁incom": 5916,
      "##epend": 5917,
      "▁diapers": 5918,
      "▁payments": 5919,
      "▁made": 5920,
      "##ocity": 5921,
      "▁cease": 5922,
      "▁belt": 5923,
      "▁muffin": 5924,
      "▁stuffed": 5925,
      "▁lobby": 5926,
      "▁soldiers": 5927,
      "▁right": 5928,
      "▁quality": 5929,
      "##ief": 5930,
      "▁cm": 5931,
      "##~": 5932,
      "▁blizz": 5933,
      "▁chandeli": 5934,
      "▁coincides": 5935,
      "▁pity": 5936,
      "▁music": 5937,
      "▁pd": 5938,
      "▁repeating": 5939,
      "▁magn": 5940,
      "▁alar": 5941,
      "▁lyrics": 5942,
      "▁forgotten": 5943,
      "▁send": 5944,
      "▁slope": 5945,
      "▁contrad": 5946,
      "▁urgency": 5947,
      "▁markets": 5948,
      "▁trans": 5949,
      "|": 5950,
      "##point": 5951,
      "▁fate": 5952,
      "##enumber": 5953,
      "▁memoir": 5954,
      "▁disappointed": 5955,
      "▁mou": 5956,
      "▁homework": 5957,
      "▁suicide": 5958,
      "▁kansas": 5959,
      "▁afflic": 5960,
      "##namon": 5961,
      "▁lion": 5962,
      "▁school": 5963,
      "▁wiki": 5964,
      "▁highl": 5965,
      "▁humor": 5966,
      "▁bump": 5967,
      "▁locks": 5968,
      "▁invo": 5969,
      "##anced": 5970,
      "##itge": 5971,
      "▁setup": 5972,
      "▁l/c": 5973,
      "▁spit": 5974,
      "▁'em": 5975,
      "▁mult": 5976,
      "▁packet": 5977,
      "▁spanning": 5978,
      "▁steve": 5979,
      "▁bounce": 5980,
      "##.ht": 5981,
      "##inent": 5982,
      "▁sampling": 5983,
      "▁qa": 5984,
      "##ome": 5985,
      "▁did": 5986,
      "▁feather": 5987,
      "##aughter": 5988,
      "▁crystallite": 5989,
      "▁colleague": 5990,
      "▁recieved": 5991,
      "▁glam": 5992,
      "##ovation": 5993,
      "##ified": 5994,
      "▁woo": 5995,
      "▁talents": 5996,
      "▁officials": 5997,
      "▁guilty": 5998,
      "##but": 5999,
      "▁relative": 6000,
      "##.m.": 6001,
      "▁linked": 6002,
      "▁murderers": 6003,
      "▁landm": 6004,
      "▁ever": 6005,
      "▁targeting": 6006,
      "▁witness": 6007,
      "▁lag": 6008,
      "▁frog": 6009,
      "▁9th": 6010,
      "▁packs": 6011,
      "▁horses": 6012,
      "▁chan": 6013,
      "▁nor": 6014,
      "▁technology": 6015,
      "▁propaganda": 6016,
      "▁profit": 6017,
      "▁sneak": 6018,
      "##.rabb": 6019,
      "▁ordering": 6020,
      "▁dill": 6021,
      "▁slippers": 6022,
      "▁endorse": 6023,
      "▁hards": 6024,
      "▁go's": 6025,
      "▁guaranteed": 6026,
      "▁pussy": 6027,
      "▁planet": 6028,
      "▁commerc": 6029,
      "▁fire": 6030,
      "▁waited": 6031,
      "▁circus": 6032,
      "▁implies": 6033,
      "▁exped": 6034,
      "##hole": 6035,
      "▁accomplishments": 6036,
      "##.pd": 6037,
      "▁things": 6038,
      "▁viewers": 6039,
      "▁wiggleworm": 6040,
      "▁communicated": 6041,
      "##ade": 6042,
      "▁farm": 6043,
      "▁signed": 6044,
      "▁accomp": 6045,
      "##ut": 6046,
      "##tone": 6047,
      "##ialization": 6048,
      "▁rocked": 6049,
      "▁walking": 6050,
      "▁returns": 6051,
      "##idic": 6052,
      "##estern": 6053,
      "▁withdrawing": 6054,
      "▁wailing": 6055,
      "▁jaw": 6056,
      "▁lower": 6057,
      "▁$$": 6058,
      "▁hearing": 6059,
      "▁ad": 6060,
      "▁harry": 6061,
      "▁offspring": 6062,
      "▁bapt": 6063,
      "▁mentioning": 6064,
      "▁george": 6065,
      "▁.": 6066,
      "▁hoagie": 6067,
      "▁friday": 6068,
      "▁extradition": 6069,
      "▁paragraph": 6070,
      "▁milks": 6071,
      "▁management": 6072,
      "▁generators": 6073,
      "▁biodiversity": 6074,
      "▁municipality": 6075,
      "▁aeroplane": 6076,
      "▁necess": 6077,
      "▁tacos": 6078,
      "##urch": 6079,
      "▁pouring": 6080,
      "▁stopped": 6081,
      "▁withdrawn": 6082,
      "##8": 6083,
      "▁compete": 6084,
      "▁attention": 6085,
      "##aph": 6086,
      "##vices": 6087,
      "##its": 6088,
      "▁decided": 6089,
      "##onent": 6090,
      "▁actor": 6091,
      "▁picks": 6092,
      "▁shower": 6093,
      "▁rebel": 6094,
      "##amples": 6095,
      "▁cush": 6096,
      "9": 6097,
      "▁dsl": 6098,
      "▁mister": 6099,
      "▁offici": 6100,
      "▁holds": 6101,
      "##it": 6102,
      "▁tactics": 6103,
      "##gance": 6104,
      "▁sew": 6105,
      "▁struc": 6106,
      "▁boo": 6107,
      "▁pair": 6108,
      "▁wilt": 6109,
      "▁searching": 6110,
      "▁moo": 6111,
      "##icular": 6112,
      "▁yesterday": 6113,
      "▁pretending": 6114,
      "▁bom": 6115,
      "▁treat": 6116,
      "▁doors": 6117,
      "▁inject": 6118,
      "▁fridge": 6119,
      "▁photographers": 6120,
      "▁ken": 6121,
      "▁incapac": 6122,
      "▁collecting": 6123,
      "##letes": 6124,
      "▁litt": 6125,
      "##bir": 6126,
      "▁games": 6127,
      "▁rom": 6128,
      "▁confid": 6129,
      "▁doggy": 6130,
      "##ect": 6131,
      "▁changed": 6132,
      "▁buckets": 6133,
      "▁lady": 6134,
      "▁line": 6135,
      "▁flow": 6136,
      "▁evening": 6137,
      "▁courses": 6138,
      "▁stumbled": 6139,
      "▁cracker": 6140,
      "▁repres": 6141,
      "▁displaced": 6142,
      "▁colle": 6143,
      "▁retired": 6144,
      "##ese": 6145,
      "▁spice": 6146,
      "▁cran": 6147,
      "▁rece": 6148,
      "▁violence": 6149,
      "▁code": 6150,
      "▁claim": 6151,
      "▁cous": 6152,
      "▁soldier": 6153,
      "▁leap": 6154,
      "▁sketch": 6155,
      "▁exacerb": 6156,
      "▁charged": 6157,
      "▁understanding": 6158,
      "##orry": 6159,
      "▁store": 6160,
      "▁2000": 6161,
      "▁gender": 6162,
      "▁militants": 6163,
      "▁devising": 6164,
      "▁sk": 6165,
      "▁rack": 6166,
      "▁less": 6167,
      "##dler": 6168,
      "##ami": 6169,
      "▁crush": 6170,
      "▁location": 6171,
      "▁cert": 6172,
      "▁teasp": 6173,
      "▁psychologist": 6174,
      "▁wou": 6175,
      "▁pasta": 6176,
      "##coli": 6177,
      "##[": 6178,
      "▁grocer": 6179,
      "##oted": 6180,
      "▁criticized": 6181,
      "▁chores": 6182,
      "▁flung": 6183,
      "▁refers": 6184,
      "▁governance": 6185,
      "▁asia": 6186,
      "##cept": 6187,
      "▁micro": 6188,
      "▁anno": 6189,
      "##????????????????": 6190,
      "▁tot": 6191,
      "▁ou": 6192,
      "▁consideration": 6193,
      "##lant": 6194,
      "▁aver": 6195,
      "▁graduated": 6196,
      "▁draped": 6197,
      "▁shapes": 6198,
      "▁footer": 6199,
      "▁bucks": 6200,
      "##able": 6201,
      "▁suppose": 6202,
      "▁ginger": 6203,
      "▁earthworms": 6204,
      "▁beck": 6205,
      "▁girl": 6206,
      "##ious": 6207,
      "▁bee": 6208,
      "▁wolves": 6209,
      "▁surpl": 6210,
      "▁replied": 6211,
      "▁raging": 6212,
      "▁standards": 6213,
      "▁bring": 6214,
      "▁pract": 6215,
      "▁provocation": 6216,
      "▁dominated": 6217,
      "▁daddy": 6218,
      "##uly": 6219,
      "▁bron": 6220,
      "##lessness": 6221,
      "▁reading": 6222,
      "%": 6223,
      "▁obt": 6224,
      "▁idea": 6225,
      "▁obligation": 6226,
      "##placement": 6227,
      "▁illust": 6228,
      "▁bern": 6229,
      "##oured": 6230,
      "▁planting": 6231,
      "▁attacked": 6232,
      "▁motiv": 6233,
      "▁organisation": 6234,
      "▁varies": 6235,
      "▁confine": 6236,
      "▁patents": 6237,
      "▁overc": 6238,
      "▁archbish": 6239,
      "##unes": 6240,
      "##si": 6241,
      "##uding": 6242,
      "▁want": 6243,
      "▁factor": 6244,
      "▁particularly": 6245,
      "▁introduced": 6246,
      "▁inspire": 6247,
      "##alist": 6248,
      "##enting": 6249,
      "▁transform": 6250,
      "▁aerogel": 6251,
      "▁shit": 6252,
      "▁contemp": 6253,
      "▁totes": 6254,
      "▁bs": 6255,
      "▁restored": 6256,
      "▁four": 6257,
      "▁hardly": 6258,
      "▁parties": 6259,
      "▁displayed": 6260,
      "##enron": 6261,
      "▁lived": 6262,
      "##gon": 6263,
      "▁k": 6264,
      "▁prototypes": 6265,
      "▁cromer": 6266,
      "##-off": 6267,
      "▁aft": 6268,
      "##ue": 6269,
      "▁representations": 6270,
      "▁cc": 6271,
      "▁dad": 6272,
      "▁fy0": 6273,
      "##uj": 6274,
      "##we": 6275,
      "▁expertise": 6276,
      "▁religion": 6277,
      "▁co": 6278,
      "w": 6279,
      "▁founded": 6280,
      "##vised": 6281,
      "▁fren": 6282,
      "ɔ": 6283,
      "▁shells": 6284,
      "▁skip": 6285,
      "▁wear": 6286,
      "##la": 6287,
      "##-g": 6288,
      "▁assessment": 6289,
      "▁pension": 6290,
      "▁denying": 6291,
      "▁shar": 6292,
      "▁learners": 6293,
      "▁pas": 6294,
      "▁denial": 6295,
      "▁renewed": 6296,
      "▁prices": 6297,
      "▁phot": 6298,
      "▁damage": 6299,
      "▁soccer": 6300,
      "▁noises": 6301,
      "▁gallop": 6302,
      "▁thieves": 6303,
      "##tile": 6304,
      "▁equation": 6305,
      "▁rodents": 6306,
      "▁rev": 6307,
      "##llation": 6308,
      "##dies": 6309,
      "▁night": 6310,
      "##idents": 6311,
      "▁horiz": 6312,
      "▁hr": 6313,
      "▁respect": 6314,
      "▁cents": 6315,
      "##sour": 6316,
      "##ga": 6317,
      "▁daily": 6318,
      "##ifying": 6319,
      "▁ren": 6320,
      "▁reproduc": 6321,
      "▁experien": 6322,
      "▁ble": 6323,
      "▁responses": 6324,
      "▁referencing": 6325,
      "▁bac": 6326,
      "▁pericles": 6327,
      "▁offer": 6328,
      "▁alphab": 6329,
      "▁ratify": 6330,
      "▁underground": 6331,
      "▁pumping": 6332,
      "▁str": 6333,
      "▁worker": 6334,
      "▁purposes": 6335,
      "▁sifted": 6336,
      "##mar": 6337,
      "▁coordinator": 6338,
      "##ocrat": 6339,
      "##ples": 6340,
      "▁autumn": 6341,
      "=": 6342,
      "▁philosoph": 6343,
      "▁podc": 6344,
      "▁pivotch": 6345,
      "▁misconception": 6346,
      "▁communications": 6347,
      "▁def": 6348,
      "▁al": 6349,
      "▁conclusion": 6350,
      "▁weekends": 6351,
      "##rupt": 6352,
      "##esses": 6353,
      "▁dashed": 6354,
      "▁haste": 6355,
      "▁full": 6356,
      "▁gained": 6357,
      "▁otherwise": 6358,
      "▁hung": 6359,
      "▁plotted": 6360,
      "##ully": 6361,
      "▁cooperating": 6362,
      "▁coming": 6363,
      "▁motion": 6364,
      "▁earliest": 6365,
      "▁hymn": 6366,
      "##ing-w": 6367,
      "▁seam": 6368,
      "##ernobyl": 6369,
      "▁cic": 6370,
      "▁cele": 6371,
      "[UNK]": 6372,
      "▁being": 6373,
      "▁municipalities": 6374,
      "##quet": 6375,
      "▁charter": 6376,
      "##dles": 6377,
      "▁grams": 6378,
      "##tiqu": 6379,
      "▁teach": 6380,
      "▁coalition": 6381,
      "▁flunking": 6382,
      "##vert": 6383,
      "▁ozone": 6384,
      "▁theft": 6385,
      "##alsa": 6386,
      "▁headmaster": 6387,
      "▁envis": 6388,
      "▁happened": 6389,
      "##dain": 6390,
      "▁pav": 6391,
      "▁commercial": 6392,
      "##ores": 6393,
      "▁consist": 6394,
      "▁continuing": 6395,
      "▁recreate": 6396,
      "▁hate": 6397,
      "▁major": 6398,
      "▁incorp": 6399,
      "▁elevator": 6400,
      "▁hack": 6401,
      "▁pouch": 6402,
      "##ulated": 6403,
      "▁complex": 6404,
      "##------->": 6405,
      "▁policymakers": 6406,
      "▁reviewed": 6407,
      "▁sus": 6408,
      "▁areas": 6409,
      "▁harmonised": 6410,
      "▁plots": 6411,
      "▁assist": 6412,
      "▁numerous": 6413,
      "▁etiquette": 6414,
      "▁texts": 6415,
      "##av": 6416,
      "▁manuscripts": 6417,
      "▁privilege": 6418,
      "▁hz": 6419,
      "▁else": 6420,
      "▁presents": 6421,
      "▁highway": 6422,
      "##di": 6423,
      "▁aristocrats": 6424,
      "▁trying": 6425,
      "▁shot": 6426,
      "##berry": 6427,
      "##h-": 6428,
      "##read": 6429,
      "▁guiding": 6430,
      "▁weeks": 6431,
      "▁manif": 6432,
      "▁wasted": 6433,
      "▁vo": 6434,
      "▁height": 6435,
      "▁10": 6436,
      "##unk": 6437,
      "##rits": 6438,
      "##veyed": 6439,
      "##olation": 6440,
      "▁'d": 6441,
      "##uates": 6442,
      "##hoods": 6443,
      "▁1": 6444,
      "▁consumption": 6445,
      "▁teenagers": 6446,
      "▁disclaim": 6447,
      "▁showing": 6448,
      "▁weasel": 6449,
      "▁served": 6450,
      "▁transmedia": 6451,
      "▁trader": 6452,
      "##ius": 6453,
      "##mp": 6454,
      "▁closing": 6455,
      "▁celebrating": 6456,
      "▁flowed": 6457,
      "▁refres": 6458,
      "▁high": 6459,
      "▁ki": 6460,
      "##thold": 6461,
      "▁01": 6462,
      "▁pursue": 6463,
      "▁tul": 6464,
      "▁centi": 6465,
      "##itude": 6466,
      "▁appe": 6467,
      "▁till": 6468,
      "▁removes": 6469,
      "##plan": 6470,
      "▁inhabit": 6471,
      "▁throws": 6472,
      "▁tonn": 6473,
      "▁lifesty": 6474,
      "▁reconstruction": 6475,
      "▁resistance": 6476,
      "▁struggling": 6477,
      "▁arti": 6478,
      "▁transf": 6479,
      "▁plaque": 6480,
      "▁trade": 6481,
      "▁***": 6482,
      "##avery": 6483,
      "▁facing": 6484,
      "▁putting": 6485,
      "▁limbs": 6486,
      "▁inciting": 6487,
      "▁visited": 6488,
      "▁booth": 6489,
      "##ria": 6490,
      "▁wheat": 6491,
      "▁flakes": 6492,
      "▁exchanged": 6493,
      "▁dawn": 6494,
      "▁just": 6495,
      "▁pockets": 6496,
      "▁femur": 6497,
      "##ayal": 6498,
      "▁nude": 6499,
      "▁foot": 6500,
      "▁volatilities": 6501,
      "▁seesaw": 6502,
      "▁ducked": 6503,
      "##house": 6504,
      "##fighter": 6505,
      "##ensions": 6506,
      "▁troubles": 6507,
      "##ativeness": 6508,
      "▁stimulating": 6509,
      "##dotes": 6510,
      "##kets": 6511,
      "▁past": 6512,
      "▁tickets": 6513,
      "▁hedge": 6514,
      "▁metro": 6515,
      "▁tic": 6516,
      "▁cray": 6517,
      "▁consume": 6518,
      "##titions": 6519,
      "▁occas": 6520,
      "▁stud": 6521,
      "▁entourage": 6522,
      "▁)": 6523,
      "▁arising": 6524,
      "▁judiciary": 6525,
      "▁retail": 6526,
      "▁tattoos": 6527,
      "▁instruc": 6528,
      "`": 6529,
      "b": 6530,
      "▁modify": 6531,
      "##agers": 6532,
      "▁dude": 6533,
      "▁attem": 6534,
      "▁une": 6535,
      "▁multi": 6536,
      "▁analogy": 6537,
      "▁office": 6538,
      "▁struck": 6539,
      "##olutions": 6540,
      "▁conj": 6541,
      "▁woud": 6542,
      "▁reminder": 6543,
      "▁comet": 6544,
      "▁portrayal": 6545,
      "##stair": 6546,
      "▁breathe": 6547,
      "##ell": 6548,
      "▁maximum": 6549,
      "▁righthold": 6550,
      "##ches": 6551,
      "▁crump": 6552,
      "▁memory": 6553,
      "▁forget": 6554,
      "▁disability": 6555,
      "▁fell": 6556,
      "##girl": 6557,
      "▁perfect": 6558,
      "##ulars": 6559,
      "▁14": 6560,
      "##nings": 6561,
      "▁rabbit": 6562,
      "##rum": 6563,
      "##entures": 6564,
      "▁collaborations": 6565,
      "▁exhib": 6566,
      "▁conn": 6567,
      "▁promotion": 6568,
      "▁sonnets": 6569,
      "▁sunshine": 6570,
      "▁refund": 6571,
      "▁intrigu": 6572,
      "▁nightclubs": 6573,
      "##yme": 6574,
      "▁stabbed": 6575,
      "▁america": 6576,
      "▁cooperate": 6577,
      "▁towel": 6578,
      "##gues": 6579,
      "▁clerk": 6580,
      "▁frow": 6581,
      "▁however": 6582,
      "##60's": 6583,
      "▁younger": 6584,
      "▁test": 6585,
      "▁lowest": 6586,
      "▁modules": 6587,
      "▁settings": 6588,
      "##ucking": 6589,
      "▁fertili": 6590,
      "##ogn": 6591,
      "▁bake": 6592,
      "▁spect": 6593,
      "##ull": 6594,
      "▁appellants": 6595,
      "▁tastes": 6596,
      "▁off": 6597,
      "▁rinsed": 6598,
      "▁!!!!": 6599,
      "▁silk": 6600,
      "▁motivation": 6601,
      "##oph": 6602,
      "▁sort": 6603,
      "▁diagn": 6604,
      "▁sitting": 6605,
      "▁proud": 6606,
      "##pop": 6607,
      "▁dy": 6608,
      "▁geomet": 6609,
      "##otyp": 6610,
      "▁accep": 6611,
      "▁imper": 6612,
      "▁glare": 6613,
      "▁soda": 6614,
      "▁elapsed": 6615,
      "##-th": 6616,
      "##iously": 6617,
      "▁starve": 6618,
      "▁spores": 6619,
      "▁ray": 6620,
      "##ma": 6621,
      "▁dancing": 6622,
      "▁wad": 6623,
      "##inence": 6624,
      "▁original": 6625,
      "▁piled": 6626,
      "##ritation": 6627,
      "##ement": 6628,
      "▁combines": 6629,
      "▁mr.": 6630,
      "▁hosting": 6631,
      "▁defic": 6632,
      "▁harmon": 6633,
      "##tirely": 6634,
      "▁entrance": 6635,
      "##aning": 6636,
      "▁homes": 6637,
      "▁domest": 6638,
      "▁silly": 6639,
      "▁affected": 6640,
      "▁airl": 6641,
      "▁elastic": 6642,
      "##uce": 6643,
      "##ially": 6644,
      "##vel": 6645,
      "▁sch": 6646,
      "▁confront": 6647,
      "▁anal": 6648,
      "##mos": 6649,
      "▁insp": 6650,
      "▁nutrients": 6651,
      "▁view": 6652,
      "▁breast": 6653,
      "##anges": 6654,
      "▁scul": 6655,
      "##asion": 6656,
      "##ancy": 6657,
      "▁strengthening": 6658,
      "▁dire": 6659,
      "▁bagels": 6660,
      "▁finds": 6661,
      "▁ent": 6662,
      "##isture": 6663,
      "▁comfortable": 6664,
      "▁cocktail": 6665,
      "##dit": 6666,
      "##anne": 6667,
      "▁different": 6668,
      "▁joking": 6669,
      "▁takeoffs": 6670,
      "▁officers": 6671,
      "▁rod": 6672,
      "##_": 6673,
      "▁congestion": 6674,
      "##-of-": 6675,
      "▁fodder": 6676,
      "▁analysis": 6677,
      "▁22nd": 6678,
      "▁shared": 6679,
      "##acter": 6680,
      "▁reflects": 6681,
      "▁pron": 6682,
      "▁partners": 6683,
      "▁vint": 6684,
      "▁refl": 6685,
      "▁pager": 6686,
      "##iet": 6687,
      "▁audio": 6688,
      "##afts": 6689,
      "▁additional": 6690,
      "▁negot": 6691,
      "▁uncertainty": 6692,
      "##ima": 6693,
      "▁opportunity": 6694,
      "▁rh": 6695,
      "▁rated": 6696,
      "##ustration": 6697,
      "##igma": 6698,
      "▁chicago": 6699,
      "##for": 6700,
      "▁cuck": 6701,
      "▁prevailing": 6702,
      "▁pardon": 6703,
      "▁wall": 6704,
      "▁surprises": 6705,
      "▁investigate": 6706,
      "▁your": 6707,
      "##oir": 6708,
      "▁wa": 6709,
      "▁wings": 6710,
      "##fication": 6711,
      "▁protested": 6712,
      "▁punishment": 6713,
      "▁university": 6714,
      "▁26": 6715,
      "##ve": 6716,
      "▁activists": 6717,
      "##ify": 6718,
      "▁lope": 6719,
      "▁appearing": 6720,
      "##lling": 6721,
      "▁dinnertime": 6722,
      "▁beater": 6723,
      "##ball": 6724,
      "▁goo": 6725,
      "▁professor": 6726,
      "▁hometown": 6727,
      "##ility": 6728,
      "▁ally": 6729,
      "▁execute": 6730,
      "▁defe": 6731,
      "▁produc": 6732,
      "▁sent": 6733,
      "▁gotten": 6734,
      "##ingle": 6735,
      "▁ads": 6736,
      "▁mac": 6737,
      "▁nostrils": 6738,
      "##issance": 6739,
      "▁princess": 6740,
      "▁concerts": 6741,
      "##fe": 6742,
      "▁higher": 6743,
      "##olving": 6744,
      "##uations": 6745,
      "##ople": 6746,
      "##understanding": 6747,
      "▁soci": 6748,
      "▁********************************": 6749,
      "##asy": 6750,
      "▁sorry": 6751,
      "▁obl": 6752,
      "▁planted": 6753,
      "▁laund": 6754,
      "▁heck": 6755,
      "▁permit": 6756,
      "▁!!": 6757,
      "▁the": 6758,
      "▁screwdriver": 6759,
      "##operation": 6760,
      "##-cl": 6761,
      "▁medal": 6762,
      "▁investigated": 6763,
      "##eu": 6764,
      "▁ron": 6765,
      "▁valuation": 6766,
      "▁pleas": 6767,
      "▁shipping": 6768,
      "▁stroll": 6769,
      "▁calculations": 6770,
      "▁onions": 6771,
      "##77": 6772,
      "▁textile": 6773,
      "▁breach": 6774,
      "▁margin": 6775,
      "▁policies": 6776,
      "▁than": 6777,
      "##ds": 6778,
      "▁cyc": 6779,
      "▁negotiate": 6780,
      "▁disorders": 6781,
      "▁km": 6782,
      "▁appropriations": 6783,
      "▁stationery": 6784,
      "▁buds": 6785,
      "##enc": 6786,
      "▁efficiency": 6787,
      "▁visitors": 6788,
      "##sen": 6789,
      "##comm": 6790,
      "▁photos": 6791,
      "▁championship": 6792,
      "##ependency": 6793,
      "▁tumbling": 6794,
      "▁************************************************": 6795,
      "▁scan": 6796,
      "##tur": 6797,
      "##fp": 6798,
      "##anish": 6799,
      "▁whoever": 6800,
      "▁govern": 6801,
      "▁tends": 6802,
      "▁either": 6803,
      "▁fearing": 6804,
      "▁lobster": 6805,
      "▁iran": 6806,
      "▁hose": 6807,
      "##ix": 6808,
      "##option": 6809,
      "▁subsid": 6810,
      "##avi": 6811,
      "##nosis": 6812,
      "▁lipsticks": 6813,
      "▁renovation": 6814,
      "##lism": 6815,
      "▁halves": 6816,
      "▁powers": 6817,
      "▁somehow": 6818,
      "▁transmitter": 6819,
      "▁chemicals": 6820,
      "▁interfere": 6821,
      "▁pizzas": 6822,
      "▁sizes": 6823,
      "▁trips": 6824,
      "▁econom": 6825,
      "▁--": 6826,
      "▁tray": 6827,
      "##itate": 6828,
      "▁couples": 6829,
      "▁bbq": 6830,
      "▁grandpar": 6831,
      "##olence": 6832,
      "▁living": 6833,
      "▁orbit": 6834,
      "▁opinions": 6835,
      "▁bombs": 6836,
      "##itals": 6837,
      "##irited": 6838,
      "##ght": 6839,
      "##ier": 6840,
      "▁roots": 6841,
      "▁burbank": 6842,
      "▁answering": 6843,
      "▁bounced": 6844,
      "▁tsunami": 6845,
      "▁clou": 6846,
      "▁sne": 6847,
      "▁cincinn": 6848,
      "▁crafts": 6849,
      "##g.": 6850,
      "▁positioning": 6851,
      "▁50": 6852,
      "▁printer": 6853,
      "##fully": 6854,
      "▁days": 6855,
      "▁decade": 6856,
      "##ipl": 6857,
      "▁concrete": 6858,
      "▁waking": 6859,
      "▁penny": 6860,
      "▁spider": 6861,
      "▁assaulted": 6862,
      "▁extradited": 6863,
      "▁musical": 6864,
      "▁recru": 6865,
      "▁sailors": 6866,
      "▁bless": 6867,
      "▁drawers": 6868,
      "▁beds": 6869,
      "▁dc": 6870,
      "▁constitute": 6871,
      "▁developed": 6872,
      "▁cav": 6873,
      "##cr": 6874,
      "##lion": 6875,
      "▁counterfeiting": 6876,
      "▁married": 6877,
      "▁dignit": 6878,
      "▁city": 6879,
      "##iss": 6880,
      "▁heads": 6881,
      "▁squirrels": 6882,
      "▁25": 6883,
      "##ington": 6884,
      "##nets": 6885,
      "##aults": 6886,
      "▁financial": 6887,
      "▁pain": 6888,
      "▁karen": 6889,
      "▁plat": 6890,
      "▁routine": 6891,
      "▁edward": 6892,
      "▁islamists": 6893,
      "▁angels": 6894,
      "▁screwed": 6895,
      "▁funeral": 6896,
      "▁faded": 6897,
      "##ounters": 6898,
      "##itage": 6899,
      "▁regular": 6900,
      "##lished": 6901,
      "▁ali": 6902,
      "▁?!?": 6903,
      "##aps": 6904,
      "▁remn": 6905,
      "##irc": 6906,
      "▁enables": 6907,
      "▁stro": 6908,
      "▁pulse": 6909,
      "##zema": 6910,
      "##itish": 6911,
      "▁aspect": 6912,
      "▁fun": 6913,
      "▁feet": 6914,
      "▁pat": 6915,
      "▁pollution": 6916,
      "▁neighborhood": 6917,
      "▁rear": 6918,
      "▁spi": 6919,
      "▁loc": 6920,
      "▁fyi": 6921,
      "##gregation": 6922,
      "▁fus": 6923,
      "▁wee": 6924,
      "▁na": 6925,
      "▁unless": 6926,
      "▁directions": 6927,
      "▁connec": 6928,
      "▁produce": 6929,
      "▁route": 6930,
      "▁achievement": 6931,
      "▁punctuation": 6932,
      "▁facul": 6933,
      "▁award": 6934,
      "▁wedding": 6935,
      "▁ramifications": 6936,
      "▁authorities": 6937,
      "▁freezer": 6938,
      "▁billing": 6939,
      "▁apolog": 6940,
      "##ality": 6941,
      "▁phenomenon": 6942,
      "▁pi": 6943,
      "▁handkerchief": 6944,
      "##/0": 6945,
      "▁going": 6946,
      "▁students": 6947,
      "▁raisin": 6948,
      "▁masterpi": 6949,
      "▁chairs": 6950,
      "▁legiti": 6951,
      "▁beginning": 6952,
      "▁cpi": 6953,
      "▁coined": 6954,
      "▁))": 6955,
      "▁dou": 6956,
      "▁laser": 6957,
      "##agn": 6958,
      "##.": 6959,
      "▁almon": 6960,
      "▁diver": 6961,
      "▁confirms": 6962,
      "▁frosting": 6963,
      "▁sooner": 6964,
      "▁into": 6965,
      "▁jun": 6966,
      "▁chequ": 6967,
      "▁silicone": 6968,
      "▁animation": 6969,
      "▁elections": 6970,
      "##ension": 6971,
      "##ache": 6972,
      "▁invasion": 6973,
      "▁mitch": 6974,
      "▁guidelines": 6975,
      "##low": 6976,
      "##ither": 6977,
      "##alt": 6978,
      "▁merits": 6979,
      "▁focus": 6980,
      "▁stores": 6981,
      "##tte": 6982,
      "▁husband": 6983,
      "▁participate": 6984,
      "▁origins": 6985,
      "▁assisted": 6986,
      "##egration": 6987,
      "▁butt": 6988,
      "▁cher": 6989,
      "##rib": 6990,
      "▁bathtub": 6991,
      "▁waved": 6992,
      "▁nose": 6993,
      "▁earth": 6994,
      "##wife": 6995,
      "▁forb": 6996,
      "▁promising": 6997,
      "▁forwar": 6998,
      "▁backside": 6999,
      "▁take": 7000,
      "▁socialist": 7001,
      "▁copyrighted": 7002,
      "▁vs.": 7003,
      "##ian": 7004,
      "▁seafood": 7005,
      "▁songs": 7006,
      "##ou": 7007,
      "▁fashion": 7008,
      "▁uhhuh": 7009,
      "##ony": 7010,
      "▁owners": 7011,
      "▁eaters": 7012,
      "▁refin": 7013,
      "▁folder": 7014,
      "▁up": 7015,
      "▁accuracy": 7016,
      "▁wounds": 7017,
      "▁article": 7018,
      "##llified": 7019,
      "▁prosecutor": 7020,
      "##ini": 7021,
      "▁postures": 7022,
      "▁bulldozer": 7023,
      "▁wife": 7024,
      "▁changes": 7025,
      "▁amending": 7026,
      "▁absolutely": 7027,
      "▁administered": 7028,
      "▁coc": 7029,
      "▁dw": 7030,
      "▁fam": 7031,
      "##ω": 7032,
      "##fran": 7033,
      "▁division": 7034,
      "▁burning": 7035,
      "▁peop": 7036,
      "##ssible": 7037,
      "▁additionality": 7038,
      "##bly": 7039,
      "▁thru": 7040,
      "▁seas": 7041,
      "▁glasses": 7042,
      "▁pillars": 7043,
      "▁snacks": 7044,
      "▁conserv": 7045,
      "▁affects": 7046,
      "▁ai": 7047,
      "▁three": 7048,
      "▁producers": 7049,
      "▁eat": 7050,
      "▁hypnotized": 7051,
      "▁publicity": 7052,
      "▁piggie": 7053,
      "▁criteria": 7054,
      "▁knights": 7055,
      "▁men": 7056,
      "▁nanny": 7057,
      "##isc": 7058,
      "▁.....": 7059,
      "##anger": 7060,
      "▁counters": 7061,
      "▁contempl": 7062,
      "##kes": 7063,
      "▁upon": 7064,
      "▁debt": 7065,
      "▁expressing": 7066,
      "▁nights": 7067,
      "##ukee": 7068,
      "##ais": 7069,
      "▁device": 7070,
      "▁ids": 7071,
      "▁compass": 7072,
      "▁fir": 7073,
      "##issors": 7074,
      "▁ld2d-#69366-1.doc": 7075,
      "▁gaining": 7076,
      "▁beginners": 7077,
      "▁hardware": 7078,
      "##.net": 7079,
      "##hus": 7080,
      "##------------": 7081,
      "##bby": 7082,
      "▁reply": 7083,
      "▁hug": 7084,
      "▁bounces": 7085,
      "▁resemb": 7086,
      "▁robotics": 7087,
      "▁ste": 7088,
      "▁bug": 7089,
      "▁tobacco": 7090,
      "▁spore": 7091,
      "▁countryside": 7092,
      "##alisation": 7093,
      "▁sheep": 7094,
      "▁non-": 7095,
      "##anistan": 7096,
      "▁unfort": 7097,
      "▁institutes": 7098,
      "▁burger": 7099,
      "##rise": 7100,
      "▁ride": 7101,
      "▁oneself": 7102,
      "▁posts": 7103,
      "▁uprising": 7104,
      "▁differential": 7105,
      "▁slugs": 7106,
      "##qual": 7107,
      "▁gave": 7108,
      "▁gul": 7109,
      "▁ch": 7110,
      "▁insight": 7111,
      "##apping": 7112,
      "▁questionnaires": 7113,
      "##rition": 7114,
      "▁can": 7115,
      "▁nomination": 7116,
      "▁climbed": 7117,
      "▁fours": 7118,
      "▁industry": 7119,
      "▁tipped": 7120,
      "▁displ": 7121,
      "##pd": 7122,
      "▁compr": 7123,
      "▁meant": 7124,
      "▁firing": 7125,
      "▁garden": 7126,
      "▁picnic": 7127,
      "▁sanctions": 7128,
      "▁dress": 7129,
      "▁paint": 7130,
      "##cre": 7131,
      "▁antiqu": 7132,
      "##chester": 7133,
      "▁rebalancing": 7134,
      "##+re": 7135,
      "##thing": 7136,
      "▁episodes": 7137,
      "▁crops": 7138,
      "▁mys": 7139,
      "▁tomatoes": 7140,
      "##enn": 7141,
      "▁tables": 7142,
      "▁imperialism": 7143,
      "▁lack": 7144,
      "▁bran": 7145,
      "▁hyper": 7146,
      "▁scrape": 7147,
      "▁berry": 7148,
      "##??": 7149,
      "▁resorts": 7150,
      "▁hoof": 7151,
      "▁ascertain": 7152,
      "##vd": 7153,
      "▁injuries": 7154,
      "▁soil": 7155,
      "##ugh": 7156,
      "▁fusions": 7157,
      "▁carol": 7158,
      "▁yea": 7159,
      "##bon": 7160,
      "▁mod": 7161,
      "##adder": 7162,
      "▁concession": 7163,
      "▁gnome": 7164,
      "▁differing": 7165,
      "▁title": 7166,
      "▁distribute": 7167,
      "▁bulletin": 7168,
      "##educ": 7169,
      "##oral": 7170,
      "▁internet": 7171,
      "▁bears": 7172,
      "▁farmers": 7173,
      "▁spanking": 7174,
      "▁rhinoceros": 7175,
      "##gh": 7176,
      "▁japan": 7177,
      "▁tracked": 7178,
      "▁russia": 7179,
      "▁market": 7180,
      "##ece": 7181,
      "▁repressed": 7182,
      "##inity": 7183,
      "▁-----------------": 7184,
      "▁accepted": 7185,
      "▁ans": 7186,
      "▁territ": 7187,
      "▁trains": 7188,
      "▁drawn": 7189,
      "##gg": 7190,
      "▁lead": 7191,
      "##uc": 7192,
      "▁pol": 7193,
      "▁commod": 7194,
      "▁negotiated": 7195,
      "▁spirited": 7196,
      "▁mil": 7197,
      "▁bedroom": 7198,
      "▁irony": 7199,
      "▁whit": 7200,
      "▁sub": 7201,
      "▁tie": 7202,
      "##81-1.doc": 7203,
      "##off": 7204,
      "##imated": 7205,
      "▁liq": 7206,
      "▁stained": 7207,
      "▁spring": 7208,
      "▁long": 7209,
      "▁holes": 7210,
      "▁poss": 7211,
      "##leum": 7212,
      "▁lacking": 7213,
      "▁repeat": 7214,
      "##dog": 7215,
      "▁produces": 7216,
      "##ucker": 7217,
      "▁halt": 7218,
      "▁surp": 7219,
      "▁swinging": 7220,
      "▁next": 7221,
      "▁parak": 7222,
      "▁rifle": 7223,
      "▁sheltered": 7224,
      "##.d.": 7225,
      "▁surve": 7226,
      "##kness": 7227,
      "▁appoint": 7228,
      "▁locomotive": 7229,
      "##ank": 7230,
      "▁datab": 7231,
      "▁tomato": 7232,
      "▁contributing": 7233,
      "##enix": 7234,
      "▁expanding": 7235,
      "▁burst": 7236,
      "##enerate": 7237,
      "▁vice": 7238,
      "▁networks": 7239,
      "▁indicating": 7240,
      "▁discrimination": 7241,
      "▁stored": 7242,
      "▁activity": 7243,
      "▁counterfeit": 7244,
      "▁engage": 7245,
      "▁renewal": 7246,
      "▁spending": 7247,
      "▁advises": 7248,
      "▁intends": 7249,
      "▁proves": 7250,
      "##idge": 7251,
      "▁submission": 7252,
      "▁cigarette": 7253,
      "▁salad": 7254,
      "▁genius": 7255,
      "▁vess": 7256,
      "▁profits": 7257,
      "▁imp": 7258,
      "##www": 7259,
      "##ign": 7260,
      "▁mine": 7261,
      "▁orig": 7262,
      "##titude": 7263,
      "▁1960s": 7264,
      "▁fuss": 7265,
      "▁creation": 7266,
      "▁kingdom": 7267,
      "▁flown": 7268,
      "▁tone": 7269,
      "▁impress": 7270,
      "▁spout": 7271,
      "▁filling": 7272,
      "##sc": 7273,
      "##iked": 7274,
      "▁pledge": 7275,
      "▁scammers": 7276,
      "▁thanking": 7277,
      "▁urge": 7278,
      "##orter": 7279,
      "▁lying": 7280,
      "▁repeated": 7281,
      "▁swung": 7282,
      "▁reject": 7283,
      "▁magistr": 7284,
      "##asting": 7285,
      "▁‘’": 7286,
      "▁opp": 7287,
      "▁barely": 7288,
      "▁paying": 7289,
      "▁squeal": 7290,
      "▁weighed": 7291,
      "##encing": 7292,
      "▁sql": 7293,
      "▁mothers": 7294,
      "▁victor": 7295,
      "▁cited": 7296,
      "##ture": 7297,
      "▁releasing": 7298,
      "▁predictors": 7299,
      "▁borne": 7300,
      "▁portrayed": 7301,
      "##$t": 7302,
      "##function": 7303,
      "▁frag": 7304,
      "▁forgive": 7305,
      "▁vis": 7306,
      "▁signific": 7307,
      "▁introducing": 7308,
      "▁pilgrim": 7309,
      "▁civili": 7310,
      "▁pang": 7311,
      "##fl": 7312,
      "▁conflic": 7313,
      "▁carro": 7314,
      "##les": 7315,
      "▁sof": 7316,
      "▁concentrating": 7317,
      "▁hypnosis": 7318,
      "▁seats": 7319,
      "▁had": 7320,
      "▁encoun": 7321,
      "▁runs": 7322,
      "▁leaps": 7323,
      "##rel": 7324,
      "▁cock": 7325,
      "▁sunk": 7326,
      "▁mountain": 7327,
      "##____": 7328,
      "–": 7329,
      "▁tiny": 7330,
      "##arks": 7331,
      "▁outcomes": 7332,
      "▁advisers": 7333,
      "▁ukraine": 7334,
      "▁upset": 7335,
      "▁reform": 7336,
      "▁prefecture": 7337,
      "▁employers": 7338,
      "▁ecommerce": 7339,
      "##iciency": 7340,
      "##rs": 7341,
      "▁mus": 7342,
      "##act": 7343,
      "##eres": 7344,
      "▁scattered": 7345,
      "##lees": 7346,
      "▁corpus": 7347,
      "##tions": 7348,
      "▁kangaroo": 7349,
      "##dge": 7350,
      "▁exec": 7351,
      "▁manual": 7352,
      "▁bigger": 7353,
      "▁hens": 7354,
      "▁criticism": 7355,
      "▁chatting": 7356,
      "##river": 7357,
      "▁priced": 7358,
      "▁vali": 7359,
      "▁deciding": 7360,
      "▁private": 7361,
      "▁dest": 7362,
      "▁onto": 7363,
      "▁imposing": 7364,
      "▁tactic": 7365,
      "▁bathrooms": 7366,
      "▁usually": 7367,
      "▁distur": 7368,
      "▁mix": 7369,
      "▁outlined": 7370,
      "##rities": 7371,
      "▁vib": 7372,
      "##awed": 7373,
      "▁lump": 7374,
      "▁stethoscope": 7375,
      "▁outfit": 7376,
      "▁nuclear": 7377,
      "▁millions": 7378,
      "▁balloon": 7379,
      "▁yawning": 7380,
      "▁treats": 7381,
      "▁sign": 7382,
      "▁fronti": 7383,
      "▁marshes": 7384,
      "▁cfl": 7385,
      "▁fever": 7386,
      "##edge": 7387,
      "▁concentrate": 7388,
      "▁aggression": 7389,
      "▁relate": 7390,
      "▁abuse": 7391,
      "▁lawy": 7392,
      "▁letters": 7393,
      "▁??": 7394,
      "▁listening": 7395,
      "▁thought": 7396,
      "##ites": 7397,
      "##lium": 7398,
      "▁lego": 7399,
      "##quis": 7400,
      "▁hur": 7401,
      "▁mob": 7402,
      "▁worth": 7403,
      "##empor": 7404,
      "▁extrem": 7405,
      "▁scenery": 7406,
      "▁discouraging": 7407,
      "##capes": 7408,
      "▁brings": 7409,
      "▁gosh": 7410,
      "▁eats": 7411,
      "▁ld2d-#69345": 7412,
      "▁time": 7413,
      "##arr": 7414,
      "##unking": 7415,
      "##pring": 7416,
      "##hered": 7417,
      "##iistocks": 7418,
      "▁summary": 7419,
      "▁encl": 7420,
      "▁equipment": 7421,
      "▁challenged": 7422,
      "▁inspection": 7423,
      "▁recreating": 7424,
      "##ufact": 7425,
      "▁fundament": 7426,
      "▁band": 7427,
      "▁appeal": 7428,
      "▁bard": 7429,
      "▁brooms": 7430,
      "▁aversion": 7431,
      "▁clap": 7432,
      "▁http": 7433,
      "▁vel": 7434,
      "▁goss": 7435,
      "##lusion": 7436,
      "▁beyon": 7437,
      "▁cel": 7438,
      "▁persu": 7439,
      "##ots": 7440,
      "▁milit": 7441,
      "##ach": 7442,
      "##town": 7443,
      "▁contradict": 7444,
      "▁cha": 7445,
      "▁li": 7446,
      "##singly": 7447,
      "##itz": 7448,
      "▁boundaries": 7449,
      "▁bart": 7450,
      "▁ss": 7451,
      "▁interface": 7452,
      "##veral": 7453,
      "▁parti": 7454,
      "▁auction": 7455,
      "▁big": 7456,
      "▁tear": 7457,
      "▁moments": 7458,
      "▁servant": 7459,
      "▁crying": 7460,
      "▁gut": 7461,
      "▁meditation": 7462,
      "##ythm": 7463,
      "▁rub": 7464,
      "▁adverts": 7465,
      "▁fluids": 7466,
      "▁dishwash": 7467,
      "##overy": 7468,
      "▁logic": 7469,
      "##vened": 7470,
      "▁condem": 7471,
      "▁taxpay": 7472,
      "▁jingle": 7473,
      "ʻ": 7474,
      "▁autofilter": 7475,
      "▁moder": 7476,
      "##inist": 7477,
      "▁turn": 7478,
      "▁classified": 7479,
      "##inks": 7480,
      "▁calculating": 7481,
      "▁followed": 7482,
      "▁appease": 7483,
      "▁pet": 7484,
      "▁eigh": 7485,
      "##fications": 7486,
      "▁forg": 7487,
      "▁occupies": 7488,
      "▁lust": 7489,
      "▁drive": 7490,
      "▁!!!?": 7491,
      "▁tha": 7492,
      "##eet": 7493,
      "##iversary": 7494,
      "▁entertain": 7495,
      "▁stickerbir": 7496,
      "▁himself": 7497,
      "▁heightened": 7498,
      "▁holders": 7499,
      "▁magician": 7500,
      "▁minneapolis": 7501,
      "▁routes": 7502,
      "▁dischar": 7503,
      "##-out": 7504,
      "▁divor": 7505,
      "##ires": 7506,
      "▁immer": 7507,
      "▁supplied": 7508,
      "▁stomachs": 7509,
      "▁conduc": 7510,
      "▁toy": 7511,
      "▁ideation": 7512,
      "▁foul": 7513,
      "▁pillow": 7514,
      "▁pie": 7515,
      "▁jack": 7516,
      "▁genitals": 7517,
      "▁nana": 7518,
      "##oles": 7519,
      "▁perf": 7520,
      "▁vets": 7521,
      "##erland": 7522,
      "▁peppers": 7523,
      "▁divorce": 7524,
      "##cover": 7525,
      "##illion": 7526,
      "▁happen": 7527,
      "##!": 7528,
      "▁cleveland": 7529,
      "▁destroyed": 7530,
      "▁cotton": 7531,
      "▁motivated": 7532,
      "##ouncing": 7533,
      "▁recorded": 7534,
      "▁kip": 7535,
      "##hib": 7536,
      "▁eastern": 7537,
      "▁advertis": 7538,
      "▁travelers": 7539,
      "▁believing": 7540,
      "##hunt": 7541,
      "##:30": 7542,
      "▁shine": 7543,
      "##ving": 7544,
      "▁padd": 7545,
      "▁glove": 7546,
      "▁planned": 7547,
      "▁self-": 7548,
      "▁vulner": 7549,
      "▁appropriate": 7550,
      "▁aeros": 7551,
      "▁lab": 7552,
      "▁2012": 7553,
      "▁passes": 7554,
      "$": 7555,
      "▁tech": 7556,
      "▁contained": 7557,
      "▁tracks": 7558,
      "▁arranged": 7559,
      "▁vomiting": 7560,
      "▁wav": 7561,
      "##ightly": 7562,
      "▁compensation": 7563,
      "▁thirtieth": 7564,
      "▁irritation": 7565,
      "##itable": 7566,
      "▁billi": 7567,
      "##ph": 7568,
      "##/2001": 7569,
      "▁bent": 7570,
      "▁earli": 7571,
      "▁song": 7572,
      "##apanese": 7573,
      "##vailable": 7574,
      "▁healthy": 7575,
      "▁reserved": 7576,
      "▁cartoons": 7577,
      "▁variation": 7578,
      "▁taking": 7579,
      "▁respon": 7580,
      "▁book": 7581,
      "##ior": 7582,
      "##ms": 7583,
      "▁quart": 7584,
      "▁possessed": 7585,
      "▁defendants": 7586,
      "▁aph": 7587,
      "▁mar": 7588,
      "▁dur": 7589,
      "▁detail": 7590,
      "##atedly": 7591,
      "▁mi": 7592,
      "▁moreau": 7593,
      "▁tail": 7594,
      "▁inform": 7595,
      "▁departs": 7596,
      "▁vi": 7597,
      "▁whether": 7598,
      "##mber": 7599,
      "▁rejection": 7600,
      "▁materials": 7601,
      "##assad": 7602,
      "▁legal": 7603,
      "##tism": 7604,
      "▁surrounding": 7605,
      "▁veteran": 7606,
      "▁jurisdictions": 7607,
      "▁foll": 7608,
      "▁extension": 7609,
      "▁compos": 7610,
      "▁baggage": 7611,
      "▁boston": 7612,
      "##ann": 7613,
      "##urning": 7614,
      "##ode": 7615,
      "▁exhaustion": 7616,
      "▁collapse": 7617,
      "##tit": 7618,
      "▁merc": 7619,
      "▁rap": 7620,
      "▁deer": 7621,
      "▁hol": 7622,
      "▁toystore": 7623,
      "▁languages": 7624,
      "▁pinch": 7625,
      "##entralized": 7626,
      "▁clown": 7627,
      "##wom": 7628,
      "##esion": 7629,
      "##a": 7630,
      "▁teef": 7631,
      "▁pandemic": 7632,
      "##pent": 7633,
      "▁charging": 7634,
      "▁ingredients": 7635,
      "▁seems": 7636,
      "##ecess": 7637,
      "▁bel": 7638,
      "▁boy": 7639,
      "▁jerk": 7640,
      "##ince": 7641,
      "▁senti": 7642,
      "▁unions": 7643,
      "▁news": 7644,
      "r": 7645,
      "▁apprentice": 7646,
      "##arranged": 7647,
      "▁pretty": 7648,
      "▁spawn": 7649,
      "##case": 7650,
      "▁fix": 7651,
      "▁constituency": 7652,
      "▁alphabet": 7653,
      "##ired": 7654,
      "▁power": 7655,
      "▁transmitted": 7656,
      "▁funded": 7657,
      "▁variability": 7658,
      "##ystem": 7659,
      "▁modification": 7660,
      "▁civilization": 7661,
      "▁joy": 7662,
      "▁symbolizes": 7663,
      "▁receip": 7664,
      "##uated": 7665,
      "▁headlines": 7666,
      "##edings": 7667,
      "▁fest": 7668,
      "▁mortgage": 7669,
      "▁money": 7670,
      "▁missed": 7671,
      "▁reflecting": 7672,
      "##ly": 7673,
      "▁bringing": 7674,
      "▁bottles": 7675,
      "##eed": 7676,
      "▁inv": 7677,
      "##estic": 7678,
      "▁hungry": 7679,
      "▁remain": 7680,
      "▁experience": 7681,
      "▁rolled": 7682,
      "▁clinking": 7683,
      "##inched": 7684,
      "##80s": 7685,
      "▁circle": 7686,
      "▁backs": 7687,
      "##cest": 7688,
      "▁rings": 7689,
      "▁bit": 7690,
      "▁transaction": 7691,
      "##cake": 7692,
      "##pots": 7693,
      "▁investors": 7694,
      "▁b/c": 7695,
      "▁accounts": 7696,
      "▁congressman": 7697,
      "▁har": 7698,
      "▁boing": 7699,
      "▁resignation": 7700,
      "▁dined": 7701,
      "▁fulfill": 7702,
      "▁house-": 7703,
      "▁jar": 7704,
      "▁expense": 7705,
      "▁uniformity": 7706,
      "▁wolf": 7707,
      "##onally": 7708,
      "▁febr": 7709,
      "▁luck": 7710,
      "▁housing": 7711,
      "▁subjected": 7712,
      "▁spr": 7713,
      "▁country": 7714,
      "▁loves": 7715,
      "▁january": 7716,
      "▁naturalism": 7717,
      "▁lb": 7718,
      "▁discrepancy": 7719,
      "▁durs": 7720,
      "▁integ": 7721,
      "▁nobility": 7722,
      "▁sheriff": 7723,
      "##cend": 7724,
      "▁reporter": 7725,
      "▁attendees": 7726,
      "##etti": 7727,
      "▁try": 7728,
      "▁detected": 7729,
      "##leade": 7730,
      "▁faces": 7731,
      "▁diversity": 7732,
      "##bre": 7733,
      "##oms": 7734,
      "##ude": 7735,
      "▁operating": 7736,
      "##ɑ": 7737,
      "▁agriculture": 7738,
      "▁contrib": 7739,
      "▁biting": 7740,
      "▁snakes": 7741,
      "▁moth": 7742,
      "##ozer": 7743,
      "▁wite": 7744,
      "▁dignity": 7745,
      "▁tablespoon": 7746,
      "▁monarchy": 7747,
      "▁remove": 7748,
      "▁drained": 7749,
      "▁punch": 7750,
      "##fr": 7751,
      "▁nig": 7752,
      "▁on": 7753,
      "▁gin": 7754,
      "##eral": 7755,
      "▁sout": 7756,
      "##ection": 7757,
      "▁doctrine": 7758,
      "▁democratic": 7759,
      "##oul": 7760,
      "▁cheers": 7761,
      "▁fal": 7762,
      "▁twist": 7763,
      "▁chief": 7764,
      "▁yes": 7765,
      "▁minority": 7766,
      "▁thous": 7767,
      "##itic": 7768,
      "▁threatens": 7769,
      "##ialism": 7770,
      "▁thurs": 7771,
      "▁waning": 7772,
      "##pit": 7773,
      "▁waiters": 7774,
      "▁insult": 7775,
      "▁river": 7776,
      "##chem": 7777,
      "##i-": 7778,
      "##–": 7779,
      "▁orient": 7780,
      "▁microwave": 7781,
      "▁earned": 7782,
      "▁installing": 7783,
      "▁ruts": 7784,
      "▁grain": 7785,
      "▁save": 7786,
      "▁heating": 7787,
      "▁resource": 7788,
      "▁nest": 7789,
      "▁suit": 7790,
      "▁assump": 7791,
      "▁document": 7792,
      "▁whe": 7793,
      "▁grounds": 7794,
      "▁trous": 7795,
      "φ": 7796,
      "##ery": 7797,
      "##u": 7798,
      "▁sep": 7799,
      "▁survival": 7800,
      "▁unt": 7801,
      "▁reccomend": 7802,
      "##overed": 7803,
      "##uggle": 7804,
      "##rav": 7805,
      "▁symmet": 7806,
      "▁obtain": 7807,
      "▁“": 7808,
      "▁indul": 7809,
      "▁an": 7810,
      "##rote": 7811,
      "▁moham": 7812,
      "▁recruitment": 7813,
      "▁altar": 7814,
      "▁sculptures": 7815,
      "▁owner": 7816,
      "▁appalled": 7817,
      "##so": 7818,
      "▁paradise": 7819,
      "▁resili": 7820,
      "▁stairs": 7821,
      "▁films": 7822,
      "##ything": 7823,
      "▁companion": 7824,
      "##inema": 7825,
      "▁disgor": 7826,
      "▁jul": 7827,
      "▁coin": 7828,
      "▁currents": 7829,
      "▁corrected": 7830,
      "##ounces": 7831,
      "##ho": 7832,
      "▁findings": 7833,
      "▁shack": 7834,
      "▁originated": 7835,
      "▁gaze": 7836,
      "▁!!!!!!": 7837,
      "▁harm": 7838,
      "▁barriers": 7839,
      "##olt": 7840,
      "▁fitness": 7841,
      "##mate": 7842,
      "▁denti": 7843,
      "▁cp": 7844,
      "▁ballerina": 7845,
      "##β": 7846,
      "##acture": 7847,
      "▁wal": 7848,
      "##ced": 7849,
      "▁comprehension": 7850,
      "▁geof": 7851,
      "▁bra": 7852,
      "▁turb": 7853,
      ",": 7854,
      "##ops": 7855,
      "▁bet": 7856,
      "▁carriage": 7857,
      "▁scenarios": 7858,
      "##turing": 7859,
      "##riendly": 7860,
      "▁liber": 7861,
      "##ashed": 7862,
      "▁remember": 7863,
      "▁promoted": 7864,
      "##mac": 7865,
      "▁balancing": 7866,
      "##nowled": 7867,
      "▁emptiness": 7868,
      "▁gar": 7869,
      "▁carrying": 7870,
      "##4-1.doc": 7871,
      "▁mathematician": 7872,
      "▁generate": 7873,
      "▁policeman": 7874,
      "##ocked": 7875,
      "▁decision": 7876,
      "▁envelop": 7877,
      "##aceful": 7878,
      "▁birthdays": 7879,
      "##ona": 7880,
      "▁nect": 7881,
      "▁sensing": 7882,
      "▁years": 7883,
      "▁argued": 7884,
      "▁succumb": 7885,
      "▁datash": 7886,
      "▁charco": 7887,
      "##yth": 7888,
      "##ligh": 7889,
      "▁detective": 7890,
      "▁focused": 7891,
      "##cont": 7892,
      "▁male": 7893,
      "▁zip": 7894,
      "▁managing": 7895,
      "▁biologist": 7896,
      "##orized": 7897,
      "▁invent": 7898,
      "##nam": 7899,
      "▁gda": 7900,
      "##ening": 7901,
      "##łodz": 7902,
      "▁desired": 7903,
      "▁billion": 7904,
      "▁mut": 7905,
      "##omend": 7906,
      "▁tidbit": 7907,
      "##%": 7908,
      "▁chefs": 7909,
      "▁confirm": 7910,
      "▁round": 7911,
      "▁resident": 7912,
      "##alous": 7913,
      "▁und": 7914,
      "▁whose": 7915,
      "▁wage": 7916,
      "▁intermed": 7917,
      "##eks": 7918,
      "▁amendment": 7919,
      "▁disasters": 7920,
      "▁pixies": 7921,
      "▁divers": 7922,
      "##rough": 7923,
      "##alk": 7924,
      "▁helped": 7925,
      "##ler": 7926,
      "▁uncover": 7927,
      "▁be": 7928,
      "▁percentiles": 7929,
      "##tiff": 7930,
      "▁prevents": 7931,
      "▁greenhouse": 7932,
      "▁insur": 7933,
      "▁deliver": 7934,
      "▁trail": 7935,
      "▁enabling": 7936,
      "▁soared": 7937,
      "▁capacity": 7938,
      "ς": 7939,
      "▁brick": 7940,
      "##orea": 7941,
      "##very": 7942,
      "▁joh": 7943,
      "▁dying": 7944,
      "▁mma": 7945,
      "▁section": 7946,
      "##water": 7947,
      "▁sleep": 7948,
      "▁censor": 7949,
      "▁tric": 7950,
      "▁room": 7951,
      "##idemic": 7952,
      "▁sails": 7953,
      "▁text": 7954,
      "▁lamp": 7955,
      "▁considered": 7956,
      "▁troub": 7957,
      "▁safe": 7958,
      "▁sw": 7959,
      "▁without": 7960,
      "▁question": 7961,
      "##ο": 7962,
      "##ching": 7963,
      "▁vintage": 7964,
      "▁squirter": 7965,
      "▁mentions": 7966,
      "##elped": 7967,
      "▁colonization": 7968,
      "▁n": 7969,
      "▁13": 7970,
      "▁fulfilled": 7971,
      "##-sh": 7972,
      "##ine": 7973,
      "##icate": 7974,
      "▁exem": 7975,
      "▁released": 7976,
      "▁among": 7977,
      "▁attendant": 7978,
      "##lish": 7979,
      "▁lift": 7980,
      "▁entire": 7981,
      "▁antibiotics": 7982,
      "▁stra": 7983,
      "##ead": 7984,
      "▁specified": 7985,
      "▁probe": 7986,
      "▁chains": 7987,
      "▁wells": 7988,
      "♥": 7989,
      "##py": 7990,
      "▁projected": 7991,
      "##mic": 7992,
      "▁cry": 7993,
      "▁agre": 7994,
      "▁trust": 7995,
      "▁notion": 7996,
      "##geration": 7997,
      "##-mem": 7998,
      "##apped": 7999,
      "▁players": 8000,
      "##rons": 8001,
      "▁passport": 8002,
      "##cin": 8003,
      "▁learning": 8004,
      "▁killed": 8005,
      "▁joined": 8006,
      "##oni": 8007,
      "▁sut": 8008,
      "▁saint": 8009,
      "▁brooding": 8010,
      "▁uth": 8011,
      "▁attn": 8012,
      "▁bush": 8013,
      "▁stillman": 8014,
      "▁cowboys": 8015,
      "▁anyone": 8016,
      "▁councillors": 8017,
      "▁accessing": 8018,
      "▁discouraged": 8019,
      "##rectly": 8020,
      "▁optionality": 8021,
      "▁reap": 8022,
      "▁affiliate": 8023,
      "▁april": 8024,
      "▁metaphors": 8025,
      "##establish": 8026,
      "▁checkout": 8027,
      "▁retailers": 8028,
      "##volutionary": 8029,
      "▁cleaner": 8030,
      "##vail": 8031,
      "▁coconut": 8032,
      "##entally": 8033,
      "▁spend": 8034,
      "▁event": 8035,
      "##asionally": 8036,
      "##owl": 8037,
      "▁temple": 8038,
      "##zzer": 8039,
      "▁framework": 8040,
      "▁nyl": 8041,
      "##soon": 8042,
      "▁schedul": 8043,
      "##ieties": 8044,
      "▁pose": 8045,
      "▁em": 8046,
      "##ital": 8047,
      "▁ut": 8048,
      "▁simp": 8049,
      "##orm": 8050,
      "▁rests": 8051,
      "##yro": 8052,
      "▁desire": 8053,
      "##dly": 8054,
      "##fos": 8055,
      "▁initiated": 8056,
      "##ight": 8057,
      "▁purchasing": 8058,
      "▁hugged": 8059,
      "▁shoot": 8060,
      "°": 8061,
      "▁hive": 8062,
      "▁intention": 8063,
      "▁abandoning": 8064,
      "▁imagined": 8065,
      "▁replacing": 8066,
      "##ray": 8067,
      "##ilities": 8068,
      "▁lacked": 8069,
      "▁encounter": 8070,
      "▁acorn": 8071,
      "##ucks": 8072,
      "▁enjo": 8073,
      "##iance": 8074,
      "▁gover": 8075,
      "▁casting": 8076,
      "▁occurred": 8077,
      "▁asc": 8078,
      "▁looming": 8079,
      "▁sandwiches": 8080,
      "▁looking": 8081,
      "▁tw": 8082,
      "##onic": 8083,
      "▁base": 8084,
      "▁pamp": 8085,
      "▁comb": 8086,
      "▁defin": 8087,
      "▁demonstrate": 8088,
      "▁neighb": 8089,
      "▁carpenter": 8090,
      "▁cont": 8091,
      "▁enrolled": 8092,
      "▁directives": 8093,
      "▁throughout": 8094,
      "▁15th": 8095,
      "##aming": 8096,
      "▁accommodations": 8097,
      "▁possibility": 8098,
      "##aud": 8099,
      "▁sprink": 8100,
      "▁accused": 8101,
      "##bed": 8102,
      "▁usurp": 8103,
      "▁dangling": 8104,
      "▁leverage": 8105,
      "##ove": 8106,
      "▁lawn": 8107,
      "▁pests": 8108,
      "▁edit": 8109,
      "##orld": 8110,
      "▁co-founder": 8111,
      "▁satisf": 8112,
      "▁weakened": 8113,
      "▁mex": 8114,
      "▁blinking": 8115,
      "##azz": 8116,
      "▁ruin": 8117,
      "▁ruins": 8118,
      "▁cluster": 8119,
      "##ott": 8120,
      "▁session": 8121,
      "▁color": 8122,
      "##eats": 8123,
      "▁limits": 8124,
      "##osh": 8125,
      "▁distortion": 8126,
      "▁jan": 8127,
      "##ulators": 8128,
      "▁cartoon": 8129,
      "▁monastery": 8130,
      "▁mosqu": 8131,
      "##angu": 8132,
      "▁ac": 8133,
      "▁drafted": 8134,
      "▁pavement": 8135,
      "▁exchanges": 8136,
      "▁butterfly": 8137,
      "▁depths": 8138,
      "▁stocks": 8139,
      "▁waving": 8140,
      "##opoly": 8141,
      "##iling": 8142,
      "▁overview": 8143,
      "▁enchiladas": 8144,
      "▁bus": 8145,
      "▁emph": 8146,
      "▁pens": 8147,
      "▁union": 8148,
      "▁blood": 8149,
      "▁mills": 8150,
      "▁limestone": 8151,
      "▁sculpture": 8152,
      "▁gag": 8153,
      "▁missions": 8154,
      "▁conferences": 8155,
      "▁fluff": 8156,
      "▁units": 8157,
      "##ez": 8158,
      "##lect": 8159,
      "▁intended": 8160,
      "▁dodge": 8161,
      "▁latest": 8162,
      "▁program": 8163,
      "▁swee": 8164,
      "▁strugg": 8165,
      "▁whale": 8166,
      "▁numbness": 8167,
      "▁reasoned": 8168,
      "▁greatness": 8169,
      "##tainly": 8170,
      "▁coordinated": 8171,
      "▁serves": 8172,
      "▁spoken": 8173,
      "▁territory": 8174,
      "▁identity": 8175,
      "##ru": 8176,
      "▁exercised": 8177,
      "##rar": 8178,
      "▁wines": 8179,
      "▁volcano": 8180,
      "▁sauc": 8181,
      "▁haf": 8182,
      "▁nurse": 8183,
      "▁grill": 8184,
      "##falls": 8185,
      "▁various": 8186,
      "▁swing": 8187,
      "▁om": 8188,
      "##entic": 8189,
      "▁shovel": 8190,
      "▁chunk": 8191,
      "##olved": 8192,
      "▁stickers": 8193,
      "▁donation": 8194,
      "▁hacking": 8195,
      "▁reached": 8196,
      "▁reviewing": 8197,
      "##ope": 8198,
      "▁scarf": 8199,
      "▁;": 8200,
      "▁often": 8201,
      "▁assassination": 8202,
      "▁satisfaction": 8203,
      "▁operative": 8204,
      "▁donated": 8205,
      "▁wr": 8206,
      "▁vide": 8207,
      "▁wood": 8208,
      "##ication": 8209,
      "▁grass": 8210,
      "▁dates": 8211,
      "▁peas": 8212,
      "▁economics": 8213,
      "▁wangs": 8214,
      "▁scient": 8215,
      "▁presenting": 8216,
      "▁flash": 8217,
      "##ung": 8218,
      "▁techniques": 8219,
      "▁rented": 8220,
      "▁grad": 8221,
      "▁novelist": 8222,
      "▁gastroenteritis": 8223,
      "##armacy": 8224,
      "##anity": 8225,
      "u": 8226,
      "▁minds": 8227,
      "▁lunchtime": 8228,
      "▁teacher": 8229,
      "▁already": 8230,
      "▁gold": 8231,
      "##ogue": 8232,
      "##ruptions": 8233,
      "##centi": 8234,
      "▁co-workers": 8235,
      "▁declar": 8236,
      "▁diplomacy": 8237,
      "▁regulated": 8238,
      "▁popped": 8239,
      "▁spaced": 8240,
      "▁was": 8241,
      "▁gastroenter": 8242,
      "▁browse": 8243,
      "▁least": 8244,
      "##best": 8245,
      "▁wow": 8246,
      "▁child": 8247,
      "##tled": 8248,
      "▁grow": 8249,
      "##elines": 8250,
      "##iousness": 8251,
      "##iat": 8252,
      "▁blocks": 8253,
      "4": 8254,
      "▁remind": 8255,
      "▁exporting": 8256,
      "##cally": 8257,
      "▁pig": 8258,
      "▁offered": 8259,
      "▁contracted": 8260,
      "▁tragedies": 8261,
      "▁cans": 8262,
      "##aki": 8263,
      "##urist": 8264,
      "##esome": 8265,
      "▁phrase": 8266,
      "▁laptop": 8267,
      "▁exc": 8268,
      "▁poles": 8269,
      "##levant": 8270,
      "▁woken": 8271,
      "▁clo": 8272,
      "▁objective": 8273,
      "▁pul": 8274,
      "▁scheduled": 8275,
      "##lers": 8276,
      "▁philadel": 8277,
      "▁procrast": 8278,
      "▁meeting": 8279,
      "▁hunger": 8280,
      "▁repay": 8281,
      "▁dotted": 8282,
      "##tity": 8283,
      "▁absolut": 8284,
      "##`": 8285,
      "▁cancelled": 8286,
      "▁shrubs": 8287,
      "▁t.v.": 8288,
      "▁flo": 8289,
      "##acy": 8290,
      "▁foreigner": 8291,
      "▁splash": 8292,
      "##ky": 8293,
      "▁weap": 8294,
      "▁glass": 8295,
      "▁looks": 8296,
      "▁raining": 8297,
      "##alism": 8298,
      "##eets": 8299,
      "▁palace": 8300,
      "▁tendencies": 8301,
      "▁legos": 8302,
      "▁regret": 8303,
      "▁ridden": 8304,
      "▁examples": 8305,
      "▁romances": 8306,
      "▁shov": 8307,
      "▁tar": 8308,
      "▁fac": 8309,
      "▁experimenting": 8310,
      "##oft": 8311,
      "##pri": 8312,
      "##ucked": 8313,
      "▁tourist": 8314,
      "##eren": 8315,
      "▁expulsion": 8316,
      "▁banking": 8317,
      "▁issue": 8318,
      "▁brains": 8319,
      "▁loving": 8320,
      "##mie": 8321,
      "▁hamster": 8322,
      "▁fur": 8323,
      "▁desert": 8324,
      "▁possibilities": 8325,
      "##omb": 8326,
      "▁nephew": 8327,
      "##idly": 8328,
      "▁skiing": 8329,
      "▁problems": 8330,
      "##-n": 8331,
      "##teen": 8332,
      "▁destruction": 8333,
      "##wa": 8334,
      "”": 8335,
      "▁prospects": 8336,
      "▁analyze": 8337,
      "▁spaw": 8338,
      "▁accomm": 8339,
      "##ners": 8340,
      "▁chances": 8341,
      "▁pitches": 8342,
      "▁supporter": 8343,
      "##ver": 8344,
      "▁agony": 8345,
      "##lication": 8346,
      "▁‘": 8347,
      "▁sweet": 8348,
      "▁ministry": 8349,
      "▁promise": 8350,
      "##ancers": 8351,
      "▁nurs": 8352,
      "▁bun": 8353,
      "▁press": 8354,
      "▁revision": 8355,
      "▁blind": 8356,
      "##wards": 8357,
      "▁solve": 8358,
      "##aughters": 8359,
      "##cedent": 8360,
      "##lightly": 8361,
      "▁gri": 8362,
      "▁situation": 8363,
      "▁anger": 8364,
      "▁tasting": 8365,
      "▁mould": 8366,
      "▁inability": 8367,
      "▁flesh": 8368,
      "▁meas": 8369,
      "##iol": 8370,
      "##ton": 8371,
      "▁relatives": 8372,
      "▁banjo": 8373,
      "##riage": 8374,
      "▁ambition": 8375,
      "▁zombie": 8376,
      "##inkles": 8377,
      "▁rulers": 8378,
      "▁scholarship": 8379,
      "▁assassinated": 8380,
      "▁rudeness": 8381,
      "▁disse": 8382,
      "▁clar": 8383,
      "▁vessel": 8384,
      "▁features": 8385,
      "▁slaves": 8386,
      "▁27": 8387,
      "▁formality": 8388,
      "##jecting": 8389,
      "##biting": 8390,
      "##ined": 8391,
      "▁lol": 8392,
      "▁foreground": 8393,
      "▁explained": 8394,
      "▁commission": 8395,
      "▁hyp": 8396,
      "##icating": 8397,
      "▁lemon": 8398,
      "▁60": 8399,
      "##vest": 8400,
      "##idated": 8401,
      "▁subjects": 8402,
      "▁veranda": 8403,
      "▁problem": 8404,
      "▁---------------------------------------------------------------------------": 8405,
      "▁enrongss.xls": 8406,
      "▁environment": 8407,
      "▁moon": 8408,
      "▁she": 8409,
      "##iban": 8410,
      "▁gun": 8411,
      "▁s’": 8412,
      "▁dick": 8413,
      "▁miseries": 8414,
      "▁endanger": 8415,
      "▁d700": 8416,
      "▁consum": 8417,
      "▁immigrants": 8418,
      "▁stall": 8419,
      "##fed": 8420,
      "##und": 8421,
      "▁sched": 8422,
      "▁purchases": 8423,
      "▁imit": 8424,
      "▁dial": 8425,
      "##wering": 8426,
      "▁picture": 8427,
      "##tige": 8428,
      "▁concept": 8429,
      "##icated": 8430,
      "▁convictions": 8431,
      "##eignty": 8432,
      "##lihood": 8433,
      "##iddish": 8434,
      "▁cord": 8435,
      "▁spokes": 8436,
      "▁cowboy": 8437,
      "##uator": 8438,
      "▁rasp": 8439,
      "▁belts": 8440,
      "##irl": 8441,
      "▁combined": 8442,
      "▁excluding": 8443,
      "▁wing": 8444,
      "▁postp": 8445,
      "▁dump": 8446,
      "▁tol": 8447,
      "##roidered": 8448,
      "▁satisfy": 8449,
      "▁veget": 8450,
      "▁playwrights": 8451,
      "▁prey": 8452,
      "▁pige": 8453,
      "##finger": 8454,
      "▁pronunciation": 8455,
      "▁web": 8456,
      "▁queue": 8457,
      "▁birdie": 8458,
      "▁escape": 8459,
      "▁upgrade": 8460,
      "▁ontario": 8461,
      "▁fert": 8462,
      "▁commands": 8463,
      "▁progr": 8464,
      "▁art": 8465,
      "▁''": 8466,
      "▁costs": 8467,
      "▁penet": 8468,
      "▁per": 8469,
      "▁trave": 8470,
      "##rous": 8471,
      "▁south": 8472,
      "▁purpose": 8473,
      "##stit": 8474,
      "##łod": 8475,
      "▁discussion": 8476,
      "##herence": 8477,
      "▁peters": 8478,
      "▁humus": 8479,
      "▁sucked": 8480,
      "▁visit": 8481,
      "▁categories": 8482,
      "##lc": 8483,
      "##vily": 8484,
      "##ny": 8485,
      "▁tensions": 8486,
      "▁uk": 8487,
      "##ase": 8488,
      "##sul": 8489,
      "▁joke": 8490,
      "##nuts": 8491,
      "▁bok": 8492,
      "▁positions": 8493,
      "▁nato": 8494,
      "##ore": 8495,
      "▁asthma": 8496,
      "▁balances": 8497,
      "▁settled": 8498,
      "▁commemorated": 8499,
      "▁blogger": 8500,
      "▁cyp": 8501,
      "▁baking": 8502,
      "▁compared": 8503,
      "##sus": 8504,
      "▁campus": 8505,
      "▁container": 8506,
      "▁crane": 8507,
      "▁neo": 8508,
      "▁etc.": 8509,
      "##irs": 8510,
      "▁place": 8511,
      "▁arms": 8512,
      "▁taste": 8513,
      "▁puzz": 8514,
      "▁surgery": 8515,
      "▁harness": 8516,
      "▁char": 8517,
      "▁owing": 8518,
      "▁varying": 8519,
      "▁blower": 8520,
      "▁makeup": 8521,
      "##ize": 8522,
      "##mem": 8523,
      "▁atmosphere": 8524,
      "▁separation": 8525,
      "▁wigg": 8526,
      "▁colour": 8527,
      "##ascience": 8528,
      "▁scholars": 8529,
      "▁scoot": 8530,
      "▁fighter": 8531,
      "▁ladies": 8532,
      "▁scared": 8533,
      "▁skys": 8534,
      "▁solutions": 8535,
      "▁grapp": 8536,
      "▁proposes": 8537,
      "▁ink": 8538,
      "##omob": 8539,
      "##5": 8540,
      "▁roadgrader": 8541,
      "?": 8542,
      "▁tramp": 8543,
      "▁sensor": 8544,
      "##ne": 8545,
      "▁nylon": 8546,
      "▁polic": 8547,
      "▁enterprise": 8548,
      "▁position": 8549,
      "##pg": 8550,
      "▁snap": 8551,
      "▁spin": 8552,
      "##wh": 8553,
      "▁tricks": 8554,
      "▁necessity": 8555,
      "▁inquired": 8556,
      "▁archipelago": 8557,
      "▁barret": 8558,
      "▁holidays": 8559,
      "▁another": 8560,
      "##erve": 8561,
      "▁artillery": 8562,
      "▁votes": 8563,
      "▁shiny": 8564,
      "▁expect": 8565,
      "▁gym": 8566,
      "##ossible": 8567,
      "##otw": 8568,
      "▁sara": 8569,
      "▁conversation": 8570,
      "▁g": 8571,
      "▁activ": 8572,
      "▁catches": 8573,
      "▁cleared": 8574,
      "▁geometry": 8575,
      "##ng": 8576,
      "##ange": 8577,
      "##edly": 8578,
      "▁prot": 8579,
      "▁buz": 8580,
      "▁boot": 8581,
      "▁caves": 8582,
      "▁merry": 8583,
      "▁bakes": 8584,
      "▁attempt": 8585,
      "▁intranet": 8586,
      "##tually": 8587,
      "▁letter": 8588,
      "▁concent": 8589,
      "▁households": 8590,
[...]
