{
  "version": "1.0",
  "truncation": null,
  "padding": null,
  "added_tokens": [
    {
      "id": 4804,
      "content": "[SEP]",
      "single_word": false,
      "lstrip": false,
      "rstrip": false,
      "normalized": false,
      "special": true
    },
    {
      "id": 7955,
      "content": "[UNK]",
      "single_word": false,
      "lstrip": false,
      "rstrip": false,
      "normalized": false,
      "special": true
    },
    {
      "id": 10031,
      "content": "[MASK]",
      "single_word": false,
      "lstrip": false,
      "rstrip": false,
      "normalized": false,
      "special": true
    },
    {
      "id": 13136,
      "content": "[PAD]",
      "single_word": false,
      "lstrip": false,
      "rstrip": false,
      "normalized": false,
      "special": true
    },
    {
      "id": 13347,
      "content": "[CLS]",
      "single_word": false,
      "lstrip": false,
      "rstrip": false,
      "normalized": false,
      "special": true
    }
  ],
  "normalizer": {
    "type": "Sequence",
    "normalizers": [
      {
        "type": "NFD"
      },
      {
        "type": "Lowercase"
      },
      {
        "type": "StripAccents"
      }
    ]
  },
  "pre_tokenizer": {
    "type": "Sequence",
    "pretokenizers": [
      {
        "type": "Metaspace",
        "replacement": "▁",
        "prepend_scheme": "always",
        "split": true
      }
    ]
  },
  "post_processor": {
    "type": "TemplateProcessing",
    "single": [
      {
        "SpecialToken": {
          "id": "[CLS]",
          "type_id": 0
        }
      },
      {
        "Sequence": {
          "id": "A",
          "type_id": 0
        }
      },
      {
        "SpecialToken": {
          "id": "[SEP]",
          "type_id": 0
        }
      }
    ],
    "pair": [
      {
        "SpecialToken": {
          "id": "[CLS]",
          "type_id": 0
        }
      },
      {
        "Sequence": {
          "id": "A",
          "type_id": 0
        }
      },
      {
        "SpecialToken": {
          "id": "[SEP]",
          "type_id": 0
        }
      },
      {
        "Sequence": {
          "id": "B",
          "type_id": 1
        }
      },
      {
        "SpecialToken": {
          "id": "[SEP]",
          "type_id": 1
        }
      }
    ],
    "special_tokens": {
      "[CLS]": {
        "id": "[CLS]",
        "ids": [
          13347
        ],
        "tokens": [
          "[CLS]"
        ]
      },
      "[SEP]": {
        "id": "[SEP]",
        "ids": [
          4804
        ],
        "tokens": [
          "[SEP]"
        ]
      }
    }
  },
  "decoder": {
    "type": "Metaspace",
    "replacement": "▁",
    "prepend_scheme": "always",
    "split": true
  },
  "model": {
    "type": "BPE",
    "dropout": null,
    "unk_token": "[UNK]",
    "continuing_subword_prefix": null,
    "end_of_word_suffix": null,
    "fuse_unk": false,
    "byte_fallback": false,
    "ignore_merges": false,
    "vocab": {
      "▁controls": 0,
      "▁shed": 1,
      "▁solidarity": 2,
      "▁sails": 3,
      "one": 4,
      "▁translation": 5,
      "▁complex": 6,
      "▁deleg": 7,
      "pair": 8,
      "▁excuses": 9,
      "▁translations": 10,
      "▁punched": 11,
      "▁assassinated": 12,
      "▁wealth": 13,
      "▁traveler": 14,
      "▁backyard": 15,
      "▁tracks": 16,
      "way": 17,
      "▁astride": 18,
      "▁broker": 19,
      "hm": 20,
      "▁participated": 21,
      "▁n-": 22,
      "▁sch": 23,
      "keting": 24,
      "▁squares": 25,
      "▁anx": 26,
      "▁aim": 27,
      "ster": 28,
      "▁attention": 29,
      "▁shrunk": 30,
      "▁farmers": 31,
      "▁limous": 32,
      "▁planted": 33,
      "▁flunking": 34,
      "gds": 35,
      "▁stays": 36,
      "▁charity": 37,
      "▁noone": 38,
      "uity": 39,
      "ible": 40,
      "ashes": 41,
      "6-1.doc": 42,
      "erland": 43,
      "oxide": 44,
      "▁blaming": 45,
      "▁inst": 46,
      "▁general": 47,
      "▁tex": 48,
      "▁repres": 49,
      "▁ran": 50,
      "▁turning": 51,
      "portedly": 52,
      "▁owing": 53,
      "irited": 54,
      "▁observance": 55,
      "▁rid": 56,
      "esome": 57,
      "ingly": 58,
      "▁body": 59,
      "▁lady": 60,
      "▁tv": 61,
      "▁columbus": 62,
      "iciate": 63,
      "▁vaccine": 64,
      "▁person": 65,
      "▁producers": 66,
      "▁intranet": 67,
      "▁cha": 68,
      "▁relevant": 69,
      "iew": 70,
      "orth": 71,
      "▁taxpay": 72,
      "alizes": 73,
      "▁sexual": 74,
      "▁omission": 75,
      "▁biodiversity": 76,
      "▁preceded": 77,
      "▁cheer": 78,
      "rant": 79,
      "▁acts": 80,
      "▁fallen": 81,
      "▁foll": 82,
      "▁pec": 83,
      "ating": 84,
      "▁dots": 85,
      "ages": 86,
      "▁dragon": 87,
      "▁targ": 88,
      "▁cast": 89,
      "▁spells": 90,
      "▁display": 91,
      "oles": 92,
      ".d": 93,
      "ap": 94,
      "ane": 95,
      "onent": 96,
      "▁blueberries": 97,
      "▁om": 98,
      "▁admit": 99,
      "▁pizzas": 100,
      "▁foisted": 101,
      "▁forever": 102,
      "▁donation": 103,
      "▁simply": 104,
      "▁receiving": 105,
      "▁chief": 106,
      "▁cleaner": 107,
      "▁channel": 108,
      "▁literally": 109,
      "s": 110,
      "cling": 111,
      "▁beater": 112,
      "▁moves": 113,
      "idity": 114,
      "▁anem": 115,
      "▁reaffirm": 116,
      "▁stimulating": 117,
      "rations": 118,
      "iciary": 119,
      "▁thinker": 120,
      "ified": 121,
      "▁suffered": 122,
      "derst": 123,
      "act": 124,
      "▁rov": 125,
      "▁on": 126,
      "▁difficul": 127,
      "▁city": 128,
      "▁suck": 129,
      "▁qualify": 130,
      "▁plain": 131,
      "ule": 132,
      "▁gar": 133,
      "unes": 134,
      "8th": 135,
      "▁maw": 136,
      "formity": 137,
      "▁exaggeration": 138,
      "titions": 139,
      "▁mechanics": 140,
      "▁mili": 141,
      "▁hamm": 142,
      "▁exams": 143,
      "ban": 144,
      "▁identifying": 145,
      "▁ingred": 146,
      "▁headlines": 147,
      "▁shall": 148,
      "ience": 149,
      "▁empan": 150,
      "▁academ": 151,
      "▁favor": 152,
      "▁deep": 153,
      "mometer": 154,
      "▁insp": 155,
      "▁unit": 156,
      "pes": 157,
      "▁leg": 158,
      "▁fligh": 159,
      "▁dogs": 160,
      "▁customize": 161,
      "▁sto": 162,
      "ene": 163,
      "▁corpus": 164,
      "▁stalls": 165,
      "▁ha": 166,
      "▁emerges": 167,
      "▁friendliness": 168,
      "▁pu": 169,
      "m": 170,
      "▁bricks": 171,
      "▁downloaded": 172,
      "▁pop": 173,
      "▁car": 174,
      "▁prosp": 175,
      "▁grows": 176,
      "▁optionality": 177,
      "▁diss": 178,
      "▁swede": 179,
      "▁foul": 180,
      "eys": 181,
      "▁older": 182,
      "▁haste": 183,
      "▁group": 184,
      "▁furn": 185,
      "▁outside": 186,
      "▁formed": 187,
      "▁experiences": 188,
      "ews": 189,
      "ucking": 190,
      "▁procedures": 191,
      "▁fighter": 192,
      "▁took": 193,
      "unic": 194,
      "▁pursu": 195,
      "▁breeze": 196,
      "▁1970s": 197,
      "▁wants": 198,
      "▁dispatch": 199,
      "idn": 200,
      "▁bones": 201,
      "-e": 202,
      "inism": 203,
      "▁hoped": 204,
      "▁tell": 205,
      "▁inde": 206,
      "▁cent": 207,
      "▁tours": 208,
      "▁ruin": 209,
      "isco": 210,
      "▁slime": 211,
      "▁steal": 212,
      "▁foreground": 213,
      "river": 214,
      "▁busy": 215,
      "ans": 216,
      "▁chalk": 217,
      "▁___________": 218,
      "▁abolished": 219,
      "▁enthusi": 220,
      "▁bells": 221,
      "▁citation": 222,
      "fe": 223,
      "▁traged": 224,
      "▁denial": 225,
      "▁seiz": 226,
      "▁tast": 227,
      "▁??": 228,
      "rently": 229,
      "▁infl": 230,
      "▁received": 231,
      "▁ts": 232,
      "▁salesman": 233,
      "▁debtors": 234,
      "ε": 235,
      "▁biograph": 236,
      "▁4th": 237,
      "▁alert": 238,
      "▁treasure": 239,
      "▁merit": 240,
      "▁hoax": 241,
      "▁valued": 242,
      "▁about": 243,
      "▁too": 244,
      "▁negotiations": 245,
      "vers": 246,
      "▁ships": 247,
      "▁burping": 248,
      "▁pedic": 249,
      "▁scott": 250,
      "entil": 251,
      "▁-": 252,
      "▁coc": 253,
      "▁satisf": 254,
      "▁conjunction": 255,
      "fess": 256,
      "▁satisfied": 257,
      "▁refres": 258,
      "▁nonstop": 259,
      "▁holiday": 260,
      "▁circular": 261,
      "▁judges": 262,
      "auts": 263,
      "▁slowed": 264,
      "▁heading": 265,
      "▁celebr": 266,
      "▁highly": 267,
      "cut": 268,
      "alising": 269,
      "▁blankets": 270,
      "vert": 271,
      "tur": 272,
      "▁dinosaur": 273,
      "omed": 274,
      "aults": 275,
      "▁foo": 276,
      "gon": 277,
      "▁artwork": 278,
      "▁quotes": 279,
      "acket": 280,
      "▁console": 281,
      "▁exceptions": 282,
      "▁monsters": 283,
      "▁respons": 284,
      "▁faun": 285,
      "▁dolphin": 286,
      "▁tac": 287,
      "▁proceeds": 288,
      "▁knowing": 289,
      "▁swung": 290,
      "isti": 291,
      "bio": 292,
      "▁stumbled": 293,
      "▁autob": 294,
      "▁b&b": 295,
      "mpl": 296,
      "▁declining": 297,
      "xth": 298,
      "▁downtown": 299,
      "orts": 300,
      "▁mech": 301,
      "▁comparisons": 302,
      "▁old": 303,
      "▁alphab": 304,
      "▁blonde": 305,
      "▁rank": 306,
      "▁releasing": 307,
      "▁cookie": 308,
      "▁diarr": 309,
      "▁bending": 310,
      "i-": 311,
      "ound": 312,
      "▁software": 313,
      "ecting": 314,
      "▁scientific": 315,
      "▁guaranty": 316,
      "cont": 317,
      "▁manti": 318,
      "rehension": 319,
      "▁bridges": 320,
      "▁yellow": 321,
      "▁justification": 322,
      "▁weekday": 323,
      "ysical": 324,
      "▁wagging": 325,
      "▁recent": 326,
      "▁generals": 327,
      "▁replied": 328,
      "▁dresses": 329,
      "▁newsgroup": 330,
      "▁cig": 331,
      "▁variation": 332,
      "▁syria": 333,
      "ina": 334,
      "▁pressure": 335,
      "▁supermarket": 336,
      "ay": 337,
      "▁analysts": 338,
      "inator": 339,
      "▁cocoa": 340,
      "▁overr": 341,
      "▁gigg": 342,
      "▁reintroduced": 343,
      "▁leon": 344,
      "▁rinsed": 345,
      "▁lettuce": 346,
      "▁accessibility": 347,
      "▁octopus": 348,
      "▁starved": 349,
      "▁strengthened": 350,
      "worms": 351,
      "▁fairy": 352,
      "ois": 353,
      "▁amidst": 354,
      "▁tourist": 355,
      "▁heaven": 356,
      "▁cens": 357,
      "▁plots": 358,
      "▁ser": 359,
      "▁advanced": 360,
      "5": 361,
      "▁moonlight": 362,
      "▁espec": 363,
      "▁analys": 364,
      "▁welcomed": 365,
      "▁sphere": 366,
      "ecks": 367,
      "▁sequences": 368,
      "ird": 369,
      "▁date": 370,
      "yard": 371,
      "des": 372,
      "▁models": 373,
      "▁raccoon": 374,
      "▁deserves": 375,
      "▁itiner": 376,
      "▁shatter": 377,
      "▁initiate": 378,
      "orrow": 379,
      "▁appease": 380,
      "▁blizzard": 381,
      "▁stakes": 382,
      "▁factions": 383,
      "▁extrad": 384,
      "pa": 385,
      "▁pan-dem": 386,
      "kn": 387,
      "▁eyebrows": 388,
      "ese": 389,
      "emporary": 390,
      "▁manufacturing": 391,
      "izz": 392,
      "▁artworks": 393,
      "▁highl": 394,
      "▁walls": 395,
      "▁fries": 396,
      "▁boule": 397,
      "till": 398,
      "▁pension": 399,
      "▁lion": 400,
      "▁mistake": 401,
      "▁worker": 402,
      "▁bran": 403,
      "-1.doc": 404,
      "▁doub": 405,
      "▁anime": 406,
      "▁doo": 407,
      "▁immensity": 408,
      "▁emer": 409,
      "▁efficient": 410,
      "▁persistence": 411,
      "▁pinky": 412,
      "bes": 413,
      "▁ancestry": 414,
      "inger": 415,
      "▁giraff": 416,
      "-of": 417,
      "ilight": 418,
      "pers": 419,
      "▁truth": 420,
      "▁soup": 421,
      "▁spaces": 422,
      "▁spite": 423,
      "▁sprouts": 424,
      "www": 425,
      "▁pronunciation": 426,
      "tige": 427,
      "▁cartoon": 428,
      "▁lol": 429,
      "▁militants": 430,
      "▁adop": 431,
      "am": 432,
      "▁upset": 433,
      "uk": 434,
      "▁both": 435,
      "▁<": 436,
      "▁interesting": 437,
      "▁folder": 438,
      "▁undermine": 439,
      "▁recyc": 440,
      "imated": 441,
      "▁tutorial": 442,
      "▁collec": 443,
      "gmented": 444,
      "ocking": 445,
      "▁contained": 446,
      "stood": 447,
      "▁must": 448,
      "▁bye": 449,
      "....": 450,
      "▁uncover": 451,
      "girl": 452,
      "▁eggs": 453,
      "ctly": 454,
      "▁toys": 455,
      "ualize": 456,
      "▁monit": 457,
      "▁kansas": 458,
      "▁dando": 459,
      "▁reg": 460,
      "▁bush": 461,
      "cat": 462,
      "lion": 463,
      "▁hood": 464,
      "▁vaccines": 465,
      "▁fyi": 466,
      "▁bos": 467,
      "aganda": 468,
      "▁18": 469,
      "▁ice": 470,
      "enom": 471,
      "orized": 472,
      "▁fired": 473,
      "▁founded": 474,
      "▁texts": 475,
      "▁pumped": 476,
      "▁atmosphere": 477,
      "uropean": 478,
      "x": 479,
      "▁conj": 480,
      "▁surprise": 481,
      "▁***": 482,
      "cope": 483,
      "▁rum": 484,
      "▁marshmallow": 485,
      "▁toof": 486,
      "▁500": 487,
      "ered": 488,
      "▁crickets": 489,
      "cca": 490,
      "lf": 491,
      "▁specimens": 492,
      "▁hoagie": 493,
      "ues": 494,
      "▁lopez": 495,
      "iments": 496,
      "▁cognition": 497,
      "▁“": 498,
      "▁tells": 499,
      "tias": 500,
      "▁cures": 501,
      "▁dissolved": 502,
      "ori": 503,
      "▁princ": 504,
      "▁sponge": 505,
      "holds": 506,
      "argy": 507,
      "ith": 508,
      "▁birthday": 509,
      "jection": 510,
      "▁its": 511,
      "▁mich": 512,
      "▁prevent": 513,
      "▁assu": 514,
      "riend": 515,
      "tors": 516,
      "▁harp": 517,
      "▁deleted": 518,
      "-8": 519,
      "▁waitress": 520,
      "co": 521,
      "▁-----------------": 522,
      "ded": 523,
      "▁feathers": 524,
      "▁guests": 525,
      "▁quiet": 526,
      "/200": 527,
      "▁tel": 528,
      "▁stealing": 529,
      "▁nig": 530,
      "▁,": 531,
      "▁thou": 532,
      "▁sure": 533,
      "lent": 534,
      "▁indi": 535,
      "▁plaque": 536,
      "vd": 537,
      "▁flattered": 538,
      "▁wife": 539,
      "▁them": 540,
      "▁census": 541,
      "▁discont": 542,
      "▁chandeli": 543,
      "▁falled": 544,
      "▁usually": 545,
      "▁document": 546,
      "▁miracle": 547,
      "cked": 548,
      "▁munic": 549,
      "▁men": 550,
      "engers": 551,
      "orea": 552,
      "▁retain": 553,
      "▁damn": 554,
      "by": 555,
      "▁writ": 556,
      "▁novell": 557,
      "29": 558,
      "isture": 559,
      "▁breaks": 560,
      "▁escape": 561,
      "▁delta": 562,
      "▁transform": 563,
      "▁measurements": 564,
      "▁4": 565,
      "▁brick": 566,
      "▁underp": 567,
      "▁interests": 568,
      "arily": 569,
      "▁agency": 570,
      "▁ribs": 571,
      "comm": 572,
      "orie": 573,
      "▁fun": 574,
      "▁kippers": 575,
      "▁hero": 576,
      "▁helicopter": 577,
      "▁opportunity": 578,
      "very": 579,
      "▁puppy": 580,
      "▁willingness": 581,
      "▁nud": 582,
      "asionally": 583,
      "▁diet": 584,
      "▁temp": 585,
      "▁student": 586,
      "▁limits": 587,
      "▁mathematicians": 588,
      "▁champagne": 589,
      "▁gasped": 590,
      "mas": 591,
      "▁smooth": 592,
      "▁stand": 593,
      "ο": 594,
      "▁laura": 595,
      "▁dair": 596,
      "▁preoc": 597,
      "istry": 598,
      "▁steth": 599,
      "manship": 600,
      "▁!?": 601,
      "▁virt": 602,
      "▁appeared": 603,
      "▁launched": 604,
      "▁foreigners": 605,
      "not": 606,
      "▁wheels": 607,
      "▁hym": 608,
      "▁nowhere": 609,
      "lization": 610,
      "▁guard": 611,
      "▁dimin": 612,
      "ainted": 613,
      "▁delicious": 614,
      "▁appalled": 615,
      "▁spy": 616,
      "troduc": 617,
      "▁bet": 618,
      "▁tiles": 619,
      "▁beaten": 620,
      "▁infected": 621,
      "▁caring": 622,
      "phology": 623,
      "▁echo": 624,
      "▁step": 625,
      "▁west": 626,
      "▁everywhere": 627,
      "▁obtain": 628,
      "h-": 629,
      "▁fut": 630,
      "▁ld2d-#69345": 631,
      "▁demonstration": 632,
      "▁boat": 633,
      "▁dow": 634,
      "iginal": 635,
      "▁mostly": 636,
      "▁slam": 637,
      "▁smo": 638,
      "▁sub": 639,
      "▁booked": 640,
      "▁admiration": 641,
      "▁toured": 642,
      "leon": 643,
      "▁prov": 644,
      "▁yrs": 645,
      "▁spotted": 646,
      "▁abused": 647,
      "▁beautiful": 648,
      "▁rest": 649,
      "ensive": 650,
      "thers": 651,
      "ride": 652,
      "▁----------------------------------------------------------------------": 653,
      "-president": 654,
      "▁'ll": 655,
      "ses": 656,
      "▁odds": 657,
      "▁joking": 658,
      "etter": 659,
      "▁burrow": 660,
      "bac": 661,
      "amole": 662,
      "▁prepared": 663,
      "▁codependency": 664,
      "▁communicate": 665,
      "▁novelty": 666,
      "▁–": 667,
      "▁sal": 668,
      "▁intriguing": 669,
      "▁wandering": 670,
      "▁circulation": 671,
      "▁ink": 672,
      "▁congregation": 673,
      "▁ripped": 674,
      "yalist": 675,
      "▁-----------------------------------------------------------------------": 676,
      "enade": 677,
      "▁qual": 678,
      "kton": 679,
      "▁stretching": 680,
      "▁enab": 681,
      "▁concur": 682,
      "▁shuff": 683,
      "▁pillars": 684,
      "▁adorned": 685,
      "▁resp": 686,
      "▁appar": 687,
      "▁gaze": 688,
      "▁tunnels": 689,
      "▁parent": 690,
      "▁emerge": 691,
      "▁soul": 692,
      "▁online": 693,
      "oa": 694,
      "▁conver": 695,
      "▁spa": 696,
      "▁amazing": 697,
      "▁contract": 698,
      "▁instruments": 699,
      "▁extinction": 700,
      "▁noontime": 701,
      "▁alt.animals.d": 702,
      "▁mile": 703,
      "▁argued": 704,
      "▁russ": 705,
      ",": 706,
      "▁koala": 707,
      "▁gtee": 708,
      "▁prosecutor": 709,
      "bod": 710,
      "dit": 711,
      "fore": 712,
      "▁respon": 713,
      "▁his": 714,
      "▁sweeping": 715,
      "enron": 716,
      "bri": 717,
      "▁aft": 718,
      "▁thrown": 719,
      "ide": 720,
      "▁sati": 721,
      "▁dive": 722,
      "▁byebye": 723,
      "erished": 724,
      "▁cartoons": 725,
      "▁pardon": 726,
      "▁violence": 727,
      "▁tendencies": 728,
      "▁communication": 729,
      "▁cameras": 730,
      "ashington": 731,
      "tics": 732,
      "▁alik": 733,
      "▁raised": 734,
      "▁legal": 735,
      "▁rul": 736,
      "▁poetry": 737,
      "▁earthqu": 738,
      "▁click": 739,
      "▁dispute": 740,
      "...": 741,
      "iod": 742,
      "▁is": 743,
      "▁category": 744,
      "▁driveway": 745,
      "▁political": 746,
      "orld": 747,
      "▁slowly": 748,
      "­": 749,
      "▁disconnect": 750,
      "▁1st": 751,
      "▁crooks": 752,
      "ary": 753,
      "▁beck": 754,
      "ris": 755,
      "▁platted": 756,
      "▁wrote": 757,
      "▁omn": 758,
      "▁isolated": 759,
      "▁mater": 760,
      "entials": 761,
      "▁recite": 762,
      "▁money": 763,
      "▁calf": 764,
      "▁veget": 765,
      "▁freight": 766,
      "▁peas": 767,
      "illa": 768,
      "▁basis": 769,
      "▁consideration": 770,
      "ness": 771,
      "▁without": 772,
      "▁works": 773,
      "fa": 774,
      "urp": 775,
      "▁reit": 776,
      "▁deprived": 777,
      "▁proud": 778,
      "▁finalize": 779,
      "▁string": 780,
      "▁weeds": 781,
      "▁horsesho": 782,
      "▁another": 783,
      "▁tide": 784,
      "▁hardware": 785,
      "▁balloons": 786,
      "▁disaster": 787,
      "▁sections": 788,
      "▁realized": 789,
      "▁democratic": 790,
      "▁competi": 791,
      "▁:?": 792,
      "▁enjoyed": 793,
      "▁processor": 794,
      "▁broadc": 795,
      ".org": 796,
      "▁shun": 797,
      "▁chris": 798,
      "cre": 799,
      "▁synthes": 800,
      "▁infrastruc": 801,
      "▁flap": 802,
      "▁bead": 803,
      "arranged": 804,
      "▁noise": 805,
      "▁mayor": 806,
      "▁astronom": 807,
      "▁sculpture": 808,
      "▁john": 809,
      "▁pain": 810,
      "ighb": 811,
      "▁composition": 812,
      "stit": 813,
      "▁timed": 814,
      "▁reject": 815,
      "itates": 816,
      "earing": 817,
      "▁stomachs": 818,
      "organ": 819,
      "▁default": 820,
      "▁throat": 821,
      "▁vis": 822,
      "▁although": 823,
      "▁turkey": 824,
      "▁whist": 825,
      "▁assigned": 826,
      "▁2010": 827,
      "▁guys": 828,
      "▁spike": 829,
      "▁condition": 830,
      "▁loi": 831,
      "▁including": 832,
      "▁visu": 833,
      "llow": 834,
      "▁fixtures": 835,
      "ping": 836,
      "▁descri": 837,
      "▁chefs": 838,
      "antee": 839,
      "ada": 840,
      "▁succeed": 841,
      "▁striking": 842,
      "▁worry": 843,
      ":3": 844,
      "▁convictions": 845,
      "gen": 846,
      "est": 847,
      "▁treatise": 848,
      "▁questionnaire": 849,
      "▁technology": 850,
      "▁abs": 851,
      "▁attic": 852,
      "▁forefinger": 853,
      "▁interference": 854,
      "▁pakistan": 855,
      "▁revol": 856,
      "aling": 857,
      "▁donkey": 858,
      "▁cry": 859,
      "▁ranked": 860,
      "▁am": 861,
      "▁presented": 862,
      "▁dead": 863,
      "issors": 864,
      "driver": 865,
      "▁marrying": 866,
      "▁licked": 867,
      "rd": 868,
      "to": 869,
      "ental": 870,
      "▁ur": 871,
      "lity": 872,
      "ases": 873,
      "osite": 874,
      "▁revised": 875,
      "▁compr": 876,
      "▁interpretations": 877,
      "oner": 878,
      "▁despite": 879,
      "▁already": 880,
      "anted": 881,
      "▁shark": 882,
      "▁dreamed": 883,
      "▁twins": 884,
      "▁fabrications": 885,
      "▁nickname": 886,
      "▁battle": 887,
      "▁miscon": 888,
      "wn": 889,
      "▁cupcakes": 890,
      "▁equ": 891,
      "▁moving": 892,
      "▁reduc": 893,
      "▁homes": 894,
      "▁80": 895,
      "▁count": 896,
      "▁locomotive": 897,
      "▁bounces": 898,
      "▁mull": 899,
      "▁whit": 900,
      "▁elim": 901,
      "agon": 902,
      "ru": 903,
      "ɑ": 904,
      "▁lasting": 905,
      "▁battling": 906,
      "▁northeast": 907,
      "istem": 908,
      "▁shining": 909,
      "▁mac": 910,
      "▁concluding": 911,
      "▁sparks": 912,
      "iates": 913,
      "▁ministry": 914,
      "▁waffle": 915,
      "▁muse": 916,
      "▁sends": 917,
      "▁pir": 918,
      "phis": 919,
      "▁idiot": 920,
      "▁imposed": 921,
      "ober": 922,
      "▁customizing": 923,
      "$t": 924,
      "▁delay": 925,
      "▁scale": 926,
      "▁reaching": 927,
      "▁loved": 928,
      "rough": 929,
      "▁cider": 930,
      "▁killing": 931,
      "▁awards": 932,
      "▁ma": 933,
      "▁sixth": 934,
      "ointed": 935,
      "▁bottle": 936,
      "▁male": 937,
      "▁towns": 938,
      "▁pouch": 939,
      "▁muttered": 940,
      "▁stands": 941,
      "egr": 942,
      "▁stud": 943,
      "▁purple": 944,
      "▁section": 945,
      "▁bart": 946,
      "agraph": 947,
      "▁ton": 948,
      "▁counterfeiting": 949,
      "▁attem": 950,
      "hension": 951,
      "▁opponent": 952,
      "di": 953,
      "els": 954,
      "▁heels": 955,
      "80s": 956,
      "▁oatmeal": 957,
      "▁spir": 958,
      "▁tires": 959,
      "▁fab": 960,
      "/c": 961,
      "▁playroom": 962,
      "▁dollie": 963,
      "▁whee": 964,
      "▁cara": 965,
      "▁crews": 966,
      ".6": 967,
      "aughters": 968,
      "▁br": 969,
      "▁affairs": 970,
      "tein": 971,
      "app": 972,
      "▁serving": 973,
      "▁themselves": 974,
      "▁anti": 975,
      "▁appears": 976,
      "▁soap": 977,
      "eted": 978,
      "▁motiv": 979,
      "▁pat": 980,
      "ypically": 981,
      "▁ev": 982,
      "▁programmes": 983,
      "▁slippers": 984,
      "ieved": 985,
      "▁staffed": 986,
      "▁envoy": 987,
      "▁cin": 988,
      "▁bounds": 989,
      "▁analyses": 990,
      "▁extension": 991,
      "▁championship": 992,
      "oscope": 993,
      "att": 994,
      "▁?????": 995,
      "▁emotion": 996,
      "▁`": 997,
      "isf": 998,
      "▁saviour": 999,
      "achers": 1000,
      "▁rin": 1001,
      "▁dine": 1002,
      "▁wiggleworm": 1003,
      "▁lib": 1004,
      "▁existed": 1005,
      "▁hear": 1006,
      "▁beginner": 1007,
      "▁roo": 1008,
      "▁twice": 1009,
      "▁laund": 1010,
      "▁orchest": 1011,
      "inos": 1012,
      "▁add": 1013,
      "▁possessed": 1014,
      "▁massac": 1015,
      "▁cockati": 1016,
      "▁statements": 1017,
      "ə": 1018,
      "ader": 1019,
      "▁snows": 1020,
      "ym": 1021,
      "▁viewers": 1022,
      "▁television": 1023,
      "25": 1024,
      "▁think": 1025,
      "▁informed": 1026,
      "▁drowning": 1027,
      "▁obsf": 1028,
      "▁simulation": 1029,
      "ky": 1030,
      "onut": 1031,
      "▁inclusion": 1032,
      "▁kinematics": 1033,
      "rop": 1034,
      "▁?!?": 1035,
      "zza": 1036,
      "▁mounds": 1037,
      "tiff": 1038,
      "▁particle": 1039,
      "▁tens": 1040,
      "unks": 1041,
      "▁seafood": 1042,
      "▁fren": 1043,
      "▁rowing": 1044,
      "cha": 1045,
      "▁researchers": 1046,
      "▁od": 1047,
      "ew": 1048,
      "▁departure": 1049,
      "▁doggy": 1050,
      "▁rat": 1051,
      "▁guidelines": 1052,
      "▁absorb": 1053,
      "▁sleepy": 1054,
      "cup": 1055,
      "▁gaz": 1056,
      "▁relig": 1057,
      "▁protests": 1058,
      "▁connecting": 1059,
      "▁reservation": 1060,
      "▁sinus": 1061,
      "▁labels": 1062,
      "ently": 1063,
      "▁block": 1064,
      "▁five": 1065,
      "▁companion": 1066,
      "▁discipline": 1067,
      "▁philadel": 1068,
      "▁spos": 1069,
      "ansion": 1070,
      "▁drawstring": 1071,
      "tice": 1072,
      "▁tok": 1073,
      "▁ap": 1074,
      "aphr": 1075,
      "▁decades": 1076,
      "▁load": 1077,
      "▁famous": 1078,
      "itge": 1079,
      "▁imbalance": 1080,
      "▁descriptions": 1081,
      "▁reapp": 1082,
      "unk": 1083,
      "▁bandaid": 1084,
      "▁answering": 1085,
      "orates": 1086,
      "▁magician": 1087,
      "▁olives": 1088,
      "▁prototype": 1089,
      "▁rumors": 1090,
      "▁mum": 1091,
      "▁prey": 1092,
      "▁teeth": 1093,
      "body": 1094,
      "▁assumptions": 1095,
      "▁attempted": 1096,
      "eign": 1097,
      "▁bulldozer": 1098,
      "▁administr": 1099,
      "▁gates": 1100,
      "▁expectancy": 1101,
      "dity": 1102,
      "umber": 1103,
      "▁tokyo": 1104,
      "▁magnet": 1105,
      "▁oils": 1106,
      "▁yesterday": 1107,
      "▁inscri": 1108,
      "▁rasp": 1109,
      "▁setting": 1110,
      "▁natural": 1111,
      "▁exercise": 1112,
      "▁entry": 1113,
      "▁gazed": 1114,
      "▁negotiating": 1115,
      "▁nuis": 1116,
      "▁mutil": 1117,
      "▁spinning": 1118,
      "▁replaced": 1119,
      "▁bakes": 1120,
      "▁consult": 1121,
      "▁crops": 1122,
      "▁adds": 1123,
      "▁regulate": 1124,
      "▁flooring": 1125,
      "▁disliked": 1126,
      "▁steamer": 1127,
      "▁marketers": 1128,
      "anting": 1129,
      "▁retrospect": 1130,
      "▁fac": 1131,
      "ascience": 1132,
      "▁nylon": 1133,
      "▁shines": 1134,
      "ump": 1135,
      "▁bull": 1136,
      "▁meowing": 1137,
      "▁travellers": 1138,
      "▁subscribers": 1139,
      "▁ld2d-#6939": 1140,
      "▁entirely": 1141,
      "ows": 1142,
      "▁transmit": 1143,
      "enties": 1144,
      "▁basic": 1145,
      "▁enrongss.xls": 1146,
      "▁famili": 1147,
      "▁confir": 1148,
      "▁expression": 1149,
      "mans": 1150,
      "▁falls": 1151,
      "▁illustration": 1152,
      "arize": 1153,
      "ider": 1154,
      "neys": 1155,
      "▁hung": 1156,
      "▁orph": 1157,
      "▁organiz": 1158,
      "vity": 1159,
      "▁mr.": 1160,
      "▁diagram": 1161,
      "▁american": 1162,
      "▁salt": 1163,
      "▁seeing": 1164,
      "▁******************************************************************": 1165,
      "▁ancestors": 1166,
      "version": 1167,
      "ounder": 1168,
      "▁http://www": 1169,
      "▁liquor": 1170,
      "thritis": 1171,
      "▁incen": 1172,
      "▁cere": 1173,
      "▁babies": 1174,
      "▁uma": 1175,
      "▁wed": 1176,
      "▁pros": 1177,
      "▁longing": 1178,
      "▁lotos": 1179,
      "▁withdrawing": 1180,
      "▁orient": 1181,
      "blic": 1182,
      "tained": 1183,
      "▁spinach": 1184,
      "jec": 1185,
      "▁cinema": 1186,
      "erest": 1187,
      "▁interpretation": 1188,
      "▁hesitation": 1189,
      "▁nashville": 1190,
      "▁tip": 1191,
      "▁more": 1192,
      "ickness": 1193,
      "▁reproduc": 1194,
      "▁insight": 1195,
      "umb": 1196,
      "▁engineering": 1197,
      "▁just": 1198,
      "▁spray": 1199,
      "cedent": 1200,
      "▁gon": 1201,
      "nis": 1202,
      "▁kilometres": 1203,
      "▁pops": 1204,
      "▁advancement": 1205,
      "▁background": 1206,
      "corn": 1207,
      "▁garden": 1208,
      "▁homeland": 1209,
      "fighter": 1210,
      "▁myth": 1211,
      "▁displayed": 1212,
      "f": 1213,
      "▁ecodesign": 1214,
      "hiki": 1215,
      "igh": 1216,
      "▁poet": 1217,
      "▁ld2d-#693": 1218,
      "▁align": 1219,
      "ictions": 1220,
      "▁ankle": 1221,
      "▁worst": 1222,
      "▁sad": 1223,
      "▁accomplishment": 1224,
      "▁executive": 1225,
      "akers": 1226,
      "▁fire": 1227,
      "▁advertis": 1228,
      "▁crawl": 1229,
      "nia": 1230,
      "▁sketch": 1231,
      "▁fri": 1232,
      "▁mi": 1233,
      "▁because": 1234,
      "▁missed": 1235,
      "▁tale": 1236,
      "▁oppose": 1237,
      "▁curric": 1238,
      "▁1980s": 1239,
      "▁guiding": 1240,
      "▁accuracy": 1241,
      "▁enclosure": 1242,
      "▁proposed": 1243,
      "▁s-": 1244,
      "▁overalls": 1245,
      "▁increased": 1246,
      "▁hij": 1247,
      "▁lineatus": 1248,
      "▁pd": 1249,
      "▁regarded": 1250,
      "▁limestone": 1251,
      "▁sentences": 1252,
      "▁cel": 1253,
      "▁people": 1254,
      "▁organisation": 1255,
      "ran": 1256,
      "70s": 1257,
      "aints": 1258,
      "▁extremist": 1259,
      "▁displays": 1260,
      "▁ruled": 1261,
      "asi": 1262,
      "icomed": 1263,
      "aven": 1264,
      "ills": 1265,
      "▁retaliation": 1266,
      "▁infection": 1267,
      "▁somewh": 1268,
      "▁cupboard": 1269,
      "▁technologies": 1270,
      "ruptc": 1271,
      "ressions": 1272,
      "▁graduates": 1273,
      "▁wisdom": 1274,
      "|": 1275,
      "▁illust": 1276,
      "▁indicator": 1277,
      "gr": 1278,
      "ros": 1279,
      "▁ais": 1280,
      "▁seem": 1281,
      "▁lace": 1282,
      "▁iodine": 1283,
      "▁fireplace": 1284,
      "▁judge": 1285,
      "▁whoo": 1286,
      "▁agrees": 1287,
      "▁prin": 1288,
      "▁available": 1289,
      "▁scuba": 1290,
      "▁construction": 1291,
      "▁aught": 1292,
      "▁agreeing": 1293,
      "▁license": 1294,
      "#6": 1295,
      "▁occasionally": 1296,
      "▁broom": 1297,
      "▁faced": 1298,
      "▁alligator": 1299,
      "▁region": 1300,
      "▁considered": 1301,
      "▁disasters": 1302,
      "▁handling": 1303,
      "▁authorities": 1304,
      "▁crayons": 1305,
      "althy": 1306,
      "▁finally": 1307,
      "▁bod": 1308,
      "▁directives": 1309,
      "▁individuals": 1310,
      "▁letters": 1311,
      "▁neighbourhood": 1312,
      "▁sliding": 1313,
      "▁adjusting": 1314,
      "ainability": 1315,
      "antly": 1316,
      "▁glancing": 1317,
      "▁wheeled": 1318,
      "▁armaments": 1319,
      "▁parish": 1320,
      "▁glim": 1321,
      "▁stip": 1322,
      "▁cc": 1323,
      "▁aph": 1324,
      "▁realize": 1325,
      "▁ignorance": 1326,
      "▁pixies": 1327,
      "i": 1328,
      "▁officers": 1329,
      "▁math": 1330,
      "erarch": 1331,
      "▁shouting": 1332,
      "▁tand": 1333,
      "▁easter": 1334,
      "▁resour": 1335,
      "inc": 1336,
      "▁eczema": 1337,
      "▁speculation": 1338,
      "tiation": 1339,
      "▁collab": 1340,
      "paths": 1341,
      "▁sizes": 1342,
      "paper": 1343,
      "▁pound": 1344,
      "▁oozing": 1345,
      "inting": 1346,
      "▁teef": 1347,
      "▁sailors": 1348,
      "▁notice": 1349,
      "▁bankruptc": 1350,
      "▁buffet": 1351,
      "▁france": 1352,
      "▁spanish": 1353,
      "▁bli": 1354,
      "▁apparently": 1355,
      "-room": 1356,
      "▁baby": 1357,
      "▁ambul": 1358,
      "▁reas": 1359,
      "aire": 1360,
      "▁usurp": 1361,
      "▁possesses": 1362,
      "▁ours": 1363,
      "flies": 1364,
      "▁traff": 1365,
      "▁infuse": 1366,
      "ights": 1367,
      "▁reaction": 1368,
      "▁itself": 1369,
      "▁symbol": 1370,
      "▁producing": 1371,
      "▁schedul": 1372,
      "▁cust": 1373,
      "▁isl": 1374,
      "kins": 1375,
      "▁cared": 1376,
      "▁grounded": 1377,
      "▁ect": 1378,
      "▁victim": 1379,
      "▁---------------------------------------------------------------------": 1380,
      "▁cup": 1381,
      "▁palm": 1382,
      "▁capit": 1383,
      "oat": 1384,
      "▁hotdogs": 1385,
      "▁tom": 1386,
      "▁accused": 1387,
      "▁toothpaste": 1388,
      "▁drinking": 1389,
      "eman": 1390,
      "▁1000": 1391,
      "▁tor": 1392,
      "▁scissors": 1393,
      "▁disregard": 1394,
      "▁heart": 1395,
      "▁struc": 1396,
      "▁insights": 1397,
      "atories": 1398,
      "▁essay": 1399,
      "sequently": 1400,
      "▁stocks": 1401,
      "▁yourselves": 1402,
      "▁sewed": 1403,
      "▁agg": 1404,
      "cle": 1405,
      "▁policymakers": 1406,
      "▁assign": 1407,
      "▁mob": 1408,
      "▁preferred": 1409,
      "▁****": 1410,
      "gie": 1411,
      "▁berries": 1412,
      "▁consistency": 1413,
      "▁accompanied": 1414,
      "▁filmed": 1415,
      "▁caterpillars": 1416,
      "▁islam": 1417,
      "▁dough": 1418,
      "▁hip": 1419,
      "▁associ": 1420,
      "▁attachments": 1421,
      "▁embargo": 1422,
      "ic": 1423,
      "▁motives": 1424,
      "▁ostrich": 1425,
      "scrib": 1426,
      "▁rav": 1427,
      "▁yay": 1428,
      "za": 1429,
      "▁entity": 1430,
      "▁t.v": 1431,
      "ams": 1432,
      "▁degre": 1433,
      "▁ports": 1434,
      "▁carpet": 1435,
      "▁moder": 1436,
      "▁users": 1437,
      "▁w-": 1438,
      "▁give": 1439,
      "▁despair": 1440,
      "▁influenced": 1441,
      "▁ruts": 1442,
      "▁fol": 1443,
      "▁browsers": 1444,
      "▁jewelry": 1445,
      "▁beneath": 1446,
      "▁wip": 1447,
      ";": 1448,
      "ellers": 1449,
      "▁swim": 1450,
      "▁flex": 1451,
      "▁overthrow": 1452,
      "others": 1453,
      "▁9th": 1454,
      "▁interjection": 1455,
      "▁sweep": 1456,
      "▁cyclone": 1457,
      "▁movement": 1458,
      "▁lik": 1459,
      "▁shov": 1460,
      "▁planes": 1461,
      "▁tod": 1462,
      "▁kidn": 1463,
      "▁dese": 1464,
      "▁consorti": 1465,
      "rite": 1466,
      "▁with": 1467,
      "▁jurisdiction": 1468,
      "▁pose": 1469,
      "dock": 1470,
      "▁counted": 1471,
      "▁chan": 1472,
      "licity": 1473,
      "ooding": 1474,
      "▁ter": 1475,
      "▁children": 1476,
      "olved": 1477,
      "raeli": 1478,
      "▁ph": 1479,
      "▁export": 1480,
      "acamole": 1481,
      "▁amm": 1482,
      "▁wifi": 1483,
      "▁israeli": 1484,
      "▁bowf": 1485,
      "itivity": 1486,
      "▁dancers": 1487,
      "si": 1488,
      "▁husband": 1489,
      "▁councillors": 1490,
      "β": 1491,
      "▁miam": 1492,
      "▁scaring": 1493,
      "▁inno": 1494,
      "▁curtains": 1495,
      "anged": 1496,
      "▁seamst": 1497,
      "▁calendar": 1498,
      "▁firm": 1499,
      "ield": 1500,
      "ghted": 1501,
      "▁folk": 1502,
      "▁pan": 1503,
      "▁rhy": 1504,
      "ognition": 1505,
      "▁canes": 1506,
      "▁gas": 1507,
      "▁cape": 1508,
      "riage": 1509,
      "▁success": 1510,
      "▁hairdresser": 1511,
      "idly": 1512,
      "esthe": 1513,
      "arked": 1514,
      "▁modes": 1515,
      "numb": 1516,
      "▁stub": 1517,
      "ides": 1518,
      "▁hidden": 1519,
      "▁travelers": 1520,
      "▁units": 1521,
      "▁discussions": 1522,
      "▁smugg": 1523,
      "eas": 1524,
      "▁encoun": 1525,
      "▁overc": 1526,
      "▁conforms": 1527,
      "soon": 1528,
      "▁highest": 1529,
      "▁woud": 1530,
      "bled": 1531,
      "omach": 1532,
      "e": 1533,
      "▁however": 1534,
      "▁try": 1535,
      "▁loading": 1536,
      "▁running": 1537,
      "lists": 1538,
      "▁trainers": 1539,
      "▁encomp": 1540,
      "▁certificates": 1541,
      "▁assuming": 1542,
      "▁fringes": 1543,
      "▁'d": 1544,
      "ret": 1545,
      "▁singing": 1546,
      "▁eagle": 1547,
      "▁setup": 1548,
      "cuff": 1549,
      "▁telling": 1550,
      "imizing": 1551,
      "▁submits": 1552,
      "▁hype": 1553,
      "ose": 1554,
      "▁detractors": 1555,
      "▁noses": 1556,
      "▁vomiting": 1557,
      "▁coloni": 1558,
      "▁wea": 1559,
      "qually": 1560,
      "▁welf": 1561,
      "▁gym": 1562,
      "ulses": 1563,
      "▁cause": 1564,
      "▁silkie": 1565,
      "led": 1566,
      "▁visits": 1567,
      "▁regions": 1568,
      "▁refus": 1569,
      "▁evolving": 1570,
      "▁pattern": 1571,
      "▁scenario": 1572,
      "▁thieves": 1573,
      "▁talked": 1574,
      "▁plot": 1575,
      "▁chips": 1576,
      "▁rough": 1577,
      "eng": 1578,
      "▁options": 1579,
      "▁patience": 1580,
      "▁oh": 1581,
      "▁edges": 1582,
      "▁recover": 1583,
      "ainder": 1584,
      "????????": 1585,
      "▁persp": 1586,
      "▁soldiers": 1587,
      "▁design": 1588,
      "▁mixture": 1589,
      "imore": 1590,
      "▁purse": 1591,
      "▁employed": 1592,
      "▁birdie": 1593,
      "an": 1594,
      "dog": 1595,
      "▁updating": 1596,
      "▁father": 1597,
      "▁incub": 1598,
      "alty": 1599,
      "▁roast": 1600,
      "▁extradited": 1601,
      "hin": 1602,
      "▁chasing": 1603,
      "▁delive": 1604,
      "▁stages": 1605,
      "▁authors": 1606,
      "▁tri": 1607,
      "▁unf": 1608,
      "▁ree": 1609,
      "mate": 1610,
      "otted": 1611,
      "▁charlie": 1612,
      "▁riding": 1613,
      "▁pockets": 1614,
      "▁ought": 1615,
      "▁henry": 1616,
      "▁mim": 1617,
      "▁bans": 1618,
      "▁dentist": 1619,
      "▁extremely": 1620,
      "▁baseball": 1621,
      "▁expensive": 1622,
      ".html": 1623,
      "▁unre": 1624,
      "▁declarations": 1625,
      "ould": 1626,
      "▁occur": 1627,
      "▁chas": 1628,
      "▁taken": 1629,
      "▁inc": 1630,
      "▁carolina": 1631,
      "▁au": 1632,
      "▁pregnancy": 1633,
      "▁stuffed": 1634,
      "ography": 1635,
      "▁solution": 1636,
      "▁limited": 1637,
      "▁instant": 1638,
      "▁displaying": 1639,
      "ee": 1640,
      "aman": 1641,
      "▁ribbon": 1642,
      "▁volunteer": 1643,
      "▁intended": 1644,
      "▁pile": 1645,
      "▁anxiety": 1646,
      "▁indicated": 1647,
      "▁protecting": 1648,
      "▁pairs": 1649,
      "▁denying": 1650,
      "▁her": 1651,
      "▁competing": 1652,
      "▁regulation": 1653,
      "gance": 1654,
      "▁chaps": 1655,
      "vir": 1656,
      "▁trickle": 1657,
      "▁developer": 1658,
      "▁expectation": 1659,
      "▁tacos": 1660,
      "▁yiel": 1661,
      "▁figure": 1662,
      "ora": 1663,
      "fo": 1664,
      "▁interact": 1665,
      "bly": 1666,
      "▁die": 1667,
      "▁carry": 1668,
      "▁religious": 1669,
      "lites": 1670,
      "▁temper": 1671,
      "▁professionals": 1672,
      "ocrat": 1673,
      "▁french": 1674,
      "ter": 1675,
      "▁memories": 1676,
      "▁free": 1677,
      "▁spectrum": 1678,
      "▁yours": 1679,
      "▁prospect": 1680,
      "▁amendments": 1681,
      "▁hive": 1682,
      "▁detroit": 1683,
      "▁brows": 1684,
      "▁streak": 1685,
      "attering": 1686,
      "▁mediation": 1687,
      "▁visa": 1688,
      "dering": 1689,
      "▁ehrm": 1690,
      "▁continental": 1691,
      "ify": 1692,
      "▁ber": 1693,
      "ukee": 1694,
      "irl": 1695,
      "▁ex": 1696,
      "▁details": 1697,
      "▁calling": 1698,
      "▁length": 1699,
      "▁ginger": 1700,
      "▁germany": 1701,
      "▁replacing": 1702,
      "▁mistakes": 1703,
      "idated": 1704,
      "▁cope": 1705,
      "eats": 1706,
      "▁rit": 1707,
      "▁envelop": 1708,
      "eling": 1709,
      "▁extradition": 1710,
      "▁louis": 1711,
      "ativity": 1712,
      "▁mailing": 1713,
      "▁modules": 1714,
      "▁blind": 1715,
      "▁linking": 1716,
      "▁emph": 1717,
      "▁remain": 1718,
      "▁chess": 1719,
      "▁wit": 1720,
      "alizations": 1721,
      "▁stringing": 1722,
      "▁according": 1723,
      "▁digest": 1724,
      "▁sant": 1725,
      "▁hoping": 1726,
      "▁nar": 1727,
      "▁tile": 1728,
      "ark": 1729,
      "▁affirm": 1730,
      "▁sang": 1731,
      "▁signs": 1732,
      "ensity": 1733,
      "▁fed": 1734,
      "▁invo": 1735,
      "▁pecking": 1736,
      "▁futures": 1737,
      "▁throu": 1738,
      "comp": 1739,
      "anes": 1740,
      "▁prefer": 1741,
      "▁vehicle": 1742,
      "ich": 1743,
      "olunte": 1744,
      "▁referendum": 1745,
      "▁soybean": 1746,
      "▁contested": 1747,
      "▁minut": 1748,
      "kin": 1749,
      "▁shut": 1750,
      "omend": 1751,
      "▁center": 1752,
      "▁uva": 1753,
      "▁funeral": 1754,
      "▁foc": 1755,
      "▁discouraging": 1756,
      "▁plag": 1757,
      "▁wails": 1758,
      "▁mummy": 1759,
      "▁tripped": 1760,
      "▁proficiency": 1761,
      "▁ship": 1762,
      "uate": 1763,
      "▁scre": 1764,
      "▁misery": 1765,
      "▁maybe": 1766,
      "rupt": 1767,
      "▁coach": 1768,
      "▁shocked": 1769,
      "ups": 1770,
      "▁golf": 1771,
      "hunt": 1772,
      "▁by": 1773,
      "**********************************": 1774,
      "rid": 1775,
      "▁treating": 1776,
      "oll": 1777,
      "▁told": 1778,
      "▁located": 1779,
      "eno": 1780,
      "▁heater": 1781,
      "▁coat": 1782,
      "▁residents": 1783,
      "izes": 1784,
      "▁intrud": 1785,
      "▁dev": 1786,
      "▁coconut": 1787,
      "▁d2": 1788,
      "▁effects": 1789,
      "▁v02": 1790,
      "▁defin": 1791,
      "utors": 1792,
      "▁label": 1793,
      "▁storm": 1794,
      "▁needing": 1795,
      "agers": 1796,
      "▁lighting": 1797,
      "rax": 1798,
      "▁mrs": 1799,
      "re": 1800,
      "▁angel": 1801,
      "▁net": 1802,
      "▁det": 1803,
      "▁countrymen": 1804,
      "▁roms": 1805,
      "▁marshmall": 1806,
      "▁al": 1807,
      "▁captured": 1808,
      "xts": 1809,
      "▁bud": 1810,
      "▁inspire": 1811,
      "load": 1812,
      "▁ballet": 1813,
      "▁combination": 1814,
      "▁whistle": 1815,
      "▁pretext": 1816,
      "▁categories": 1817,
      "▁drinks": 1818,
      "▁tugging": 1819,
      "▁shrapnel": 1820,
      "eries": 1821,
      "▁contexts": 1822,
      "▁flo": 1823,
      "resident": 1824,
      "▁wav": 1825,
      "▁accepting": 1826,
      "▁nominated": 1827,
      "▁profess": 1828,
      "▁cleaning": 1829,
      "▁differences": 1830,
      "▁crap": 1831,
      "▁abcs": 1832,
      "▁pump": 1833,
      "▁dried": 1834,
      "uments": 1835,
      "▁pers": 1836,
      "▁sme": 1837,
      "▁psychology": 1838,
      "▁wave": 1839,
      "▁banj": 1840,
      "▁sports": 1841,
      "▁tos": 1842,
      "▁thanking": 1843,
      "asses": 1844,
      "▁chinese": 1845,
      "▁prog": 1846,
      "▁managing": 1847,
      "▁jeep": 1848,
      "▁tie": 1849,
      "▁departures": 1850,
      "▁subscribe": 1851,
      "ist": 1852,
      "▁year": 1853,
      "▁strengthen": 1854,
      "fi": 1855,
      "▁waist": 1856,
      "▁quickly": 1857,
      "▁minn": 1858,
      "▁hid": 1859,
      "▁ride": 1860,
      "page": 1861,
      "/2001": 1862,
      "▁widely": 1863,
      "mic": 1864,
      "▁p.": 1865,
      "▁resilience": 1866,
      "▁conclusion": 1867,
      "▁o'clock": 1868,
      "atched": 1869,
      "▁dignit": 1870,
      "▁desir": 1871,
      "illion": 1872,
      "▁worries": 1873,
      "▁libr": 1874,
      "▁marks": 1875,
      "▁intellect": 1876,
      "46": 1877,
      "▁''": 1878,
      "▁requires": 1879,
      "▁guessed": 1880,
      "▁undertaken": 1881,
      "▁contributing": 1882,
      "▁contrib": 1883,
      "-98": 1884,
      "▁flav": 1885,
      "▁41": 1886,
      "▁intran": 1887,
      "▁completed": 1888,
      "▁efficiency": 1889,
      "urring": 1890,
      "▁sperm": 1891,
      "ributing": 1892,
      "itude": 1893,
      "ipping": 1894,
      "▁disciples": 1895,
      "yg": 1896,
      "▁amounts": 1897,
      "▁david": 1898,
      "urs": 1899,
      "nair": 1900,
      "▁mult": 1901,
      "▁infections": 1902,
      "▁tankers": 1903,
      "▁roles": 1904,
      "▁auction": 1905,
      "▁’": 1906,
      "▁and": 1907,
      "▁cookies": 1908,
      "▁vernon": 1909,
      "▁dude": 1910,
      "ester": 1911,
      "▁tips": 1912,
      "ss.xls": 1913,
      "lement": 1914,
      "▁pressed": 1915,
      "▁does": 1916,
      "iliar": 1917,
      "▁actress": 1918,
      "own": 1919,
      "alties": 1920,
      "▁alley": 1921,
      "▁pictures": 1922,
      "▁war": 1923,
      "▁avo": 1924,
      "▁paul": 1925,
      "▁mathematics": 1926,
      "lite": 1927,
      "inth": 1928,
      "▁beetles": 1929,
      "▁governor": 1930,
      "▁rac": 1931,
      "-a": 1932,
      "▁graves": 1933,
      "enment": 1934,
      "▁spe": 1935,
      "▁calculations": 1936,
      "▁banners": 1937,
      "▁partner": 1938,
      "▁vern": 1939,
      "▁environmental": 1940,
      "▁sighed": 1941,
      "ocrats": 1942,
      "▁warning": 1943,
      "▁concluded": 1944,
      "▁interviewed": 1945,
      "ization": 1946,
      "▁aer": 1947,
      "ologist": 1948,
      "ulate": 1949,
      "▁deli": 1950,
      "cuse": 1951,
      "▁pion": 1952,
      "▁example": 1953,
      "▁vlog": 1954,
      "▁updates": 1955,
      "▁obedience": 1956,
      "pics": 1957,
      "ab": 1958,
      "▁mids": 1959,
      "▁higher": 1960,
      "ʊ": 1961,
      "▁weake": 1962,
      "▁snitch": 1963,
      "▁moral": 1964,
      "▁hamb": 1965,
      "▁yoga": 1966,
      "▁bathroom": 1967,
      "▁houston": 1968,
      "cery": 1969,
      "ench": 1970,
      "▁creating": 1971,
      "▁airplan": 1972,
      "▁budgie": 1973,
      "▁settle": 1974,
      "▁kiss": 1975,
      "▁westchester": 1976,
      "▁volcano": 1977,
      "▁lawn": 1978,
      "▁waitresses": 1979,
      "▁shrug": 1980,
      "▁disclaimer": 1981,
      "yards": 1982,
      "▁provide": 1983,
      "▁luxury": 1984,
      "▁flight": 1985,
      "all": 1986,
      "ruptions": 1987,
      "▁psychologist": 1988,
      "▁murdered": 1989,
      "▁phone": 1990,
      "▁halt": 1991,
      "auc": 1992,
      "▁suffer": 1993,
      "▁always": 1994,
      "inal": 1995,
      "og": 1996,
      "ilities": 1997,
      "▁construc": 1998,
      "icion": 1999,
      "▁flicker": 2000,
      "▁these": 2001,
      "eteria": 2002,
      "▁patent": 2003,
      "▁drafting": 2004,
      "▁yoy": 2005,
      "uf": 2006,
      "▁residence": 2007,
      "▁scary": 2008,
      "/0": 2009,
      "jecting": 2010,
      "▁arrives": 2011,
      "▁settlements": 2012,
      "▁rubble": 2013,
      "▁flush": 2014,
      "▁str": 2015,
      "▁chase": 2016,
      "▁embraced": 2017,
      "▁world": 2018,
      "amas": 2019,
      "▁survival": 2020,
      "▁theirs": 2021,
      "▁prett": 2022,
      "position": 2023,
      "▁instinct": 2024,
      "▁freezing": 2025,
      "wide": 2026,
      "▁text": 2027,
      "▁demonstrations": 2028,
      "ink": 2029,
      "▁turned": 2030,
      "▁ups": 2031,
      "▁smiling": 2032,
      "▁grains": 2033,
      "uh": 2034,
      "▁runner": 2035,
      "▁representing": 2036,
      "eet": 2037,
      "▁session": 2038,
      "▁applying": 2039,
      "▁breed": 2040,
      "▁orn": 2041,
      "▁colonies": 2042,
      "▁1999": 2043,
      "▁swaying": 2044,
      "▁between": 2045,
      "▁6": 2046,
      "▁crystallite": 2047,
      "▁dropped": 2048,
      "▁best": 2049,
      "▁lisa": 2050,
      "▁administration": 2051,
      "▁detention": 2052,
      "▁theories": 2053,
      "▁squeak": 2054,
      "ythm": 2055,
      "▁hes": 2056,
      "▁cafeteria": 2057,
      "▁waf": 2058,
      "▁erec": 2059,
      "▁ent": 2060,
      "▁actions": 2061,
      "▁dr.": 2062,
      "▁temple": 2063,
      "▁bloo": 2064,
      "▁publicly": 2065,
      "hr": 2066,
      "▁markup": 2067,
      "▁new": 2068,
      "▁rise": 2069,
      "▁books": 2070,
      "▁swinging": 2071,
      "oking": 2072,
      "▁determin": 2073,
      "▁mand": 2074,
      "ademic": 2075,
      "▁imple": 2076,
      "▁bach": 2077,
      "▁_______": 2078,
      "▁scienti": 2079,
      "ressing": 2080,
      "a-": 2081,
      "▁eliminated": 2082,
      "▁who's": 2083,
      "hop": 2084,
      "if": 2085,
      "onna": 2086,
      "▁heritage": 2087,
      "▁fertilizer": 2088,
      "▁withdrew": 2089,
      "▁administ": 2090,
      "ification": 2091,
      "▁colon": 2092,
      "▁recon": 2093,
      "▁votes": 2094,
      "▁site": 2095,
      "▁tin": 2096,
      "▁facilitated": 2097,
      "▁aper": 2098,
      "▁interest": 2099,
      "▁advance": 2100,
      "▁jellyfish": 2101,
      "▁model": 2102,
      "gar": 2103,
      "eres": 2104,
      "▁jackets": 2105,
      "▁acting": 2106,
      "▁intercep": 2107,
      "▁1920s": 2108,
      "▁blowing": 2109,
      "▁hospitals": 2110,
      "▁celebrities": 2111,
      "▁forbidding": 2112,
      "▁verse": 2113,
      "▁absor": 2114,
      "▁san": 2115,
      "▁accomplished": 2116,
      "lying": 2117,
      "▁subd": 2118,
      "▁marshes": 2119,
      "rated": 2120,
      "▁tracking": 2121,
      "lled": 2122,
      "▁mouthful": 2123,
      "anx": 2124,
      "▁act": 2125,
      "▁garlic": 2126,
      "uling": 2127,
      "▁buddy": 2128,
      "▁slide": 2129,
      "▁responses": 2130,
      "▁tamed": 2131,
      "alous": 2132,
      "▁sneakers": 2133,
      "▁berry": 2134,
      "▁suc": 2135,
      "▁pupp": 2136,
      "atch": 2137,
      "▁???": 2138,
      "▁pinkies": 2139,
      "’t": 2140,
      "▁spent": 2141,
      "▁mechanic": 2142,
      "▁makes": 2143,
      "▁indication": 2144,
      "▁trails": 2145,
      "▁wrestle": 2146,
      "▁accommod": 2147,
      "▁hate": 2148,
      "▁newsgroups": 2149,
      "cently": 2150,
      "▁pot": 2151,
      "▁candle": 2152,
      "▁invite": 2153,
      "▁essentially": 2154,
      "▁commit": 2155,
      "▁belly": 2156,
      "uck": 2157,
      "▁wisd": 2158,
      "▁implied": 2159,
      "ogh": 2160,
      "▁neither": 2161,
      "▁horiz": 2162,
      "▁10": 2163,
      "▁acquisition": 2164,
      "▁snowboard": 2165,
      "▁mathema": 2166,
      "▁ai": 2167,
      "ocity": 2168,
      "keepers": 2169,
      "▁necessarily": 2170,
      "▁impression": 2171,
      "▁purch": 2172,
      "▁stirrup": 2173,
      "▁monarchy": 2174,
      "▁explosions": 2175,
      "▁lym": 2176,
      "itially": 2177,
      "imately": 2178,
      "----------": 2179,
      "▁wad": 2180,
      "ctive": 2181,
      "▁entered": 2182,
      "▁ties": 2183,
      "▁salvation": 2184,
      "▁panic": 2185,
      "▁third": 2186,
      "av": 2187,
      "lism": 2188,
      "▁will": 2189,
      "▁behin": 2190,
      "▁encompass": 2191,
      "overing": 2192,
      "ebook": 2193,
      "▁vig": 2194,
      "▁edward": 2195,
      "▁classroom": 2196,
      "▁zeitgeist": 2197,
      "▁preparing": 2198,
      "▁#": 2199,
      "▁unfort": 2200,
      "▁hi": 2201,
      "su": 2202,
      "▁lunchtime": 2203,
      "▁photography": 2204,
      "▁did": 2205,
      "▁sne": 2206,
      "▁problems": 2207,
      "▁cal": 2208,
      "▁proven": 2209,
      "▁charged": 2210,
      "▁quaffle": 2211,
      "▁mwe": 2212,
      "placement": 2213,
      "▁waited": 2214,
      "▁thous": 2215,
      "▁robin": 2216,
      "oo": 2217,
      "▁adjusters": 2218,
      "ach": 2219,
      "7.doc": 2220,
      "▁zinc": 2221,
      "▁rides": 2222,
      "▁margin": 2223,
      "ha": 2224,
      "inoc": 2225,
      "▁characters": 2226,
      "▁trained": 2227,
      "ully": 2228,
      "▁continents": 2229,
      "▁conspir": 2230,
      "alc": 2231,
      "▁character": 2232,
      "inct": 2233,
      "▁plenty": 2234,
      "▁glue": 2235,
      "lections": 2236,
      "▁flir": 2237,
      "entieth": 2238,
      "▁jur": 2239,
      "row": 2240,
      "▁pet": 2241,
      "▁advantage": 2242,
      "▁behind": 2243,
      "▁dist": 2244,
      "▁legitimacy": 2245,
      "▁noon": 2246,
      "▁opinion": 2247,
      "▁priest": 2248,
      "▁dam": 2249,
      "entiality": 2250,
      "sl": 2251,
      "▁ocean": 2252,
      "▁reader": 2253,
      "flow": 2254,
      "▁supplier": 2255,
      "▁components": 2256,
      "▁mission": 2257,
      "ength": 2258,
      "▁strong": 2259,
      "▁mails": 2260,
      "▁uphold": 2261,
      "▁information": 2262,
      "yst": 2263,
      "▁borrow": 2264,
      "▁stings": 2265,
      "▁truths": 2266,
      "▁eight": 2267,
      "▁faces": 2268,
      "▁estimates": 2269,
      "▁manifest": 2270,
      "asts": 2271,
      "▁healthy": 2272,
      "▁investors": 2273,
      "▁timing": 2274,
      "▁substant": 2275,
      "liances": 2276,
      "ewing": 2277,
      "▁kitchen": 2278,
      "anish": 2279,
      "ured": 2280,
      "▁discussed": 2281,
      "▁]": 2282,
      "▁pred": 2283,
      "•": 2284,
      "▁congratulate": 2285,
      "▁thinked": 2286,
      "1-1.doc": 2287,
      "illed": 2288,
      "▁excitement": 2289,
      "nesday": 2290,
      "▁ti": 2291,
      "sically": 2292,
      "▁main": 2293,
      "400": 2294,
      "▁tarmac": 2295,
      "▁drew": 2296,
      "▁emper": 2297,
      "on": 2298,
      "aper": 2299,
      "idents": 2300,
      "▁disli": 2301,
      "etition": 2302,
      "inations": 2303,
      "▁stra": 2304,
      "▁ages": 2305,
      "mm": 2306,
      "▁vote": 2307,
      "veland": 2308,
      "etti": 2309,
      "▁$": 2310,
      "▁team": 2311,
      "▁onions": 2312,
      "▁pastor": 2313,
      "sa": 2314,
      "▁findings": 2315,
      "▁marketing": 2316,
      "oral": 2317,
      "▁significant": 2318,
      "be": 2319,
      "ause": 2320,
      "▁careers": 2321,
      "▁microphone": 2322,
      "▁chine": 2323,
      "▁brand": 2324,
      "▁taking": 2325,
      "▁wore": 2326,
      "elt": 2327,
      "▁trunk": 2328,
      "gor": 2329,
      "▁emphasis": 2330,
      "▁visited": 2331,
      "▁originate": 2332,
      "▁register": 2333,
      "▁quar": 2334,
      "▁cheapest": 2335,
      "▁least": 2336,
      "▁restruc": 2337,
      "▁americans": 2338,
      "▁beard": 2339,
      "ideration": 2340,
      "▁instruc": 2341,
      "inea": 2342,
      "▁defend": 2343,
      "▁virtue": 2344,
      "▁boss": 2345,
      "▁specials": 2346,
      "itical": 2347,
      "itable": 2348,
      "▁layer": 2349,
      "▁authorship": 2350,
      "inate": 2351,
      "chief": 2352,
      "▁firewood": 2353,
      "▁doorway": 2354,
      "▁list": 2355,
      "▁supple": 2356,
      "▁believed": 2357,
      "▁buggy": 2358,
      "▁rats": 2359,
      "sc": 2360,
      "▁brain": 2361,
      "▁archipelago": 2362,
      "▁attach": 2363,
      "se": 2364,
      "▁colle": 2365,
      "▁decided": 2366,
      "▁packed": 2367,
      "▁frost": 2368,
      "▁remedies": 2369,
      "▁christmas": 2370,
      "ulars": 2371,
      "▁pony": 2372,
      "asa": 2373,
      "ching": 2374,
      "▁edition": 2375,
      "▁sentence": 2376,
      "▁depos": 2377,
      "▁categ": 2378,
      "▁trading": 2379,
      "▁merry": 2380,
      "ica": 2381,
      "▁accidents": 2382,
      "▁mil": 2383,
      "▁dilemma": 2384,
      "hel": 2385,
      "▁concerts": 2386,
      "▁screws": 2387,
      "▁mas": 2388,
      "▁ashes": 2389,
      "▁chairman": 2390,
      "oices": 2391,
      "▁deter": 2392,
      "ails": 2393,
      "▁still": 2394,
      "▁masks": 2395,
      "▁ethnic": 2396,
      "▁african": 2397,
      "▁tsar": 2398,
      "▁darn": 2399,
      "▁district": 2400,
      "itating": 2401,
      "▁injuries": 2402,
      "ands": 2403,
      "▁landscapes": 2404,
      "onation": 2405,
      "▁airline": 2406,
      "tch": 2407,
      "ail": 2408,
      "▁articles": 2409,
      "▁licensor": 2410,
      "▁valuation": 2411,
      "▁scr": 2412,
      "▁overtures": 2413,
      "▁stare": 2414,
      "▁muggle": 2415,
      "▁regrets": 2416,
      "▁bananas": 2417,
      "▁sculpt": 2418,
      "▁intersection": 2419,
      "▁tem": 2420,
      "eren": 2421,
      "▁inven": 2422,
      "▁root": 2423,
      "▁judging": 2424,
      "▁observed": 2425,
      "▁guit": 2426,
      "▁minimum": 2427,
      "abb": 2428,
      "▁monies": 2429,
      "▁encourages": 2430,
      "▁senses": 2431,
      "▁forget": 2432,
      "▁present": 2433,
      "▁shops": 2434,
      "itional": 2435,
      "▁characteris": 2436,
      "▁corporation": 2437,
      "ulum": 2438,
      "▁postp": 2439,
      "▁mothers": 2440,
      "▁lit": 2441,
      "▁evaluated": 2442,
      "bt": 2443,
      "rate": 2444,
      "ache": 2445,
      "▁determining": 2446,
      "▁engineers": 2447,
      "code": 2448,
      "ept": 2449,
      "▁suggest": 2450,
      "▁curves": 2451,
      "urop": 2452,
      "▁nightclubs": 2453,
      "ayal": 2454,
      "▁battles": 2455,
      "▁retreat": 2456,
      "▁lecture": 2457,
      "▁grad": 2458,
      "▁ferries": 2459,
      "rits": 2460,
      "bat": 2461,
      "▁shoot": 2462,
      "▁containers": 2463,
      "▁marking": 2464,
      "▁comprised": 2465,
      "---": 2466,
      "like": 2467,
      "▁commemorated": 2468,
      "▁motive": 2469,
      "friends": 2470,
      "lies": 2471,
      "▁thousand": 2472,
      "▁lasted": 2473,
      "▁evil": 2474,
      "read": 2475,
      "▁dancer": 2476,
      "▁abroad": 2477,
      "ighted": 2478,
      "▁great": 2479,
      "▁instructions": 2480,
      "ony": 2481,
      "▁discouraged": 2482,
      "▁intensity": 2483,
      "▁abe": 2484,
      "pants": 2485,
      "rested": 2486,
      "▁driven": 2487,
      "▁worshippers": 2488,
      "oma": 2489,
      "▁inject": 2490,
      "▁creature": 2491,
      "▁exchange": 2492,
      "▁criminals": 2493,
      "▁suspect": 2494,
      "omob": 2495,
      "▁documenting": 2496,
      "oprop": 2497,
      "immer": 2498,
      "▁travelled": 2499,
      "wa": 2500,
      "aches": 2501,
      "▁format": 2502,
      "▁disconnec": 2503,
      "▁editors": 2504,
      "▁ment": 2505,
      "▁grasp": 2506,
      "▁monitor": 2507,
      "==": 2508,
      "▁th": 2509,
      "▁airl": 2510,
      "formed": 2511,
      "-p": 2512,
      "▁dipping": 2513,
      "▁perceptions": 2514,
      "-l": 2515,
      "▁twilight": 2516,
      "▁evaluating": 2517,
      "▁islamists": 2518,
      "▁hotel": 2519,
      "▁stock": 2520,
      "▁empt": 2521,
      "▁alerts": 2522,
      "▁girls": 2523,
      "▁enforcement": 2524,
      "▁stabilization": 2525,
      "itate": 2526,
      "▁mes": 2527,
      "▁finds": 2528,
      "▁offspring": 2529,
      "agne": 2530,
      "▁tow": 2531,
      "&d": 2532,
      "singly": 2533,
      "▁argue": 2534,
      "volutionary": 2535,
      "▁moon": 2536,
      "▁routine": 2537,
      "▁enem": 2538,
      "▁darkness": 2539,
      "idge": 2540,
      "▁declaring": 2541,
      "▁neglected": 2542,
      "poon": 2543,
      "▁bachelor": 2544,
      "▁underlined": 2545,
      "▁flies": 2546,
      "▁dail": 2547,
      "▁needle": 2548,
      "▁raise": 2549,
      "▁awarded": 2550,
      "lc": 2551,
      "▁traders": 2552,
      "▁removes": 2553,
      "▁biologist": 2554,
      "▁panted": 2555,
      "▁gag": 2556,
      "▁lieuten": 2557,
      "▁upstairs": 2558,
      "▁gn": 2559,
      "▁accustomed": 2560,
      "▁&amp;": 2561,
      "▁mary": 2562,
      "▁sket": 2563,
      "▁parliament": 2564,
      "▁frequency": 2565,
      "dish": 2566,
      "▁expanded": 2567,
      "▁cross": 2568,
      "▁xml": 2569,
      "▁canopy": 2570,
      "▁became": 2571,
      "υ": 2572,
      "ant": 2573,
      "▁persever": 2574,
      "▁proceeding": 2575,
      "uj": 2576,
      "▁appell": 2577,
      "pen": 2578,
      "▁western": 2579,
      "▁envir": 2580,
      "ference": 2581,
      "▁results": 2582,
      "usion": 2583,
      "▁neverth": 2584,
      "▁luck": 2585,
      "akistan": 2586,
      "ilosoph": 2587,
      "▁establishments": 2588,
      "[": 2589,
      "ot": 2590,
      "▁reassure": 2591,
      "usement": 2592,
      "▁wellbeing": 2593,
      "▁things": 2594,
      "▁promises": 2595,
      "▁consequence": 2596,
      "▁buck": 2597,
      "▁frequent": 2598,
      "▁voting": 2599,
      "▁reviews": 2600,
      "▁sushi": 2601,
      "▁swimming": 2602,
      "ress": 2603,
      "enience": 2604,
      "▁current": 2605,
      "▁protesting": 2606,
      "▁memorized": 2607,
      "▁guardsmen": 2608,
      "g": 2609,
      "▁yawning": 2610,
      "▁eu": 2611,
      "▁queso": 2612,
      "thin": 2613,
      "lie": 2614,
      "ural": 2615,
      "▁lieutenant": 2616,
      "velop": 2617,
      "▁constr": 2618,
      "▁weasley": 2619,
      "▁yach": 2620,
      "▁delivered": 2621,
      "▁bean": 2622,
      "▁commanders": 2623,
      "▁controvers": 2624,
      "▁phenomena": 2625,
      "uum": 2626,
      "▁intends": 2627,
      "ique": 2628,
      "▁jwww": 2629,
      "cross": 2630,
      "emark": 2631,
      "▁y": 2632,
      "▁dep": 2633,
      "▁choosing": 2634,
      "▁lesion": 2635,
      "grad": 2636,
      "▁s": 2637,
      "anced": 2638,
      "dled": 2639,
      "▁curb": 2640,
      "▁cd": 2641,
      "▁spice": 2642,
      "▁working": 2643,
      "gets": 2644,
      "▁surgeons": 2645,
      "▁hopes": 2646,
      "▁exist": 2647,
      "▁anth": 2648,
      "sts": 2649,
      "▁verdict": 2650,
      "▁mend": 2651,
      "tured": 2652,
      "▁afters": 2653,
      "▁wond": 2654,
      "▁enable": 2655,
      "▁charcoal": 2656,
      "ets": 2657,
      "▁cru": 2658,
      "----": 2659,
      "▁opted": 2660,
      "▁defic": 2661,
      "▁compel": 2662,
      "aic": 2663,
      "▁degree": 2664,
      "▁played": 2665,
      "▁threatening": 2666,
      "▁hovered": 2667,
      "▁approval": 2668,
      "earm": 2669,
      "▁option": 2670,
      "▁equip": 2671,
      "▁altered": 2672,
      "▁motivation": 2673,
      "▁spr": 2674,
      "▁standardisation": 2675,
      "▁spilling": 2676,
      "▁normally": 2677,
      "bra": 2678,
      "obs": 2679,
      "▁weeks": 2680,
      "▁upgr": 2681,
      "▁ukra": 2682,
      "▁case": 2683,
      "▁belie": 2684,
      "loth": 2685,
      "▁coinc": 2686,
      "▁happened": 2687,
      "▁grams": 2688,
      "ology": 2689,
      "▁flossing": 2690,
      "▁compared": 2691,
      "▁merits": 2692,
      "aks": 2693,
      "▁ingenuity": 2694,
      "▁unic": 2695,
      "▁plate": 2696,
      "▁gender": 2697,
      "▁indicate": 2698,
      "▁econ": 2699,
      "▁expects": 2700,
      "▁happiness": 2701,
      "▁admissions": 2702,
      "▁conditioning": 2703,
      "eding": 2704,
      "▁arrow": 2705,
      "▁russians": 2706,
      "▁par": 2707,
      "▁member": 2708,
      "▁elev": 2709,
      "anity": 2710,
      "▁candidates": 2711,
      "▁mushrooms": 2712,
      "st": 2713,
      "▁syn": 2714,
      "▁labyrinth": 2715,
      "▁replication": 2716,
      "▁greeted": 2717,
      "▁servings": 2718,
      "pe": 2719,
      "atibility": 2720,
      "tician": 2721,
      "▁latest": 2722,
      "▁stick": 2723,
      "▁concent": 2724,
      "▁respected": 2725,
      "▁plug": 2726,
      "▁prevailing": 2727,
      "▁sh": 2728,
      "▁apolog": 2729,
      "▁birthdays": 2730,
      "▁comply": 2731,
      "aying": 2732,
      "▁analy": 2733,
      "▁controversy": 2734,
      "bern": 2735,
      "▁.....": 2736,
      "▁strol": 2737,
      "▁pittsburgh": 2738,
      "▁hippopotamus": 2739,
      "uers": 2740,
      "▁exp": 2741,
      "▁zeitge": 2742,
      "▁whom": 2743,
      "▁dwibbling": 2744,
      "▁coding": 2745,
      "▁abundance": 2746,
      "▁arrange": 2747,
      "▁dishes": 2748,
      "▁madam": 2749,
      "▁whatnot": 2750,
      "memb": 2751,
      "▁greeting": 2752,
      "▁baba": 2753,
      "▁dessert": 2754,
      "▁educated": 2755,
      "▁gazing": 2756,
      "ork": 2757,
      "▁outcom": 2758,
      "▁town": 2759,
      "▁generates": 2760,
      "adel": 2761,
      "▁transit": 2762,
      "▁clutching": 2763,
      "ither": 2764,
      "▁forec": 2765,
      "▁israel": 2766,
      "▁exce": 2767,
      "uss": 2768,
      "▁novelist": 2769,
      "▁romances": 2770,
      "▁hauling": 2771,
      "▁roc": 2772,
      "guard": 2773,
      "lessly": 2774,
      "▁senti": 2775,
      "erness": 2776,
      "▁collects": 2777,
      "sed": 2778,
      "▁input": 2779,
      "▁typ": 2780,
      "▁gl": 2781,
      "▁progress": 2782,
      "▁banned": 2783,
      "tyard": 2784,
      "▁welfare": 2785,
      "▁clin": 2786,
      "▁segment": 2787,
      "▁aversion": 2788,
      "▁mailings": 2789,
      "zed": 2790,
      "▁rulers": 2791,
      "▁instructors": 2792,
      "▁effectiveness": 2793,
      "▁provocation": 2794,
      "▁water": 2795,
      "▁fairs": 2796,
      "ihow": 2797,
      "▁explain": 2798,
      "▁decade": 2799,
      "raid": 2800,
      "uster": 2801,
      "▁washing": 2802,
      "▁g": 2803,
      "▁handkerchief": 2804,
      "▁defendants": 2805,
      "ing": 2806,
      "leading": 2807,
      "▁opt": 2808,
      "▁po": 2809,
      "▁wow": 2810,
      "leys": 2811,
      "▁beating": 2812,
      "▁phantom": 2813,
      "▁importing": 2814,
      "▁goodbye": 2815,
      "▁history": 2816,
      "▁bic": 2817,
      "▁cell": 2818,
      "▁11": 2819,
      "▁superiority": 2820,
      "mercial": 2821,
      "▁leverage": 2822,
      "orted": 2823,
      "▁drafted": 2824,
      "▁plight": 2825,
      "▁whereas": 2826,
      "▁targeted": 2827,
      "▁amend": 2828,
      "▁notch": 2829,
      "▁dealer": 2830,
      "▁geomet": 2831,
      "▁cass": 2832,
      "▁hab": 2833,
      "▁resolution": 2834,
      "▁endured": 2835,
      "-w": 2836,
      "▁bred": 2837,
      "ˈ": 2838,
      "▁chall": 2839,
      "fort": 2840,
      "▁enabling": 2841,
      "▁thres": 2842,
      "▁compare": 2843,
      "▁fixing": 2844,
      "▁philosophy": 2845,
      "▁novels": 2846,
      "▁physician": 2847,
      "▁hairs": 2848,
      "▁scorp": 2849,
      "▁extending": 2850,
      "▁rounds": 2851,
      "▁alterations": 2852,
      "▁nuts": 2853,
      "▁charges": 2854,
      "▁continuation": 2855,
      "▁relativism": 2856,
      "▁disrupt": 2857,
      "▁currency": 2858,
      "artiality": 2859,
      "▁fantasy": 2860,
      "▁geometries": 2861,
      "▁confidentiality": 2862,
      "▁consider": 2863,
      "▁sear": 2864,
      "ball": 2865,
      "ign": 2866,
      "▁northern": 2867,
      "▁screwed": 2868,
      "▁selections": 2869,
      "▁mathematician": 2870,
      "▁flaw": 2871,
      "▁entities": 2872,
      "▁ringing": 2873,
      "▁join": 2874,
      "aucr": 2875,
      "▁pedicure": 2876,
      "▁sensation": 2877,
      "▁tresp": 2878,
      "▁fy0": 2879,
      "▁peak": 2880,
      "ortant": 2881,
      "▁attrib": 2882,
      "▁reveal": 2883,
      "▁descended": 2884,
      "▁disagree": 2885,
      "▁spain": 2886,
      "▁2014": 2887,
      "▁retrieve": 2888,
      "▁tomato": 2889,
      "erilla": 2890,
      "▁curve": 2891,
      "fitting": 2892,
      "▁fusions": 2893,
      "▁makeup": 2894,
      "▁var": 2895,
      "▁sticker": 2896,
      "▁explained": 2897,
      "▁liter": 2898,
      "▁claws": 2899,
      "aged": 2900,
      "▁charl": 2901,
      "▁looked": 2902,
      "▁łodz": 2903,
      "▁av": 2904,
      "▁confronted": 2905,
      "lu": 2906,
      "▁une": 2907,
      "▁create": 2908,
      "▁radiation": 2909,
      "erence": 2910,
      "▁cooperating": 2911,
      "▁watch": 2912,
      "▁page": 2913,
      "▁quality": 2914,
      "▁disease": 2915,
      "▁strawberries": 2916,
      "▁velocity": 2917,
      "▁maintain": 2918,
      "-sh": 2919,
      "▁force": 2920,
      "▁motorc": 2921,
      "▁foreigner": 2922,
      "▁casual": 2923,
      "iny": 2924,
      "▁cap": 2925,
      "acters": 2926,
      "hikii": 2927,
      "▁touching": 2928,
      "ident": 2929,
      "▁ontario": 2930,
      "fting": 2931,
      "throw": 2932,
      "ocating": 2933,
      "gies": 2934,
      "▁magazines": 2935,
      "▁archbish": 2936,
      "▁moth": 2937,
      "▁ankles": 2938,
      "uled": 2939,
      "▁sover": 2940,
      "▁penn": 2941,
      "▁truck": 2942,
      "▁blooming": 2943,
      "▁sand": 2944,
      "▁originally": 2945,
      "▁thurs": 2946,
      "▁sid": 2947,
      "▁lifted": 2948,
      "▁playw": 2949,
      "▁aunt": 2950,
      "▁engaging": 2951,
      "▁reverence": 2952,
      "keys": 2953,
      "▁rudeness": 2954,
      "enron.com": 2955,
      "tures": 2956,
      "▁implem": 2957,
      "▁ju": 2958,
      "ete": 2959,
      "uli": 2960,
      "▁saved": 2961,
      "▁abb": 2962,
      "▁behavior": 2963,
      "▁throw": 2964,
      "▁uncer": 2965,
      "▁sor": 2966,
      "▁locals": 2967,
      "▁crust": 2968,
      "▁proper": 2969,
      "▁damages": 2970,
      "▁inter": 2971,
      "▁outcome": 2972,
      "▁pilots": 2973,
      "▁fuzz": 2974,
      "fer": 2975,
      "ize": 2976,
      "▁revived": 2977,
      "▁transp": 2978,
      "▁reimbursed": 2979,
      "▁attempting": 2980,
      "forcement": 2981,
      "ener": 2982,
      "val": 2983,
      "rog": 2984,
      "▁listings": 2985,
      "▁chem": 2986,
      "oc": 2987,
      "▁biz": 2988,
      "▁away": 2989,
      "▁shores": 2990,
      "▁lighted": 2991,
      "▁boy": 2992,
      "▁accumulated": 2993,
      "inn": 2994,
      "▁little": 2995,
      "▁testim": 2996,
      "power": 2997,
      "▁d'etat": 2998,
      "'etat": 2999,
      "-time": 3000,
      "aca": 3001,
      "ometer": 3002,
      "▁cycles": 3003,
      "▁implying": 3004,
      "▁associate": 3005,
      "▁ra": 3006,
      "p": 3007,
      "ropriate": 3008,
      "▁kind": 3009,
      "▁enables": 3010,
      "▁elu": 3011,
      "ais": 3012,
      "▁parakeets": 3013,
      "que": 3014,
      "▁freshman": 3015,
      "▁librarians": 3016,
      "▁contributions": 3017,
      "ashing": 3018,
      "▁clo": 3019,
      "▁orlando": 3020,
      "▁sets": 3021,
      "▁refuge": 3022,
      "▁court": 3023,
      "▁clips": 3024,
      "▁frogs": 3025,
      "▁citing": 3026,
      "▁hatred": 3027,
      "erful": 3028,
      "▁challenge": 3029,
      "▁toystore": 3030,
      "▁trafficking": 3031,
      "▁binoculars": 3032,
      "▁beatles": 3033,
      "▁torture": 3034,
      "▁wangs": 3035,
      "ination": 3036,
      "▁cuckoo": 3037,
      "▁went": 3038,
      "▁calc": 3039,
      "▁supposed": 3040,
      "chant": 3041,
      "▁cans": 3042,
      "ern": 3043,
      "▁writers": 3044,
      "ther": 3045,
      "▁stylesheet": 3046,
      "selves": 3047,
      "▁refri": 3048,
      "▁deterioration": 3049,
      "▁train": 3050,
      "▁accompan": 3051,
      "▁businesses": 3052,
      "▁compares": 3053,
      "▁pang": 3054,
      "▁secrets": 3055,
      "tices": 3056,
      "▁toe": 3057,
      "▁hu": 3058,
      "▁writes": 3059,
      "▁nationals": 3060,
      "▁hummus": 3061,
      "awah": 3062,
      "istocks": 3063,
      "▁chang": 3064,
      "▁speed": 3065,
      "▁1.": 3066,
      "mp": 3067,
      "▁individual": 3068,
      "ronym": 3069,
      "▁risk": 3070,
      "▁copyrighted": 3071,
      "▁finance": 3072,
      "orn": 3073,
      "ioned": 3074,
      "▁printing": 3075,
      "▁bureaucracy": 3076,
      "▁lodging": 3077,
      "▁reacted": 3078,
      "▁overcharges": 3079,
      "▁fellow": 3080,
      "▁struggled": 3081,
      "▁ssh": 3082,
      "▁fairly": 3083,
      "▁agencies": 3084,
      "▁wizards": 3085,
      "▁monastery": 3086,
      "ville": 3087,
      "velled": 3088,
      "▁handkerchiefs": 3089,
      "cott": 3090,
      "▁transmed": 3091,
      "▁tort": 3092,
      "▁balcony": 3093,
      "cepted": 3094,
      "▁trainer": 3095,
      "▁labeled": 3096,
      "▁phil": 3097,
      "▁felt": 3098,
      "▁alex": 3099,
      "ename": 3100,
      "▁meat": 3101,
      "▁enjambment": 3102,
      "▁chiro": 3103,
      "▁sound": 3104,
      "▁belonged": 3105,
      "▁watching": 3106,
      "▁login": 3107,
      "▁misconception": 3108,
      "▁nose": 3109,
      "ulse": 3110,
      "▁watered": 3111,
      "▁wikinews": 3112,
      "book": 3113,
      "▁twel": 3114,
      "▁sheep": 3115,
      "▁bicycle": 3116,
      "▁trib": 3117,
      "▁experts": 3118,
      "ustice": 3119,
      "▁wasted": 3120,
      "▁barges": 3121,
      "▁identification": 3122,
      "▁totes": 3123,
      "▁billion": 3124,
      "▁stood": 3125,
      "▁humans": 3126,
      "▁prefect": 3127,
      "asting": 3128,
      "▁during": 3129,
      "▁wiz": 3130,
      "▁dramati": 3131,
      "fuge": 3132,
      "al": 3133,
      "ozer": 3134,
      "▁newark": 3135,
      "igma": 3136,
      "▁meow": 3137,
      "▁vince": 3138,
      "▁exerc": 3139,
      "▁structured": 3140,
      "▁voyage": 3141,
      "▁cm": 3142,
      "▁amaz": 3143,
      "kes": 3144,
      "▁yo": 3145,
      "▁persecution": 3146,
      "▁ant": 3147,
      "▁crocod": 3148,
      "▁loc": 3149,
      "▁saddam": 3150,
      "inema": 3151,
      "inkles": 3152,
      "ifically": 3153,
      "▁moreover": 3154,
      "▁germ": 3155,
      "▁component": 3156,
      "titudes": 3157,
      "_": 3158,
      "▁assure": 3159,
      "▁emergency": 3160,
      "▁inquiry": 3161,
      "iding": 3162,
      "▁skirts": 3163,
      "▁vess": 3164,
      "▁assortment": 3165,
      "▁forgiveness": 3166,
      "▁winging": 3167,
      "▁asses": 3168,
      "ossible": 3169,
      "▁inscriptions": 3170,
      "▁den": 3171,
      "ticism": 3172,
      "▁postures": 3173,
      "▁********": 3174,
      "▁device": 3175,
      "▁secure": 3176,
      "iac": 3177,
      "▁ethnocentrism": 3178,
      "icked": 3179,
      "▁satisfy": 3180,
      "▁handker": 3181,
      "▁rinse": 3182,
      "▁tossed": 3183,
      "igate": 3184,
      "▁ld2d-#69345-1.doc": 3185,
      "▁scientists": 3186,
      "▁speak": 3187,
      "▁gap": 3188,
      "▁refers": 3189,
      "▁evaluator": 3190,
      "▁selecting": 3191,
      "▁attraction": 3192,
      "plus": 3193,
      "▁vic": 3194,
      "▁trials": 3195,
      "erog": 3196,
      "▁engine": 3197,
      "▁achie": 3198,
      "▁finished": 3199,
      "▁bpd": 3200,
      "▁mysteries": 3201,
      "▁voters": 3202,
      "essions": 3203,
      "▁knows": 3204,
      "ences": 3205,
      "▁incompetence": 3206,
      "child": 3207,
      "▁itsy": 3208,
      "▁relatives": 3209,
      "▁recc": 3210,
      "▁headache": 3211,
      "ution": 3212,
      "▁touched": 3213,
      "▁attack": 3214,
      "▁private": 3215,
      "▁sailor": 3216,
      "▁technician": 3217,
      "ai": 3218,
      "▁toronto": 3219,
      "anding": 3220,
      "▁~": 3221,
      "▁palest": 3222,
      "▁eff": 3223,
      "▁intellectuals": 3224,
      "▁move": 3225,
      "▁washington": 3226,
      "rities": 3227,
      "▁tack": 3228,
      "▁burs": 3229,
      "ave": 3230,
      "▁ivory": 3231,
      "▁at": 3232,
      "iciency": 3233,
      "▁passion": 3234,
      "▁jobs": 3235,
      "▁ecommerce": 3236,
      "▁init": 3237,
      "▁reh": 3238,
      "▁confiscated": 3239,
      "▁walks": 3240,
      "mb": 3241,
      "▁emphas": 3242,
      "▁overt": 3243,
      "▁fundamentalists": 3244,
      "▁gloom": 3245,
      "▁censor": 3246,
      "uits": 3247,
      ".l": 3248,
      "▁vanished": 3249,
      "oops": 3250,
      "▁70's": 3251,
      "▁bak": 3252,
      "▁theater": 3253,
      "▁happ": 3254,
      "▁removing": 3255,
      "▁ppl": 3256,
      "▁worksh": 3257,
      "ili": 3258,
      "▁spi": 3259,
      "▁meeting": 3260,
      "▁polar": 3261,
      "▁temples": 3262,
      "lipop": 3263,
      "▁din": 3264,
      "▁solve": 3265,
      "▁documented": 3266,
      "mall": 3267,
      "&b": 3268,
      "fir": 3269,
      "▁recomm": 3270,
      "{": 3271,
      "▁inspection": 3272,
      "▁abilities": 3273,
      "▁oxygen": 3274,
      "▁robert": 3275,
      "▁uvb": 3276,
      "▁network": 3277,
      "▁funny": 3278,
      "▁cor": 3279,
      "▁pac": 3280,
      "▁wearing": 3281,
      "▁!!!!!!!!!!!": 3282,
      "▁permit": 3283,
      "▁youtu": 3284,
      "nically": 3285,
      "▁habit": 3286,
      "-st": 3287,
      "ient": 3288,
      "------->": 3289,
      "▁donor": 3290,
      "dation": 3291,
      "▁country": 3292,
      "anda": 3293,
      "▁apartments": 3294,
      "awatt": 3295,
      "▁room": 3296,
      "ld": 3297,
      "▁compensation": 3298,
      "▁tribes": 3299,
      "▁nothing": 3300,
      "utic": 3301,
      "ham": 3302,
      "▁wite": 3303,
      "ners": 3304,
      "▁puzz": 3305,
      "points": 3306,
      "▁hugged": 3307,
      "▁dwww": 3308,
      "ractions": 3309,
      "▁cancelled": 3310,
      "▁jets": 3311,
      "-and": 3312,
      "cosm": 3313,
      "▁appro": 3314,
      "▁punch": 3315,
      "▁trait": 3316,
      "▁union": 3317,
      "▁medical": 3318,
      "?": 3319,
      "▁stream": 3320,
      "▁explanation": 3321,
      "▁emotions": 3322,
      "gu": 3323,
      "▁silic": 3324,
      "▁lest": 3325,
      "umin": 3326,
      "▁er": 3327,
      "ourn": 3328,
      "oting": 3329,
      "▁outfits": 3330,
      "▁alcohol": 3331,
      "▁glance": 3332,
      "▁ahead": 3333,
      "▁farrier": 3334,
      "▁vari": 3335,
      "▁heated": 3336,
      "▁freezer": 3337,
      "▁befor": 3338,
      "▁marty": 3339,
      "▁reply": 3340,
      "▁effect": 3341,
      "▁grf": 3342,
      "▁bucks": 3343,
      "▁arch": 3344,
      "▁resisted": 3345,
      "enna": 3346,
      "irst": 3347,
      "▁spine": 3348,
      "▁clerk": 3349,
      "$": 3350,
      "▁verifies": 3351,
      "º": 3352,
      "▁twin": 3353,
      "▁----==": 3354,
      "▁condem": 3355,
      "▁imbalances": 3356,
      "vp": 3357,
      "▁neighborhood": 3358,
      "▁habitat": 3359,
      "▁strut": 3360,
      "▁skis": 3361,
      "▁tricycle": 3362,
      "▁ne": 3363,
      "▁formality": 3364,
      "▁penis": 3365,
      "▁regret": 3366,
      "▁seekers": 3367,
      "▁jer": 3368,
      "-19": 3369,
      "ip": 3370,
      "▁gentle": 3371,
      "pp": 3372,
      "▁hardly": 3373,
      "▁clar": 3374,
      "lav": 3375,
      "▁delete": 3376,
      "▁incubator": 3377,
      "▁im": 3378,
      "▁cos": 3379,
      "▁savings": 3380,
      "▁eliminate": 3381,
      "▁rebuil": 3382,
      "▁teles": 3383,
      "▁tackle": 3384,
      "▁you": 3385,
      "▁serious": 3386,
      "tedly": 3387,
      "▁shields": 3388,
      "▁endeavor": 3389,
      "▁purpose": 3390,
      "▁comparison": 3391,
      "▁help": 3392,
      "▁autobiography": 3393,
      "▁granted": 3394,
      "ague": 3395,
      "▁embassy": 3396,
      "▁remembers": 3397,
      "omm": 3398,
      "▁someone": 3399,
      "▁jus": 3400,
      "▁trail": 3401,
      "▁stars": 3402,
      "isons": 3403,
      "▁supplement": 3404,
      "▁alongside": 3405,
      "▁disag": 3406,
      "▁ess": 3407,
      "▁quiz": 3408,
      "▁accomplish": 3409,
      "▁draw": 3410,
      "▁pale": 3411,
      "eness": 3412,
      "iv": 3413,
      "aw": 3414,
      "▁graduating": 3415,
      "▁waiter": 3416,
      "ied": 3417,
      "▁build": 3418,
      "▁slipped": 3419,
      "▁tearing": 3420,
      "▁80's": 3421,
      "▁betta": 3422,
      "▁zomb": 3423,
      "▁dat": 3424,
      "”s": 3425,
      "▁matters": 3426,
      "ici": 3427,
      "▁variety": 3428,
      "▁waving": 3429,
      "▁destination": 3430,
      "▁ext": 3431,
      "▁pige": 3432,
      "▁mon": 3433,
      "▁apple": 3434,
      "ey": 3435,
      "uts": 3436,
      "otw": 3437,
      "ival": 3438,
      "▁wines": 3439,
      "ugg": 3440,
      "▁dw": 3441,
      "▁196": 3442,
      "▁counter-": 3443,
      "▁dashed": 3444,
      "▁salads": 3445,
      "▁que": 3446,
      "▁fastened": 3447,
      "iousness": 3448,
      "▁frag": 3449,
      "▁wand": 3450,
      "▁fins": 3451,
      "vard": 3452,
      "oup": 3453,
      "▁andaman": 3454,
      "▁constitutes": 3455,
      "has": 3456,
      "▁burger": 3457,
      "▁relics": 3458,
      "▁financ": 3459,
      "▁sri": 3460,
      "yo": 3461,
      "ince": 3462,
      "▁troops": 3463,
      "▁huh": 3464,
      "▁sheet": 3465,
      "▁grown": 3466,
      "▁colleag": 3467,
      "tiles": 3468,
      "▁avenues": 3469,
      "▁facet": 3470,
      "▁boom": 3471,
      "▁wh": 3472,
      "▁loun": 3473,
      "▁burst": 3474,
      "olt": 3475,
      "▁orange": 3476,
      "▁situations": 3477,
      "ationed": 3478,
      "▁deemed": 3479,
      "ularity": 3480,
      "keeper": 3481,
      "▁ly": 3482,
      "▁gir": 3483,
      "uc": 3484,
      "▁seeking": 3485,
      "▁wears": 3486,
      "ssibly": 3487,
      "▁enterprises": 3488,
      "▁counterfe": 3489,
      "▁accord": 3490,
      "▁kissed": 3491,
      "▁relation": 3492,
      "▁ce": 3493,
      "▁alle": 3494,
      "▁anim": 3495,
      "▁cells": 3496,
      "uded": 3497,
      "itch": 3498,
      "▁religion": 3499,
      "▁outcomes": 3500,
      "▁sunsh": 3501,
      "▁uni": 3502,
      "orit": 3503,
      "▁worms": 3504,
      "▁evalu": 3505,
      "-year": 3506,
      "form": 3507,
      "▁ceo": 3508,
      "▁circumstances": 3509,
      "▁leave": 3510,
      "▁continues": 3511,
      "▁fans": 3512,
      "▁neck": 3513,
      "roenter": 3514,
      "▁purchase": 3515,
      "▁monster": 3516,
      "▁differing": 3517,
      "any": 3518,
      "gate": 3519,
      "▁paper": 3520,
      "▁remains": 3521,
      "ean": 3522,
      "ures": 3523,
      "▁pean": 3524,
      "▁ringlets": 3525,
      "▁directed": 3526,
      "holes": 3527,
      "▁disper": 3528,
      "▁oven": 3529,
      "▁vali": 3530,
      "▁introduc": 3531,
      "eterm": 3532,
      "▁wou": 3533,
      "▁thwarted": 3534,
      "▁bubbles": 3535,
      "wear": 3536,
      "▁conflicts": 3537,
      "pancy": 3538,
      "▁judgement": 3539,
      "pped": 3540,
      "▁pausing": 3541,
      "▁feature": 3542,
      "▁suns": 3543,
      "pt": 3544,
      "gth": 3545,
      "▁exhaus": 3546,
      "▁ladybug": 3547,
      "▁series": 3548,
      "▁projects": 3549,
      "▁surrounding": 3550,
      "▁inches": 3551,
      "▁establish": 3552,
      "▁settlement": 3553,
      "vious": 3554,
      "▁grandma": 3555,
      "▁thigh": 3556,
      "▁department": 3557,
      "cakes": 3558,
      "iot": 3559,
      "eu": 3560,
      "▁stayed": 3561,
      "▁misfort": 3562,
      "▁prosperity": 3563,
      "overs": 3564,
      "▁gol": 3565,
      "▁ignoring": 3566,
      "▁contain": 3567,
      "▁losing": 3568,
      "▁demanded": 3569,
      "▁ske": 3570,
      "eal": 3571,
      "amp": 3572,
      "atives": 3573,
      "/2000": 3574,
      "▁browse": 3575,
      "in": 3576,
      "▁philadelphia": 3577,
      "▁revenue": 3578,
      "▁weight": 3579,
      "▁imagination": 3580,
      "▁stability": 3581,
      "▁specialist": 3582,
      "▁family": 3583,
      "▁oxy": 3584,
      "anges": 3585,
      "▁curr": 3586,
      "=": 3587,
      "▁fr": 3588,
      "▁attached": 3589,
      "unity": 3590,
      "ivity": 3591,
      "▁relativ": 3592,
      "▁hing": 3593,
      "▁molec": 3594,
      "▁gast": 3595,
      "▁flags": 3596,
      "oil": 3597,
      "▁bard": 3598,
      "▁fil": 3599,
      "▁treat": 3600,
      "▁observing": 3601,
      "▁fuel": 3602,
      "ressed": 3603,
      "▁reach": 3604,
      "▁approximation": 3605,
      "▁strategies": 3606,
      "▁fores": 3607,
      "▁mad": 3608,
      "▁cigar": 3609,
      "agging": 3610,
      "▁bathrooms": 3611,
      "▁mod": 3612,
      "epted": 3613,
      "▁psycho": 3614,
      "onav": 3615,
      "▁whales": 3616,
      "nels": 3617,
      "▁rivers": 3618,
      "▁accumulating": 3619,
      "ician": 3620,
      "!!": 3621,
      "▁abo": 3622,
      "ny": 3623,
      "▁squashed": 3624,
      "▁critters": 3625,
      "uals": 3626,
      "▁sie": 3627,
      "▁receipt": 3628,
      "pour": 3629,
      "▁alig": 3630,
      "▁wires": 3631,
      "▁window": 3632,
      "▁client": 3633,
      "▁smeared": 3634,
      "▁availability": 3635,
      "▁rod": 3636,
      "▁outf": 3637,
      "▁pilgrimage": 3638,
      "▁disobedience": 3639,
      "rift": 3640,
      "0's": 3641,
      "bread": 3642,
      "▁transporting": 3643,
      "ticip": 3644,
      "▁operas": 3645,
      "▁similar": 3646,
      "er": 3647,
      "▁distractions": 3648,
      "▁pants": 3649,
      "▁rope": 3650,
      "▁robes": 3651,
      "▁discount": 3652,
      "▁rbi": 3653,
      "▁showed": 3654,
      "▁termination": 3655,
      "bably": 3656,
      "▁dee": 3657,
      "▁wired": 3658,
      "▁forgive": 3659,
      "prints": 3660,
      "ative": 3661,
      "▁lec": 3662,
      "▁animal": 3663,
      "▁greek": 3664,
      "▁urgency": 3665,
      "▁container": 3666,
      "▁ld": 3667,
      "▁lent": 3668,
      "▁cherry": 3669,
      "▁enhanced": 3670,
      "▁wish": 3671,
      "▁pron": 3672,
      "▁institutions": 3673,
      "ras": 3674,
      "▁hearing": 3675,
      "▁wanting": 3676,
      "▁courage": 3677,
      "▁lacking": 3678,
      "▁corpora": 3679,
      "ication": 3680,
      "▁‘’": 3681,
      "ople": 3682,
      "▁emails": 3683,
      "esses": 3684,
      "▁butterflies": 3685,
      "▁instrument": 3686,
      "▁delighted": 3687,
      "force": 3688,
      "▁pests": 3689,
      "▁strugg": 3690,
      "▁imper": 3691,
      "▁afflic": 3692,
      "▁exception": 3693,
      "▁occurred": 3694,
      "▁sk": 3695,
      "▁conviction": 3696,
      "y0": 3697,
      "▁glow": 3698,
      "▁treated": 3699,
      "▁alar": 3700,
      "▁activ": 3701,
      "▁enthusiasm": 3702,
      "▁joining": 3703,
      "▁bulletin": 3704,
      "▁otherwise": 3705,
      "▁magn": 3706,
      "acy": 3707,
      "bbed": 3708,
      "▁equival": 3709,
      "▁excellent": 3710,
      "▁replacement": 3711,
      "▁pick": 3712,
      "rar": 3713,
      "▁cen": 3714,
      "▁gin": 3715,
      "▁mr": 3716,
      "▁scam": 3717,
      "world": 3718,
      "gings": 3719,
      "▁equal": 3720,
      "▁rags": 3721,
      "▁ops": 3722,
      "avery": 3723,
      "▁layover": 3724,
      "▁verb": 3725,
      "▁trou": 3726,
      "▁romance": 3727,
      "ibb": 3728,
      "▁excell": 3729,
      "▁followed": 3730,
      "▁falling": 3731,
      "▁paste": 3732,
      "ual": 3733,
      "▁polaroids": 3734,
      "▁talents": 3735,
      "▁hr": 3736,
      "▁changing": 3737,
      "ortions": 3738,
      "opy": 3739,
      "rinted": 3740,
      "▁circum": 3741,
      "ograp": 3742,
      "▁femur": 3743,
      "▁polic": 3744,
      "▁hel": 3745,
      "fro": 3746,
      "▁quite": 3747,
      "▁breast": 3748,
      "▁staged": 3749,
      "▁sometimes": 3750,
      "▁doctors": 3751,
      "chester": 3752,
      "▁aqu": 3753,
      "▁pix": 3754,
      "ez": 3755,
      "▁oak": 3756,
      "eps": 3757,
      "▁weak": 3758,
      "▁interf": 3759,
      "▁aspir": 3760,
      "▁seven": 3761,
      "▁fas": 3762,
      "▁training": 3763,
      "▁sounds": 3764,
      "▁um": 3765,
      "care": 3766,
      "▁underneath": 3767,
      "▁compounds": 3768,
      "▁cli": 3769,
      "▁guarant": 3770,
      "▁mins": 3771,
      "▁transfers": 3772,
      "▁grocery": 3773,
      "▁impose": 3774,
      "▁he": 3775,
      "utions": 3776,
      "eland": 3777,
      "▁parti": 3778,
      "▁cropdusters": 3779,
      "▁anywhere": 3780,
      "keep": 3781,
      "▁liq": 3782,
      "▁bug": 3783,
      "▁cycle": 3784,
      "▁turbine": 3785,
      "▁lon": 3786,
      "▁interior": 3787,
      "mited": 3788,
      "▁spears": 3789,
      "▁percentiles": 3790,
      "▁commod": 3791,
      "▁stations": 3792,
      "ions": 3793,
      "ope": 3794,
      "▁stol": 3795,
      "ressive": 3796,
      "resp": 3797,
      "owing": 3798,
      "▁pulled": 3799,
      "▁poin": 3800,
      "▁incom": 3801,
      "▁fishes": 3802,
      "▁mosquito": 3803,
      "▁lungs": 3804,
      "chn": 3805,
      "enter": 3806,
      "will": 3807,
      "▁rely": 3808,
      "▁reinfor": 3809,
      "▁nut": 3810,
      "▁retal": 3811,
      "▁gold": 3812,
      "▁cracker": 3813,
      "▁expertise": 3814,
      "▁producer": 3815,
      "ovation": 3816,
      "▁demonstrated": 3817,
      "▁pp": 3818,
      "▁nationalities": 3819,
      "▁assistance": 3820,
      "▁woman": 3821,
      "▁happen": 3822,
      "▁tag": 3823,
      "▁designed": 3824,
      "▁streams": 3825,
      "▁impulses": 3826,
      "atees": 3827,
      "utin": 3828,
      "bye": 3829,
      "▁different": 3830,
      "ume": 3831,
      "▁impulse": 3832,
      "▁mus": 3833,
      "▁brings": 3834,
      "▁barbe": 3835,
      "▁halls": 3836,
      "▁incredibly": 3837,
      "▁parade": 3838,
      "▁glad": 3839,
      "▁oil": 3840,
      "ightening": 3841,
      "vated": 3842,
      "▁ic": 3843,
      "▁additional": 3844,
      "▁obl": 3845,
      "▁simp": 3846,
      "▁completing": 3847,
      "ws": 3848,
      "▁special": 3849,
      "▁critic": 3850,
      "▁leaned": 3851,
      "atively": 3852,
      "▁divorce": 3853,
      "▁following": 3854,
      "▁sandwic": 3855,
      "alth": 3856,
      "▁soils": 3857,
      "▁someth": 3858,
      "▁pin": 3859,
      "▁assessment": 3860,
      "▁almost": 3861,
      "▁assessing": 3862,
      "▁hungry": 3863,
      "▁publish": 3864,
      "▁nons": 3865,
      "▁cuffs": 3866,
      "▁crept": 3867,
      "zac": 3868,
      "raved": 3869,
      "▁surplus": 3870,
      "▁nations": 3871,
      "▁torch": 3872,
      "▁compos": 3873,
      "icular": 3874,
      "subscrib": 3875,
      "▁canned": 3876,
      ":30": 3877,
      "▁dictatorship": 3878,
      "▁dolls": 3879,
      "▁=": 3880,
      "▁squirter": 3881,
      "▁ass": 3882,
      "▁vol": 3883,
      "▁en": 3884,
      "▁shaped": 3885,
      "▁disagre": 3886,
      "▁sweet": 3887,
      "laimed": 3888,
      "▁man-": 3889,
      "▁sci": 3890,
      "▁appearance": 3891,
      "▁tro": 3892,
      "▁thi": 3893,
      "nies": 3894,
      "▁grinning": 3895,
      "▁cott": 3896,
      "▁heights": 3897,
      "▁encompassing": 3898,
      "▁chilling": 3899,
      "----------------": 3900,
      "olation": 3901,
      "▁buddies": 3902,
      "▁borne": 3903,
      "▁irony": 3904,
      "case": 3905,
      "▁b/c": 3906,
      "▁introducing": 3907,
      "cs": 3908,
      "rint": 3909,
      "▁fragilities": 3910,
      "▁pigs": 3911,
      "ral": 3912,
      "▁chapters": 3913,
      "▁color": 3914,
      "▁mechan": 3915,
      "▁hh": 3916,
      "▁packet": 3917,
      "▁analyst": 3918,
      "ocracy": 3919,
      "▁son": 3920,
      "▁electric": 3921,
      "▁threat": 3922,
      "▁cheating": 3923,
      "▁judg": 3924,
      "▁openness": 3925,
      "▁celebration": 3926,
      "-in": 3927,
      "▁undert": 3928,
      "▁rein": 3929,
      "▁characterized": 3930,
      "ald": 3931,
      "▁kinds": 3932,
      "afe": 3933,
      "▁atlan": 3934,
      "maries": 3935,
      "▁distraction": 3936,
      "▁deployment": 3937,
      "▁sender": 3938,
      "▁gripped": 3939,
      "▁aisle": 3940,
      "yday": 3941,
      "▁fallout": 3942,
      "ppled": 3943,
      "▁uti": 3944,
      "butz": 3945,
      "▁only": 3946,
      "▁dram": 3947,
      "▁fall": 3948,
      "▁bombed": 3949,
      "▁colonel": 3950,
      "▁hash": 3951,
      "▁beware": 3952,
      "▁sout": 3953,
      "ashed": 3954,
      "▁volleyball": 3955,
      "▁bent": 3956,
      "▁))": 3957,
      "▁for": 3958,
      "mped": 3959,
      "▁eastern": 3960,
      "▁veterans": 3961,
      "▁sticking": 3962,
      "▁tried": 3963,
      "▁seconds": 3964,
      "▁cotton": 3965,
      "▁fishie": 3966,
      "▁exec": 3967,
      "▁output": 3968,
      "▁bait": 3969,
      "▁able": 3970,
      "▁absolutely": 3971,
      "▁boys": 3972,
      "ash": 3973,
      "▁servants": 3974,
      "▁phenom": 3975,
      "▁implement": 3976,
      "oor": 3977,
      "▁dick": 3978,
      "▁transforming": 3979,
      "aded": 3980,
      "liferation": 3981,
      "▁rewarded": 3982,
      "▁puss": 3983,
      "▁consumerism": 3984,
      "▁terrible": 3985,
      "▁surround": 3986,
      "▁conduct": 3987,
      "▁sister": 3988,
      "▁ld2d-": 3989,
      "▁facilitate": 3990,
      "▁cat-flap": 3991,
      "▁aggression": 3992,
      "▁dang": 3993,
      "▁agriculture": 3994,
      "▁occupation": 3995,
      "ell": 3996,
      "▁uprising": 3997,
      "▁sut": 3998,
      "▁sudd": 3999,
      "▁simpli": 4000,
      "▁logo": 4001,
      "▁brooding": 4002,
      "▁neologism": 4003,
      "▁joh": 4004,
      "▁!.": 4005,
      "▁province": 4006,
      "▁transmitter": 4007,
      "++": 4008,
      "▁fix": 4009,
      "▁discharge": 4010,
      "▁embr": 4011,
      "centi": 4012,
      "▁politician": 4013,
      "▁fa": 4014,
      "▁beg": 4015,
      "▁pit": 4016,
      "ately": 4017,
      "▁preface": 4018,
      "aved": 4019,
      "▁overlooked": 4020,
      "▁nobility": 4021,
      "arm": 4022,
      "▁systems": 4023,
      "ession": 4024,
      "▁surprised": 4025,
      "▁bottom": 4026,
      "▁animals": 4027,
      "▁purchases": 4028,
      "ties": 4029,
      "▁imprison": 4030,
      "▁folds": 4031,
      "▁rift": 4032,
      "▁may": 4033,
      "▁motorist": 4034,
      "▁politicians": 4035,
      "▁enthusiasts": 4036,
      "links": 4037,
      "▁partic": 4038,
      "▁pant": 4039,
      "▁shiny": 4040,
      "bees": 4041,
      "backs": 4042,
      "kness": 4043,
      "▁cool": 4044,
      "▁chickens": 4045,
      "▁pussy": 4046,
      "▁[": 4047,
      "▁repairs": 4048,
      "inctions": 4049,
      "▁overcome": 4050,
      "▁conquest": 4051,
      "▁bump": 4052,
      "wi": 4053,
      "▁radi": 4054,
      "▁defender": 4055,
      "▁bookst": 4056,
      "▁patrons": 4057,
      "▁adver": 4058,
      "▁measured": 4059,
      "▁muffs": 4060,
      "▁bul": 4061,
      "▁************************************************": 4062,
      "▁occas": 4063,
      "▁fully": 4064,
      "phone": 4065,
      "▁a.m.": 4066,
      "▁procedure": 4067,
      "▁deeds": 4068,
      "▁lions": 4069,
      "▁vot": 4070,
      "▁utterance": 4071,
      "▁camer": 4072,
      "▁behaviour": 4073,
      "▁accum": 4074,
      "▁fear": 4075,
      "▁reproduced": 4076,
      "▁drivers": 4077,
      "iz": 4078,
      "▁dissatisfaction": 4079,
      "▁promise": 4080,
      "▁ding": 4081,
      "▁finishing": 4082,
      "uated": 4083,
      "▁total": 4084,
      "▁publicity": 4085,
      "ario": 4086,
      "▁burden": 4087,
      "▁altering": 4088,
      "helf": 4089,
      "▁girl": 4090,
      "▁soli": 4091,
      "▁nearly": 4092,
      "▁mode": 4093,
      "▁refund": 4094,
      "▁administer": 4095,
      "point": 4096,
      "▁frenzy": 4097,
      "▁affiliate": 4098,
      "▁volunteers": 4099,
      "▁newspaper": 4100,
      "ires": 4101,
      "▁brought": 4102,
      "zers": 4103,
      "▁grabbing": 4104,
      "▁asking": 4105,
      "loying": 4106,
      "▁understood": 4107,
      "▁'": 4108,
      "▁equation": 4109,
      "▁norms": 4110,
      "▁preven": 4111,
      "▁cities": 4112,
      "▁apost": 4113,
      "▁umb": 4114,
      "ns": 4115,
      "▁zoo": 4116,
      "loy": 4117,
      "▁sidewalk": 4118,
      "▁loss": 4119,
      "▁legality": 4120,
      "▁blow": 4121,
      "▁reflects": 4122,
      "▁clouds": 4123,
      "▁largest": 4124,
      "▁emerged": 4125,
      "▁renew": 4126,
      "▁raining": 4127,
      "▁wang": 4128,
      "▁conform": 4129,
      "▁execu": 4130,
      "▁tugged": 4131,
      "▁quit": 4132,
      "▁hunger": 4133,
      "▁paw": 4134,
      "▁exagg": 4135,
      "▁sophie": 4136,
      "ord": 4137,
      "▁squir": 4138,
      "▁mhm": 4139,
      "▁fragments": 4140,
      "▁become": 4141,
      "▁lyrics": 4142,
      "umes": 4143,
      "overed": 4144,
      "▁stadium": 4145,
      "tally": 4146,
      "jects": 4147,
      "▁double": 4148,
      "▁peters": 4149,
      "▁shirts": 4150,
      "▁disappeared": 4151,
      "▁debr": 4152,
      "▁-------------------------------------------------": 4153,
      "▁weekend": 4154,
      "grated": 4155,
      "▁uniform": 4156,
      "cove": 4157,
      "▁phenomenon": 4158,
      "▁polish": 4159,
      "▁adh": 4160,
      "▁confused": 4161,
      "▁tuesday": 4162,
      "▁cr": 4163,
      "▁paws": 4164,
      "▁partners": 4165,
      "gic": 4166,
      "▁qua": 4167,
      "▁over": 4168,
      "▁bench": 4169,
      "▁resched": 4170,
      "▁citi": 4171,
      "▁communic": 4172,
      "▁mesh": 4173,
      "▁aristocrats": 4174,
      "▁americ": 4175,
      "▁disappointed": 4176,
      "▁miss": 4177,
      "ivid": 4178,
      "▁system": 4179,
      "▁mal": 4180,
      "▁indianapolis": 4181,
      "front": 4182,
      "▁smoking": 4183,
      "▁sheriff": 4184,
      "▁flatten": 4185,
      "▁grinder": 4186,
      "ached": 4187,
      "▁domains": 4188,
      "▁accommodate": 4189,
      "▁styrofoam": 4190,
      "▁crushing": 4191,
      "‘": 4192,
      "▁vowed": 4193,
      "▁password": 4194,
      "▁ball": 4195,
      "▁helping": 4196,
      "▁enacted": 4197,
      "▁winking": 4198,
      "▁detained": 4199,
      "▁hypnosis": 4200,
      "▁bounced": 4201,
      "▁counterfeit": 4202,
      "iked": 4203,
      "ulture": 4204,
      "▁amusement": 4205,
      "▁bottoms": 4206,
      "18": 4207,
      "▁sunglasses": 4208,
      "▁identify": 4209,
      "▁rig": 4210,
      "▁plastic": 4211,
      "▁popular": 4212,
      "▁practicing": 4213,
      "▁fug": 4214,
      "▁climb": 4215,
      "levant": 4216,
      "▁noting": 4217,
      ".2": 4218,
      "▁mud": 4219,
      "▁coordinated": 4220,
      "etus": 4221,
      "rano": 4222,
      "▁dolph": 4223,
      "▁'s": 4224,
      "▁trot": 4225,
      "zability": 4226,
      "▁conversations": 4227,
      "raf": 4228,
      "▁possible": 4229,
      "erves": 4230,
      "dayeen": 4231,
      "▁retrieval": 4232,
      "▁teachers": 4233,
      "▁erup": 4234,
      "▁noticed": 4235,
      "▁sailed": 4236,
      "▁patient": 4237,
      "▁sunset": 4238,
      "▁midterms": 4239,
      "▁whereabouts": 4240,
      "▁sport": 4241,
      "▁supply": 4242,
      "▁capacities": 4243,
      "▁arguing": 4244,
      "▁rushed": 4245,
      "▁disse": 4246,
      "ct": 4247,
      "atches": 4248,
      "▁tobac": 4249,
      "▁educate": 4250,
      "▁properly": 4251,
      "▁restrict": 4252,
      "▁symphony": 4253,
      "▁uns": 4254,
      "hind": 4255,
      "▁stall": 4256,
      "lessness": 4257,
      "▁billi": 4258,
      "▁bond": 4259,
      "▁three": 4260,
      "▁aerated": 4261,
      "▁guess": 4262,
      "▁squadrons": 4263,
      "ɛ": 4264,
      "estab": 4265,
      "▁licen": 4266,
      "▁belts": 4267,
      "▁anticipate": 4268,
      "ort": 4269,
      "▁nor": 4270,
      "▁destruc": 4271,
      "▁supporter": 4272,
      "▁glimpse": 4273,
      "▁tug": 4274,
      "▁belt": 4275,
      "aid": 4276,
      "onal": 4277,
      "umps": 4278,
      "▁disp": 4279,
      "▁exiled": 4280,
      "0th": 4281,
      "omatically": 4282,
      "▁dec": 4283,
      "▁flat": 4284,
      "▁stomach": 4285,
      "▁females": 4286,
      "▁changed": 4287,
      "▁insec": 4288,
      "▁staff": 4289,
      "▁halloween": 4290,
      "enti": 4291,
      "▁creatures": 4292,
      "▁sapped": 4293,
      "oleum": 4294,
      "▁sitting": 4295,
      "▁catch": 4296,
      "▁thro": 4297,
      "▁yes": 4298,
      "▁patterns": 4299,
      "▁|--------+----------------": 4300,
      "▁selection": 4301,
      "▁semantics": 4302,
      "▁attain": 4303,
      "▁tribe": 4304,
      "▁ing": 4305,
      "▁ranger": 4306,
      "▁lab": 4307,
      "▁outc": 4308,
      "▁rained": 4309,
      "▁lips": 4310,
      "▁iraq": 4311,
      "▁press": 4312,
      "▁sorts": 4313,
      "▁out": 4314,
      "aves": 4315,
      "▁lets": 4316,
      "▁organizations": 4317,
      "iron": 4318,
      "▁observe": 4319,
      "▁consol": 4320,
      "▁types": 4321,
      "ives": 4322,
      "onents": 4323,
      "▁visas": 4324,
      "▁specim": 4325,
      "▁immigrants": 4326,
      "▁hundreds": 4327,
      "(count": 4328,
      "▁picket": 4329,
      "▁lay": 4330,
      "ommerce": 4331,
      "▁bowl": 4332,
      "less": 4333,
      "oke": 4334,
      "▁doors": 4335,
      "▁ling": 4336,
      "▁outs": 4337,
      "▁semi": 4338,
      "▁abuse": 4339,
      "▁explode": 4340,
      "▁mixing": 4341,
      "▁broad": 4342,
      "▁infrastructure": 4343,
      "▁probe": 4344,
      "▁questioning": 4345,
      "▁fleet": 4346,
      "eachment": 4347,
      "inian": 4348,
      "▁motivated": 4349,
      "▁vendors": 4350,
      "elped": 4351,
      "▁iq": 4352,
      "▁gulf": 4353,
      "▁astronauts": 4354,
      "ific": 4355,
      "side": 4356,
      "▁holders": 4357,
      "asion": 4358,
      "orama": 4359,
      "wardness": 4360,
      "▁bre": 4361,
      "▁gun": 4362,
      "▁co-": 4363,
      "▁condemned": 4364,
      "▁heavy": 4365,
      "▁october": 4366,
      "▁island": 4367,
      "lection": 4368,
      "▁jap": 4369,
      "ational": 4370,
      "▁olive": 4371,
      "▁direc": 4372,
      "▁catast": 4373,
      "▁levels": 4374,
      "mie": 4375,
      "▁mosqu": 4376,
      "▁tiny": 4377,
      "▁reclaimed": 4378,
      "yer": 4379,
      "▁confidence": 4380,
      "▁bef": 4381,
      "▁patron": 4382,
      "marked": 4383,
      "▁stranger": 4384,
      "▁natur": 4385,
      "ularly": 4386,
      "▁sop": 4387,
      "▁pos": 4388,
      "lightly": 4389,
      "▁decree": 4390,
      "▁distribute": 4391,
      "▁tragedy": 4392,
      "▁want": 4393,
      "▁lower": 4394,
      "▁altogether": 4395,
      "▁hang": 4396,
      "▁rome": 4397,
      "tingu": 4398,
      "▁party": 4399,
      "iling": 4400,
      "▁defe": 4401,
      "▁stored": 4402,
      "▁i.e.": 4403,
      "▁highlight": 4404,
      "▁refugees": 4405,
      "boat": 4406,
      "▁scand": 4407,
      "--------------------------------": 4408,
      "epend": 4409,
      "lips": 4410,
      "▁pools": 4411,
      "▁enough": 4412,
      "▁paints": 4413,
      "ummy": 4414,
      "▁magaz": 4415,
      "▁sm": 4416,
      "▁s’": 4417,
      "anne": 4418,
      "▁analyzed": 4419,
      "▁published": 4420,
      "▁recons": 4421,
      "ribute": 4422,
      "▁lod": 4423,
      "nh": 4424,
      "▁repa": 4425,
      "▁recommending": 4426,
      "▁cub": 4427,
      "▁abol": 4428,
      "vened": 4429,
      "▁board": 4430,
      "uates": 4431,
      "▁diale": 4432,
      "▁young": 4433,
      "▁pity": 4434,
      "▁vest": 4435,
      "▁symptoms": 4436,
      "vailable": 4437,
      "▁personal": 4438,
      "▁exchanged": 4439,
      "▁turmoil": 4440,
      "▁apply": 4441,
      "▁assassination": 4442,
      "▁dialogue": 4443,
      "▁melt": 4444,
      "▁contam": 4445,
      "▁your": 4446,
      "▁orientation": 4447,
      "▁baked": 4448,
      "▁gre": 4449,
      "▁capture": 4450,
      "▁elbow": 4451,
      "igned": 4452,
      "vest": 4453,
      "▁hailed": 4454,
      "▁muss": 4455,
      "▁eei": 4456,
      "▁simple": 4457,
      "▁critics": 4458,
      "▁malaria": 4459,
      "alked": 4460,
      "▁arises": 4461,
      "▁mentioned": 4462,
      "▁toes": 4463,
      "▁considerations": 4464,
      "▁pleased": 4465,
      "▁tomb": 4466,
      "▁st.": 4467,
      "▁kiw": 4468,
      "▁lee": 4469,
      "▁th-": 4470,
      "▁reserves": 4471,
      "▁snort": 4472,
      "wife": 4473,
      "▁brooms": 4474,
      "itish": 4475,
      "lions": 4476,
      "edge": 4477,
      "▁territ": 4478,
      "▁carrots": 4479,
      "▁preached": 4480,
      "▁upgrade": 4481,
      "▁staring": 4482,
      "▁notify": 4483,
      "▁acclaimed": 4484,
      "ething": 4485,
      "▁topic": 4486,
      "stall": 4487,
      "▁api": 4488,
      "▁escaped": 4489,
      "▁e-": 4490,
      "▁d": 4491,
      "▁a": 4492,
      "▁receip": 4493,
      "▁mouths": 4494,
      "▁drift": 4495,
      "▁alas": 4496,
      "▁objections": 4497,
      "▁involved": 4498,
      "ithstanding": 4499,
      "ious": 4500,
      "▁nutrition": 4501,
      "▁devised": 4502,
      "▁consultation": 4503,
      "▁layers": 4504,
      "▁rapporteur": 4505,
      "▁cle": 4506,
      "▁manual": 4507,
      "▁pav": 4508,
      "▁earthworms": 4509,
      "ighten": 4510,
      "▁computing": 4511,
      "▁mig": 4512,
      "▁orchestra": 4513,
      "▁u.s.": 4514,
      "▁headmaster": 4515,
      "▁lacks": 4516,
      "▁plants": 4517,
      "▁necks": 4518,
      "▁skirt": 4519,
      "▁submarine": 4520,
      "▁erected": 4521,
      "▁ro": 4522,
      "▁regarding": 4523,
      "▁ordered": 4524,
      "▁elite": 4525,
      "de": 4526,
      "▁barrel": 4527,
      "▁poss": 4528,
      "ming": 4529,
      "▁offered": 4530,
      "▁injury": 4531,
      "▁&am": 4532,
      "▁panel": 4533,
      "▁climbed": 4534,
      "▁urging": 4535,
      "esting": 4536,
      "▁wiki": 4537,
      "▁hut": 4538,
      "▁neigh": 4539,
      "▁firing": 4540,
      "aurs": 4541,
      "▁fried": 4542,
      "▁grap": 4543,
      "▁angels": 4544,
      "▁loads": 4545,
      "▁vine": 4546,
      "▁barking": 4547,
      "▁deadbol": 4548,
      "▁plugged": 4549,
      "ground": 4550,
      "▁decline": 4551,
      "▁uncovered": 4552,
      "▁formal": 4553,
      "▁bible": 4554,
      "▁ruined": 4555,
      "▁teaspoons": 4556,
      "▁bill": 4557,
      "▁proceeded": 4558,
      "▁consumer": 4559,
      "▁eaters": 4560,
      "▁acceptance": 4561,
      "▁alcoho": 4562,
      "▁lacked": 4563,
      "▁winters": 4564,
      "▁crying": 4565,
      "▁continuing": 4566,
      "▁incomes": 4567,
      "▁capt": 4568,
      "▁potato": 4569,
      "▁professors": 4570,
      "▁guaranteeing": 4571,
      "▁can": 4572,
      "▁interv": 4573,
      "▁clock": 4574,
      "▁lectures": 4575,
      "mentation": 4576,
      "▁passcode": 4577,
      "▁speaker": 4578,
      "▁pamph": 4579,
      "▁;": 4580,
      "heet": 4581,
      "ects": 4582,
      "▁dog": 4583,
      "▁niece": 4584,
      "tly": 4585,
      "▁excellence": 4586,
      "▁eggy": 4587,
      "▁whites": 4588,
      "▁examination": 4589,
      "▁law": 4590,
      "▁concer": 4591,
      "▁conte": 4592,
      "ised": 4593,
      "weight": 4594,
      "▁lists": 4595,
      "▁duel": 4596,
      "yness": 4597,
      "▁paradig": 4598,
      "ertainly": 4599,
      "▁wa": 4600,
      "▁recognised": 4601,
      "▁retired": 4602,
      "▁da": 4603,
      "▁hards": 4604,
      "▁performances": 4605,
      "▁achieve": 4606,
      "▁evenings": 4607,
      "▁glare": 4608,
      "▁log": 4609,
      "▁vomit": 4610,
      "▁starfighter": 4611,
      "tw": 4612,
      "▁wonderful": 4613,
      "▁mass": 4614,
      "▁laptop": 4615,
      "▁congestion": 4616,
      "▁sussex": 4617,
      "▁avoiding": 4618,
      "▁concentrating": 4619,
      "▁toaster": 4620,
      "▁last": 4621,
      "▁appren": 4622,
      "▁hot": 4623,
      "▁unity": 4624,
      "▁/": 4625,
      "▁padd": 4626,
      "▁revival": 4627,
      ".co": 4628,
      "▁scramb": 4629,
      "▁eated": 4630,
      "z": 4631,
      "▁fitness": 4632,
      "▁swee": 4633,
      "▁slope": 4634,
      "▁memphis": 4635,
      "▁pursued": 4636,
      "▁quantity": 4637,
      "▁tolerate": 4638,
      "dotes": 4639,
      "▁pleas": 4640,
      "▁horsemen": 4641,
      "▁compound": 4642,
      "mering": 4643,
      "▁mask": 4644,
      "derstand": 4645,
      "▁follows": 4646,
      "yed": 4647,
      "▁comput": 4648,
      "face": 4649,
      "ortion": 4650,
      "▁feather": 4651,
      "▁713": 4652,
      "▁struggling": 4653,
      "liday": 4654,
      "ssi": 4655,
      "uz": 4656,
      "▁judiciary": 4657,
      "me": 4658,
      "▁some": 4659,
      "▁communications": 4660,
      "▁stained": 4661,
      "▁attractions": 4662,
      "ull": 4663,
      "▁generali": 4664,
      "rality": 4665,
      "▁overchar": 4666,
      "▁featured": 4667,
      "icke": 4668,
      "▁ear": 4669,
      "▁jumping": 4670,
      "▁stan": 4671,
      "▁flops": 4672,
      "▁replace": 4673,
      "road": 4674,
      "▁chemistry": 4675,
      "lands": 4676,
      "▁dome": 4677,
      "▁get": 4678,
      "▁thread": 4679,
      "▁route": 4680,
      "▁stolen": 4681,
      "▁table": 4682,
      "▁tenth": 4683,
      "isions": 4684,
      "▁napkins": 4685,
      "places": 4686,
      "▁collectors": 4687,
      "hood": 4688,
      "▁proved": 4689,
      "▁swap": 4690,
      "esis": 4691,
      "▁burbank": 4692,
      "30": 4693,
      "▁lop": 4694,
      "▁pranks": 4695,
      "▁slightly": 4696,
      "▁pic": 4697,
      "▁procession": 4698,
      "▁run": 4699,
      "▁inhab": 4700,
      "▁mentioning": 4701,
      "▁bar": 4702,
      "orying": 4703,
      "▁protocol": 4704,
      "▁bartender": 4705,
      "namon": 4706,
      "▁weekdays": 4707,
      "ips": 4708,
      "▁fraud": 4709,
      "▁symbols": 4710,
      "▁around": 4711,
      "▁waiters": 4712,
      "▁brief": 4713,
      "▁classes": 4714,
      "▁donated": 4715,
      "held": 4716,
      "▁connections": 4717,
      "▁hamp": 4718,
      "▁particular": 4719,
      "▁against": 4720,
      "▁dism": 4721,
      "▁lisa_": 4722,
      "▁25": 4723,
      "▁de": 4724,
      "▁tar": 4725,
      "▁data": 4726,
      "▁regional": 4727,
      "▁sp": 4728,
      "▁ambulance": 4729,
      "▁gosh": 4730,
      "▁kil": 4731,
      "▁guinea": 4732,
      "ouse": 4733,
      "ailed": 4734,
      "hee": 4735,
      "▁tele": 4736,
      "plet": 4737,
      "▁dismissed": 4738,
      "▁upd": 4739,
      "▁bedroom": 4740,
      "▁incorporate": 4741,
      "▁inciting": 4742,
      "▁nerves": 4743,
      "▁households": 4744,
      "▁everybody": 4745,
      "▁altern": 4746,
      "▁patients": 4747,
      "iat": 4748,
      "▁spayed": 4749,
      "information": 4750,
      "▁cer": 4751,
      "▁idea": 4752,
      "▁suff": 4753,
      "clo": 4754,
      "▁bugs": 4755,
      "oop": 4756,
      "▁persists": 4757,
      "▁cham": 4758,
      "▁shift": 4759,
      "lord": 4760,
      "▁licking": 4761,
      "▁icing": 4762,
      "▁experienced": 4763,
      "▁civilization": 4764,
      "▁representative": 4765,
      "▁oops": 4766,
      "the": 4767,
      "geration": 4768,
      "▁agre": 4769,
      "ioration": 4770,
      "uil": 4771,
      "▁favoured": 4772,
      "▁vehicles": 4773,
      "▁font": 4774,
      "▁indeed": 4775,
      "▁sue": 4776,
      "unch": 4777,
      "▁trusted": 4778,
      "▁prel": 4779,
      "ll": 4780,
      "▁countries": 4781,
      "▁marriage": 4782,
      "opes": 4783,
      "▁rect": 4784,
      "▁engineer": 4785,
      "▁sorry": 4786,
      "▁repressed": 4787,
      "▁prohibited": 4788,
      "▁relations": 4789,
      "ained": 4790,
      "▁°": 4791,
      "abouts": 4792,
      "ooling": 4793,
      "▁york": 4794,
      "▁record": 4795,
      "ota": 4796,
      "▁'m": 4797,
      "▁fit": 4798,
      "ishment": 4799,
      "▁fodder": 4800,
      "urch": 4801,
      "▁pumping": 4802,
      "▁lbs": 4803,
      "[SEP]": 4804,
      "▁jam": 4805,
      "hirt": 4806,
      "▁---=": 4807,
      "iki": 4808,
      "▁oppos": 4809,
      "ctions": 4810,
      "ossing": 4811,
      "▁strategy": 4812,
      "▁sacrifices": 4813,
      "phie": 4814,
      "▁tapping": 4815,
      "▁sweats": 4816,
      "▁tone": 4817,
      "▁where": 4818,
      "▁mortality": 4819,
      "iliation": 4820,
      "▁conqu": 4821,
      "whether": 4822,
      "▁admir": 4823,
      "▁sar": 4824,
      "▁shooting": 4825,
      "▁deriv": 4826,
      "▁exhibit": 4827,
      "▁transport": 4828,
      "▁rocket": 4829,
      "▁tur": 4830,
      "ama": 4831,
      "ambment": 4832,
      "letes": 4833,
      "▁leadership": 4834,
      "▁unions": 4835,
      "▁merrygoround": 4836,
      "▁wren": 4837,
      "▁benefited": 4838,
      "'d": 4839,
      "▁cutting": 4840,
      "etown": 4841,
      "▁bord": 4842,
      "▁anymore": 4843,
      "▁furs": 4844,
      "ired": 4845,
      "▁dresser": 4846,
      "▁dictionary": 4847,
      "▁cosplay": 4848,
      "▁manner": 4849,
      "▁coins": 4850,
      "▁si": 4851,
      "▁podc": 4852,
      "48": 4853,
      "▁beams": 4854,
      "▁text.htm": 4855,
      "▁were": 4856,
      "▁prim": 4857,
      "▁credited": 4858,
      "▁tul": 4859,
      "▁exam": 4860,
      "arl": 4861,
      "int": 4862,
      "▁albeit": 4863,
      "▁crave": 4864,
      "▁gover": 4865,
      "▁rating": 4866,
      "▁punctuation": 4867,
      "stered": 4868,
      "▁disclose": 4869,
      "▁grants": 4870,
      "▁foss": 4871,
      ".3": 4872,
      "▁chill": 4873,
      "▁hide": 4874,
      "▁dirt": 4875,
      "▁juice": 4876,
      "▁committed": 4877,
      "▁provided": 4878,
      "ped": 4879,
      "▁1991": 4880,
      "▁advant": 4881,
      "▁stre": 4882,
      "▁twenties": 4883,
      "▁everyone": 4884,
      "▁sew": 4885,
      "▁sunlight": 4886,
      "▁distorts": 4887,
      "▁occurs": 4888,
      "arco": 4889,
      "▁offended": 4890,
      "▁il": 4891,
      "▁ecosystems": 4892,
      "▁embarr": 4893,
      "portun": 4894,
      "▁streets": 4895,
      "▁auth": 4896,
      "▁snap": 4897,
      "▁airplanes": 4898,
      "▁upload": 4899,
      "aph": 4900,
      "▁bitters": 4901,
      "▁altar": 4902,
      "▁aspects": 4903,
      "▁covering": 4904,
      "▁las": 4905,
      "▁autonomy": 4906,
      "▁preheat": 4907,
      "▁builds": 4908,
      "▁possibilities": 4909,
      "ius": 4910,
      "▁equipment": 4911,
      "▁machine": 4912,
      "▁pennies": 4913,
      "▁springs": 4914,
      "▁goodness": 4915,
      "▁invasion": 4916,
      "▁disgust": 4917,
      "▁opened": 4918,
      "▁mechanisms": 4919,
      "▁collaborated": 4920,
      "▁misc": 4921,
      "▁ownership": 4922,
      "▁then": 4923,
      "▁nav": 4924,
      "▁langu": 4925,
      "▁ratify": 4926,
      "▁congr": 4927,
      "▁keep": 4928,
      "▁vs.": 4929,
      "asingly": 4930,
      "ti": 4931,
      "ocent": 4932,
      "▁developments": 4933,
      "agn": 4934,
      "▁musical": 4935,
      "pack": 4936,
      "▁or": 4937,
      "ankie": 4938,
      "otto": 4939,
      "▁successor": 4940,
      "▁profile": 4941,
      "▁sending": 4942,
      "animals": 4943,
      "▁recr": 4944,
      "▁mut": 4945,
      "▁!!!!!!": 4946,
      "▁drives": 4947,
      "tted": 4948,
      "▁expense": 4949,
      "▁end": 4950,
      "6th": 4951,
      "▁bordered": 4952,
      "▁advised": 4953,
      "▁deal": 4954,
      "ettes": 4955,
      "ecess": 4956,
      "—": 4957,
      "▁quartile": 4958,
      "▁shelves": 4959,
      "▁experim": 4960,
      "▁sued": 4961,
      "▁creative": 4962,
      "▁pyth": 4963,
      "▁datab": 4964,
      "▁preparedness": 4965,
      "▁mou": 4966,
      "dness": 4967,
      "▁sandal": 4968,
      "▁lope": 4969,
      "dose": 4970,
      "▁revision": 4971,
      "▁detective": 4972,
      "▁rings": 4973,
      "▁jerk": 4974,
      "▁dates": 4975,
      "▁varieties": 4976,
      "▁mart": 4977,
      "▁bullet": 4978,
      "▁lust": 4979,
      "ech": 4980,
      "▁friends": 4981,
      "▁play": 4982,
      "▁chosen": 4983,
      "▁position": 4984,
      "▁unfortunately": 4985,
      "▁stole": 4986,
      "▁ver": 4987,
      "estern": 4988,
      "ather": 4989,
      "▁holes": 4990,
      "▁claims": 4991,
      "▁restaur": 4992,
      "▁founder": 4993,
      "et": 4994,
      "▁causes": 4995,
      "tiality": 4996,
      "ton": 4997,
      "▁adventure": 4998,
      "▁chased": 4999,
      "▁transition": 5000,
      "▁und": 5001,
      "usions": 5002,
      "▁pause": 5003,
      "▁occupies": 5004,
      "▁japan": 5005,
      "▁benef": 5006,
      "band": 5007,
      "heat": 5008,
      "▁voice": 5009,
      "ears": 5010,
      "mately": 5011,
      "▁solid": 5012,
      "▁kicked": 5013,
      "inus": 5014,
      "▁tinkle": 5015,
      "inks": 5016,
      "▁smoke": 5017,
      "▁sou": 5018,
      "▁well": 5019,
      "lev": 5020,
      "▁reminder": 5021,
      "lico": 5022,
      "▁attendees": 5023,
      "▁absorbing": 5024,
      "▁embarrassment": 5025,
      "▁hijackers": 5026,
      "▁predators": 5027,
      "▁zawah": 5028,
      "▁measures": 5029,
      "yond": 5030,
      "▁racing": 5031,
      "▁fading": 5032,
      "▁mortgage": 5033,
      "ources": 5034,
      "alks": 5035,
      "▁labour": 5036,
      "▁fireman": 5037,
      "▁se": 5038,
      "ona": 5039,
      "▁spout": 5040,
      "overy": 5041,
      "ur": 5042,
      "▁luncheon": 5043,
      "dly": 5044,
      "▁accomp": 5045,
      "lected": 5046,
      "verage": 5047,
      "▁edited": 5048,
      "▁clinic": 5049,
      "▁house-": 5050,
      "▁firetruck": 5051,
      "▁services": 5052,
      "▁ruler": 5053,
      "/2005": 5054,
      "▁eats": 5055,
      "▁kept": 5056,
      "azed": 5057,
      "▁erase": 5058,
      "▁faded": 5059,
      "▁expel": 5060,
      "▁chic": 5061,
      "isting": 5062,
      "end": 5063,
      "▁recommendations": 5064,
      "▁seed": 5065,
      "▁salespeople": 5066,
      "▁skittles": 5067,
      "sters": 5068,
      "▁dipl": 5069,
      "yro": 5070,
      "asted": 5071,
      "▁lem": 5072,
      "▁apartment": 5073,
      "▁yoyo": 5074,
      "▁pleasant": 5075,
      "ituting": 5076,
      "tie": 5077,
      "▁preci": 5078,
      "▁htt": 5079,
      "▁learn": 5080,
      "▁helps": 5081,
      "▁numbness": 5082,
      "▁involvement": 5083,
      "enet": 5084,
      "▁mor": 5085,
      "▁jelly": 5086,
      "▁assume": 5087,
      "▁enj": 5088,
      "▁printed": 5089,
      "▁urged": 5090,
      "bone": 5091,
      "▁napkin": 5092,
      "petence": 5093,
      "▁ultras": 5094,
      "▁alphabet": 5095,
      "head": 5096,
      "▁filing": 5097,
      "lit": 5098,
      "▁timer": 5099,
      "entally": 5100,
      "iently": 5101,
      "▁horm": 5102,
      "using": 5103,
      "▁grew": 5104,
      "▁testament": 5105,
      "▁crepe": 5106,
      "▁nurse": 5107,
      "▁asser": 5108,
      "lines": 5109,
      "lin": 5110,
      "▁midd": 5111,
      "▁notebook": 5112,
      "▁submit": 5113,
      "izing": 5114,
      "▁pep": 5115,
      "▁missions": 5116,
      "▁stay": 5117,
      "▁death": 5118,
      "▁arri": 5119,
      "▁titles": 5120,
      "▁deny": 5121,
      "▁correc": 5122,
      "anoma": 5123,
      "oise": 5124,
      "▁thus": 5125,
      "▁news": 5126,
      "▁pay": 5127,
      "▁oneself": 5128,
      "▁designs": 5129,
      "we": 5130,
      "▁civilians": 5131,
      "▁pressures": 5132,
      "▁complim": 5133,
      "▁drank": 5134,
      "▁mitch": 5135,
      "▁opponents": 5136,
      "▁ama": 5137,
      "▁costumes": 5138,
      "▁direction": 5139,
      "gregation": 5140,
      "loading": 5141,
      "▁20": 5142,
      "▁suggestion": 5143,
      "▁sculp": 5144,
      "▁budget": 5145,
      "▁notion": 5146,
      "▁jigsaw": 5147,
      "tery": 5148,
      "▁realities": 5149,
      "▁ar": 5150,
      "▁bat": 5151,
      "▁obligations": 5152,
      "▁slid": 5153,
      "▁dry": 5154,
      "▁make": 5155,
      "▁wee": 5156,
      "▁reins": 5157,
      "▁discrepancy": 5158,
      "▁outsiders": 5159,
      "40": 5160,
      "▁couples": 5161,
      "▁dialects": 5162,
      "▁feeds": 5163,
      "▁diving": 5164,
      "▁pancakes": 5165,
      "ithst": 5166,
      "▁all": 5167,
      "▁plus": 5168,
      "▁depending": 5169,
      "▁eh": 5170,
      "▁determination": 5171,
      "▁tai": 5172,
      "▁flourishing": 5173,
      "▁yr": 5174,
      "mission": 5175,
      "ake": 5176,
      "▁courtesy": 5177,
      "▁symbolizes": 5178,
      "inians": 5179,
      "▁banana": 5180,
      "▁circles": 5181,
      "fl": 5182,
      "▁repetition": 5183,
      "▁apologize": 5184,
      "▁comp": 5185,
      "▁bri": 5186,
      "▁signific": 5187,
      "-house": 5188,
      "▁pow": 5189,
      "dent": 5190,
      "rating": 5191,
      "oval": 5192,
      "ctuary": 5193,
      "▁manatees": 5194,
      "our": 5195,
      "▁stores": 5196,
      "▁phones": 5197,
      "▁ena": 5198,
      "▁type": 5199,
      "hole": 5200,
      "▁affected": 5201,
      "▁refl": 5202,
      "bness": 5203,
      "▁proph": 5204,
      "▁again": 5205,
      "name": 5206,
      "▁whale": 5207,
      "▁relationships": 5208,
      "▁drums": 5209,
      "▁refugee": 5210,
      "estone": 5211,
      "▁represents": 5212,
      "▁combining": 5213,
      "▁sugges": 5214,
      "▁skit": 5215,
      "▁implemented": 5216,
      "eenth": 5217,
      "▁chewed": 5218,
      "▁laser": 5219,
      "▁hambur": 5220,
      "▁organize": 5221,
      "enced": 5222,
      "▁appear": 5223,
      "▁datasheet": 5224,
      "▁transf": 5225,
      "▁dealt": 5226,
      "▁aboard": 5227,
      "▁doctrine": 5228,
      "▁grapes": 5229,
      "▁magistr": 5230,
      "▁posture": 5231,
      "▁sust": 5232,
      "▁podcast": 5233,
      "▁rabb": 5234,
      "▁primarily": 5235,
      "oe": 5236,
      "dered": 5237,
      "▁exac": 5238,
      "▁anything": 5239,
      "▁terr": 5240,
      "▁hams": 5241,
      "inched": 5242,
      "▁tragicomed": 5243,
      "▁federal": 5244,
      "▁heel": 5245,
      "▁joe": 5246,
      "▁eval": 5247,
      "▁sank": 5248,
      "oli": 5249,
      "▁assump": 5250,
      "▁harbour": 5251,
      "▁doctorate": 5252,
      "▁conducted": 5253,
      "▁sacrificed": 5254,
      "ult": 5255,
      "▁neo": 5256,
      "▁cubism": 5257,
      "ase": 5258,
      "▁rom": 5259,
      "00s": 5260,
      "iversity": 5261,
      "▁gathering": 5262,
      "▁farce": 5263,
      "▁victor": 5264,
      "atos": 5265,
      "▁perspectives": 5266,
      "▁shakes": 5267,
      "▁privile": 5268,
      "▁official": 5269,
      "▁joined": 5270,
      "▁resembled": 5271,
      "gin": 5272,
      "erential": 5273,
      "▁locker": 5274,
      "▁coun": 5275,
      "-pos": 5276,
      "▁that": 5277,
      "▁palace": 5278,
      "▁brig": 5279,
      "ome": 5280,
      "ve": 5281,
      "▁sandwiches": 5282,
      "angle": 5283,
      "▁beginning": 5284,
      "▁actor": 5285,
      "▁subject": 5286,
      "▁abbreviation": 5287,
      "▁tabled": 5288,
      "▁wolf": 5289,
      "▁director": 5290,
      "inated": 5291,
      "▁robot": 5292,
      "▁empanadas": 5293,
      "▁left": 5294,
      "▁hack": 5295,
      "▁thank": 5296,
      "▁rall": 5297,
      "▁dispar": 5298,
      "▁identities": 5299,
      "bscrib": 5300,
      "▁stripes": 5301,
      "▁tra": 5302,
      "▁crossing": 5303,
      "▁settled": 5304,
      "▁spell": 5305,
      "ees": 5306,
      "▁199": 5307,
      "▁bladder": 5308,
      "aun": 5309,
      "▁thanx": 5310,
      "▁scammers": 5311,
      "▁husbands": 5312,
      "▁whether": 5313,
      "otated": 5314,
      "▁archbishop": 5315,
      "▁draws": 5316,
      "▁lever": 5317,
      "▁mohammed": 5318,
      "▁fulfill": 5319,
      "▁bapt": 5320,
      "▁documentation": 5321,
      "▁management": 5322,
      "▁mezza": 5323,
      "▁sel": 5324,
      "▁taxes": 5325,
      "life": 5326,
      "▁bombings": 5327,
      "▁norm": 5328,
      "▁sunk": 5329,
      "▁commem": 5330,
      "nish": 5331,
      "▁glass": 5332,
      "▁almon": 5333,
      "▁12": 5334,
      "▁purpos": 5335,
      "▁describe": 5336,
      "▁centre": 5337,
      "▁chocol": 5338,
      "▁sweetie": 5339,
      "▁stampede": 5340,
      "eb": 5341,
      "▁persu": 5342,
      "▁participating": 5343,
      "▁confidante": 5344,
      "enn": 5345,
      "▁cod": 5346,
      "anc": 5347,
      "▁sample": 5348,
      "alize": 5349,
      "espan": 5350,
      "▁elk": 5351,
      "▁crossed": 5352,
      "▁gallery": 5353,
      "press": 5354,
      "▁vegas": 5355,
      "▁push": 5356,
      "nered": 5357,
      "▁low": 5358,
      "▁porch": 5359,
      "▁negative": 5360,
      "kles": 5361,
      "alised": 5362,
      "▁fare": 5363,
      "........": 5364,
      "▁peanuts": 5365,
      "▁march": 5366,
      "augh": 5367,
      "μ": 5368,
      "▁transferred": 5369,
      "▁occupying": 5370,
      "▁ta": 5371,
      "how": 5372,
      "isms": 5373,
      "dom": 5374,
      "ecution": 5375,
      "▁milks": 5376,
      "ever": 5377,
      "▁employ": 5378,
      "f-": 5379,
      "moon": 5380,
      "ce": 5381,
      "▁six": 5382,
      "▁investig": 5383,
      "▁retrosp": 5384,
      "▁along": 5385,
      "▁restriction": 5386,
      "▁website": 5387,
      "▁shelf": 5388,
      "acks": 5389,
      "sets": 5390,
      "▁provoked": 5391,
      "▁crack": 5392,
      "▁plaster": 5393,
      "▁kilometers": 5394,
      "▁districts": 5395,
      "▁approached": 5396,
      "mping": 5397,
      "rem": 5398,
      "▁postage": 5399,
      "▁grades": 5400,
      "▁tended": 5401,
      "▁e-m": 5402,
      "adas": 5403,
      "▁index": 5404,
      "rial": 5405,
      "▁soccer": 5406,
      "▁jug": 5407,
      "▁micros": 5408,
      "▁labor": 5409,
      "▁overal": 5410,
      "▁tum": 5411,
      "▁interactions": 5412,
      "infect": 5413,
      "ocks": 5414,
      "▁pumpkin": 5415,
      "▁poles": 5416,
      "▁spect": 5417,
      ".st": 5418,
      "▁sustained": 5419,
      "▁defended": 5420,
      "▁arti": 5421,
      "▁suppressed": 5422,
      "erc": 5423,
      "fed": 5424,
      "▁horrors": 5425,
      "▁colony": 5426,
      "ondad": 5427,
      "▁ribbons": 5428,
      "▁garbage": 5429,
      "▁displaced": 5430,
      "▁guil": 5431,
      "▁include": 5432,
      "▁breakthrough": 5433,
      "▁7": 5434,
      "▁military": 5435,
      "▁grass": 5436,
      "▁rapids": 5437,
      "oodle": 5438,
      "uator": 5439,
      "▁mineral": 5440,
      "▁carnival": 5441,
      "uggle": 5442,
      "▁answers": 5443,
      "▁lap": 5444,
      "pre": 5445,
      "▁cancel": 5446,
      "▁cries": 5447,
      "▁civ": 5448,
      "▁tempt": 5449,
      "▁evolution": 5450,
      "▁pretend": 5451,
      "oy": 5452,
      "ightened": 5453,
      "▁dark": 5454,
      "▁exter": 5455,
      "▁initiated": 5456,
      "▁liking": 5457,
      "▁mexican": 5458,
      "▁voc": 5459,
      "▁pledged": 5460,
      "3n": 5461,
      "▁tribulation": 5462,
      "1": 5463,
      "▁austral": 5464,
      "▁null": 5465,
      "▁locks": 5466,
      "▁haircut": 5467,
      "▁appointed": 5468,
      "▁deb": 5469,
      "aping": 5470,
      "▁scanned": 5471,
      "ribution": 5472,
      "▁salaries": 5473,
      "▁thomas": 5474,
      "▁ensures": 5475,
      "▁malls": 5476,
      "▁connect": 5477,
      "mbing": 5478,
      "▁diff": 5479,
      "▁techniqu": 5480,
      "inny": 5481,
      "▁claim": 5482,
      "▁fourth": 5483,
      "▁expect": 5484,
      "▁watering": 5485,
      "ringing": 5486,
      "▁mont": 5487,
      "▁accessing": 5488,
      "cades": 5489,
      "burg": 5490,
      "master": 5491,
      "▁hosting": 5492,
      "▁flashing": 5493,
      "cape": 5494,
      "cano": 5495,
      "▁hus": 5496,
      "▁standards": 5497,
      "▁dil": 5498,
      "wash": 5499,
      "▁inte": 5500,
      "▁mood": 5501,
      "▁predicted": 5502,
      "▁dun": 5503,
      "py": 5504,
      "▁mapping": 5505,
      "▁thirty": 5506,
      "▁courses": 5507,
      "▁features": 5508,
      "▁conve": 5509,
      "▁iraqi": 5510,
      "▁,?": 5511,
      "ulated": 5512,
      "▁deck": 5513,
      "▁seems": 5514,
      "▁distributing": 5515,
      "▁calculating": 5516,
      "▁ethnicity": 5517,
      "▁dursleys": 5518,
      "▁atrocities": 5519,
      "ł": 5520,
      "sour": 5521,
      "▁exploding": 5522,
      "▁public": 5523,
      "▁update": 5524,
      "let": 5525,
      "▁decre": 5526,
      "orum": 5527,
      "pub": 5528,
      "acing": 5529,
      "▁capability": 5530,
      "▁incorporated": 5531,
      "oved": 5532,
      "▁robots": 5533,
      "▁geography": 5534,
      "▁quest": 5535,
      "▁tucked": 5536,
      "▁non": 5537,
      "▁vac": 5538,
      "rs": 5539,
      ".net": 5540,
      "▁vow": 5541,
      "ice": 5542,
      "▁physi": 5543,
      "ung": 5544,
      "ulf": 5545,
      "▁names": 5546,
      "▁stab": 5547,
      "▁immersed": 5548,
      "po": 5549,
      "▁goes": 5550,
      "utter": 5551,
      "▁fake": 5552,
      "▁spons": 5553,
      "▁goo": 5554,
      "oplane": 5555,
      "▁buildings": 5556,
      "▁correctly": 5557,
      "▁production": 5558,
      "▁invoices": 5559,
      "▁folio": 5560,
      "▁volume": 5561,
      "der": 5562,
      "▁adam": 5563,
      "▁benefits": 5564,
      "▁constit": 5565,
      "▁humanities": 5566,
      "▁greetings": 5567,
      "▁marie": 5568,
      "▁compensate": 5569,
      "▁real": 5570,
      "uce": 5571,
      "▁weap": 5572,
      "▁irritation": 5573,
      "olence": 5574,
      "iencies": 5575,
      "ways": 5576,
      "▁backside": 5577,
      "▁celebrating": 5578,
      "hoods": 5579,
      "▁iron": 5580,
      "▁camera": 5581,
      "▁transmission": 5582,
      "ingle": 5583,
      "▁pavement": 5584,
      "impl": 5585,
      "▁fx": 5586,
      "igital": 5587,
      "▁clust": 5588,
      "▁credentials": 5589,
      "▁regist": 5590,
      "bie": 5591,
      "icide": 5592,
      "▁reflection": 5593,
      "rowave": 5594,
      "ectives": 5595,
      "argo": 5596,
      "▁childhood": 5597,
      "▁spots": 5598,
      "kets": 5599,
      "zai": 5600,
      "▁soups": 5601,
      "▁divided": 5602,
      "utor": 5603,
      "▁optim": 5604,
      "▁spring": 5605,
      "▁afghanistan": 5606,
      "educ": 5607,
      "▁stic": 5608,
      "▁fat": 5609,
      "▁diagnosed": 5610,
      "▁desire": 5611,
      "▁column": 5612,
      "▁ind": 5613,
      "▁waning": 5614,
      "▁clause": 5615,
      "▁remainder": 5616,
      "▁hire": 5617,
      "ano": 5618,
      "▁reforms": 5619,
      "res": 5620,
      "▁loan": 5621,
      "▁0": 5622,
      "▁annex": 5623,
      "▁collections": 5624,
      "▁compet": 5625,
      "▁consent": 5626,
      "▁os": 5627,
      "▁underm": 5628,
      "au": 5629,
      "▁freedom": 5630,
      "▁shone": 5631,
      "pensive": 5632,
      "empor": 5633,
      "▁christi": 5634,
      "_re": 5635,
      "icult": 5636,
      "▁elements": 5637,
      "goround": 5638,
      "gn": 5639,
      "6-1.xls": 5640,
      "▁forms": 5641,
      "▁convenience": 5642,
      "unh": 5643,
      "▁companions": 5644,
      "stairs": 5645,
      "▁follow": 5646,
      "▁p.m": 5647,
      "▁converting": 5648,
      "'s": 5649,
      "▁doggie": 5650,
      "aughter": 5651,
      "▁looks": 5652,
      "▁distortion": 5653,
      "▁flic": 5654,
      "▁but": 5655,
      "▁brass": 5656,
      "▁poses": 5657,
      "ecut": 5658,
      "▁bitmap": 5659,
      "▁hats": 5660,
      "cers": 5661,
      "ery": 5662,
      "▁whoever": 5663,
      "▁municipalities": 5664,
      "▁ech": 5665,
      "▁subsid": 5666,
      "more": 5667,
      "▁sect": 5668,
      "obyl": 5669,
      "▁channels": 5670,
      "▁disappointment": 5671,
      "alet": 5672,
      "▁less": 5673,
      "▁attracted": 5674,
      "mented": 5675,
      "▁rober": 5676,
      "onic": 5677,
      "achment": 5678,
      "▁interviews": 5679,
      "▁immunity": 5680,
      "▁stared": 5681,
      "▁existing": 5682,
      "▁arsen": 5683,
      "▁difficulties": 5684,
      "▁safety": 5685,
      "▁licenses": 5686,
      "ament": 5687,
      "▁recurring": 5688,
      "▁joke": 5689,
      "æ": 5690,
      "▁anticipated": 5691,
      "▁issu": 5692,
      "▁smuggling": 5693,
      "▁nevertheless": 5694,
      "▁animation": 5695,
      "▁vice-president": 5696,
      "lec": 5697,
      "▁federalism": 5698,
      "▁hitting": 5699,
      "▁boing": 5700,
      "imb": 5701,
      "rics": 5702,
      "qui": 5703,
      "tick": 5704,
      "▁dest": 5705,
      "▁formats": 5706,
      "▁madness": 5707,
      "▁trespass": 5708,
      "▁religions": 5709,
      "▁gras": 5710,
      "erry": 5711,
      "▁departs": 5712,
      "▁endorse": 5713,
      "▁fro": 5714,
      "▁okay": 5715,
      "▁tweeted": 5716,
      "▁depend": 5717,
      "▁necess": 5718,
      "▁dri": 5719,
      "▁clothes": 5720,
      "▁difficult": 5721,
      "▁coali": 5722,
      "▁full": 5723,
      "▁knocked": 5724,
      "gan": 5725,
      "▁proc": 5726,
      "▁refusing": 5727,
      "▁times": 5728,
      "▁fireplaces": 5729,
      "▁bachel": 5730,
      "▁likeness": 5731,
      "▁sing": 5732,
      "▁du": 5733,
      "▁fashion": 5734,
      "▁transmedia": 5735,
      "lets": 5736,
      "▁guided": 5737,
      "▁tournament": 5738,
      "▁ang": 5739,
      "▁chair": 5740,
      "▁bunch": 5741,
      "▁steph": 5742,
      "▁happening": 5743,
      "alecki": 5744,
      "▁dodge": 5745,
      "▁appreciated": 5746,
      "faced": 5747,
      "▁community": 5748,
      "▁obviously": 5749,
      "▁ov": 5750,
      "▁enriched": 5751,
      "▁computer": 5752,
      "!!!!!!!!": 5753,
      "▁cleric": 5754,
      "▁guidance": 5755,
      "ls": 5756,
      "▁’’": 5757,
      "▁sat": 5758,
      "ed": 5759,
      "▁somehow": 5760,
      "▁opportun": 5761,
      "▁harmonisation": 5762,
      "med": 5763,
      "▁rub": 5764,
      "works": 5765,
      "▁ripping": 5766,
      "▁clumps": 5767,
      "▁buds": 5768,
      "▁vary": 5769,
      "ried": 5770,
      "yme": 5771,
      "▁item": 5772,
      "▁love": 5773,
      "▁summaries": 5774,
      "▁reindeer": 5775,
      "▁verge": 5776,
      "▁strap": 5777,
      "▁dall": 5778,
      "ory": 5779,
      "▁suddenly": 5780,
      "nce": 5781,
      "▁modification": 5782,
      "ilar": 5783,
      "▁escaping": 5784,
      "▁month": 5785,
      "▁limb": 5786,
      "▁ultimately": 5787,
      "▁do": 5788,
      "bs": 5789,
      "cade": 5790,
      "▁regar": 5791,
      "▁studies": 5792,
      "▁respect": 5793,
      "▁camps": 5794,
      "▁supporting": 5795,
      "▁shelt": 5796,
      "▁focuses": 5797,
      "▁payers": 5798,
      "▁amendment": 5799,
      "-sm": 5800,
      "▁myself": 5801,
      "▁wind": 5802,
      "▁canc": 5803,
      "struc": 5804,
      "▁sensing": 5805,
      "▁aimed": 5806,
      "▁forgotten": 5807,
      "▁deed": 5808,
      "▁bee": 5809,
      "▁slang": 5810,
      "▁react": 5811,
      "▁financing": 5812,
      "▁leaving": 5813,
      "▁pandemic": 5814,
      "▁came": 5815,
      "▁ed": 5816,
      "▁gloves": 5817,
      "▁warn": 5818,
      "▁therapist": 5819,
      "▁c": 5820,
      "▁deaths": 5821,
      "▁tup": 5822,
      "▁campaigns": 5823,
      "armacy": 5824,
      "▁oper": 5825,
      "▁begun": 5826,
      "▁pasta": 5827,
      "▁wol": 5828,
      "▁naming": 5829,
      "▁recognize": 5830,
      "▁allig": 5831,
      "▁sl": 5832,
      "▁editions": 5833,
      "▁polaro": 5834,
      "▁hearings": 5835,
      "lock": 5836,
      "▁reviewers": 5837,
      "▁scholars": 5838,
      "osure": 5839,
      "▁cowboy": 5840,
      "▁investigating": 5841,
      "▁convince": 5842,
      "sd": 5843,
      "▁fec": 5844,
      "▁ego": 5845,
      "▁bone": 5846,
      "▁confirmed": 5847,
      "▁commentary": 5848,
      "▁induced": 5849,
      "▁horizon": 5850,
      "▁cases": 5851,
      "▁travelling": 5852,
      "▁60": 5853,
      "▁handles": 5854,
      "▁surprisingly": 5855,
      "wards": 5856,
      "▁tant": 5857,
      "▁compl": 5858,
      "▁banner": 5859,
      "▁appointees": 5860,
      "▁applied": 5861,
      "orter": 5862,
      "▁conservation": 5863,
      "▁contacting": 5864,
      "▁sealed": 5865,
      "▁upon": 5866,
      "▁numb": 5867,
      "ehouse": 5868,
      "+work": 5869,
      "▁alto": 5870,
      "lihood": 5871,
      "▁biologists": 5872,
      "▁villages": 5873,
      "saw": 5874,
      "rim": 5875,
      "▁cow": 5876,
      "▁solved": 5877,
      "ipp": 5878,
      "ibs": 5879,
      "▁un": 5880,
      "▁self": 5881,
      "▁met": 5882,
      "nosis": 5883,
      "gl": 5884,
      "▁point": 5885,
      "▁radio": 5886,
      "dibly": 5887,
      "▁urine": 5888,
      "▁destin": 5889,
      "ick": 5890,
      "▁fast": 5891,
      "aking": 5892,
      "ottable": 5893,
      "▁uncle": 5894,
      "lem": 5895,
      "▁blurred": 5896,
      "▁stuck": 5897,
      "rib": 5898,
      "▁prepare": 5899,
      "▁coin": 5900,
      "▁expand": 5901,
      "▁stems": 5902,
      "eck": 5903,
      "▁ruins": 5904,
      "▁basket": 5905,
      "tite": 5906,
      "▁compliments": 5907,
      "▁flowed": 5908,
      "ning": 5909,
      "ent": 5910,
      "▁rev": 5911,
      "▁lift": 5912,
      "▁exe": 5913,
      "▁sources": 5914,
      "ft": 5915,
      "cause": 5916,
      "▁linen": 5917,
      "▁acknowledged": 5918,
      "▁later": 5919,
      "▁dealing": 5920,
      "ocentrism": 5921,
      "vance": 5922,
      "▁reass": 5923,
      "▁assembled": 5924,
      "ralized": 5925,
      "uter": 5926,
      "▁organization": 5927,
      "uff": 5928,
      "▁codes": 5929,
      "▁audiences": 5930,
      "▁filtered": 5931,
      "▁episode": 5932,
      "▁schools": 5933,
      "▁dire": 5934,
      "▁sarah": 5935,
      "▁disappear": 5936,
      "▁exch": 5937,
      "sent": 5938,
      "▁wing": 5939,
      "▁max": 5940,
      "▁something": 5941,
      "▁spl": 5942,
      "▁dreams": 5943,
      "▁parad": 5944,
      "▁muff": 5945,
      "▁historians": 5946,
      "▁rele": 5947,
      "▁flats": 5948,
      "▁twisted": 5949,
      "▁sisal": 5950,
      "ly": 5951,
      "▁legislation": 5952,
      "▁quan": 5953,
      "▁distr": 5954,
      "▁thru": 5955,
      "locked": 5956,
      "▁pills": 5957,
      "▁legos": 5958,
      "▁galax": 5959,
      "sal": 5960,
      "▁reputation": 5961,
      "▁portions": 5962,
      "--": 5963,
      "▁sensitivity": 5964,
      "▁batter": 5965,
      "▁)": 5966,
      "pathy": 5967,
      "▁rebels": 5968,
      "▁deregulation": 5969,
      "inking": 5970,
      "inqu": 5971,
      "▁iod": 5972,
      "▁viet": 5973,
      "▁supers": 5974,
      "66-1.doc": 5975,
      "▁volley": 5976,
      "▁karen": 5977,
      "▁hissed": 5978,
      "▁trav": 5979,
      "▁movements": 5980,
      "iol": 5981,
      "▁cas": 5982,
      "tainty": 5983,
      "▁dece": 5984,
      "--------+----------------": 5985,
      "▁forwar": 5986,
      "▁purchasing": 5987,
      "▁youth": 5988,
      "▁gord": 5989,
      "▁activist": 5990,
      "▁no": 5991,
      "ka": 5992,
      "▁arrog": 5993,
      "▁finals": 5994,
      "▁cash": 5995,
      "▁contribution": 5996,
      "▁2003": 5997,
      "▁sug": 5998,
      "▁ident": 5999,
      "ison": 6000,
      "▁improve": 6001,
      "ounds": 6002,
      "emination": 6003,
      "lusion": 6004,
      "▁scan": 6005,
      "▁strangers": 6006,
      "llified": 6007,
      "estic": 6008,
      "▁fiction": 6009,
      "elected": 6010,
      "▁alt.animals.cat": 6011,
      "hibited": 6012,
      "??": 6013,
      "▁curled": 6014,
      "▁generally": 6015,
      "▁stupid": 6016,
      "thma": 6017,
      "▁presidents": 6018,
      "ency": 6019,
      "▁identity": 6020,
      "▁hy": 6021,
      "▁etc.": 6022,
      "▁fend": 6023,
      "▁computers": 6024,
      "▁atlanta": 6025,
      "▁sectors": 6026,
      "▁sli": 6027,
      "▁entourage": 6028,
      "esity": 6029,
      "▁shoe": 6030,
      "▁mild": 6031,
      "▁release": 6032,
      "▁musharraf": 6033,
      "▁excluded": 6034,
      "eph": 6035,
      "zema": 6036,
      "▁comedy": 6037,
      "▁comple": 6038,
      "▁x": 6039,
      "ʃ": 6040,
      "▁yarns": 6041,
      "ance": 6042,
      "ucked": 6043,
      "▁fist": 6044,
      "▁ann": 6045,
      "▁manners": 6046,
      "▁descendants": 6047,
      "▁beyond": 6048,
      "▁murder": 6049,
      "▁reop": 6050,
      "▁flung": 6051,
      "huh": 6052,
      "▁{": 6053,
      "▁typically": 6054,
      "▁lost": 6055,
      "▁alt.animals.": 6056,
      "▁reck": 6057,
      "▁name": 6058,
      "▁broth": 6059,
      "eti": 6060,
      "▁most": 6061,
      "▁thirds": 6062,
      "ologue": 6063,
      "▁commun": 6064,
      "▁consented": 6065,
      "▁carve": 6066,
      "▁sovereignty": 6067,
      "eets": 6068,
      "pan": 6069,
      "▁friend": 6070,
      "▁jealousy": 6071,
      "file": 6072,
      "▁coming": 6073,
      "▁forum": 6074,
      "▁gaining": 6075,
      "▁shapes": 6076,
      "rims": 6077,
      "▁hos": 6078,
      "▁towels": 6079,
      "ou": 6080,
      "▁shame": 6081,
      "łod": 6082,
      "▁phd": 6083,
      "▁derrick": 6084,
      "▁aircraft": 6085,
      "▁3": 6086,
      "▁grow": 6087,
      "▁pre": 6088,
      "aff": 6089,
      "▁box": 6090,
      "oon": 6091,
      "▁competition": 6092,
      "bag": 6093,
      "▁launching": 6094,
      "▁piz": 6095,
      "▁presents": 6096,
      "ear": 6097,
      "▁trouble": 6098,
      "▁|": 6099,
      "alls": 6100,
      "▁santorum": 6101,
      "cret": 6102,
      "▁confine": 6103,
      "▁photograp": 6104,
      "oming": 6105,
      "▁ate": 6106,
      "▁prison": 6107,
      "▁glove": 6108,
      "▁got": 6109,
      "oot": 6110,
      "▁letter": 6111,
      "▁masterpieces": 6112,
      "▁clauses": 6113,
      "▁frosting": 6114,
      "▁foundation": 6115,
      "▁insert": 6116,
      "▁drafts": 6117,
      "▁homeopath": 6118,
      "▁x33": 6119,
      "▁substituted": 6120,
      "▁prec": 6121,
      "▁breathing": 6122,
      "▁affecting": 6123,
      "▁saying": 6124,
      "▁oc": 6125,
      "▁buses": 6126,
      "▁transparency": 6127,
      "▁reservations": 6128,
      "wering": 6129,
      "▁wet": 6130,
      "▁m.": 6131,
      "▁wager": 6132,
      "▁instr": 6133,
      "▁o": 6134,
      "▁sugg": 6135,
      "▁vitamin": 6136,
      "icate": 6137,
      "½": 6138,
      "▁fasc": 6139,
      "resses": 6140,
      "▁barret": 6141,
      "▁commentators": 6142,
      "lete": 6143,
      "▁mumbled": 6144,
      "▁growing": 6145,
      "▁showing": 6146,
      "▁lamb": 6147,
      "▁radicals": 6148,
      "▁arranged": 6149,
      "▁takeoff": 6150,
      "▁cooperate": 6151,
      "ruary": 6152,
      "xim": 6153,
      "▁technical": 6154,
      "▁hal": 6155,
      "▁afric": 6156,
      "▁moham": 6157,
      "▁hull": 6158,
      "▁convergence": 6159,
      "▁meantime": 6160,
      "▁lea": 6161,
      "▁shovel": 6162,
      "▁roared": 6163,
      "▁pounce": 6164,
      "▁industr": 6165,
      "▁mitigated": 6166,
      "glasses": 6167,
      "▁land": 6168,
      "▁fifteen": 6169,
      "▁perm": 6170,
      "▁spending": 6171,
      "▁republic": 6172,
      "▁forb": 6173,
      "▁fin": 6174,
      "▁varied": 6175,
      "ame": 6176,
      "▁lav": 6177,
      "▁herself": 6178,
      "▁heavens": 6179,
      "▁activity": 6180,
      "▁like": 6181,
      "▁nonsense": 6182,
      "▁bigger": 6183,
      "▁width": 6184,
      "▁15": 6185,
      "▁kitty": 6186,
      "▁larg": 6187,
      "▁considering": 6188,
      "▁wake": 6189,
      "90s": 6190,
      "▁terrorist": 6191,
      "▁70s": 6192,
      "▁imprisonment": 6193,
      "tc": 6194,
      "▁share": 6195,
      "▁stripe": 6196,
      "uela": 6197,
      "ware": 6198,
      "▁zero": 6199,
      "undity": 6200,
      "▁passengers": 6201,
      "vices": 6202,
      "▁vegetation": 6203,
      "▁dined": 6204,
      "fortable": 6205,
      "▁organisations": 6206,
      "▁repos": 6207,
      "▁departing": 6208,
      "enings": 6209,
      "▁ri": 6210,
      "▁host": 6211,
      "▁reflect": 6212,
      "▁restrictions": 6213,
      "▁beauty": 6214,
      "▁picnic": 6215,
      "▁auster": 6216,
      "▁sour": 6217,
      "▁environments": 6218,
      "▁brains": 6219,
      "▁pact": 6220,
      "▁imprisoned": 6221,
      "▁shit": 6222,
      "▁videoc": 6223,
      "▁secretaries": 6224,
      "517": 6225,
      "▁alumin": 6226,
      "ef": 6227,
      "▁na": 6228,
      "▁dash": 6229,
      "anger": 6230,
      "atme": 6231,
      "ad": 6232,
      "▁find": 6233,
      "▁hub": 6234,
      "▁surviv": 6235,
      "▁reality": 6236,
      "▁sucks": 6237,
      "▁concepts": 6238,
      "▁regimes": 6239,
      "▁dinos": 6240,
      "▁border": 6241,
      "▁charter": 6242,
      "▁distorted": 6243,
      "▁mentality": 6244,
      "▁conducting": 6245,
      "▁invent": 6246,
      "▁hiding": 6247,
      "ish": 6248,
      "▁x3": 6249,
      "▁childcare": 6250,
      "age": 6251,
      "▁proof": 6252,
      "▁compliment": 6253,
      "▁offensive": 6254,
      "▁helicop": 6255,
      "▁momma": 6256,
      "hus": 6257,
      "▁uncertainty": 6258,
      "▁endeav": 6259,
      "▁speech": 6260,
      "▁ail": 6261,
      "▁disint": 6262,
      "▁revolution": 6263,
      "▁police": 6264,
      "▁attend": 6265,
      "▁gardens": 6266,
      "▁praise": 6267,
      "▁dissemination": 6268,
      "▁expiration": 6269,
      "rise": 6270,
      "▁i": 6271,
      "▁horns": 6272,
      "prisingly": 6273,
      "▁lasts": 6274,
      "▁islamic": 6275,
      "▁signed": 6276,
      "▁ki": 6277,
      "#": 6278,
      "▁soldi": 6279,
      "onom": 6280,
      "▁walnut": 6281,
      "ae": 6282,
      "▁discip": 6283,
      "▁here": 6284,
      "ima": 6285,
      "▁matt": 6286,
      "▁tastes": 6287,
      "oving": 6288,
      "▁spend": 6289,
      "▁co": 6290,
      "▁prayer": 6291,
      "▁el": 6292,
      "▁fountain": 6293,
      "▁shoo": 6294,
      "▁bands": 6295,
      "ject": 6296,
      "▁squeeze": 6297,
      "ordination": 6298,
      "▁approxim": 6299,
      "formation": 6300,
      "bb": 6301,
      "tit": 6302,
      "▁socialist": 6303,
      "▁featuring": 6304,
      "rism": 6305,
      "▁resulting": 6306,
      "tied": 6307,
      "ley": 6308,
      "▁hairsty": 6309,
      "▁hay": 6310,
      "▁haven": 6311,
      "▁fundament": 6312,
      "hocks": 6313,
      "▁subform": 6314,
      "▁movie": 6315,
      "▁hur": 6316,
      "+room": 6317,
      "▁underlying": 6318,
      "▁fork": 6319,
      "arture": 6320,
      "▁won": 6321,
      "apolis": 6322,
      "rolled": 6323,
      "ak": 6324,
      "▁doctor": 6325,
      "iented": 6326,
      "▁rockets": 6327,
      "ording": 6328,
      "sually": 6329,
      "▁iss": 6330,
      "eriously": 6331,
      "▁magazine": 6332,
      "▁carol": 6333,
      "▁dvd": 6334,
      "ble": 6335,
      "▁fact": 6336,
      "▁teach": 6337,
      "▁percenti": 6338,
      "wit": 6339,
      "03": 6340,
      "▁curi": 6341,
      "▁adjustments": 6342,
      "▁spilled": 6343,
      "vely": 6344,
      "▁bunk": 6345,
      "▁successful": 6346,
      "▁stethoscope": 6347,
      "▁renewed": 6348,
      "▁kit": 6349,
      "▁te": 6350,
      "▁down": 6351,
      "▁reads": 6352,
      "erately": 6353,
      "▁tickles": 6354,
      "▁school": 6355,
      "▁web": 6356,
      "ito": 6357,
      "ections": 6358,
      "▁exclu": 6359,
      "▁discourse": 6360,
      "cean": 6361,
      "eeing": 6362,
      "▁above": 6363,
      "quarters": 6364,
      "▁propose": 6365,
      "▁tsunami": 6366,
      "▁theat": 6367,
      "ours": 6368,
      "▁recommend": 6369,
      "▁hotline": 6370,
      "▁peacekeepers": 6371,
      "▁messed": 6372,
      ":00": 6373,
      "▁entrance": 6374,
      "▁explos": 6375,
      "cul": 6376,
      "▁bring": 6377,
      "▁wor": 6378,
      "▁minding": 6379,
      "▁grandd": 6380,
      "▁chewing": 6381,
      "▁prophet": 6382,
      "op": 6383,
      "▁curs": 6384,
      "▁wakes": 6385,
      "▁monitoring": 6386,
      "▁ordering": 6387,
      "45": 6388,
      "▁highlights": 6389,
      "leenex": 6390,
      "▁knitting": 6391,
      "▁savi": 6392,
      "▁apart": 6393,
      "▁blower": 6394,
      "▁dere": 6395,
      "▁rains": 6396,
      "ism": 6397,
      "▁blueberry": 6398,
      "▁revisions": 6399,
      "▁nato": 6400,
      "▁fal": 6401,
      "▁search": 6402,
      "zy": 6403,
      "back": 6404,
      "eason": 6405,
      "ateral": 6406,
      "▁concess": 6407,
      "▁stat": 6408,
      "▁europe": 6409,
      "▁reserv": 6410,
      "▁dol": 6411,
      "▁disgor": 6412,
      "▁effective": 6413,
      "hakes": 6414,
      "haki": 6415,
      "▁riders": 6416,
      "mally": 6417,
      "▁mimic": 6418,
      "rust": 6419,
      "▁gravity": 6420,
      "▁overwhel": 6421,
      "▁ability": 6422,
      "▁insur": 6423,
      "ents": 6424,
      "aped": 6425,
      "▁hap": 6426,
      "▁adap": 6427,
      "▁wag": 6428,
      "▁wai": 6429,
      "▁prejudice": 6430,
      "▁surrender": 6431,
      "▁monument": 6432,
      "▁counters": 6433,
      "▁farms": 6434,
      "inent": 6435,
      "▁periods": 6436,
      "minated": 6437,
      "ceed": 6438,
      "▁diversion": 6439,
      "ium": 6440,
      "▁citizen": 6441,
      "▁bleeding": 6442,
      "ia": 6443,
      "cc": 6444,
      "▁tame": 6445,
      "anie": 6446,
      "spite": 6447,
      "▁wizard": 6448,
      "▁round": 6449,
      "▁eye": 6450,
      "▁paramet": 6451,
      "▁ligaments": 6452,
      "uding": 6453,
      "atten": 6454,
      "for": 6455,
      "stem": 6456,
      "▁industries": 6457,
      "▁folded": 6458,
      "▁smell": 6459,
      "▁ali": 6460,
      "▁=---": 6461,
      "▁apron": 6462,
      "▁cath": 6463,
      "▁unicorn": 6464,
      "▁rode": 6465,
      "▁arthritis": 6466,
      "▁identi": 6467,
      "▁intelligence": 6468,
      "▁obt": 6469,
      "▁gtc": 6470,
      "lan": 6471,
      "▁flipping": 6472,
      "▁03": 6473,
      "tition": 6474,
      "▁collect": 6475,
      "▁promp": 6476,
      "▁enl": 6477,
      "▁vib": 6478,
      "wic": 6479,
      "▁howled": 6480,
      "7-1.doc": 6481,
      "▁cats": 6482,
      "▁imported": 6483,
      "▁glowstick": 6484,
      "▁ros": 6485,
      "▁interface": 6486,
      "▁broken": 6487,
      "▁van": 6488,
      "tail": 6489,
      "▁represent": 6490,
      "▁contractors": 6491,
      "▁squ": 6492,
      "▁prol": 6493,
      "▁medic": 6494,
      "▁discovered": 6495,
      "▁columns": 6496,
      "dened": 6497,
      "essment": 6498,
      "▁tramp": 6499,
      "▁unique": 6500,
      "tili": 6501,
      "▁vulner": 6502,
      "letter": 6503,
      "▁flee": 6504,
      "▁deserve": 6505,
      "▁humanity": 6506,
      "▁immigration": 6507,
      "lics": 6508,
      "person": 6509,
      "▁continent": 6510,
      "▁banknotes": 6511,
      "▁glanced": 6512,
      "▁dynamics": 6513,
      "▁uploads": 6514,
      "▁climber": 6515,
      "▁beginners": 6516,
      "▁arrv.": 6517,
      "▁editor": 6518,
      "▁organizing": 6519,
      "▁operator": 6520,
      "▁….": 6521,
      "chair": 6522,
      "▁spore": 6523,
      "▁switched": 6524,
      "▁hones": 6525,
      "▁guarantee": 6526,
      "▁cows": 6527,
      "▁tenure": 6528,
      "▁introduced": 6529,
      "▁grain": 6530,
      "▁trees": 6531,
      "ver": 6532,
      "▁bridge": 6533,
      "▁yard": 6534,
      "▁has": 6535,
      "9th": 6536,
      "▁chunk": 6537,
      "▁provider": 6538,
      "▁takes": 6539,
      "▁flea": 6540,
      "v.": 6541,
      "▁gotten": 6542,
      "▁recommends": 6543,
      "▁acknowledging": 6544,
      "idate": 6545,
      "a": 6546,
      "▁custom": 6547,
      "▁barn": 6548,
      "▁business": 6549,
      "▁appetite": 6550,
      "▁club": 6551,
      "oin": 6552,
      "▁weekends": 6553,
      "ence": 6554,
      "▁agai": 6555,
      "ificant": 6556,
      "▁lowered": 6557,
      "▁ax": 6558,
      "▁be": 6559,
      "▁outlet": 6560,
      "▁bodies": 6561,
      "▁pivotch": 6562,
      "▁predictors": 6563,
      "▁holds": 6564,
      "▁ric": 6565,
      "▁gis": 6566,
      "▁neighbours": 6567,
      "▁elect": 6568,
      "▁balloon": 6569,
      "ami": 6570,
      "irling": 6571,
      "▁topper": 6572,
      "reg": 6573,
      "▁styling": 6574,
      "▁sponsored": 6575,
      "▁submarines": 6576,
      "▁tank": 6577,
      "▁champ": 6578,
      "+": 6579,
      "▁fulf": 6580,
      "07.doc": 6581,
      "▁---": 6582,
      "▁provin": 6583,
      "▁dogg": 6584,
      "▁title": 6585,
      "▁supports": 6586,
      "utes": 6587,
      "▁jo": 6588,
      "▁restr": 6589,
      "eurs": 6590,
      "▁collage": 6591,
      "▁broc": 6592,
      "▁parameters": 6593,
      "▁adviser": 6594,
      "▁boston": 6595,
      "aria": 6596,
      "▁yaw": 6597,
      "being": 6598,
      "aos": 6599,
      "▁chat": 6600,
      "▁del": 6601,
      "ielder": 6602,
      "▁cam": 6603,
      "▁plant": 6604,
      "▁liquid": 6605,
      "▁tidbit": 6606,
      "▁hardness": 6607,
      ".v": 6608,
      "iner": 6609,
      "▁asserted": 6610,
      "▁spear": 6611,
      "imed": 6612,
      "▁quino": 6613,
      "▁tub": 6614,
      "▁prisoners": 6615,
      "▁ago": 6616,
      "light": 6617,
      "▁favorites": 6618,
      "▁courtyard": 6619,
      "por": 6620,
      "▁troubles": 6621,
      "▁!!!": 6622,
      "ate": 6623,
      "▁giants": 6624,
      "▁guarante": 6625,
      "▁thwar": 6626,
      "▁airport": 6627,
      "▁evap": 6628,
      "▁mat": 6629,
      "▁appreciate": 6630,
      "house": 6631,
      "-o": 6632,
      "▁solutions": 6633,
      "waukee": 6634,
      "▁achievement": 6635,
      "▁wr": 6636,
      "▁mother": 6637,
      "ij": 6638,
      "▁mom": 6639,
      "top": 6640,
      "▁beaches": 6641,
      "▁application": 6642,
      "▁dress": 6643,
      "erina": 6644,
      "tification": 6645,
      "▁revenge": 6646,
      "rier": 6647,
      "▁worlds": 6648,
      "▁cro": 6649,
      "▁cabb": 6650,
      "▁sit": 6651,
      "▁lollipop": 6652,
      "▁registered": 6653,
      "▁environment": 6654,
      "▁dra": 6655,
      "ufact": 6656,
      "▁boards": 6657,
      "cil": 6658,
      "xic": 6659,
      "▁charco": 6660,
      "arity": 6661,
      "▁propane": 6662,
      "▁similarities": 6663,
      "▁infinity": 6664,
      "▁diversity": 6665,
      "tise": 6666,
      "ʁ": 6667,
      "arking": 6668,
      "▁ward": 6669,
      "▁learning": 6670,
      "▁eating": 6671,
      "▁offset": 6672,
      "▁symbolism": 6673,
      "▁chocolate": 6674,
      "▁turtle": 6675,
      "▁wagon": 6676,
      "▁inhabit": 6677,
      "▁chr": 6678,
      "vil": 6679,
      "▁22nd": 6680,
      "▁grabbed": 6681,
      "▁appropriations": 6682,
      "el": 6683,
      "▁excepted": 6684,
      "▁operations": 6685,
      "▁fortunes": 6686,
      "▁sus": 6687,
      "▁dy": 6688,
      "sex": 6689,
      "▁di": 6690,
      "▁february": 6691,
      "▁pilgrims": 6692,
      "▁repurp": 6693,
      "▁thinking": 6694,
      "▁scient": 6695,
      "▁judgment": 6696,
      "▁p&l": 6697,
      "▁wheelchair": 6698,
      "▁had": 6699,
      "▁raging": 6700,
      "r.": 6701,
      "▁sector": 6702,
      "▁exhibits": 6703,
      "raph": 6704,
      "▁businessmen": 6705,
      "▁conde": 6706,
      "gg": 6707,
      "roleum": 6708,
      "▁chicken": 6709,
      "▁distribution": 6710,
      "arch": 6711,
      "▁lump": 6712,
      "▁emptiness": 6713,
      "oyment": 6714,
      "▁debts": 6715,
      "waves": 6716,
      "▁teaching": 6717,
      "▁attributed": 6718,
      "loyed": 6719,
      "81-1.doc": 6720,
      "▁hospital": 6721,
      "con": 6722,
      "▁she": 6723,
      "urt": 6724,
      "east": 6725,
      "▁embarrass": 6726,
      "aster": 6727,
      "▁recre": 6728,
      "▁stret": 6729,
      "▁cleared": 6730,
      "▁instead": 6731,
      "▁when": 6732,
      "▁positions": 6733,
      "▁say": 6734,
      "▁kleenex": 6735,
      "▁maintains": 6736,
      "▁memorial": 6737,
      "▁appearing": 6738,
      "▁families": 6739,
      "acting": 6740,
      "▁!!!!!!!!!!!!!!!": 6741,
      "erent": 6742,
      "▁story": 6743,
      "▁invest": 6744,
      "▁explosives": 6745,
      "▁first": 6746,
      "enas": 6747,
      "ari": 6748,
      "▁beach": 6749,
      "▁mornings": 6750,
      "▁rust": 6751,
      "▁teenagers": 6752,
      "▁top": 6753,
      "▁silly": 6754,
      "▁careful": 6755,
      "spec": 6756,
      "▁legiti": 6757,
      "pend": 6758,
      "▁tints": 6759,
      "▁worked": 6760,
      "▁copies": 6761,
      "▁tricks": 6762,
      "▁emb": 6763,
      "▁enterpr": 6764,
      "loqu": 6765,
      "▁reluctance": 6766,
      "▁reconstr": 6767,
      "▁pati": 6768,
      "▁enc": 6769,
      "erious": 6770,
      "▁payroll": 6771,
      "▁translates": 6772,
      "ers": 6773,
      "▁cre": 6774,
      "▁ded": 6775,
      "▁videos": 6776,
      "▁couch": 6777,
      "▁saint": 6778,
      "medi": 6779,
      "▁county": 6780,
      "▁ath": 6781,
      "▁....................": 6782,
      "▁wild": 6783,
      "▁!!!!!!!!!!!!!": 6784,
      "▁no.": 6785,
      "▁circularisation": 6786,
      "▁matches": 6787,
      "▁laborers": 6788,
      "esty": 6789,
      "liflower": 6790,
      "▁stabbed": 6791,
      "▁medium": 6792,
      "▁experi": 6793,
      "▁seg": 6794,
      "acts": 6795,
      "▁sev": 6796,
      "▁windows": 6797,
      "▁pe": 6798,
      "▁astr": 6799,
      "▁chanting": 6800,
      "right": 6801,
      "feration": 6802,
      "▁197": 6803,
      "▁wondering": 6804,
      "▁july": 6805,
      "▁coerce": 6806,
      "▁as": 6807,
      "itations": 6808,
      "reat": 6809,
      "oween": 6810,
      "▁tool": 6811,
      "▁satisfaction": 6812,
      "▁mall": 6813,
      "▁span": 6814,
      "egration": 6815,
      "alog": 6816,
      "▁pencil": 6817,
      "▁cerem": 6818,
      "look": 6819,
      "otive": 6820,
      "▁thunder": 6821,
      "▁spin": 6822,
      "jections": 6823,
      "▁drugstore": 6824,
      "ased": 6825,
      "▁clients": 6826,
      "▁industrialist": 6827,
      "▁d.": 6828,
      "▁milit": 6829,
      "ature": 6830,
      "▁beverage": 6831,
      "▁rhythm": 6832,
      "▁lu": 6833,
      "▁fluids": 6834,
      "▁electron": 6835,
      "▁degrees": 6836,
      "rights": 6837,
      "▁|--------+----------------------->": 6838,
      "▁dav": 6839,
      "▁tit": 6840,
      "▁corp": 6841,
      "▁impact": 6842,
      "atus": 6843,
      "▁protect": 6844,
      "▁liked": 6845,
      "▁australia": 6846,
      "hold": 6847,
      "▁dolphins": 6848,
      "aroni": 6849,
      "ited": 6850,
      "▁drug": 6851,
      "▁·": 6852,
      "▁subs": 6853,
      "▁meters": 6854,
      "▁logic": 6855,
      "ivia": 6856,
      "ifies": 6857,
      "▁cray": 6858,
      "▁dc": 6859,
      "uscri": 6860,
      "▁aw": 6861,
      "²": 6862,
      "▁dipped": 6863,
      "▁defeats": 6864,
      "▁requ": 6865,
      "▁integration": 6866,
      "▁byp": 6867,
      "▁cincinnati": 6868,
      "usted": 6869,
      "▁enacting": 6870,
      "▁price": 6871,
      "▁avenue": 6872,
      "bernation": 6873,
      "▁economists": 6874,
      "▁location": 6875,
      "vening": 6876,
      "▁enjoys": 6877,
      "▁anemone": 6878,
      "▁phen": 6879,
      "▁carro": 6880,
      "▁sweat": 6881,
      "either": 6882,
      "▁postc": 6883,
      "ulators": 6884,
      "▁adopted": 6885,
      "inging": 6886,
      "▁guerr": 6887,
      "▁---------------------------------": 6888,
      "▁considers": 6889,
      "▁extract": 6890,
      "etro": 6891,
      "▁wives": 6892,
      "▁advertise": 6893,
      "▁craving": 6894,
      "▁deserted": 6895,
      "▁pastels": 6896,
      "sec": 6897,
      "▁dangers": 6898,
      "80": 6899,
      "▁studio": 6900,
      "irts": 6901,
      "▁knew": 6902,
      "apse": 6903,
      "▁reportedly": 6904,
      "▁gra": 6905,
      "▁sakes": 6906,
      "▁manipulating": 6907,
      "▁sump": 6908,
      "▁2006": 6909,
      "▁starvation": 6910,
      "rong": 6911,
      "▁secur": 6912,
      "▁heyday": 6913,
      "▁horr": 6914,
      "▁demon": 6915,
      "uly": 6916,
      "▁sharing": 6917,
      "▁piled": 6918,
      "▁resorts": 6919,
      "▁forecast": 6920,
      "▁rabbits": 6921,
      ".d.": 6922,
      "▁north": 6923,
      "▁belief": 6924,
      "▁accusing": 6925,
      "▁vacc": 6926,
      "▁borrowers": 6927,
      "▁renewal": 6928,
      "▁intercepted": 6929,
      "▁fisher": 6930,
      "▁housed": 6931,
      "aign": 6932,
      "chem": 6933,
      "▁judgments": 6934,
      "▁oatme": 6935,
      "▁obstacle": 6936,
      "uah": 6937,
      "town": 6938,
      "▁demand": 6939,
      "▁ensuring": 6940,
      "▁yen": 6941,
      "▁petition": 6942,
      "▁framed": 6943,
      "▁begins": 6944,
      "▁parking": 6945,
      "▁dand": 6946,
      "▁debris": 6947,
      "▁carr": 6948,
      "hea": 6949,
      "▁pushing": 6950,
      "’s": 6951,
      "▁trigg": 6952,
      "kers": 6953,
      "sh": 6954,
      "▁parake": 6955,
      "▁bea": 6956,
      "word": 6957,
      "sid": 6958,
      "▁sorrow": 6959,
      "osing": 6960,
      "▁sunday": 6961,
      "▁prefecture": 6962,
      "▁melanoma": 6963,
      "▁abandonment": 6964,
      "bir": 6965,
      "olly": 6966,
      "ge": 6967,
      "▁task": 6968,
      "▁adding": 6969,
      "▁reading": 6970,
      "▁gambit": 6971,
      "▁chronic": 6972,
      "▁seaman": 6973,
      "▁spelling": 6974,
      "▁nick": 6975,
      "▁picked": 6976,
      "▁post": 6977,
      "▁implementing": 6978,
      "0s": 6979,
      "▁grandmother": 6980,
      "▁aesthe": 6981,
      "▁teething": 6982,
      "▁horsie": 6983,
      "orate": 6984,
      "▁liqu": 6985,
      "▁inequality": 6986,
      "actions": 6987,
      "▁lanterns": 6988,
      "▁refineries": 6989,
      "▁developed": 6990,
      "▁glasses": 6991,
      "▁ale": 6992,
      "▁sco": 6993,
      "▁recalled": 6994,
      "aint": 6995,
      "fics": 6996,
      "▁principle": 6997,
      "▁calculated": 6998,
      "▁soak": 6999,
      "▁outlined": 7000,
      "▁liabilities": 7001,
      "▁chand": 7002,
      "▁walnuts": 7003,
      "▁bitsy": 7004,
      "jud": 7005,
      "pse": 7006,
      "▁stating": 7007,
      "▁freedoms": 7008,
      "▁advert": 7009,
      "▁word": 7010,
      "ints": 7011,
      "`": 7012,
      "▁reli": 7013,
      "▁investment": 7014,
      "unte": 7015,
      "▁lev": 7016,
      "▁obs": 7017,
      "▁bunnies": 7018,
      "-3": 7019,
      "▁sharks": 7020,
      "ces": 7021,
      "▁avoided": 7022,
      "▁forming": 7023,
      "▁chrome": 7024,
      "▁need": 7025,
      "▁drying": 7026,
      "▁aggre": 7027,
      "ense": 7028,
      "▁exploitation": 7029,
      "▁probably": 7030,
      "▁counsel": 7031,
      "▁candid": 7032,
      "▁salsa": 7033,
      "▁fluff": 7034,
      "▁complete": 7035,
      "▁macaroni": 7036,
      "fu": 7037,
      "merce": 7038,
      "▁shakespeare": 7039,
      "▁righ": 7040,
      "▁screw": 7041,
      "▁ps": 7042,
      "▁creations": 7043,
      "▁stair": 7044,
      "timately": 7045,
      "▁negotiation": 7046,
      "▁wills": 7047,
      "▁decl": 7048,
      "▁19": 7049,
      "▁surpr": 7050,
      "▁dro": 7051,
      "▁homeopathy": 7052,
      "▁jack": 7053,
      "▁comm": 7054,
      "alsa": 7055,
      "ner": 7056,
      "▁course": 7057,
      "▁arranging": 7058,
      "▁equity": 7059,
      "vals": 7060,
      "▁fanc": 7061,
      "lando": 7062,
      "inating": 7063,
      "▁peek": 7064,
      "▁rack": 7065,
      "ities": 7066,
      "▁cabbage": 7067,
      "▁thyro": 7068,
      "▁herd": 7069,
      "anim": 7070,
      "▁pad": 7071,
      "▁accountant": 7072,
      "▁med": 7073,
      "▁products": 7074,
      "▁lose": 7075,
      "▁railroad": 7076,
      "▁jew": 7077,
      "▁injection": 7078,
      "atic": 7079,
      "tim": 7080,
      "▁lin": 7081,
      "▁dated": 7082,
      "▁awa": 7083,
      "▁questioned": 7084,
      "ods": 7085,
      "▁recipient": 7086,
      "▁conf": 7087,
      "▁orbit": 7088,
      "▁ens": 7089,
      "▁equally": 7090,
      "ids": 7091,
      "▁weighed": 7092,
      "▁chu": 7093,
      "▁sooner": 7094,
      "▁score": 7095,
      "odder": 7096,
      "▁sense": 7097,
      "▁sst": 7098,
      "-wood": 7099,
      "▁publication": 7100,
      "▁nice": 7101,
      "▁loses": 7102,
      "▁lengths": 7103,
      "▁crystal": 7104,
      "▁documents": 7105,
      "▁cook": 7106,
      "iety": 7107,
      "▁shorts": 7108,
      "▁passport": 7109,
      ":5": 7110,
      "30s": 7111,
      "▁mushroom": 7112,
      "▁adopting": 7113,
      "▁google": 7114,
      "▁sesame": 7115,
      "▁scored": 7116,
      "ifted": 7117,
      "▁lymph": 7118,
      "▁tolerance": 7119,
      "rayed": 7120,
      "urist": 7121,
      "▁records": 7122,
      "▁itinerary": 7123,
      "▁pulls": 7124,
      "▁desktop": 7125,
      "ff": 7126,
      "▁tops": 7127,
      "▁sisters": 7128,
      "igated": 7129,
      "▁durs": 7130,
      "▁viewed": 7131,
      "▁blending": 7132,
      "▁green": 7133,
      "ir": 7134,
      "▁excuse": 7135,
      "amation": 7136,
      "▁bookstore": 7137,
      "▁amending": 7138,
      "▁elimination": 7139,
      "▁assass": 7140,
      "▁seeds": 7141,
      "erings": 7142,
      "enture": 7143,
      "▁related": 7144,
      "▁laughter": 7145,
      "▁presumed": 7146,
      "▁updated": 7147,
      "aq": 7148,
      "▁airports": 7149,
      "erce": 7150,
      "▁bites": 7151,
      "▁player": 7152,
      "▁valley": 7153,
      "▁tumbled": 7154,
      "stances": 7155,
      "▁mish": 7156,
      "▁night": 7157,
      "▁characteristic": 7158,
      "▁u": 7159,
      "▁dollars": 7160,
      "▁sens": 7161,
      "▁bulld": 7162,
      "▁suppl": 7163,
      "▁facil": 7164,
      "▁participant": 7165,
      "▁soph": 7166,
      "▁motto": 7167,
      "▁neolog": 7168,
      "▁scri": 7169,
      "▁approve": 7170,
      "▁warrants": 7171,
      "▁attitude": 7172,
      "ustr": 7173,
      "▁assist": 7174,
      "-en": 7175,
      "ely": 7176,
      "▁forearm": 7177,
      "▁confirming": 7178,
      "bish": 7179,
      "▁treaty": 7180,
      "▁schem": 7181,
      "▁curry": 7182,
      "▁respects": 7183,
      "▁spacecraft": 7184,
      "▁places": 7185,
      "▁donate": 7186,
      "viously": 7187,
      "▁terrorists": 7188,
      "▁quack": 7189,
      "▁cour": 7190,
      "▁bop": 7191,
      "▁datasheets": 7192,
      "pful": 7193,
      "▁eng": 7194,
      "▁plotted": 7195,
      "▁taliban": 7196,
      "▁proponents": 7197,
      "▁artill": 7198,
      "▁lifeboats": 7199,
      "▁mouse": 7200,
      "▁est": 7201,
      "▁hurting": 7202,
      "▁redes": 7203,
      "▁nipple": 7204,
      "▁meats": 7205,
      "rowed": 7206,
      "ically": 7207,
      "▁waterway": 7208,
      "▁promised": 7209,
      "▁william": 7210,
      "▁amazed": 7211,
      "▁satel": 7212,
      "▁alleg": 7213,
      "sitive": 7214,
      "▁ignor": 7215,
      "▁absolut": 7216,
      "▁tree": 7217,
      "▁aggravated": 7218,
      "▁matched": 7219,
      "uit": 7220,
      "zas": 7221,
      "▁such": 7222,
      "▁pieces": 7223,
      "▁needs": 7224,
      "ler": 7225,
      "00": 7226,
      "▁pajamas": 7227,
      "▁descend": 7228,
      "▁wast": 7229,
      "gencies": 7230,
      "▁propos": 7231,
      "▁relying": 7232,
      "▁hunt": 7233,
      "▁parole": 7234,
      "▁shore": 7235,
      "▁contrary": 7236,
      "▁write": 7237,
      "▁reserved": 7238,
      "▁boundaries": 7239,
      "▁storms": 7240,
      "lig": 7241,
      "▁reintroduction": 7242,
      "▁personality": 7243,
      "ined": 7244,
      "▁transcri": 7245,
      "▁cornfl": 7246,
      "down": 7247,
      "▁earthquake": 7248,
      "atnot": 7249,
      "▁rap": 7250,
      "▁proclaim": 7251,
      "onge": 7252,
      "▁recru": 7253,
      "▁referral": 7254,
      "cept": 7255,
      "▁analyze": 7256,
      "▁mar": 7257,
      "▁roadside": 7258,
      "ida": 7259,
      "▁exit": 7260,
      "hua": 7261,
      "▁sneeze": 7262,
      "▁fingers": 7263,
      "▁ve": 7264,
      "▁penalties": 7265,
      "lant": 7266,
      "oud": 7267,
      "▁destro": 7268,
      "qu": 7269,
      "▁final": 7270,
      "ini": 7271,
      "▁putted": 7272,
      "while": 7273,
      "apping": 7274,
      "hy": 7275,
      "mus": 7276,
      "▁buz": 7277,
      "▁kitten": 7278,
      "▁invoice": 7279,
      "▁removal": 7280,
      "▁auto": 7281,
      "id": 7282,
      "▁:": 7283,
      "▁muttering": 7284,
      "enance": 7285,
      "▁coop": 7286,
      "▁drawn": 7287,
      "ugh": 7288,
      "▁paraphr": 7289,
      "nst": 7290,
      "▁foreign": 7291,
      "ury": 7292,
      "▁grounds": 7293,
      "▁ladies": 7294,
      "▁syrup": 7295,
      "▁accent": 7296,
      "▁pestic": 7297,
      "▁skull": 7298,
      "▁suggested": 7299,
      "eef": 7300,
      "▁scene": 7301,
      "▁mailman": 7302,
      "▁occupy": 7303,
      "▁rectangle": 7304,
      "▁wages": 7305,
      "▁trapped": 7306,
      "▁mate": 7307,
      "▁inves": 7308,
      "▁cau": 7309,
      "▁veteran": 7310,
      "▁facility": 7311,
      "uch": 7312,
      "▁playing": 7313,
      "▁negoti": 7314,
      "▁wine": 7315,
      "▁civet": 7316,
      "itality": 7317,
      "edience": 7318,
      "▁shipment": 7319,
      "▁require": 7320,
      "▁buttons": 7321,
      "tiqu": 7322,
      "▁beeper": 7323,
      "alists": 7324,
      "▁reported": 7325,
      "▁earlier": 7326,
      "▁physical": 7327,
      "itions": 7328,
      "▁impeachment": 7329,
      "▁traveling": 7330,
      "▁parak": 7331,
      "▁lucky": 7332,
      "aries": 7333,
      "▁struggle": 7334,
      "▁bath": 7335,
      "▁pl": 7336,
      "▁look": 7337,
      "▁foot": 7338,
      "▁assault": 7339,
      "▁surveys": 7340,
      "▁kingdom": 7341,
      "▁intake": 7342,
      "▁bust": 7343,
      "▁!!": 7344,
      "▁cove": 7345,
      "▁&": 7346,
      "▁gem": 7347,
      "▁frogg": 7348,
      "▁meets": 7349,
      "▁pizza": 7350,
      ".7": 7351,
      "▁jewel": 7352,
      "▁cock": 7353,
      "▁pending": 7354,
      "bol": 7355,
      "ances": 7356,
      "▁jumps": 7357,
      "▁resignation": 7358,
      "▁env": 7359,
      "▁wording": 7360,
      "▁bloss": 7361,
      "▁promoted": 7362,
      "roc": 7363,
      "▁reaff": 7364,
      "mplified": 7365,
      "▁bosom": 7366,
      "▁batch": 7367,
      "▁peroxide": 7368,
      "▁waiver": 7369,
      "tag": 7370,
      "▁birds": 7371,
      "stream": 7372,
      "▁heavily": 7373,
      "▁poodle": 7374,
      "▁entrepreneurs": 7375,
      "▁transported": 7376,
      "tarian": 7377,
      "▁nove": 7378,
      "▁promote": 7379,
      "▁turns": 7380,
      "▁fever": 7381,
      "▁emission": 7382,
      "▁dining": 7383,
      "▁hurt": 7384,
      "ular": 7385,
      "oul": 7386,
      "▁pimple": 7387,
      "▁hundred": 7388,
      "▁persuading": 7389,
      "▁reminds": 7390,
      "▁enemy": 7391,
      "▁fostering": 7392,
      "▁acquis": 7393,
      "ken": 7394,
      "▁unles": 7395,
      "▁s/he": 7396,
      "▁traffick": 7397,
      "▁territory": 7398,
      "▁greet": 7399,
      "▁patri": 7400,
      "▁planting": 7401,
      "▁rebalancing": 7402,
      "▁resili": 7403,
      "▁trumpets": 7404,
      "▁easier": 7405,
      "▁defence": 7406,
      "▁speakers": 7407,
      "board": 7408,
      "▁untied": 7409,
      "▁illness": 7410,
      "▁assumption": 7411,
      "▁gestured": 7412,
      "▁sinking": 7413,
      "▁quarters": 7414,
      "ining": 7415,
      "people": 7416,
      "asel": 7417,
      "▁recall": 7418,
      "▁philosopher": 7419,
      "▁awareness": 7420,
      "▁blinking": 7421,
      "▁parach": 7422,
      "▁outlets": 7423,
      "▁prizes": 7424,
      "umbled": 7425,
      "▁account": 7426,
      "▁les": 7427,
      "▁subjected": 7428,
      "mit": 7429,
      "▁charm": 7430,
      "enail": 7431,
      "▁reimb": 7432,
      "-r": 7433,
      "▁ven": 7434,
      "▁fill": 7435,
      "▁asylum": 7436,
      "▁snakes": 7437,
      "▁embed": 7438,
      "im": 7439,
      "ancy": 7440,
      "▁twe": 7441,
      "▁contr": 7442,
      "▁thef": 7443,
      "▁300": 7444,
      "ialism": 7445,
      "▁links": 7446,
      "▁authority": 7447,
      "▁tyr": 7448,
      "▁contacts": 7449,
      "▁clinging": 7450,
      "pts": 7451,
      ":": 7452,
      "▁nook": 7453,
      "▁governments": 7454,
      "gle": 7455,
      "▁sho": 7456,
      "▁wounds": 7457,
      "▁whole": 7458,
      "4": 7459,
      "▁adj": 7460,
      "tieth": 7461,
      "▁occurrence": 7462,
      "eel": 7463,
      "tled": 7464,
      "▁carwash": 7465,
      "▁jenn": 7466,
      "▁blink": 7467,
      "▁cfls": 7468,
      "▁statue": 7469,
      "▁directly": 7470,
      "▁ancest": 7471,
      "▁jacket": 7472,
      "▁demands": 7473,
      "▁interventions": 7474,
      "▁hit": 7475,
      "essional": 7476,
      "▁defining": 7477,
      "ht": 7478,
      "▁confrontation": 7479,
      "dler": 7480,
      "▁subscrib": 7481,
      "▁soared": 7482,
      "icially": 7483,
      "▁conges": 7484,
      "▁disparities": 7485,
      "▁crowd": 7486,
      "▁lur": 7487,
      "uffs": 7488,
      "▁orchestrated": 7489,
      "owering": 7490,
      "▁warnings": 7491,
      "▁compassion": 7492,
      "inars": 7493,
      ".m.": 7494,
      "▁compan": 7495,
      "▁lounge": 7496,
      "▁ye": 7497,
      "continent": 7498,
      "ape": 7499,
      "▁app": 7500,
      "als": 7501,
      "▁metering": 7502,
      "▁harness": 7503,
      "▁compelling": 7504,
      "tocks.pdf": 7505,
      "▁strike": 7506,
      "▁atroc": 7507,
      "▁condemn": 7508,
      "▁directions": 7509,
      "▁columb": 7510,
      "▁tru": 7511,
      "▁ger": 7512,
      "▁placing": 7513,
      "eeze": 7514,
      "▁elevator": 7515,
      "▁tic": 7516,
      "▁mos": 7517,
      "▁stagg": 7518,
      "▁variability": 7519,
      "▁crown": 7520,
      "tains": 7521,
      "▁proclaimed": 7522,
      "▁saf": 7523,
      "▁22": 7524,
      "▁hutch": 7525,
      "▁monkeys": 7526,
      "elly": 7527,
      "▁yog": 7528,
      "br": 7529,
      "▁steel": 7530,
      "▁distributed": 7531,
      "▁soil": 7532,
      "alg": 7533,
      "▁styles": 7534,
      "▁surface": 7535,
      "▁hasidim": 7536,
      "▁bs": 7537,
      "▁influ": 7538,
      "▁skies": 7539,
      "▁doz": 7540,
      "▁explo": 7541,
      "▁retraction": 7542,
      "▁suffering": 7543,
      "▁teaspoon": 7544,
      "▁lottery": 7545,
      "▁feed": 7546,
      "▁start": 7547,
      "kind": 7548,
      "fights": 7549,
      "▁[...]": 7550,
      "▁evolve": 7551,
      "▁snack": 7552,
      "▁forefront": 7553,
      "▁interrup": 7554,
      "▁stad": 7555,
      "alizing": 7556,
      "▁guards": 7557,
      "▁museums": 7558,
      "▁helmet": 7559,
      "▁spoons": 7560,
      "▁carn": 7561,
      "ops": 7562,
      "▁rejected": 7563,
      "▁control": 7564,
      "▁consum": 7565,
      "▁owl": 7566,
      "▁inning": 7567,
      "▁creep": 7568,
      "▁found": 7569,
      "▁gang": 7570,
      "▁calculation": 7571,
      "▁ep": 7572,
      "▁fir": 7573,
      "▁complaining": 7574,
      "▁offer": 7575,
      "▁coordination": 7576,
      "▁peop": 7577,
      "▁ench": 7578,
      "ww": 7579,
      "▁subway": 7580,
      "▁bag": 7581,
      "gery": 7582,
      "▁principles": 7583,
      "▁kitt": 7584,
      "▁due": 7585,
      "-out": 7586,
      "▁dem": 7587,
      "inity": 7588,
      "rty": 7589,
      "▁millenn": 7590,
      "▁fresh": 7591,
      "▁farmer": 7592,
      "▁attacking": 7593,
      "ety": 7594,
      "iring": 7595,
      "▁disability": 7596,
      "▁pyr": 7597,
      "▁teleph": 7598,
      "▁hind": 7599,
      "▁remained": 7600,
      "▁yogh": 7601,
      "▁`s": 7602,
      "▁recruiting": 7603,
      "▁prospects": 7604,
      "▁horse": 7605,
      "ifications": 7606,
      "▁rel": 7607,
      "▁04": 7608,
      "▁justice": 7609,
      "esy": 7610,
      "angu": 7611,
      "▁laundry": 7612,
      "▁pins": 7613,
      "▁oposs": 7614,
      "▁dignitaries": 7615,
      "▁ad": 7616,
      "▁respecting": 7617,
      "▁trace": 7618,
      "▁profits": 7619,
      "▁customers": 7620,
      "▁rolled": 7621,
      "ght": 7622,
      "ect": 7623,
      "▁proce": 7624,
      "pr": 7625,
      "▁jar": 7626,
      "▁chef": 7627,
      "rella": 7628,
      "▁bou": 7629,
      "▁rattled": 7630,
      "▁importance": 7631,
      "▁silk": 7632,
      "▁smile": 7633,
      "▁adm": 7634,
      "ointment": 7635,
      "lling": 7636,
      "▁grit": 7637,
      "▁yogurt": 7638,
      "▁colleges": 7639,
      "▁obligation": 7640,
      "▁vacuum": 7641,
      "▁gen": 7642,
      "▁texas": 7643,
      "▁backed": 7644,
      "▁gisb": 7645,
      "▁climbing": 7646,
      "▁raped": 7647,
      "▁humor": 7648,
      "▁bedrooms": 7649,
      "▁techn": 7650,
      "▁associates": 7651,
      "group": 7652,
      "7th": 7653,
      "▁reptile": 7654,
      "▁fifty": 7655,
      "▁rene": 7656,
      "▁bap": 7657,
      "▁staircase": 7658,
      "▁copied": 7659,
      "▁fox": 7660,
      "▁bab": 7661,
      "uv": 7662,
      "▁dempse": 7663,
      "▁grace": 7664,
      "etic": 7665,
      "ending": 7666,
      "▁handed": 7667,
      "▁stillman": 7668,
      "▁river": 7669,
      "▁stopping": 7670,
      "▁drops": 7671,
      "▁lease": 7672,
      "▁emperor": 7673,
      "▁returns": 7674,
      "▁rendered": 7675,
      "▁malf": 7676,
      "▁entrep": 7677,
      "▁sash": 7678,
      "derstanding": 7679,
      "▁catalog": 7680,
      "▁rested": 7681,
      "▁ped": 7682,
      "▁candy": 7683,
      "▁mills": 7684,
      "▁ratings": 7685,
      "▁gamb": 7686,
      "is": 7687,
      "▁economies": 7688,
      "▁antiqu": 7689,
      "▁jurisd": 7690,
      "▁exclaim": 7691,
      "▁fires": 7692,
      "ors": 7693,
      "▁next": 7694,
      "▁arrangements": 7695,
      "iddish": 7696,
      "▁dill": 7697,
      "▁limitation": 7698,
      "▁fine": 7699,
      "▁rot": 7700,
      "hap": 7701,
      "▁con": 7702,
      "▁proceed": 7703,
      "▁handle": 7704,
      "▁charge": 7705,
      "as": 7706,
      "▁hed": 7707,
      "▁fishing": 7708,
      "▁muggles": 7709,
      "ectors": 7710,
      "▁fled": 7711,
      "▁offers": 7712,
      "pond": 7713,
      "▁counc": 7714,
      "▁geor": 7715,
      "▁africa": 7716,
      "▁wall": 7717,
      "▁show": 7718,
      "▁nasa": 7719,
      "▁shot": 7720,
      "▁instructor": 7721,
      "▁therop": 7722,
      "▁nutri": 7723,
      "▁ammunition": 7724,
      "▁scrub": 7725,
      "▁memoir": 7726,
      "▁meth": 7727,
      "▁violation": 7728,
      "▁congratulations": 7729,
      "▁merchant": 7730,
      "▁lanes": 7731,
      "▁aside": 7732,
      "-mem": 7733,
      "▁buzz": 7734,
      "▁percent": 7735,
      "▁paid": 7736,
      "▁umbrella": 7737,
      "▁vend": 7738,
      "▁hoops": 7739,
      "▁till": 7740,
      "▁examine": 7741,
      "▁receive": 7742,
      "▁ted": 7743,
      "eric": 7744,
      "iry": 7745,
      "▁charles": 7746,
      "ounters": 7747,
      "▁curse": 7748,
      "inning": 7749,
      "▁flights": 7750,
      "▁flatbread": 7751,
      "▁form": 7752,
      "▁conceived": 7753,
      "▁comment": 7754,
      "▁newsp": 7755,
      "▁seattle": 7756,
      "▁discrim": 7757,
      "▁boost": 7758,
      "▁described": 7759,
      "fp": 7760,
      "▁ey": 7761,
      "▁veto": 7762,
      "▁exactly": 7763,
      "▁come": 7764,
      "▁event": 7765,
      "▁fortune": 7766,
      "▁deteri": 7767,
      "▁guar": 7768,
      "▁yelled": 7769,
      "fication": 7770,
      "▁stories": 7771,
      "▁cy": 7772,
      "▁frozen": 7773,
      "▁analogy": 7774,
      "▁neighbors": 7775,
      "▁mm": 7776,
      "▁torti": 7777,
      "▁re": 7778,
      "atograph": 7779,
      "iqu": 7780,
      "▁thie": 7781,
      "illing": 7782,
      "sical": 7783,
      "▁realise": 7784,
      "▁sunken": 7785,
      "▁lim": 7786,
      "▁cauldron": 7787,
      "▁gone": 7788,
      "ender": 7789,
      "▁zip": 7790,
      "worm": 7791,
      "▁cir": 7792,
      "▁throws": 7793,
      "▁gam": 7794,
      "▁strain": 7795,
      "lifish": 7796,
      "▁bowling": 7797,
      "ligibility": 7798,
      "▁shower": 7799,
      "▁anthropologist": 7800,
      "▁grid": 7801,
      "▁alth": 7802,
      "▁princess": 7803,
      "▁survivors": 7804,
      "▁income": 7805,
      ".g.": 7806,
      "▁willow": 7807,
      "▁receiver": 7808,
      "gre": 7809,
      "▁globe": 7810,
      "▁entire": 7811,
      "▁panting": 7812,
      "▁elevators": 7813,
      "▁eleven": 7814,
      "▁wool": 7815,
      "70": 7816,
      "opath": 7817,
      "▁certific": 7818,
      "io": 7819,
      "▁mant": 7820,
      "y": 7821,
      "umped": 7822,
      "▁cupcake": 7823,
      "ising": 7824,
      "▁greatness": 7825,
      "▁pro": 7826,
      "▁neighborhoods": 7827,
      "alis": 7828,
      "▁gogg": 7829,
      "▁set": 7830,
      "▁obliged": 7831,
      "▁enchil": 7832,
      "▁tumbling": 7833,
      "▁sill": 7834,
      "▁soldier": 7835,
      "▁after": 7836,
      "▁nights": 7837,
      "ressor": 7838,
      "▁fabric": 7839,
      "▁casualties": 7840,
      "****": 7841,
      "onated": 7842,
      "ue": 7843,
      "▁qualities": 7844,
      "▁lesson": 7845,
      "▁harbor": 7846,
      "▁fuck": 7847,
      "▁establishment": 7848,
      "…": 7849,
      "father": 7850,
      "▁sett": 7851,
      "▁resume": 7852,
      "icians": 7853,
      "..": 7854,
      "▁flew": 7855,
      "▁reinforcing": 7856,
      "▁reversal": 7857,
      "▁paragraph": 7858,
      "▁audience": 7859,
      "ardised": 7860,
      "▁totally": 7861,
      "▁performed": 7862,
      "▁addresses": 7863,
      "itoring": 7864,
      "▁disl": 7865,
      "▁recieved": 7866,
      "▁liver": 7867,
      "▁himself": 7868,
      "▁aver": 7869,
      "▁hierarchy": 7870,
      "erns": 7871,
      "▁disney": 7872,
      "99": 7873,
      "▁planned": 7874,
      "▁exploring": 7875,
      "hi": 7876,
      "▁plaintiffs": 7877,
      "anism": 7878,
      "▁coll": 7879,
      "▁telephone": 7880,
      "|reg": 7881,
      "▁horn": 7882,
      "▁owns": 7883,
      "une": 7884,
      "▁singles": 7885,
      "▁mark": 7886,
      "▁deciding": 7887,
      "uary": 7888,
      "▁banjo": 7889,
      "hh": 7890,
      "▁needles": 7891,
      "reed": 7892,
      "kating": 7893,
      "▁cultures": 7894,
      "▁fumes": 7895,
      "▁lith": 7896,
      "▁soda": 7897,
      "▁monologue": 7898,
      "▁recording": 7899,
      "▁resigned": 7900,
      "enly": 7901,
      "▁groom": 7902,
      "▁scheduled": 7903,
      "▁ghost": 7904,
      "▁tanks": 7905,
      "▁gda": 7906,
      "▁manag": 7907,
      "▁into": 7908,
      "▁delivery": 7909,
      "ables": 7910,
      "▁witness": 7911,
      "▁landm": 7912,
      "▁it's": 7913,
      "▁states": 7914,
      "▁afterwards": 7915,
      "chie": 7916,
      "▁diseases": 7917,
      "asc": 7918,
      "lift": 7919,
      "▁coast": 7920,
      "▁chances": 7921,
      "gers": 7922,
      "▁perfect": 7923,
      "▁senators": 7924,
      "get": 7925,
      "▁produc": 7926,
      "▁encouraged": 7927,
      "raction": 7928,
      "▁squash": 7929,
      "▁manufactur": 7930,
      "▁eyes": 7931,
      "▁differential": 7932,
      "▁atop": 7933,
      "▁crosstab": 7934,
      "onishment": 7935,
      "▁asked": 7936,
      "▁conference": 7937,
      "▁proposals": 7938,
      "▁closing": 7939,
      "▁testified": 7940,
      "bolism": 7941,
      "escend": 7942,
      "ontario": 7943,
      "ackets": 7944,
      "▁screams": 7945,
      "ν": 7946,
      "ancing": 7947,
      "▁insulation": 7948,
      "aving": 7949,
      "▁realizing": 7950,
      "▁pains": 7951,
      "▁enters": 7952,
      "▁remove": 7953,
      "ument": 7954,
      "[UNK]": 7955,
      "▁sold": 7956,
      "▁hosp": 7957,
      "▁aims": 7958,
      "▁blessed": 7959,
      "▁consc": 7960,
      "cel": 7961,
      "▁clothespin": 7962,
      "▁airplane": 7963,
      "duction": 7964,
      "▁crib": 7965,
      "▁blocks": 7966,
      "▁announce": 7967,
      "▁ign": 7968,
      "▁pipeline": 7969,
      "▁skill": 7970,
      "▁assaulted": 7971,
      "▁stink": 7972,
      "▁queries": 7973,
      "ourage": 7974,
      "ains": 7975,
      "▁communities": 7976,
      "▁voices": 7977,
      "▁casting": 7978,
      "▁adapted": 7979,
      "▁explains": 7980,
      "▁ursula": 7981,
      "▁haul": 7982,
      "ones": 7983,
      "▁ask": 7984,
      "▁pink": 7985,
      "rom": 7986,
      "▁sculptures": 7987,
      "▁middle": 7988,
      "o.": 7989,
      "aste": 7990,
      "▁spacetime": 7991,
      "▁lumin": 7992,
      "gust": 7993,
      "▁seventh": 7994,
      "mar": 7995,
      "▁hold": 7996,
      "utionary": 7997,
      "▁revers": 7998,
      "▁cuis": 7999,
      "▁raced": 8000,
      "▁detail": 8001,
      "▁diplomats": 8002,
      "▁restric": 8003,
      "▁incorp": 8004,
      "▁acknowled": 8005,
      "▁jews": 8006,
      "▁colours": 8007,
      "▁spit": 8008,
      "▁scrap": 8009,
      "▁homework": 8010,
      "▁assemble": 8011,
      "bby": 8012,
      "▁nos": 8013,
      "▁hurried": 8014,
      "▁removed": 8015,
      "ar": 8016,
      "▁ebbed": 8017,
      "essing": 8018,
      "▁haf": 8019,
      "▁jeans": 8020,
      "utiful": 8021,
      "▁weakened": 8022,
      "yl": 8023,
      "▁locations": 8024,
      "▁burn": 8025,
      "▁chili": 8026,
      "▁comedian": 8027,
      "▁mould": 8028,
      "▁wal": 8029,
      "lect": 8030,
      "▁comes": 8031,
      "▁distric": 8032,
      "▁serv": 8033,
      "▁perio": 8034,
      "▁conn": 8035,
      "▁transformation": 8036,
      "▁27": 8037,
      "▁linked": 8038,
      "▁contracts": 8039,
      "▁destinations": 8040,
      "▁chimney": 8041,
      "▁civili": 8042,
      "▁disappearance": 8043,
      "▁evacuated": 8044,
      "▁cold": 8045,
      "▁lunche": 8046,
      "istr": 8047,
      "▁attemp": 8048,
      "▁stockings": 8049,
      "▁views": 8050,
      "▁poll": 8051,
      "bblers": 8052,
      "▁burb": 8053,
      "▁billing": 8054,
      "▁diagn": 8055,
      "▁prof": 8056,
      "▁experiencing": 8057,
      "▁wells": 8058,
      "▁acquaint": 8059,
      "▁charging": 8060,
      "▁former": 8061,
      "▁miseries": 8062,
      "▁chute": 8063,
      "▁buttered": 8064,
      "▁cashout": 8065,
      "ativeness": 8066,
      "▁emp": 8067,
      "▁maple": 8068,
      "▁skipping": 8069,
      "▁attendant": 8070,
      "▁pretending": 8071,
      "▁envelope": 8072,
      "▁envis": 8073,
      "▁policy": 8074,
      "▁eur": 8075,
      "▁warming": 8076,
      "arred": 8077,
      "▁hammer": 8078,
      "▁vod": 8079,
      "▁craft": 8080,
      "▁jean": 8081,
      "dron": 8082,
      "▁crises": 8083,
      "▁tim": 8084,
      "▁phys": 8085,
      "▁bathtub": 8086,
      "▁accomm": 8087,
      "▁ambulances": 8088,
      ".un": 8089,
      "▁acqui": 8090,
      "▁connectionfile": 8091,
      "▁aro": 8092,
      "icul": 8093,
      "▁mice": 8094,
      "▁intentions": 8095,
      "▁booking": 8096,
      "▁arise": 8097,
      "▁calorie": 8098,
      "▁fish": 8099,
      "tax": 8100,
      "▁rever": 8101,
      "▁twa": 8102,
      "▁k": 8103,
      "ments": 8104,
      "▁packages": 8105,
      "▁referee": 8106,
      "▁sunshine": 8107,
      "▁investigate": 8108,
      "▁farm": 8109,
      "▁seizures": 8110,
      "▁gdp": 8111,
      "assad": 8112,
      "▁exercised": 8113,
      "▁self-": 8114,
      "▁ache": 8115,
      "▁mug": 8116,
      "▁!!!!": 8117,
      "ier": 8118,
      "▁forbidden": 8119,
      "▁avoid": 8120,
      "▁bes": 8121,
      "▁have": 8122,
      "▁1830s": 8123,
      "▁essence": 8124,
      "▁depends": 8125,
      "▁attrition": 8126,
      "▁returning": 8127,
      "rates": 8128,
      "▁brightness": 8129,
      "▁visualization": 8130,
      "idic": 8131,
      "▁book": 8132,
      "▁pursuing": 8133,
      "▁drow": 8134,
      "▁knee": 8135,
      "alities": 8136,
      "▁jurisdictions": 8137,
      "▁investigations": 8138,
      "eros": 8139,
      "▁affect": 8140,
      "▁obtained": 8141,
      "ilter": 8142,
      "▁cleaners": 8143,
      "60s": 8144,
      "▁w": 8145,
      "▁impossible": 8146,
      "▁’d": 8147,
      "▁lid": 8148,
      "▁scream": 8149,
      "▁nude": 8150,
      "▁lou": 8151,
      "▁initially": 8152,
      "enda": 8153,
      "come": 8154,
      "▁unfold": 8155,
      "ucky": 8156,
      "▁lott": 8157,
      "cents": 8158,
      "▁ag": 8159,
      "▁absorbed": 8160,
      "▁fighting": 8161,
      "▁citations": 8162,
      "▁sag": 8163,
      ".n": 8164,
      "▁bro": 8165,
      "▁prob": 8166,
      "▁bath+room": 8167,
      "lids": 8168,
      "▁path": 8169,
      "▁sched": 8170,
      "▁separation": 8171,
      "▁reint": 8172,
      "▁scared": 8173,
      "▁sweater": 8174,
      "▁cutter": 8175,
      "▁survive": 8176,
      "▁photographer": 8177,
      "▁prevention": 8178,
      "▁encounter": 8179,
      "▁through": 8180,
      "▁apar": 8181,
      "bre": 8182,
      "alculation": 8183,
      "ass": 8184,
      "▁frustration": 8185,
      "▁ital": 8186,
      "rited": 8187,
      "▁compon": 8188,
      "▁(count": 8189,
      "ust": 8190,
      "▁supported": 8191,
      "▁adoption": 8192,
      "▁elder": 8193,
      "terations": 8194,
      "▁immersion": 8195,
      "▁season": 8196,
      "▁technique": 8197,
      "▁obsession": 8198,
      "ato": 8199,
      "▁aging": 8200,
      "inance": 8201,
      "▁rented": 8202,
      "▁nodes": 8203,
      "nec": 8204,
      "ugged": 8205,
      "-f": 8206,
      "▁resumed": 8207,
      "▁counterpar": 8208,
      "▁report": 8209,
      "ploy": 8210,
      "▁lick": 8211,
      "cro": 8212,
      "jamas": 8213,
      "▁roosters": 8214,
      "raged": 8215,
      "▁scattered": 8216,
      "▁sil": 8217,
      "ug": 8218,
      "uty": 8219,
      "▁procr": 8220,
      "▁conditions": 8221,
      "▁manufact": 8222,
      "▁healing": 8223,
      "most": 8224,
      "ody": 8225,
      "▁discom": 8226,
      "▁regim": 8227,
      "imited": 8228,
      "▁east": 8229,
      "▁authorization": 8230,
      "▁measure": 8231,
      "tered": 8232,
      "▁surgery": 8233,
      "bles": 8234,
      "▁fer": 8235,
      "▁steak": 8236,
      "▁daytime": 8237,
      "▁incl": 8238,
      "▁fedayeen": 8239,
      "▁limitations": 8240,
      "▁scent": 8241,
      "▁grumbles": 8242,
      "▁wishes": 8243,
      "▁23rd": 8244,
      "▁biting": 8245,
      "▁rumor": 8246,
      "xal": 8247,
      "▁wilderness": 8248,
      "▁industry": 8249,
      "▁sw": 8250,
      "▁lot": 8251,
      "▁abund": 8252,
      "▁ideology": 8253,
      "▁tran": 8254,
      "▁n": 8255,
      "▁bice": 8256,
      "^": 8257,
      "▁managers": 8258,
      "ς": 8259,
      "▁ring": 8260,
      "▁sally": 8261,
      "▁pine": 8262,
      "▁capsules": 8263,
      "▁5": 8264,
      "ood": 8265,
      "▁probability": 8266,
      "▁reporter": 8267,
      "▁refrigerator": 8268,
      "▁insect": 8269,
      "▁tush": 8270,
      "▁belongs": 8271,
      "▁ventures": 8272,
      "▁priv": 8273,
      "ife": 8274,
      "▁ackn": 8275,
      "stache": 8276,
      "▁seminars": 8277,
      "iet": 8278,
      "▁bce": 8279,
      "ill": 8280,
      "▁crop": 8281,
      "ling": 8282,
      "raw": 8283,
      "▁notwithstanding": 8284,
      "▁obtaining": 8285,
      "▁backup": 8286,
      "▁insist": 8287,
      "▁issue": 8288,
      "dat": 8289,
      "▁jig": 8290,
      "▁administrations": 8291,
      "▁punchline": 8292,
      "<": 8293,
      "▁engaged": 8294,
      "▁aged": 8295,
      "▁crush": 8296,
      "▁raisin": 8297,
      "oys": 8298,
      "▁thri": 8299,
      "▁fee": 8300,
      "▁rim": 8301,
      "▁nineteenth": 8302,
      "▁pen": 8303,
      "▁notions": 8304,
      "jectory": 8305,
      "▁drawers": 8306,
      "known": 8307,
      "39": 8308,
      "children": 8309,
      "▁greenhouse": 8310,
      "▁bureaucr": 8311,
      "count": 8312,
      "▁don": 8313,
      "o": 8314,
      "ote": 8315,
      "▁cleaned": 8316,
      "▁waive": 8317,
      "bons": 8318,
      "ox": 8319,
      "▁memor": 8320,
      "box": 8321,
      "▁hurts": 8322,
      "friend": 8323,
      "▁product": 8324,
      "▁conquer": 8325,
      "▁sympt": 8326,
      "▁blacklined": 8327,
      "▁rhymes": 8328,
      "70's": 8329,
      "▁earliest": 8330,
      "onto": 8331,
      "order": 8332,
      "▁others": 8333,
      "rew": 8334,
      "▁pack": 8335,
      "▁stir": 8336,
      "▁foie": 8337,
      "▁eol": 8338,
      "▁fright": 8339,
      "▁mobil": 8340,
      "▁cpi": 8341,
      "ghetti": 8342,
      "leven": 8343,
      "olving": 8344,
      "actor": 8345,
      "▁tracked": 8346,
      "run": 8347,
      "▁musician": 8348,
      "▁recreation": 8349,
      "▁paths": 8350,
      "--------": 8351,
      "▁construct": 8352,
      "▁sc": 8353,
      "▁branch": 8354,
      "▁flowing": 8355,
      "▁distortions": 8356,
      "▁titled": 8357,
      "▁national": 8358,
      "▁crime": 8359,
      "▁enterprise": 8360,
      "▁game": 8361,
      "tles": 8362,
      "oard": 8363,
      "▁workforce": 8364,
      "▁many": 8365,
      "orkers": 8366,
      "▁stimuli": 8367,
      "▁longer": 8368,
      "▁experiments": 8369,
      "▁pilgrim": 8370,
      "▁notified": 8371,
      "ablish": 8372,
      "▁custom-house": 8373,
      "▁hors": 8374,
      "▁commerc": 8375,
      "▁him": 8376,
      "▁wik": 8377,
      "eneration": 8378,
      "oted": 8379,
      "ality": 8380,
      "▁bringing": 8381,
      "ogn": 8382,
      "▁brothers": 8383,
      "len": 8384,
      "odes": 8385,
      "▁fearing": 8386,
      "▁ref": 8387,
      "▁souls": 8388,
      "▁commitment": 8389,
      "▁interview": 8390,
      "char": 8391,
      "▁ads": 8392,
      "▁pa": 8393,
      "▁overwhelmed": 8394,
      "▁interval": 8395,
      "▁mike": 8396,
      "uri": 8397,
      "▁loot": 8398,
      "▁direct": 8399,
      "lights": 8400,
      "uldron": 8401,
      "itters": 8402,
      "▁expansion": 8403,
      "uched": 8404,
      "▁pass": 8405,
      "ior": 8406,
      "idden": 8407,
      "▁extern": 8408,
      "▁bomb": 8409,
      "▁photos": 8410,
      "olds": 8411,
      "▁lock": 8412,
      "▁pointing": 8413,
      "▁reproducibility": 8414,
      "▁capitalism": 8415,
      "▁intrigu": 8416,
      "▁check": 8417,
      "▁hence": 8418,
      "fec": 8419,
      "▁rude": 8420,
      "▁man": 8421,
      "▁concert": 8422,
      "ford": 8423,
      "min": 8424,
      "▁rag": 8425,
      "▁chest": 8426,
      "atory": 8427,
      "▁theory": 8428,
      "▁menti": 8429,
      "▁should": 8430,
      "▁oath": 8431,
      "▁accep": 8432,
      "▁ple": 8433,
      "day": 8434,
      "mor": 8435,
      "terness": 8436,
      "▁spaghetti": 8437,
      "▁dud": 8438,
      "▁thoughts": 8439,
      "▁demonstrates": 8440,
      ".doc": 8441,
      "▁veins": 8442,
      "▁chicago": 8443,
      "▁richard": 8444,
      "-1": 8445,
      "▁frontier": 8446,
      "inary": 8447,
      "▁adjo": 8448,
      "u": 8449,
      "▁nuc": 8450,
      "▁underw": 8451,
      "▁butterfl": 8452,
      "▁enclosed": 8453,
      "▁reaches": 8454,
      "▁selected": 8455,
      "▁invented": 8456,
      "place": 8457,
      "cinn": 8458,
      "▁attempts": 8459,
      "▁asyl": 8460,
      "▁festivals": 8461,
      "▁jump": 8462,
      "agement": 8463,
      "▁reliance": 8464,
      "▁enri": 8465,
      "▁procrast": 8466,
      "▁squirt": 8467,
      "▁nin": 8468,
      "▁race": 8469,
      "▁thrive": 8470,
      "▁prosecution": 8471,
      "▁blessings": 8472,
      "▁securing": 8473,
      "▁nuisance": 8474,
      "▁b/": 8475,
      "▁cat": 8476,
      "▁cheeks": 8477,
      "erted": 8478,
      "▁concern": 8479,
      "zer": 8480,
      "icious": 8481,
      "wh": 8482,
      "▁der": 8483,
      "▁film": 8484,
      "▁so": 8485,
      "▁comb": 8486,
      "▁pret": 8487,
      "▁cav": 8488,
      "▁pirates": 8489,
      "tub": 8490,
      "▁substit": 8491,
      "▁supermarkets": 8492,
      "▁chame": 8493,
      "▁genitals": 8494,
      "▁castle": 8495,
      "tilation": 8496,
      "unct": 8497,
      "▁antenna": 8498,
      "ico": 8499,
      "▁nationality": 8500,
      "▁viewing": 8501,
      "▁going": 8502,
      "▁b": 8503,
      "aution": 8504,
      "▁dream": 8505,
      "▁!!!!!!!!!!": 8506,
      "▁bel": 8507,
      "▁peanut": 8508,
      "tionally": 8509,
      "opoly": 8510,
      "▁dorm": 8511,
      "▁dope": 8512,
      "▁ski": 8513,
      "inu": 8514,
      "▁audio": 8515,
      "vily": 8516,
      "▁exped": 8517,
      "-cent": 8518,
      "▁penc": 8519,
      "▁soot": 8520,
      "▁cooked": 8521,
      "issions": 8522,
      "▁truly": 8523,
      "bq": 8524,
      "ix": 8525,
      "▁guerrillas": 8526,
      "solut": 8527,
      "iation": 8528,
      "ested": 8529,
      "▁bu": 8530,
      "▁reflected": 8531,
      "▁strengthening": 8532,
      "▁scope": 8533,
      "▁speck": 8534,
      "leade": 8535,
      "▁preparation": 8536,
      "able": 8537,
      "▁king": 8538,
      "-of-": 8539,
      "▁millions": 8540,
      "▁concl": 8541,
      "▁revenues": 8542,
      "▁legisl": 8543,
      "real": 8544,
      "▁cocktail": 8545,
      "onde": 8546,
      "otograp": 8547,
      "▁merely": 8548,
      "▁tattoos": 8549,
      "▁scoring": 8550,
      "ansas": 8551,
      "cent": 8552,
      "▁trial": 8553,
      "▁tot": 8554,
      "▁propped": 8555,
      "ys": 8556,
      "▁indic": 8557,
      "ocado": 8558,
      "▁two": 8559,
      "▁protected": 8560,
      "▁learners": 8561,
      "ie": 8562,
      "adrons": 8563,
      "▁contents": 8564,
      "▁fares": 8565,
      "▁coo": 8566,
      "▁guilt": 8567,
      "▁schemes": 8568,
      "istor": 8569,
      "▁rapidly": 8570,
      "▁preserve": 8571,
      "nly": 8572,
      "▁establishing": 8573,
      "▁thursday": 8574,
      "▁dis": 8575,
      "rectly": 8576,
      "ock": 8577,
      "▁split": 8578,
      "lut": 8579,
      "▁smart": 8580,
      "▁prevail": 8581,
      "▁consciousness": 8582,
      "▁inquired": 8583,
      "▁worn": 8584,
      "▁gle": 8585,
      "oph": 8586,
      "▁-----------------------------------------------------------------": 8587,
      "▁confessed": 8588,
      "7": 8589,
      "▁murderer": 8590,
      "▁cabinet": 8591,
      "▁dh": 8592,
      "bon": 8593,
      "▁dominance": 8594,
      "▁laughs": 8595,
      "▁toast": 8596,
      "▁gallon": 8597,
      "▁gri": 8598,
      "▁demo": 8599,
      "▁way": 8600,
      "▁rival": 8601,
      "▁second": 8602,
      "▁mill": 8603,
      "▁sara": 8604,
      "▁territories": 8605,
      "▁genius": 8606,
      "▁liberty": 8607,
      "▁was": 8608,
      "▁poverty": 8609,
      "3rd": 8610,
      "▁warned": 8611,
      "▁preferences": 8612,
      "▁ropes": 8613,
      "▁listing": 8614,
      "▁bludgers": 8615,
      "irs": 8616,
      "▁restaurants": 8617,
      "ace": 8618,
      "▁mosquitoes": 8619,
      "▁soft": 8620,
      "▁expecting": 8621,
      "▁agent": 8622,
      "▁flooded": 8623,
      "▁combines": 8624,
      "▁mound": 8625,
      "▁connection": 8626,
      "▁busses": 8627,
      "wom": 8628,
      "▁baggage": 8629,
      "▁aftermath": 8630,
      "▁million": 8631,
      "understanding": 8632,
      "▁adv": 8633,
      "▁clan": 8634,
      "ogue": 8635,
      "usters": 8636,
      "▁drain": 8637,
      "▁uhh": 8638,
      "▁alliance": 8639,
      "ored": 8640,
      "inally": 8641,
      "▁filed": 8642,
      "▁wi": 8643,
      "grader": 8644,
      "▁partly": 8645,
      "j": 8646,
      "▁clear": 8647,
      "▁needed": 8648,
      "mates": 8649,
      "leum": 8650,
      "▁operation": 8651,
      "▁evidence": 8652,
      "▁hor": 8653,
      "list": 8654,
      "▁jih": 8655,
      "▁epidemic": 8656,
      "▁peace": 8657,
      "▁landscape": 8658,
      "▁image": 8659,
      "▁humus": 8660,
      "▁girlfriend": 8661,
      "▁figures": 8662,
      "▁ip": 8663,
      "▁eat-e": 8664,
      "reds": 8665,
      "▁career": 8666,
      "▁revealed": 8667,
      "▁separate": 8668,
      "▁pear": 8669,
      "▁martyrs": 8670,
      "▁shif": 8671,
      "▁mommy": 8672,
      "▁lig": 8673,
      "▁coined": 8674,
      "▁expenses": 8675,
      "▁abstr": 8676,
      "▁glo": 8677,
      "▁select": 8678,
      "▁mel": 8679,
      "▁glowing": 8680,
      "ted": 8681,
      "▁yea": 8682,
      "▁lipsticks": 8683,
      "▁embrace": 8684,
      "▁nibb": 8685,
      "▁though": 8686,
      "▁stup": 8687,
      "mbered": 8688,
      "▁wobblers": 8689,
      "ml": 8690,
      "▁cheat": 8691,
      "▁vio": 8692,
      "▁vast": 8693,
      "▁keyboard": 8694,
      "ticians": 8695,
      "▁defense": 8696,
      "▁gaps": 8697,
      "iots": 8698,
      "▁vehic": 8699,
      "urned": 8700,
      "▁gained": 8701,
      "ck": 8702,
      "▁chimed": 8703,
      "▁walked": 8704,
      "▁disob": 8705,
      "▁giving": 8706,
      "▁kay": 8707,
      "▁liquidation": 8708,
      "▁ending": 8709,
      "▁wrongdo": 8710,
      "▁racism": 8711,
      "acked": 8712,
      "▁coverage": 8713,
      "ieth": 8714,
      "▁e-commerce": 8715,
      "arians": 8716,
      "▁spokesman": 8717,
      "▁ranch": 8718,
      "▁penny": 8719,
      "oks": 8720,
      "▁cluster": 8721,
      "▁resu": 8722,
      "ites": 8723,
      "▁anger": 8724,
      "▁known": 8725,
      "▁kang": 8726,
      "▁foster": 8727,
      "self": 8728,
      "▁beside": 8729,
      "▁inability": 8730,
      "▁veranda": 8731,
      "yth": 8732,
      "://": 8733,
      "▁grip": 8734,
      "▁calls": 8735,
      "▁aluminum": 8736,
      "▁outgrow": 8737,
      "▁id": 8738,
      "ω": 8739,
      "▁traced": 8740,
      "▁backpack": 8741,
      "▁shrie": 8742,
      "▁michelle": 8743,
      "umbs": 8744,
      "writ": 8745,
      "▁required": 8746,
      "▁peel": 8747,
      "ye": 8748,
      "▁dominated": 8749,
      "▁compelled": 8750,
      "▁hands": 8751,
      "rops": 8752,
      "▁guacamole": 8753,
      "▁accust": 8754,
      "▁play+ground": 8755,
      "▁toddler": 8756,
      "▁”": 8757,
      "▁mailed": 8758,
      "alancing": 8759,
[...]
