{
  "version": "1.0",
  "truncation": null,
  "padding": null,
  "added_tokens": [
    {
      "id": 1479,
      "content": "[CLS]",
      "single_word": false,
      "lstrip": false,
      "rstrip": false,
      "normalized": false,
      "special": true
    },
    {
      "id": 2808,
      "content": "[MASK]",
      "single_word": false,
      "lstrip": false,
      "rstrip": false,
      "normalized": false,
      "special": true
    },
    {
      "id": 5658,
      "content": "[PAD]",
      "single_word": false,
      "lstrip": false,
      "rstrip": false,
      "normalized": false,
      "special": true
    },
    {
      "id": 6012,
      "content": "[UNK]",
      "single_word": false,
      "lstrip": false,
      "rstrip": false,
      "normalized": false,
      "special": true
    },
    {
      "id": 7939,
      "content": "[SEP]",
      "single_word": false,
      "lstrip": false,
      "rstrip": false,
      "normalized": false,
      "special": true
    }
  ],
  "normalizer": {
    "type": "Sequence",
    "normalizers": [
      {
        "type": "NFD"
      },
      {
        "type": "Lowercase"
      },
      {
        "type": "StripAccents"
      }
    ]
  },
  "pre_tokenizer": {
    "type": "Sequence",
    "pretokenizers": [
      {
        "type": "Metaspace",
        "replacement": "▁",
        "prepend_scheme": "always",
        "split": true
      }
    ]
  },
  "post_processor": {
    "type": "TemplateProcessing",
    "single": [
      {
        "SpecialToken": {
          "id": "[CLS]",
          "type_id": 0
        }
      },
      {
        "Sequence": {
          "id": "A",
          "type_id": 0
        }
      },
      {
        "SpecialToken": {
          "id": "[SEP]",
          "type_id": 0
        }
      }
    ],
    "pair": [
      {
        "SpecialToken": {
          "id": "[CLS]",
          "type_id": 0
        }
      },
      {
        "Sequence": {
          "id": "A",
          "type_id": 0
        }
      },
      {
        "SpecialToken": {
          "id": "[SEP]",
          "type_id": 0
        }
      },
      {
        "Sequence": {
          "id": "B",
          "type_id": 1
        }
      },
      {
        "SpecialToken": {
          "id": "[SEP]",
          "type_id": 1
        }
      }
    ],
    "special_tokens": {
      "[CLS]": {
        "id": "[CLS]",
        "ids": [
          1479
        ],
        "tokens": [
          "[CLS]"
        ]
      },
      "[SEP]": {
        "id": "[SEP]",
        "ids": [
          7939
        ],
        "tokens": [
          "[SEP]"
        ]
      }
    }
  },
  "decoder": {
    "type": "Metaspace",
    "replacement": "▁",
    "prepend_scheme": "always",
    "split": true
  },
  "model": {
    "type": "Unigram",
    "unk_id": 6012,
    "vocab": [
      [
        "▁democrat",
        -7.7140240841918475
      ],
      [
        "▁dry",
        -8.577557739989558
      ],
      [
        "▁eight",
        -5.45617522748721
      ],
      [
        "▁generat",
        -10.558627311455178
      ],
      [
        "▁tribe",
        -9.660655465665338
      ],
      [
        "▁enhanc",
        -10.858349100700668
      ],
      [
        "▁de",
        -8.377010357385638
      ],
      [
        "▁than",
        -5.888803821775666
      ],
      [
        "▁mumm",
        -7.233669912628453
      ],
      [
        "▁hop",
        -8.4796290412475
      ],
      [
        "▁fil",
        -10.04456895322318
      ],
      [
        ".p",
        -9.785991924742374
      ],
      [
        "▁participant",
        -8.643242187848868
      ],
      [
        "▁twist",
        -9.5832920338528
      ],
      [
        "▁shake",
        -8.986524122660615
      ],
      [
        "ite",
        -7.044615132236148
      ],
      [
        "▁postpone",
        -10.306181433786158
      ],
      [
        "▁measurement",
        -10.491193569796549
      ],
      [
        "▁n",
        -7.809789423261544
      ],
      [
        "▁p",
        -9.237570785962834
      ],
      [
        "▁reinforce",
        -10.457313139922562
      ],
      [
        "▁frog",
        -9.581672629396119
      ],
      [
        "▁toys",
        -8.097578481819095
      ],
      [
        "depend",
        -7.598902156567278
      ],
      [
        "▁burba",
        -8.115613950414248
      ],
      [
        "um",
        -7.737424338234126
      ],
      [
        "▁license",
        -7.714373685688653
      ],
      [
        "▁network",
        -8.507947185886495
      ],
      [
        "▁tar",
        -10.485595936565819
      ],
      [
        "▁long",
        -10.428135060899182
      ],
      [
        "▁ba",
        -9.810970998698211
      ],
      [
        "▁page",
        -6.973936897711638
      ],
      [
        "▁every",
        -8.138839326173517
      ],
      [
        "▁shal",
        -7.0325008928194634
      ],
      [
        "out",
        -8.281770022134857
      ],
      [
        "itude",
        -10.395351227896802
      ],
      [
        "▁theater",
        -9.322007045864288
      ],
      [
        "▁sent",
        -7.317329916154069
      ],
      [
        "▁tri",
        -8.25020254601136
      ],
      [
        "▁contest",
        -10.37565670942262
      ],
      [
        "our",
        -9.506348543388656
      ],
      [
        "▁wan",
        -5.44162962435048
      ],
      [
        "▁15",
        -10.168584282713024
      ],
      [
        "▁wi",
        -10.730112993067628
      ],
      [
        "nd",
        -9.236601350363305
      ],
      [
        "ight",
        -7.544412920616463
      ],
      [
        "▁librar",
        -9.1636903443565
      ],
      [
        "at",
        -10.166605929081395
      ],
      [
        "▁imagine",
        -7.707056211457395
      ],
      [
        "ment",
        -8.426674424199724
      ],
      [
        "▁reference",
        -9.376456987727982
      ],
      [
        "▁sunday",
        -7.386638818532818
      ],
      [
        "▁hydro",
        -10.346595844043811
      ],
      [
        "ou",
        -10.303329679541383
      ],
      [
        "▁witness",
        -9.633822607438336
      ],
      [
        "▁yield",
        -9.868829274536594
      ],
      [
        "▁pr",
        -8.535186751009446
      ],
      [
        "▁fore",
        -8.8759587857126
      ],
      [
        "il",
        -8.987538704904058
      ],
      [
        "▁forgot",
        -7.758661021247899
      ],
      [
        "gerate",
        -10.630341867991998
      ],
      [
        "▁at",
        -5.040331045484085
      ],
      [
        "▁hi",
        -7.87038307567777
      ],
      [
        "▁dance",
        -8.737439926745441
      ],
      [
        "▁cane",
        -10.236130633693405
      ],
      [
        "re",
        -11.340506330349145
      ],
      [
        "▁derivative",
        -10.31142080913969
      ],
      [
        "hell",
        -9.211364642091638
      ],
      [
        "▁universit",
        -6.830723950781339
      ],
      [
        "▁integr",
        -9.389237436494293
      ],
      [
        "▁fireman",
        -10.175304536993721
      ],
      [
        "▁greate",
        -7.738053124962482
      ],
      [
        "uh",
        -5.177654103719439
      ],
      [
        "▁clos",
        -8.852234879791947
      ],
      [
        "▁nutri",
        -10.185098990768763
      ],
      [
        "▁study",
        -7.4287601947056805
      ],
      [
        "f",
        -10.765301919425882
      ],
      [
        "no",
        -6.8358683297991245
      ],
      [
        "ly",
        -7.7234003278504435
      ],
      [
        "▁finish",
        -9.741613511407976
      ],
      [
        "▁dislike",
        -10.478087604011655
      ],
      [
        "▁occur",
        -8.661361815316443
      ],
      [
        "th",
        -6.309957278833341
      ],
      [
        "▁pig",
        -8.488726438484587
      ],
      [
        "▁remain",
        -9.932727112706296
      ],
      [
        "box",
        -10.140336236912844
      ],
      [
        "▁tunnel",
        -9.509994420811047
      ],
      [
        "▁toda",
        -6.2098068585422475
      ],
      [
        "▁detail",
        -7.783612137941263
      ],
      [
        "▁ad",
        -10.163539640848882
      ],
      [
        "▁calculate",
        -9.310419178133518
      ],
      [
        "gar",
        -9.974455358778455
      ],
      [
        "▁glance",
        -10.04395253135463
      ],
      [
        "ial",
        -6.617192983272803
      ],
      [
        "▁y",
        -12.564790908332268
      ],
      [
        "▁iran",
        -6.877564225648696
      ],
      [
        "▁tha",
        -2.389866280899322
      ],
      [
        "▁bu",
        -10.818330010476224
      ],
      [
        "▁park",
        -9.212673940397465
      ],
      [
        "▁anyway",
        -6.660623151807425
      ],
      [
        "▁associate",
        -8.574150142076096
      ],
      [
        "head",
        -7.109249811403601
      ],
      [
        "ednes",
        -9.940383263950388
      ],
      [
        "▁ko",
        -10.48767671266335
      ],
      [
        "▁countryside",
        -10.315552231403695
      ],
      [
        "▁forum",
        -9.93390936026009
      ],
      [
        "▁beep",
        -9.875138582928344
      ],
      [
        "▁tug",
        -9.843642176028455
      ],
      [
        "un",
        -10.4123632502803
      ],
      [
        "*****",
        -11.55114666431147
      ],
      [
        "▁borrow",
        -9.86903619898803
      ],
      [
        "}",
        -12.810278406305976
      ],
      [
        "they",
        -7.005894765477494
      ],
      [
        "ves",
        -8.347965329337939
      ],
      [
        "▁adjust",
        -8.81943056587951
      ],
      [
        "▁what",
        -4.999866406006407
      ],
      [
        "▁train",
        -6.973347792705907
      ],
      [
        "▁acquir",
        -9.511154169961484
      ],
      [
        "▁ch",
        -10.895776834788457
      ],
      [
        "▁ya",
        -10.057489520944594
      ],
      [
        "▁advert",
        -9.83210567172138
      ],
      [
        "▁guy",
        -6.662665736122084
      ],
      [
        "ordina",
        -7.8714163243139526
      ],
      [
        "ex",
        -7.917704102461412
      ],
      [
        "▁nation",
        -7.955822749522195
      ],
      [
        "▁anthr",
        -8.559874657338217
      ],
      [
        "nis",
        -10.054363858874632
      ],
      [
        "▁deal",
        -7.6621603068830595
      ],
      [
        "▁path",
        -8.348260750554214
      ],
      [
        "▁strong",
        -6.705735057937477
      ],
      [
        "▁endure",
        -10.262424684064626
      ],
      [
        "▁face",
        -8.031543205840347
      ],
      [
        "▁on",
        -5.361902469050707
      ],
      [
        "istic",
        -7.463813450001007
      ],
      [
        "▁consci",
        -9.360896288671247
      ],
      [
        "!!!!!!!!!!!!!!",
        -12.258495128023615
      ],
      [
        "▁devise",
        -10.151868310973128
      ],
      [
        "▁publishe",
        -8.041078949278049
      ],
      [
        "▁eb",
        -8.179068457308862
      ],
      [
        "▁can",
        -8.93640109452402
      ],
      [
        "▁mature",
        -10.375526164268171
      ],
      [
        "▁medal",
        -10.314647386677157
      ],
      [
        "▁project",
        -7.2878303884677615
      ],
      [
        "da",
        -11.222074835862148
      ],
      [
        "matic",
        -7.748052528941689
      ],
      [
        "c",
        -4.327503421637194
      ],
      [
        "▁discover",
        -9.581697866363024
      ],
      [
        "able",
        -4.583743775946479
      ],
      [
        "▁screen",
        -8.412473885480397
      ],
      [
        "▁abbreviation",
        -10.043563666265184
      ],
      [
        "blic",
        -8.001689013329223
      ],
      [
        "▁pool",
        -8.800846188020898
      ],
      [
        "‘",
        -9.32263420951717
      ],
      [
        "▁black",
        -8.874137879298832
      ],
      [
        "▁musician",
        -9.83296434615012
      ],
      [
        "▁treatment",
        -8.224203125336462
      ],
      [
        "▁draw",
        -10.03798285722322
      ],
      [
        "ly",
        -6.045208521205439
      ],
      [
        "▁mailing",
        -9.772490220096303
      ],
      [
        "▁acc",
        -8.655995196591189
      ],
      [
        "▁feather",
        -9.117467879834418
      ],
      [
        "▁resolution",
        -9.2663408302195
      ],
      [
        "▁techn",
        -7.4262975788531485
      ],
      [
        "▁economist",
        -9.937637885213325
      ],
      [
        "▁chill",
        -9.868840989712089
      ],
      [
        "list",
        -10.044231971094336
      ],
      [
        "▁h",
        -9.88687233925407
      ],
      [
        "▁hav",
        -6.718104064181433
      ],
      [
        "▁fee",
        -7.293889344751351
      ],
      [
        "▁content",
        -8.082770500695014
      ],
      [
        "▁owl",
        -9.11945768531276
      ],
      [
        "▁inhabit",
        -10.625392670092056
      ],
      [
        "▁wail",
        -10.765240434870135
      ],
      [
        "▁louis",
        -7.0462255494589385
      ],
      [
        "▁nov",
        -7.369433850379987
      ],
      [
        "▁12",
        -5.2458269485953
      ],
      [
        "play",
        -9.488572692942682
      ],
      [
        "like",
        -8.617602280843219
      ],
      [
        "▁suit",
        -9.442799361406374
      ],
      [
        "gon",
        -9.842355029236305
      ],
      [
        "▁alert",
        -10.311446863000706
      ],
      [
        "▁father",
        -6.919600024684173
      ],
      [
        "▁break",
        -7.4288678891284174
      ],
      [
        "▁pres",
        -8.41671137336538
      ],
      [
        "▁career",
        -8.246939459356078
      ],
      [
        "▁developer",
        -9.581287075677709
      ],
      [
        "▁earlie",
        -6.343694260173169
      ],
      [
        "▁pencil",
        -7.957362655688842
      ],
      [
        "▁meta",
        -10.167558485455139
      ],
      [
        "▁tu",
        -7.134000349017217
      ],
      [
        "yo",
        -13.477506734468584
      ],
      [
        "b",
        -7.441949052032088
      ],
      [
        "▁price",
        -10.430137417473734
      ],
      [
        "thi",
        -6.816229796495275
      ],
      [
        "▁d",
        -9.912457131010228
      ],
      [
        "!!!!!!!!!!!!!!!",
        -11.726744569091506
      ],
      [
        "▁fung",
        -9.512994125273542
      ],
      [
        "▁statement",
        -8.229940731809688
      ],
      [
        "▁conform",
        -9.744589627943448
      ],
      [
        "▁slamm",
        -10.009632995353966
      ],
      [
        "▁injure",
        -9.869002843732643
      ],
      [
        "▁dynamic",
        -10.478242762475983
      ],
      [
        "▁surve",
        -10.283664897685863
      ],
      [
        "▁wednesday",
        -6.660745701170919
      ],
      [
        "▁spend",
        -7.795473079364302
      ],
      [
        "▁af",
        -7.921499307680733
      ],
      [
        "▁14",
        -6.303665993373417
      ],
      [
        "▁worr",
        -10.04522427940678
      ],
      [
        "go",
        -7.098848247505716
      ],
      [
        "▁runn",
        -7.605528184991227
      ],
      [
        "▁coordinat",
        -9.212918356216173
      ],
      [
        "▁intervention",
        -9.321982871887034
      ],
      [
        "▁specializ",
        -10.453495390656661
      ],
      [
        "▁",
        -1.879078986922659
      ],
      [
        "▁russian",
        -9.932452700027449
      ],
      [
        "ate",
        -7.545575350373912
      ],
      [
        "▁stretch",
        -8.470534988847277
      ],
      [
        "▁song",
        -7.90134858487282
      ],
      [
        "▁1",
        -4.047171860870492
      ],
      [
        "a",
        -1.8416649220847514
      ],
      [
        "▁per",
        -7.346560011311309
      ],
      [
        "▁hope",
        -6.850381843185085
      ],
      [
        "dden",
        -9.234145617308972
      ],
      [
        "in",
        -5.972258428642649
      ],
      [
        "▁colour",
        -9.380759737712843
      ],
      [
        "istenc",
        -10.118891384366332
      ],
      [
        "ch",
        -6.965200618973387
      ],
      [
        "p",
        -12.303800120175861
      ],
      [
        "▁weasley",
        -7.869133281846521
      ],
      [
        "▁martyr",
        -10.168573203927544
      ],
      [
        "▁histor",
        -7.4881948809157155
      ],
      [
        "▁pupp",
        -8.702655918748702
      ],
      [
        "▁doggie",
        -7.594463782567137
      ],
      [
        "▁vomit",
        -9.533771709172859
      ],
      [
        "sheet",
        -9.413918957942428
      ],
      [
        "▁updat",
        -10.536455177965196
      ],
      [
        "▁hel",
        -7.2456770289592685
      ],
      [
        "▁restaurant",
        -7.400886071833667
      ],
      [
        "ssion",
        -10.67220306730987
      ],
      [
        "▁register",
        -9.083751068424034
      ],
      [
        "▁sub",
        -8.852001780456561
      ],
      [
        "▁collar",
        -10.044566570726975
      ],
      [
        "▁con",
        -7.391996245884695
      ],
      [
        "▁traffic",
        -8.566881773455638
      ],
      [
        "▁wind",
        -8.262074203512476
      ],
      [
        "▁stick",
        -8.833728188329218
      ],
      [
        "▁nam",
        -9.606888969482533
      ],
      [
        "************",
        -12.973373201788785
      ],
      [
        "▁sketch",
        -10.488527027119485
      ],
      [
        "▁weekday",
        -9.565279948104976
      ],
      [
        "▁displace",
        -10.182889128318747
      ],
      [
        "▁bless",
        -9.745754466589428
      ],
      [
        "▁confi",
        -10.375219821549663
      ],
      [
        "▁van",
        -9.015063550461857
      ],
      [
        "▁facult",
        -9.44319272643382
      ],
      [
        "▁refin",
        -10.629002319716383
      ],
      [
        "▁seat",
        -10.18696325285451
      ],
      [
        "▁r",
        -9.969176708666446
      ],
      [
        "▁burger",
        -10.043564040542806
      ],
      [
        "science",
        -9.835215208864911
      ],
      [
        "ame",
        -5.336550110322487
      ],
      [
        "▁atm",
        -8.34485273049879
      ],
      [
        "▁tons",
        -9.552530120110593
      ],
      [
        "▁freez",
        -9.373485835187363
      ],
      [
        "▁specialist",
        -9.322072655267839
      ],
      [
        "▁hasid",
        -9.83257034875128
      ],
      [
        "▁nomin",
        -10.207628193064897
      ],
      [
        "▁saving",
        -9.932492984651448
      ],
      [
        "▁desk",
        -8.033207012844603
      ],
      [
        "▁disse",
        -10.298581248028732
      ],
      [
        "▁zealand",
        -8.108845984925889
      ],
      [
        "▁un",
        -9.431828910884363
      ],
      [
        "▁ecosystem",
        -10.478087475907468
      ],
      [
        "▁sara",
        -6.708077875948279
      ],
      [
        "▁n",
        -6.357557291452977
      ],
      [
        "_",
        -4.8283611448919315
      ],
      [
        "▁m",
        -7.860570558349283
      ],
      [
        "▁ground",
        -6.5449704950192835
      ],
      [
        "▁sad",
        -7.6620558953530065
      ],
      [
        "▁gain",
        -8.357524823784749
      ],
      [
        "oil",
        -10.310156890257774
      ],
      [
        "▁sunn",
        -7.90078657461334
      ],
      [
        "awah",
        -8.061104799145513
      ],
      [
        "▁towe",
        -9.689024425197355
      ],
      [
        "u",
        -6.759958710825652
      ],
      [
        "▁orl",
        -7.425028686840082
      ],
      [
        "had",
        -6.878629606664507
      ],
      [
        "▁relative",
        -7.900067868839787
      ],
      [
        "▁meeting",
        -7.488381865290601
      ],
      [
        "▁under",
        -6.340505141486626
      ],
      [
        "vacu",
        -10.043231366644038
      ],
      [
        "▁wo",
        -7.267365822071614
      ],
      [
        "▁st",
        -9.299778418983532
      ],
      [
        "%",
        -2.8879974470677894
      ],
      [
        "▁commodit",
        -10.168563671599841
      ],
      [
        "than",
        -8.760961957451034
      ],
      [
        "▁betray",
        -10.625406250415974
      ],
      [
        "mination",
        -9.0103642310771
      ],
      [
        "▁island",
        -7.525496349552649
      ],
      [
        "▁yog",
        -8.58692851266068
      ],
      [
        "▁mak",
        -6.471703968163164
      ],
      [
        "right",
        -7.817217271791335
      ],
      [
        "▁bedroom",
        -8.64422850433244
      ],
      [
        "▁desire",
        -9.432100138663028
      ],
      [
        "p",
        -6.261203873790647
      ],
      [
        "ula",
        -7.8655581337808815
      ],
      [
        "▁notification",
        -10.168795309023384
      ],
      [
        "h",
        -3.294768851479734
      ],
      [
        "connect",
        -9.581234694616457
      ],
      [
        "▁heal",
        -10.150695393489766
      ],
      [
        "too",
        -10.466901582781876
      ],
      [
        "t",
        -2.4878868855370015
      ],
      [
        "▁layer",
        -10.328315322312214
      ],
      [
        "▁trainer",
        -10.277477708950967
      ],
      [
        "▁supplement",
        -10.625392290116027
      ],
      [
        "▁harvest",
        -9.744591996457313
      ],
      [
        "▁pleas",
        -7.594931591423149
      ],
      [
        "▁conquer",
        -9.869148430134826
      ],
      [
        "▁legislat",
        -8.766182293688122
      ],
      [
        "side",
        -7.369361114905498
      ],
      [
        "▁the",
        -4.368852518839425
      ],
      [
        "▁study",
        -7.7240553395548215
      ],
      [
        "▁cousin",
        -9.658210404605859
      ],
      [
        "▁demand",
        -8.376691249688534
      ],
      [
        "▁o",
        -7.106158376632667
      ],
      [
        "▁gall",
        -9.808771246835265
      ],
      [
        "▁eight",
        -8.005479420499876
      ],
      [
        "▁super",
        -10.488783699959416
      ],
      [
        "▁wage",
        -10.14960788978259
      ],
      [
        "▁jeff",
        -7.358449266279162
      ],
      [
        "ole",
        -10.281403234543092
      ],
      [
        "▁agreement",
        -7.470177209775466
      ],
      [
        "▁l2",
        -9.027214197266304
      ],
      [
        "oft",
        -8.189491322782379
      ],
      [
        "▁rule",
        -7.563217396663663
      ],
      [
        "▁herb",
        -10.311891627915845
      ],
      [
        "k",
        -6.601882593626262
      ],
      [
        "▁personal",
        -7.73883688352381
      ],
      [
        "▁steer",
        -10.377419313835233
      ],
      [
        "▁dish",
        -8.351199429928243
      ],
      [
        "▁rumor",
        -10.479611079678604
      ],
      [
        "▁experiment",
        -9.744843305436728
      ],
      [
        "▁i",
        -8.414006726853913
      ],
      [
        "▁re-",
        -8.721355501734267
      ],
      [
        "▁naturalis",
        -10.175047940614792
      ],
      [
        "▁ear",
        -8.608959492643725
      ],
      [
        "▁cover",
        -7.530766538554042
      ],
      [
        "▁heel",
        -9.070788501160509
      ],
      [
        "▁use",
        -7.2169978772038474
      ],
      [
        "▁redesign",
        -10.626120152468657
      ],
      [
        "▁report",
        -6.963132212518332
      ],
      [
        "cour",
        -7.539159453764968
      ],
      [
        "▁passport",
        -9.50987336402059
      ],
      [
        "ffici",
        -7.440923749614953
      ],
      [
        "▁represent",
        -7.84192061450014
      ],
      [
        "▁minute",
        -6.792852625067997
      ],
      [
        "▁ab",
        -9.77486255708383
      ],
      [
        "▁uhh",
        -6.002948122038999
      ],
      [
        "n",
        -11.31025614719772
      ],
      [
        "▁wash",
        -7.504951731329325
      ],
      [
        "▁inhabitant",
        -9.932452555209595
      ],
      [
        "▁puree",
        -10.65186179012632
      ],
      [
        "▁green",
        -9.266498883197883
      ],
      [
        "tha",
        -9.346659201024885
      ],
      [
        "▁serve",
        -6.80670337700455
      ],
      [
        "toward",
        -10.5930503330447
      ],
      [
        "▁hint",
        -9.509882947625258
      ],
      [
        "▁tend",
        -8.614622362102224
      ],
      [
        "▁impr",
        -9.640881819993131
      ],
      [
        "vention",
        -9.657678214962386
      ],
      [
        "▁them",
        -5.092080749922367
      ],
      [
        "▁lion",
        -8.676963767318323
      ],
      [
        "▁writing",
        -8.643696328393238
      ],
      [
        "▁quiet",
        -7.850034831659617
      ],
      [
        "ival",
        -10.006896712903686
      ],
      [
        "▁basic",
        -7.651982902971502
      ],
      [
        "▁o",
        -5.5051082632013175
      ],
      [
        "▁hum",
        -9.816718798367189
      ],
      [
        "▁exclaim",
        -10.011733413715644
      ],
      [
        "!!!",
        -8.681878390748498
      ],
      [
        "▁tha",
        -6.391787174921177
      ],
      [
        "▁moth",
        -10.485257673559568
      ],
      [
        "▁l",
        -6.757555797196762
      ],
      [
        "face",
        -10.243692146314638
      ],
      [
        "▁definit",
        -7.014693227758429
      ],
      [
        "cil",
        -8.125382901305478
      ],
      [
        "z",
        -8.474407620128483
      ],
      [
        "▁replacement",
        -9.832453180438883
      ],
      [
        "▁weep",
        -10.6371667924686
      ],
      [
        "rate",
        -7.566553718926961
      ],
      [
        "▁buckl",
        -10.635303392634972
      ],
      [
        "▁over",
        -5.746199670579694
      ],
      [
        "cent",
        -7.652589887132629
      ],
      [
        "▁sh",
        -9.787824462077552
      ],
      [
        "▁tap",
        -10.854487862826728
      ],
      [
        "how",
        -9.991402506266775
      ],
      [
        "graph",
        -10.32001525202416
      ],
      [
        "▁**",
        -12.566425383930483
      ],
      [
        "▁hover",
        -10.37642554524435
      ],
      [
        "▁device",
        -9.581378628984087
      ],
      [
        "▁pine",
        -10.218305081110165
      ],
      [
        "▁pyjama",
        -10.168627413474013
      ],
      [
        "▁31",
        -6.916304381332294
      ],
      [
        "▁contract",
        -10.17540483979669
      ],
      [
        "▁fighter",
        -9.845061670076113
      ],
      [
        "us",
        -3.920615676271251
      ],
      [
        "▁move",
        -6.640303779448729
      ],
      [
        "▁conversation",
        -8.150007798550908
      ],
      [
        "▁friends",
        -7.103210661668003
      ],
      [
        "▁murder",
        -8.668398467351855
      ],
      [
        "▁chang",
        -8.008629503993417
      ],
      [
        "▁-",
        -7.106383807340567
      ],
      [
        "▁credit",
        -7.970849002082531
      ],
      [
        "▁propa",
        -9.663845459789217
      ],
      [
        "▁operat",
        -10.187041651515521
      ],
      [
        "ual",
        -6.36502189831647
      ],
      [
        "on",
        -6.870845246803458
      ],
      [
        "▁where",
        -4.295607078995645
      ],
      [
        "▁amount",
        -7.224863221509553
      ],
      [
        "her",
        -6.563763909055743
      ],
      [
        "r",
        -6.214075330236204
      ],
      [
        "▁matche",
        -10.01697968965513
      ],
      [
        "▁million",
        -8.673579872862673
      ],
      [
        "▁export",
        -8.573721919488909
      ],
      [
        "▁slow",
        -7.370680472423794
      ],
      [
        "▁publisher",
        -10.16944571848499
      ],
      [
        "▁order",
        -7.583793869267323
      ],
      [
        "▁a",
        -6.12190624464488
      ],
      [
        "▁comfort",
        -7.7326495420772865
      ],
      [
        "▁sneaker",
        -10.311420811465968
      ],
      [
        "▁fine",
        -6.622671821318005
      ],
      [
        "tter",
        -6.783327446752775
      ],
      [
        "found",
        -10.741834212598295
      ],
      [
        "▁drop",
        -8.988404574658835
      ],
      [
        "▁american",
        -5.936620762144952
      ],
      [
        "▁memorize",
        -10.625426217963572
      ],
      [
        "▁creati",
        -7.923815891017407
      ],
      [
        "▁compound",
        -10.375576661577485
      ],
      [
        "▁shine",
        -10.254725073612573
      ],
      [
        "▁great",
        -5.158725407219528
      ],
      [
        "▁hard",
        -6.981459197999821
      ],
      [
        "▁poop",
        -9.622106969472634
      ],
      [
        "▁revisit",
        -10.631252763409883
      ],
      [
        "▁success",
        -8.22835123492166
      ],
      [
        "▁consen",
        -10.468635673292233
      ],
      [
        "***",
        -10.264982179695927
      ],
      [
        "▁fir",
        -9.79574731693776
      ],
      [
        "▁letter",
        -7.1509969654889245
      ],
      [
        "▁repl",
        -9.65872061320422
      ],
      [
        "▁opposite",
        -9.941378997809423
      ],
      [
        "v",
        -9.394206695612269
      ],
      [
        "▁where",
        -5.614914026485336
      ],
      [
        "ay",
        -7.506375717695027
      ],
      [
        "▁depend",
        -7.769878710648066
      ],
      [
        "▁us",
        -6.5218719918286725
      ],
      [
        "▁provision",
        -8.411447343535297
      ],
      [
        "back",
        -8.500899665186376
      ],
      [
        "!!!!!!!!!!!!!",
        -12.159030662584136
      ],
      [
        "▁repl",
        -9.938027662388718
      ],
      [
        "▁link",
        -8.421431361608825
      ],
      [
        "▁revision",
        -9.512960534952708
      ],
      [
        "▁chemical",
        -9.658211123781356
      ],
      [
        "00",
        -9.443160033069033
      ],
      [
        "abl",
        -5.607246216433183
      ],
      [
        "tu",
        -10.257452071108855
      ],
      [
        "on",
        -10.14240032102932
      ],
      [
        "▁request",
        -8.03316034610802
      ],
      [
        "??????",
        -13.834852348222816
      ],
      [
        "▁gear",
        -10.481564458987545
      ],
      [
        "▁branch",
        -9.266324826093037
      ],
      [
        "▁oath",
        -9.509859222559164
      ],
      [
        "▁america",
        -6.8003988601235505
      ],
      [
        "▁tol",
        -6.346755550568246
      ],
      [
        "▁run",
        -8.754310433168932
      ],
      [
        "▁i",
        -7.352216322514234
      ],
      [
        "▁effect",
        -7.584209163523786
      ],
      [
        "▁beater",
        -10.047727496751518
      ],
      [
        "lack",
        -8.242158508517724
      ],
      [
        "▁promotion",
        -9.93422212188284
      ],
      [
        "ans",
        -9.158890225761015
      ],
      [
        "▁scrap",
        -10.726274855521616
      ],
      [
        "▁rope",
        -9.581287985829148
      ],
      [
        "c",
        -5.811834898890697
      ],
      [
        "▁confine",
        -10.01031553379752
      ],
      [
        "▁difficult",
        -8.58686161280669
      ],
      [
        "▁payment",
        -8.483118001098607
      ],
      [
        "▁cat",
        -7.136095539808084
      ],
      [
        "ominate",
        -10.358807714120648
      ],
      [
        "▁includ",
        -6.833177670588736
      ],
      [
        "▁diagram",
        -10.478087863237075
      ],
      [
        "▁north",
        -8.50620785573341
      ],
      [
        "▁nephew",
        -9.581287054010563
      ],
      [
        "hol",
        -7.43404099862988
      ],
      [
        ")",
        -10.47808747583602
      ],
      [
        "ve",
        -6.8879324377722195
      ],
      [
        "▁twirl",
        -9.868804640226257
      ],
      [
        "y",
        -4.983554208410508
      ],
      [
        "give",
        -9.670984598781121
      ],
      [
        "▁descend",
        -9.869185119250728
      ],
      [
        "▁ii",
        -6.7287787636930885
      ],
      [
        "lapse",
        -10.65405080993284
      ],
      [
        "▁crown",
        -10.314425706208812
      ],
      [
        "▁burst",
        -10.478093199622258
      ],
      [
        "▁further",
        -7.053770262695196
      ],
      [
        "ll",
        -7.831638582495886
      ],
      [
        "▁cross",
        -8.458026529841618
      ],
      [
        "n",
        -7.287323552283678
      ],
      [
        "▁ma",
        -7.0725811361689015
      ],
      [
        "▁lu",
        -8.08077156361382
      ],
      [
        "▁crew",
        -9.213698959530468
      ],
      [
        "▁thes",
        -5.533559998489873
      ],
      [
        "▁over",
        -9.078225487752855
      ],
      [
        "▁oh",
        -3.2899133699130756
      ],
      [
        "▁stung",
        -9.877622477097226
      ],
      [
        "9",
        -4.443752773287558
      ],
      [
        "▁connection",
        -7.61466503604316
      ],
      [
        "▁perceiv",
        -10.551918828734166
      ],
      [
        "▁involvement",
        -9.443191815891064
      ],
      [
        "▁see",
        -4.551308700229445
      ],
      [
        "▁walk",
        -6.515052717435402
      ],
      [
        "▁eth",
        -10.145581486630364
      ],
      [
        "▁departure",
        -9.163681157719159
      ],
      [
        "bye",
        -10.141625867656577
      ],
      [
        "▁submarine",
        -10.311431077907708
      ],
      [
        "▁ga",
        -9.703023709009663
      ],
      [
        "▁room",
        -6.348326913782922
      ],
      [
        "▁ruler",
        -9.957091449065665
      ],
      [
        "▁worry",
        -8.610892468635155
      ],
      [
        "▁reconcili",
        -9.50988995044123
      ],
      [
        "▁readers",
        -9.269982115523732
      ],
      [
        "ect",
        -7.2808766303213615
      ],
      [
        "were",
        -7.167827169458954
      ],
      [
        "▁requir",
        -9.106318260961466
      ],
      [
        "▁marriage",
        -8.242785277018218
      ],
      [
        "▁florid",
        -7.842974480282274
      ],
      [
        "f",
        -11.770631529841472
      ],
      [
        "▁sept",
        -6.610174293240989
      ],
      [
        "▁travel",
        -8.407759598888934
      ],
      [
        "▁entr",
        -9.10589569215248
      ],
      [
        "▁detain",
        -10.626643839436582
      ],
      [
        "▁rac",
        -9.501417585476194
      ],
      [
        "▁diar",
        -10.172641777439292
      ],
      [
        "ra",
        -7.942387040478716
      ],
      [
        "▁priva",
        -9.510060485577865
      ],
      [
        "▁quin",
        -6.692486266509986
      ],
      [
        "▁ca",
        -9.257433676634273
      ],
      [
        "▁bi",
        -10.199353731952977
      ],
      [
        "▁detail",
        -10.626634897885598
      ],
      [
        "▁form",
        -7.065521486599433
      ],
      [
        "▁dictionar",
        -10.478101999684725
      ],
      [
        "▁back",
        -8.43778236464935
      ],
      [
        "▁end",
        -7.739997475527316
      ],
      [
        "▁joe",
        -8.171958396323465
      ],
      [
        "▁swor",
        -10.386282584561297
      ],
      [
        "▁guitar",
        -10.043565142828353
      ],
      [
        "▁establishe",
        -8.806470403235926
      ],
      [
        "▁pow",
        -9.379593022376659
      ],
      [
        "▁hock",
        -9.932491675215616
      ],
      [
        "▁skip",
        -9.439206609939403
      ],
      [
        "▁implement",
        -8.187586598347401
      ],
      [
        "▁gotte",
        -9.31265395207345
      ],
      [
        "▁reflect",
        -7.854759970925008
      ],
      [
        "g",
        -10.925660239071423
      ],
      [
        "=---",
        -11.804144771854496
      ],
      [
        "▁prepare",
        -7.995917764946754
      ],
      [
        "▁g",
        -7.240861415586582
      ],
      [
        "fect",
        -10.172550138150612
      ],
      [
        "ark",
        -6.704365819447248
      ],
      [
        "▁ap",
        -9.847267070324449
      ],
      [
        "▁rank",
        -9.509867521167479
      ],
      [
        "▁aisle",
        -10.16878598241533
      ],
      [
        "▁be",
        -6.418192732652731
      ],
      [
        "▁/",
        -2.4036502751317004
      ],
      [
        "0",
        -3.7401553914094876
      ],
      [
        "▁doin",
        -9.639391062832008
      ],
      [
        "▁load",
        -9.475426092019175
      ],
      [
        "&",
        -10.471256780148597
      ],
      [
        "▁threaten",
        -8.917157554625366
      ],
      [
        "’",
        -6.26611087511166
      ],
      [
        "ten",
        -6.696279519574173
      ],
      [
        "▁seller",
        -10.31442178719266
      ],
      [
        "▁return",
        -6.980570236197516
      ],
      [
        "▁sweet",
        -7.823057984112986
      ],
      [
        "est",
        -5.834993291504394
      ],
      [
        "▁4",
        -4.753496389042687
      ],
      [
        "▁browser",
        -9.322198669518736
      ],
      [
        "ive",
        -7.661082023090708
      ],
      [
        "▁curve",
        -10.495058724617806
      ],
      [
        "▁confidence",
        -9.21523632767959
      ],
      [
        "▁broad",
        -7.998462488971848
      ],
      [
        "▁decid",
        -9.515190966093694
      ],
      [
        "p",
        -12.707635305583393
      ],
      [
        "▁qui",
        -8.051529079645999
      ],
      [
        "▁wil",
        -10.327329674474207
      ],
      [
        "table",
        -8.10029166938956
      ],
      [
        "ant",
        -10.724006598916569
      ],
      [
        "▁west",
        -7.364491912356218
      ],
      [
        "▁paus",
        -10.330554930313813
      ],
      [
        "▁sales",
        -8.468221335980761
      ],
      [
        "east",
        -8.071832511211177
      ],
      [
        "▁math",
        -9.95128211160247
      ],
      [
        "▁drum",
        -10.375662977742826
      ],
      [
        "▁expand",
        -8.318777532004205
      ],
      [
        "ch",
        -8.972212749644816
      ],
      [
        "▁got",
        -7.758129679899486
      ],
      [
        "▁trap",
        -10.320252099054501
      ],
      [
        "▁astronaut",
        -10.168563666290055
      ],
      [
        "▁obey",
        -10.625427026840482
      ],
      [
        "▁phase",
        -9.446087853483489
      ],
      [
        "fish",
        -10.141618837800078
      ],
      [
        "half",
        -8.917329434239708
      ],
      [
        "▁he",
        -4.9588869558818445
      ],
      [
        "▁red",
        -9.089446497095636
      ],
      [
        "i",
        -6.571173088739063
      ],
      [
        "cit",
        -9.440285958121521
      ],
      [
        "▁division",
        -8.870559300329631
      ],
      [
        "m",
        -4.633343155688267
      ],
      [
        "illa",
        -9.262467576815741
      ],
      [
        "_",
        -4.419696819913463
      ],
      [
        "▁centur",
        -7.668382998160545
      ],
      [
        "ball",
        -10.48814541215298
      ],
      [
        "▁verifie",
        -10.375418645198057
      ],
      [
        "▁spread",
        -9.510998409402662
      ],
      [
        "ful",
        -5.211743761945356
      ],
      [
        "formulate",
        -10.62542919896698
      ],
      [
        "▁island",
        -7.745754885999828
      ],
      [
        "▁hop",
        -9.152285245745427
      ],
      [
        "s",
        -1.9521563585776658
      ],
      [
        "▁day",
        -5.4961141046960105
      ],
      [
        "▁look",
        -7.759599288001831
      ],
      [
        "▁journey",
        -9.266312896645
      ],
      [
        "▁afterward",
        -8.136140019234482
      ],
      [
        "▁soccer",
        -9.932452558319127
      ],
      [
        "▁separate",
        -8.89988291275871
      ],
      [
        "▁construct",
        -9.750349557429862
      ],
      [
        "▁left",
        -9.832455015263756
      ],
      [
        "▁improvement",
        -8.834250511043917
      ],
      [
        "▁pilgrim",
        -9.931784944451753
      ],
      [
        "▁fund",
        -8.889089241995938
      ],
      [
        "▁plann",
        -9.270440203902929
      ],
      [
        "▁threshold",
        -10.168563762229855
      ],
      [
        "▁theatre",
        -8.986130813212602
      ],
      [
        "▁bas",
        -8.497951332467174
      ],
      [
        "la",
        -7.180731558632907
      ],
      [
        "do",
        -8.922653752225703
      ],
      [
        "▁cheap",
        -6.93449626107068
      ],
      [
        "▁mous",
        -8.605143237301426
      ],
      [
        "r",
        -3.522172518100259
      ],
      [
        "ville",
        -7.023596430003555
      ],
      [
        "▁recommendation",
        -9.070607558900402
      ],
      [
        "▁corporation",
        -9.741940933845436
      ],
      [
        "▁sell",
        -7.902661868973678
      ],
      [
        "▁shak",
        -10.315322505285643
      ],
      [
        "▁arriv",
        -6.450778941158019
      ],
      [
        "mend",
        -10.733043506709068
      ],
      [
        "more",
        -7.0924871061843655
      ],
      [
        "b",
        -10.475491467591677
      ],
      [
        "demic",
        -10.126199741734824
      ],
      [
        "▁fist",
        -10.488801823239534
      ],
      [
        "▁chas",
        -9.420418471900824
      ],
      [
        "▁judge",
        -8.94412334572001
      ],
      [
        "!?!?",
        -12.27640857922021
      ],
      [
        "▁rul",
        -10.45737663127039
      ],
      [
        "▁spin",
        -10.01953923692014
      ],
      [
        "▁spray",
        -9.745447734097315
      ],
      [
        "▁surrender",
        -10.011711133218197
      ],
      [
        "▁general",
        -6.982809582124102
      ],
      [
        "back",
        -9.185201081133819
      ],
      [
        "ce",
        -6.86782844437985
      ],
      [
        "▁dealer",
        -9.459830578055305
      ],
      [
        "▁mil",
        -6.263045355612975
      ],
      [
        "▁estimate",
        -8.098732058245107
      ],
      [
        "rtain",
        -10.287759140691445
      ],
      [
        "▁control",
        -7.404347278679477
      ],
      [
        "▁explor",
        -9.739133858122269
      ],
      [
        "et",
        -7.922763757749793
      ],
      [
        "▁dem",
        -9.898683613821888
      ],
      [
        "▁adorn",
        -10.627364208440655
      ],
      [
        "fore",
        -6.806894281632575
      ],
      [
        "▁discipline",
        -9.581303265728526
      ],
      [
        "insula",
        -10.470686889744425
      ],
      [
        "▁play",
        -7.535513835809167
      ],
      [
        "ere",
        -8.9394830435864
      ],
      [
        "▁before",
        -6.6514196137008295
      ],
      [
        "▁interna",
        -6.979968294030549
      ],
      [
        "▁re",
        -7.120764412549547
      ],
      [
        "▁ah",
        -6.656152075760504
      ],
      [
        "▁leadership",
        -9.164731686197655
      ],
      [
        "ze",
        -8.312436807530911
      ],
      [
        "▁harvest",
        -10.478088935155508
      ],
      [
        "ll",
        -10.466913703496358
      ],
      [
        "e",
        -9.262538749109531
      ],
      [
        "▁endeavor",
        -10.043699483495995
      ],
      [
        "▁defen",
        -8.693305300581061
      ],
      [
        "▁the",
        -6.346201117748008
      ],
      [
        "▁breath",
        -9.653386112499978
      ],
      [
        "ove",
        -9.52546965254347
      ],
      [
        "de",
        -9.409303798629253
      ],
      [
        "▁refus",
        -9.153500385357804
      ],
      [
        "▁in",
        -4.970792382408093
      ],
      [
        "▁attachment",
        -9.38069327839617
      ],
      [
        "▁box",
        -7.3194868651679466
      ],
      [
        "nt",
        -10.143321197620285
      ],
      [
        "ther",
        -8.47414026107005
      ],
      [
        "▁r",
        -8.142366563006792
      ],
      [
        "▁table",
        -7.1642691798383735
      ],
      [
        "▁cook",
        -9.087263499668673
      ],
      [
        "▁beg",
        -7.530272615901482
      ],
      [
        "uff",
        -10.541467713248156
      ],
      [
        "▁project",
        -9.443500858672703
      ],
      [
        "▁stand",
        -6.848706666330537
      ],
      [
        "▁star",
        -7.8946010256182655
      ],
      [
        "▁literal",
        -8.331896185523426
      ],
      [
        "▁schedule",
        -8.64038540932323
      ],
      [
        "▁reception",
        -9.510043840464514
      ],
      [
        "▁bet",
        -9.957584459095639
      ],
      [
        "▁sle",
        -10.878155465394816
      ],
      [
        "2",
        -3.9783356324857158
      ],
      [
        "▁journal",
        -8.94533955095546
      ],
      [
        "ar",
        -7.075727222635783
      ],
      [
        "iling",
        -9.397521032377547
      ],
      [
        "▁par",
        -9.481767775105316
      ],
      [
        "▁smith",
        -8.118485197165942
      ],
      [
        "▁temptation",
        -10.478122094472724
      ],
      [
        "the",
        -7.024914228420359
      ],
      [
        "speci",
        -6.56809779980563
      ],
      [
        "shed",
        -9.252416951702074
      ],
      [
        "▁blast",
        -10.62637932951731
      ],
      [
        "▁convict",
        -10.375395575998983
      ],
      [
        "cinn",
        -7.731138636234311
      ],
      [
        "roni",
        -9.322274523378773
      ],
      [
        "▁sl",
        -9.644130469898581
      ],
      [
        "▁realize",
        -8.060523133677941
      ],
      [
        "ar",
        -7.063891730229105
      ],
      [
        "▁experience",
        -8.330738398453974
      ],
      [
        "▁securit",
        -7.564142908514309
      ],
      [
        "need",
        -9.922703557848802
      ],
      [
        "▁stor",
        -7.949060922000983
      ],
      [
        "over",
        -8.61529201880396
      ],
      [
        "▁african",
        -9.932452555284357
      ],
      [
        "▁silkie",
        -9.596420864349508
      ],
      [
        "▁kick",
        -10.168671274603355
      ],
      [
        "▁equi",
        -10.019267538536749
      ],
      [
        "ion",
        -6.243341648383394
      ],
      [
        "for",
        -4.020786215354944
      ],
      [
        "▁tiger",
        -8.58730968774196
      ],
      [
        "▁telephone",
        -8.64366898574794
      ],
      [
        "▁coup",
        -9.406067899645254
      ],
      [
        "▁compos",
        -10.482609299961414
      ],
      [
        "▁failure",
        -8.734179726654295
      ],
      [
        "▁middle",
        -7.4367583756290685
      ],
      [
        "band",
        -10.015285009447695
      ],
      [
        "wive",
        -10.38955861760736
      ],
      [
        "▁thank",
        -6.668770870264375
      ],
      [
        "▁n",
        -6.624622057253102
      ],
      [
        "▁total",
        -7.535130883252613
      ],
      [
        "▁observation",
        -9.322502588564538
      ],
      [
        "▁http://www.",
        -6.947532056671933
      ],
      [
        "▁diversi",
        -9.008337697717035
      ],
      [
        "▁toll",
        -9.658394984507929
      ],
      [
        "▁wish",
        -9.584846208117314
      ],
      [
        "▁business",
        -6.811308235330164
      ],
      [
        "▁reason",
        -7.118549382585387
      ],
      [
        "ze",
        -7.030389614728964
      ],
      [
        "▁rubb",
        -10.626989484605271
      ],
      [
        "▁male",
        -8.770454009161357
      ],
      [
        "▁til",
        -7.702134073707958
      ],
      [
        "▁vlog",
        -10.008831551294959
      ],
      [
        "v",
        -8.604412996669458
      ],
      [
        "▁diagnose",
        -10.375392351337378
      ],
      [
        "▁interest",
        -9.025089984849822
      ],
      [
        "▁scratch",
        -10.168564706437333
      ],
      [
        "▁magazine",
        -9.116062130041854
      ],
      [
        "▁double",
        -10.799787139692455
      ],
      [
        "▁dismiss",
        -10.270601876005362
      ],
      [
        "▁decline",
        -9.11707460588914
      ],
      [
        "▁’",
        -11.653797199629468
      ],
      [
        "▁80",
        -7.0989916286574335
      ],
      [
        "▁admitt",
        -9.049564673083047
      ],
      [
        "▁squirt",
        -9.288686004311
      ],
      [
        "▁found",
        -6.336787716580186
      ],
      [
        "▁none",
        -9.665637482849894
      ],
      [
        "▁explanation",
        -9.027129298081528
      ],
      [
        "▁f",
        -8.485186623721773
      ],
      [
        "▁email",
        -7.525508389000296
      ],
      [
        "aid",
        -9.630977552723204
      ],
      [
        "ve",
        -6.02777294669952
      ],
      [
        "▁infant",
        -10.478212970368645
      ],
      [
        "ail",
        -9.681458968930226
      ],
      [
        "▁dark",
        -8.87000574349077
      ],
      [
        "ng",
        -8.371015105561044
      ],
      [
        "▁bar",
        -10.05648783414817
      ],
      [
        "▁outcome",
        -9.116068155599613
      ],
      [
        "▁ke",
        -10.902740966049027
      ],
      [
        "ure",
        -8.255194909491873
      ],
      [
        "▁stirrup",
        -9.932466081669183
      ],
      [
        "▁home",
        -7.733616494262922
      ],
      [
        "▁25",
        -5.938692828601146
      ],
      [
        "▁un",
        -8.043704201988048
      ],
      [
        "camo",
        -9.75187876777657
      ],
      [
        "▁website",
        -7.759370888662832
      ],
      [
        "▁expert",
        -8.132424852551353
      ],
      [
        "▁structure",
        -10.030556818710727
      ],
      [
        "▁leave",
        -8.705127858505161
      ],
      [
        "▁love",
        -8.1508193856858
      ],
      [
        "▁tomato",
        -9.116074948136232
      ],
      [
        "▁apply",
        -7.699492334367162
      ],
      [
        "u",
        -5.226039066423351
      ],
      [
        "▁fail",
        -7.908578032639164
      ],
      [
        "▁finish",
        -7.390927051909596
      ],
      [
        "▁office",
        -7.4078300031256905
      ],
      [
        "▁invit",
        -9.374430122357591
      ],
      [
        "▁scar",
        -10.69003828946456
      ],
      [
        "▁'",
        -8.111149863688397
      ],
      [
        "sai",
        -10.119414593848777
      ],
      [
        "tion",
        -7.595904060989848
      ],
      [
        "ten",
        -7.555046472329298
      ],
      [
        "▁institution",
        -8.302623634054898
      ],
      [
        "▁seven",
        -5.479252271885461
      ],
      [
        "▁discourag",
        -9.869337980415718
      ],
      [
        "▁awa",
        -7.587143893947385
      ],
      [
        "ough",
        -10.913230474980764
      ],
      [
        "ng",
        -9.775962718133503
      ],
      [
        "▁financ",
        -10.47022895671235
      ],
      [
        "▁utilit",
        -9.5137537530257
      ],
      [
        "ter",
        -8.43024249196058
      ],
      [
        "washington",
        -5.483093196241167
      ],
      [
        "]",
        -6.107285657565928
      ],
      [
        "on",
        -11.079524852188499
      ],
      [
        "k",
        -6.32039397337508
      ],
      [
        "▁demonstration",
        -9.932570490970818
      ],
      [
        "▁scholar",
        -9.988622600190102
      ],
      [
        "lta",
        -8.06057615587392
      ],
      [
        "a",
        -1.784802076090795
      ],
      [
        "ask",
        -9.977614852147651
      ],
      [
        "200",
        -6.130731310496135
      ],
      [
        "▁theropod",
        -10.168563666272638
      ],
      [
        "tha",
        -8.930932078915008
      ],
      [
        "▁bush",
        -9.675843843117923
      ],
      [
        "n",
        -1.763362936029182
      ],
      [
        "▁mind",
        -8.62897434810612
      ],
      [
        "▁deserve",
        -9.026390977354469
      ],
      [
        "▁misse",
        -9.445020434371589
      ],
      [
        "▁health",
        -7.614657718788886
      ],
      [
        "▁licens",
        -10.35561339211345
      ],
      [
        "vious",
        -7.665292336190957
      ],
      [
        "ation",
        -5.900976325967351
      ],
      [
        "book",
        -8.577065229780844
      ],
      [
        "▁pattern",
        -8.985604146473836
      ],
      [
        "▁refuse",
        -8.380345088153414
      ],
      [
        "▁fre",
        -8.015331486317137
      ],
      [
        "▁sur",
        -8.43324878242829
      ],
      [
        "▁anticipate",
        -9.646716422950211
      ],
      [
        "▁perse",
        -10.485845065096411
      ],
      [
        "▁toilet",
        -9.509908100297093
      ],
      [
        "a",
        -4.130361687978228
      ],
      [
        "▁programme",
        -7.912663589678015
      ],
      [
        "▁nursie",
        -9.511589355171825
      ],
      [
        "▁authorit",
        -8.303746053041351
      ],
      [
        "▁glow",
        -9.67868386879415
      ],
      [
        "w",
        -6.1509534707865186
      ],
      [
        "▁residence",
        -10.170499786711087
      ],
      [
        "_",
        -6.861397086100121
      ],
      [
        "▁fe",
        -9.865529364780567
      ],
      [
        "ard",
        -10.783635794113795
      ],
      [
        "---=",
        -11.805652056917825
      ],
      [
        "▁phone",
        -10.678461662260656
      ],
      [
        "▁cut",
        -8.574936436532107
      ],
      [
        "▁blue",
        -9.749500829712588
      ],
      [
        "▁extract",
        -10.053645179726033
      ],
      [
        "▁part",
        -10.03944651384946
      ],
      [
        "▁sq",
        -7.710816908113083
      ],
      [
        "which",
        -9.187918605841523
      ],
      [
        "▁attache",
        -7.394647312444762
      ],
      [
        "ritual",
        -10.478069339770125
      ],
      [
        "nk",
        -8.193469548464432
      ],
      [
        "▁trans",
        -10.363901662118927
      ],
      [
        "▁pest",
        -10.17001180177694
      ],
      [
        "▁tall",
        -7.972269742217482
      ],
      [
        "▁shi",
        -10.039041304799149
      ],
      [
        "o",
        -10.13682536586598
      ],
      [
        "oration",
        -10.352117164425074
      ],
      [
        "▁clean",
        -9.65528915890289
      ],
      [
        "▁further",
        -10.175394279011858
      ],
      [
        "▁share",
        -7.958676915142011
      ],
      [
        "▁car",
        -9.983080030822263
      ],
      [
        "▁inci",
        -9.933896917910623
      ],
      [
        "▁glowstick",
        -10.478115260796486
      ],
      [
        "▁sett",
        -10.051318922042409
      ],
      [
        "bec",
        -7.120976675698388
      ],
      [
        "---------------",
        -9.361054628922306
      ],
      [
        "al",
        -7.165407135913336
      ],
      [
        "▁depart",
        -7.211735076250526
      ],
      [
        "▁plot",
        -9.443530658208989
      ],
      [
        "k",
        -12.810278406305976
      ],
      [
        "▁require",
        -7.255971108646589
      ],
      [
        "▁bomb",
        -8.721812878404197
      ],
      [
        "▁remed",
        -10.311481141341975
      ],
      [
        "▁attempt",
        -8.223376858434541
      ],
      [
        "▁frighten",
        -9.371537629658254
      ],
      [
        "▁funnel",
        -9.832675642957652
      ],
      [
        "▁w",
        -10.624596390097121
      ],
      [
        "▁statue",
        -9.419598465920378
      ],
      [
        "▁common",
        -6.83188665264987
      ],
      [
        "▁costume",
        -9.833075528249209
      ],
      [
        "▁analyze",
        -9.71548030644654
      ],
      [
        "▁initiate",
        -8.949744924277967
      ],
      [
        "▁regulation",
        -8.563391965210002
      ],
      [
        "ado",
        -9.412452452480753
      ],
      [
        "▁complete",
        -7.888096531461802
      ],
      [
        "g",
        -5.178950778187783
      ],
      [
        "▁coast",
        -8.507926864588642
      ],
      [
        "ve",
        -9.267813616069546
      ],
      [
        "▁twist",
        -9.28344110355502
      ],
      [
        "▁stock",
        -8.555748539042058
      ],
      [
        "▁call",
        -7.336245523868773
      ],
      [
        "▁up",
        -5.004285843445531
      ],
      [
        "▁argue",
        -8.347926044747924
      ],
      [
        "▁sort",
        -7.658959918849162
      ],
      [
        "▁feed",
        -7.955860455662812
      ],
      [
        "▁displacement",
        -10.478088065840637
      ],
      [
        "▁dsl",
        -10.479692607224008
      ],
      [
        "▁date",
        -7.53918411477349
      ],
      [
        "▁mixture",
        -9.510120288823135
      ],
      [
        "got",
        -10.98607480809809
      ],
      [
        "▁maca",
        -9.381155799440126
      ],
      [
        "▁foreigner",
        -9.38069208094714
      ],
      [
        "▁us",
        -7.3584463314768165
      ],
      [
        "▁version",
        -8.186765236228165
      ],
      [
        "▁school",
        -6.2720497289037445
      ],
      [
        "▁support",
        -7.791086554025293
      ],
      [
        "▁pa",
        -7.7782629543359825
      ],
      [
        "senate",
        -8.037296950507455
      ],
      [
        "p",
        -6.326571753016402
      ],
      [
        "c",
        -7.9821038333714105
      ],
      [
        "st.",
        -6.1084926965519175
      ],
      [
        "lesh",
        -10.062543479869646
      ],
      [
        "▁pound",
        -9.659825297907616
      ],
      [
        "▁appointment",
        -8.703019032952284
      ],
      [
        "access",
        -7.2958226824187085
      ],
      [
        "▁spa",
        -9.673714886265074
      ],
      [
        "▁google",
        -7.536487541908187
      ],
      [
        "▁method",
        -7.900562577200676
      ],
      [
        "y",
        -9.93729819650814
      ],
      [
        "▁ar",
        -6.245121969360562
      ],
      [
        "▁limit",
        -9.82967094781233
      ],
      [
        "▁uh",
        -7.780351736788767
      ],
      [
        "isation",
        -10.180356397647113
      ],
      [
        "▁cop",
        -10.712685840043992
      ],
      [
        "▁si",
        -9.685769216740752
      ],
      [
        "▁shrugg",
        -10.177679289386054
      ],
      [
        "▁college",
        -8.282215509969433
      ],
      [
        "▁roll",
        -8.77373867722191
      ],
      [
        "▁hers",
        -11.553708895953593
      ],
      [
        "▁north",
        -8.98546511561299
      ],
      [
        "corn",
        -8.996608795539043
      ],
      [
        "put",
        -9.176596761033803
      ],
      [
        "▁peter",
        -6.870955470039081
      ],
      [
        "▁favorite",
        -8.985470494079461
      ],
      [
        "▁cin",
        -9.833799571001284
      ],
      [
        "▁ink",
        -10.066560903524092
      ],
      [
        "▁combat",
        -10.376987570466618
      ],
      [
        "▁cup",
        -7.498291679494876
      ],
      [
        "p",
        -6.298850307926004
      ],
      [
        "ssor",
        -9.727224045170534
      ],
      [
        "▁prosecution",
        -10.478142001718494
      ],
      [
        "▁accumulat",
        -10.635424592949057
      ],
      [
        "▁working",
        -9.630485778023157
      ],
      [
        "▁invoic",
        -10.625396699451397
      ],
      [
        "▁popula",
        -9.905192374713412
      ],
      [
        "▁march",
        -10.177172228681894
      ],
      [
        "▁innovation",
        -8.560118919728426
      ],
      [
        "▁coco",
        -9.58221231924913
      ],
      [
        "▁cfl",
        -9.658437296826058
      ],
      [
        "▁squir",
        -10.47849811173899
      ],
      [
        "▁cottage",
        -10.311427901475009
      ],
      [
        "inst",
        -6.754258181145743
      ],
      [
        "▁wiggl",
        -10.00883140088853
      ],
      [
        "d",
        -7.194719984116379
      ],
      [
        "▁shatter",
        -10.625402828284264
      ],
      [
        "▁cough",
        -10.377202847459262
      ],
      [
        "▁slid",
        -8.839298793469695
      ],
      [
        "▁penn",
        -8.084053756858605
      ],
      [
        "▁sun",
        -7.433204145044102
      ],
      [
        "▁collect",
        -7.953103109768134
      ],
      [
        "▁augmentation",
        -10.311420810021165
      ],
      [
        "▁month",
        -6.603181626015548
      ],
      [
        "▁email",
        -9.283670887663895
      ],
      [
        "▁spin",
        -9.491922129630511
      ],
      [
        "▁tumbl",
        -10.401256496060585
      ],
      [
        "▁sat",
        -7.888505393270265
      ],
      [
        "▁top",
        -7.372570311295064
      ],
      [
        "▁god",
        -7.15099595577349
      ],
      [
        "▁rom",
        -10.469767175406636
      ],
      [
        "▁fr",
        -10.375037312392115
      ],
      [
        "▁interaction",
        -9.658244056208842
      ],
      [
        "▁societ",
        -7.554338381957598
      ],
      [
        "ney",
        -7.546892535134333
      ],
      [
        "▁initiative",
        -8.799781981303292
      ],
      [
        "▁cookie",
        -8.451851789614492
      ],
      [
        "▁flea",
        -10.478223214156458
      ],
      [
        "sit",
        -9.383504073805348
      ],
      [
        "ct",
        -8.657546139744671
      ],
      [
        "nix",
        -6.485637239148971
      ],
      [
        "▁worr",
        -10.404805248160711
      ],
      [
        "▁defeat",
        -9.024964534526536
      ],
      [
        "▁inject",
        -10.625392292705785
      ],
      [
        "morali",
        -9.048172186870593
      ],
      [
        "date",
        -10.016142449912378
      ],
      [
        "s",
        -5.850145103808338
      ],
      [
        "▁knee",
        -8.834272720424853
      ],
      [
        "english",
        -7.569749612436706
      ],
      [
        "▁l",
        -8.926943481680604
      ],
      [
        "▁duckie",
        -9.786569779388733
      ],
      [
        "▁tickle",
        -10.311686830528181
      ],
      [
        "▁crie",
        -8.680881358113988
      ],
      [
        "▁circum",
        -8.834702671699095
      ],
      [
        "▁chair",
        -7.344083995458193
      ],
      [
        "▁promise",
        -8.237400325629473
      ],
      [
        "▁application",
        -7.747447782748036
      ],
      [
        "▁thu",
        -7.142237789537574
      ],
      [
        "▁ignora",
        -9.832452577077483
      ],
      [
        "v",
        -8.221020636134378
      ],
      [
        "▁confront",
        -10.011629133664483
      ],
      [
        "en",
        -7.180770542726827
      ],
      [
        "▁companie",
        -8.223381305685292
      ],
      [
        "▁boyfriend",
        -9.741543464253294
      ],
      [
        "▁root",
        -10.63104711627929
      ],
      [
        "e",
        -2.93500591455426
      ],
      [
        "▁review",
        -8.033199575130796
      ],
      [
        "▁miss",
        -7.4404016868154
      ],
      [
        "▁bet",
        -8.661264295031007
      ],
      [
        "▁suspect",
        -8.610884333859165
      ],
      [
        "▁criminal",
        -9.833552029651655
      ],
      [
        "▁promot",
        -9.449713659538773
      ],
      [
        "akes",
        -9.879685453590378
      ],
      [
        "stoo",
        -10.869723171068461
      ],
      [
        "▁first",
        -4.829267318650501
      ],
      [
        "▁nu",
        -7.785046267853248
      ],
      [
        "▁rip",
        -9.553219506168208
      ],
      [
        "▁x",
        -8.251323527358597
      ],
      [
        "▁estate",
        -9.932470812323071
      ],
      [
        "try",
        -10.80661403702378
      ],
      [
        "5",
        -3.9349924025881604
      ],
      [
        "▁fri",
        -7.618603189837051
      ],
      [
        "▁",
        -1.4271932053481233
      ],
      [
        "▁foster",
        -10.175418455188806
      ],
      [
        "▁nodd",
        -10.186384732923182
      ],
      [
        "ious",
        -7.178441696046659
      ],
      [
        "▁196",
        -6.719940973763605
      ],
      [
        "▁shot",
        -8.801232710761134
      ],
      [
        "▁protect",
        -7.6478212800122485
      ],
      [
        "▁date",
        -9.442067739645166
      ],
      [
        "grit",
        -9.680295578975322
      ],
      [
        "▁mum",
        -9.168081218912139
      ],
      [
        "▁pet",
        -8.290529470470272
      ],
      [
        "ing",
        -6.494497185030072
      ],
      [
        "▁admire",
        -10.246452068704638
      ],
      [
        "▁password",
        -9.07061301446638
      ],
      [
        "’",
        -13.8725705263812
      ],
      [
        "▁advance",
        -9.410256147462524
      ],
      [
        "ha",
        -9.035947903990632
      ],
      [
        "▁ride",
        -8.467292889926984
      ],
      [
        "▁silk",
        -10.02158906228241
      ],
      [
        "ag",
        -9.825387720886301
      ],
      [
        "▁television",
        -8.614639390121889
      ],
      [
        "▁c",
        -7.464378526851302
      ],
      [
        "▁supplie",
        -10.008725627222375
      ],
      [
        "sional",
        -8.704326575182758
      ],
      [
        "▁de",
        -7.219112376193933
      ],
      [
        "▁marry",
        -9.461707458073025
      ],
      [
        "▁east",
        -7.460011636561008
      ],
      [
        "▁discussion",
        -8.323493727412654
      ],
      [
        "▁reaction",
        -9.163800593079634
      ],
      [
        "▁fear",
        -9.030068234004945
      ],
      [
        "x",
        -6.8356093943361715
      ],
      [
        "▁gu",
        -9.38505074272378
      ],
      [
        "▁age",
        -7.404160730253256
      ],
      [
        "▁have",
        -4.097231545014155
      ],
      [
        "▁jurisdiction",
        -10.043563670953969
      ],
      [
        "inst",
        -8.782413885317776
      ],
      [
        "es",
        -6.876952332114524
      ],
      [
        "▁thrift",
        -10.311438583631524
      ],
      [
        "v",
        -5.575747967194122
      ],
      [
        "▁provider",
        -9.832452576349251
      ],
      [
        "▁inform",
        -8.411798429957743
      ],
      [
        "▁tactic",
        -9.93245263116778
      ],
      [
        "▁s",
        -5.346467888196825
      ],
      [
        "order",
        -10.786333523389494
      ],
      [
        "▁phoe",
        -6.477304883851524
      ],
      [
        "inl",
        -7.892834437052884
      ],
      [
        "▁duration",
        -10.168625091772718
      ],
      [
        "ell",
        -7.337910525083231
      ],
      [
        "usage",
        -10.175119138425652
      ],
      [
        "▁???",
        -12.710326831142815
      ],
      [
        "▁forc",
        -10.3571372013002
      ],
      [
        ".",
        -7.015451316975299
      ],
      [
        "ivit",
        -9.049546863222519
      ],
      [
        "▁eu",
        -7.8428678756347185
      ],
      [
        "e",
        -2.2184347982162924
      ],
      [
        "▁outlet",
        -10.16871189362317
      ],
      [
        "▁reconcile",
        -10.741917937257249
      ],
      [
        "▁pos",
        -6.272087047022914
      ],
      [
        "um",
        -11.058978476488804
      ],
      [
        "bio",
        -10.280485820973691
      ],
      [
        "▁answer",
        -7.948120084470887
      ],
      [
        "▁harp",
        -10.478980935065062
      ],
      [
        "▁lifeboat",
        -10.47969278294324
      ],
      [
        "nver",
        -5.980010193668576
      ],
      [
        "▁dream",
        -8.880148528208505
      ],
      [
        "t",
        -1.4210259656718716
      ],
      [
        "rive",
        -10.587608048365379
      ],
      [
        "▁steal",
        -9.2840917300488
      ],
      [
        "▁perception",
        -9.832508425015654
      ],
      [
        "▁person",
        -6.7798446190844315
      ],
      [
        "▁lower",
        -7.7163377428889
      ],
      [
        "▁adjustment",
        -9.832868618231004
      ],
      [
        ":",
        -5.121007365794226
      ],
      [
        "▁advance",
        -9.162401822121147
      ],
      [
        "▁slide",
        -9.214512084772013
      ],
      [
        "▁deficit",
        -10.478139663741402
      ],
      [
        "▁cal",
        -10.214673013250708
      ],
      [
        "▁indicate",
        -8.34885140451932
      ],
      [
        "▁real",
        -4.874120198670135
      ],
      [
        "g",
        -5.086823106981542
      ],
      [
        "aid",
        -8.194850112635837
      ],
      [
        "▁w",
        -7.98039333513819
      ],
      [
        "▁shoulder",
        -8.643210874321593
      ],
      [
        "apri",
        -7.848198512512113
      ],
      [
        "rit",
        -8.96812795202858
      ],
      [
        "▁relationship",
        -8.242724594014302
      ],
      [
        "ro",
        -9.323176805322918
      ],
      [
        "▁expression",
        -8.870165373251204
      ],
      [
        "▁hous",
        -9.25829459138415
      ],
      [
        "▁recogniz",
        -10.609386640142517
      ],
      [
        "▁compel",
        -10.341109751648144
      ],
      [
        "ry",
        -7.145100294647382
      ],
      [
        "look",
        -8.924097104575832
      ],
      [
        "j",
        -11.770631529841472
      ],
      [
        "o",
        -1.7919375046051371
      ],
      [
        "▁condition",
        -10.625393748482953
      ],
      [
        "▁stor",
        -10.15565120335638
      ],
      [
        "ca",
        -7.141411780500674
      ],
      [
        "▁sai",
        -5.08691055481988
      ],
      [
        "▁agree",
        -7.253405628739583
      ],
      [
        "▁camera",
        -8.458487537244492
      ],
      [
        "ndo",
        -7.136043383997401
      ],
      [
        "▁mo",
        -7.521077073156517
      ],
      [
        "▁attraction",
        -10.168565118973497
      ],
      [
        "let",
        -10.422409193203332
      ],
      [
        "▁fast",
        -7.855287843304762
      ],
      [
        "▁mess",
        -9.119032996524604
      ],
      [
        "c",
        -7.1279090504273315
      ],
      [
        "▁arab",
        -7.922878414017
      ],
      [
        "reach",
        -10.181496406513034
      ],
      [
        "▁valu",
        -10.742818018737335
      ],
      [
        "▁flu",
        -10.412756496906688
      ],
      [
        "k",
        -6.263707711466564
      ],
      [
        "▁fift",
        -7.892158422901294
      ],
      [
        "▁chap",
        -10.044928346078844
      ],
      [
        "▁pott",
        -8.202917943242564
      ],
      [
        "▁requirement",
        -8.132407594684235
      ],
      [
        "▁sophie",
        -7.655266909516397
      ],
      [
        "’",
        -10.78153641900687
      ],
      [
        "**************",
        -12.31917194045622
      ],
      [
        "▁attack",
        -8.166821387077388
      ],
      [
        "▁secur",
        -10.280816398202107
      ],
      [
        "▁v",
        -10.549009922820545
      ],
      [
        "▁sun",
        -7.973576176043491
      ],
      [
        "▁arab",
        -9.485284021812635
      ],
      [
        "ut",
        -10.56696934815741
      ],
      [
        "▁energy",
        -7.657450974333868
      ],
      [
        "pa",
        -7.916017963695065
      ],
      [
        "▁stall",
        -10.395554706651971
      ],
      [
        "▁anticipat",
        -10.591663673672695
      ],
      [
        "▁dut",
        -8.817642122882724
      ],
      [
        "sta",
        -8.488319103450568
      ],
      [
        "▁travell",
        -9.466626765177278
      ],
      [
        "▁mal",
        -10.318862991163943
      ],
      [
        "▁culture",
        -7.7127541932162895
      ],
      [
        "▁discr",
        -10.15573095365821
      ],
      [
        "▁photographer",
        -9.67128213877443
      ],
      [
        "in",
        -8.591787719139312
      ],
      [
        "▁interpret",
        -9.041564964558665
      ],
      [
        "▁reaffirm",
        -10.375444832346888
      ],
      [
        "▁27",
        -7.027180110542156
      ],
      [
        "▁regard",
        -7.5181281910160465
      ],
      [
        "ern",
        -6.849387477125366
      ],
      [
        "▁settle",
        -8.543389365197694
      ],
      [
        "▁swing",
        -9.164432089882832
      ],
      [
        "▁specification",
        -9.93378901450235
      ],
      [
        "▁butterfl",
        -9.741785089965461
      ],
      [
        "▁pursuit",
        -10.3116016680693
      ],
      [
        "down",
        -9.714361444318357
      ],
      [
        "▁de",
        -7.133759330193251
      ],
      [
        "▁mill",
        -5.806332795739784
      ],
      [
        "▁industr",
        -7.900611714730796
      ],
      [
        "▁spit",
        -10.4085289097874
      ],
      [
        "▁sleep",
        -7.3867615725125875
      ],
      [
        "ate",
        -6.574916599541596
      ],
      [
        "▁needle",
        -10.056080016695127
      ],
      [
        "▁descendant",
        -10.47808753333295
      ],
      [
        "▁human",
        -8.482192532011421
      ],
      [
        "▁con",
        -10.216181715726997
      ],
      [
        "▁bound",
        -9.29915380952337
      ],
      [
        "▁with",
        -4.952485445949646
      ],
      [
        "▁again",
        -5.055600915647587
      ],
      [
        "▁children",
        -6.99475166268508
      ],
      [
        "▁awar",
        -10.28127721199252
      ],
      [
        "▁tapp",
        -10.63256093317306
      ],
      [
        "▁production",
        -8.598263217227466
      ],
      [
        "▁produce",
        -10.041587167376884
      ],
      [
        "▁e",
        -8.780833583811523
      ],
      [
        "▁drama",
        -9.258543574994519
      ],
      [
        "▁analys",
        -8.182585634385283
      ],
      [
        "z",
        -6.815512705175175
      ],
      [
        "it",
        -7.7893654666635195
      ],
      [
        "arl",
        -8.199382488274523
      ],
      [
        "▁complex",
        -9.581414799445055
      ],
      [
        "▁bonus",
        -10.311509067043472
      ],
      [
        "▁bar",
        -8.014284079122856
      ],
      [
        "▁delete",
        -8.995020198938137
      ],
      [
        "▁i",
        -5.301129070997394
      ],
      [
        "8",
        -4.553569007344787
      ],
      [
        "mutation",
        -9.412142284986306
      ],
      [
        "▁seeker",
        -9.443402248073058
      ],
      [
        "▁gon",
        -5.350338757148288
      ],
      [
        "▁litter",
        -10.044034071905836
      ],
      [
        "▁paragraph",
        -9.743035595034065
      ],
      [
        "eda",
        -7.632812068432712
      ],
      [
        "▁la",
        -6.3692025320130305
      ],
      [
        "▁oblig",
        -10.174579693673177
      ],
      [
        ":30",
        -6.570587185813982
      ],
      [
        "▁under",
        -8.799861585944255
      ],
      [
        "ch",
        -7.364946314041537
      ],
      [
        "▁fantas",
        -9.741566378041544
      ],
      [
        "▁conflict",
        -10.625433580788764
      ],
      [
        "dy",
        -6.777836352619322
      ],
      [
        "▁science",
        -8.173617991122647
      ],
      [
        "▁message",
        -7.615139767616978
      ],
      [
        "ou",
        -6.77590892491831
      ],
      [
        "▁jar",
        -9.744411009660363
      ],
      [
        "▁impression",
        -9.581311070579522
      ],
      [
        "▁enrich",
        -10.625395698497055
      ],
      [
        "▁shelter",
        -10.175393356959152
      ],
      [
        "▁soft",
        -7.795608770514
      ],
      [
        "▁house",
        -9.746431345849032
      ],
      [
        "▁monkey",
        -8.61472652705576
      ],
      [
        "▁wha",
        -10.477930080682105
      ],
      [
        "night",
        -8.100413695374804
      ],
      [
        "▁rome",
        -8.145149091002615
      ],
      [
        "▁adaptation",
        -9.932603458224465
      ],
      [
        "live",
        -9.89933851013537
      ],
      [
        "▁j",
        -6.245568630105774
      ],
      [
        "▁abo",
        -7.800414812845981
      ],
      [
        "nify",
        -10.805720705720818
      ],
      [
        "▁arise",
        -9.944551431218919
      ],
      [
        "▁nightmare",
        -10.168566008552348
      ],
      [
        "▁bra",
        -10.329208443165776
      ],
      [
        "▁flirt",
        -9.63363385320415
      ],
      [
        "▁suitcase",
        -9.380706287225884
      ],
      [
        "▁bo",
        -9.376383627903932
      ],
      [
        "thin",
        -5.708700200719424
      ],
      [
        "ach",
        -9.15221593122612
      ],
      [
        "▁input",
        -10.170673108302491
      ],
      [
        "▁st",
        -7.418361894839271
      ],
      [
        "▁stream",
        -10.17670891606647
      ],
      [
        "▁summer",
        -7.615243754945281
      ],
      [
        "▁tha",
        -6.431820319444924
      ],
      [
        "▁arm",
        -10.372080532130106
      ],
      [
        "▁?!?",
        -13.944841065246216
      ],
      [
        "▁fam",
        -9.639780040423023
      ],
      [
        "inea",
        -9.834162489750044
      ],
      [
        "▁non",
        -8.674722093820106
      ],
      [
        "df",
        -9.393359353222769
      ],
      [
        "▁presen",
        -9.643365730704947
      ],
      [
        "▁8",
        -5.378483124250874
      ],
      [
        "rd",
        -10.269543147334288
      ],
      [
        "▁urs",
        -7.9913189776565074
      ],
      [
        "▁uni",
        -10.165232253253762
      ],
      [
        "▁tackl",
        -9.87108400684445
      ],
      [
        "▁remov",
        -10.48703154130754
      ],
      [
        "nocent",
        -10.147511413453929
      ],
      [
        "▁hoop",
        -10.4806175510995
      ],
      [
        "▁nan",
        -7.964227468859433
      ],
      [
        "▁chimney",
        -10.478101692996184
      ],
      [
        "▁thir",
        -6.7330901287301295
      ],
      [
        "▁default",
        -9.163878301783907
      ],
      [
        "▁chris",
        -7.724535802396346
      ],
      [
        "▁campus",
        -9.742164719973795
      ],
      [
        "▁whipp",
        -10.376521779303514
      ],
      [
        "x",
        -11.810278406305976
      ],
      [
        "▁convention",
        -9.443579037821992
      ],
      [
        "▁goose",
        -9.742665802290945
      ],
      [
        "st",
        -12.50667684532212
      ],
      [
        "▁dealership",
        -10.16922777972238
      ],
      [
        "▁plac",
        -9.760617275800493
      ],
      [
        "even",
        -6.785405311067583
      ],
      [
        "▁thr",
        -4.171737371864407
      ],
      [
        "stocks",
        -10.47655528544436
      ],
      [
        "▁afternoon",
        -6.71833052701924
      ],
      [
        "eve",
        -8.935744439810867
      ],
      [
        "▁gate",
        -9.322810100779016
      ],
      [
        "▁compli",
        -10.167324929111334
      ],
      [
        "p",
        -7.377066839702568
      ],
      [
        "▁mail",
        -9.454912541174075
      ],
      [
        "▁cann",
        -10.728253680964112
      ],
      [
        "±",
        -11.925660239071421
      ],
      [
        "▁successor",
        -10.317970416651548
      ],
      [
        "▁operation",
        -8.343222112072963
      ],
      [
        "load",
        -10.282152108928893
      ],
      [
        "rough",
        -7.871226518929168
      ],
      [
        "▁example",
        -6.83471902142148
      ],
      [
        "▁gang",
        -10.045658481465521
      ],
      [
        "▁tummy",
        -8.766477527620168
      ],
      [
        "▁alignment",
        -10.478087475860553
      ],
      [
        "▁cool",
        -10.015080797584833
      ],
      [
        "▁concern",
        -7.949998834708551
      ],
      [
        "▁!!!!!!!",
        -11.846846990791377
      ],
      [
        "m",
        -6.820629931865918
      ],
      [
        "yours",
        -12.142066938395672
      ],
      [
        "▁front",
        -7.547496069364088
      ],
      [
        "nasa",
        -7.8947020859024875
      ],
      [
        "▁ke",
        -7.778467243497967
      ],
      [
        "▁m",
        -6.457115228975116
      ],
      [
        "▁recover",
        -9.084213408520743
      ],
      [
        "▁not",
        -10.349744735545283
      ],
      [
        "▁protest",
        -9.534081895430205
      ],
      [
        "think",
        -9.762177751474606
      ],
      [
        "▁fruit",
        -8.734702687859851
      ],
      [
        "▁examin",
        -9.377013372104653
      ],
      [
        "▁cafe",
        -9.443395852863782
      ],
      [
        "▁helmet",
        -10.311532176618
      ],
      [
        "▁jan",
        -7.905588765754274
      ],
      [
        "▁slipper",
        -9.932598562571425
      ],
      [
        "▁signature",
        -9.834181202951669
      ],
      [
        "▁poet",
        -8.48297000865435
      ],
      [
        "b",
        -4.738268993203795
      ],
      [
        "▁lipstick",
        -9.443205265692821
      ],
      [
        "▁absen",
        -10.318138337761354
      ],
      [
        "▁",
        -3.629753932656566
      ],
      [
        "▁d",
        -5.958236798378179
      ],
      [
        "▁cancel",
        -8.969339575900687
      ],
      [
        "▁reco",
        -8.93754446322399
      ],
      [
        "ing",
        -4.8857716042000945
      ],
      [
        "▁soul",
        -9.581340066709412
      ],
      [
        "▁wi",
        -9.007041050919737
      ],
      [
        "▁receiv",
        -8.281500766022912
      ],
      [
        "!!!!!!!!!!",
        -11.368032386117479
      ],
      [
        "re",
        -9.718282915415509
      ],
      [
        "u",
        -3.4498478262533245
      ],
      [
        "▁prevent",
        -8.187350387670167
      ],
      [
        "▁buy",
        -6.587746264825932
      ],
      [
        "▁disclose",
        -10.175851081647977
      ],
      [
        "▁appeal",
        -9.556580493539533
      ],
      [
        "▁o",
        -8.679273466658742
      ],
      [
        "▁labor",
        -8.761224404792216
      ],
      [
        "mate",
        -10.301173679197156
      ],
      [
        "▁public",
        -9.211788094208714
      ],
      [
        "▁wid",
        -10.31731189963827
      ],
      [
        "▁philosoph",
        -9.577400967818857
      ],
      [
        "ike",
        -3.964776749538939
      ],
      [
        "▁file",
        -7.070632745036033
      ],
      [
        "▁influence",
        -9.142093804611847
      ],
      [
        "▁question",
        -6.891872083236565
      ],
      [
        "penny",
        -9.442659574839233
      ],
      [
        "ari",
        -7.987987158299443
      ],
      [
        "board",
        -8.405918832407734
      ],
      [
        "▁mono",
        -10.083760238853248
      ],
      [
        "▁bab",
        -8.511348702165947
      ],
      [
        "▁palm",
        -9.742660551806228
      ],
      [
        "▁undo",
        -10.607936811956868
      ],
      [
        "t",
        -4.811399238543654
      ],
      [
        "_",
        -4.628726667259624
      ],
      [
        "▁painting",
        -8.463667647201754
      ],
      [
        "▁driv",
        -7.581844739198957
      ],
      [
        "▁'",
        -6.425214222828881
      ],
      [
        "▁mark",
        -8.689154687632312
      ],
      [
        "▁f",
        -6.831058922367424
      ],
      [
        "cultur",
        -7.255618199138741
      ],
      [
        "most",
        -5.889693681307584
      ],
      [
        "▁si",
        -10.086924554029943
      ],
      [
        "▁peek",
        -10.38250772454571
      ],
      [
        "▁38",
        -7.132700050543493
      ],
      [
        "▁acco",
        -7.520476654430368
      ],
      [
        "▁foot",
        -7.771647652021123
      ],
      [
        "▁undermine",
        -10.040094498451264
      ],
      [
        "▁co",
        -9.556969197361926
      ],
      [
        "imate",
        -7.97804560746793
      ],
      [
        "▁devis",
        -10.417779703652418
      ],
      [
        "world",
        -7.306395301944551
      ],
      [
        "▁challenge",
        -9.903584821016157
      ],
      [
        "▁per",
        -7.430482432399975
      ],
      [
        "mber",
        -8.428850243476228
      ],
      [
        "ill",
        -6.113903373785595
      ],
      [
        "▁jose",
        -7.136417013466548
      ],
      [
        "▁haircut",
        -9.581289596362732
      ],
      [
        "▁convenience",
        -10.04555216926118
      ],
      [
        "is",
        -6.551512324352629
      ],
      [
        "id",
        -9.150834025689743
      ],
      [
        "▁`",
        -11.296918948688285
      ],
      [
        "?",
        -3.0869681674060505
      ],
      [
        "▁sold",
        -8.854102639208472
      ],
      [
        "h",
        -3.151586959751487
      ],
      [
        "ride",
        -9.738160804075996
      ],
      [
        "▁praise",
        -10.51909953368974
      ],
      [
        "▁nonstop",
        -7.470178213797659
      ],
      [
        "▁flame",
        -10.170222440554689
      ],
      [
        "▁16",
        -5.674082561475753
      ],
      [
        "us",
        -7.639303254902502
      ],
      [
        "ther",
        -6.293876075097796
      ],
      [
        "▁relative",
        -9.658216231317102
      ],
      [
        "▁wh",
        -11.28246861509878
      ],
      [
        "your",
        -7.282301018614932
      ],
      [
        "▁w",
        -7.847448350576819
      ],
      [
        "m",
        -3.7542502650210796
      ],
      [
        "▁abuse",
        -9.670066704243322
      ],
      [
        "▁type",
        -6.940202585849559
      ],
      [
        "ever",
        -5.359099294543228
      ],
      [
        "sula",
        -8.162791166802986
      ],
      [
        "▁mat",
        -10.310946800488024
      ],
      [
        "▁revis",
        -10.146352344537158
      ],
      [
        "ine",
        -10.3351711260119
      ],
      [
        "▁music",
        -7.972009113673491
      ],
      [
        "▁any",
        -6.200640577973125
      ],
      [
        "▁ki",
        -10.185540561033674
      ],
      [
        "▁how",
        -3.9468069168529585
      ],
      [
        "a",
        -4.730462131174872
      ],
      [
        "▁vendor",
        -9.741543546076754
      ],
      [
        "▁persuad",
        -10.624452776707885
      ],
      [
        "▁opera",
        -10.146448592873563
      ],
      [
        "▁stay",
        -9.075020122748564
      ],
      [
        "▁fun",
        -8.057654127280278
      ],
      [
        "▁issu",
        -10.119700466224014
      ],
      [
        "▁sway",
        -9.869892786801692
      ],
      [
        "whe",
        -9.046355872460188
      ],
      [
        "▁vote",
        -8.191384363135551
      ],
      [
        "???????????????",
        -11.531210826536753
      ],
      [
        "▁ticket",
        -7.535020697226221
      ],
      [
        "▁bench",
        -9.070628859021998
      ],
      [
        "▁driv",
        -10.290262547143778
      ],
      [
        "▁paint",
        -8.410390060706064
      ],
      [
        "▁myceli",
        -9.658212709959948
      ],
      [
        "▁mr",
        -7.241056879332785
      ],
      [
        "▁pub",
        -9.831197356994187
      ],
      [
        "▁salar",
        -9.837365743787533
      ],
      [
        "▁income",
        -8.734229316251902
      ],
      [
        "▁columb",
        -7.707378439906107
      ],
      [
        "▁ribbon",
        -9.38069189248817
      ],
      [
        "ral",
        -8.016779290424799
      ],
      [
        "▁pancake",
        -9.443247035101018
      ],
      [
        "▁subject",
        -10.175392290465146
      ],
      [
        "▁week",
        -6.402577596529116
      ],
      [
        "▁poke",
        -10.394302352299231
      ],
      [
        "▁coin",
        -9.12443808050526
      ],
      [
        "▁setup",
        -9.934394976607848
      ],
      [
        "▁historian",
        -10.479737026864797
      ],
      [
        "▁bake",
        -9.58180832209959
      ],
      [
        "done",
        -6.783452192464883
      ],
      [
        "▁robin",
        -7.479882217646037
      ],
      [
        "tual",
        -7.506818670346741
      ],
      [
        "n",
        -5.486893563346862
      ],
      [
        "▁a",
        -5.967256489737387
      ],
      [
        "de",
        -8.108129855542627
      ],
      [
        "▁comet",
        -10.315890670569164
      ],
      [
        "▁..........",
        -12.830818015419348
      ],
      [
        "ve",
        -4.657267170543397
      ],
      [
        "▁declare",
        -8.58821911898314
      ],
      [
        "▁hol",
        -10.48713402676507
      ],
      [
        "▁trad",
        -10.855223293350779
      ],
      [
        "msel",
        -8.064757822162456
      ],
      [
        "▁flight",
        -4.001524655543676
      ],
      [
        "til",
        -7.784555654766264
      ],
      [
        "here",
        -5.7267247990743835
      ],
      [
        "▁cool",
        -7.446992243631039
      ],
      [
        "▁need",
        -4.9754309386742674
      ],
      [
        "▁speculat",
        -10.200711806280005
      ],
      [
        "▁temperature",
        -8.559840822622517
      ],
      [
        "alization",
        -10.029203211427122
      ],
      [
        "[CLS]",
        0.0
      ],
      [
        "y",
        -4.19304666083936
      ],
      [
        "▁advantage",
        -8.76643629049993
      ],
      [
        "▁consume",
        -9.570369821399881
      ],
      [
        "▁grammar",
        -8.907019801113048
      ],
      [
        "▁tha",
        -10.86236937007242
      ],
      [
        "▁varie",
        -9.44308354851523
      ],
      [
        "▁bug",
        -8.216827522114167
      ],
      [
        "▁photo",
        -8.614610832051232
      ],
      [
        "▁resolve",
        -9.642685334669686
      ],
      [
        "▁moment",
        -7.564769057737069
      ],
      [
        "▁loss",
        -8.539264040988089
      ],
      [
        "ators",
        -10.353256070229074
      ],
      [
        "rench",
        -7.337084724346421
      ],
      [
        "▁div",
        -10.458756556570258
      ],
      [
        "▁sal",
        -9.557280896838574
      ],
      [
        "▁yoursel",
        -11.298076311955574
      ],
      [
        "▁hedge",
        -9.741900855094903
      ],
      [
        "utilize",
        -10.625463411992387
      ],
      [
        "te",
        -9.340799971988403
      ],
      [
        "▁country",
        -6.854178915912964
      ],
      [
        "how",
        -6.8343150304575
      ],
      [
        "▁communication",
        -8.5346959906669
      ],
      [
        "▁cook",
        -7.633903245864477
      ],
      [
        "▁rat",
        -8.197304579622816
      ],
      [
        "▁sound",
        -7.578300442165294
      ],
      [
        "▁instrument",
        -9.832452558354861
      ],
      [
        "h",
        -4.366450591382845
      ],
      [
        "u",
        -5.9829718967998025
      ],
      [
        "▁stu",
        -7.8063665800430275
      ],
      [
        "▁batte",
        -10.931811951172309
      ],
      [
        "canada",
        -7.758072633861156
      ],
      [
        "▁tail",
        -8.243658856647176
      ],
      [
        "dication",
        -9.786311544574872
      ],
      [
        "▁handle",
        -8.361116241446648
      ],
      [
        "to",
        -7.034425037071648
      ],
      [
        "▁center",
        -8.283605353000647
      ],
      [
        "▁meal",
        -7.53508169907918
      ],
      [
        "▁5",
        -4.72417599646302
      ],
      [
        "▁element",
        -8.08155637327827
      ],
      [
        "▁extra",
        -7.540099437940393
      ],
      [
        "se",
        -9.772779987905816
      ],
      [
        "▁exchange",
        -8.766437879893527
      ],
      [
        "fu",
        -10.147369292473178
      ],
      [
        "▁we",
        -8.206342723049602
      ],
      [
        "`",
        -11.770631529841472
      ],
      [
        "▁spoil",
        -10.626059361372155
      ],
      [
        "▁favor",
        -7.406009021840105
      ],
      [
        "front",
        -9.80325519509126
      ],
      [
        "▁censor",
        -10.375392531818095
      ],
      [
        "▁here",
        -4.079579998525942
      ],
      [
        "yard",
        -9.719979891817832
      ],
      [
        "▁sink",
        -9.14696015504483
      ],
      [
        "▁finaliz",
        -10.632792941184837
      ],
      [
        "▁occupation",
        -9.213722579722143
      ],
      [
        "w",
        -11.841782454984505
      ],
      [
        "▁cris",
        -8.705008318858031
      ],
      [
        "▁kn",
        -10.925516565317587
      ],
      [
        "act",
        -10.680303424290246
      ],
      [
        "▁impress",
        -9.443579547563832
      ],
      [
        "▁personalit",
        -9.268178252832595
      ],
      [
        "other",
        -7.551296391859834
      ],
      [
        "▁sonnet",
        -9.443496170470588
      ],
      [
        "▁set",
        -8.038734796666304
      ],
      [
        "▁look",
        -4.774514457323838
      ],
      [
        "▁bib",
        -9.942584786557426
      ],
      [
        "t",
        -4.296542088812356
      ],
      [
        "▁erect",
        -10.625758497566927
      ],
      [
        "yea",
        -6.403617585208236
      ],
      [
        "▁desert",
        -9.658216203667347
      ],
      [
        "▁dig",
        -7.768620976451955
      ],
      [
        "▁bye",
        -9.081440733831304
      ],
      [
        "▁ruin",
        -9.93246944173528
      ],
      [
        "▁addresse",
        -10.190085052801976
      ],
      [
        "▁etc",
        -7.771713491318612
      ],
      [
        "mantic",
        -10.480508851401499
      ],
      [
        "▁good",
        -8.017658864517363
      ],
      [
        "▁employer",
        -10.329689446858385
      ],
      [
        "ling",
        -8.722365084250423
      ],
      [
        "▁cabinet",
        -9.581781104127993
      ],
      [
        "▁boo",
        -10.065877710819345
      ],
      [
        "▁venture",
        -10.231979618466998
      ],
      [
        "orch",
        -9.51294096921809
      ],
      [
        "sday",
        -7.693954248750166
      ],
      [
        "▁profit",
        -9.116079670211072
      ],
      [
        "▁div",
        -10.721929211675489
      ],
      [
        "▁passage",
        -9.51034207510007
      ],
      [
        "▁scrape",
        -10.115874190852734
      ],
      [
        "▁insert",
        -10.175394578197603
      ],
      [
        "▁rec",
        -7.0072767537993075
      ],
      [
        "▁win",
        -8.000208710302205
      ],
      [
        "▁access",
        -9.360592997055347
      ],
      [
        "▁anim",
        -10.048456932340962
      ],
      [
        "▁crushe",
        -10.479608123907656
      ],
      [
        "▁jelly",
        -9.445964919709464
      ],
      [
        "etic",
        -7.70145686085319
      ],
      [
        "▁affect",
        -7.947152464864956
      ],
      [
        "▁cry",
        -8.09243984520767
      ],
      [
        "▁alr",
        -8.353446800509932
      ],
      [
        "▁young",
        -6.413958168445247
      ],
      [
        "▁wel",
        -5.239750120745514
      ],
      [
        "▁suite",
        -9.957152269755174
      ],
      [
        "▁ambulance",
        -9.741543479186685
      ],
      [
        "▁collaboration",
        -9.74154347065673
      ],
      [
        "▁plan",
        -7.599038912296109
      ],
      [
        "oodle",
        -9.733990722970542
      ],
      [
        "30",
        -6.555718143802548
      ],
      [
        "until",
        -9.092093599441547
      ],
      [
        "mail",
        -10.018613989556655
      ],
      [
        "▁traged",
        -9.116064425378191
      ],
      [
        "und",
        -6.2572005688377095
      ],
      [
        "▁tank",
        -8.127586083884673
      ],
      [
        "▁straw",
        -10.478079936981086
      ],
      [
        "▁scream",
        -10.47855434010183
      ],
      [
        "▁bri",
        -7.255424553734033
      ],
      [
        "▁addiction",
        -9.070838951611458
      ],
      [
        "▁chalk",
        -9.509858959150801
      ],
      [
        "ice",
        -10.841405937824199
      ],
      [
        "▁&",
        -7.590436870188816
      ],
      [
        "4",
        -12.653795411026692
      ],
      [
        "st",
        -4.586035877960723
      ],
      [
        "▁bubble",
        -8.907008476333349
      ],
      [
        "gence",
        -9.482760417865883
      ],
      [
        "▁wee",
        -10.481460209142657
      ],
      [
        "o",
        -3.5173493339713584
      ],
      [
        "▁approx",
        -8.091803092171334
      ],
      [
        "▁adviser",
        -9.93566695343804
      ],
      [
        "▁guess",
        -7.080943056021663
      ],
      [
        "▁suit",
        -8.98270079409457
      ],
      [
        "dom",
        -9.861651781453848
      ],
      [
        "▁ev",
        -8.183773973806336
      ],
      [
        "▁attend",
        -9.932252416928605
      ],
      [
        "▁dresse",
        -10.044180213408815
      ],
      [
        "▁regime",
        -8.985462700663934
      ],
      [
        "ing",
        -2.512639074192263
      ],
      [
        "▁shade",
        -9.509882434327382
      ],
      [
        "▁grade",
        -9.478664310087114
      ],
      [
        "▁abs",
        -10.114077342451067
      ],
      [
        "▁imagination",
        -9.509859484957754
      ],
      [
        "▁crap",
        -9.743348650773157
      ],
      [
        "▁194",
        -7.162299874896345
      ],
      [
        "▁curl",
        -10.433978993793176
      ],
      [
        "th",
        -6.2624395574659975
      ],
      [
        "▁de",
        -12.371289160620995
      ],
      [
        "er",
        -6.121878145370945
      ],
      [
        "▁xm",
        -7.158057925075198
      ],
      [
        "tastic",
        -7.836222454254486
      ],
      [
        "rass",
        -10.312365914441548
      ],
      [
        "▁brows",
        -10.640354212315016
      ],
      [
        "▁2",
        -4.236268747166906
      ],
      [
        "▁tag",
        -8.949890713114671
      ],
      [
        "▁background",
        -8.870225562580584
      ],
      [
        "▁rib",
        -10.240881038840335
      ],
      [
        "'",
        -6.595685338835673
      ],
      [
        "▁for",
        -3.676327704226436
      ],
      [
        "▁bec",
        -7.4976419712532465
      ],
      [
        "▁where",
        -10.478087686671172
      ],
      [
        "▁introduc",
        -9.281475121368487
      ],
      [
        "▁enter",
        -7.664202702451771
      ],
      [
        "▁journalist",
        -10.312975232064183
      ],
      [
        "_",
        -4.735940816345124
      ],
      [
        "▁english",
        -9.321868318599197
      ],
      [
        "▁opportunit",
        -7.860065178571203
      ],
      [
        "▁respond",
        -8.077348590338405
      ],
      [
        "▁augment",
        -10.375393417984494
      ],
      [
        "▁mirror",
        -9.16368115391498
      ],
      [
        "°",
        -9.832452555148787
      ],
      [
        "▁particle",
        -9.267661633924337
      ],
      [
        "▁clause",
        -9.742005736135003
      ],
      [
        "▁legend",
        -9.741740352001576
      ],
      [
        "her",
        -5.452626015079912
      ],
      [
        "get",
        -10.22512405160739
      ],
      [
        "▁out",
        -8.692340457552184
      ],
      [
        "▁197",
        -6.181383886766783
      ],
      [
        "▁roam",
        -10.378747183888766
      ],
      [
        "▁reg",
        -8.561505855911202
      ],
      [
        "▁do",
        -3.6858831645663166
      ],
      [
        "▁refresh",
        -10.375392792310329
      ],
      [
        "▁du",
        -6.791389539449149
      ],
      [
        "il",
        -7.28535721082945
      ],
      [
        "▁third",
        -9.58141294221691
      ],
      [
        "▁librarian",
        -9.4432965331377
      ],
      [
        "▁blueberr",
        -9.93246240676838
      ],
      [
        "▁objection",
        -10.330526733564435
      ],
      [
        "▁supersed",
        -9.869360950619363
      ],
      [
        "▁final",
        -10.052653826814455
      ],
      [
        "▁filter",
        -8.242819720730548
      ],
      [
        "▁press",
        -8.466229944950781
      ],
      [
        "▁underl",
        -10.362021746953104
      ],
      [
        "▁loose",
        -9.91719019069716
      ],
      [
        "bino",
        -10.45468898571599
      ],
      [
        "▁doct",
        -10.480085774528835
      ],
      [
        "▁repay",
        -10.378287588041374
      ],
      [
        "▁knock",
        -8.290881246865812
      ],
      [
        "▁vet",
        -8.460127117410035
      ],
      [
        "▁b",
        -6.7872318813053925
      ],
      [
        "▁mut",
        -10.40330330677357
      ],
      [
        "▁sudden",
        -7.4773120002241225
      ],
      [
        "▁al",
        -6.40849063262789
      ],
      [
        "▁sho",
        -9.52780869862372
      ],
      [
        "ava",
        -7.576824252234127
      ],
      [
        "▁admir",
        -10.305262758912642
      ],
      [
        "▁head",
        -6.5677650712857005
      ],
      [
        "▁belt",
        -9.071581916342634
      ],
      [
        "▁cure",
        -10.161135337736994
      ],
      [
        "▁sad",
        -10.081741909821872
      ],
      [
        "▁figure",
        -8.766433742692975
      ],
      [
        "oth",
        -8.842116098097984
      ],
      [
        "▁purchase",
        -9.214062275991463
      ],
      [
        "▁shift",
        -10.175490223528428
      ],
      [
        "ologist",
        -10.477158096615502
      ],
      [
        "▁yawn",
        -10.008741128442212
      ],
      [
        "niversa",
        -10.168567186398523
      ],
      [
        "▁kilomet",
        -10.170787107917958
      ],
      [
        "▁big",
        -5.164406598255679
      ],
      [
        "yo",
        -12.726913103948085
      ],
      [
        "▁ap",
        -8.127609042448702
      ],
      [
        "▁c",
        -7.115854882496243
      ],
      [
        "▁pre",
        -8.14927771989657
      ],
      [
        "▁lad",
        -9.482837200570746
      ],
      [
        "3",
        -10.925660239071423
      ],
      [
        "▁initial",
        -9.744629739606761
      ],
      [
        "▁most",
        -5.67441530637149
      ],
      [
        "bye",
        -10.073461457925822
      ],
      [
        "pos",
        -9.971496173792502
      ],
      [
        "there",
        -8.216130868877705
      ],
      [
        "are",
        -6.0074420158852755
      ],
      [
        "hin",
        -10.355812176309545
      ],
      [
        "-",
        -11.770631529841472
      ],
      [
        "▁mommy",
        -5.367563605588856
      ],
      [
        "▁lid",
        -10.156945349963571
      ],
      [
        "card",
        -10.140571874210735
      ],
      [
        "▁damage",
        -8.614669710349514
      ],
      [
        "▁co-",
        -9.663858971024156
      ],
      [
        "body",
        -9.41505140981299
      ],
      [
        "z",
        -9.606113698618241
      ],
      [
        "▁intellig",
        -8.458881701729867
      ],
      [
        "▁talent",
        -9.321903166033806
      ],
      [
        "▁apartment",
        -8.366475368574248
      ],
      [
        "▁m",
        -7.360061767376027
      ],
      [
        "▁rely",
        -9.145980370528957
      ],
      [
        "will",
        -7.214694535384876
      ],
      [
        "▁melt",
        -9.28704839047327
      ],
      [
        "ch",
        -10.038999779297553
      ],
      [
        "▁bean",
        -9.032303678688146
      ],
      [
        "▁mont",
        -7.067933171742557
      ],
      [
        "▁proto",
        -10.314174034422617
      ],
      [
        "ka",
        -8.67373218770331
      ],
      [
        "▁grill",
        -10.175495465746105
      ],
      [
        "▁insult",
        -10.625399601414458
      ],
      [
        "▁civil",
        -7.471119864049314
      ],
      [
        "us",
        -5.896012619510532
      ],
      [
        "▁v",
        -9.037258117128296
      ],
      [
        "▁safe",
        -8.081827039946344
      ],
      [
        "▁mine",
        -9.683952986352926
      ],
      [
        "l",
        -6.8889135666360195
      ],
      [
        "▁statistic",
        -9.581287054603447
      ],
      [
        "▁kiss",
        -8.730430373325518
      ],
      [
        "▁teas",
        -10.466909815684023
      ],
      [
        "▁waiter",
        -9.447881189897544
      ],
      [
        "▁ambition",
        -10.168957923494913
      ],
      [
        "▁bludger",
        -10.16856382070927
      ],
      [
        "▁cab",
        -9.411432357559171
      ],
      [
        "▁nest",
        -9.118995051987067
      ],
      [
        "▁guid",
        -10.266932113027929
      ],
      [
        "serve",
        -10.100496419794691
      ],
      [
        "ic",
        -8.186328991949019
      ],
      [
        "▁kar",
        -7.9218722512903685
      ],
      [
        "▁preci",
        -8.670177033616888
      ],
      [
        "▁crosse",
        -9.57041058556711
      ],
      [
        "▁pronounce",
        -9.800645510080413
      ],
      [
        "▁pinch",
        -10.008739371249327
      ],
      [
        "▁fit",
        -7.675468551801042
      ],
      [
        "▁round",
        -6.771939825028797
      ],
      [
        "▁disagree",
        -10.011984498197961
      ],
      [
        "▁sunday",
        -7.391176438299976
      ],
      [
        "▁order",
        -7.040064371755182
      ],
      [
        "ff",
        -9.909663336203378
      ],
      [
        "▁carry",
        -7.4452905083337955
      ],
      [
        "89",
        -6.868746681939223
      ],
      [
        "▁conf",
        -10.283995950249537
      ],
      [
        "▁headache",
        -9.932916739713136
      ],
      [
        "wood",
        -9.413963191931341
      ],
      [
        "▁inter",
        -6.952119591150534
      ],
      [
        "▁operator",
        -8.643540310718194
      ],
      [
        "enni",
        -10.151238364262408
      ],
      [
        "th",
        -6.985667254388134
      ],
      [
        "among",
        -10.114427603570839
      ],
      [
        "-",
        -9.206366238425398
      ],
      [
        "▁cabbage",
        -9.741574782045674
      ],
      [
        "mm",
        -7.223101977105706
      ],
      [
        "▁dispute",
        -9.932455316871675
      ],
      [
        "▁wo",
        -7.25034794109828
      ],
      [
        "▁policymak",
        -10.33186259130986
      ],
      [
        "▁choos",
        -9.792600345038931
      ],
      [
        "▁curr",
        -10.055949205994887
      ],
      [
        "▁chose",
        -8.649066045350407
      ],
      [
        "▁amend",
        -8.819811047905272
      ],
      [
        "▁neighborhood",
        -9.163789720883893
      ],
      [
        "▁investor",
        -10.043568193384113
      ],
      [
        "-------------",
        -10.209257586536696
      ],
      [
        "▁prize",
        -9.832471994994057
      ],
      [
        "▁under",
        -8.765647238674896
      ],
      [
        "s",
        -4.934659831115517
      ],
      [
        "▁mate",
        -10.34177484414501
      ],
      [
        "▁sample",
        -8.512179984263629
      ],
      [
        "▁cu",
        -10.356453858389093
      ],
      [
        "▁accord",
        -9.380692354885856
      ],
      [
        "▁hobb",
        -9.658215798356625
      ],
      [
        "▁stack",
        -10.176310596403352
      ],
      [
        "ome",
        -6.109716119437731
      ],
      [
        "▁equivalen",
        -10.307618145156844
      ],
      [
        "▁machine",
        -8.186219397048104
      ],
      [
        "sphere",
        -8.282389798798924
      ],
      [
        "▁fish",
        -7.27377615775385
      ],
      [
        "▁shove",
        -10.398867040825182
      ],
      [
        "▁adventure",
        -9.582526550232746
      ],
      [
        "ine",
        -7.742409514085935
      ],
      [
        "▁cracker",
        -9.166293717274373
      ],
      [
        "▁candle",
        -9.51122299036663
      ],
      [
        "▁focus",
        -8.049303936102298
      ],
      [
        "▁right",
        -5.1005143013985395
      ],
      [
        "▁exhibit",
        -9.744631614273727
      ],
      [
        "▁duck",
        -8.313772746865784
      ],
      [
        "▁aunt",
        -8.909488297341861
      ],
      [
        "ne",
        -9.642098399421428
      ],
      [
        "igh",
        -5.036196688107231
      ],
      [
        "▁reg",
        -7.352584032445206
      ],
      [
        "ma",
        -9.512744794518076
      ],
      [
        "ai",
        -10.700825080080225
      ],
      [
        "ha",
        -8.022827823781132
      ],
      [
        "▁trust",
        -8.121345029439361
      ],
      [
        "▁..",
        -13.091198978275363
      ],
      [
        "▁auto",
        -9.58319000350257
      ],
      [
        "▁field",
        -7.040092237698073
      ],
      [
        "▁star",
        -7.691582309390991
      ],
      [
        "▁bring",
        -6.61685591217293
      ],
      [
        "▁luna",
        -10.311493632266902
      ],
      [
        "der",
        -8.717765614167256
      ],
      [
        "mark",
        -8.708524416580374
      ],
      [
        "▁troop",
        -8.88261025089947
      ],
      [
        "ough",
        -11.681371392484522
      ],
      [
        "▁cere",
        -8.643310249935784
      ],
      [
        "▁result",
        -7.336087268751497
      ],
      [
        "u",
        -8.070949385963766
      ],
      [
        "▁player",
        -8.270889518805806
      ],
      [
        "▁coincide",
        -10.251147162270897
      ],
      [
        "▁exa",
        -10.75337214650166
      ],
      [
        "▁character",
        -8.063330563774318
      ],
      [
        "▁best",
        -5.572959491080885
      ],
      [
        "▁align",
        -10.649491315103514
      ],
      [
        "▁other",
        -4.5395040691075765
      ],
      [
        "----------------",
        -8.720621540620424
      ],
      [
        "▁defin",
        -9.375465394046818
      ],
      [
        "eating",
        -10.336625306021693
      ],
      [
        "▁breakfast",
        -7.594144308081172
      ],
      [
        "▁basi",
        -8.188899600949135
      ],
      [
        "▁fl",
        -9.123103646870387
      ],
      [
        "▁ne",
        -10.782140077274017
      ],
      [
        "▁treasure",
        -10.349086887475515
      ],
      [
        "▁photograph",
        -8.407724657426023
      ],
      [
        "▁lei",
        -10.344054938680742
      ],
      [
        "▁object",
        -10.375392290132776
      ],
      [
        "ext",
        -7.384595250247742
      ],
      [
        "on",
        -5.927544266561199
      ],
      [
        "h",
        -8.179398798278543
      ],
      [
        "way",
        -7.413310175314248
      ],
      [
        "(",
        -4.690054248533107
      ],
      [
        "▁routine",
        -9.932454830631652
      ],
      [
        "▁---",
        -13.632274009623934
      ],
      [
        "▁bend",
        -10.581775695953139
      ],
      [
        "▁provid",
        -8.342887990288133
      ],
      [
        "▁print",
        -8.35564676076114
      ],
      [
        "▁adam",
        -6.007165886733898
      ],
      [
        "▁check",
        -7.097397547130876
      ],
      [
        "▁bad",
        -6.056861771555049
      ],
      [
        "▁undergo",
        -10.378246383432204
      ],
      [
        "▁note",
        -7.973592860336893
      ],
      [
        "▁orange",
        -9.027129301049666
      ],
      [
        "lik",
        -7.407883937870426
      ],
      [
        "90",
        -9.51373280599091
      ],
      [
        "ione",
        -10.699701126281177
      ],
      [
        "▁alter",
        -9.364013232035528
      ],
      [
        "▁swear",
        -10.399236023275257
      ],
      [
        "▁is",
        -5.984605269276846
      ],
      [
        "▁s",
        -7.3226938615224135
      ],
      [
        "▁shift",
        -9.381692674594017
      ],
      [
        "▁potential",
        -9.070608812100978
      ],
      [
        "see",
        -9.049613460170495
      ],
      [
        "ional",
        -6.668489374221227
      ],
      [
        "▁econom",
        -7.3357032250224945
      ],
      [
        "▁freedom",
        -8.033156944239355
      ],
      [
        "▁panel",
        -9.322443888839652
      ],
      [
        "▁ginger",
        -9.741677275434357
      ],
      [
        "▁capacit",
        -8.204518063493495
      ],
      [
        "▁racket",
        -9.581509376659149
      ],
      [
        "▁linen",
        -10.343316845761477
      ],
      [
        "▁ca",
        -13.8725705263812
      ],
      [
        "engin",
        -10.707346606063489
      ],
      [
        "ia",
        -7.044474574176757
      ],
      [
        "▁wizard",
        -9.213690646161602
      ],
      [
        "▁tow",
        -8.942235356026941
      ],
      [
        "▁pursu",
        -10.419236846894616
      ],
      [
        "▁encompass",
        -9.869340368750908
      ],
      [
        "claim",
        -10.101394393127409
      ],
      [
        "▁dot",
        -9.83764503921782
      ],
      [
        "▁trauma",
        -10.478169929648537
      ],
      [
        "▁sprout",
        -10.168581367357515
      ],
      [
        "armac",
        -10.478318597940175
      ],
      [
        "▁affair",
        -8.734175623349419
      ],
      [
        "▁concentration",
        -9.58128705489402
      ],
      [
        "▁computer",
        -7.748108583305965
      ],
      [
        "ill",
        -9.91318832139466
      ],
      [
        "▁interference",
        -9.934309827760803
      ],
      [
        "▁attend",
        -7.72235016362234
      ],
      [
        "unci",
        -10.175785991358289
      ],
      [
        "▁renew",
        -9.44365457632963
      ],
      [
        "▁le",
        -6.641113467851519
      ],
      [
        "▁edit",
        -9.326390060793624
      ],
      [
        "▁form",
        -7.229122621167228
      ],
      [
        "▁war",
        -7.004022894271219
      ],
      [
        "▁write",
        -6.549067944212382
      ],
      [
        "▁de",
        -8.417906198579672
      ],
      [
        "▁trade",
        -8.260253851077355
      ],
      [
        "▁nerve",
        -10.168799794119503
      ],
      [
        "▁indicator",
        -10.311487805386244
      ],
      [
        "▁block",
        -10.009711536990975
      ],
      [
        "▁teaching",
        -9.380696475016618
      ],
      [
        "▁tour",
        -10.39720374638068
      ],
      [
        "sh",
        -9.210115628857316
      ],
      [
        "▁scene",
        -8.458500804122743
      ],
      [
        "▁future",
        -7.735724419636411
      ],
      [
        "▁client",
        -8.766434030621266
      ],
      [
        "▁wiki",
        -7.863494163401468
      ],
      [
        "▁put",
        -4.963868223581525
      ],
      [
        "tant",
        -8.52930762960571
      ],
      [
        "▁bank",
        -8.324786031029777
      ],
      [
        "▁momm",
        -7.838930707534434
      ],
      [
        "▁lit",
        -10.341350336839072
      ],
      [
        "▁appea",
        -10.818767504427957
      ],
      [
        "▁pit",
        -10.442092845652102
      ],
      [
        "▁fi",
        -9.892046989143786
      ],
      [
        "▁hang",
        -7.880202537394021
      ],
      [
        "▁phrase",
        -9.321868341221192
      ],
      [
        "▁summar",
        -9.444373925956139
      ],
      [
        "▁participa",
        -8.985418496914397
      ],
      [
        "ti",
        -5.501925538707062
      ],
      [
        "▁crash",
        -9.80506277058945
      ],
      [
        "▁impact",
        -8.302627058242717
      ],
      [
        "▁outlier",
        -10.478089441859632
      ],
      [
        "the",
        -3.8465712775810488
      ],
      [
        "▁some",
        -6.593686694992894
      ],
      [
        "▁vegetable",
        -8.766439151061812
      ],
      [
        "▁relation",
        -9.42822566816844
      ],
      [
        "▁publish",
        -8.886603719170564
      ],
      [
        "▁mess",
        -9.163694913339114
      ],
      [
        "▁per",
        -8.702681030109439
      ],
      [
        "▁fundamental",
        -7.691354906365133
      ],
      [
        "▁picture",
        -10.625397355691975
      ],
      [
        "▁arrow",
        -9.071536538535595
      ],
      [
        "▁north",
        -7.051222331089209
      ],
      [
        "▁dollar",
        -7.177247689325739
      ],
      [
        "▁snow",
        -10.181697362301412
      ],
      [
        "▁let",
        -5.266393225607882
      ],
      [
        "where",
        -9.151435274764282
      ],
      [
        "▁delegate",
        -10.311420810212523
      ],
      [
        "▁chew",
        -9.28732838811906
      ],
      [
        "▁announc",
        -9.965328572264346
      ],
      [
        "▁[",
        -9.009499651994831
      ],
      [
        "▁enron",
        -6.684014898675319
      ],
      [
        "▁proportion",
        -10.04356394719373
      ],
      [
        "▁dessert",
        -9.658210885479297
      ],
      [
        "...",
        -9.194120139503523
      ],
      [
        "▁power",
        -7.219033257859041
      ],
      [
        "▁base",
        -7.78453277336205
      ],
      [
        "▁punishment",
        -10.043566938475793
      ],
      [
        "▁disconnect",
        -10.62582991372099
      ],
      [
        "cal",
        -5.9443159686160865
      ],
      [
        "▁contin",
        -6.980466105370548
      ],
      [
        "▁lb",
        -9.93372615326336
      ],
      [
        "▁cur",
        -6.97220494149292
      ],
      [
        "▁christ",
        -7.36976644832508
      ],
      [
        "▁shakes",
        -6.916526294427553
      ],
      [
        "on",
        -8.1917012505937
      ],
      [
        "▁who",
        -7.126657852206359
      ],
      [
        "los",
        -7.9449831393304695
      ],
      [
        "▁amaz",
        -7.2975510369699
      ],
      [
        "▁scar",
        -7.32148577914158
      ],
      [
        "▁wiki",
        -9.38069209843947
      ],
      [
        "▁portray",
        -10.375392345148754
      ],
      [
        "▁theme",
        -8.945482418682495
      ],
      [
        "▁clan",
        -10.225405961936318
      ],
      [
        "▁hard",
        -9.510160289820025
      ],
      [
        "▁ron",
        -7.821891287442616
      ],
      [
        "▁dioxi",
        -9.83258278783569
      ],
      [
        "▁augu",
        -7.725175373662181
      ],
      [
        "l",
        -2.7651899767306247
      ],
      [
        "trapp",
        -10.009966073003353
      ],
      [
        "ding",
        -8.718424413211814
      ],
      [
        "▁egg",
        -7.822530232364074
      ],
      [
        "▁like",
        -6.445794770201078
      ],
      [
        "▁place",
        -5.928404005390422
      ],
      [
        "▁hum",
        -9.751480404110405
      ],
      [
        "red",
        -7.0567063380842345
      ],
      [
        "per",
        -9.673279734835035
      ],
      [
        "▁basi",
        -7.871208031194959
      ],
      [
        "▁contact",
        -8.028097009870914
      ],
      [
        "▁wrongdo",
        -10.47809787307616
      ],
      [
        "▁convert",
        -8.916979657935837
      ],
      [
        "▁word",
        -6.752929731499631
      ],
      [
        "▁pitt",
        -5.113689389671724
      ],
      [
        "▁occasion",
        -8.945462645161735
      ],
      [
        "tuck",
        -8.669650365756599
      ],
      [
        "▁complet",
        -9.42658221300684
      ],
      [
        "▁mount",
        -9.769367600247483
      ],
      [
        "▁launch",
        -8.712884229565555
      ],
      [
        "▁wander",
        -8.971707719183435
      ],
      [
        "ton",
        -9.687933053919005
      ],
      [
        "▁scho",
        -7.858178035989682
      ],
      [
        "▁co-",
        -10.04111309660749
      ],
      [
        "▁contract",
        -8.131379362081221
      ],
      [
        "▁flipp",
        -10.386144364770107
      ],
      [
        "n",
        -4.72563031026995
      ],
      [
        "▁winner",
        -10.478087528886702
      ],
      [
        "es",
        -6.41252127825719
      ],
      [
        "▁too",
        -7.450107705837383
      ],
      [
        "▁increase",
        -7.819773319320149
      ],
      [
        "uddle",
        -10.866970427971099
      ],
      [
        "▁audit",
        -9.322983750155059
      ],
      [
        "facebook",
        -7.60905285676394
      ],
      [
        "▁deposit",
        -10.37539549684611
      ],
      [
        "▁event",
        -7.409303392160442
      ],
      [
        "▁sequence",
        -9.833258249385288
      ],
      [
        "all",
        -9.743397621993072
      ],
      [
        "▁wa",
        -9.499203125850554
      ],
      [
        "▁first",
        -5.646883055112838
      ],
      [
        "▁comedie",
        -10.119718902882997
      ],
      [
        "has",
        -9.011977185158957
      ],
      [
        "’",
        -11.119861525668208
      ],
      [
        "▁no",
        -8.75124323199243
      ],
      [
        "hur",
        -9.858188248896203
      ],
      [
        "▁white",
        -6.200269289236962
      ],
      [
        "▁",
        -3.252429650460364
      ],
      [
        "▁square",
        -8.834840515725707
      ],
      [
        "▁gear",
        -10.076328105213939
      ],
      [
        "tic",
        -9.403450833930673
      ],
      [
        "▁on",
        -10.014838674734882
      ],
      [
        "▁emp",
        -10.05941077058684
      ],
      [
        "▁snap",
        -10.478402003196383
      ],
      [
        "▁hand",
        -6.509592599776983
      ],
      [
        "▁communicate",
        -9.521573590225628
      ],
      [
        "glass",
        -10.44842646850902
      ],
      [
        "▁understanding",
        -8.463015496286216
      ],
      [
        "▁prisoner",
        -10.317368970083539
      ],
      [
        "▁m",
        -5.935041124388867
      ],
      [
        "▁contribut",
        -10.048690260992384
      ],
      [
        "icle",
        -9.932629336213253
      ],
      [
        "▁smil",
        -9.50237129738461
      ],
      [
        "right",
        -7.391738418087057
      ],
      [
        "▁runner",
        -10.046794757482028
      ],
      [
        "ism",
        -7.838298982644302
      ],
      [
        "▁no",
        -6.709205954266236
      ],
      [
        "▁partners",
        -9.611980951620033
      ],
      [
        "▁centre",
        -8.907629684436392
      ],
      [
        "▁national",
        -10.22161994619283
      ],
      [
        "▁exclud",
        -10.546510139173403
      ],
      [
        "▁amendment",
        -8.323470933089563
      ],
      [
        "▁assum",
        -9.165025065780606
      ],
      [
        "▁conven",
        -7.88587878792263
      ],
      [
        "▁6",
        -4.915061083533737
      ],
      [
        "▁execution",
        -9.380691824212551
      ],
      [
        "ifica",
        -8.291738545728773
      ],
      [
        "s",
        -2.358705181573894
      ],
      [
        "▁freak",
        -10.375444862958414
      ],
      [
        "▁nail",
        -8.561050499094913
      ],
      [
        "▁sevent",
        -6.850670197274426
      ],
      [
        "▁crude",
        -10.168979826233445
      ],
      [
        "▁fit",
        -9.475060036059057
      ],
      [
        "ingle",
        -7.897197518814679
      ],
      [
        "▁taper",
        -10.399525447947752
      ],
      [
        "▁so",
        -5.253845430228908
      ],
      [
        "▁pe",
        -10.776425122448485
      ],
      [
        "i",
        -3.6573677594667693
      ],
      [
        "ha",
        -13.163230928458335
      ],
      [
        "▁e-mail",
        -8.482882792098492
      ],
      [
        "▁climb",
        -10.478446798661686
      ],
      [
        "▁minimum",
        -9.65831688067269
      ],
      [
        "ma",
        -6.56637832689829
      ],
      [
        "▁speaker",
        -9.071429953954507
      ],
      [
        "▁graduate",
        -9.505751881649923
      ],
      [
        "bru",
        -10.441868013413668
      ],
      [
        "re",
        -7.818351387913546
      ],
      [
        "alla",
        -7.860537973381338
      ],
      [
        "▁blog",
        -9.122105971108859
      ],
      [
        "▁act",
        -8.184328326643946
      ],
      [
        "▁kansa",
        -6.814292120810259
      ],
      [
        "▁be",
        -8.629999154604349
      ],
      [
        "▁locomoti",
        -9.93245259023408
      ],
      [
        "▁commit",
        -9.261825638492802
      ],
      [
        "nda",
        -9.0332552893135
      ],
      [
        "▁groom",
        -10.626568118525867
      ],
      [
        "▁falle",
        -9.773590637790889
      ],
      [
        "▁baker",
        -10.341732264668599
      ],
      [
        "▁concern",
        -8.18734877856811
      ],
      [
        "▁landing",
        -9.439206307861928
      ],
      [
        "ted",
        -6.37783168450767
      ],
      [
        "▁declar",
        -9.701407189995155
      ],
      [
        "▁savage",
        -10.31142118465494
      ],
      [
        "be",
        -8.319774375295584
      ],
      [
        "▁people",
        -5.360554706050555
      ],
      [
        "▁shore",
        -9.322812779018271
      ],
      [
        "▁judg",
        -10.071392158918407
      ],
      [
        "▁block",
        -8.283216882473358
      ],
      [
        "▁entail",
        -10.375502741031848
      ],
      [
        "{",
        -11.810278406305976
      ],
      [
        "▁object",
        -8.096048912572735
      ],
      [
        "▁strateg",
        -8.482877882294718
      ],
      [
        "▁ne",
        -7.864967635903456
      ],
      [
        "▁bait",
        -10.481875419894672
      ],
      [
        "lla",
        -8.058951747127011
      ],
      [
        "▁methodolog",
        -10.478719948864317
      ],
      [
        "▁never",
        -5.373709755189779
      ],
      [
        "▁chute",
        -9.932473785966744
      ],
      [
        "▁copyright",
        -9.163750764274534
      ],
      [
        "▁her",
        -10.048054623692371
      ],
      [
        "r",
        -5.4322971977959815
      ],
      [
        "▁refugee",
        -9.445036936142237
      ],
      [
        "▁few",
        -5.7598031210673275
      ],
      [
        "▁blow",
        -9.383588077454679
      ],
      [
        "▁part",
        -5.968521033017264
      ],
      [
        "▁name",
        -7.643043092503144
      ],
      [
        "minate",
        -10.13779892225979
      ],
      [
        "▁thom",
        -7.741847624622862
      ],
      [
        "▁blanket",
        -8.482917685452422
      ],
      [
        "▁cowboy",
        -8.734191334023455
      ],
      [
        "▁state",
        -6.764772276132728
      ],
      [
        "www",
        -6.046962245507247
      ],
      [
        "6-1.",
        -10.246768575089586
      ],
      [
        "▁board",
        -9.283379317465256
      ],
      [
        "▁ban",
        -10.305601835799806
      ],
      [
        "▁rock",
        -8.002636897268085
      ],
      [
        "init",
        -10.056374199785903
      ],
      [
        "▁care",
        -7.633859895555274
      ],
      [
        "▁vulnerabilit",
        -10.478087476518771
      ],
      [
        "ol",
        -9.990600319933204
      ],
      [
        "ston",
        -4.6869837569322375
      ],
      [
        "▁suc",
        -6.023455274139659
      ],
      [
        "▁propose",
        -7.770609407272636
      ],
      [
        "x",
        -12.039036616560043
      ],
      [
        "▁feature",
        -8.799785572496791
      ],
      [
        "struction",
        -9.54637997427448
      ],
      [
        "igator",
        -9.015777670614
      ],
      [
        "!!!!!!!!!!!!!!!!",
        -11.398152869348259
      ],
      [
        "▁outfit",
        -9.658569447927718
      ],
      [
        "ue",
        -10.374843871007744
      ],
      [
        "▁ice",
        -8.251195956913984
      ],
      [
        "▁mind",
        -7.344556639691027
      ],
      [
        "▁attempt",
        -8.347490172119276
      ],
      [
        "▁cheat",
        -10.01034211626412
      ],
      [
        "▁ga",
        -7.646525266690652
      ],
      [
        "▁ec",
        -9.687794266609536
      ],
      [
        "▁gene",
        -7.92645367918931
      ],
      [
        "▁tw",
        -3.110490919801345
      ],
      [
        "or",
        -6.1111258282432015
      ],
      [
        "▁hungr",
        -7.615060641374746
      ],
      [
        "▁mask",
        -9.381199401819691
      ],
      [
        "work",
        -8.88169658858568
      ],
      [
        "▁taste",
        -9.029043658637281
      ],
      [
        "▁intrigue",
        -10.849011136294417
      ],
      [
        "▁billion",
        -9.94549627622234
      ],
      [
        "▁rest",
        -7.595450192446089
      ],
      [
        "ive",
        -9.23570791855251
      ],
      [
        "▁normal",
        -8.051013618467286
      ],
      [
        "ushi",
        -9.821008903553398
      ],
      [
        "'",
        -10.925660239071423
      ],
      [
        "ce",
        -7.335049452833815
      ],
      [
        "▁transport",
        -6.551204268895231
      ],
      [
        "▁stee",
        -10.24914642507314
      ],
      [
        "▁mode",
        -8.175328682425416
      ],
      [
        "▁slice",
        -9.21371081141626
      ],
      [
        "▁info",
        -8.90726700567382
      ],
      [
        "ve",
        -8.736942800002197
      ],
      [
        "▁dere",
        -10.651207635020583
      ],
      [
        "i",
        -4.958782707846554
      ],
      [
        "worker",
        -10.162252488594282
      ],
      [
        "▁mile",
        -9.174290856772428
      ],
      [
        "▁ten",
        -9.023708091545878
      ],
      [
        "▁shuttle",
        -9.741552064857755
      ],
      [
        "▁comment",
        -7.769169205172608
      ],
      [
        "▁evil",
        -10.169570604029722
      ],
      [
        "▁help",
        -5.928976135903623
      ],
      [
        "▁phone",
        -7.130847053332728
      ],
      [
        "proxim",
        -9.932544826113341
      ],
      [
        "▁enron",
        -9.658213996807223
      ],
      [
        "▁alternative",
        -9.266336856708783
      ],
      [
        "▁anemone",
        -10.311420827475965
      ],
      [
        "▁teaspoon",
        -10.043563702514572
      ],
      [
        "▁a",
        -6.484556626444801
      ],
      [
        "▁scholars",
        -9.138665206539113
      ],
      [
        "▁pop",
        -8.33074473435071
      ],
      [
        "ember",
        -6.199609196682592
      ],
      [
        "▁neighbor",
        -9.321741130106982
      ],
      [
        "whil",
        -8.721459407085504
      ],
      [
        "▁sock",
        -9.589046386917824
      ],
      [
        "▁pointe",
        -10.312528603189131
      ],
      [
        "▁made",
        -5.751019815800901
      ],
      [
        "▁solve",
        -9.079268602044394
      ],
      [
        "▁shopp",
        -9.08431180265642
      ],
      [
        "▁ant",
        -8.077726727736026
      ],
      [
        "▁mar",
        -9.241948177397724
      ],
      [
        "▁struggle",
        -10.202497375495566
      ],
      [
        "▁influenc",
        -10.389027647255675
      ],
      [
        "uck",
        -7.511765706610095
      ],
      [
        "▁responsibilit",
        -8.302627399698519
      ],
      [
        "ditio",
        -8.621133447474184
      ],
      [
        "▁de",
        -5.409566925574605
      ],
      [
        "▁sorr",
        -6.765052041130429
      ],
      [
        "th",
        -7.927273957318146
      ],
      [
        "▁allow",
        -6.980942798830301
      ],
      [
        "▁illusion",
        -10.311494101724024
      ],
      [
        "▁spen",
        -7.682695389956869
      ],
      [
        "uch",
        -7.227515523436938
      ],
      [
        "▁monitor",
        -9.212469515995753
      ],
      [
        "ie",
        -6.9160920740095
      ],
      [
        "▁spill",
        -8.918939825192812
      ],
      [
        "▁judge",
        -9.817911368366756
      ],
      [
        "▁coffee",
        -7.795941954283291
      ],
      [
        "▁opponent",
        -10.04356366628308
      ],
      [
        "▁die",
        -7.499057144464232
      ],
      [
        "rec",
        -7.563249920027834
      ],
      [
        "▁calorie",
        -10.168581811492563
      ],
      [
        "▁hoo",
        -9.584353781544689
      ],
      [
        "▁frequent",
        -10.011637176643408
      ],
      [
        "▁non-",
        -7.919293791434615
      ],
      [
        "▁association",
        -9.932475310555724
      ],
      [
        "▁set",
        -6.866630984593461
      ],
      [
        "e",
        -5.037702222238367
      ],
      [
        "▁superior",
        -10.311448624984681
      ],
      [
        "▁advertis",
        -9.567759333588402
      ],
      [
        "▁na",
        -10.265512847832465
      ],
      [
        "▁originate",
        -9.98649700429147
      ],
      [
        "complete",
        -7.44178207529168
      ],
      [
        "▁hundred",
        -8.766433678725697
      ],
      [
        "▁",
        -1.302891434072171
      ],
      [
        "▁be",
        -6.640664983350851
      ],
      [
        "▁mar",
        -10.893390436884685
      ],
      [
        "......",
        -13.08817150327664
      ],
      [
        "▁spell",
        -9.116449070466883
      ],
      [
        "s",
        -3.2318891890768686
      ],
      [
        "one",
        -6.076324489393661
      ],
      [
        "ary",
        -6.703871217344126
      ],
      [
        "▁b",
        -7.480039276401502
      ],
      [
        "r",
        -7.556471746184325
      ],
      [
        "▁think",
        -9.117919803422634
      ],
      [
        "▁emerge",
        -9.38954857975813
      ],
      [
        "▁unit",
        -7.415342760985423
      ],
      [
        "▁lo",
        -7.0040974518798675
      ],
      [
        "them",
        -7.937344547440428
      ],
      [
        "▁cp",
        -10.24823103657162
      ],
      [
        "▁on",
        -5.373374977856899
      ],
      [
        "▁supplier",
        -10.484664742745837
      ],
      [
        "▁house",
        -6.31345871373716
      ],
      [
        "ed",
        -9.945768300263612
      ],
      [
        "te",
        -7.352798822831
      ],
      [
        "▁proof",
        -9.58128873305953
      ],
      [
        "▁calculat",
        -10.529070410010046
      ],
      [
        "ove",
        -8.910776172545935
      ],
      [
        "ober",
        -7.420024668792132
      ],
      [
        "y",
        -4.796594636724666
      ],
      [
        "▁o",
        -7.903254943525872
      ],
      [
        "▁crowd",
        -8.907076151184802
      ],
      [
        "▁move",
        -8.744981265391734
      ],
      [
        "ough",
        -5.854176465378226
      ],
      [
        "▁wash",
        -9.562430866275564
      ],
      [
        "▁1000",
        -7.038940544104604
      ],
      [
        "ha",
        -10.934007455383558
      ],
      [
        "▁brief",
        -10.043553652795932
      ],
      [
        "ca",
        -9.450819833205985
      ],
      [
        "▁",
        -2.7000107461934846
      ],
      [
        "▁case",
        -6.766255565750259
      ],
      [
        "▁conce",
        -10.279745226660154
      ],
      [
        "▁temple",
        -9.511484328764858
      ],
      [
        "▁fold",
        -9.934215100072015
      ],
      [
        "▁tree",
        -7.647058368700216
      ],
      [
        "▁horror",
        -9.443191820153338
      ],
      [
        "▁route",
        -8.734975074165328
      ],
      [
        "▁start",
        -8.134098726039461
      ],
      [
        "hat",
        -3.789532303880037
      ],
      [
        "▁transit",
        -9.117454025584351
      ],
      [
        "▁rag",
        -9.507646288732989
      ],
      [
        "▁retail",
        -9.741658743099881
      ],
      [
        "▁tosse",
        -10.644474014296277
      ],
      [
        "▁whi",
        -11.4688705740323
      ],
      [
        "ity",
        -8.095819076855433
      ],
      [
        "▁cave",
        -9.443398871818205
      ],
      [
        "aw",
        -8.635393372690029
      ],
      [
        "▁poll",
        -10.045443716557898
      ],
      [
        "▁knot",
        -9.741650603618048
      ],
      [
        "e",
        -2.385192269340089
      ],
      [
        "▁price",
        -6.661603480920328
      ],
      [
        "▁earth",
        -7.984353915178019
      ],
      [
        "up",
        -8.197078957846688
      ],
      [
        "ver",
        -10.035555650788586
      ],
      [
        "▁ba",
        -7.679762023073685
      ],
      [
        "ve",
        -9.071097754752714
      ],
      [
        "ra",
        -9.92929908390967
      ],
      [
        "d",
        -7.331475850391489
      ],
      [
        "▁averag",
        -9.266441667938482
      ],
      [
        "viation",
        -9.932510014133378
      ],
      [
        "▁license",
        -9.164949153563807
      ],
      [
        "▁merry",
        -10.311562012135608
      ],
      [
        "▁i",
        -7.733415807312335
      ],
      [
        "▁hoax",
        -10.311827204140558
      ],
      [
        "▁adapt",
        -9.145580456118974
      ],
      [
        "▁maker",
        -10.180037371166542
      ],
      [
        "▁tin",
        -10.311558949266844
      ],
      [
        "▁fill",
        -7.5273199551953365
      ],
      [
        "4",
        -10.459107734815227
      ],
      [
        "▁say",
        -5.020055208945685
      ],
      [
        "▁annex",
        -10.168624485551174
      ],
      [
        "find",
        -10.48056306096662
      ],
      [
        "day",
        -6.084199428082167
      ],
      [
        "▁we",
        -7.785271393941958
      ],
      [
        "▁jobs",
        -9.303174638695168
      ],
      [
        "▁lake",
        -10.3121927841109
      ],
      [
        "▁dispute",
        -10.62732526487285
      ],
      [
        "▁ok",
        -6.289238687970232
      ],
      [
        "▁guarantee",
        -8.611129027755467
      ],
      [
        "▁europe",
        -6.774063021791246
      ],
      [
        "▁sa",
        -10.442131486767718
      ],
      [
        "▁virtue",
        -10.478087651363609
      ],
      [
        "en",
        -8.960701284908298
      ],
      [
        "▁come",
        -5.414264914613401
      ],
      [
        "▁discuss",
        -7.343250401243637
      ],
      [
        "▁vot",
        -10.234130492254568
      ],
      [
        "▁chess",
        -9.382422995320233
      ],
      [
        "▁natural",
        -6.989556970057124
      ],
      [
        "▁parti",
        -6.861010162495646
      ],
      [
        "▁trans",
        -8.808428148068545
      ],
      [
        "▁process",
        -9.845681825194033
      ],
      [
        "▁stabili",
        -9.331454282629602
      ],
      [
        "▁listing",
        -9.529002587312338
      ],
      [
        "▁entertain",
        -9.21368115608757
      ],
      [
        "▁pal",
        -10.320627127912795
      ],
      [
        "▁hall",
        -8.83419970445298
      ],
      [
        "▁flow",
        -9.448773215260845
      ],
      [
        "▁scent",
        -10.168582282082347
      ],
      [
        "▁allegation",
        -10.312104322409256
      ],
      [
        "▁fun",
        -7.0666474588122075
      ],
      [
        "▁bread",
        -7.973564547449617
      ],
      [
        "sburg",
        -5.01570745053143
      ],
      [
        "▁fin",
        -10.152002844049214
      ],
      [
        "full",
        -6.272233315765132
      ],
      [
        "un",
        -11.720693959703446
      ],
      [
        "▁sum",
        -9.531167355923937
      ],
      [
        "▁contain",
        -7.666122745033119
      ],
      [
        "▁glimpse",
        -10.478087497394753
      ],
      [
        "▁attain",
        -9.869265782222177
      ],
      [
        "stil",
        -8.348057439792251
      ],
      [
        "▁tugg",
        -10.375632855893508
      ],
      [
        "▁bath",
        -8.303532035429582
      ],
      [
        "rou",
        -13.078869863422522
      ],
      [
        "▁theor",
        -7.771401675521967
      ],
      [
        "▁grid",
        -9.741967250293682
      ],
      [
        "-----------",
        -10.993459808798361
      ],
      [
        "appoint",
        -9.820632183439097
      ],
      [
        "licit",
        -10.625532979131632
      ],
      [
        "▁human",
        -6.556366750583185
      ],
      [
        "h",
        -5.561550694199753
      ],
      [
        "▁d",
        -6.582039109497375
      ],
      [
        "▁flash",
        -10.008915582252982
      ],
      [
        "▁grand",
        -9.672744787189396
      ],
      [
        "▁com",
        -8.832857722999751
      ],
      [
        "▁moderni",
        -10.478100245137028
      ],
      [
        "▁japan",
        -7.718946389423106
      ],
      [
        "▁modern",
        -7.2893754413007565
      ],
      [
        "▁photograph",
        -10.625392292143463
      ],
      [
        "▁merit",
        -9.932611268407722
      ],
      [
        "▁fi",
        -10.440047787115914
      ],
      [
        "n",
        -4.5571833613477795
      ],
      [
        "▁vine",
        -9.834151118667313
      ],
      [
        "▁some",
        -7.348423636734813
      ],
      [
        "n",
        -2.150777991036591
      ],
      [
        "▁include",
        -7.061085876825674
      ],
      [
        "▁ma",
        -6.872057889626475
      ],
      [
        "▁very",
        -4.371071920638461
      ],
      [
        "enti",
        -7.448158532075225
      ],
      [
        "▁recognize",
        -8.349560514077385
      ],
      [
        "▁dress",
        -7.954474158369253
      ],
      [
        "▁alon",
        -6.861000914725314
      ],
      [
        "▁gift",
        -8.834250175797372
      ],
      [
        "▁taxi",
        -9.170370675850776
      ],
      [
        "▁blood",
        -10.63725419384442
      ],
      [
        "mi",
        -8.172274014866957
      ],
      [
        "thing",
        -9.637428031156196
      ],
      [
        "oose",
        -10.347214178633786
      ],
      [
        "▁wow",
        -6.018175054576849
      ],
      [
        "▁t",
        -8.001755625623431
      ],
      [
        "▁sha",
        -13.234491823502221
      ],
      [
        "▁area",
        -6.580243234742934
      ],
      [
        "v",
        -11.934283615581602
      ],
      [
        "houston",
        -6.467223978381896
      ],
      [
        "▁greet",
        -9.4499122373485
      ],
      [
        "▁disrupt",
        -10.0115220461553
      ],
      [
        "▁el",
        -10.044991722288888
      ],
      [
        "▁pa",
        -7.426367240959539
      ],
      [
        "▁daniel",
        -7.8451719624839376
      ],
      [
        "que",
        -9.782683796486307
      ],
      [
        "▁dea",
        -7.618633083891761
      ],
      [
        "▁surround",
        -8.139335840369649
      ],
      [
        "▁wine",
        -7.942930389942608
      ],
      [
        "h",
        -4.6934243343720325
      ],
      [
        "▁deep",
        -7.726823443598322
      ],
      [
        "whi",
        -12.327535299766522
      ],
      [
        "▁emitt",
        -10.719279613934258
      ],
      [
        "▁correction",
        -10.47845195931671
      ],
      [
        "politic",
        -6.515086073278683
      ],
      [
        "▁declaration",
        -9.027129404788028
      ],
      [
        "▁curve",
        -9.582521044139536
      ],
      [
        "▁floor",
        -7.290125546862132
      ],
      [
        "i",
        -4.785587726083073
      ],
      [
        "▁direct",
        -8.924893410825268
      ],
      [
        "▁psycholog",
        -9.3802825774339
      ],
      [
        "bal",
        -6.877981207083328
      ],
      [
        "ter",
        -8.004452915995703
      ],
      [
        "▁search",
        -8.706829101337929
      ],
      [
        "▁fund",
        -7.776618826048621
      ],
      [
        "▁adopt",
        -8.092872173831568
      ],
      [
        "▁tongue",
        -9.213699263459244
      ],
      [
        "▁ship",
        -7.73364615622619
      ],
      [
        "top",
        -9.583986287326363
      ],
      [
        "▁recorde",
        -10.497196847505592
      ],
      [
        "▁market",
        -7.2040971256635995
      ],
      [
        "er",
        -5.7969549656429065
      ],
      [
        "alit",
        -8.850107613642399
      ],
      [
        "rface",
        -8.38471935055882
      ],
      [
        "▁die",
        -8.442731206985325
      ],
      [
        "e",
        -2.645353623077794
      ],
      [
        "▁liv",
        -7.570239989097203
      ],
      [
        "▁line",
        -6.6770462408157485
      ],
      [
        "▁ok",
        -6.793719205581699
      ],
      [
        "spear",
        -7.586705536594994
      ],
      [
        "pression",
        -10.290142388316042
      ],
      [
        "▁storm",
        -10.700530798415647
      ],
      [
        "▁tie",
        -8.758690664380818
      ],
      [
        "▁knowledge",
        -8.065157473511176
      ],
      [
        "with",
        -6.357203910909968
      ],
      [
        "▁puzzle",
        -9.027165540054115
      ],
      [
        "ped",
        -8.244818001486966
      ],
      [
        "▁switch",
        -9.213013115128833
      ],
      [
        "▁iraq",
        -6.530461722568982
      ],
      [
        "▁miles",
        -8.558676269094882
      ],
      [
        "▁exten",
        -8.90690127485394
      ],
      [
        "te",
        -9.747775161545746
      ],
      [
        "ie",
        -8.034157973126504
      ],
      [
        "▁app",
        -9.580882903571307
      ],
      [
        "▁size",
        -7.987348668473763
      ],
      [
        "▁node",
        -10.31191411472076
      ],
      [
        "▁inst",
        -8.455893289655085
      ],
      [
        "of",
        -6.912227420810709
      ],
      [
        "tification",
        -10.094434560666098
      ],
      [
        "st",
        -10.37931082129729
      ],
      [
        "▁provok",
        -10.902337150025188
      ],
      [
        "▁nurse",
        -9.324863712695528
      ],
      [
        "▁strap",
        -9.44319311194261
      ],
      [
        "▁19",
        -5.4772626976529235
      ],
      [
        "▁lift",
        -8.780738111600888
      ],
      [
        "net",
        -10.012248088970086
      ],
      [
        "▁game",
        -6.622316878463927
      ],
      [
        "▁dignit",
        -9.830751568193135
      ],
      [
        "▁single",
        -10.915675907432187
      ],
      [
        "▁transmitt",
        -10.311473826238451
      ],
      [
        "▁fetch",
        -10.625931497039932
      ],
      [
        "▁fifth",
        -10.311462552055064
      ],
      [
        "▁wish",
        -7.590511462557424
      ],
      [
        "▁chicken",
        -7.426321841681207
      ],
      [
        "▁core",
        -9.445388088282826
      ],
      [
        "▁guideline",
        -8.870152705910813
      ],
      [
        "▁contra",
        -10.118034632343127
      ],
      [
        "▁emission",
        -9.381160923225368
      ],
      [
        "en",
        -6.925937608921457
      ],
      [
        "▁pudd",
        -9.93357335644222
      ],
      [
        "wh",
        -10.931662549423878
      ],
      [
        "▁dad",
        -6.936985185586955
      ],
      [
        "ica",
        -7.960705286245493
      ],
      [
        "▁discre",
        -9.889866715559883
      ],
      [
        "▁<",
        -9.936691962505732
      ],
      [
        "town",
        -7.545741056568113
      ],
      [
        "▁sheet",
        -8.422883773947177
      ],
      [
        "▁migrant",
        -9.741544029328535
      ],
      [
        "▁resi",
        -9.447138458160445
      ],
      [
        "▁finance",
        -9.868510323052286
      ],
      [
        "▁indulge",
        -10.818112787769977
      ],
      [
        "don",
        -10.84529255792158
      ],
      [
        "▁joint",
        -10.311730210878984
      ],
      [
        "▁’",
        -9.7081408527352
      ],
      [
        "▁t",
        -6.423821213326638
      ],
      [
        "▁devote",
        -9.360415018845844
      ],
      [
        "ual",
        -7.836549378084901
      ],
      [
        "▁bio",
        -10.161326626329021
      ],
      [
        "▁trot",
        -10.385990183597329
      ],
      [
        "▁decor",
        -10.049910148909289
      ],
      [
        "▁draw",
        -6.654847932334819
      ],
      [
        "▁scientist",
        -8.83426959548079
      ],
      [
        "▁podcast",
        -10.47809039415831
      ],
      [
        "h",
        -8.082311726515218
      ],
      [
        "▁pho",
        -10.180681923793482
      ],
      [
        "roid",
        -10.483979088458312
      ],
      [
        "present",
        -7.453798920435536
      ],
      [
        "▁when",
        -4.481408849397259
      ],
      [
        "▁recruit",
        -9.633814215439674
      ],
      [
        "▁h",
        -9.64414646600412
      ],
      [
        "herself",
        -11.97634857643032
      ],
      [
        "▁din",
        -9.21899449290369
      ],
      [
        "ive",
        -9.709368993220952
      ],
      [
        "▁determin",
        -10.216452930014658
      ],
      [
        "▁save",
        -7.460705679004733
      ],
      [
        "me",
        -7.2795455667260525
      ],
      [
        "▁athen",
        -8.07694340831553
      ],
      [
        "▁assist",
        -10.450664657426616
      ],
      [
        "▁drift",
        -10.175880782414616
      ],
      [
        "▁surviv",
        -9.65660093248701
      ],
      [
        "▁books",
        -8.136321539696524
      ],
      [
        "her",
        -5.970249124020137
      ],
      [
        "▁kid",
        -7.17027627458666
      ],
      [
        "kes",
        -10.476009255858898
      ],
      [
        "▁toy",
        -8.023577309993033
      ],
      [
        "▁appreciate",
        -8.071396535783002
      ],
      [
        "▁wit",
        -9.870262402186079
      ],
      [
        "▁col",
        -9.436715988311192
      ],
      [
        "▁tolerat",
        -9.639332834444483
      ],
      [
        "▁thousand",
        -8.345085550502363
      ],
      [
        "▁abolish",
        -10.011525039591323
      ],
      [
        "▁op",
        -10.15461485554686
      ],
      [
        "▁distribut",
        -9.928409276909466
      ],
      [
        "▁grip",
        -9.933037066253508
      ],
      [
        "▁feel",
        -6.135129679347383
      ],
      [
        "▁fair",
        -9.393591398248333
      ],
      [
        "▁expose",
        -9.78598951252306
      ],
      [
        "▁critic",
        -8.242633101741356
      ],
      [
        "ught",
        -8.207422363822904
      ],
      [
        "▁ruin",
        -9.15065426852602
      ],
      [
        "▁government",
        -6.868570384077447
      ],
      [
        "▁e-mail",
        -10.625392700940735
      ],
      [
        "▁dung",
        -10.481849695570881
      ],
      [
        "▁arrive",
        -6.562010512051669
      ],
      [
        "▁mo",
        -6.386859315429376
      ],
      [
        "▁premium",
        -10.043580233490525
      ],
      [
        "▁bodi",
        -9.028249857395899
      ],
      [
        "▁format",
        -8.242047513412505
      ],
      [
        "▁pioneer",
        -10.478092202968103
      ],
      [
        "▁manual",
        -9.932465288094356
      ],
      [
        "▁bunn",
        -8.58726898224516
      ],
      [
        "▁bed",
        -7.087401626501282
      ],
      [
        "▁protein",
        -10.168627448724333
      ],
      [
        "▁lawyer",
        -9.116789359470388
      ],
      [
        "▁attitude",
        -9.070608597862904
      ],
      [
        "▁llm",
        -9.932489812133712
      ],
      [
        "00",
        -5.601908175947245
      ],
      [
        "ountain",
        -10.167955581368044
      ],
      [
        "▁replie",
        -9.968508641162659
      ],
      [
        "▁mis",
        -8.939237127720832
      ],
      [
        "▁veto",
        -10.626658189778096
      ],
      [
        "▁ye",
        -3.803495247716296
      ],
      [
        "hi",
        -8.442534427418508
      ],
      [
        "▁minne",
        -7.238608874409377
      ],
      [
        "otte",
        -7.836754595846731
      ],
      [
        "▁cost",
        -7.911166214463438
      ],
      [
        "▁z",
        -8.117582436875843
      ],
      [
        "ground",
        -10.014613661477267
      ],
      [
        "▁display",
        -7.855065846435074
      ],
      [
        "▁expense",
        -9.26631281678947
      ],
      [
        "▁contemplate",
        -10.237939659288525
      ],
      [
        "▁window",
        -7.479591438148771
      ],
      [
        "c",
        -6.008928337258089
      ],
      [
        "▁crash",
        -9.65948020652196
      ],
      [
        "▁mine",
        -7.3549003857745685
      ],
      [
        "▁broker",
        -10.315469114631771
      ],
      [
        "▁mumm",
        -8.263391583249586
      ],
      [
        "▁ar",
        -3.9459345355302604
      ],
      [
        "▁punch",
        -8.91668404709228
      ],
      [
        "c",
        -8.638626362649184
      ],
      [
        "▁delay",
        -10.177329925685466
      ],
      [
        "▁workshop",
        -10.045044622110344
      ],
      [
        "▁inde",
        -7.740820838136441
      ],
      [
        "▁flourish",
        -10.0116362904511
      ],
      [
        "▁rebel",
        -9.836346622265573
      ],
      [
        "▁diplomat",
        -10.172144159024244
      ],
      [
        "▁sit",
        -6.330185365203777
      ],
      [
        "▁a",
        -9.937741353218946
      ],
      [
        "▁beard",
        -9.32768495325439
      ],
      [
        "▁teacher",
        -7.873619862410153
      ],
      [
        "▁refere",
        -10.168481487556766
      ],
      [
        "▁tit",
        -10.153702829967653
      ],
      [
        "▁go",
        -3.947751906945099
      ],
      [
        "ard",
        -8.753210973336145
      ],
      [
        "▁non",
        -9.736001375380885
      ],
      [
        "▁hi",
        -5.3515630451182075
      ],
      [
        "den",
        -9.774527968364772
      ],
      [
        "▁impulse",
        -10.16858059041098
      ],
      [
        "▁f",
        -7.230311391890082
      ],
      [
        "▁researcher",
        -9.051331038280338
      ],
      [
        "▁195",
        -7.019339072200602
      ],
      [
        "▁directive",
        -8.049027921285177
      ],
      [
        "▁compose",
        -9.919159873909146
      ],
      [
        "y",
        -3.3126902011208665
      ],
      [
        "▁vice",
        -9.58771189663863
      ],
      [
        "▁revolve",
        -10.375847210616396
      ],
      [
        "every",
        -9.010438236282951
      ],
      [
        "▁learn",
        -6.838105611386304
      ],
      [
        "▁gre",
        -8.641113811258577
      ],
      [
        "▁cuisine",
        -10.311420831632667
      ],
      [
        "▁sign",
        -7.972831141163362
      ],
      [
        "▁stair",
        -8.946089853091692
      ],
      [
        "r",
        -6.349681944935432
      ],
      [
        "▁michael",
        -7.442048009820002
      ],
      [
        "▁like",
        -4.758550093217762
      ],
      [
        "▁get",
        -7.116919860684064
      ],
      [
        "▁rattl",
        -10.17561618671088
      ],
      [
        "▁accomplishment",
        -10.47808749882418
      ],
      [
        "▁bulb",
        -8.946151700017957
      ],
      [
        "ea",
        -5.383019325135234
      ],
      [
        "▁fire",
        -7.507365594329469
      ],
      [
        "▁chine",
        -7.694773257057641
      ],
      [
        "▁glea",
        -10.421675450452215
      ],
      [
        "▁true",
        -7.013220592988147
      ],
      [
        "▁shirt",
        -7.760224314667319
      ],
      [
        "ficienc",
        -10.381701035681857
      ],
      [
        "▁participat",
        -9.424939284286868
      ],
      [
        "▁tuck",
        -10.677733780124745
      ],
      [
        "▁bust",
        -10.18119452908353
      ],
      [
        "y",
        -3.6159587335253516
      ],
      [
        "▁settler",
        -9.50993692017105
      ],
      [
        "s",
        -3.9323488869734176
      ],
      [
        "▁legislature",
        -9.658827205395198
      ],
      [
        "▁whil",
        -4.621993292267832
      ],
      [
        "==",
        -11.055194985824045
      ],
      [
        "▁abide",
        -10.677816934548815
      ],
      [
        "▁pale",
        -7.98914823566432
      ],
      [
        "▁trip",
        -6.529980885338597
      ],
      [
        "say",
        -10.040776107806037
      ],
      [
        "▁)",
        -8.967339649659891
      ],
      [
        "▁rule",
        -9.498378461293761
      ],
      [
        "▁t",
        -7.15943510415031
      ],
      [
        "▁procedure",
        -8.43467800269547
      ],
      [
        "▁goo",
        -9.83401421982768
      ],
      [
        "onom",
        -10.424784851626733
      ],
      [
        "▁phil",
        -5.25202746557171
      ],
      [
        "ail",
        -5.888541626445163
      ],
      [
        "▁force",
        -7.557981985303784
      ],
      [
        "ar",
        -9.38103595699485
      ],
      [
        "was",
        -10.878403380983059
      ],
      [
        "▁limb",
        -9.26887499946334
      ],
      [
        "ris",
        -9.549743311446141
      ],
      [
        "▁reache",
        -8.944570140040254
      ],
      [
        "▁f",
        -6.753051150091313
      ],
      [
        "▁withdraw",
        -9.283877617981842
      ],
      [
        "▁cra",
        -9.160877755352242
      ],
      [
        "internet",
        -7.721423258524315
      ],
      [
        "▁drug",
        -8.726279282209656
      ],
      [
        "▁mov",
        -10.492214193245665
      ],
      [
        "▁generation",
        -8.325149579932855
      ],
      [
        "▁shar",
        -9.323179623415278
      ],
      [
        "▁demand",
        -9.02713163726283
      ],
      [
        "to",
        -9.861809860188213
      ],
      [
        "gravi",
        -10.414517533720316
      ],
      [
        "nt",
        -7.926099267872553
      ],
      [
        "w",
        -4.78514370794099
      ],
      [
        "k",
        -8.700316144731588
      ],
      [
        "▁animal",
        -7.010915132886302
      ],
      [
        "o",
        -3.931859826234785
      ],
      [
        "▁danger",
        -9.380841398300472
      ],
      [
        "▁negl",
        -10.069552675287053
      ],
      [
        "▁sometime",
        -6.090063230110807
      ],
      [
        "house",
        -9.173737896759087
      ],
      [
        "il",
        -7.408892812565085
      ],
      [
        "▁gene",
        -9.739907093954944
      ],
      [
        "▁man",
        -6.253985725365129
      ],
      [
        "▁limitation",
        -9.382477643333257
      ],
      [
        "side",
        -9.126121496360799
      ],
      [
        "s",
        -3.279426749827511
      ],
      [
        "▁resort",
        -9.832941410940595
      ],
      [
        "ego",
        -7.42484466472511
      ],
      [
        "paren",
        -10.30847398351828
      ],
      [
        "▁k",
        -8.295278039849142
      ],
      [
        "▁parade",
        -10.315342448562175
      ],
      [
        "fare",
        -9.292714415760184
      ],
      [
        "hey",
        -12.24726347818536
      ],
      [
        "equalit",
        -9.936023995758362
      ],
      [
        "h",
        -7.877937126382169
      ],
      [
        "▁employee",
        -8.411628908552277
      ],
      [
        "▁frown",
        -10.6265895858662
      ],
      [
        "▁!!!!",
        -9.976697986141936
      ],
      [
        "▁highlight",
        -8.969748489235473
      ],
      [
        "▁surge",
        -10.647592397046761
      ],
      [
        "▁anyt",
        -9.499255608016783
      ],
      [
        "▁drawing",
        -10.4907339143207
      ],
      [
        "▁red",
        -6.333813204650047
      ],
      [
        ">",
        -7.243668748634377
      ],
      [
        "abilit",
        -8.39627629970846
      ],
      [
        "oget",
        -6.134195808425585
      ],
      [
        "▁ones",
        -10.697747661474345
      ],
      [
        "▁side",
        -10.769911773370067
      ],
      [
        "–",
        -5.905733460450745
      ],
      [
        "▁stat",
        -9.68551219430497
      ],
      [
        "▁hearing",
        -8.870715649866485
      ],
      [
        "▁congress",
        -7.673936536997595
      ],
      [
        "tieth",
        -7.971235901375047
      ],
      [
        "▁disorder",
        -10.168728464894318
      ],
      [
        "arriage",
        -9.582345540124793
      ],
      [
        "er",
        -11.883239097720296
      ],
      [
        "▁manner",
        -8.643405496595005
      ],
      [
        "▁store",
        -9.504469540613755
      ],
      [
        "▁?",
        -7.157961543371248
      ],
      [
        "▁audience",
        -8.50787815711593
      ],
      [
        "▁brush",
        -9.044226130735694
      ],
      [
        "▁structure",
        -8.033735445863806
      ],
      [
        "▁mus",
        -7.898406140039116
      ],
      [
        "elief",
        -9.043412723563407
      ],
      [
        "▁p.",
        -10.29057830323707
      ],
      [
        "▁seattle",
        -6.807459283346385
      ],
      [
        "▁fall",
        -8.083480341028192
      ],
      [
        "▁infection",
        -9.83245257216137
      ],
      [
        "▁recruit",
        -9.658260560098347
      ],
      [
        "▁fly",
        -5.968599392413515
      ],
      [
        "▁cake",
        -8.15186692174278
      ],
      [
        "▁progress",
        -8.507879586993713
      ],
      [
        "eol",
        -10.174185964822929
      ],
      [
        "less",
        -6.291852799812492
      ],
      [
        "▁cri",
        -10.700846500633672
      ],
      [
        "s",
        -3.3173752150766393
      ],
      [
        "▁mari",
        -7.872290944246012
      ],
      [
        "▁standard",
        -7.821104384456373
      ],
      [
        "▁over",
        -7.5060060069955
      ],
      [
        "▁strong",
        -8.180612225759802
      ],
      [
        "▁relat",
        -9.299645529150311
      ],
      [
        "▁simple",
        -7.298001257945252
      ],
      [
        "▁id",
        -9.869744666973013
      ],
      [
        "▁199",
        -5.317256283957202
      ],
      [
        "▁wink",
        -9.832582441974273
      ],
      [
        "enti",
        -9.138469515775558
      ],
      [
        "▁angle",
        -9.664900863863325
      ],
      [
        "▁join",
        -7.607559899605136
      ],
      [
        "cept",
        -10.232266352600972
      ],
      [
        "▁motivate",
        -10.561331268320581
      ],
      [
        "▁compete",
        -9.235698832012206
      ],
      [
        "▁ci",
        -9.885358328715993
      ],
      [
        "▁screw",
        -9.070607560922214
      ],
      [
        "▁to",
        -4.828081713777489
      ],
      [
        "▁gar",
        -10.355539461134962
      ],
      [
        "z",
        -7.912454580094244
      ],
      [
        "▁rise",
        -9.231808899821043
      ],
      [
        "e",
        -2.8147556323144673
      ],
      [
        "their",
        -8.058235903390358
      ],
      [
        "▁close",
        -6.872122316633374
      ],
      [
        "▁prosecutor",
        -10.043563666668888
      ],
      [
        "ender",
        -10.060553613759668
      ],
      [
        "force",
        -9.627659653326434
      ],
      [
        "▁function",
        -10.023944854055483
      ],
      [
        "▁house",
        -7.553451116995818
      ],
      [
        "ard",
        -7.61827400544645
      ],
      [
        "hasi",
        -10.168533208085735
      ],
      [
        "▁wet",
        -7.755055511800116
      ],
      [
        "▁volunteer",
        -10.375392290115844
      ],
      [
        "▁strain",
        -9.900034521624876
      ],
      [
        "cial",
        -6.719047619607358
      ],
      [
        "▁slope",
        -9.933116222401297
      ],
      [
        "▁f",
        -11.570644583811621
      ],
      [
        "▁bann",
        -9.878662501511485
      ],
      [
        "▁survive",
        -8.607826943963541
      ],
      [
        "▁luggage",
        -10.478087500630945
      ],
      [
        "▁research",
        -9.634070957828724
      ],
      [
        "▁notice",
        -7.764069890327629
      ],
      [
        "▁revenue",
        -8.985462633962609
      ],
      [
        "ensit",
        -9.668138476392487
      ],
      [
        "ving",
        -10.055450030235304
      ],
      [
        "▁new",
        -5.576189449017814
      ],
      [
        "▁undertake",
        -9.547930132674638
      ],
      [
        "▁leave",
        -5.929274021604734
      ],
      [
        "▁party",
        -10.378142173405347
      ],
      [
        "▁horse",
        -6.908726736777639
      ],
      [
        "▁subs",
        -8.297863541808772
      ],
      [
        "▁homosexual",
        -10.16856366973727
      ],
      [
        "▁telescope",
        -10.478162924180461
      ],
      [
        "▁takeoff",
        -10.478219592888856
      ],
      [
        "▁sh",
        -6.53497480056053
      ],
      [
        "o",
        -4.757238422636543
      ],
      [
        "!!!!!!!",
        -11.238141621059212
      ],
      [
        "▁verb",
        -10.312051313476276
      ],
      [
        "▁refer",
        -8.213241469647645
      ],
      [
        "▁confident",
        -7.905161831773092
      ],
      [
        "▁hi",
        -10.461023264164472
      ],
      [
        "▁post",
        -7.878502570412043
      ],
      [
        "▁sand",
        -8.974879506789534
      ],
      [
        "▁oc",
        -10.473749087577763
      ],
      [
        "iness",
        -8.758683916931057
      ],
      [
        "▁characterize",
        -10.188446757523664
      ],
      [
        "▁neighbour",
        -9.16354590074887
      ],
      [
        "t",
        -5.31872887030421
      ],
      [
        "▁squirrel",
        -9.509858669317888
      ],
      [
        "▁clarify",
        -9.869289628014036
      ],
      [
        "▁ale",
        -10.346992826483437
      ],
      [
        "▁interv",
        -9.789696287311628
      ],
      [
        "▁th",
        -11.03572952159127
      ],
      [
        "ox",
        -9.739793619725758
      ],
      [
        "ol",
        -7.336205349716692
      ],
      [
        "▁flew",
        -9.36325101694856
      ],
      [
        "▁sill",
        -7.937500207333644
      ],
      [
        "▁survey",
        -9.52279258650782
      ],
      [
        "once",
        -6.213434230210199
      ],
      [
        "f",
        -6.192928136779798
      ],
      [
        "▁log",
        -10.044122808438216
      ],
      [
        "what",
        -6.6959009818164335
      ],
      [
        "▁austral",
        -8.113121713835454
      ],
      [
        "▁california",
        -7.008845010886846
      ],
      [
        "▁scar",
        -9.34619103414721
      ],
      [
        "no",
        -6.988244225294419
      ],
      [
        "▁hammer",
        -10.375401357459415
      ],
      [
        "▁compensate",
        -9.885234912673681
      ],
      [
        "ertain",
        -6.8715652381419625
      ],
      [
        "▁send",
        -7.010702550415962
      ],
      [
        "center",
        -8.103115797944815
      ],
      [
        "operation",
        -8.706799928977901
      ],
      [
        "▁sail",
        -10.059779411460987
      ],
      [
        "▁statu",
        -8.84338274551921
      ],
      [
        "as",
        -4.369503812218431
      ],
      [
        "▁shel",
        -8.950498523237382
      ],
      [
        "a",
        -3.4205258717030773
      ],
      [
        "▁reinforc",
        -10.529267576564783
      ],
      [
        "[MASK]",
        0.0
      ],
      [
        "▁blood",
        -8.323537813091258
      ],
      [
        "ww",
        -11.770677750629414
      ],
      [
        "▁go",
        -6.738425845394443
      ],
      [
        "▁yard",
        -8.95860979526217
      ],
      [
        "▁deficienc",
        -9.58144013002739
      ],
      [
        "ow",
        -7.732974782451942
      ],
      [
        "▁hug",
        -9.963666376457335
      ],
      [
        "▁get",
        -4.421414040666525
      ],
      [
        "▁26",
        -6.742655354865676
      ],
      [
        "▁biographer",
        -10.311724200680686
      ],
      [
        "▁debat",
        -10.713720410635402
      ],
      [
        "▁cer",
        -6.993604117416121
      ],
      [
        "ment",
        -7.681229063393629
      ],
      [
        "rote",
        -7.59018499466834
      ],
      [
        "▁garb",
        -9.658508106242673
      ],
      [
        "▁explod",
        -10.894747663481427
      ],
      [
        "▁pickle",
        -10.168807310488178
      ],
      [
        "▁key",
        -7.989087423222255
      ],
      [
        "▁en",
        -9.598904422975817
      ],
      [
        "▁hug",
        -9.626618990612748
      ],
      [
        "▁mom",
        -6.848288544749489
      ],
      [
        "▁outgrow",
        -10.376057463075073
      ],
      [
        "▁execut",
        -7.998498319688814
      ],
      [
        "t",
        -6.030829771013778
      ],
      [
        "▁retire",
        -9.444789595873507
      ],
      [
        "▁row",
        -10.63244989644649
      ],
      [
        "▁cam",
        -6.278293092448769
      ],
      [
        "▁migration",
        -10.17108350806816
      ],
      [
        "▁food",
        -6.164435149998224
      ],
      [
        "▁ok",
        -3.6625702522183037
      ],
      [
        "▁museum",
        -8.945497853215379
      ],
      [
        "▁citizen",
        -9.5076440648901
      ],
      [
        "▁scrub",
        -10.626748296323523
      ],
      [
        "am",
        -9.348096544946763
      ],
      [
        "2000",
        -6.9517046882855045
      ],
      [
        "▁scal",
        -8.805574737590948
      ],
      [
        "▁interrupt",
        -9.634030986194858
      ],
      [
        "▁conclud",
        -10.330053968882336
      ],
      [
        "▁visit",
        -8.48183351503077
      ],
      [
        "isda",
        -9.760248938304615
      ],
      [
        "▁enem",
        -8.800329903110963
      ],
      [
        "a",
        -3.8090227617556476
      ],
      [
        "▁rubb",
        -8.643654335528929
      ],
      [
        "▁toss",
        -10.192147568604506
      ],
      [
        "▁derive",
        -9.633960475267493
      ],
      [
        "▁patch",
        -10.056316755322294
      ],
      [
        "ck",
        -10.640762823743703
      ],
      [
        "ifie",
        -9.61172450206864
      ],
      [
        "▁tile",
        -9.834733977771643
      ],
      [
        "▁cage",
        -8.066549412761571
      ],
      [
        "▁economic",
        -6.772570457784908
      ],
      [
        "a",
        -10.36027840626602
      ],
      [
        "terior",
        -9.757292973133069
      ],
      [
        "▁wide",
        -7.446101654657866
      ],
      [
        "not",
        -11.552459937114449
      ],
      [
        "▁import",
        -6.248272192306516
      ],
      [
        "▁meaning",
        -8.400218153223122
      ],
      [
        "▁draft",
        -9.083459478640432
      ],
      [
        "▁steam",
        -9.580722786229206
      ],
      [
        "▁th",
        -4.4762210506779
      ],
      [
        "▁addi",
        -7.638614242434944
      ],
      [
        "▁land",
        -7.374122411921427
      ],
      [
        "man",
        -7.728453083879817
      ],
      [
        "um",
        -7.820486637040139
      ],
      [
        "▁resist",
        -10.009115743932979
      ],
      [
        "b",
        -4.989213884672491
      ],
      [
        "ough",
        -6.757999109291238
      ],
      [
        "▁invest",
        -8.92347630255485
      ],
      [
        "w",
        -6.6555632675067935
      ],
      [
        "i",
        -1.9310834849042582
      ],
      [
        "t",
        -2.1315584869245665
      ],
      [
        "fence",
        -10.314587342183268
      ],
      [
        "▁heav",
        -7.330969987208551
      ],
      [
        "..............",
        -14.17106692401052
      ],
      [
        "▁bro",
        -9.263525512982529
      ],
      [
        "▁electrici",
        -8.870619976574817
      ],
      [
        "▁persona",
        -7.163868015445408
      ],
      [
        "▁generat",
        -9.327991634186706
      ],
      [
        "me",
        -8.142553719359245
      ],
      [
        "ish",
        -6.666207458055392
      ],
      [
        "▁media",
        -8.134514175208484
      ],
      [
        "▁imbalance",
        -10.478087883550936
      ],
      [
        "▁gaz",
        -10.586845650250607
      ],
      [
        "whil",
        -8.100936893042219
      ],
      [
        "doc",
        -8.805458404905234
      ],
      [
        "▁figur",
        -10.8475558747127
      ],
      [
        "▁sign",
        -7.643620500304603
      ],
      [
        "under",
        -10.917146474346666
      ],
      [
        "ley",
        -7.147190260073396
      ],
      [
        "▁record",
        -7.5373828275716885
      ],
      [
        "▁replication",
        -8.766446382709848
      ],
      [
        "▁18",
        -5.485808363114372
      ],
      [
        "▁da",
        -7.903378949837745
      ],
      [
        "▁characteristic",
        -9.741545243196226
      ],
      [
        "▁mutter",
        -10.008877801789922
      ],
      [
        "▁fat",
        -9.267775342048555
      ],
      [
        "rete",
        -9.932586803624295
      ],
      [
        "▁dump",
        -9.74390541880001
      ],
      [
        "▁tip",
        -9.744051507668884
      ],
      [
        "▁notif",
        -10.048149316979883
      ],
      [
        "▁down",
        -5.192616129128126
      ],
      [
        "▁poo",
        -9.557943873343035
      ],
      [
        "range",
        -7.625820424703236
      ],
      [
        "▁waste",
        -8.98548851277402
      ],
      [
        "▁biologist",
        -10.314429902656084
      ],
      [
        "▁micro",
        -8.074317963048511
      ],
      [
        "t",
        -4.81136547596664
      ],
      [
        "▁elbow",
        -9.741543467387801
      ],
      [
        "somethin",
        -8.701948388671699
      ],
      [
        "▁think",
        -4.867037107920854
      ],
      [
        "▁previous",
        -8.331232841109763
      ],
      [
        "▁’",
        -10.359454805938455
      ],
      [
        "▁40",
        -6.6565469213511435
      ],
      [
        "▁disaster",
        -8.507878212878197
      ],
      [
        "▁rock",
        -8.976187670267317
      ],
      [
        "▁suffering",
        -9.93245518700715
      ],
      [
        "d",
        -11.061985573933999
      ],
      [
        "▁jellyfish",
        -9.741599634671154
      ],
      [
        "▁item",
        -7.554339724961773
      ],
      [
        "▁sofa",
        -10.168564664936815
      ],
      [
        "▁who",
        -5.033694261489916
      ],
      [
        "▁abs",
        -7.929212495987686
      ],
      [
        "▁hot",
        -9.934891728178796
      ],
      [
        "▁preserv",
        -9.975501367869212
      ],
      [
        "▁100",
        -6.372188850804639
      ],
      [
        "▁circu",
        -10.309364159709224
      ],
      [
        ";",
        -10.425660239071421
      ],
      [
        "▁ingredient",
        -9.027129298032522
      ],
      [
        "course",
        -10.02552918250069
      ],
      [
        "▁accurac",
        -10.168564600261526
      ],
      [
        "the",
        -9.636382313932264
      ],
      [
        "▁crea",
        -10.18413266976058
      ],
      [
        "▁loan",
        -8.38884666563509
      ],
      [
        "est",
        -8.76531532472881
      ],
      [
        "g",
        -6.2422419029866925
      ],
      [
        "▁emotion",
        -9.932452815492725
      ],
      [
        "▁9",
        -5.844827498647503
      ],
      [
        "▁dri",
        -10.171730862205393
      ],
      [
        "▁guess",
        -10.313258984913379
      ],
      [
        "▁pl",
        -3.2601159934010706
      ],
      [
        "▁evolv",
        -9.307357676860246
      ],
      [
        "▁competition",
        -8.614699487150759
      ],
      [
        "emic",
        -7.797785240550301
      ],
      [
        "light",
        -8.738839737712883
      ],
      [
        "▁lie",
        -8.265551593608722
      ],
      [
        "▁flip",
        -10.005597315881472
      ],
      [
        "glad",
        -7.607642817248122
      ],
      [
        "▁delic",
        -7.956604256464347
      ],
      [
        "▁vince",
        -8.013397112940913
      ],
      [
        "▁chor",
        -10.152536120174858
      ],
      [
        "▁locat",
        -10.014799854193837
      ],
      [
        "▁bapti",
        -10.37546376694726
      ],
      [
        "l",
        -3.0945094295258793
      ],
      [
        "▁earthquake",
        -10.043563669759687
      ],
      [
        "▁state",
        -6.073588219978632
      ],
      [
        "pid",
        -7.692223382223148
      ],
      [
        "▁amuse",
        -10.312496843688429
      ],
      [
        "▁wrap",
        -9.750367615594794
      ],
      [
        "▁reputation",
        -9.509966040193433
      ],
      [
        "▁radi",
        -9.193346324418622
      ],
      [
        "▁horizon",
        -10.3114232865109
      ],
      [
        "bit",
        -10.395113566442866
      ],
      [
        "▁abou",
        -5.1502907813187875
      ],
      [
        "▁surprise",
        -8.428916050822538
      ],
      [
        "m",
        -5.207345861107033
      ],
      [
        "▁killer",
        -10.312875539424844
      ],
      [
        "▁haul",
        -9.643440098959239
      ],
      [
        "▁...",
        -9.238424474979164
      ],
      [
        "▁",
        -1.4771507384749105
      ],
      [
        "▁couch",
        -9.027210197927108
      ],
      [
        "ibilit",
        -9.03711928105411
      ],
      [
        "▁enable",
        -8.485653695965325
      ],
      [
        "▁aero",
        -10.044048415234588
      ],
      [
        "▁local",
        -6.57751425338309
      ],
      [
        "in",
        -7.702786427609441
      ],
      [
        "▁female",
        -8.945464546028534
      ],
      [
        "▁fi",
        -4.740511853306687
      ],
      [
        "▁referenc",
        -10.57040959474168
      ],
      [
        "▁g",
        -7.965084652085719
      ],
      [
        "▁mosque",
        -9.116079973487462
      ],
      [
        "▁",
        -1.6256745059821878
      ],
      [
        "▁thrive",
        -10.389457050288394
      ],
      [
        "▁component",
        -8.559834586312872
      ],
      [
        "▁gender",
        -8.799865249404151
      ],
      [
        "▁copy",
        -8.211734328691522
      ],
      [
        "ock",
        -6.949752816097767
      ],
      [
        "▁interview",
        -8.16745992254551
      ],
      [
        "15",
        -7.223810882306033
      ],
      [
        "e",
        -3.866122931705931
      ],
      [
        "o",
        -6.829498819779102
      ],
      [
        "ontario",
        -7.789441832070589
      ],
      [
        "own",
        -10.007235938739907
      ],
      [
        "▁user",
        -7.89085365109525
      ],
      [
        "▁specifi",
        -7.060318245974871
      ],
      [
        "▁scan",
        -9.737810668730376
      ],
      [
        "an",
        -6.60307352696869
      ],
      [
        "▁piece",
        -6.914504115641932
      ],
      [
        "be",
        -5.8753117268286665
      ],
      [
        "▁will",
        -8.413793777851856
      ],
      [
        "▁framework",
        -9.380809947685547
      ],
      [
        "▁execute",
        -8.568324959413838
      ],
      [
        "▁shape",
        -8.559841931066671
      ],
      [
        "now",
        -7.724366718955533
      ],
      [
        "nex",
        -7.029111693797481
      ],
      [
        "▁soa",
        -9.531481086034187
      ],
      [
        "quino",
        -8.773385744816004
      ],
      [
        "▁goin",
        -8.291618189562122
      ],
      [
        "▁visa",
        -8.559981129862402
      ],
      [
        "▁short",
        -6.594763792945896
      ],
      [
        "▁greeting",
        -9.44356102867612
      ],
      [
        "▁depth",
        -9.741571441746204
      ],
      [
        "appearance",
        -10.282912100241214
      ],
      [
        "▁donkey",
        -8.945462649578014
      ],
      [
        "▁prefect",
        -10.043588045646896
      ],
      [
        "▁second",
        -7.831712367476626
      ],
      [
        "▁stopover",
        -8.033271213275372
      ],
      [
        "ight",
        -10.37757982285585
      ],
      [
        "▁tendenc",
        -10.043565039755261
      ],
      [
        "▁recording",
        -9.642270070504843
      ],
      [
        "▁resource",
        -8.242607659729321
      ],
      [
        "▁mexic",
        -7.630279527638399
      ],
      [
        "▁replac",
        -9.526070890111471
      ],
      [
        "▁lips",
        -9.719866257334784
      ],
      [
        "d",
        -5.9477191613994504
      ],
      [
        "a",
        -3.730887411176009
      ],
      [
        "▁impact",
        -10.625462439326759
      ],
      [
        "aught",
        -7.744287489299082
      ],
      [
        "▁sweep",
        -9.443273260985471
      ],
      [
        "▁1960",
        -10.043573970272426
      ],
      [
        "▁rep",
        -8.553982279391816
      ],
      [
        "▁giraffe",
        -9.658210477706687
      ],
      [
        "arit",
        -9.597583532513143
      ],
      [
        "▁activist",
        -10.4781424038726
      ],
      [
        "east",
        -10.284820478250683
      ],
      [
        "b",
        -6.825311492901869
      ],
      [
        "▁bitter",
        -10.492026624987842
      ],
      [
        "▁stole",
        -9.362240009490456
      ],
      [
        "▁sin",
        -10.417361666764064
      ],
      [
        "▁august",
        -7.477763152566397
      ],
      [
        "▁je",
        -7.994743827829811
      ],
      [
        "y",
        -4.489015840271201
      ],
      [
        "▁sake",
        -9.323959453042832
      ],
      [
        "▁grocery",
        -10.069814988109352
      ],
      [
        "d",
        -6.638356827931881
      ],
      [
        "▁suggestion",
        -8.6726226247157
      ],
      [
        "▁damage",
        -10.01846366361378
      ],
      [
        "tl",
        -8.50920686371289
      ],
      [
        "▁heaven",
        -9.741552360562693
      ],
      [
        "▁feeling",
        -8.510453676041989
      ],
      [
        "▁fuel",
        -9.868808239435602
      ],
      [
        "or",
        -10.618338432221062
      ],
      [
        "elis",
        -10.48136681684532
      ],
      [
        "ythm",
        -10.418118038823076
      ],
      [
        "▁ab",
        -8.805039313032388
      ],
      [
        "\"",
        -10.311420809169354
      ],
      [
        "▁mor",
        -10.373848790221789
      ],
      [
        "▁editor",
        -9.177073675275679
      ],
      [
        "▁count",
        -9.263433872488331
      ],
      [
        "▁strengthen",
        -8.731130213921778
      ],
      [
        "▁refund",
        -9.9324577638119
      ],
      [
        "▁present",
        -7.660713438513456
      ],
      [
        "rism",
        -10.079538751435921
      ],
      [
        "▁the",
        -1.5036323933989628
      ],
      [
        "write",
        -10.243468297120735
      ],
      [
        "about",
        -5.6244658561614616
      ],
      [
        "▁un",
        -5.798991763268779
      ],
      [
        "▁wear",
        -7.030136924463811
      ],
      [
        "odd",
        -10.298082530141267
      ],
      [
        "▁eater",
        -10.483759072715358
      ],
      [
        "▁west",
        -9.275173103541295
      ],
      [
        "▁broc",
        -10.367495236729512
      ],
      [
        "commerc",
        -10.457629339480926
      ],
      [
        "▁acquis",
        -10.056116954805184
      ],
      [
        "▁wake",
        -8.394018509598096
      ],
      [
        "▁update",
        -9.307863758981759
      ],
      [
        "▁majorit",
        -8.559984870598816
      ],
      [
        "size",
        -10.322464044988806
      ],
      [
        "▁be",
        -5.041130330655389
      ],
      [
        "us",
        -8.503979686221008
      ],
      [
        "▁reviewer",
        -10.381986077776578
      ],
      [
        "▁pony",
        -9.741939387605328
      ],
      [
        "▁garden",
        -8.167811460316575
      ],
      [
        "▁!!!!!!!!!!",
        -11.835042718013746
      ],
      [
        "▁donate",
        -9.51623271773999
      ],
      [
        "▁arr",
        -10.519175412347684
      ],
      [
        "▁shorts",
        -8.897727633416498
      ],
      [
        "▁weight",
        -8.562546749387387
      ],
      [
        "▁wri",
        -10.516370978935342
      ],
      [
        "understanding",
        -10.283038134920822
      ],
      [
        "▁spray",
        -9.581308328030453
      ],
      [
        "▁activate",
        -10.3754018050035
      ],
      [
        "▁carolin",
        -8.18586582049517
      ],
      [
        "▁contact",
        -8.507877833464192
      ],
      [
        "▁signif",
        -7.341198651552321
      ],
      [
        "▁nation",
        -7.571347819551489
      ],
      [
        "le",
        -8.50795881827378
      ],
      [
        "▁mad",
        -10.2242921875746
      ],
      [
        "▁decree",
        -10.168566611850627
      ],
      [
        "▁su",
        -8.152853670093483
      ],
      [
        "▁muc",
        -5.922368473306233
      ],
      [
        "▁cloth",
        -8.45702971289574
      ],
      [
        "▁stem",
        -9.93306088335769
      ],
      [
        "ul",
        -10.976443136227793
      ],
      [
        "▁bit",
        -6.844551516350718
      ],
      [
        "▁customer",
        -7.328942627364787
      ],
      [
        "wo",
        -10.600779294355887
      ],
      [
        "▁airline",
        -6.979276874725095
      ],
      [
        "ble",
        -5.978990578455024
      ],
      [
        "▁embass",
        -10.311423030527196
      ],
      [
        "▁_",
        -6.548517509263308
      ],
      [
        "▁earn",
        -8.527899775111031
      ],
      [
        ".html",
        -7.79080271934032
      ],
      [
        "▁oil",
        -7.5960393617869215
      ],
      [
        "adam",
        -8.856317998175134
      ],
      [
        "dia",
        -7.541339966809506
      ],
      [
        "▁origin",
        -8.909753205708526
      ],
      [
        "▁'",
        -9.87189667263921
      ],
      [
        "os",
        -12.781528412373152
      ],
      [
        "▁not",
        -7.200425170962376
      ],
      [
        "▁30",
        -5.89812118111261
      ],
      [
        "der",
        -7.243585232811172
      ],
      [
        "▁babi",
        -9.710863577913038
      ],
      [
        "▁banknote",
        -10.168586900889323
      ],
      [
        "▁crawl",
        -9.283315065899274
      ],
      [
        "▁!!!!!!!!!!!!!",
        -13.199573544020165
      ],
      [
        "▁thank",
        -6.299459731837786
      ],
      [
        "▁iron",
        -9.32187073929362
      ],
      [
        "lil",
        -9.67376765380428
      ],
      [
        "▁22",
        -10.47824000813807
      ],
      [
        "justice",
        -10.449253037710472
      ],
      [
        "▁form",
        -8.023580180085943
      ],
      [
        "▁sanct",
        -10.168582505122139
      ],
      [
        "▁contribution",
        -8.58686161278468
      ],
      [
        "▁towel",
        -8.907204983918298
      ],
      [
        "ar",
        -7.070180781046311
      ],
      [
        "▁drink",
        -7.166090136053161
      ],
      [
        "ualit",
        -10.245694039945095
      ],
      [
        "▁strawberr",
        -9.02713117017369
      ],
      [
        "▁able",
        -7.6495260571032535
      ],
      [
        "▁airline",
        -5.690089627896371
      ],
      [
        "▁mid",
        -8.851268335651802
      ],
      [
        "▁brass",
        -9.858999046579305
      ],
      [
        "on",
        -7.624307359401639
      ],
      [
        "c",
        -10.270631529841472
      ],
      [
        "▁b",
        -6.612012272435214
      ],
      [
        "▁desert",
        -10.37542341912997
      ],
      [
        "▁batter",
        -8.907787144003969
      ],
      [
        "▁as",
        -4.879682590360853
      ],
      [
        "▁vessel",
        -9.658213747469626
      ],
      [
        "▁late",
        -6.267339765221746
      ],
      [
        "port",
        -6.55451838609997
      ],
      [
        "▁manipulate",
        -10.548907462218708
      ],
      [
        "edicate",
        -10.147540053240565
      ],
      [
        "▁fed",
        -7.631178086646779
      ],
      [
        "▁grandpa",
        -10.024662827003437
      ],
      [
        "▁resolv",
        -10.925979024928955
      ],
      [
        "t",
        -3.4258600649643967
      ],
      [
        "▁rum",
        -10.335668614546588
      ],
      [
        "rap",
        -8.34558805081588
      ],
      [
        "ep",
        -9.651875743216065
      ],
      [
        "work",
        -10.687594356335081
      ],
      [
        "▁str",
        -10.28308004920849
      ],
      [
        "▁vanish",
        -9.533969319222997
      ],
      [
        "▁absorb",
        -9.024768821123665
      ],
      [
        "▁release",
        -9.44333620801952
      ],
      [
        "▁village",
        -9.163696457541151
      ],
      [
        "▁bond",
        -9.833680285838108
      ],
      [
        "▁assume",
        -8.180302739335136
      ],
      [
        "▁dig",
        -9.15292108372924
      ],
      [
        "▁teach",
        -8.290834019702363
      ],
      [
        "▁lawsuit",
        -10.31155480298001
      ],
      [
        "▁label",
        -9.832977830237745
      ],
      [
        "p",
        -7.0700743213878585
      ],
      [
        "▁patron",
        -9.658555747168112
      ],
      [
        "▁roman",
        -6.842934261037475
      ],
      [
        "▁factor",
        -8.189929229033773
      ],
      [
        "▁fina",
        -7.557620854095129
      ],
      [
        "▁involve",
        -7.945953540093921
      ],
      [
        "▁counter",
        -8.767492823074939
      ],
      [
        "▁distinguishe",
        -10.872842718039843
      ],
      [
        "▁spider",
        -8.434702928037709
      ],
      [
        "ce",
        -7.959106722472015
      ],
      [
        "▁rea",
        -9.806587807895575
      ],
      [
        "g",
        -7.363773323253889
      ],
      [
        "▁fli",
        -8.794802858492993
      ],
      [
        "_",
        -4.773377875289404
      ],
      [
        "r",
        -6.977308910407106
      ],
      [
        "▁fluid",
        -9.741570589281382
      ],
      [
        "▁be",
        -5.640815374565239
      ],
      [
        "fect",
        -7.810865185202943
      ],
      [
        "▁cr",
        -10.644824002594696
      ],
      [
        "▁alway",
        -5.519820572217112
      ],
      [
        "▁wood",
        -8.782335898887276
      ],
      [
        "▁motorcycle",
        -9.74207944448204
[...]
