{
  "version": "1.0",
  "truncation": null,
  "padding": null,
  "added_tokens": [
    {
      "id": 372,
      "content": "[SEP]",
      "single_word": false,
      "lstrip": false,
      "rstrip": false,
      "normalized": false,
      "special": true
    },
    {
      "id": 1504,
      "content": "[CLS]",
      "single_word": false,
      "lstrip": false,
      "rstrip": false,
      "normalized": false,
      "special": true
    },
    {
      "id": 6136,
      "content": "[UNK]",
      "single_word": false,
      "lstrip": false,
      "rstrip": false,
      "normalized": false,
      "special": true
    },
    {
      "id": 6723,
      "content": "[MASK]",
      "single_word": false,
      "lstrip": false,
      "rstrip": false,
      "normalized": false,
      "special": true
    },
    {
      "id": 7076,
      "content": "[PAD]",
      "single_word": false,
      "lstrip": false,
      "rstrip": false,
      "normalized": false,
      "special": true
    }
  ],
  "normalizer": {
    "type": "Sequence",
    "normalizers": [
      {
        "type": "NFD"
      },
      {
        "type": "Lowercase"
      },
      {
        "type": "StripAccents"
      }
    ]
  },
  "pre_tokenizer": {
    "type": "Sequence",
    "pretokenizers": [
      {
        "type": "Metaspace",
        "replacement": "▁",
        "prepend_scheme": "always",
        "split": true
      }
    ]
  },
  "post_processor": {
    "type": "TemplateProcessing",
    "single": [
      {
        "SpecialToken": {
          "id": "[CLS]",
          "type_id": 0
        }
      },
      {
        "Sequence": {
          "id": "A",
          "type_id": 0
        }
      },
      {
        "SpecialToken": {
          "id": "[SEP]",
          "type_id": 0
        }
      }
    ],
    "pair": [
      {
        "SpecialToken": {
          "id": "[CLS]",
          "type_id": 0
        }
      },
      {
        "Sequence": {
          "id": "A",
          "type_id": 0
        }
      },
      {
        "SpecialToken": {
          "id": "[SEP]",
          "type_id": 0
        }
      },
      {
        "Sequence": {
          "id": "B",
          "type_id": 1
        }
      },
      {
        "SpecialToken": {
          "id": "[SEP]",
          "type_id": 1
        }
      }
    ],
    "special_tokens": {
      "[CLS]": {
        "id": "[CLS]",
        "ids": [
          1504
        ],
        "tokens": [
          "[CLS]"
        ]
      },
      "[SEP]": {
        "id": "[SEP]",
        "ids": [
          372
        ],
        "tokens": [
          "[SEP]"
        ]
      }
    }
  },
  "decoder": {
    "type": "Metaspace",
    "replacement": "▁",
    "prepend_scheme": "always",
    "split": true
  },
  "model": {
    "type": "BPE",
    "dropout": null,
    "unk_token": "[UNK]",
    "continuing_subword_prefix": null,
    "end_of_word_suffix": null,
    "fuse_unk": false,
    "byte_fallback": false,
    "ignore_merges": false,
    "vocab": {
      "erful": 0,
      "▁text": 1,
      "▁trials": 2,
      "▁taxi": 3,
      "▁jih": 4,
      "▁advertising": 5,
      "ather": 6,
      "▁candy": 7,
      "▁codes": 8,
      "▁future": 9,
      "ognition": 10,
      "▁vac": 11,
      "temp": 12,
      "▁loans": 13,
      "uh": 14,
      "▁polic": 15,
      "▁defining": 16,
      "▁lessons": 17,
      "▁face": 18,
      "ule": 19,
      "▁negotiations": 20,
      "▁al": 21,
      "▁dev": 22,
      "▁sew": 23,
      "lity": 24,
      "▁&": 25,
      "▁evac": 26,
      "▁resources": 27,
      "▁tiny": 28,
      "▁determine": 29,
      "▁manufact": 30,
      "▁approved": 31,
      "▁nephew": 32,
      "▁decisions": 33,
      "ount": 34,
      "▁imagination": 35,
      "▁mi": 36,
      "▁subst": 37,
      "adel": 38,
      "▁busy": 39,
      "▁equipment": 40,
      "▁politics": 41,
      "▁spin": 42,
      "▁sign": 43,
      "▁tol": 44,
      "▁concl": 45,
      "▁cott": 46,
      "▁impacts": 47,
      "▁favorite": 48,
      "sel": 49,
      "appy": 50,
      "▁toll": 51,
      "▁shares": 52,
      "ainly": 53,
      "▁animal": 54,
      "▁appl": 55,
      "▁story": 56,
      "▁defeated": 57,
      "▁aut": 58,
      "ary": 59,
      "hether": 60,
      "▁inhabit": 61,
      "▁context": 62,
      "▁advice": 63,
      "▁respect": 64,
      "▁brain": 65,
      "d": 66,
      "▁change": 67,
      "oint": 68,
      "▁potty": 69,
      "▁murders": 70,
      "▁alcohol": 71,
      "▁famili": 72,
      "emic": 73,
      "▁per": 74,
      "▁concent": 75,
      "▁considering": 76,
      "▁claiming": 77,
      "▁techn": 78,
      "pr": 79,
      "▁setup": 80,
      "ute": 81,
      "▁agriculture": 82,
      "derstanding": 83,
      "▁as400": 84,
      "▁{": 85,
      "▁look": 86,
      "▁espec": 87,
      "p;": 88,
      "▁enterpr": 89,
      "·": 90,
      "▁att": 91,
      "▁recon": 92,
      "▁aircraft": 93,
      "▁poo": 94,
      "ottable": 95,
      "▁discre": 96,
      "▁forgotten": 97,
      "aser": 98,
      "▁inst": 99,
      "▁hit": 100,
      "▁remaining": 101,
      "▁january": 102,
      "eration": 103,
      "▁century": 104,
      "▁thous": 105,
      "▁gro": 106,
      "▁der": 107,
      "▁susp": 108,
      "tles": 109,
      "▁now": 110,
      "6": 111,
      "▁run": 112,
      "▁location": 113,
      "▁affected": 114,
      "tling": 115,
      "▁beaches": 116,
      "crib": 117,
      "ost": 118,
      "ash": 119,
      "tainty": 120,
      "▁event": 121,
      "▁disapp": 122,
      "ister": 123,
      "▁must": 124,
      "▁cabbage": 125,
      "▁great": 126,
      "▁coordination": 127,
      "▁represented": 128,
      "▁price": 129,
      "▁ov": 130,
      "struc": 131,
      "▁neg": 132,
      "▁ai": 133,
      "ann": 134,
      "▁ld2d-": 135,
      "▁addressed": 136,
      "▁champ": 137,
      "keep": 138,
      "▁bee": 139,
      "▁few": 140,
      "▁his": 141,
      "itated": 142,
      "▁god": 143,
      "ishment": 144,
      "box": 145,
      "▁church": 146,
      "▁straps": 147,
      "▁grammar": 148,
      "▁danger": 149,
      "teries": 150,
      "ded": 151,
      "ising": 152,
      "▁gone": 153,
      "▁predators": 154,
      "▁hotel": 155,
      "ass": 156,
      "▁covered": 157,
      "▁test": 158,
      "▁although": 159,
      "▁steam": 160,
      "▁lab": 161,
      "ft": 162,
      "▁wall": 163,
      "equ": 164,
      "ct": 165,
      "▁diaper": 166,
      "eli": 167,
      "▁proc": 168,
      "tc": 169,
      "ybody": 170,
      "▁supposed": 171,
      "▁force": 172,
      "ps": 173,
      "her": 174,
      "▁smal": 175,
      "▁amounts": 176,
      "▁leading": 177,
      "sely": 178,
      "ion": 179,
      "onstr": 180,
      "▁legisl": 181,
      "▁playw": 182,
      "60s": 183,
      "ighb": 184,
      "ival": 185,
      "▁civili": 186,
      "▁collect": 187,
      "▁balloons": 188,
      "▁receipt": 189,
      "mission": 190,
      "▁statement": 191,
      "▁rot": 192,
      "▁november": 193,
      "▁ya": 194,
      "▁demonstrated": 195,
      "oted": 196,
      "▁requiring": 197,
      "▁listen": 198,
      "▁match": 199,
      "▁undert": 200,
      "▁interp": 201,
      "▁fut": 202,
      ">": 203,
      "▁environment": 204,
      "▁gave": 205,
      "▁this": 206,
      "▁changes": 207,
      "▁roc": 208,
      "r": 209,
      "▁your": 210,
      "▁vacc": 211,
      "▁gun": 212,
      "▁studied": 213,
      "▁notch": 214,
      "▁readers": 215,
      "▁achievement": 216,
      "▁compan": 217,
      "▁persons": 218,
      "atives": 219,
      "▁critic": 220,
      "vail": 221,
      "▁fair": 222,
      "▁terms": 223,
      "alk": 224,
      "▁grow": 225,
      "has": 226,
      "▁isd": 227,
      "▁advised": 228,
      "▁vice": 229,
      "dit": 230,
      "▁listing": 231,
      "▁amendments": 232,
      "▁muscle": 233,
      "▁cried": 234,
      "▁ones": 235,
      "▁stro": 236,
      "ums": 237,
      "▁st": 238,
      "▁completed": 239,
      "-s": 240,
      "▁pressure": 241,
      "▁earned": 242,
      "▁period": 243,
      "▁_______": 244,
      "ders": 245,
      "▁state": 246,
      "▁!!!": 247,
      "▁fix": 248,
      "▁knows": 249,
      "▁processes": 250,
      "▁dresses": 251,
      "▁glasses": 252,
      "vision": 253,
      "▁succeed": 254,
      "▁.?": 255,
      "▁month": 256,
      "▁plane": 257,
      "▁skip": 258,
      "▁swing": 259,
      "▁theat": 260,
      "▁listed": 261,
      "▁gal": 262,
      "▁interference": 263,
      "▁belief": 264,
      "uth": 265,
      "utes": 266,
      "▁decl": 267,
      "ina": 268,
      "▁concepts": 269,
      "cept": 270,
      "▁equip": 271,
      "isting": 272,
      "▁makes": 273,
      "oun": 274,
      "▁risk": 275,
      "▁entertainment": 276,
      "ł": 277,
      ";": 278,
      "▁common": 279,
      "▁propose": 280,
      "▁introduce": 281,
      "▁manuscri": 282,
      "▁concrete": 283,
      "▁sl": 284,
      "30": 285,
      "▁interests": 286,
      "utation": 287,
      "▁locom": 288,
      "apolis": 289,
      "▁chess": 290,
      "▁introducing": 291,
      "▁operating": 292,
      "▁schedule": 293,
      "▁radiation": 294,
      "▁delivery": 295,
      "▁six": 296,
      "▁nails": 297,
      "▁becom": 298,
      "▁rebuil": 299,
      "▁nation": 300,
      "uggle": 301,
      "▁runs": 302,
      "▁rank": 303,
      "▁!": 304,
      "▁ans": 305,
      "▁cocktail": 306,
      "get": 307,
      "▁cy": 308,
      "▁planning": 309,
      "▁the": 310,
      "▁shower": 311,
      "▁ahead": 312,
      "▁scored": 313,
      "▁carbon": 314,
      "▁situation": 315,
      "▁petroleum": 316,
      "▁co-": 317,
      "▁vers": 318,
      "zed": 319,
      "▁bears": 320,
      "▁action": 321,
      "▁ling": 322,
      "yl": 323,
      "$": 324,
      "bly": 325,
      "play": 326,
      "▁spill": 327,
      "ind": 328,
      "alist": 329,
      "▁mich": 330,
      "▁incl": 331,
      "dy": 332,
      ".com/": 333,
      "▁jail": 334,
      "▁enj": 335,
      "▁appropri": 336,
      "ective": 337,
      "▁endeav": 338,
      "eets": 339,
      "▁facilitate": 340,
      "▁ep": 341,
      "▁heard": 342,
      "▁issued": 343,
      "▁folks": 344,
      "▁[...]": 345,
      "▁charge": 346,
      "▁repeated": 347,
      ".doc": 348,
      "▁prac": 349,
      "▁testing": 350,
      "tly": 351,
      "▁draft": 352,
      "timate": 353,
      "bers": 354,
      "▁ice": 355,
      "▁oath": 356,
      "how": 357,
      "▁claims": 358,
      "▁cows": 359,
      "▁trad": 360,
      "▁derived": 361,
      "atme": 362,
      "▁speci": 363,
      "▁decision": 364,
      "xt": 365,
      "▁experi": 366,
      "▁cons": 367,
      "mitted": 368,
      "▁middle": 369,
      "▁loc": 370,
      "asion": 371,
      "[SEP]": 372,
      "leum": 373,
      "▁live": 374,
      "ording": 375,
      "▁ok": 376,
      "inus": 377,
      "▁exactly": 378,
      "▁squirt": 379,
      "▁contacts": 380,
      "apers": 381,
      "ism": 382,
      "▁refrigerator": 383,
      "▁boil": 384,
      "▁contributions": 385,
      "pe": 386,
      "▁believes": 387,
      "▁protected": 388,
      "isd": 389,
      "▁generators": 390,
      "▁woke": 391,
      "▁yesterday": 392,
      "▁session": 393,
      "▁play": 394,
      "▁submitted": 395,
      "▁hay": 396,
      "▁pocketbook": 397,
      "▁standards": 398,
      "▁hous": 399,
      "ec": 400,
      "▁sock": 401,
      "▁squeeze": 402,
      "▁texas": 403,
      "▁read": 404,
      "▁putting": 405,
      "esaw": 406,
      "▁affairs": 407,
      "▁***": 408,
      "▁observed": 409,
      "▁summer": 410,
      "▁ri": 411,
      "▁equals": 412,
      "▁funds": 413,
      "▁established": 414,
      "▁team": 415,
      "▁du": 416,
      "▁pop": 417,
      "▁appeared": 418,
      "▁miles": 419,
      "ocked": 420,
      "3": 421,
      "▁que": 422,
      "▁score": 423,
      "▁neighborhood": 424,
      "▁adoption": 425,
      "ening": 426,
      "▁je": 427,
      "▁a.m.": 428,
      "▁newark": 429,
      "▁planes": 430,
      "ual": 431,
      "▁promise": 432,
      "▁dump": 433,
      "▁pants": 434,
      "▁restric": 435,
      "iece": 436,
      "▁being": 437,
      "▁ski": 438,
      "▁near": 439,
      "estiv": 440,
      "▁connec": 441,
      "▁stepped": 442,
      "▁choo": 443,
      "ield": 444,
      "▁riding": 445,
      "▁poet": 446,
      "▁closed": 447,
      "▁se": 448,
      "▁requirement": 449,
      "▁convin": 450,
      "memb": 451,
      "edly": 452,
      "ocol": 453,
      "▁bent": 454,
      "▁lik": 455,
      "▁********************************": 456,
      "▁difficul": 457,
      "ified": 458,
      "sh": 459,
      "tery": 460,
      "cend": 461,
      "▁encour": 462,
      "ization": 463,
      "▁explo": 464,
      "▁hire": 465,
      "▁bir": 466,
      "▁17": 467,
      "▁lines": 468,
      "▁nov": 469,
      "▁quino": 470,
      "▁propos": 471,
      "▁ingred": 472,
      "▁estimate": 473,
      "▁laid": 474,
      "▁los": 475,
      "▁tel": 476,
      "▁guarantee": 477,
      "▁pas": 478,
      "▁racing": 479,
      "pen": 480,
      "ury": 481,
      "▁gym": 482,
      ".s": 483,
      "fin": 484,
      "▁considered": 485,
      "▁places": 486,
      "▁journey": 487,
      "tiff": 488,
      "▁counter": 489,
      "▁bu": 490,
      "plet": 491,
      "su": 492,
      "osing": 493,
      "ll": 494,
      "▁service": 495,
      "▁it's": 496,
      "▁donkey": 497,
      "oud": 498,
      "▁resolution": 499,
      "put": 500,
      "eor": 501,
      "▁helped": 502,
      "▁ll": 503,
      "▁mul": 504,
      "▁names": 505,
      "▁things": 506,
      "▁begins": 507,
      "ence": 508,
      "▁asked": 509,
      "esting": 510,
      "▁))": 511,
      "▁excellent": 512,
      "▁analy": 513,
      "▁imp": 514,
      "eck": 515,
      "▁counterfeiting": 516,
      "▁hundreds": 517,
      "▁bound": 518,
      "▁identified": 519,
      "▁tur": 520,
      "▁amidst": 521,
      "{": 522,
      "▁set": 523,
      "▁produce": 524,
      "▁belongs": 525,
      "▁apolog": 526,
      "imb": 527,
      "▁homeopath": 528,
      "ading": 529,
      "▁reduced": 530,
      "▁mac": 531,
      "!!!!": 532,
      "▁shoes": 533,
      "▁structure": 534,
      "▁europe": 535,
      "▁absorb": 536,
      "quis": 537,
      "▁reservation": 538,
      "▁king": 539,
      "cut": 540,
      "▁allowing": 541,
      "▁branch": 542,
      "▁arab": 543,
      "▁nothing": 544,
      "▁dese": 545,
      "wood": 546,
      "lo": 547,
      "▁contrast": 548,
      "▁instruc": 549,
      "▁statute": 550,
      "▁airport": 551,
      "▁browser": 552,
      "▁health": 553,
      "▁gd": 554,
      "▁notebook": 555,
      "eria": 556,
      "▁emphas": 557,
      "amus": 558,
      "ority": 559,
      "body": 560,
      "umbled": 561,
      "worms": 562,
      "▁university": 563,
      "▁mass": 564,
      "▁land": 565,
      "▁diego": 566,
      "▁forms": 567,
      "uss": 568,
      "▁crawl": 569,
      "▁mine": 570,
      "▁fol": 571,
      "▁homes": 572,
      "lication": 573,
      "▁festival": 574,
      "cri": 575,
      "▁share": 576,
      "▁representation": 577,
      "▁autumn": 578,
      "option": 579,
      "p": 580,
      "ortion": 581,
      "icular": 582,
      "▁assets": 583,
      "ro": 584,
      "pri": 585,
      "ator": 586,
      "▁addition": 587,
      "ocado": 588,
      "▁arr": 589,
      "▁here": 590,
      "ocks": 591,
      "ids": 592,
      "ing": 593,
      "-m": 594,
      "▁children": 595,
      "iliation": 596,
      "▁studying": 597,
      "β": 598,
      "▁towns": 599,
      "▁soy": 600,
      "▁desire": 601,
      "▁clean": 602,
      "jwww": 603,
      "▁ow": 604,
      "▁flir": 605,
      "▁port": 606,
      "▁literature": 607,
      "▁+": 608,
      "▁gardens": 609,
      "ety": 610,
      "▁batteries": 611,
      "▁rising": 612,
      "-p": 613,
      "▁values": 614,
      "▁cave": 615,
      "▁subscrib": 616,
      "³": 617,
      "------------": 618,
      "▁datab": 619,
      "om": 620,
      "▁!!!!!!!!!!!!!!!": 621,
      "▁dragged": 622,
      "▁writer": 623,
      "▁husband": 624,
      "▁vlog": 625,
      "▁pean": 626,
      "▁reference": 627,
      "sm": 628,
      "ibility": 629,
      "uding": 630,
      "▁sin": 631,
      "▁troops": 632,
      "▁monitor": 633,
      "ative": 634,
      "▁advise": 635,
      "men": 636,
      "▁bronze": 637,
      "▁contain": 638,
      "▁proper": 639,
      "▁inspired": 640,
      "▁motorc": 641,
      "plan": 642,
      "▁article": 643,
      "▁noted": 644,
      "unte": 645,
      "▁tastes": 646,
      "afts": 647,
      "▁construc": 648,
      "▁wonder": 649,
      "tail": 650,
      "▁corn": 651,
      "▁shirt": 652,
      "▁included": 653,
      "isl": 654,
      "ully": 655,
      "▁turns": 656,
      "“": 657,
      "▁mean": 658,
      "--------+----------------": 659,
      "ssi": 660,
      "▁stops": 661,
      "lin": 662,
      "▁responsibilities": 663,
      "▁progress": 664,
      "irt": 665,
      "▁title": 666,
      "den": 667,
      "▁business": 668,
      "▁valley": 669,
      "▁parts": 670,
      "▁represent": 671,
      "▁core": 672,
      "ians": 673,
      "▁noise": 674,
      "us": 675,
      "▁filters": 676,
      "wa": 677,
      "▁guess": 678,
      "▁connecting": 679,
      "ingly": 680,
      "▁cred": 681,
      "▁replication": 682,
      "ticip": 683,
      "▁analys": 684,
      "▁purple": 685,
      "lando": 686,
      "▁expert": 687,
      "▁sect": 688,
      "ome": 689,
      "▁a": 690,
      "▁legacy": 691,
      "ose": 692,
      "▁organize": 693,
      "▁who": 694,
      "▁obt": 695,
      "▁courses": 696,
      "cause": 697,
      "▁politicians": 698,
      "▁root": 699,
      "ticks": 700,
      "▁complex": 701,
      "ained": 702,
      "▁administration": 703,
      "▁..........": 704,
      "ocracy": 705,
      "▁scheduled": 706,
      "▁aff": 707,
      "▁pri": 708,
      "▁between": 709,
      "▁aug": 710,
      "▁comed": 711,
      "y": 712,
      "orn": 713,
      "▁dinosaur": 714,
      "▁exception": 715,
      "ech": 716,
      "▁nasa": 717,
      "ww": 718,
      "▁tickets": 719,
      "iety": 720,
      "riage": 721,
      "▁alter": 722,
      "▁sk": 723,
      "▁ang": 724,
      "▁daughter": 725,
      "▁wednesdays": 726,
      "▁visited": 727,
      "▁duties": 728,
      "▁sp": 729,
      "▁dipl": 730,
      "▁roman": 731,
      "▁competition": 732,
      "▁distance": 733,
      "▁cabinet": 734,
      "tai": 735,
      "anges": 736,
      "▁factor": 737,
      "▁hon": 738,
      "▁y": 739,
      "▁ki": 740,
      "▁partnership": 741,
      "▁components": 742,
      "ped": 743,
      "▁sad": 744,
      "▁coo": 745,
      "▁receip": 746,
      "....": 747,
      "▁pat": 748,
      "▁kit": 749,
      "mped": 750,
      "5": 751,
      "bout": 752,
      "▁hum": 753,
      "▁lettuce": 754,
      "▁yoga": 755,
      "▁in": 756,
      "▁concerns": 757,
      "▁nice": 758,
      "▁traffic": 759,
      "orld": 760,
      "ident": 761,
      "ast": 762,
      "▁joh": 763,
      "▁guerr": 764,
      "▁answer": 765,
      "▁wash": 766,
      "ulations": 767,
      "-d": 768,
      "▁escaped": 769,
      "▁reduces": 770,
      "asy": 771,
      "▁exists": 772,
      "▁pink": 773,
      "er": 774,
      "eness": 775,
      "▁myce": 776,
      "▁term": 777,
      "▁conviction": 778,
      "▁balloon": 779,
      "eric": 780,
      "▁led": 781,
      "istan": 782,
      "▁insur": 783,
      "▁profess": 784,
      "▁****": 785,
      "▁ide": 786,
      "rou": 787,
      "▁ess": 788,
      "▁cheese": 789,
      "▁arm": 790,
      "▁farmers": 791,
      "▁backed": 792,
      "▁fa": 793,
      "▁regime": 794,
      "▁fin": 795,
      "▁auth": 796,
      "▁o'clock": 797,
      "▁gl": 798,
      "cally": 799,
      "▁russ": 800,
      "▁dy": 801,
      "▁sch": 802,
      "▁activities": 803,
      "▁neuro": 804,
      "tern": 805,
      "▁cla": 806,
      "▁ozone": 807,
      "artment": 808,
      "▁stopping": 809,
      "▁issues": 810,
      "▁spring": 811,
      "ases": 812,
      "▁ship": 813,
      "▁interpret": 814,
      "▁pops": 815,
      "aign": 816,
      "og": 817,
      "▁feet": 818,
      "gin": 819,
      "ancing": 820,
      "0s": 821,
      "pond": 822,
      "▁involving": 823,
      "▁dun": 824,
      "▁manufacturers": 825,
      "▁skill": 826,
      "▁room": 827,
      "▁believe": 828,
      "▁horror": 829,
      "▁place": 830,
      "▁yourselves": 831,
      "▁ann": 832,
      "elly": 833,
      "b": 834,
      "▁fan": 835,
      "▁car": 836,
      "▁showing": 837,
      "▁okay": 838,
      "▁alright": 839,
      "ant": 840,
      "▁substances": 841,
      "ont": 842,
      "▁spread": 843,
      "▁pretty": 844,
      "▁light": 845,
      "mer": 846,
      "orter": 847,
      "▁journal": 848,
      "▁subject": 849,
      "like": 850,
      "▁approached": 851,
      "▁soap": 852,
      "▁eigh": 853,
      "▁dis": 854,
      "▁holds": 855,
      "▁skin": 856,
      "▁enjambment": 857,
      "▁seconds": 858,
      "ighter": 859,
      "▁por": 860,
      "▁papers": 861,
      "▁missing": 862,
      "▁insights": 863,
      "▁might": 864,
      "▁agre": 865,
      "▁scale": 866,
      "▁punch": 867,
      "▁cro": 868,
      "▁roared": 869,
      "▁such": 870,
      "▁description": 871,
      "▁ships": 872,
      "▁scholars": 873,
      "▁lamb": 874,
      "▁amend": 875,
      "▁world": 876,
      "+----------------": 877,
      "▁artists": 878,
      "▁venture": 879,
      "af": 880,
      "▁eng": 881,
      "▁guy": 882,
      "▁training": 883,
      "▁warning": 884,
      "▁proce": 885,
      "formation": 886,
      "▁junk": 887,
      "erv": 888,
      "otes": 889,
      "ules": 890,
      "▁pictures": 891,
      "stop": 892,
      "▁china": 893,
      "jects": 894,
      "ants": 895,
      "▁finish": 896,
      "▁welcomed": 897,
      "▁regard": 898,
      "eted": 899,
      "▁options": 900,
      "▁mystery": 901,
      "▁----==": 902,
      "riend": 903,
      "▁announced": 904,
      "▁structures": 905,
      "▁airline": 906,
      "▁client": 907,
      "reat": 908,
      "▁relief": 909,
      "▁evening": 910,
      "▁registered": 911,
      "▁doctor": 912,
      "ably": 913,
      "rote": 914,
      "▁time": 915,
      "▁contains": 916,
      "ag": 917,
      "▁knocked": 918,
      "iation": 919,
      "▁occupation": 920,
      "ointment": 921,
      "▁rene": 922,
      "▁bew": 923,
      "▁guerrillas": 924,
      "▁foods": 925,
      "www": 926,
      "▁particip": 927,
      "ade": 928,
      "▁vis": 929,
      "ater": 930,
      "istence": 931,
      "▁initiatives": 932,
      "▁generated": 933,
      "▁extre": 934,
      "▁exposure": 935,
      "▁commitment": 936,
      "▁wheel": 937,
      "c": 938,
      "raph": 939,
      "ra": 940,
      "band": 941,
      "▁expense": 942,
      "▁choices": 943,
      "▁dentist": 944,
      "duction": 945,
      "▁start": 946,
      "▁seem": 947,
      "tering": 948,
      "▁limited": 949,
      "▁knew": 950,
      "head": 951,
      "▁ours": 952,
      "ell": 953,
      "▁princip": 954,
      "ster": 955,
      "▁menu": 956,
      "anding": 957,
      "▁hear": 958,
      "ering": 959,
      "▁fore": 960,
      "▁grad": 961,
      "▁fun": 962,
      "▁fulf": 963,
      "▁aboard": 964,
      "▁focusing": 965,
      "ark": 966,
      "ension": 967,
      "▁bell": 968,
      "▁reminder": 969,
      "enty": 970,
      "able": 971,
      "▁pursu": 972,
      "▁surround": 973,
      "▁discussion": 974,
      "▁tas": 975,
      "iate": 976,
      "isms": 977,
      "▁sight": 978,
      "enom": 979,
      "lie": 980,
      "ideration": 981,
      "▁201": 982,
      "▁avocado": 983,
      "▁shipped": 984,
      "▁paid": 985,
      "▁dream": 986,
      "▁van": 987,
      "▁cartoon": 988,
      "▁uhh": 989,
      "▁''": 990,
      "▁opening": 991,
      "~": 992,
      "▁build": 993,
      "▁even": 994,
      "▁table": 995,
      "▁refuse": 996,
      "▁grid": 997,
      "▁cincinn": 998,
      "▁creates": 999,
      "uscri": 1000,
      "▁pittsburgh": 1001,
      "▁licensed": 1002,
      "▁losing": 1003,
      "▁dallas": 1004,
      "▁everyone": 1005,
      "inds": 1006,
      "oney": 1007,
      "▁release": 1008,
      "▁mushroom": 1009,
      "▁trade": 1010,
      "▁par": 1011,
      "▁meals": 1012,
      "▁phone": 1013,
      "▁cond": 1014,
      "▁fence": 1015,
      "▁analyses": 1016,
      "▁education": 1017,
      "▁fam": 1018,
      "▁dim": 1019,
      "aw": 1020,
      "▁nonstop": 1021,
      "▁female": 1022,
      "▁five": 1023,
      "▁shows": 1024,
      "▁quan": 1025,
      "▁contrib": 1026,
      "ime": 1027,
      "▁reflects": 1028,
      "▁poverty": 1029,
      "▁facts": 1030,
      "enda": 1031,
      "▁race": 1032,
      "▁thousands": 1033,
      "▁instructor": 1034,
      "▁states": 1035,
      "▁thanks": 1036,
      "▁mar": 1037,
      "▁m": 1038,
      "▁char": 1039,
      "▁treatment": 1040,
      "bby": 1041,
      "rate": 1042,
      "▁snow": 1043,
      "▁folio": 1044,
      "▁without": 1045,
      "▁sticker": 1046,
      "▁border": 1047,
      "▁involved": 1048,
      "▁poem": 1049,
      "▁cash": 1050,
      "▁seed": 1051,
      "▁won": 1052,
      "▁trail": 1053,
      "▁coincidence": 1054,
      "▁unemployment": 1055,
      "onally": 1056,
      "▁with": 1057,
      "▁d'": 1058,
      "▁stores": 1059,
      "lit": 1060,
      "▁row": 1061,
      "own": 1062,
      "½": 1063,
      "▁bur": 1064,
      "▁eyes": 1065,
      "gel": 1066,
      "uty": 1067,
      "ged": 1068,
      "▁tested": 1069,
      "▁adding": 1070,
      "irus": 1071,
      "▁resc": 1072,
      "tered": 1073,
      "▁mouth": 1074,
      "ird": 1075,
      "▁administr": 1076,
      "day": 1077,
      "ains": 1078,
      "out": 1079,
      "▁discussed": 1080,
      "▁records": 1081,
      "spec": 1082,
      "▁giraffe": 1083,
      "▁container": 1084,
      "ives": 1085,
      "▁trips": 1086,
      "▁acknowledge": 1087,
      "▁uk": 1088,
      "ration": 1089,
      "▁–": 1090,
      "▁depth": 1091,
      "▁milk": 1092,
      "▁appro": 1093,
      "▁territ": 1094,
      "▁enter": 1095,
      "▁gathered": 1096,
      "ously": 1097,
      "aging": 1098,
      "▁princ": 1099,
      "▁activity": 1100,
      "▁fe": 1101,
      "=": 1102,
      "ber": 1103,
      "erry": 1104,
      "▁objec": 1105,
      "▁clou": 1106,
      "sters": 1107,
      "oned": 1108,
      "son": 1109,
      "▁insp": 1110,
      "force": 1111,
      "app": 1112,
      "▁ques": 1113,
      "▁copied": 1114,
      "▁background": 1115,
      "▁perhaps": 1116,
      "▁sweater": 1117,
      "▁pu": 1118,
      "▁england": 1119,
      "▁supporting": 1120,
      "▁4": 1121,
      "▁q": 1122,
      "▁pret": 1123,
      "▁.........": 1124,
      "▁fant": 1125,
      "▁strong": 1126,
      "▁jumping": 1127,
      "▁mind": 1128,
      "▁sor": 1129,
      "▁tro": 1130,
      "▁ir": 1131,
      "▁&amp;": 1132,
      "▁seeds": 1133,
      "ool": 1134,
      "▁palm": 1135,
      "oking": 1136,
      "▁customers": 1137,
      "▁regarded": 1138,
      "!": 1139,
      "---": 1140,
      "our": 1141,
      "▁heel": 1142,
      "▁began": 1143,
      "ouch": 1144,
      "▁bottles": 1145,
      "▁showed": 1146,
      "/200": 1147,
      "▁rays": 1148,
      "rows": 1149,
      "▁louis": 1150,
      "ula": 1151,
      "▁sum": 1152,
      "▁conde": 1153,
      "▁kinds": 1154,
      "▁army": 1155,
      "▁responded": 1156,
      "▁'ve": 1157,
      "▁webs": 1158,
      "ings": 1159,
      "▁starts": 1160,
      "▁acc": 1161,
      "▁governments": 1162,
      "▁enjoyed": 1163,
      "▁supermar": 1164,
      "▁difficulty": 1165,
      "▁experien": 1166,
      "eel": 1167,
      "▁fashion": 1168,
      "▁principles": 1169,
      "▁use": 1170,
      "ation": 1171,
      "▁depart": 1172,
      "▁purse": 1173,
      "▁remove": 1174,
      "▁products": 1175,
      "enti": 1176,
      "ati": 1177,
      "▁prop": 1178,
      "ablish": 1179,
      "ry": 1180,
      "ought": 1181,
      "umn": 1182,
      "▁emer": 1183,
      "ologists": 1184,
      "▁shar": 1185,
      "re": 1186,
      "ioned": 1187,
      "▁denied": 1188,
      "▁be": 1189,
      "▁themselves": 1190,
      "▁loo": 1191,
      "▁truth": 1192,
      "▁sex": 1193,
      "▁trust": 1194,
      "▁reconc": 1195,
      "▁sounds": 1196,
      "inn": 1197,
      "▁customer": 1198,
      "▁authors": 1199,
      "▁levels": 1200,
      "▁sc": 1201,
      "actor": 1202,
      "▁society": 1203,
      "▁airlines": 1204,
      "▁cin": 1205,
      "▁tele": 1206,
      "----------------": 1207,
      "▁america": 1208,
      "ael": 1209,
      "▁containing": 1210,
      "rier": 1211,
      "▁shed": 1212,
      "zing": 1213,
      "▁oneself": 1214,
      "ish": 1215,
      "▁ton": 1216,
      "▁tv": 1217,
      "▁weight": 1218,
      "itation": 1219,
      "▁bo": 1220,
      "▁tooth": 1221,
      "▁chang": 1222,
      "▁*": 1223,
      "igr": 1224,
      "err": 1225,
      "▁looks": 1226,
      "▁wildlife": 1227,
      "istic": 1228,
      "onal": 1229,
      "▁clock": 1230,
      "▁aimed": 1231,
      "▁cuck": 1232,
      "omer": 1233,
      "▁according": 1234,
      "]": 1235,
      "▁island": 1236,
      "▁prepare": 1237,
      "▁bank": 1238,
      "▁success": 1239,
      "▁voices": 1240,
      "▁freedoms": 1241,
      "▁jihad": 1242,
      "▁exist": 1243,
      "▁mist": 1244,
      "▁div": 1245,
      "atis": 1246,
      "▁detail": 1247,
      "▁anth": 1248,
      "▁intercon": 1249,
      "▁occas": 1250,
      "▁dish": 1251,
      "▁destiny": 1252,
      "▁unit": 1253,
      "osite": 1254,
      "ada": 1255,
      "▁comedy": 1256,
      "▁feelings": 1257,
      "▁coming": 1258,
      "▁therap": 1259,
      "inated": 1260,
      "▁mm": 1261,
      "▁resist": 1262,
      "▁clin": 1263,
      "▁guards": 1264,
      "▁winter": 1265,
      "▁travel": 1266,
      "▁thank": 1267,
      "▁menti": 1268,
      "▁arrange": 1269,
      "either": 1270,
      "▁producers": 1271,
      "▁crime": 1272,
      "oices": 1273,
      "▁mold": 1274,
      "gation": 1275,
      "▁court": 1276,
      "▁ar": 1277,
      "v": 1278,
      "warded": 1279,
      "▁barn": 1280,
      "ester": 1281,
      "▁spre": 1282,
      "▁dropped": 1283,
      "▁discus": 1284,
      "▁away": 1285,
      "▁hippop": 1286,
      "▁spacetime": 1287,
      "ror": 1288,
      "▁missile": 1289,
      "▁reception": 1290,
      "▁opposed": 1291,
      "▁adam": 1292,
      "▁observation": 1293,
      "ely": 1294,
      "▁motiv": 1295,
      "fting": 1296,
      "res": 1297,
      "▁restri": 1298,
      "▁west": 1299,
      "elling": 1300,
      "▁’ll": 1301,
      "▁descriptions": 1302,
      "▁waves": 1303,
      "yp": 1304,
      "▁permitted": 1305,
      "▁deliver": 1306,
      "ix": 1307,
      "▁spe": 1308,
      "ited": 1309,
      "▁ear": 1310,
      "▁cos": 1311,
      "▁invented": 1312,
      "ean": 1313,
      "▁assist": 1314,
      "lection": 1315,
      "▁motion": 1316,
      "▁consc": 1317,
      "▁shade": 1318,
      "▁rais": 1319,
      "▁reviews": 1320,
      "▁ackn": 1321,
      "acket": 1322,
      "▁attach": 1323,
      "oured": 1324,
      "▁sources": 1325,
      "▁remain": 1326,
      "▁wish": 1327,
      "▁nail": 1328,
      "0's": 1329,
      "▁each": 1330,
      "▁cognition": 1331,
      "▁...............": 1332,
      "▁drive": 1333,
      "▁revision": 1334,
      "▁’’": 1335,
      "▁poin": 1336,
      "▁20": 1337,
      "▁fung": 1338,
      "tives": 1339,
      "▁spend": 1340,
      "▁applies": 1341,
      "quarters": 1342,
      "pan": 1343,
      "eds": 1344,
      "▁butt": 1345,
      "cp": 1346,
      "▁stre": 1347,
      "▁ml": 1348,
      "ler": 1349,
      "▁thinking": 1350,
      "▁compli": 1351,
      "utions": 1352,
      "▁video": 1353,
      "▁htt": 1354,
      "nt": 1355,
      "lly": 1356,
      "▁hoo": 1357,
      "▁curves": 1358,
      "▁stars": 1359,
      "mal": 1360,
      "▁compl": 1361,
      "azed": 1362,
      "▁behin": 1363,
      "gency": 1364,
      "▁hours": 1365,
      "use": 1366,
      "▁opinions": 1367,
      "▁librarians": 1368,
      "▁factors": 1369,
      "▁jo": 1370,
      "aming": 1371,
      "essions": 1372,
      "▁circles": 1373,
      "▁admit": 1374,
      "▁selling": 1375,
      "▁----": 1376,
      "▁current": 1377,
      "▁specify": 1378,
      "▁s’": 1379,
      "▁shakespeare": 1380,
      "▁seems": 1381,
      "▁bowl": 1382,
      "▁flying": 1383,
      "ɛ": 1384,
      "▁helping": 1385,
      "▁ro": 1386,
      "▁cincinnati": 1387,
      "▁civ": 1388,
      "▁laughed": 1389,
      "▁burn": 1390,
      "eda": 1391,
      "▁decide": 1392,
      "ship": 1393,
      "▁modified": 1394,
      "▁draw": 1395,
      "://": 1396,
      "▁explore": 1397,
      "▁shore": 1398,
      "▁mut": 1399,
      "[": 1400,
      "ributing": 1401,
      "▁ground": 1402,
      "liday": 1403,
      "▁anti": 1404,
      "▁received": 1405,
      "lines": 1406,
      "cr": 1407,
      "▁poll": 1408,
      "▁lifetime": 1409,
      "▁excel": 1410,
      "▁since": 1411,
      "▁washing": 1412,
      "▁moth": 1413,
      "▁nt": 1414,
      "uc": 1415,
      "▁mag": 1416,
      "▁september": 1417,
      "operation": 1418,
      "asts": 1419,
      "▁phenomen": 1420,
      "lik": 1421,
      "▁worksh": 1422,
      "▁constitu": 1423,
      "▁inc": 1424,
      "▁stick": 1425,
      "▁********": 1426,
      "▁prem": 1427,
      "▁enough": 1428,
      "▁nav": 1429,
      "▁kidding": 1430,
      "view": 1431,
      "orated": 1432,
      "▁beard": 1433,
      "▁area": 1434,
      "▁`s": 1435,
      "▁mil": 1436,
      "▁rescue": 1437,
      "▁gives": 1438,
      "▁abbre": 1439,
      "▁alt.animals.": 1440,
      "▁shown": 1441,
      "ter": 1442,
      "gr": 1443,
      "▁settled": 1444,
      "▁productivity": 1445,
      "alities": 1446,
      "▁banana": 1447,
      "▁poss": 1448,
      "▁opinion": 1449,
      "house": 1450,
      "▁cited": 1451,
      "ower": 1452,
      "▁shorts": 1453,
      "▁falling": 1454,
      "ves": 1455,
      "▁networks": 1456,
      "▁wig": 1457,
      "▁ter": 1458,
      "▁provision": 1459,
      "▁express": 1460,
      "▁plat": 1461,
      "▁assigned": 1462,
      "iew": 1463,
      "▁stuck": 1464,
      "▁technology": 1465,
      "ital": 1466,
      "▁kind": 1467,
      "▁clar": 1468,
      "agon": 1469,
      "▁hey": 1470,
      "lished": 1471,
      "▁sheep": 1472,
      "▁democracy": 1473,
      "▁secret": 1474,
      "▁covering": 1475,
      "▁called": 1476,
      "▁learned": 1477,
      "▁nume": 1478,
      "▁satisf": 1479,
      "▁liquid": 1480,
      "ceed": 1481,
      "▁ceremony": 1482,
      "ecks": 1483,
      "pensive": 1484,
      "▁purposes": 1485,
      "avery": 1486,
      "▁part": 1487,
      "▁important": 1488,
      "▁weeks": 1489,
      "ine": 1490,
      "▁ducks": 1491,
      "▁alligator": 1492,
      "▁profit": 1493,
      "▁experim": 1494,
      "▁charlotte": 1495,
      "▁requi": 1496,
      "▁employment": 1497,
      "▁arriving": 1498,
      "▁destination": 1499,
      "▁hoped": 1500,
      "▁mou": 1501,
      "▁special": 1502,
      "▁soci": 1503,
      "[CLS]": 1504,
      "ious": 1505,
      "thers": 1506,
      "▁campaign": 1507,
      "▁macaroni": 1508,
      "++": 1509,
      "thing": 1510,
      "▁transf": 1511,
      "▁boat": 1512,
      "▁treated": 1513,
      "▁updates": 1514,
      "▁glow": 1515,
      "▁applied": 1516,
      "▁strateg": 1517,
      "op": 1518,
      "mos": 1519,
      "▁inves": 1520,
      "▁aft": 1521,
      "▁dies": 1522,
      "▁reads": 1523,
      "▁during": 1524,
      "▁stories": 1525,
      "▁pricing": 1526,
      "▁method": 1527,
      "▁lesson": 1528,
      "▁mic": 1529,
      "▁sail": 1530,
      "bur": 1531,
      "▁tou": 1532,
      "arity": 1533,
      "▁fighting": 1534,
      "▁roles": 1535,
      "▁line": 1536,
      "▁?!?": 1537,
      "▁p.m.": 1538,
      "te": 1539,
      "▁dilem": 1540,
      "▁past": 1541,
      "▁seventh": 1542,
      "▁relations": 1543,
      "▁arguments": 1544,
      "est": 1545,
      "orti": 1546,
      "▁chalk": 1547,
      "▁meant": 1548,
      "fir": 1549,
      "▁stay": 1550,
      "▁sounded": 1551,
      "illas": 1552,
      "ogn": 1553,
      "▁volunte": 1554,
      "j": 1555,
      "irts": 1556,
      "hes": 1557,
      "▁microphone": 1558,
      "acking": 1559,
      ".pdf": 1560,
      "▁power": 1561,
      "▁************************************************": 1562,
      "▁messages": 1563,
      "▁incident": 1564,
      "▁flav": 1565,
      "itting": 1566,
      "▁threat": 1567,
      "peare": 1568,
      "▁submit": 1569,
      "▁congratulate": 1570,
      "▁pot": 1571,
      "±": 1572,
      "ky": 1573,
      "▁occurred": 1574,
      "▁overcome": 1575,
      "oder": 1576,
      "ma": 1577,
      "ices": 1578,
      "elines": 1579,
      "▁dav": 1580,
      "▁estimated": 1581,
      "▁dwww": 1582,
      "▁youth": 1583,
      "▁coordin": 1584,
      "▁canc": 1585,
      "▁saturday": 1586,
      "▁coupons": 1587,
      "▁generation": 1588,
      "ress": 1589,
      "▁decre": 1590,
      "▁football": 1591,
      "igning": 1592,
      "▁fed": 1593,
      "▁wou": 1594,
      "▁kar": 1595,
      "▁swit": 1596,
      "▁harry": 1597,
      "▁weap": 1598,
      "owed": 1599,
      "ole": 1600,
      "ip": 1601,
      "▁sat": 1602,
      "▁200": 1603,
      "▁pyr": 1604,
      "▁blood": 1605,
      "▁defend": 1606,
      "▁les": 1607,
      "▁celebr": 1608,
      "▁hr": 1609,
      "▁universe": 1610,
      "br": 1611,
      "ground": 1612,
      "iciency": 1613,
      "▁net": 1614,
      "▁domain": 1615,
      "ulated": 1616,
      "▁grandm": 1617,
      "▁tomato": 1618,
      "▁horn": 1619,
      "▁gamb": 1620,
      "▁beg": 1621,
      "▁strength": 1622,
      "&": 1623,
      "▁somewhere": 1624,
      "▁ye": 1625,
      "▁cerem": 1626,
      "inks": 1627,
      "▁flat": 1628,
      "▁nap": 1629,
      "▁bedroom": 1630,
      "▁stat": 1631,
      "▁thinks": 1632,
      "▁cont": 1633,
      "▁experts": 1634,
      "▁newspapers": 1635,
      "▁death": 1636,
      "enting": 1637,
      "▁reduc": 1638,
      ".xls": 1639,
      "hibited": 1640,
      "▁diff": 1641,
      "ym": 1642,
      "mp": 1643,
      "ports": 1644,
      "▁cohes": 1645,
      "ull": 1646,
      "▁presence": 1647,
      "▁fles": 1648,
      "▁infl": 1649,
      "ore": 1650,
      "▁claim": 1651,
      "▁syrup": 1652,
      "▁ign": 1653,
      "▁initial": 1654,
      "▁convention": 1655,
      "▁urs": 1656,
      "▁duck": 1657,
      "▁regards": 1658,
      "▁stock": 1659,
      "olding": 1660,
      "▁memphis": 1661,
      "▁difference": 1662,
      "▁flash": 1663,
      "▁congratulations": 1664,
      "tic": 1665,
      "▁bomb": 1666,
      "▁inquiry": 1667,
      "▁negotiated": 1668,
      "▁trans": 1669,
      "ff": 1670,
      "▁faculty": 1671,
      "▁liber": 1672,
      "▁depends": 1673,
      "▁inclu": 1674,
      "▁economy": 1675,
      "ball": 1676,
      "otte": 1677,
      "▁documented": 1678,
      "▁peanuts": 1679,
      "▁breast": 1680,
      "▁cru": 1681,
      "▁awareness": 1682,
      "▁°": 1683,
      "▁oper": 1684,
      "sed": 1685,
      "▁accomp": 1686,
      "▁terr": 1687,
      "▁soup": 1688,
      "▁snitch": 1689,
      "▁demonstr": 1690,
      "ture": 1691,
      "▁error": 1692,
      "▁slee": 1693,
      "unch": 1694,
      "▁d": 1695,
      "cl": 1696,
      "mm": 1697,
      "▁exc": 1698,
      "rong": 1699,
      "▁laugh": 1700,
      "▁game": 1701,
      "▁!!!!!!!": 1702,
      "▁installed": 1703,
      "▁vic": 1704,
      "ana": 1705,
      "▁....": 1706,
      "▁thri": 1707,
      "▁dall": 1708,
      "▁for": 1709,
      "asi": 1710,
      "▁than": 1711,
      "ider": 1712,
      "irc": 1713,
      "▁adopt": 1714,
      "▁schools": 1715,
      "▁gentle": 1716,
      "▁houston": 1717,
      "▁diseas": 1718,
      "ib": 1719,
      "▁eating": 1720,
      "▁whoever": 1721,
      "▁surgery": 1722,
      "ert": 1723,
      "heet": 1724,
      "▁result": 1725,
      "▁four": 1726,
      "▁package": 1727,
      "▁medic": 1728,
      "ector": 1729,
      "▁fold": 1730,
      "ourse": 1731,
      "▁lunch": 1732,
      "▁occur": 1733,
      "▁escape": 1734,
      "▁permission": 1735,
      "▁whole": 1736,
      "▁furniture": 1737,
      "▁br": 1738,
      "▁stand": 1739,
      ".d": 1740,
      "▁forwarded": 1741,
      "▁anticip": 1742,
      "▁cargo": 1743,
      "▁ma": 1744,
      "▁?????": 1745,
      "▁goose": 1746,
      "nesday": 1747,
      "ern": 1748,
      "▁income": 1749,
      "▁tiger": 1750,
      "▁percentiles": 1751,
      "uate": 1752,
      "▁bubbles": 1753,
      "▁whom": 1754,
      "▁?": 1755,
      "▁compens": 1756,
      "▁18": 1757,
      "▁priorities": 1758,
      "▁analysis": 1759,
      "▁l2": 1760,
      "▁moved": 1761,
      "▁matters": 1762,
      "▁slipped": 1763,
      "▁do": 1764,
      "▁tape": 1765,
      "▁year": 1766,
      "ics": 1767,
      "▁antiqu": 1768,
      "ds": 1769,
      "aries": 1770,
      "▁electric": 1771,
      "▁one": 1772,
      "s": 1773,
      "▁plant": 1774,
      "▁unto": 1775,
      "inning": 1776,
      "▁heading": 1777,
      "▁pled": 1778,
      "ny": 1779,
      "▁luck": 1780,
      "▁seam": 1781,
      "▁beat": 1782,
      "▁momma": 1783,
      "▁phoenix": 1784,
      "▁transactions": 1785,
      "ette": 1786,
      "▁win": 1787,
      "▁jokes": 1788,
      "▁until": 1789,
      "rim": 1790,
      "▁effect": 1791,
      "▁oz": 1792,
      "igned": 1793,
      "▁dna": 1794,
      "▁o": 1795,
      "▁pushing": 1796,
      "vailable": 1797,
      "lities": 1798,
      "mon": 1799,
      "ne": 1800,
      "ores": 1801,
      "town": 1802,
      "▁!?": 1803,
      "acters": 1804,
      "ackers": 1805,
      "isters": 1806,
      "▁entered": 1807,
      "▁food": 1808,
      "eet": 1809,
      "▁airplane": 1810,
      "▁its": 1811,
      "▁house": 1812,
      "▁http://www": 1813,
      "▁weapons": 1814,
      "ares": 1815,
      "lic": 1816,
      "▁employ": 1817,
      "▁ta": 1818,
      "▁absence": 1819,
      "7": 1820,
      "ologies": 1821,
      "▁job": 1822,
      "ove": 1823,
      "▁guit": 1824,
      "▁houses": 1825,
      "▁committee": 1826,
      "▁furn": 1827,
      "room": 1828,
      "▁ec": 1829,
      "▁files": 1830,
      "▁book": 1831,
      "oring": 1832,
      "▁how": 1833,
      "enced": 1834,
      "▁asking": 1835,
      "ithst": 1836,
      "▁te": 1837,
      "▁ap": 1838,
      "▁enemy": 1839,
      "▁smell": 1840,
      "▁requests": 1841,
      "▁walls": 1842,
      "▁rode": 1843,
      "▁attachment": 1844,
      "▁meth": 1845,
      "▁generate": 1846,
      "▁bom": 1847,
      "▁spea": 1848,
      "▁investigation": 1849,
      "ipl": 1850,
      "ocr": 1851,
      "engers": 1852,
      "▁swee": 1853,
      "▁sem": 1854,
      "▁toy": 1855,
      "▁foll": 1856,
      "tures": 1857,
      "▁able": 1858,
      "▁worked": 1859,
      "▁knock": 1860,
      "▁touch": 1861,
      "▁discussing": 1862,
      "▁happ": 1863,
      "▁secure": 1864,
      "▁capacity": 1865,
      "▁majority": 1866,
      "respond": 1867,
      "▁possibilities": 1868,
      "▁planet": 1869,
      "omic": 1870,
      "▁significance": 1871,
      "▁ther": 1872,
      "▁tells": 1873,
      "▁adapted": 1874,
      "▁licens": 1875,
      "▁attended": 1876,
      "▁milwaukee": 1877,
      "umble": 1878,
      "▁combined": 1879,
      "ointed": 1880,
      "▁suite": 1881,
      "▁town": 1882,
      "▁consideration": 1883,
      "▁suggesting": 1884,
      "▁policy": 1885,
      "▁disappeared": 1886,
      "▁after": 1887,
      "▁temp": 1888,
      "tiveness": 1889,
      "▁wednesday": 1890,
      "▁recommended": 1891,
      "▁assemb": 1892,
      "▁vict": 1893,
      "▁cre": 1894,
      "▁entities": 1895,
      "iency": 1896,
      "▁throu": 1897,
      "tle": 1898,
      "isco": 1899,
      "▁belon": 1900,
      "********************************": 1901,
      "neath": 1902,
      "▁checked": 1903,
      "▁stranger": 1904,
      "ins": 1905,
      "▁farmer": 1906,
      "▁@": 1907,
      "bir": 1908,
      "▁inter": 1909,
      "▁constit": 1910,
      "hen": 1911,
      "▁march": 1912,
      "▁keeps": 1913,
      "tie": 1914,
      "ticians": 1915,
      "▁breaking": 1916,
      "▁erase": 1917,
      "cape": 1918,
      "ictions": 1919,
      "▁presentation": 1920,
      "▁manuf": 1921,
      "▁pieces": 1922,
      "▁please": 1923,
      "▁beetle": 1924,
      "▁design": 1925,
      "▁posed": 1926,
      "▁placed": 1927,
      "▁conf": 1928,
      "owl": 1929,
      "▁fabric": 1930,
      "▁concer": 1931,
      "▁situations": 1932,
      "▁sust": 1933,
      "▁publish": 1934,
      "▁protect": 1935,
      "oard": 1936,
      "▁any": 1937,
      "titudes": 1938,
      "▁finding": 1939,
      "▁desert": 1940,
      "▁tug": 1941,
      "ath": 1942,
      "oor": 1943,
      "▁moment": 1944,
      "night": 1945,
      "▁old": 1946,
      "ties": 1947,
      "▁swallow": 1948,
      "▁minus": 1949,
      "▁them": 1950,
      "▁prov": 1951,
      "▁machines": 1952,
      "▁expl": 1953,
      "▁gol": 1954,
      "▁......": 1955,
      "list": 1956,
      "▁tray": 1957,
      "▁total": 1958,
      "▁miss": 1959,
      "imore": 1960,
      "▁all": 1961,
      "▁chem": 1962,
      "▁website": 1963,
      "ame": 1964,
      "tt": 1965,
      "▁n’t": 1966,
      "▁leader": 1967,
      "▁sar": 1968,
      "▁bars": 1969,
      "▁maintenance": 1970,
      "▁bicycle": 1971,
      "ocated": 1972,
      "▁-----": 1973,
      "▁join": 1974,
      "▁integr": 1975,
      "▁jose": 1976,
      "▁know": 1977,
      "nets": 1978,
      "▁poles": 1979,
      "▁theirs": 1980,
      "▁da": 1981,
      "▁comp": 1982,
      "▁receive": 1983,
      "ored": 1984,
      "▁trying": 1985,
      "▁purch": 1986,
      "▁causes": 1987,
      "inally": 1988,
      "▁reserves": 1989,
      "alth": 1990,
      "▁forget": 1991,
      "▁manager": 1992,
      "river": 1993,
      "▁store": 1994,
      "▁followed": 1995,
      "▁toronto": 1996,
      "▁features": 1997,
      "t": 1998,
      "ental": 1999,
      "▁rip": 2000,
      "▁define": 2001,
      "ally": 2002,
      "ied": 2003,
      "▁bott": 2004,
      "huh": 2005,
      "qu": 2006,
      "▁preparation": 2007,
      "▁technologies": 2008,
      "▁case": 2009,
      "▁check": 2010,
      "▁pile": 2011,
      "ees": 2012,
      "▁extent": 2013,
      "▁encourage": 2014,
      "▁membership": 2015,
      "yet": 2016,
      "▁statistics": 2017,
      "sent": 2018,
      "amples": 2019,
      "▁non-": 2020,
      "▁role": 2021,
      "▁aim": 2022,
      "▁filtering": 2023,
      "▁muscles": 2024,
      "▁expos": 2025,
      "▁bang": 2026,
      "▁policeman": 2027,
      "ategy": 2028,
      "▁jump": 2029,
      "▁writ": 2030,
      "▁ever": 2031,
      "ient": 2032,
      "▁sentence": 2033,
      "▁tal": 2034,
      "▁turned": 2035,
      "▁leaves": 2036,
      "▁orient": 2037,
      "▁settle": 2038,
      "▁spirit": 2039,
      "gery": 2040,
      "▁purpose": 2041,
      "▁cigar": 2042,
      "log": 2043,
      "ching": 2044,
      "isf": 2045,
      "▁subs": 2046,
      "▁rolled": 2047,
      "▁dog": 2048,
      "▁officers": 2049,
      "▁factory": 2050,
      "▁revolution": 2051,
      "▁mathema": 2052,
      "▁seating": 2053,
      "▁personal": 2054,
      "▁upside": 2055,
      "▁snakes": 2056,
      "▁exch": 2057,
      "ulf": 2058,
      "▁parent": 2059,
      "▁has": 2060,
      "erences": 2061,
      "▁demon": 2062,
      "▁best": 2063,
      "▁constitution": 2064,
      "▁pain": 2065,
      "oods": 2066,
      "▁neither": 2067,
      "▁suspected": 2068,
      "▁uh": 2069,
      "▁end": 2070,
      "▁doors": 2071,
      "80s": 2072,
      "duc": 2073,
      "▁bugs": 2074,
      "▁counterpar": 2075,
      ",": 2076,
      "ligh": 2077,
      "isted": 2078,
      "▁high": 2079,
      "▁cha": 2080,
      "▁had": 2081,
      "▁fault": 2082,
      "▁patients": 2083,
      "life": 2084,
      "▁afford": 2085,
      "ultural": 2086,
      "▁greetings": 2087,
      "ilities": 2088,
      "▁dialog": 2089,
      "▁`": 2090,
      "pse": 2091,
      "▁poems": 2092,
      "▁hoc": 2093,
      "▁recip": 2094,
      "▁household": 2095,
      "▁sep": 2096,
      "▁pro": 2097,
      "ius": 2098,
      "▁rec": 2099,
      "▁attract": 2100,
      "**********************************": 2101,
      "tions": 2102,
      "▁broke": 2103,
      "▁river": 2104,
      "astic": 2105,
      "▁pati": 2106,
      "▁baby": 2107,
      "▁bodies": 2108,
      "0th": 2109,
      "ef": 2110,
      "▁tickle": 2111,
      "▁columns": 2112,
      "ghts": 2113,
      "▁apple": 2114,
      "▁users": 2115,
      "70s": 2116,
      "au": 2117,
      "▁offered": 2118,
      "▁provided": 2119,
      "▁ass": 2120,
      "gu": 2121,
      "▁finger": 2122,
      "▁spider": 2123,
      "fo": 2124,
      "▁wanted": 2125,
      "▁maintaining": 2126,
      "▁g": 2127,
      "/2": 2128,
      "▁manual": 2129,
      "pp": 2130,
      "▁guar": 2131,
      "▁li": 2132,
      "▁!!!!": 2133,
      "rel": 2134,
      "▁watch": 2135,
      "▁satellite": 2136,
      "igration": 2137,
      "▁correc": 2138,
      "ode": 2139,
      "▁wol": 2140,
      "▁did": 2141,
      "▁develop": 2142,
      "▁rush": 2143,
      "▁pittsbur": 2144,
      "▁families": 2145,
      "▁bearing": 2146,
      "iss": 2147,
      "▁string": 2148,
      "ences": 2149,
      "▁notes": 2150,
      "▁,": 2151,
      "▁adults": 2152,
      "▁profession": 2153,
      "▁opposite": 2154,
      "▁consumer": 2155,
      "idden": 2156,
      "▁an": 2157,
      "▁main": 2158,
      "▁struc": 2159,
      "▁laws": 2160,
      "ap": 2161,
      "▁conserv": 2162,
      "back": 2163,
      "elf": 2164,
      "▁english": 2165,
      "lling": 2166,
      "▁cher": 2167,
      "▁human": 2168,
      "▁fiction": 2169,
      "▁perspective": 2170,
      "ak": 2171,
      "▁stage": 2172,
      "▁arrangement": 2173,
      "fro": 2174,
      "▁dec": 2175,
      "li": 2176,
      "▁execution": 2177,
      "lig": 2178,
      "la": 2179,
      "▁galleries": 2180,
      "lets": 2181,
      "pt": 2182,
      "ularity": 2183,
      "▁concern": 2184,
      "earance": 2185,
      "ukee": 2186,
      "sually": 2187,
      "▁abandoned": 2188,
      "▁outcome": 2189,
      "▁elbow": 2190,
      "here": 2191,
      "▁but": 2192,
      "▁-----------------": 2193,
      "▁expect": 2194,
      "▁hel": 2195,
      "berry": 2196,
      "▁circum": 2197,
      "▁pull": 2198,
      "▁suffer": 2199,
      "▁entitled": 2200,
      "▁po": 2201,
      "▁talk": 2202,
      "”": 2203,
      "▁incen": 2204,
      "▁actress": 2205,
      "aid": 2206,
      "▁indian": 2207,
      "▁connected": 2208,
      "▁votes": 2209,
      "▁abuse": 2210,
      "▁meat": 2211,
      "▁monaster": 2212,
      "ilosoph": 2213,
      "4": 2214,
      "▁sang": 2215,
      "ric": 2216,
      "▁identifying": 2217,
      "ea": 2218,
      "dge": 2219,
      "▁sending": 2220,
      "ci": 2221,
      "▁chat": 2222,
      "▁encouraged": 2223,
      "▁obl": 2224,
      "ok": 2225,
      "▁committed": 2226,
      "▁consid": 2227,
      "▁purs": 2228,
      "▁bread": 2229,
      "▁el": 2230,
      "▁impression": 2231,
      "ility": 2232,
      "▁owned": 2233,
      "▁consul": 2234,
      "▁recommendation": 2235,
      "▁jam": 2236,
      "▁dogg": 2237,
      "ployment": 2238,
      "▁butterfl": 2239,
      "eces": 2240,
      "▁status": 2241,
      "▁vet": 2242,
      "▁sump": 2243,
      "tive": 2244,
      "▁unem": 2245,
      "▁implemented": 2246,
      "ograph": 2247,
      "▁seat": 2248,
      "▁mids": 2249,
      "▁ant": 2250,
      "▁front": 2251,
      "rons": 2252,
      "▁ob": 2253,
      "ither": 2254,
      "rating": 2255,
      "▁probably": 2256,
      "eb": 2257,
      "▁wine": 2258,
      "▁religion": 2259,
      "▁subscri": 2260,
      "▁pre": 2261,
      "▁ne": 2262,
      "▁ris": 2263,
      "▁!!!!!!": 2264,
      "▁neighb": 2265,
      "▁created": 2266,
      "▁doctors": 2267,
      "▁median": 2268,
      "▁concre": 2269,
      "erm": 2270,
      "ʊ": 2271,
      "▁---------------------------------": 2272,
      "omach": 2273,
      "▁accepted": 2274,
      "▁comments": 2275,
      "▁2": 2276,
      "stem": 2277,
      "▁could": 2278,
      "▁gent": 2279,
      "▁pal": 2280,
      "▁over": 2281,
      "▁piano": 2282,
      "real": 2283,
      "▁re": 2284,
      "▁bull": 2285,
      "▁lies": 2286,
      "▁prod": 2287,
      "erating": 2288,
      "▁exposed": 2289,
      "tr": 2290,
      "▁cliff": 2291,
      "▁nut": 2292,
      "▁official": 2293,
      "pped": 2294,
      "▁loss": 2295,
      "▁intended": 2296,
      "▁guessed": 2297,
      "▁storage": 2298,
      "▁departing": 2299,
      "▁length": 2300,
      "▁coord": 2301,
      "▁mentioned": 2302,
      "▁least": 2303,
      "▁achieve": 2304,
      "ney": 2305,
      "▁chasing": 2306,
      "▁message": 2307,
      "▁actor": 2308,
      "▁condem": 2309,
      "▁hitting": 2310,
      "▁cray": 2311,
      "▁themes": 2312,
      "▁cent": 2313,
      "▁vacuum": 2314,
      "izes": 2315,
      "kets": 2316,
      "▁transformation": 2317,
      "▁mater": 2318,
      "▁vot": 2319,
      "▁squir": 2320,
      "▁shame": 2321,
      "▁foot": 2322,
      "▁sitting": 2323,
      "▁arrow": 2324,
      "mited": 2325,
      "▁pray": 2326,
      "keys": 2327,
      "▁depar": 2328,
      "▁email": 2329,
      "ane": 2330,
      "load": 2331,
      "▁function": 2332,
      "▁black": 2333,
      "ty": 2334,
      "▁rapporte": 2335,
      "clo": 2336,
      "▁represents": 2337,
      "▁spr": 2338,
      "▁helicopters": 2339,
      "▁alleged": 2340,
      "▁ill": 2341,
      "▁anthrax": 2342,
      "▁purpos": 2343,
      "▁band": 2344,
      "▁balances": 2345,
      "teen": 2346,
      "▁yelling": 2347,
      "▁co": 2348,
      "gers": 2349,
      "▁charl": 2350,
      "▁dates": 2351,
      "▁locations": 2352,
      "▁deli": 2353,
      "▁\"": 2354,
      "▁refriger": 2355,
      "▁record": 2356,
      "▁yea": 2357,
      "▁manage": 2358,
      "▁schema": 2359,
      "▁former": 2360,
      "▁ti": 2361,
      "ught": 2362,
      "▁vom": 2363,
      "▁bat": 2364,
      "ops": 2365,
      "▁vegas": 2366,
      "▁circumstances": 2367,
      "▁males": 2368,
      "▁knife": 2369,
      "▁display": 2370,
      "▁target": 2371,
      "come": 2372,
      "▁problem": 2373,
      "▁lea": 2374,
      "▁und": 2375,
      "▁whose": 2376,
      "▁organization": 2377,
      "nies": 2378,
      "ression": 2379,
      "▁star": 2380,
      "hus": 2381,
      "▁movies": 2382,
      "▁trash": 2383,
      "▁traveling": 2384,
      "▁chart": 2385,
      "▁girls": 2386,
      "▁policies": 2387,
      "▁flow": 2388,
      "▁founder": 2389,
      "▁survive": 2390,
      "▁relig": 2391,
      "▁fruit": 2392,
      "▁evolution": 2393,
      "▁kill": 2394,
      "▁proceed": 2395,
      "educ": 2396,
      "▁certi": 2397,
      "▁goo": 2398,
      "▁broken": 2399,
      "▁liqu": 2400,
      "▁chair": 2401,
      "▁ret": 2402,
      "▁etc.": 2403,
      "▁fork": 2404,
      "▁patterns": 2405,
      "▁years": 2406,
      "▁dried": 2407,
      "▁freedom": 2408,
      "▁genius": 2409,
      "▁ba": 2410,
      "▁twenty": 2411,
      "▁manag": 2412,
      "▁v": 2413,
      "'re": 2414,
      "▁posts": 2415,
      "eav": 2416,
      "aining": 2417,
      "▁tear": 2418,
      "▁mechanic": 2419,
      "▁post": 2420,
      "▁swe": 2421,
      "▁dance": 2422,
      "▁especially": 2423,
      "▁>": 2424,
      "▁s/he": 2425,
      "▁greet": 2426,
      "▁eats": 2427,
      "▁specialist": 2428,
      "ception": 2429,
      "▁gold": 2430,
      "▁limous": 2431,
      "ise": 2432,
      "▁gifts": 2433,
      "aur": 2434,
      "le": 2435,
      "▁childhood": 2436,
      "ellow": 2437,
      "▁attacks": 2438,
      "▁destin": 2439,
      "cross": 2440,
      "▁contribution": 2441,
      "▁industry": 2442,
      "▁bi": 2443,
      "ction": 2444,
      "▁strawberry": 2445,
      "▁borders": 2446,
      "▁prosec": 2447,
      "▁offer": 2448,
      "▁di": 2449,
      "▁pup": 2450,
      "▁button": 2451,
      "gar": 2452,
      "▁say": 2453,
      "▁possible": 2454,
      "▁staff": 2455,
      "▁aband": 2456,
      "▁poodle": 2457,
      "▁rise": 2458,
      "▁greeted": 2459,
      "▁bron": 2460,
      "▁supplies": 2461,
      "▁measured": 2462,
      "▁attached": 2463,
      "▁mos": 2464,
      "fare": 2465,
      "▁ignorance": 2466,
      "▁congr": 2467,
      "▁down": 2468,
      "ming": 2469,
      "▁inflation": 2470,
      "▁controls": 2471,
      "▁heav": 2472,
      "▁assass": 2473,
      "▁banan": 2474,
      "▁intelligence": 2475,
      "▁wear": 2476,
      "▁expand": 2477,
      "ush": 2478,
      "cess": 2479,
      "k": 2480,
      "▁host": 2481,
      "▁software": 2482,
      "▁hamster": 2483,
      "tured": 2484,
      "ard": 2485,
      "▁enthus": 2486,
      "’t": 2487,
      "▁beauty": 2488,
      "ent": 2489,
      "▁custom": 2490,
      "ay": 2491,
      "▁thought": 2492,
      "▁darkness": 2493,
      "ulars": 2494,
      "▁smoking": 2495,
      "▁associate": 2496,
      "ternoon": 2497,
      "ize": 2498,
      "atisfaction": 2499,
      "▁dinos": 2500,
      "▁si": 2501,
      "▁meet": 2502,
      "▁abs": 2503,
      "oni": 2504,
      "▁characteris": 2505,
      "▁renew": 2506,
      "▁destro": 2507,
      "▁oakland": 2508,
      "▁coc": 2509,
      "ised": 2510,
      "▁!!!?": 2511,
      "▁elected": 2512,
      "▁ol": 2513,
      "▁pushed": 2514,
      "▁handled": 2515,
      "▁bad": 2516,
      "▁behavior": 2517,
      "▁em": 2518,
      "▁transp": 2519,
      "pletely": 2520,
      "▁cake": 2521,
      "aster": 2522,
      "▁topic": 2523,
      "▁couple": 2524,
      "▁blanket": 2525,
      "ceptions": 2526,
      "ctions": 2527,
      "fts": 2528,
      "▁cookie": 2529,
      "▁sovereignty": 2530,
      "▁revised": 2531,
      "alists": 2532,
      "u": 2533,
      "store": 2534,
      "▁launched": 2535,
      "▁yeah": 2536,
      "h": 2537,
      "oma": 2538,
      "▁sonnets": 2539,
      "▁against": 2540,
      "▁vari": 2541,
      "▁players": 2542,
      "▁trag": 2543,
      "▁gulf": 2544,
      "acked": 2545,
      "▁avoided": 2546,
      "▁intend": 2547,
      "oral": 2548,
      "▁vehicle": 2549,
      "▁purchasing": 2550,
      "▁invited": 2551,
      "▁fig": 2552,
      "▁course": 2553,
      "▁mechanism": 2554,
      "▁or": 2555,
      "orts": 2556,
      "▁elephants": 2557,
      "▁inside": 2558,
      "mb": 2559,
      "gl": 2560,
      "▁close": 2561,
      "inating": 2562,
      "▁plain": 2563,
      "▁x": 2564,
      "▁—": 2565,
      "▁garbage": 2566,
      "▁rem": 2567,
      "ig": 2568,
      "ald": 2569,
      "▁h": 2570,
      "▁independence": 2571,
      "▁dressed": 2572,
      "▁w/": 2573,
      "▁report": 2574,
      "▁programmes": 2575,
      "▁shop": 2576,
      "▁scienti": 2577,
      "▁achie": 2578,
      "▁procedures": 2579,
      "▁make": 2580,
      "▁tonight": 2581,
      "pite": 2582,
      "▁trading": 2583,
      "▁compar": 2584,
      "▁poc": 2585,
      "▁gis": 2586,
      "▁prayer": 2587,
      "▁marketing": 2588,
      "▁hug": 2589,
      "▁dough": 2590,
      "▁climate": 2591,
      "▁collecting": 2592,
      "▁create": 2593,
      "orded": 2594,
      "za": 2595,
      "▁built": 2596,
      "<": 2597,
      "rors": 2598,
      "iled": 2599,
      "▁works": 2600,
      "▁heads": 2601,
      "▁silver": 2602,
      "▁officer": 2603,
      "▁comes": 2604,
      "▁ignored": 2605,
      ",000": 2606,
      "etter": 2607,
      "▁bush": 2608,
      "▁contact": 2609,
      "stances": 2610,
      "▁knowing": 2611,
      "▁sticks": 2612,
      "▁ps": 2613,
      "▁crisis": 2614,
      "▁ev": 2615,
      "▁may": 2616,
      "▁pump": 2617,
      "▁approach": 2618,
      "▁dying": 2619,
      "▁toilet": 2620,
      "▁buildings": 2621,
      "ently": 2622,
      "▁relationship": 2623,
      "▁licenses": 2624,
      "ibilities": 2625,
      "ger": 2626,
      "▁stood": 2627,
      "▁spos": 2628,
      "▁exclu": 2629,
      "▁(": 2630,
      "▁items": 2631,
      "▁implementing": 2632,
      "▁balt": 2633,
      "▁spiders": 2634,
      "▁1": 2635,
      "▁yo": 2636,
      "!?": 2637,
      "▁typ": 2638,
      "▁execute": 2639,
      "▁deal": 2640,
      "▁hoping": 2641,
      "▁prevent": 2642,
      "▁declar": 2643,
      "▁saying": 2644,
      "▁capture": 2645,
      "oting": 2646,
      "▁shad": 2647,
      "▁engineering": 2648,
      "▁stopped": 2649,
      "▁collapsed": 2650,
      "▁compos": 2651,
      "▁crush": 2652,
      "cro": 2653,
      "▁bunch": 2654,
      "▁restriction": 2655,
      "▁exa": 2656,
      "▁ignor": 2657,
      "▁smile": 2658,
      "asses": 2659,
      "▁day": 2660,
      "▁small": 2661,
      "f": 2662,
      "▁tourists": 2663,
      "▁enem": 2664,
      "▁cohesion": 2665,
      "▁train": 2666,
      "▁balance": 2667,
      "▁throat": 2668,
      "▁waiting": 2669,
      "▁vine": 2670,
      "▁pennies": 2671,
      "▁immigration": 2672,
      "▁reviewed": 2673,
      "▁wire": 2674,
      "▁beach": 2675,
      "▁checks": 2676,
      "▁apart": 2677,
      "▁sho": 2678,
      "▁rob": 2679,
      "▁adapt": 2680,
      "ically": 2681,
      "▁facilities": 2682,
      "inity": 2683,
      "lus": 2684,
      "bal": 2685,
      "▁latest": 2686,
      "▁results": 2687,
      "▁pros": 2688,
      "▁agents": 2689,
      "▁everybody": 2690,
      "▁tor": 2691,
      "▁isda": 2692,
      "▁monks": 2693,
      "▁squ": 2694,
      "▁hurts": 2695,
      "▁counterfe": 2696,
      "onds": 2697,
      "▁inv": 2698,
      "ented": 2699,
      "phone": 2700,
      "▁..": 2701,
      "▁refusing": 2702,
      "ides": 2703,
      "ency": 2704,
      "▁determ": 2705,
      "▁interested": 2706,
      "▁fuel": 2707,
      "imum": 2708,
      "▁wor": 2709,
      "▁oatmeal": 2710,
      "icking": 2711,
      "▁birthday": 2712,
      "ades": 2713,
      "▁env": 2714,
      "▁wid": 2715,
      "▁direc": 2716,
      "urned": 2717,
      "ill": 2718,
      "▁passes": 2719,
      "aste": 2720,
      "▁bottom": 2721,
      "▁alongside": 2722,
      "▁speech": 2723,
      "▁portion": 2724,
      "▁ste": 2725,
      "▁repe": 2726,
      "ressed": 2727,
      "▁cros": 2728,
      "▁broom": 2729,
      "▁chr": 2730,
      "▁pattern": 2731,
      "▁jurisd": 2732,
      "▁dreamed": 2733,
      "▁fits": 2734,
      "ke": 2735,
      "▁shoo": 2736,
      "▁ld2d-#693": 2737,
      "▁monday": 2738,
      "ugh": 2739,
      "▁buses": 2740,
      "cery": 2741,
      "uf": 2742,
      "▁findings": 2743,
      "▁needs": 2744,
      "▁8": 2745,
      "▁yourself": 2746,
      "▁diet": 2747,
      "ential": 2748,
      "both": 2749,
      "zer": 2750,
      "▁key": 2751,
      "▁song": 2752,
      "▁radio": 2753,
      "▁mir": 2754,
      "▁provin": 2755,
      "uge": 2756,
      "▁produces": 2757,
      "▁format": 2758,
      "▁chef": 2759,
      "ais": 2760,
      "▁suit": 2761,
      "▁lifted": 2762,
      "inu": 2763,
      "lers": 2764,
      "▁gri": 2765,
      "et": 2766,
      "ful": 2767,
      "enn": 2768,
      "olis": 2769,
      "▁highly": 2770,
      "▁suppl": 2771,
      "▁cancel": 2772,
      "ational": 2773,
      "erved": 2774,
      "▁sides": 2775,
      "▁saving": 2776,
      "▁beans": 2777,
      "▁agent": 2778,
      "▁so": 2779,
      "imed": 2780,
      "▁drawer": 2781,
      "▁recently": 2782,
      "▁sub": 2783,
      "▁1970s": 2784,
      "▁agreements": 2785,
      "▁long": 2786,
      "ye": 2787,
      "▁will": 2788,
      "▁maps": 2789,
      "akistan": 2790,
      "▁interpre": 2791,
      "▁coff": 2792,
      "veland": 2793,
      "▁play+": 2794,
      "▁holding": 2795,
      "▁magazine": 2796,
      "▁skills": 2797,
      "iny": 2798,
      "▁hosp": 2799,
      "▁paintings": 2800,
      "▁customs": 2801,
      "▁sme": 2802,
      "▁rap": 2803,
      "▁powers": 2804,
      "▁quickly": 2805,
      "▁already": 2806,
      "nly": 2807,
      "▁mov": 2808,
      "▁cheek": 2809,
      "▁introduc": 2810,
      "▁accum": 2811,
      "▁guacamole": 2812,
      "ope": 2813,
      "▁rel": 2814,
      "▁preven": 2815,
      "▁bought": 2816,
      "▁asc": 2817,
      "uit": 2818,
      "▁rag": 2819,
      "▁lean": 2820,
      "▁carrot": 2821,
      "▁safety": 2822,
      "cently": 2823,
      "▁vaccine": 2824,
      "▁de": 2825,
      "ized": 2826,
      "▁enforcement": 2827,
      "▁managing": 2828,
      "ic": 2829,
      "▁dess": 2830,
      "▁times": 2831,
      "▁shut": 2832,
      "▁known": 2833,
      "▁bar": 2834,
      "▁emerged": 2835,
      "▁transport": 2836,
      "▁print": 2837,
      "▁rebuild": 2838,
      "▁lord": 2839,
      "▁switch": 2840,
      "----------": 2841,
      "▁lawyers": 2842,
      "▁flood": 2843,
      "les": 2844,
      "▁bos": 2845,
      "▁awa": 2846,
      "▁coop": 2847,
      "▁patient": 2848,
      "▁aud": 2849,
      "▁strengthen": 2850,
      "▁belie": 2851,
      "▁-": 2852,
      "▁independ": 2853,
      "ι": 2854,
      "▁restaur": 2855,
      "▁confidence": 2856,
      "z": 2857,
      "▁stret": 2858,
      "apping": 2859,
      "▁valu": 2860,
      "▁implementation": 2861,
      "uals": 2862,
      "▁union": 2863,
      "▁traders": 2864,
      "▁yet": 2865,
      "▁altern": 2866,
      "uations": 2867,
      "▁kick": 2868,
      "▁mr": 2869,
      "▁describing": 2870,
      "▁another": 2871,
      "▁rats": 2872,
      "▁witn": 2873,
      "▁washington": 2874,
      "een": 2875,
      "▁allowed": 2876,
      "▁vs.": 2877,
      "▁rout": 2878,
      "key": 2879,
      "▁sci": 2880,
      "▁figured": 2881,
      "▁rev": 2882,
      "ai": 2883,
      "▁responses": 2884,
      "▁wan": 2885,
      "▁numerous": 2886,
      "▁buy": 2887,
      "▁mel": 2888,
      "self": 2889,
      "▁became": 2890,
      "▁thro": 2891,
      "▁guarant": 2892,
      "omed": 2893,
      "▁pollution": 2894,
      "▁handle": 2895,
      "▁reason": 2896,
      "▁grandma": 2897,
      "▁him": 2898,
      "▁profits": 2899,
      "▁generations": 2900,
      "▁found": 2901,
      "▁give": 2902,
      "▁missed": 2903,
      "▁lasted": 2904,
      "▁link": 2905,
      "▁bus": 2906,
      "▁targ": 2907,
      "▁sweep": 2908,
      "▁.": 2909,
      "rec": 2910,
      "▁sample": 2911,
      "▁eggs": 2912,
      "nic": 2913,
      "ghting": 2914,
      "overy": 2915,
      "▁bananas": 2916,
      "▁parking": 2917,
      "▁passage": 2918,
      "▁qa": 2919,
      "▁lion": 2920,
      "asa": 2921,
      "▁happened": 2922,
      "!!!!!!!!": 2923,
      "▁targets": 2924,
      "▁died": 2925,
      "▁taste": 2926,
      "s.": 2927,
      "▁anyth": 2928,
      "ort": 2929,
      "ply": 2930,
      "▁indicate": 2931,
      "▁sup": 2932,
      "▁simply": 2933,
      "aks": 2934,
      "▁duty": 2935,
      "orth": 2936,
      "▁campus": 2937,
      "▁tags": 2938,
      "ates": 2939,
      "where": 2940,
      "▁among": 2941,
      "▁told": 2942,
      "▁installing": 2943,
      "▁spot": 2944,
      "co": 2945,
      "fore": 2946,
      "90s": 2947,
      "ament": 2948,
      "roduc": 2949,
      "▁timing": 2950,
      "▁afric": 2951,
      "w": 2952,
      "▁days": 2953,
      "ars": 2954,
      "▁workforce": 2955,
      "▁sector": 2956,
      "tician": 2957,
      "▁answered": 2958,
      "▁dan": 2959,
      "▁parti": 2960,
      "▁feature": 2961,
      "▁feels": 2962,
      "▁gift": 2963,
      "ords": 2964,
      "egr": 2965,
      "▁fox": 2966,
      "forcement": 2967,
      "▁cold": 2968,
      "▁shakes": 2969,
      "▁standing": 2970,
      "acter": 2971,
      "uil": 2972,
      "▁ha": 2973,
      "fic": 2974,
      "ado": 2975,
      "▁dispute": 2976,
      "▁interact": 2977,
      "tain": 2978,
      "essed": 2979,
      "sul": 2980,
      "itch": 2981,
      "lium": 2982,
      "▁arg": 2983,
      "▁details": 2984,
      "▁mad": 2985,
      "▁earli": 2986,
      "▁character": 2987,
      "▁stretch": 2988,
      "▁hamb": 2989,
      "▁fill": 2990,
      "ima": 2991,
      "▁compete": 2992,
      "con": 2993,
      "orting": 2994,
      "acles": 2995,
      "ining": 2996,
      "▁ed": 2997,
      "▁harmonisation": 2998,
      "▁fit": 2999,
      "▁pl": 3000,
      "▁aunt": 3001,
      "▁rabbits": 3002,
      "form": 3003,
      "▁need": 3004,
      "▁mornings": 3005,
      "▁pepper": 3006,
      "▁mama": 3007,
      "▁epm": 3008,
      "uation": 3009,
      "▁petersburg": 3010,
      "essment": 3011,
      "▁decade": 3012,
      "▁killing": 3013,
      "▁researchers": 3014,
      "▁alt": 3015,
      "▁research": 3016,
      "osed": 3017,
      "▁neighbor": 3018,
      "▁fu": 3019,
      "idding": 3020,
      "▁delive": 3021,
      "▁saw": 3022,
      "▁exerc": 3023,
      "▁foc": 3024,
      "lies": 3025,
      "ned": 3026,
      "▁played": 3027,
      "pers": 3028,
      "▁classroom": 3029,
      "▁wizard": 3030,
      "▁meaning": 3031,
      "▁arti": 3032,
      ".": 3033,
      "▁authorities": 3034,
      "0": 3035,
      "oodle": 3036,
      "▁moral": 3037,
      "▁participating": 3038,
      "yst": 3039,
      "▁mo": 3040,
      "|": 3041,
      "▁cock": 3042,
      "▁require": 3043,
      "▁jos": 3044,
      "▁cleveland": 3045,
      "air": 3046,
      "▁required": 3047,
      "▁individual": 3048,
      "▁plenty": 3049,
      "▁crying": 3050,
      "▁witch": 3051,
      "▁representative": 3052,
      "▁moisture": 3053,
      "ways": 3054,
      "▁yes": 3055,
      "elled": 3056,
      "▁vod": 3057,
      "▁snake": 3058,
      "▁squi": 3059,
      "▁origin": 3060,
      "▁push": 3061,
      "▁claimed": 3062,
      "▁attracted": 3063,
      "antee": 3064,
      "▁---=": 3065,
      "l": 3066,
      "▁theater": 3067,
      "▁implications": 3068,
      "▁mix": 3069,
      "▁across": 3070,
      "oin": 3071,
      "▁good": 3072,
      "▁longer": 3073,
      "▁bre": 3074,
      "▁charged": 3075,
      "▁phot": 3076,
      "▁revenue": 3077,
      "▁chief": 3078,
      "▁crayon": 3079,
      "▁stirrup": 3080,
      "▁oak": 3081,
      "▁yogurt": 3082,
      "▁rules": 3083,
      "▁process": 3084,
      "▁gir": 3085,
      "▁numbers": 3086,
      "▁hand": 3087,
      "▁interf": 3088,
      "▁tab": 3089,
      "ishing": 3090,
      "▁delta": 3091,
      "aus": 3092,
      "▁sal": 3093,
      "▁reminded": 3094,
      "▁suff": 3095,
      "▁gradu": 3096,
      "▁impro": 3097,
      "▁network": 3098,
      "▁discovered": 3099,
      "▁califor": 3100,
      "▁accordance": 3101,
      "‘": 3102,
      "eas": 3103,
      "▁remained": 3104,
      "▁october": 3105,
      "ertain": 3106,
      "▁beings": 3107,
      "▁traged": 3108,
      "ican": 3109,
      "▁catch": 3110,
      "▁person": 3111,
      "▁block": 3112,
      "▁staring": 3113,
      "ocity": 3114,
      "onto": 3115,
      "▁10": 3116,
      "urch": 3117,
      "▁better": 3118,
      "▁dress": 3119,
      "▁summ": 3120,
      "▁understood": 3121,
      "▁underm": 3122,
      "▁tend": 3123,
      "▁whe": 3124,
      "▁knight": 3125,
      "▁takes": 3126,
      "▁signature": 3127,
      "▁replace": 3128,
      "ob": 3129,
      "qual": 3130,
      "▁ate": 3131,
      "▁maint": 3132,
      "▁surrounded": 3133,
      "▁edit": 3134,
      "ific": 3135,
      "▁convinced": 3136,
      "▁/": 3137,
      "▁salon": 3138,
      "▁lets": 3139,
      "▁firms": 3140,
      "▁interaction": 3141,
      "▁expecting": 3142,
      "▁animals": 3143,
      "▁polaro": 3144,
      "ials": 3145,
      "▁flowers": 3146,
      "ve": 3147,
      "▁cle": 3148,
      "▁interest": 3149,
      "▁chee": 3150,
      "iration": 3151,
      "•": 3152,
      "▁terrorist": 3153,
      "▁socks": 3154,
      "▁headquarters": 3155,
      "fer": 3156,
      "▁roo": 3157,
      "▁nash": 3158,
      "▁slip": 3159,
      "▁deter": 3160,
      "▁stayed": 3161,
      "▁seized": 3162,
      "▁multipl": 3163,
      "▁techniques": 3164,
      "▁admitted": 3165,
      "▁developed": 3166,
      "▁operation": 3167,
      "▁conference": 3168,
      "reds": 3169,
      "jection": 3170,
      "pol": 3171,
      "▁art": 3172,
      "▁swim": 3173,
      "▁nearly": 3174,
      "▁filed": 3175,
      "ware": 3176,
      "▁palace": 3177,
      "▁women": 3178,
      "▁steps": 3179,
      "▁propaganda": 3180,
      "▁psych": 3181,
      "▁isl": 3182,
      "▁request": 3183,
      "▁moon": 3184,
      "acting": 3185,
      "iating": 3186,
      "▁hes": 3187,
      "▁wanting": 3188,
      "ousness": 3189,
      "aling": 3190,
      "▁lego": 3191,
      "▁united": 3192,
      "tis": 3193,
      "▁convers": 3194,
      "ama": 3195,
      "▁discovery": 3196,
      "▁dem": 3197,
      "od": 3198,
      "▁self": 3199,
      "ages": 3200,
      "▁group": 3201,
      "▁visit": 3202,
      "chup": 3203,
      "ley": 3204,
      "▁chapter": 3205,
      "▁0": 3206,
      "▁opposition": 3207,
      "jected": 3208,
      "▁hedge": 3209,
      "ires": 3210,
      "▁u.s.": 3211,
      "sus": 3212,
      "▁con": 3213,
      "▁~": 3214,
      "▁winds": 3215,
      "ph": 3216,
      "verage": 3217,
      "cle": 3218,
      "ron": 3219,
      "▁swinging": 3220,
      "▁accident": 3221,
      "▁deteri": 3222,
      "▁tam": 3223,
      "▁amongst": 3224,
      "uated": 3225,
      "▁saf": 3226,
      "▁blew": 3227,
      "▁>>": 3228,
      "▁american": 3229,
      "aurs": 3230,
      "amb": 3231,
      "'": 3232,
      "▁argument": 3233,
      "▁uncertainty": 3234,
      "▁answ": 3235,
      "▁confirm": 3236,
      "chang": 3237,
      "▁doub": 3238,
      "▁nor": 3239,
      "▁mayor": 3240,
      "inking": 3241,
      "sp": 3242,
      "▁sandwic": 3243,
      "▁fem": 3244,
      "▁mountains": 3245,
      "nuts": 3246,
      "▁lighting": 3247,
      "▁fish": 3248,
      "▁bright": 3249,
      "▁=": 3250,
      "▁kil": 3251,
      "▁doughnut": 3252,
      "▁base": 3253,
      "▁toile": 3254,
      "lim": 3255,
      "▁wip": 3256,
      "▁lists": 3257,
      "▁compare": 3258,
      "ssible": 3259,
      "▁feat": 3260,
      "▁prepar": 3261,
      "▁prett": 3262,
      "▁war": 3263,
      "▁estate": 3264,
      "▁mount": 3265,
      "▁their": 3266,
      "▁universities": 3267,
      "▁cupcakes": 3268,
      "▁possession": 3269,
      "yone": 3270,
      "▁criticism": 3271,
      "▁except": 3272,
      "▁ideas": 3273,
      "▁sss": 3274,
      "▁sorry": 3275,
      "▁sleeve": 3276,
      "ɑ": 3277,
      "▁camp": 3278,
      "▁fares": 3279,
      "▁lawyer": 3280,
      "▁election": 3281,
      "▁craw": 3282,
      "▁sweetie": 3283,
      "▁images": 3284,
      "▁val": 3285,
      "▁pasta": 3286,
      "▁pip": 3287,
      "▁some": 3288,
      "cake": 3289,
      "▁rather": 3290,
      "▁expanding": 3291,
      "▁pursue": 3292,
      "▁un": 3293,
      "lent": 3294,
      "▁cell": 3295,
      "sc": 3296,
      "oot": 3297,
      "▁product": 3298,
      "------": 3299,
      "icul": 3300,
      "▁montreal": 3301,
      "ents": 3302,
      "▁ga": 3303,
      "▁tech": 3304,
      "aos": 3305,
      "▁suc": 3306,
      "▁usually": 3307,
      "▁cart": 3308,
      "erving": 3309,
      "ularly": 3310,
      "oir": 3311,
      "▁date": 3312,
      "wi": 3313,
      "▁burst": 3314,
      "▁rocks": 3315,
      "▁farrier": 3316,
      "▁ripped": 3317,
      "▁assu": 3318,
      "amed": 3319,
      "▁origins": 3320,
      "als": 3321,
      "▁9": 3322,
      "▁vehicles": 3323,
      "▁rich": 3324,
      "olog": 3325,
      "▁vendors": 3326,
      "▁tutor": 3327,
      "▁.!": 3328,
      "▁want": 3329,
      "▁loan": 3330,
      "▁proposal": 3331,
      "▁**": 3332,
      "▁confir": 3333,
      "▁copy": 3334,
      "▁vision": 3335,
      "▁horsie": 3336,
      "unk": 3337,
      "▁fired": 3338,
      "ano": 3339,
      "▁neph": 3340,
      "▁default": 3341,
      "▁happiness": 3342,
      "light": 3343,
      "ngth": 3344,
      "▁silk": 3345,
      "attered": 3346,
      "▁quoted": 3347,
      "▁artworks": 3348,
      "▁obtained": 3349,
      "▁sunlight": 3350,
      "▁scientists": 3351,
      "iles": 3352,
      "ressing": 3353,
      "▁authority": 3354,
      "▁populations": 3355,
      "il": 3356,
      "▁...................": 3357,
      "▁unity": 3358,
      "▁tha": 3359,
      "▁history": 3360,
      "▁awarded": 3361,
      "▁traditions": 3362,
      "▁i": 3363,
      "▁man": 3364,
      "▁captain": 3365,
      "it": 3366,
      "ches": 3367,
      "ten": 3368,
      "▁quest": 3369,
      "▁==----": 3370,
      "▁shall": 3371,
      "▁fle": 3372,
      "atch": 3373,
      "rup": 3374,
      "▁lots": 3375,
      "▁transition": 3376,
      "▁evenings": 3377,
      "▁3": 3378,
      "pre": 3379,
      "go": 3380,
      "▁mummy": 3381,
      "▁barrel": 3382,
      "▁thing": 3383,
      "eeds": 3384,
      "ergy": 3385,
      "▁vide": 3386,
      "gan": 3387,
      "’": 3388,
      "▁confidentiality": 3389,
      "▁vessel": 3390,
      "▁window": 3391,
      "▁likes": 3392,
      "apped": 3393,
      "▁landed": 3394,
      "ached": 3395,
      "▁chew": 3396,
      "▁buck": 3397,
      "▁market": 3398,
      "▁mig": 3399,
      "▁sn": 3400,
      "ribution": 3401,
      "▁routes": 3402,
      "▁crack": 3403,
      "▁actors": 3404,
      "▁jur": 3405,
      "▁hambur": 3406,
      "▁imm": 3407,
      "▁dinosaurs": 3408,
      "▁tar": 3409,
      "▁ord": 3410,
      "iac": 3411,
      "▁lar": 3412,
      "▁leash": 3413,
      "me": 3414,
      "▁inform": 3415,
      "▁spokes": 3416,
      "▁wat": 3417,
      "▁dw": 3418,
      "▁grumb": 3419,
      "▁arrival": 3420,
      "▁pit": 3421,
      "ocation": 3422,
      "ything": 3423,
      "icians": 3424,
      "▁occasions": 3425,
      "▁conditions": 3426,
      "▁obsf": 3427,
      "▁distribution": 3428,
      "▁pho": 3429,
      "ature": 3430,
      "▁most": 3431,
      "▁incorp": 3432,
      "▁fac": 3433,
      "▁media": 3434,
      "▁blue": 3435,
      "▁trained": 3436,
      "▁crowd": 3437,
      "▁identify": 3438,
      "bol": 3439,
      "arians": 3440,
      "alt": 3441,
      "tivity": 3442,
      "gest": 3443,
      "▁collab": 3444,
      "▁establishing": 3445,
      "▁increases": 3446,
      "▁stairs": 3447,
      "ude": 3448,
      "ample": 3449,
      "▁del": 3450,
      "▁arrested": 3451,
      "eeze": 3452,
      "tice": 3453,
      "▁calendar": 3454,
      "uling": 3455,
      "▁ensure": 3456,
      "▁sour": 3457,
      "▁destruction": 3458,
      "▁subjects": 3459,
      "▁fact": 3460,
      "▁participate": 3461,
      "▁som": 3462,
      "iting": 3463,
      "erves": 3464,
      "▁legislation": 3465,
      "▁weather": 3466,
      "▁na": 3467,
      "▁assassination": 3468,
      "▁holes": 3469,
      "aled": 3470,
      "▁itself": 3471,
      "▁lad": 3472,
      "aded": 3473,
      "▁teeth": 3474,
      "▁wolf": 3475,
      "lights": 3476,
      "▁pers": 3477,
      "eland": 3478,
      "▁rang": 3479,
      "▁said": 3480,
      "oc": 3481,
      "▁helic": 3482,
      "▁premium": 3483,
      "▁favor": 3484,
      "▁recommend": 3485,
      "▁apprec": 3486,
      "tainly": 3487,
      "▁availability": 3488,
      "lish": 3489,
      "▁wheat": 3490,
      "▁week": 3491,
      "zation": 3492,
      "▁u.": 3493,
      "▁explan": 3494,
      "iqu": 3495,
      "hing": 3496,
      "enix": 3497,
      "▁scul": 3498,
      "▁ketchup": 3499,
      "side": 3500,
      "▁seven": 3501,
      "ested": 3502,
      "▁clear": 3503,
      "▁photograph": 3504,
      "▁dining": 3505,
      "▁p": 3506,
      "ρ": 3507,
      "-1": 3508,
      "▁guil": 3509,
      "▁searching": 3510,
      "▁det": 3511,
      "▁sites": 3512,
      "▁no": 3513,
      "▁achieving": 3514,
      "▁pleasure": 3515,
      "▁else": 3516,
      "ond": 3517,
      "at": 3518,
      "▁meal": 3519,
      "▁answers": 3520,
      "▁responsibility": 3521,
      "▁powder": 3522,
      "▁graduate": 3523,
      "▁brief": 3524,
      "▁evalu": 3525,
      "▁figures": 3526,
      "arr": 3527,
      "▁temperatures": 3528,
      "friend": 3529,
      "etro": 3530,
      "▁cupboard": 3531,
      "▁uti": 3532,
      "▁tire": 3533,
      "▁celeb": 3534,
      "▁diversity": 3535,
      "▁focus": 3536,
      "▁turning": 3537,
      "aping": 3538,
      "▁lawy": 3539,
      "no": 3540,
      "▁attem": 3541,
      "rop": 3542,
      "urs": 3543,
      "▁kid": 3544,
      "▁gdp": 3545,
      "mans": 3546,
      "ender": 3547,
      "eignty": 3548,
      "▁economists": 3549,
      "act": 3550,
      "▁cleaned": 3551,
      "uro": 3552,
      "▁road": 3553,
      "▁stability": 3554,
      "▁peanut": 3555,
      "▁tens": 3556,
      "▁managers": 3557,
      "▁list": 3558,
      "▁living": 3559,
      "ate": 3560,
      "bb": 3561,
      "irl": 3562,
      "▁asylum": 3563,
      "▁drink": 3564,
      "olving": 3565,
      "▁maintain": 3566,
      "lect": 3567,
      "▁hors": 3568,
      "▁particular": 3569,
      "▁channel": 3570,
      "▁era": 3571,
      "▁dire": 3572,
      "▁wearing": 3573,
      "▁sports": 3574,
      "▁existence": 3575,
      "▁contacted": 3576,
      "▁’ve": 3577,
      "▁name": 3578,
      "▁philadelphia": 3579,
      "▁sisters": 3580,
      "▁marked": 3581,
      "enders": 3582,
      "▁-------------------------------------------------": 3583,
      "▁inven": 3584,
      "ional": 3585,
      "▁protection": 3586,
      "▁transfer": 3587,
      "▁seattle": 3588,
      "▁oven": 3589,
      "uting": 3590,
      "▁hurry": 3591,
      "▁baking": 3592,
      "▁arrived": 3593,
      "▁broad": 3594,
      "▁teh": 3595,
      "▁appear": 3596,
      "▁gender": 3597,
      "tw": 3598,
      "▁interv": 3599,
      "▁kansas": 3600,
      "▁shirts": 3601,
      "▁crow": 3602,
      "▁blown": 3603,
      "ober": 3604,
      "tiv": 3605,
      "▁bags": 3606,
      "▁explanations": 3607,
      "▁park": 3608,
      "▁pi": 3609,
      "▁swa": 3610,
      "ashed": 3611,
      "▁prote": 3612,
      "▁where": 3613,
      "▁cat": 3614,
      "▁supply": 3615,
      "▁clos": 3616,
      "▁style": 3617,
      "▁toast": 3618,
      "▁advantage": 3619,
      "ceived": 3620,
      "▁improving": 3621,
      "▁phase": 3622,
      "▁finished": 3623,
      "▁bas": 3624,
      "▁thurs": 3625,
      "▁respon": 3626,
      "▁gath": 3627,
      "pec": 3628,
      "▁syn": 3629,
      "▁return": 3630,
      "ump": 3631,
      "▁cause": 3632,
      "****": 3633,
      "vol": 3634,
      "ural": 3635,
      "ickness": 3636,
      "▁reaching": 3637,
      "▁relax": 3638,
      "▁festivals": 3639,
      "ately": 3640,
      "▁attempt": 3641,
      "▁beyond": 3642,
      "▁exercise": 3643,
      "▁conferences": 3644,
      "iveness": 3645,
      "in": 3646,
      "▁vi": 3647,
      "▁pointing": 3648,
      "▁ride": 3649,
      "on": 3650,
      "▁continent": 3651,
      "▁attack": 3652,
      "▁students": 3653,
      "▁tourism": 3654,
      "▁general": 3655,
      "burg": 3656,
      "▁cir": 3657,
      "▁aqu": 3658,
      "▁dinner": 3659,
      "fl": 3660,
      "▁meow": 3661,
      "icated": 3662,
      "▁different": 3663,
      "▁family": 3664,
      "▁intervening": 3665,
      "gh": 3666,
      "▁partners": 3667,
      "▁magic": 3668,
      "iron": 3669,
      "▁audio": 3670,
      "▁garage": 3671,
      "uropean": 3672,
      "r.": 3673,
      "▁assumed": 3674,
      "▁signed": 3675,
      "▁forehead": 3676,
      "▁http": 3677,
      "▁region": 3678,
      "▁j": 3679,
      "yed": 3680,
      "▁shell": 3681,
      "asure": 3682,
      "uled": 3683,
      "mar": 3684,
      "▁corners": 3685,
      "▁officials": 3686,
      "▁tr": 3687,
      "▁nine": 3688,
      "▁bones": 3689,
      "▁elect": 3690,
      "▁turtle": 3691,
      "▁aesthe": 3692,
      "ady": 3693,
      "ʒ": 3694,
      "▁directed": 3695,
      "▁cities": 3696,
      "▁priest": 3697,
      "ects": 3698,
      "▁operator": 3699,
      "▁photo": 3700,
      "▁communication": 3701,
      "▁pajamas": 3702,
      "▁dol": 3703,
      "▁fought": 3704,
      "▁sale": 3705,
      "▁revealed": 3706,
      "▁april": 3707,
      "lem": 3708,
      "face": 3709,
      "▁flag": 3710,
      "▁mixed": 3711,
      "▁performed": 3712,
      "▁wed": 3713,
      "▁go": 3714,
      "▁operators": 3715,
      "pful": 3716,
      "ptions": 3717,
      "▁dollar": 3718,
      "▁govern": 3719,
      "▁sought": 3720,
      "▁dey": 3721,
      "▁picked": 3722,
      "▁emb": 3723,
      "▁tractor": 3724,
      "▁scribb": 3725,
      "▁'re": 3726,
      "▁designs": 3727,
      "▁very": 3728,
      "▁exceed": 3729,
      "▁helicop": 3730,
      "▁artic": 3731,
      "▁jobs": 3732,
      "▁alone": 3733,
      "▁bab": 3734,
      "▁atmosphere": 3735,
      "▁possibility": 3736,
      "▁stop": 3737,
      "▁laser": 3738,
      "iful": 3739,
      "▁there": 3740,
      "▁plastic": 3741,
      "forming": 3742,
      "▁rose": 3743,
      "▁distingu": 3744,
      "itely": 3745,
      "φ": 3746,
      "▁harm": 3747,
      "icked": 3748,
      "▁fr": 3749,
      "▁++++": 3750,
      "phis": 3751,
      "____": 3752,
      "▁legos": 3753,
      "▁drove": 3754,
      "▁tack": 3755,
      "oop": 3756,
      "▁recog": 3757,
      "▁lap": 3758,
      "▁caused": 3759,
      "▁hund": 3760,
      "ville": 3761,
      "▁cruise": 3762,
      "▁before": 3763,
      "▁crackers": 3764,
      "▁http://": 3765,
      "▁roll": 3766,
      "tims": 3767,
      "▁candidate": 3768,
      "▁copies": 3769,
      "▁sushi": 3770,
      "▁respond": 3771,
      "▁proble": 3772,
      "▁elevator": 3773,
      "▁tours": 3774,
      "▁secon": 3775,
      "▁improvement": 3776,
      "▁mycelium": 3777,
      "▁field": 3778,
      "▁threw": 3779,
      "ces": 3780,
      "▁supp": 3781,
      "▁tool": 3782,
      "▁amended": 3783,
      "▁wondered": 3784,
      "▁component": 3785,
      "▁bubble": 3786,
      "▁continuing": 3787,
      "▁reinfor": 3788,
      "▁humans": 3789,
      "ner": 3790,
      "▁envelop": 3791,
      "▁bite": 3792,
      "roph": 3793,
      "uring": 3794,
      "ails": 3795,
      "aganda": 3796,
      "▁experiences": 3797,
      "▁concerned": 3798,
      "▁however": 3799,
      "▁internet": 3800,
      "▁ou": 3801,
      "▁floor": 3802,
      "lions": 3803,
      "aper": 3804,
      "▁bub": 3805,
      "▁guidelines": 3806,
      "▁sle": 3807,
      "▁belong": 3808,
      "▁grant": 3809,
      "▁reality": 3810,
      "▁crop": 3811,
      "▁des": 3812,
      "▁super": 3813,
      "▁jew": 3814,
      "overed": 3815,
      "▁oppose": 3816,
      "anger": 3817,
      "▁particles": 3818,
      "▁present": 3819,
      "ises": 3820,
      "▁side": 3821,
      "▁goods": 3822,
      "urt": 3823,
      "ging": 3824,
      "arch": 3825,
      "▁truck": 3826,
      "▁bathroom": 3827,
      "inal": 3828,
      "▁program": 3829,
      "off": 3830,
      "asters": 3831,
      "right": 3832,
      "▁phones": 3833,
      "▁refused": 3834,
      "ros": 3835,
      "entions": 3836,
      "ooks": 3837,
      "▁supper": 3838,
      "▁stem": 3839,
      "▁others": 3840,
      "ys": 3841,
      "▁chance": 3842,
      "▁law": 3843,
      "▁suggested": 3844,
      "▁gener": 3845,
      "▁pin": 3846,
      "▁which": 3847,
      "el": 3848,
      "▁screen": 3849,
      "▁hosting": 3850,
      "▁definition": 3851,
      "▁paint": 3852,
      "▁bacon": 3853,
      "▁major": 3854,
      "▁shark": 3855,
      "▁compon": 3856,
      "▁released": 3857,
      "▁drinks": 3858,
      "▁supporters": 3859,
      "arily": 3860,
      "▁|": 3861,
      "▁laundry": 3862,
      "ted": 3863,
      "▁pivottable": 3864,
      "▁explain": 3865,
      "▁due": 3866,
      "▁composition": 3867,
      "▁routine": 3868,
      "▁besides": 3869,
      "inea": 3870,
      "▁site": 3871,
      "uum": 3872,
      "▁ge": 3873,
      "▁voice": 3874,
      "▁methods": 3875,
      "x": 3876,
      "▁indust": 3877,
      "▁talent": 3878,
      "▁ded": 3879,
      "ateg": 3880,
      "py": 3881,
      "anim": 3882,
      "▁unlike": 3883,
      "▁agric": 3884,
      "▁hotels": 3885,
      "▁steak": 3886,
      "ex": 3887,
      "▁trial": 3888,
      "▁military": 3889,
      "onents": 3890,
      "wise": 3891,
      "▁floating": 3892,
      "cinn": 3893,
      "▁med": 3894,
      "▁proposed": 3895,
      "▁remarks": 3896,
      "oration": 3897,
      "­": 3898,
      "▁expected": 3899,
      "▁political": 3900,
      "▁asp": 3901,
      "▁strain": 3902,
      "▁increasing": 3903,
      "▁ties": 3904,
      "▁well": 3905,
      "▁changed": 3906,
      "▁hour": 3907,
      "▁contr": 3908,
      "selve": 3909,
      "ift": 3910,
      "▁surprised": 3911,
      "▁surve": 3912,
      "o": 3913,
      "uts": 3914,
      "▁shelf": 3915,
      "▁uni": 3916,
      "▁dam": 3917,
      "▁grape": 3918,
      "▁‘’": 3919,
      "ould": 3920,
      "▁horses": 3921,
      "▁revers": 3922,
      "▁z": 3923,
      "▁shared": 3924,
      "ult": 3925,
      "abit": 3926,
      "œ": 3927,
      "ain": 3928,
      "▁declined": 3929,
      "am": 3930,
      "▁candle": 3931,
      "▁dollars": 3932,
      "▁anywhere": 3933,
      "en": 3934,
      "ml": 3935,
      "▁demand": 3936,
      "▁num": 3937,
      "▁thrown": 3938,
      "otion": 3939,
      "▁bumble": 3940,
      "▁offering": 3941,
      "rael": 3942,
      "▁limb": 3943,
      "uch": 3944,
      "▁gotten": 3945,
      "▁addiction": 3946,
      "plus": 3947,
      "▁worm": 3948,
      "▁me": 3949,
      "▁reducing": 3950,
      "▁contained": 3951,
      "▁statements": 3952,
      "▁statis": 3953,
      "▁airlin": 3954,
      "ffic": 3955,
      "affle": 3956,
      "▁pee": 3957,
      "▁bombs": 3958,
      "aces": 3959,
      "▁trou": 3960,
      "▁driver": 3961,
      "▁crops": 3962,
      "▁painting": 3963,
      "++++": 3964,
      "▁mor": 3965,
      "▁signs": 3966,
      "▁don": 3967,
      "ret": 3968,
      "ep": 3969,
      "▁seek": 3970,
      "▁pretend": 3971,
      "▁dri": 3972,
      "▁underst": 3973,
      "▁settlement": 3974,
      "▁first": 3975,
      "▁facing": 3976,
      "▁late": 3977,
      "▁rein": 3978,
      "▁giant": 3979,
      "▁morning": 3980,
      "▁sandwich": 3981,
      "▁average": 3982,
      "cing": 3983,
      "▁months": 3984,
      "▁basil": 3985,
      "▁battle": 3986,
      "▁shel": 3987,
      "▁cas": 3988,
      "corn": 3989,
      "▁procedure": 3990,
      "▁individ": 3991,
      "▁canada": 3992,
      "▁ran": 3993,
      "▁notice": 3994,
      "uter": 3995,
      "ician": 3996,
      "▁clothing": 3997,
      "▁support": 3998,
      "aped": 3999,
      "▁public": 4000,
      "▁along": 4001,
      "▁legs": 4002,
      "▁wrest": 4003,
      "▁defense": 4004,
      "▁aven": 4005,
      "▁suggests": 4006,
      "@": 4007,
      "tise": 4008,
      "esty": 4009,
      "tiles": 4010,
      "coon": 4011,
      "▁killed": 4012,
      "▁chees": 4013,
      "▁philosoph": 4014,
      "ruption": 4015,
      "▁transmed": 4016,
      "▁earthqu": 4017,
      "▁electricity": 4018,
      "▁view": 4019,
      "▁advertis": 4020,
      "arked": 4021,
      "▁consequences": 4022,
      "▁yours": 4023,
      "▁we": 4024,
      "▁fee": 4025,
      "▁choose": 4026,
      "▁prec": 4027,
      "ait": 4028,
      "▁dist": 4029,
      "▁if": 4030,
      "ity": 4031,
      "▁regret": 4032,
      "▁home": 4033,
      "▁progr": 4034,
      "▁relationships": 4035,
      "▁ex": 4036,
      "aff": 4037,
      "ody": 4038,
      "▁mixture": 4039,
      "▁walking": 4040,
      "▁certainly": 4041,
      "▁tun": 4042,
      "▁forwar": 4043,
      "▁recipe": 4044,
      "▁iraq": 4045,
      "other": 4046,
      "▁city": 4047,
      "ending": 4048,
      "▁insurance": 4049,
      "▁substance": 4050,
      "▁satel": 4051,
      "▁contract": 4052,
      "▁connection": 4053,
      "▁penny": 4054,
      "▁funding": 4055,
      "▁versions": 4056,
      "angu": 4057,
      "▁anoth": 4058,
      "▁explanation": 4059,
      "▁promotion": 4060,
      "▁defe": 4061,
      "ge": 4062,
      "▁attacked": 4063,
      "▁designer": 4064,
      "oo": 4065,
      "ges": 4066,
      "cularly": 4067,
      "uments": 4068,
      "ounded": 4069,
      "▁cover": 4070,
      "▁indicates": 4071,
      "id": 4072,
      "▁interpreted": 4073,
      "▁bl": 4074,
      "▁conducted": 4075,
      "oved": 4076,
      "▁wake": 4077,
      "iti": 4078,
      "▁reve": 4079,
      "ued": 4080,
      "▁girl": 4081,
      "▁enh": 4082,
      "▁forced": 4083,
      "▁ld": 4084,
      "▁government": 4085,
      "▁concerning": 4086,
      "▁regarding": 4087,
      "▁season": 4088,
      "▁gate": 4089,
      "▁governor": 4090,
      "▁fine": 4091,
      "▁w": 4092,
      "▁booked": 4093,
      "▁rum": 4094,
      "▁inch": 4095,
      "▁esc": 4096,
      "to": 4097,
      "acle": 4098,
      "▁gum": 4099,
      "▁image": 4100,
      "▁arrang": 4101,
      "alog": 4102,
      "▁cultural": 4103,
      "▁exec": 4104,
      "ologist": 4105,
      "▁prevail": 4106,
      "▁sover": 4107,
      "▁waited": 4108,
      "▁hot": 4109,
      "▁begun": 4110,
      "ible": 4111,
      "▁needed": 4112,
      "▁shit": 4113,
      "▁haf": 4114,
      "▁minute": 4115,
      "▁pm": 4116,
      "▁strike": 4117,
      "▁oct": 4118,
      "▁conclusion": 4119,
      "▁examined": 4120,
      "▁credit": 4121,
      "▁company": 4122,
      "▁pod": 4123,
      "ters": 4124,
      "▁die": 4125,
      "▁candidates": 4126,
      "▁tale": 4127,
      "▁pie": 4128,
      "que": 4129,
      "▁scan": 4130,
      "▁tu": 4131,
      "▁lun": 4132,
      "kle": 4133,
      "▁chairs": 4134,
      "▁hea": 4135,
      "▁hasid": 4136,
      "▁words": 4137,
      "▁medicine": 4138,
      "▁given": 4139,
      "▁paragraph": 4140,
      "▁contest": 4141,
      "▁station": 4142,
      "▁lamp": 4143,
      "▁mode": 4144,
      "▁atlanta": 4145,
      "ploy": 4146,
      "ors": 4147,
      "▁entry": 4148,
      "▁advance": 4149,
      "▁critics": 4150,
      "▁judg": 4151,
      "▁once": 4152,
      "▁chicken": 4153,
      "▁reveal": 4154,
      "onna": 4155,
      "▁sec": 4156,
      "▁air": 4157,
      "akes": 4158,
      "inter": 4159,
      "ests": 4160,
      "unic": 4161,
      "se": 4162,
      "hea": 4163,
      "▁poli": 4164,
      "▁hus": 4165,
      "eled": 4166,
      "▁pace": 4167,
      "▁popcorn": 4168,
      "▁pony": 4169,
      "word": 4170,
      "▁um": 4171,
      "▁investi": 4172,
      "lion": 4173,
      "ø": 4174,
      "▁gallon": 4175,
      "▁chosen": 4176,
      "▁cop": 4177,
      "ring": 4178,
      "▁monkey": 4179,
      "▁quality": 4180,
      "▁abo": 4181,
      "▁towards": 4182,
      "my": 4183,
      "▁volume": 4184,
      "▁red": 4185,
      "a": 4186,
      "▁mot": 4187,
      "▁wines": 4188,
      "ah": 4189,
      "ourn": 4190,
      "ac": 4191,
      "▁crit": 4192,
      "nesses": 4193,
      "▁welfare": 4194,
      "▁citi": 4195,
      "▁nations": 4196,
      "ived": 4197,
      "▁opin": 4198,
      "▁technique": 4199,
      "icult": 4200,
      "▁enc": 4201,
      "▁victory": 4202,
      "▁iv": 4203,
      "▁observ": 4204,
      "bo": 4205,
      "▁t": 4206,
      "▁flu": 4207,
      "▁stair": 4208,
      "▁withd": 4209,
      "▁complaint": 4210,
      "▁office": 4211,
      "▁limousine": 4212,
      "utor": 4213,
      "º": 4214,
      "▁leadership": 4215,
      "▁murder": 4216,
      "▁next": 4217,
      "bs": 4218,
      "▁conduct": 4219,
      "▁walked": 4220,
      "▁question": 4221,
      "▁towel": 4222,
      "▁capt": 4223,
      "▁type": 4224,
      "ple": 4225,
      "▁nature": 4226,
      "+": 4227,
      "▁below": 4228,
      "▁constituency": 4229,
      "▁laying": 4230,
      "em": 4231,
      "ague": 4232,
      "▁b/c": 4233,
      "ayed": 4234,
      "uggles": 4235,
      "▁newspaper": 4236,
      "▁switched": 4237,
      "▁notion": 4238,
      "▁web": 4239,
      "▁bug": 4240,
      "▁equival": 4241,
      "▁hard": 4242,
      "▁been": 4243,
      "▁huh": 4244,
      "▁care": 4245,
      "▁cases": 4246,
      "▁pres": 4247,
      "craft": 4248,
      "▁pig": 4249,
      "jo": 4250,
      "oli": 4251,
      "ortant": 4252,
      "▁errors": 4253,
      "▁preferred": 4254,
      "veral": 4255,
      "▁paul": 4256,
      "▁prom": 4257,
      "▁morality": 4258,
      "▁attempts": 4259,
      "▁complete": 4260,
      "ral": 4261,
      "oles": 4262,
      "▁international": 4263,
      "rely": 4264,
      "ting": 4265,
      "▁checking": 4266,
      "otch": 4267,
      "▁lat": 4268,
      "▁ey": 4269,
      "▁soda": 4270,
      "▁documentation": 4271,
      "▁third": 4272,
      "▁carries": 4273,
      "▁breakfast": 4274,
      "▁news": 4275,
      "▁coverage": 4276,
      "▁lantern": 4277,
      "▁money": 4278,
      "▁versus": 4279,
      "ide": 4280,
      "▁brought": 4281,
      "ian": 4282,
      "▁frame": 4283,
      "▁rocket": 4284,
      "rest": 4285,
      "▁sunday": 4286,
      "ients": 4287,
      "▁atop": 4288,
      "▁jacket": 4289,
      "υ": 4290,
      "ket": 4291,
      "▁bits": 4292,
      "▁movie": 4293,
      "▁philosophy": 4294,
      "raction": 4295,
      "93": 4296,
      "aith": 4297,
      "▁occup": 4298,
      "▁freezer": 4299,
      "▁pad": 4300,
      "▁prosp": 4301,
      "▁scen": 4302,
      "▁films": 4303,
      "▁influence": 4304,
      "▁geomet": 4305,
      "works": 4306,
      "▁emp": 4307,
      "ertainly": 4308,
      "▁advis": 4309,
      "▁achieved": 4310,
      "structed": 4311,
      "of": 4312,
      "▁fir": 4313,
      "▁victims": 4314,
      "▁resour": 4315,
      "▁litt": 4316,
      "▁sword": 4317,
      "▁birds": 4318,
      "▁came": 4319,
      "▁focused": 4320,
      "▁speed": 4321,
      "▁characteristics": 4322,
      "▁vegetables": 4323,
      "▁sol": 4324,
      "▁mom": 4325,
      "▁about": 4326,
      "▁mys": 4327,
      "ocent": 4328,
      "▁not": 4329,
      "▁rainbow": 4330,
      "▁juice": 4331,
      "▁camer": 4332,
      "▁comb": 4333,
      "▁comple": 4334,
      "▁debate": 4335,
      "▁explained": 4336,
      "▁should": 4337,
      "▁scenar": 4338,
      "ios": 4339,
      "▁loved": 4340,
      "ood": 4341,
      "▁entering": 4342,
      "rently": 4343,
      "▁citizens": 4344,
      "▁low": 4345,
      "______": 4346,
      "▁hill": 4347,
      "▁degree": 4348,
      "♥": 4349,
      "▁reflect": 4350,
      "▁s": 4351,
      "cakes": 4352,
      "ka": 4353,
      "▁chickens": 4354,
      "acing": 4355,
      "ild": 4356,
      "▁mess": 4357,
      "att": 4358,
      "▁held": 4359,
      "▁hal": 4360,
      "▁category": 4361,
      "▁ref": 4362,
      "▁attitudes": 4363,
      "▁kicked": 4364,
      "▁alread": 4365,
      "▁orders": 4366,
      "▁cloth": 4367,
      "ank": 4368,
      "▁realize": 4369,
      "esday": 4370,
      "▁survived": 4371,
      "ich": 4372,
      "▁lan": 4373,
      "▁coun": 4374,
      "▁crossing": 4375,
      "▁counterparty": 4376,
      "▁oblig": 4377,
      "ck": 4378,
      "▁production": 4379,
      "outs": 4380,
      "▁arrives": 4381,
      "▁handed": 4382,
      "▁dioxide": 4383,
      "▁planned": 4384,
      "▁plans": 4385,
      "▁obtain": 4386,
      "▁sales": 4387,
      "▁detective": 4388,
      "▁depend": 4389,
      "▁destruc": 4390,
      "scrib": 4391,
      "▁crap": 4392,
      "▁shops": 4393,
      "opath": 4394,
      "▁tot": 4395,
      "▁correspond": 4396,
      "▁mat": 4397,
      "▁fat": 4398,
      "tally": 4399,
      "war": 4400,
      "oses": 4401,
      "▁bit": 4402,
      "▁16": 4403,
      "▁seas": 4404,
      "▁communities": 4405,
      "▁stress": 4406,
      "▁ten": 4407,
      "▁ask": 4408,
      "▁guidance": 4409,
      "▁environments": 4410,
      "▁im": 4411,
      "ho": 4412,
      "▁fax": 4413,
      "▁like": 4414,
      "▁|--------+----------------": 4415,
      "ots": 4416,
      "ʃ": 4417,
      "▁mathematics": 4418,
      "▁culture": 4419,
      "▁surpr": 4420,
      "▁friday": 4421,
      "ows": 4422,
      "▁poor": 4423,
      "▁surp": 4424,
      "▁wild": 4425,
      "▁preserve": 4426,
      "▁it": 4427,
      "▁sy": 4428,
      "▁install": 4429,
      "▁performance": 4430,
      "▁stic": 4431,
      "▁handling": 4432,
      "inoc": 4433,
      "▁surr": 4434,
      "ugg": 4435,
      "▁plus": 4436,
      "urn": 4437,
      "▁.......": 4438,
      "▁santorum": 4439,
      "**": 4440,
      "ements": 4441,
      "▁tip": 4442,
      "resent": 4443,
      "ansas": 4444,
      "▁wars": 4445,
      "▁scenario": 4446,
      "▁deals": 4447,
      "▁stomach": 4448,
      "▁fly": 4449,
      "▁wilt": 4450,
      "▁ke": 4451,
      "ields": 4452,
      "▁incitement": 4453,
      "9": 4454,
      "▁invol": 4455,
      "▁eff": 4456,
      "▁finally": 4457,
      "▁guid": 4458,
      "▁mother": 4459,
      "▁proved": 4460,
      "olution": 4461,
      "▁arms": 4462,
      "▁smiling": 4463,
      "▁regre": 4464,
      "▁soli": 4465,
      "▁priv": 4466,
      "▁tomatoes": 4467,
      "d-": 4468,
      "▁episode": 4469,
      "▁spending": 4470,
      "▁variety": 4471,
      "▁ready": 4472,
      "▁notic": 4473,
      "▁driving": 4474,
      "ons": 4475,
      "▁update": 4476,
      "auc": 4477,
      "▁boot": 4478,
      "▁candid": 4479,
      "▁track": 4480,
      "▁printed": 4481,
      "▁texts": 4482,
      "▁july": 4483,
      "▁concluded": 4484,
      "▁enti": 4485,
      "perity": 4486,
      "▁wood": 4487,
      "iously": 4488,
      "▁hang": 4489,
      "ache": 4490,
      "▁donations": 4491,
      "▁winning": 4492,
      "▁tail": 4493,
      "▁astr": 4494,
      "▁prefer": 4495,
      "ooth": 4496,
      "▁rock": 4497,
      "▁fellows": 4498,
      "▁raining": 4499,
      "▁comparison": 4500,
      "▁resource": 4501,
      "oon": 4502,
      "ancy": 4503,
      "alism": 4504,
      "▁seeking": 4505,
      "elt": 4506,
      "▁existing": 4507,
      "▁national": 4508,
      "▁calc": 4509,
      "ilize": 4510,
      "▁phrase": 4511,
      "▁views": 4512,
      "▁involve": 4513,
      "rectly": 4514,
      "▁disease": 4515,
      "▁guys": 4516,
      "▁ur": 4517,
      "▁detro": 4518,
      "▁sister": 4519,
      "qui": 4520,
      "▁only": 4521,
      "▁opp": 4522,
      "▁beneath": 4523,
      "▁refin": 4524,
      "▁promote": 4525,
      "▁.....": 4526,
      "▁---------------------------------------------------------------------------": 4527,
      "▁pred": 4528,
      "▁rat": 4529,
      "▁!!!!!!!!!!": 4530,
      "▁natural": 4531,
      "▁appreciated": 4532,
      "al": 4533,
      "aves": 4534,
      "▁'em": 4535,
      "ycle": 4536,
      "▁damage": 4537,
      "ods": 4538,
      "▁aims": 4539,
      "▁assistant": 4540,
      "▁madam": 4541,
      "▁he": 4542,
      "▁applying": 4543,
      "▁rule": 4544,
      "▁fishing": 4545,
      "▁doc": 4546,
      "▁grill": 4547,
      "▁whether": 4548,
      "ours": 4549,
      "nut": 4550,
      "▁principle": 4551,
      "aughters": 4552,
      "▁reports": 4553,
      "formed": 4554,
      "▁neighbors": 4555,
      "jec": 4556,
      "lan": 4557,
      "▁senators": 4558,
      "▁mood": 4559,
      "ets": 4560,
      "▁alliance": 4561,
      "▁emissions": 4562,
      "ens": 4563,
      "▁novels": 4564,
      "▁exam": 4565,
      "▁preparing": 4566,
      "▁section": 4567,
      "▁pack": 4568,
      "ision": 4569,
      "▁selection": 4570,
      "uk": 4571,
      "▁library": 4572,
      "ede": 4573,
      "▁stol": 4574,
      "ared": 4575,
      "▁unless": 4576,
      "▁tips": 4577,
      "▁back": 4578,
      "▁decades": 4579,
      "▁piece": 4580,
      "▁tent": 4581,
      "ried": 4582,
      "▁imag": 4583,
      "▁appreciate": 4584,
      "▁survey": 4585,
      "▁edition": 4586,
      "▁contin": 4587,
      "▁noticed": 4588,
      "▁maintained": 4589,
      "▁parakeet": 4590,
      "▁pub": 4591,
      "▁pets": 4592,
      "▁just": 4593,
      "▁discuss": 4594,
      "▁fingers": 4595,
      "wor": 4596,
      "▁rele": 4597,
      "▁slice": 4598,
      "ar": 4599,
      "▁boom": 4600,
      "▁achievements": 4601,
      "▁jellyfish": 4602,
      "▁spec": 4603,
      "▁tri": 4604,
      "▁ocean": 4605,
      "▁sens": 4606,
      "▁bel": 4607,
      "ict": 4608,
      "▁early": 4609,
      "------->": 4610,
      "▁pizza": 4611,
      "▁streets": 4612,
      "▁----------------------------------------------------------------------": 4613,
      "▁reven": 4614,
      "time": 4615,
      "(": 4616,
      "..": 4617,
      "▁practice": 4618,
      "▁friends": 4619,
      "▁solid": 4620,
      "▁af": 4621,
      "▁summary": 4622,
      "▁capac": 4623,
      "▁beside": 4624,
      "▁mile": 4625,
      "▁reply": 4626,
      "yn": 4627,
      "▁temples": 4628,
      "▁gon": 4629,
      "g": 4630,
      "uma": 4631,
      "▁etc": 4632,
      "▁teasp": 4633,
      "▁tummy": 4634,
      "▁interviewed": 4635,
      "ien": 4636,
      "ily": 4637,
      "▁several": 4638,
      "iving": 4639,
      "▁degre": 4640,
      "▁address": 4641,
      "▁swung": 4642,
      "▁intel": 4643,
      "ong": 4644,
      "▁age": 4645,
      "▁re-": 4646,
      "ici": 4647,
      "13": 4648,
      "ru": 4649,
      "▁running": 4650,
      "▁transl": 4651,
      "▁cord": 4652,
      "==": 4653,
      "omm": 4654,
      "ical": 4655,
      "▁combination": 4656,
      "▁camera": 4657,
      "kes": 4658,
      "▁b/": 4659,
      "▁’d": 4660,
      "ms": 4661,
      "gement": 4662,
      "/": 4663,
      "▁habit": 4664,
      "▁seekers": 4665,
      "ough": 4666,
      "eapolis": 4667,
      "aking": 4668,
      "▁hams": 4669,
      "pop": 4670,
      "▁shock": 4671,
      "▁veter": 4672,
      "▁referred": 4673,
      "▁carol": 4674,
      "vert": 4675,
      "▁quinn": 4676,
      "▁kitchen": 4677,
      "▁dou": 4678,
      "▁bye": 4679,
      "▁rub": 4680,
      "ɔ": 4681,
      "▁query": 4682,
      "▁sell": 4683,
      "▁appears": 4684,
      "▁body": 4685,
      "▁study": 4686,
      "used": 4687,
      "▁chic": 4688,
      "▁police": 4689,
      "▁phil": 4690,
      "▁argu": 4691,
      "▁": 4692,
      "mo": 4693,
      "▁daily": 4694,
      "▁up": 4695,
      "▁poster": 4696,
      "une": 4697,
      "▁exploration": 4698,
      "ory": 4699,
      "▁kn": 4700,
      "▁imagined": 4701,
      "▁periods": 4702,
      "▁reasons": 4703,
      "inder": 4704,
      "▁free": 4705,
      "▁last": 4706,
      "▁species": 4707,
      "▁motorcycle": 4708,
      "▁hospital": 4709,
      "▁landscape": 4710,
      "▁son": 4711,
      "▁enjo": 4712,
      "▁having": 4713,
      "▁determined": 4714,
      "n": 4715,
      "eared": 4716,
      "▁aid": 4717,
      "▁colour": 4718,
      "eng": 4719,
      "▁named": 4720,
      "aroni": 4721,
      "▁dat": 4722,
      "▁nest": 4723,
      "▁deficiency": 4724,
      "▁accomplish": 4725,
      "ock": 4726,
      "▁platform": 4727,
      "▁parents": 4728,
      "▁withdraw": 4729,
      "▁paperwork": 4730,
      "▁closing": 4731,
      "▁cheap": 4732,
      "▁fall": 4733,
      "▁certific": 4734,
      "cean": 4735,
      "▁quick": 4736,
      "▁owners": 4737,
      "▁reconciliation": 4738,
      "▁pay": 4739,
      "▁jan": 4740,
      "hood": 4741,
      "ago": 4742,
      "▁tops": 4743,
      "▁soc": 4744,
      "▁movement": 4745,
      "▁expansion": 4746,
      "▁added": 4747,
      "agement": 4748,
      "▁illust": 4749,
      "oil": 4750,
      "▁basis": 4751,
      "▁imagine": 4752,
      "▁bot": 4753,
      "uff": 4754,
      "▁uses": 4755,
      "▁mech": 4756,
      "▁collaboration": 4757,
      "▁promised": 4758,
      "▁elements": 4759,
      "▁extension": 4760,
      "▁strategy": 4761,
      "▁divers": 4762,
      "aced": 4763,
      "▁way": 4764,
      "west": 4765,
      "nia": 4766,
      "umb": 4767,
      "▁elections": 4768,
      "▁questions": 4769,
      "▁denti": 4770,
      "▁sharing": 4771,
      "ensity": 4772,
      "▁examination": 4773,
      "▁head": 4774,
      "▁pan": 4775,
      "▁filter": 4776,
      "▁rolls": 4777,
      "ember": 4778,
      "liance": 4779,
      "▁tex": 4780,
      "▁conse": 4781,
      "▁nights": 4782,
      "▁plants": 4783,
      "▁certificate": 4784,
      "▁spl": 4785,
      "▁weekend": 4786,
      "▁facil": 4787,
      "▁joke": 4788,
      "▁warming": 4789,
      "▁knee": 4790,
      "▁chairman": 4791,
      "▁ab": 4792,
      "▁serves": 4793,
      "▁drank": 4794,
      "▁sink": 4795,
      "▁headed": 4796,
      "▁dreams": 4797,
      "▁perio": 4798,
      "▁lifesty": 4799,
      "arl": 4800,
      "▁ele": 4801,
      "▁lying": 4802,
      "ensions": 4803,
      "▁reputation": 4804,
      "????????": 4805,
      "▁mur": 4806,
      "▁sac": 4807,
      "▁resistance": 4808,
      "▁lit": 4809,
      "▁tension": 4810,
      "▁anybody": 4811,
      "▁http://www.": 4812,
      "▁pulling": 4813,
      "▁alar": 4814,
      "▁dad": 4815,
      "esthe": 4816,
      "▁su": 4817,
      "▁tom": 4818,
      "▁laughter": 4819,
      "▁pool": 4820,
      "▁trends": 4821,
      "▁polar": 4822,
      "▁hav": 4823,
      "be": 4824,
      "▁cries": 4825,
      "book": 4826,
      "uzz": 4827,
      "ape": 4828,
      "▁publication": 4829,
      "▁amendment": 4830,
      "▁--": 4831,
      "▁counsel": 4832,
      "▁community": 4833,
      "ν": 4834,
      "▁village": 4835,
      "▁panel": 4836,
      "ice": 4837,
      "▁---------------------------------------------------------------------": 4838,
      "▁systems": 4839,
      "▁realism": 4840,
      "▁conn": 4841,
      "▁circle": 4842,
      "uration": 4843,
      "▁bulb": 4844,
      "low": 4845,
      "isions": 4846,
      "atory": 4847,
      "gue": 4848,
      "ts": 4849,
      "▁mus": 4850,
      "▁ic": 4851,
      "▁who's": 4852,
      "▁condition": 4853,
      "▁airplan": 4854,
      "▁missiles": 4855,
      "▁potential": 4856,
      "ud": 4857,
      "▁loves": 4858,
      "▁territory": 4859,
      "itional": 4860,
      "▁mathematician": 4861,
      "aly": 4862,
      "▁---": 4863,
      "▁har": 4864,
      "▁mum": 4865,
      "zac": 4866,
      "▁scre": 4867,
      "▁spears": 4868,
      "▁tragedies": 4869,
      "8": 4870,
      "mentation": 4871,
      "▁mommy": 4872,
      "▁garden": 4873,
      "▁cour": 4874,
      "rax": 4875,
      "▁swww": 4876,
      "▁brush": 4877,
      "▁transportation": 4878,
      "▁regist": 4879,
      "▁cages": 4880,
      "▁perhap": 4881,
      "▁appreciation": 4882,
      "ures": 4883,
      "▁wind": 4884,
      "iam": 4885,
      "ucks": 4886,
      "▁brother": 4887,
      "arm": 4888,
      "▁moving": 4889,
      "▁you": 4890,
      "▁fort": 4891,
      "▁come": 4892,
      "▁sequ": 4893,
      "▁watched": 4894,
      "▁european": 4895,
      "cope": 4896,
      "erc": 4897,
      ")": 4898,
      "▁adopted": 4899,
      "▁km": 4900,
      "▁click": 4901,
      "oxide": 4902,
      "▁le": 4903,
      "ς": 4904,
      "▁l": 4905,
      "case": 4906,
      ".m": 4907,
      "▁strip": 4908,
      "▁er": 4909,
      "▁initi": 4910,
      "▁jeans": 4911,
      "▁emails": 4912,
      "▁millions": 4913,
      "im": 4914,
      "▁music": 4915,
      "▁map": 4916,
      "ailed": 4917,
      "▁data": 4918,
      "ance": 4919,
      "▁materials": 4920,
      "▁av": 4921,
      "▁sizes": 4922,
      "▁december": 4923,
      "▁acquired": 4924,
      "▁en": 4925,
      "▁sant": 4926,
      "▁arch": 4927,
      "▁sauce": 4928,
      "▁hed": 4929,
      "▁legislature": 4930,
      "▁count": 4931,
      "▁joined": 4932,
      "▁comput": 4933,
      "ounced": 4934,
      "▁hurt": 4935,
      "▁estim": 4936,
      "▁energy": 4937,
      "▁sheet": 4938,
      "▁fi": 4939,
      "▁recognized": 4940,
      "▁act": 4941,
      "ung": 4942,
      "▁navy": 4943,
      "▁buc": 4944,
      "▁municip": 4945,
      "fully": 4946,
      "▁hate": 4947,
      "▁equality": 4948,
      "▁anim": 4949,
      "▁position": 4950,
      "▁coast": 4951,
      "cre": 4952,
      "▁suggestion": 4953,
      "ights": 4954,
      "rent": 4955,
      "▁sometimes": 4956,
      "▁dc": 4957,
      "mely": 4958,
      "▁recording": 4959,
      "▁expressed": 4960,
      "▁symbol": 4961,
      "▁bill": 4962,
      "▁off": 4963,
      "▁overalls": 4964,
      "▁beh": 4965,
      "▁traveled": 4966,
      "▁supported": 4967,
      "▁tour": 4968,
      "▁rom": 4969,
      "iring": 4970,
      "▁yard": 4971,
      "▁defin": 4972,
      "▁affect": 4973,
      "▁helps": 4974,
      "▁deaths": 4975,
      "ele": 4976,
      "▁hearts": 4977,
      "▁solutions": 4978,
      "▁microscope": 4979,
      "▁waiter": 4980,
      "▁heat": 4981,
      "▁eval": 4982,
      "rew": 4983,
      "▁fro": 4984,
      "σ": 4985,
      "▁cupcake": 4986,
      "▁hobby": 4987,
      "▁recommendations": 4988,
      "▁mission": 4989,
      "▁parliament": 4990,
      "wic": 4991,
      "▁because": 4992,
      "▁becoming": 4993,
      "▁swimming": 4994,
      "▁cousin": 4995,
      "▁cowboy": 4996,
      "▁resume": 4997,
      "roleum": 4998,
      "oe": 4999,
      "▁tasted": 5000,
      "▁tag": 5001,
      "▁patience": 5002,
      "▁invitation": 5003,
      "ink": 5004,
      "▁holiday": 5005,
      "usted": 5006,
      "fort": 5007,
      "▁quinoa": 5008,
      "▁paused": 5009,
      "▁nat": 5010,
      "▁attr": 5011,
      "▁rubber": 5012,
      "▁evaluation": 5013,
      "▁spotted": 5014,
      "▁user": 5015,
      "acts": 5016,
      "ference": 5017,
      "▁boats": 5018,
      "▁operate": 5019,
      "▁!!!!!!!!!!!!!!!!!!!": 5020,
      "tices": 5021,
      "inger": 5022,
      "ou": 5023,
      "ton": 5024,
      "▁used": 5025,
      "▁brand": 5026,
      "▁reform": 5027,
      "▁investment": 5028,
      "▁fright": 5029,
      "▁impris": 5030,
      "ax": 5031,
      "▁bridge": 5032,
      "▁garb": 5033,
      "▁distributed": 5034,
      "dered": 5035,
      "▁fab": 5036,
      "—": 5037,
      "▁sh": 5038,
      "owled": 5039,
      "▁take": 5040,
      "▁forg": 5041,
      "▁actions": 5042,
      "▁load": 5043,
      "▁hop": 5044,
      "▁top": 5045,
      "▁puppy": 5046,
      "▁napkin": 5047,
      "▁forth": 5048,
      "▁suppose": 5049,
      "▁lived": 5050,
      "▁pencil": 5051,
      "▁ho": 5052,
      "▁pow": 5053,
      "▁depending": 5054,
      "eries": 5055,
      "▁categ": 5056,
      "cked": 5057,
      "-w": 5058,
      "▁pitch": 5059,
      "▁airports": 5060,
      "▁listened": 5061,
      "▁hope": 5062,
      "▁questioned": 5063,
      "▁assessment": 5064,
      "▁seen": 5065,
      "udes": 5066,
      "cha": 5067,
      "▁sel": 5068,
      "▁assoc": 5069,
      "▁upon": 5070,
      "▁license": 5071,
      "▁understand": 5072,
      "▁liter": 5073,
      "▁baseball": 5074,
      "▁sett": 5075,
      "eal": 5076,
      "ov": 5077,
      "▁din": 5078,
      "ivid": 5079,
      "▁model": 5080,
      "icide": 5081,
      "▁quartile": 5082,
      "▁frozen": 5083,
      "ager": 5084,
      "▁:?": 5085,
      "man": 5086,
      "▁find": 5087,
      "▁tax": 5088,
      "▁census": 5089,
      "▁include": 5090,
      "▁playwright": 5091,
      "▁corp": 5092,
      "▁learning": 5093,
      "▁code": 5094,
      "ront": 5095,
      "waukee": 5096,
      "anks": 5097,
      "▁suggestions": 5098,
      "ling": 5099,
      "▁cabb": 5100,
      "igrants": 5101,
      "▁intentions": 5102,
      "▁directions": 5103,
      "▁san": 5104,
      "rem": 5105,
      "▁rh": 5106,
      "top": 5107,
      "▁published": 5108,
      "▁pir": 5109,
      "▁wal": 5110,
      "▁hom": 5111,
      "bit": 5112,
      "▁recorded": 5113,
      "▁attorney": 5114,
      "▁crayons": 5115,
      "emb": 5116,
      "▁communic": 5117,
      "▁offers": 5118,
      "▁afternoon": 5119,
      "▁elephant": 5120,
      "▁contribute": 5121,
      "▁object": 5122,
      "▁seeing": 5123,
      "▁rib": 5124,
      "▁assault": 5125,
      "▁participants": 5126,
      "sive": 5127,
      "▁apartment": 5128,
      "▁ursula": 5129,
      "▁repeat": 5130,
      "▁outfit": 5131,
      "▁tolerate": 5132,
      "ox": 5133,
      "▁keeping": 5134,
      "▁k": 5135,
      "▁gras": 5136,
      "▁listening": 5137,
      "enef": 5138,
      "▁fur": 5139,
      "▁risks": 5140,
      "rition": 5141,
      "▁parake": 5142,
      "tuce": 5143,
      "ulating": 5144,
      "▁log": 5145,
      "▁meas": 5146,
      "▁mud": 5147,
      "▁doggie": 5148,
      "▁water": 5149,
      "▁master": 5150,
      "ities": 5151,
      "▁access": 5152,
      "itement": 5153,
      "▁resear": 5154,
      "tes": 5155,
      "▁carry": 5156,
      "▁avo": 5157,
      "▁half": 5158,
      "▁prison": 5159,
      "▁seats": 5160,
      "▁stepping": 5161,
      "ran": 5162,
      "yr": 5163,
      "ue": 5164,
      "▁think": 5165,
      "ote": 5166,
      "▁gn": 5167,
      "▁does": 5168,
      "▁soul": 5169,
      "▁!!": 5170,
      "▁creation": 5171,
      "wh": 5172,
      "▁rep": 5173,
      "▁apply": 5174,
      "▁soon": 5175,
      "▁tac": 5176,
      "▁knoc": 5177,
      "▁allig": 5178,
      "▁turb": 5179,
      "▁drops": 5180,
      "▁agreement": 5181,
      "▁properties": 5182,
      "down": 5183,
      "▁requirements": 5184,
      "row": 5185,
      "▁amount": 5186,
      "set": 5187,
      "▁executed": 5188,
      "▁system": 5189,
      "▁eur": 5190,
      "▁fo": 5191,
      "▁soldier": 5192,
      "▁app": 5193,
      "tics": 5194,
      "ality": 5195,
      "▁americ": 5196,
      "▁7": 5197,
      "▁drop": 5198,
      "itals": 5199,
      "▁cycle": 5200,
      "▁schol": 5201,
      "▁suffered": 5202,
      "▁c": 5203,
      "▁tast": 5204,
      "▁belt": 5205,
      "▁penc": 5206,
      "'s": 5207,
      "▁knowledge": 5208,
      "▁when": 5209,
      "▁worn": 5210,
      "▁charges": 5211,
      "▁islamists": 5212,
      "▁engine": 5213,
      "essing": 5214,
      "unction": 5215,
      "▁understanding": 5216,
      "▁conflic": 5217,
      "▁teaching": 5218,
      "orrow": 5219,
      "▁smoke": 5220,
      "tingu": 5221,
      "ali": 5222,
      "▁parks": 5223,
      "▁salad": 5224,
      "itical": 5225,
      "▁funnel": 5226,
      "▁yellow": 5227,
      "▁mice": 5228,
      "▁citiz": 5229,
      "▁effects": 5230,
      "▁accompanied": 5231,
      "▁bone": 5232,
      "▁wil": 5233,
      "▁settings": 5234,
      "▁ribbon": 5235,
      "▁lost": 5236,
      "▁agree": 5237,
      "inction": 5238,
      "▁ladder": 5239,
      "▁refer": 5240,
      "▁drawn": 5241,
      "▁work": 5242,
      "ambment": 5243,
      "▁member": 5244,
      "▁suicide": 5245,
      "▁ladies": 5246,
      "▁let": 5247,
      "▁new": 5248,
      "▁solution": 5249,
      "▁’": 5250,
      "▁harmon": 5251,
      "▁goals": 5252,
      "▁starting": 5253,
      "▁grew": 5254,
      "▁colle": 5255,
      "▁enable": 5256,
      "▁negot": 5257,
      "▁commitments": 5258,
      "▁increase": 5259,
      "▁us": 5260,
      "▁content": 5261,
      "▁miracle": 5262,
      "▁indianapolis": 5263,
      "▁applications": 5264,
      "▁earlier": 5265,
      "ating": 5266,
      "▁realized": 5267,
      "▁warned": 5268,
      "▁rabbit": 5269,
      "th": 5270,
      "▁within": 5271,
      "▁bor": 5272,
      "▁beet": 5273,
      "zen": 5274,
      "▁clown": 5275,
      "▁langu": 5276,
      "cent": 5277,
      "▁describe": 5278,
      "ased": 5279,
      "▁pron": 5280,
      "▁lou": 5281,
      "▁professor": 5282,
      "▁ends": 5283,
      "▁indic": 5284,
      "▁spell": 5285,
      "▁tools": 5286,
      "▁realised": 5287,
      "▁diplom": 5288,
      "▁minn": 5289,
      "▁types": 5290,
      "▁sto": 5291,
      "▁staying": 5292,
      "▁behalf": 5293,
      "▁aw": 5294,
      "▁saved": 5295,
      "▁la": 5296,
      "▁opens": 5297,
      "▁tw": 5298,
      "▁woud": 5299,
      "▁reflection": 5300,
      "▁analyst": 5301,
      "▁haircut": 5302,
      "▁evolved": 5303,
      "▁geor": 5304,
      "ered": 5305,
      "bility": 5306,
      "ad": 5307,
      "▁filled": 5308,
      "▁worth": 5309,
      "icke": 5310,
      "▁salt": 5311,
      "▁egg": 5312,
      "▁globe": 5313,
      "unc": 5314,
      "▁scribble": 5315,
      "▁impl": 5316,
      "▁moves": 5317,
      "▁visits": 5318,
      "…": 5319,
      "▁route": 5320,
      "▁op": 5321,
      "ated": 5322,
      "▁-----------------------------------------------------------------------": 5323,
      "▁theme": 5324,
      "ince": 5325,
      "▁roof": 5326,
      "ive": 5327,
      "▁attempted": 5328,
      "▁perf": 5329,
      "▁tow": 5330,
      "▁mosquito": 5331,
      "▁trouble": 5332,
      "▁viol": 5333,
      "▁mailings": 5334,
      "▁notw": 5335,
      "▁mistake": 5336,
      "▁contents": 5337,
      "orate": 5338,
      "▁fre": 5339,
      "ers": 5340,
      "▁duel": 5341,
      "▁penalty": 5342,
      "idents": 5343,
      "erve": 5344,
      "▁drill": 5345,
      "▁plaster": 5346,
      "▁efforts": 5347,
      "▁wondering": 5348,
      "▁categories": 5349,
      "▁pr": 5350,
      "▁gallery": 5351,
      "▁highl": 5352,
      "2": 5353,
      "roduction": 5354,
      "aps": 5355,
      "▁tric": 5356,
      "▁crash": 5357,
      "▁vegetable": 5358,
      "▁opened": 5359,
      "▁accommod": 5360,
      "▁cer": 5361,
      "▁london": 5362,
      "dly": 5363,
      "▁ballet": 5364,
      "▁bulldozer": 5365,
      "▁fing": 5366,
      "▁dom": 5367,
      "viously": 5368,
      "▁retired": 5369,
      "av": 5370,
      "▁bil": 5371,
      "issed": 5372,
      "pathy": 5373,
      "▁sha": 5374,
      "str": 5375,
      "▁veg": 5376,
      "rib": 5377,
      "▁com": 5378,
      "▁full": 5379,
      "▁…": 5380,
      "▁branches": 5381,
      "▁games": 5382,
      "▁pillow": 5383,
      "ired": 5384,
      "▁shoulders": 5385,
      "▁wave": 5386,
      "▁feed": 5387,
      "▁teach": 5388,
      "▁dose": 5389,
      "▁11": 5390,
      "▁burden": 5391,
      "▁gets": 5392,
      "if": 5393,
      "▁fell": 5394,
      "▁blame": 5395,
      "gle": 5396,
      "▁facility": 5397,
      "▁destroy": 5398,
      "▁edge": 5399,
      "ns": 5400,
      "▁shadow": 5401,
      "▁john": 5402,
      "▁expertise": 5403,
      "#": 5404,
      "▁weekends": 5405,
      "▁bud": 5406,
      "▁memoir": 5407,
      "ˈ": 5408,
      "▁cut": 5409,
      "▁rooms": 5410,
      "▁failed": 5411,
      "▁anything": 5412,
      "▁kiss": 5413,
      "▁continued": 5414,
      ":": 5415,
      "▁dollie": 5416,
      "▁reduction": 5417,
      "▁ceo": 5418,
      "▁gh": 5419,
      "▁interpretation": 5420,
      "▁francisco": 5421,
      "tled": 5422,
      "▁farm": 5423,
      "▁hall": 5424,
      "fact": 5425,
      "▁cere": 5426,
      "▁someth": 5427,
      "▁mid-": 5428,
      "▁citizen": 5429,
      "icals": 5430,
      "▁facul": 5431,
      "▁foundation": 5432,
      "▁babies": 5433,
      "▁regulations": 5434,
      "▁ports": 5435,
      "ite": 5436,
      "ills": 5437,
      "▁climb": 5438,
      "▁wik": 5439,
      "▁poop": 5440,
      "▁hy": 5441,
      "▁tub": 5442,
      "ker": 5443,
      "▁laughing": 5444,
      "mping": 5445,
      "▁legal": 5446,
      "oth": 5447,
      "▁offices": 5448,
      "▁provisions": 5449,
      "▁alt.": 5450,
      "▁owe": 5451,
      "ked": 5452,
      "▁struggle": 5453,
      "▁receiving": 5454,
      "▁journ": 5455,
      "▁pronounced": 5456,
      "▁var": 5457,
      "ification": 5458,
      "▁_____": 5459,
      "▁digging": 5460,
      "▁failure": 5461,
      "▁east": 5462,
      "kin": 5463,
      "▁....................": 5464,
      "▁square": 5465,
      "▁hearings": 5466,
      "enture": 5467,
      "▁hur": 5468,
      "the": 5469,
      "▁recent": 5470,
      "▁meeting": 5471,
      "encies": 5472,
      "▁fighter": 5473,
      "▁too": 5474,
      "▁worry": 5475,
      "ls": 5476,
      "▁rad": 5477,
      "▁markets": 5478,
      "▁sons": 5479,
      "▁teacher": 5480,
      "▁shadows": 5481,
      "▁bul": 5482,
      "▁organizations": 5483,
      "areness": 5484,
      "▁frost": 5485,
      "▁doll": 5486,
      "enth": 5487,
      "igh": 5488,
      "▁cartoons": 5489,
      "▁conclu": 5490,
      "▁thy": 5491,
      "ly": 5492,
      "▁directive": 5493,
      "▁surprise": 5494,
      "auce": 5495,
      "iz": 5496,
      "ozer": 5497,
      "▁marriage": 5498,
      ".c": 5499,
      "anded": 5500,
      "▁tree": 5501,
      "ward": 5502,
      "▁rights": 5503,
      "▁calend": 5504,
      "▁companies": 5505,
      "▁suck": 5506,
      "▁cereal": 5507,
      "▁fight": 5508,
      "▁consciousness": 5509,
      "▁that": 5510,
      "sts": 5511,
      "boy": 5512,
      "▁paths": 5513,
      "????": 5514,
      "ick": 5515,
      "▁enron": 5516,
      "▁get": 5517,
      "▁leads": 5518,
      "▁obs": 5519,
      "aker": 5520,
      "centi": 5521,
      "▁labor": 5522,
      "▁continental": 5523,
      "aring": 5524,
      "lor": 5525,
      "\"": 5526,
      "▁pract": 5527,
      "▁ginger": 5528,
      "▁chall": 5529,
      "ured": 5530,
      "▁definitely": 5531,
      "▁they": 5532,
      "▁identi": 5533,
      "king": 5534,
      "▁une": 5535,
      "▁student": 5536,
      "▁lif": 5537,
      "onom": 5538,
      "▁organ": 5539,
      "▁cous": 5540,
      "▁shopping": 5541,
      "-c": 5542,
      "▁tomorrow": 5543,
      "▁cabin": 5544,
      "▁into": 5545,
      "▁stated": 5546,
      "▁indicated": 5547,
      "▁phenomenon": 5548,
      "▁calls": 5549,
      "▁ourselves": 5550,
      "▁soldi": 5551,
      "▁passing": 5552,
      "▁plaintiff": 5553,
      "▁flies": 5554,
      "▁judge": 5555,
      "▁privacy": 5556,
      "▁peoples": 5557,
      "▁coach": 5558,
      "▁large": 5559,
      "▁uncer": 5560,
      "▁doubts": 5561,
      "▁fungi": 5562,
      "▁true": 5563,
      "▁teen": 5564,
      "▁dating": 5565,
      "μ": 5566,
      "cer": 5567,
      "▁essence": 5568,
      "▁her": 5569,
      "avi": 5570,
      "▁happens": 5571,
      "▁form": 5572,
      "▁piz": 5573,
      "arks": 5574,
      "▁discount": 5575,
      "▁collected": 5576,
      "ener": 5577,
      "ummy": 5578,
      "▁camel": 5579,
      "ition": 5580,
      "▁hanging": 5581,
      "▁cig": 5582,
      "▁developments": 5583,
      "▁recru": 5584,
      "▁bath": 5585,
      "▁dividends": 5586,
      "▁discip": 5587,
      "▁smelled": 5588,
      "inc": 5589,
      "oul": 5590,
      "▁screwdriver": 5591,
      "▁sugg": 5592,
      "▁reserv": 5593,
      "▁parties": 5594,
      "orms": 5595,
      "▁becomes": 5596,
      "▁those": 5597,
      "ema": 5598,
      "▁mines": 5599,
      "▁challenges": 5600,
      "▁colors": 5601,
      "▁beliefs": 5602,
      "▁got": 5603,
      "▁outc": 5604,
      "▁audience": 5605,
      "▁ent": 5606,
      "etition": 5607,
      "▁fav": 5608,
      "▁downtown": 5609,
      "▁bandaid": 5610,
      "▁“": 5611,
      "▁programme": 5612,
      "▁languages": 5613,
      "vel": 5614,
      "▁instance": 5615,
      "chie": 5616,
      "▁rece": 5617,
      "▁sched": 5618,
      "▁econom": 5619,
      "▁hiking": 5620,
      "▁traff": 5621,
      "enience": 5622,
      "▁colon": 5623,
      "ections": 5624,
      "ined": 5625,
      "▁sake": 5626,
      "overn": 5627,
      "▁institutions": 5628,
      "▁requested": 5629,
      "ctly": 5630,
      "▁both": 5631,
      "▁hyp": 5632,
      "board": 5633,
      "▁pupp": 5634,
      "▁columb": 5635,
      "aph": 5636,
      "ays": 5637,
      "▁pilot": 5638,
      "▁fate": 5639,
      "▁looked": 5640,
      "ril": 5641,
      "▁range": 5642,
      "▁contro": 5643,
      "ans": 5644,
      "▁intervention": 5645,
      "▁popularity": 5646,
      "▁regar": 5647,
      "▁iodised": 5648,
      "▁open": 5649,
      "▁orange": 5650,
      "▁justice": 5651,
      "▁document": 5652,
      "▁writes": 5653,
      "▁exhib": 5654,
      "ieties": 5655,
      "^": 5656,
      "ligence": 5657,
      "▁beer": 5658,
      "▁remembered": 5659,
      "▁club": 5660,
      "▁gel": 5661,
      "▁every": 5662,
      "▁bringing": 5663,
      "ints": 5664,
      "▁always": 5665,
      "▁drug": 5666,
      "ning": 5667,
      "▁flo": 5668,
      "ile": 5669,
      "lications": 5670,
      "▁photos": 5671,
      "▁material": 5672,
      "ev": 5673,
      "imp": 5674,
      "▁turkey": 5675,
      "ributed": 5676,
      "▁tap": 5677,
      "▁mirror": 5678,
      "▁apol": 5679,
      "ses": 5680,
      "▁micro": 5681,
      "▁sug": 5682,
      "▁cards": 5683,
      "▁break": 5684,
      "▁christ": 5685,
      "ject": 5686,
      "▁agency": 5687,
      "▁fli": 5688,
      "▁eas": 5689,
      "▁fare": 5690,
      "▁confid": 5691,
      "▁percenti": 5692,
      "▁marsh": 5693,
      "mall": 5694,
      "gether": 5695,
      "ifies": 5696,
      "▁pol": 5697,
      "▁objectives": 5698,
      "aws": 5699,
      "▁thou": 5700,
      "ments": 5701,
      "▁gen": 5702,
      "*": 5703,
      "▁ability": 5704,
      "▁shuttle": 5705,
      "▁cars": 5706,
      "▁199": 5707,
      "uis": 5708,
      "age": 5709,
      "▁partic": 5710,
      "▁judgments": 5711,
      "▁real": 5712,
      "▁interview": 5713,
      "▁mayonna": 5714,
      "▁guide": 5715,
      "mpl": 5716,
      "ison": 5717,
      "▁alth": 5718,
      "▁organized": 5719,
      "bre": 5720,
      "iture": 5721,
      "▁viewed": 5722,
      "▁commissioner": 5723,
      "ang": 5724,
      "▁thursday": 5725,
      "▁review": 5726,
      "▁flower": 5727,
      "▁stuff": 5728,
      "▁consequ": 5729,
      "xim": 5730,
      "▁monster": 5731,
      "▁israel": 5732,
      "▁innovations": 5733,
      "▁stone": 5734,
      "▁ring": 5735,
      "--------": 5736,
      "▁passengers": 5737,
      "▁heels": 5738,
      "ansion": 5739,
      "oss": 5740,
      "▁continu": 5741,
      "▁separ": 5742,
      "▁extended": 5743,
      "pa": 5744,
      "▁flew": 5745,
      "ume": 5746,
      "hib": 5747,
      "eep": 5748,
      "ether": 5749,
      "▁areas": 5750,
      "▁item": 5751,
      "ection": 5752,
      "▁sleeping": 5753,
      "▁translation": 5754,
      "▁wa": 5755,
      "▁ways": 5756,
      "▁people": 5757,
      "▁allows": 5758,
      "▁hopes": 5759,
      "▁writers": 5760,
      "ther": 5761,
      "int": 5762,
      "adle": 5763,
      "▁resp": 5764,
      "▁maybe": 5765,
      "▁search": 5766,
      "▁elev": 5767,
      "▁theory": 5768,
      "▁repair": 5769,
      "▁str": 5770,
      "▁agencies": 5771,
      "▁bother": 5772,
      "ying": 5773,
      "▁following": 5774,
      "▁heart": 5775,
      "▁sunsh": 5776,
      "▁charm": 5777,
      "ith": 5778,
      "▁abe": 5779,
      "▁reported": 5780,
      "nels": 5781,
      "▁pipe": 5782,
      "▁unf": 5783,
      "▁banj": 5784,
      "▁was": 5785,
      "sure": 5786,
      "aked": 5787,
      "iced": 5788,
      "▁captured": 5789,
      "kers": 5790,
      "rap": 5791,
      "▁laund": 5792,
      "▁series": 5793,
      "▁inspection": 5794,
      "▁alco": 5795,
      "ution": 5796,
      "▁butter": 5797,
      "▁gain": 5798,
      "▁assured": 5799,
      "▁opportun": 5800,
      "▁econ": 5801,
      "▁wiz": 5802,
      "▁attorn": 5803,
      "vers": 5804,
      "▁yoy": 5805,
      "▁happening": 5806,
      "uses": 5807,
      "▁sen": 5808,
      "▁!!!!!": 5809,
      "▁hos": 5810,
      "orized": 5811,
      "▁thread": 5812,
      "▁aspect": 5813,
      "▁alle": 5814,
      "alls": 5815,
      "▁consider": 5816,
      "▁sold": 5817,
      "m": 5818,
      "▁telling": 5819,
      "▁mention": 5820,
      "▁anal": 5821,
      "ial": 5822,
      "▁tic": 5823,
      "▁sur": 5824,
      "▁example": 5825,
      "▁merc": 5826,
      "▁wiggle": 5827,
      "--": 5828,
      "▁try": 5829,
      "▁fallen": 5830,
      "▁parad": 5831,
      "uted": 5832,
      "▁passed": 5833,
      "▁opportunity": 5834,
      "▁amid": 5835,
      "▁recr": 5836,
      "ks": 5837,
      "▁reb": 5838,
      "▁dolphins": 5839,
      "▁ple": 5840,
      "uly": 5841,
      "▁weekday": 5842,
      "▁mr.": 5843,
      "▁minister": 5844,
      "▁sarah": 5845,
      "▁seemed": 5846,
      "▁highligh": 5847,
      "ο": 5848,
      "▁b": 5849,
      "▁]": 5850,
      "portun": 5851,
      "▁!!!!!!!!!!!!!": 5852,
      "ving": 5853,
      "▁tradition": 5854,
      "alu": 5855,
      "▁frequ": 5856,
      "▁impact": 5857,
      "▁locked": 5858,
      "▁relation": 5859,
      "ensus": 5860,
      "rigu": 5861,
      "▁space": 5862,
      "▁manufactur": 5863,
      "▁anyone": 5864,
      "▁math": 5865,
      "▁adjust": 5866,
      "hered": 5867,
      "▁5": 5868,
      "▁mili": 5869,
      "▁requ": 5870,
      "▁reduce": 5871,
      "▁kissed": 5872,
      "olves": 5873,
      "apes": 5874,
      "uries": 5875,
      "▁sym": 5876,
      "▁sure": 5877,
      "▁addressing": 5878,
      "▁developing": 5879,
      "▁30": 5880,
      "▁presented": 5881,
      "▁speaker": 5882,
      "▁audi": 5883,
      "▁everything": 5884,
      "orders": 5885,
      "po": 5886,
      "▁treatments": 5887,
      "▁resul": 5888,
      "▁females": 5889,
      "pet": 5890,
      "laim": 5891,
      "its": 5892,
      "▁stands": 5893,
      "▁dated": 5894,
      "▁looking": 5895,
      "▁mail": 5896,
      "▁singing": 5897,
      "is": 5898,
      "▁zero": 5899,
      "▁council": 5900,
      "rying": 5901,
      "▁cook": 5902,
      "▁degrees": 5903,
      "ul": 5904,
      "▁cooperation": 5905,
      "▁americans": 5906,
      "▁foreigners": 5907,
      "laimed": 5908,
      "▁rags": 5909,
      "erts": 5910,
      "▁classes": 5911,
      "cc": 5912,
      "▁unles": 5913,
      "▁gap": 5914,
      "iness": 5915,
      "itate": 5916,
      "omet": 5917,
      "▁incre": 5918,
      "▁metal": 5919,
      "erated": 5920,
      "iousness": 5921,
      "▁e-m": 5922,
      "ced": 5923,
      "ito": 5924,
      "▁issue": 5925,
      "▁walks": 5926,
      "▁honey": 5927,
      "▁ought": 5928,
      "▁cage": 5929,
      "▁laur": 5930,
      "▁gre": 5931,
      "▁sus": 5932,
      "▁couch": 5933,
      "▁challenge": 5934,
      "▁peters": 5935,
      "▁suffering": 5936,
      "▁enthusi": 5937,
      "▁newsp": 5938,
      "▁become": 5939,
      "▁ag": 5940,
      "art": 5941,
      "▁award": 5942,
      "▁betw": 5943,
      "ribb": 5944,
      "ork": 5945,
      "▁projected": 5946,
      "ace": 5947,
      "▁corner": 5948,
      "▁making": 5949,
      "▁happen": 5950,
      "mented": 5951,
      "ange": 5952,
      "▁june": 5953,
      "'t": 5954,
      "▁replaced": 5955,
      "athers": 5956,
      "▁pledged": 5957,
      "▁climbed": 5958,
      "▁york": 5959,
      "▁toys": 5960,
      "▁businesses": 5961,
      "▁stopover": 5962,
      "▁_": 5963,
      "▁drawing": 5964,
      "inist": 5965,
      "▁party": 5966,
      "ug": 5967,
      "▁st.": 5968,
      "▁cross": 5969,
      "▁expression": 5970,
      "apse": 5971,
      "▁bal": 5972,
      "▁seal": 5973,
      "▁allies": 5974,
      "▁chicago": 5975,
      "æ": 5976,
      "2d-": 5977,
      "▁minutes": 5978,
      "▁n": 5979,
      "▁fiel": 5980,
      "▁declaration": 5981,
      "ness": 5982,
      "▁none": 5983,
      "▁cam": 5984,
      "nec": 5985,
      "-": 5986,
      "derst": 5987,
      "llow": 5988,
      "▁basketball": 5989,
      "▁”": 5990,
      "▁boots": 5991,
      "▁night": 5992,
      "▁vote": 5993,
      "▁payments": 5994,
      "▁qu": 5995,
      "▁import": 5996,
      "▁specific": 5997,
      "▁feel": 5998,
      "▁gard": 5999,
      "▁playing": 6000,
      "▁distribute": 6001,
      "eral": 6002,
      "▁california": 6003,
      "▁attributed": 6004,
      "▁storm": 6005,
      "▁hidden": 6006,
      "▁prev": 6007,
      "▁trees": 6008,
      "▁recipient": 6009,
      "ris": 6010,
      "▁pulled": 6011,
      "ach": 6012,
      "ability": 6013,
      "ih": 6014,
      "▁attend": 6015,
      "▁glove": 6016,
      "********": 6017,
      "▁min": 6018,
      "▁describes": 6019,
      "▁cur": 6020,
      "▁bac": 6021,
      "▁faced": 6022,
      "▁married": 6023,
      "ere": 6024,
      "▁bunny": 6025,
      "▁leaders": 6026,
      "ault": 6027,
      "▁points": 6028,
      "▁roar": 6029,
      "orage": 6030,
      "▁financ": 6031,
      "▁forb": 6032,
      "▁sev": 6033,
      "}": 6034,
      "▁increased": 6035,
      "▁licen": 6036,
      "▁beautiful": 6037,
      "▁def": 6038,
      "▁adm": 6039,
      "▁sea": 6040,
      "▁acqui": 6041,
      "▁taxes": 6042,
      "utiful": 6043,
      "▁ca": 6044,
      "▁insight": 6045,
      "ride": 6046,
      "▁archit": 6047,
      "▁eye": 6048,
      "ories": 6049,
      "unt": 6050,
      "▁two": 6051,
      "fri": 6052,
      "▁eaten": 6053,
      "▁adver": 6054,
      "▁contracts": 6055,
      "▁exhibit": 6056,
      "ord": 6057,
      "▁disaster": 6058,
      "acamole": 6059,
      "▁flight": 6060,
      "▁serv": 6061,
      "▁desk": 6062,
      "▁solve": 6063,
      "▁???": 6064,
      "▁assessing": 6065,
      "▁frid": 6066,
      "▁mult": 6067,
      "▁benefits": 6068,
      "erest": 6069,
      "▁airfare": 6070,
      "▁george": 6071,
      "▁amer": 6072,
      "▁posted": 6073,
      "▁hair": 6074,
      "▁sights": 6075,
      "▁lover": 6076,
      "oked": 6077,
      "▁gr": 6078,
      "▁moun": 6079,
      "▁dism": 6080,
      "▁were": 6081,
      "▁carrying": 6082,
      "▁depos": 6083,
      "alty": 6084,
      "ze": 6085,
      "▁hist": 6086,
      "ri": 6087,
      "▁ve": 6088,
      "▁dr.": 6089,
      "▁invite": 6090,
      "▁rin": 6091,
      "▁wee": 6092,
      "▁vs": 6093,
      "▁imprisoned": 6094,
      "▁connections": 6095,
      "ca": 6096,
      "▁conce": 6097,
      "▁traveler": 6098,
      "▁again": 6099,
      "outh": 6100,
      "▁arranged": 6101,
      "▁arrive": 6102,
      "▁terrorists": 6103,
      "▁terrorism": 6104,
      "▁boo": 6105,
      "▁novelist": 6106,
      "ik": 6107,
      "▁boyfriend": 6108,
      "ument": 6109,
      "▁u": 6110,
      "▁today": 6111,
      "liament": 6112,
      "▁drinking": 6113,
      "▁chick": 6114,
      "▁travelling": 6115,
      "▁limit": 6116,
      "▁che": 6117,
      "▁card": 6118,
      "▁excuse": 6119,
      "▁atmos": 6120,
      "▁visiting": 6121,
      "▁control": 6122,
      "▁anoder": 6123,
      "inded": 6124,
      "idence": 6125,
      "▁though": 6126,
      "▁regions": 6127,
      "amole": 6128,
      "order": 6129,
      "▁rain": 6130,
      "▁brass": 6131,
      "▁grandmother": 6132,
      "using": 6133,
      "▁femur": 6134,
      "▁instr": 6135,
      "[UNK]": 6136,
      "▁guard": 6137,
      "▁uhhuh": 6138,
      "▁ears": 6139,
      "amp": 6140,
      "▁felt": 6141,
      "▁source": 6142,
      "▁growth": 6143,
      "▁pill": 6144,
      "▁wo": 6145,
      "▁infrastruc": 6146,
      "▁centuries": 6147,
      "des": 6148,
      "▁expanded": 6149,
      "alf": 6150,
      "▁opportunities": 6151,
      "acy": 6152,
      "▁participation": 6153,
      "iders": 6154,
      "▁pra": 6155,
      "▁descri": 6156,
      "ington": 6157,
      "▁apples": 6158,
      "▁signing": 6159,
      "placement": 6160,
      "▁nurs": 6161,
      "▁banks": 6162,
      "▁column": 6163,
      "▁rope": 6164,
      "hip": 6165,
      "▁information": 6166,
      "▁can": 6167,
      "▁adv": 6168,
      "leg": 6169,
      "▁individuals": 6170,
      "▁funny": 6171,
      "ership": 6172,
      "▁grapes": 6173,
      "▁hoof": 6174,
      "▁ident": 6175,
      "▁suitcase": 6176,
      "porte": 6177,
      "▁stream": 6178,
      "▁clinics": 6179,
      "▁quote": 6180,
      "▁experience": 6181,
      "boat": 6182,
      "ulation": 6183,
      "▁models": 6184,
      "▁defic": 6185,
      "so": 6186,
      "▁exper": 6187,
      "▁non": 6188,
      "▁pumpkin": 6189,
      "▁displ": 6190,
      "place": 6191,
      "▁sometime": 6192,
      "▁step": 6193,
      "▁outside": 6194,
      "▁bucket": 6195,
      "okes": 6196,
      "▁lake": 6197,
      "rested": 6198,
      "▁injury": 6199,
      "▁trib": 6200,
      "▁show": 6201,
      "▁spray": 6202,
      "▁instructions": 6203,
      "▁magn": 6204,
      "ances": 6205,
      "▁point": 6206,
      "▁interesting": 6207,
      "▁quar": 6208,
      "ashington": 6209,
      "▁hip": 6210,
      "▁hold": 6211,
      "▁expensive": 6212,
      "▁selected": 6213,
      "▁concept": 6214,
      "▁personality": 6215,
      "most": 6216,
      "▁crimin": 6217,
      "ed": 6218,
      "▁beef": 6219,
      "gs": 6220,
      "▁circ": 6221,
      "fish": 6222,
      "▁many": 6223,
      "amas": 6224,
      "▁innovation": 6225,
      "edom": 6226,
      "▁lo": 6227,
      "▁members": 6228,
      "▁avoid": 6229,
      "▁meetings": 6230,
      "▁cfl": 6231,
      "▁construction": 6232,
      "▁bed": 6233,
      "wear": 6234,
      "ually": 6235,
      "▁bon": 6236,
      "▁something": 6237,
      "//": 6238,
      "----": 6239,
      "▁myself": 6240,
      "▁onto": 6241,
      "▁workers": 6242,
      "vest": 6243,
      "oms": 6244,
      "▁effort": 6245,
      "▁our": 6246,
      "▁volley": 6247,
      "▁attemp": 6248,
      "▁sli": 6249,
      "▁persp": 6250,
      "▁practicing": 6251,
      "▁fail": 6252,
      "▁mechan": 6253,
      "oke": 6254,
      "▁write": 6255,
      "▁filtered": 6256,
      "▁ext": 6257,
      "abb": 6258,
      "▁bod": 6259,
      "ats": 6260,
      "▁sod": 6261,
      "²": 6262,
      "ugged": 6263,
      "▁puts": 6264,
      "▁vacation": 6265,
      "▁crew": 6266,
      "▁affects": 6267,
      "▁statue": 6268,
      "▁account": 6269,
      "▁tick": 6270,
      "▁tube": 6271,
      "▁adj": 6272,
      "▁architecture": 6273,
      "▁marshmall": 6274,
      "▁sandwiches": 6275,
      "▁wom": 6276,
      "▁copyright": 6277,
      "▁prep": 6278,
      "▁stones": 6279,
      "▁yester": 6280,
      "▁conduc": 6281,
      "▁'s": 6282,
      "ail": 6283,
      "▁tem": 6284,
      "▁gi": 6285,
      "eting": 6286,
      "tion": 6287,
      "ti": 6288,
      "hold": 6289,
      "all": 6290,
      "▁teams": 6291,
      "▁attention": 6292,
      "▁repres": 6293,
      "▁easy": 6294,
      "▁kitten": 6295,
      "▁nobody": 6296,
      "▁n't": 6297,
      "▁tourist": 6298,
      "▁compared": 6299,
      "▁sing": 6300,
      "▁uvb": 6301,
      "per": 6302,
      "▁decline": 6303,
      "▁arrest": 6304,
      "▁stretched": 6305,
      "tee": 6306,
      "▁disability": 6307,
      "▁lobby": 6308,
      "▁under": 6309,
      "▁licensor": 6310,
      "▁wrote": 6311,
      "▁brooms": 6312,
      "▁glass": 6313,
      "▁examples": 6314,
      "▁muse": 6315,
      "$$": 6316,
      "▁mop": 6317,
      "▁savings": 6318,
      "▁dishes": 6319,
      "eys": 6320,
      "▁restrictions": 6321,
      "▁director": 6322,
      "▁diss": 6323,
      "▁inequ": 6324,
      "▁manip": 6325,
      "▁ens": 6326,
      "eers": 6327,
      "▁ju": 6328,
      "▁violence": 6329,
      "▁commission": 6330,
      "▁layout": 6331,
      "▁friendly": 6332,
      "ure": 6333,
      "▁aside": 6334,
      "▁career": 6335,
      "▁deck": 6336,
      "▁proposals": 6337,
      "ounds": 6338,
      "ot": 6339,
      "▁angel": 6340,
      "▁ignore": 6341,
      "▁<<": 6342,
      "▁letting": 6343,
      "▁local": 6344,
      "▁breathe": 6345,
      "▁spear": 6346,
      "▁tons": 6347,
      "usion": 6348,
      "▁wel": 6349,
      "▁described": 6350,
      "▁measure": 6351,
      "▁ver": 6352,
      "▁extend": 6353,
      "▁prot": 6354,
      "▁growing": 6355,
      "▁gall": 6356,
      "▁pic": 6357,
      "▁profile": 6358,
      "issors": 6359,
      "aze": 6360,
      "▁property": 6361,
      "ili": 6362,
      "▁exh": 6363,
      "▁accep": 6364,
      "▁cigarette": 6365,
      "▁adult": 6366,
      "▁supports": 6367,
      "▁robo": 6368,
      "▁ped": 6369,
      "▁counterfeit": 6370,
      "▁welcome": 6371,
      "ense": 6372,
      "▁programs": 6373,
      "ption": 6374,
      "▁consum": 6375,
      "▁wh": 6376,
      "▁lin": 6377,
      "▁survival": 6378,
      "▁beds": 6379,
      "▁paying": 6380,
      "▁chocolate": 6381,
      "▁initiative": 6382,
      "▁accord": 6383,
      "▁qaeda": 6384,
      "▁bow": 6385,
      "▁collap": 6386,
      "▁wait": 6387,
      "▁television": 6388,
      "▁countries": 6389,
      "▁fields": 6390,
      "lar": 6391,
      "stit": 6392,
      "▁weake": 6393,
      "olved": 6394,
      "▁letter": 6395,
      "▁kittens": 6396,
      "lation": 6397,
      "kn": 6398,
      "▁bands": 6399,
      "▁lock": 6400,
      "usions": 6401,
      "▁insects": 6402,
      "▁bun": 6403,
      "ashing": 6404,
      "▁sugar": 6405,
      "▁banjo": 6406,
      "read": 6407,
      "▁lip": 6408,
      "▁plays": 6409,
      "▁spons": 6410,
      "▁laura": 6411,
      "▁worship": 6412,
      "▁am": 6413,
      "for": 6414,
      "▁pa": 6415,
      "▁welc": 6416,
      "▁reflected": 6417,
      "▁says": 6418,
      "▁conv": 6419,
      "▁residents": 6420,
      "sing": 6421,
      "berries": 6422,
      "▁direction": 6423,
      "▁value": 6424,
      "▁jury": 6425,
      "umin": 6426,
      "▁continues": 6427,
      "▁tables": 6428,
      "▁e": 6429,
      "▁based": 6430,
      "▁dar": 6431,
      "ws": 6432,
      "▁flavor": 6433,
      "▁pride": 6434,
      "▁have": 6435,
      "▁letters": 6436,
      "▁spir": 6437,
      "uality": 6438,
      "▁proced": 6439,
      "▁giving": 6440,
      "iod": 6441,
      "▁really": 6442,
      "▁windows": 6443,
      "▁produc": 6444,
      "▁zone": 6445,
      "velop": 6446,
      "▁reviewing": 6447,
      "▁nove": 6448,
      "lined": 6449,
      "▁pancakes": 6450,
      "▁mechanics": 6451,
      "▁mrs": 6452,
      "▁chemicals": 6453,
      "ven": 6454,
      "▁nashville": 6455,
      "ivers": 6456,
      "▁mosques": 6457,
      "aq": 6458,
      "anted": 6459,
      "▁enjoy": 6460,
      "▁wing": 6461,
      "itive": 6462,
      "▁noon": 6463,
      "▁movements": 6464,
      "▁balls": 6465,
      "▁offici": 6466,
      "▁film": 6467,
      "pos": 6468,
      "▁goat": 6469,
      "▁bean": 6470,
      "▁board": 6471,
      "▁whale": 6472,
      "▁identifies": 6473,
      "▁snack": 6474,
      "▁neck": 6475,
      "iel": 6476,
      "▁grass": 6477,
      "▁acknowled": 6478,
      "ess": 6479,
      "▁epis": 6480,
      "▁hearing": 6481,
      "bing": 6482,
      "ination": 6483,
      "ened": 6484,
      "um": 6485,
      "▁launch": 6486,
      "▁carro": 6487,
      "▁articles": 6488,
      "▁ruin": 6489,
      "▁improved": 6490,
      "▁studies": 6491,
      "gets": 6492,
      "▁verif": 6493,
      "▁split": 6494,
      "▁implement": 6495,
      "▁th": 6496,
      "tit": 6497,
      "▁shoot": 6498,
      "antly": 6499,
      "▁mont": 6500,
      "rol": 6501,
      "▁written": 6502,
      "ledge": 6503,
      "▁at": 6504,
      "chen": 6505,
      "▁shot": 6506,
      "▁cris": 6507,
      "let": 6508,
      "▁mu": 6509,
      "▁puzz": 6510,
      "▁mosqu": 6511,
      "ales": 6512,
      "sets": 6513,
      "▁oil": 6514,
      "▁morn": 6515,
      "selves": 6516,
      "▁number": 6517,
      "orities": 6518,
      "▁cler": 6519,
      "▁shr": 6520,
      "▁ordered": 6521,
      "ete": 6522,
      "▁collection": 6523,
      "▁stir": 6524,
      "otted": 6525,
      "▁done": 6526,
      "▁phr": 6527,
      "▁ind": 6528,
      "fe": 6529,
      "▁balzac": 6530,
      "▁sussex": 6531,
      "▁conclude": 6532,
      "▁influ": 6533,
      "ver": 6534,
      "▁declare": 6535,
      "overs": 6536,
      "▁dre": 6537,
      "▁memory": 6538,
      "▁mer": 6539,
      "▁gram": 6540,
      "1": 6541,
      "rit": 6542,
      "▁grain": 6543,
      "▁serve": 6544,
      "▁___________": 6545,
      "alized": 6546,
      "▁behavi": 6547,
      "less": 6548,
      "adas": 6549,
      "line": 6550,
      "▁phenom": 6551,
      "▁accomm": 6552,
      "▁option": 6553,
      "▁cooking": 6554,
      "▁paper": 6555,
      "▁kept": 6556,
      "`": 6557,
      "▁kitt": 6558,
      "▁reading": 6559,
      "▁spa": 6560,
      "▁amb": 6561,
      "▁jews": 6562,
      "▁short": 6563,
      "▁translated": 6564,
      "bon": 6565,
      "▁arrangements": 6566,
      "▁prin": 6567,
      "▁documents": 6568,
      "▁leaving": 6569,
      "▁examining": 6570,
      "▁colleag": 6571,
      "▁surf": 6572,
      "▁discover": 6573,
      "▁president": 6574,
      "▁country": 6575,
      "▁sent": 6576,
      "▁department": 6577,
      "▁gather": 6578,
      "▁raise": 6579,
      "▁cele": 6580,
      "▁noone": 6581,
      "▁chances": 6582,
      "▁quite": 6583,
      "vely": 6584,
      "▁innov": 6585,
      "▁see": 6586,
      "▁bric": 6587,
      "de": 6588,
      "▁whil": 6589,
      "issions": 6590,
      "ifying": 6591,
      "▁qui": 6592,
      "▁bea": 6593,
      "▁attitude": 6594,
      "▁scar": 6595,
      "▁eth": 6596,
      "▁ach": 6597,
      "▁fer": 6598,
      "iv": 6599,
      "▁col": 6600,
      "▁treat": 6601,
      "▁dogs": 6602,
      "▁talking": 6603,
      "ief": 6604,
      "▁performing": 6605,
      "▁bet": 6606,
      "▁assuming": 6607,
      "hic": 6608,
      "▁refl": 6609,
      "▁pockets": 6610,
      "an": 6611,
      "▁cutting": 6612,
      "▁lights": 6613,
      "ook": 6614,
      "▁inj": 6615,
      "▁gcp": 6616,
      "▁bench": 6617,
      "▁philadel": 6618,
      "arture": 6619,
      "▁watching": 6620,
      "▁chest": 6621,
      "▁went": 6622,
      "ida": 6623,
      "▁ending": 6624,
      "▁tests": 6625,
      "▁are": 6626,
      "▁eliminate": 6627,
      "▁recall": 6628,
      "▁wr": 6629,
      "▁box": 6630,
      "ips": 6631,
      "▁argue": 6632,
      "▁india": 6633,
      "▁e-mail": 6634,
      "▁deb": 6635,
      "acks": 6636,
      "▁pref": 6637,
      "▁slope": 6638,
      "▁chim": 6639,
      "▁'m": 6640,
      "▁wealth": 6641,
      "ino": 6642,
      "▁exchang": 6643,
      "▁taught": 6644,
      "▁consu": 6645,
      "▁global": 6646,
      "▁project": 6647,
      "▁out": 6648,
      "▁currency": 6649,
      "▁approval": 6650,
      "▁inqu": 6651,
      "▁vint": 6652,
      "▁right": 6653,
      "erence": 6654,
      "▁approve": 6655,
      "▁herself": 6656,
      "▁declared": 6657,
      "'clock": 6658,
      "▁sleep": 6659,
      "▁adop": 6660,
      "nch": 6661,
      "▁groups": 6662,
      "scope": 6663,
      "lief": 6664,
      "▁yog": 6665,
      "▁'ll": 6666,
      "▁*****": 6667,
      "ctive": 6668,
      "osen": 6669,
      "▁fortune": 6670,
      "▁recognize": 6671,
      "▁ben": 6672,
      "pl": 6673,
      "▁press": 6674,
      "▁earth": 6675,
      "▁hiding": 6676,
      "ε": 6677,
      "▁quack": 6678,
      "▁hat": 6679,
      "▁abilities": 6680,
      "▁aspects": 6681,
      "end": 6682,
      "otw": 6683,
      "illing": 6684,
      "▁dealing": 6685,
      "▁benef": 6686,
      "▁rememb": 6687,
      "ads": 6688,
      "▁wrap": 6689,
      "▁toward": 6690,
      "oh": 6691,
      "▁agreed": 6692,
      "▁destroyed": 6693,
      "▁more": 6694,
      "▁recorder": 6695,
      "icing": 6696,
      "▁recomm": 6697,
      "▁rail": 6698,
      "ables": 6699,
      "namon": 6700,
      "▁functions": 6701,
      "▁quantity": 6702,
      "asm": 6703,
      "▁cor": 6704,
      "▁surge": 6705,
      "▁dep": 6706,
      "▁player": 6707,
      "▁videos": 6708,
      "▁linked": 6709,
      "▁temperature": 6710,
      "▁boss": 6711,
      "az": 6712,
      "▁follows": 6713,
      "▁percentage": 6714,
      "▁drag": 6715,
      "▁forward": 6716,
      "▁jwww": 6717,
      "▁tos": 6718,
      "▁center": 6719,
      "▁talks": 6720,
      "ble": 6721,
      "ards": 6722,
      "[MASK]": 6723,
      "ames": 6724,
      "▁[": 6725,
      "▁lil": 6726,
      "▁avail": 6727,
      "▁differences": 6728,
      "▁fil": 6729,
      "vement": 6730,
      "tually": 6731,
      "▁including": 6732,
      "▁flooding": 6733,
      "▁gar": 6734,
      "▁straw": 6735,
      "▁objects": 6736,
      "ites": 6737,
      "▁sort": 6738,
      "▁serving": 6739,
      "▁occ": 6740,
      "▁diseases": 6741,
      "▁prices": 6742,
      "▁hun": 6743,
      "▁select": 6744,
      "-b": 6745,
      "▁tre": 6746,
      "▁examine": 6747,
      "ology": 6748,
      "▁sa": 6749,
      "▁extremely": 6750,
      "▁password": 6751,
      "ause": 6752,
      "▁rac": 6753,
      "▁techniqu": 6754,
      "▁pass": 6755,
      "▁int": 6756,
      "atures": 6757,
      "ol": 6758,
      "▁boston": 6759,
      "▁little": 6760,
      "ies": 6761,
      "▁scientist": 6762,
      "#6": 6763,
      "▁divided": 6764,
      "▁societies": 6765,
      "00": 6766,
      "▁means": 6767,
      "▁note": 6768,
      "▁cinnamon": 6769,
      "▁fligh": 6770,
      "▁crimes": 6771,
      "clock": 6772,
      "gth": 6773,
      "▁distur": 6774,
      "▁modify": 6775,
      "▁distinguish": 6776,
      "▁youn": 6777,
      "▁hell": 6778,
      "ially": 6779,
      "▁ph": 6780,
      "eg": 6781,
      "▁commit": 6782,
      "▁implem": 6783,
      "loy": 6784,
      "vements": 6785,
      "▁uv": 6786,
      "▁pun": 6787,
      "▁falls": 6788,
      "▁editors": 6789,
      "▁brows": 6790,
      "erted": 6791,
      "▁frag": 6792,
      "▁veget": 6793,
      "▁screw": 6794,
      "▁follow": 6795,
      "uits": 6796,
      "ipping": 6797,
      "▁height": 6798,
      "▁slide": 6799,
      "▁associ": 6800,
      "inental": 6801,
      "avor": 6802,
      "▁learn": 6803,
      "▁ago": 6804,
      "▁boxes": 6805,
      "▁rug": 6806,
      "▁dolph": 6807,
      "ero": 6808,
      "ones": 6809,
      "▁available": 6810,
      "▁incorporated": 6811,
      "▁guns": 6812,
      "▁infrastructure": 6813,
      "ecess": 6814,
      "▁restaurants": 6815,
      "▁ended": 6816,
      "ners": 6817,
      "▁plot": 6818,
      "eer": 6819,
      "ch": 6820,
      "▁never": 6821,
      "▁tie": 6822,
      "▁iss": 6823,
      "▁cultures": 6824,
      "▁inf": 6825,
      "▁payment": 6826,
      "▁surv": 6827,
      "▁ins": 6828,
      "▁jungle": 6829,
      "▁cheapest": 6830,
      "ott": 6831,
      "abilities": 6832,
      "▁picking": 6833,
      "riendly": 6834,
      "▁cups": 6835,
      "▁meter": 6836,
      "▁cab": 6837,
      "▁12": 6838,
      "ological": 6839,
      "▁surface": 6840,
      "e": 6841,
      "▁capital": 6842,
      "▁green": 6843,
      "▁‘": 6844,
      "▁designed": 6845,
      "▁causing": 6846,
      "▁avoiding": 6847,
      "▁reached": 6848,
      "▁brings": 6849,
      "▁dark": 6850,
      "▁color": 6851,
      "▁transaction": 6852,
      "▁still": 6853,
      "▁jeep": 6854,
      "▁ah": 6855,
      "ha": 6856,
      "ə": 6857,
      "▁wiki": 6858,
      "nis": 6859,
      "...": 6860,
      "▁:": 6861,
      "hol": 6862,
      "▁r": 6863,
      "ow": 6864,
      "ce": 6865,
      "▁trav": 6866,
      "vening": 6867,
      "owing": 6868,
      "▁magaz": 6869,
      "▁owner": 6870,
      "▁smo": 6871,
      "▁tell": 6872,
      "▁satur": 6873,
      "▁rever": 6874,
      "▁conflict": 6875,
      "▁inte": 6876,
      "▁rates": 6877,
      "▁repa": 6878,
      "▁clothes": 6879,
      "red": 6880,
      "▁asyl": 6881,
      "▁ban": 6882,
      "ase": 6883,
      "▁gas": 6884,
      "▁experienced": 6885,
      "▁returned": 6886,
      "▁leaf": 6887,
      "▁apar": 6888,
      "▁economic": 6889,
      "ography": 6890,
      "▁thre": 6891,
      "▁reas": 6892,
      "▁bro": 6893,
      "ract": 6894,
      "care": 6895,
      "▁waste": 6896,
      "mes": 6897,
      "▁tra": 6898,
      "▁division": 6899,
      "uary": 6900,
      "▁activ": 6901,
      "▁figure": 6902,
      "▁would": 6903,
      "▁biting": 6904,
      "lled": 6905,
      "▁dece": 6906,
      "–": 6907,
      "▁positions": 6908,
      "▁sting": 6909,
      "▁blocks": 6910,
      "’s": 6911,
      "▁purchased": 6912,
      "▁standard": 6913,
      "▁social": 6914,
      "ondon": 6915,
      "▁leave": 6916,
      "▁continue": 6917,
      "▁cult": 6918,
      "nam": 6919,
      "▁terror": 6920,
      "▁trip": 6921,
      "▁invest": 6922,
      ".ht": 6923,
      "▁passport": 6924,
      "▁located": 6925,
      "▁proof": 6926,
      "▁expectations": 6927,
      "▁tied": 6928,
      "▁marry": 6929,
      "▁formed": 6930,
      "▁chec": 6931,
      "anc": 6932,
      "▁sectors": 6933,
      "▁beginning": 6934,
      "▁******************************************************************": 6935,
      "▁is": 6936,
      "hap": 6937,
      "▁somebody": 6938,
      "ular": 6939,
      "▁conc": 6940,
      "▁lim": 6941,
      "▁science": 6942,
      "▁landing": 6943,
      "▁cod": 6944,
      "eros": 6945,
      "▁ble": 6946,
      "▁outf": 6947,
      "▁leaned": 6948,
      "▁throwing": 6949,
      "▁displayed": 6950,
      "oving": 6951,
      "▁requires": 6952,
      "▁f": 6953,
      "▁hers": 6954,
      "▁chocol": 6955,
      "▁battery": 6956,
      "▁recover": 6957,
      "books": 6958,
      "▁iran": 6959,
      "▁conclusions": 6960,
      "▁served": 6961,
      "#693": 6962,
      "ufact": 6963,
      "▁ch": 6964,
      "▁divid": 6965,
      "▁sty": 6966,
      "▁dow": 6967,
      "▁export": 6968,
      "▁acting": 6969,
      "▁cup": 6970,
      "▁oc": 6971,
      "▁life": 6972,
      "▁certain": 6973,
      "▁reproduc": 6974,
      "▁dr": 6975,
      "ils": 6976,
      "attle": 6977,
      "▁flex": 6978,
      "▁enab": 6979,
      "▁response": 6980,
      "▁ac": 6981,
      "ω": 6982,
      "▁spaces": 6983,
      "▁trunk": 6984,
      "▁behind": 6985,
      "▁industries": 6986,
      "▁notwithstanding": 6987,
      "▁lemon": 6988,
      "▁financial": 6989,
      "whether": 6990,
      "▁ceiling": 6991,
      "▁ra": 6992,
      "▁peace": 6993,
      "port": 6994,
      "ium": 6995,
      "▁entertain": 6996,
      "tification": 6997,
      "rops": 6998,
      "▁young": 6999,
      "▁soldiers": 7000,
      "▁whatever": 7001,
      "alization": 7002,
      "epend": 7003,
      "rated": 7004,
      "di": 7005,
      "▁theatre": 7006,
      "asp": 7007,
      "▁chips": 7008,
      "ecting": 7009,
      "=----": 7010,
      "▁driven": 7011,
      "▁ham": 7012,
      "▁remains": 7013,
      "▁sky": 7014,
      "▁prohibited": 7015,
      "▁appearance": 7016,
      "▁lose": 7017,
      "▁pen": 7018,
      "▁vit": 7019,
      "▁lady": 7020,
      "▁assistance": 7021,
      "ree": 7022,
      "ey": 7023,
      "▁silence": 7024,
      "▁disc": 7025,
      "▁tires": 7026,
      "▁cafe": 7027,
      "▁prof": 7028,
      "▁cracker": 7029,
      "▁lear": 7030,
      "▁deny": 7031,
      "▁acceptance": 7032,
      "▁why": 7033,
      "▁add": 7034,
      "val": 7035,
      "▁vess": 7036,
      "▁soil": 7037,
      "▁festiv": 7038,
      "▁emerging": 7039,
      "lf": 7040,
      "▁demanding": 7041,
      "▁ticket": 7042,
      "▁appointed": 7043,
      "▁server": 7044,
      "▁resulting": 7045,
      "▁wagon": 7046,
      "▁removed": 7047,
      "▁spent": 7048,
      "▁!.": 7049,
      "▁ce": 7050,
      "orum": 7051,
      "▁repl": 7052,
      "▁narr": 7053,
      "▁chose": 7054,
      "▁rabb": 7055,
      "akers": 7056,
      "ided": 7057,
      "▁working": 7058,
      "▁cap": 7059,
      "▁chain": 7060,
      "mit": 7061,
      "▁taking": 7062,
      "eth": 7063,
      "faction": 7064,
      "▁outs": 7065,
      "▁investigate": 7066,
      "rs": 7067,
      "▁further": 7068,
      "til": 7069,
      "▁hung": 7070,
      "itled": 7071,
      "▁polaroids": 7072,
      "▁forgot": 7073,
      "▁museum": 7074,
      "▁arri": 7075,
      "[PAD]": 7076,
      "▁creating": 7077,
      "▁interconnect": 7078,
      "▁pe": 7079,
      "dle": 7080,
      "zations": 7081,
      "▁goal": 7082,
      "ake": 7083,
      "over": 7084,
      "▁correspondence": 7085,
      "▁experiment": 7086,
      "400": 7087,
      "tsbur": 7088,
      "▁accept": 7089,
      "▁demonstrate": 7090,
      "▁throw": 7091,
      "ession": 7092,
      "▁iron": 7093,
      "▁lips": 7094,
      "illion": 7095,
      "▁discipline": 7096,
      "▁keys": 7097,
      "▁sentences": 7098,
      "pts": 7099,
      "sex": 7100,
      "ists": 7101,
      "▁these": 7102,
      "ams": 7103,
      "▁counc": 7104,
      "▁colleagues": 7105,
      "▁upd": 7106,
      "▁refuge": 7107,
      "▁currently": 7108,
      "▁child": 7109,
      "▁guests": 7110,
      "▁res": 7111,
      "▁pep": 7112,
      "iling": 7113,
      "▁confusion": 7114,
      "▁replacement": 7115,
      "▁holidays": 7116,
      "▁events": 7117,
      "▁commun": 7118,
      "▁=---": 7119,
      "▁bills": 7120,
      "eding": 7121,
      "olve": 7122,
      "▁tampa": 7123,
      "▁settlers": 7124,
      "▁setting": 7125,
      "▁jus": 7126,
      "oice": 7127,
      "▁gu": 7128,
      "▁vodka": 7129,
      "▁operations": 7130,
      "▁occasion": 7131,
      "▁less": 7132,
      "▁lead": 7133,
      "▁establishment": 7134,
      "▁scissors": 7135,
      "▁welf": 7136,
      "▁trave": 7137,
      "▁piv": 7138,
      "odes": 7139,
      "▁quarter": 7140,
      "do": 7141,
      "▁backs": 7142,
      "▁coll": 7143,
      "oup": 7144,
      "zz": 7145,
      "ions": 7146,
      "▁foreign": 7147,
      "▁rapporteur": 7148,
      "▁absor": 7149,
      "▁samples": 7150,
      "▁uncle": 7151,
      "▁dust": 7152,
      "mate": 7153,
      "▁friend": 7154,
      "▁inviting": 7155,
      "▁grit": 7156,
      "gging": 7157,
      "▁**********": 7158,
      "▁shape": 7159,
      "▁population": 7160,
      "▁tennis": 7161,
      "par": 7162,
      "nel": 7163,
      "▁leg": 7164,
      "▁problems": 7165,
      "▁cli": 7166,
      "▁providing": 7167,
      "inging": 7168,
      "agraph": 7169,
      "▁phys": 7170,
      "▁cal": 7171,
      "▁preserved": 7172,
      "▁behaviors": 7173,
      "▁priority": 7174,
      "si": 7175,
      "ect": 7176,
      "▁potatoes": 7177,
      "illa": 7178,
      "▁incom": 7179,
      "med": 7180,
      "▁retail": 7181,
      "▁topics": 7182,
      "▁produced": 7183,
      "▁mem": 7184,
      "▁maj": 7185,
      "arters": 7186,
      "▁visitors": 7187,
      "▁exp": 7188,
      "▁threatened": 7189,
      "▁gover": 7190,
      "▁remind": 7191,
      "▁above": 7192,
      "▁sections": 7193,
      "▁dealer": 7194,
      "▁himself": 7195,
      "▁bear": 7196,
      "▁ambul": 7197,
      "▁stri": 7198,
      "▁pet": 7199,
      "▁acted": 7200,
      "▁underneath": 7201,
      "▁calling": 7202,
      "▁laun": 7203,
      "inate": 7204,
      "▁identity": 7205,
      "---------------": 7206,
      "▁tragedy": 7207,
      "▁street": 7208,
      "▁sm": 7209,
      "▁potato": 7210,
      "▁vanilla": 7211,
      "ved": 7212,
      "▁congrat": 7213,
      "▁mod": 7214,
      "▁path": 7215,
      "▁crossed": 7216,
      "isture": 7217,
      "ativity": 7218,
      "▁talked": 7219,
      "alsa": 7220,
      "▁ser": 7221,
      "▁school": 7222,
      "▁minut": 7223,
      "old": 7224,
      "eline": 7225,
      "▁schem": 7226,
      "▁cow": 7227,
      "isation": 7228,
      "ew": 7229,
      "▁second": 7230,
      "ren": 7231,
      "▁lives": 7232,
      "▁till": 7233,
      "▁baltimore": 7234,
      "▁via": 7235,
      "▁sit": 7236,
      "▁obst": 7237,
      "▁alternative": 7238,
      "▁packed": 7239,
      "tick": 7240,
      "▁element": 7241,
      "▁cali": 7242,
      "wn": 7243,
      "▁detroit": 7244,
      "ends": 7245,
      "▁ad": 7246,
      "▁three": 7247,
      "▁squirrel": 7248,
      "path": 7249,
      "ike": 7250,
      "▁roads": 7251,
      "▁univers": 7252,
      "▁munic": 7253,
      "iff": 7254,
      "tile": 7255,
      "▁chan": 7256,
      "▁arts": 7257,
      "ected": 7258,
      "▁adds": 7259,
      "▁comment": 7260,
      "way": 7261,
      "▁machine": 7262,
      "▁editor": 7263,
      "▁glo": 7264,
      "▁improve": 7265,
      "▁thoughts": 7266,
      "▁finds": 7267,
      "▁debated": 7268,
      "▁benefit": 7269,
      "▁sti": 7270,
      "airs": 7271,
      "▁neighbour": 7272,
      "▁together": 7273,
      "▁rental": 7274,
      "▁fash": 7275,
      "▁poetry": 7276,
      "▁college": 7277,
      "▁she": 7278,
      "▁-----------------------------------------------------------------": 7279,
      "▁size": 7280,
      "▁girlfriend": 7281,
      "▁’s": 7282,
      "▁owl": 7283,
      "▁sugges": 7284,
      "▁wedding": 7285,
      "▁introduction": 7286,
      "▁unc": 7287,
      "▁idea": 7288,
      "▁moments": 7289,
      "▁measures": 7290,
      "gage": 7291,
      "▁divisions": 7292,
      "▁xml": 7293,
      "▁!!!!!!!!!!!": 7294,
      "▁tunnel": 7295,
      "▁men": 7296,
      "/he": 7297,
      "▁pos": 7298,
      "▁lacking": 7299,
      "▁slept": 7300,
      "▁blog": 7301,
      "ruc": 7302,
      "otyp": 7303,
      "▁performances": 7304,
      "raw": 7305,
      "ues": 7306,
      "na": 7307,
      "▁rif": 7308,
      "▁studio": 7309,
      "ub": 7310,
      "▁blan": 7311,
      "▁pilg": 7312,
      "▁orig": 7313,
      "▁bag": 7314,
      "▁framework": 7315,
      "▁midnight": 7316,
      "▁confirmed": 7317,
      "▁grows": 7318,
      "▁spoke": 7319,
      "▁adap": 7320,
      "▁speaking": 7321,
      "▁coat": 7322,
      "▁building": 7323,
      "▁version": 7324,
      "yth": 7325,
      "▁writing": 7326,
      "▁congress": 7327,
      "augh": 7328,
      "ound": 7329,
      "tors": 7330,
      "▁eleph": 7331,
      "▁rice": 7332,
      "▁capability": 7333,
      "▁islands": 7334,
      "st": 7335,
      "▁signific": 7336,
      "▁move": 7337,
      "▁oppos": 7338,
      "▁iod": 7339,
      "▁administrator": 7340,
      "▁regulation": 7341,
      "even": 7342,
      "▁jun": 7343,
      "▁curr": 7344,
      "▁fantasy": 7345,
      "▁much": 7346,
      "▁later": 7347,
      "▁dry": 7348,
      "▁uniform": 7349,
      "****************": 7350,
      "▁zoo": 7351,
      "▁strive": 7352,
      "animals": 7353,
      "▁device": 7354,
      "▁corpor": 7355,
      "aint": 7356,
      "▁conver": 7357,
      "ife": 7358,
      "▁pointed": 7359,
      "▁thru": 7360,
      "▁cells": 7361,
      "▁fellow": 7362,
      "▁jumped": 7363,
      "▁references": 7364,
      "????????????????": 7365,
      "▁big": 7366,
      "▁trader": 7367,
      "▁coinc": 7368,
      "▁photography": 7369,
      "▁??": 7370,
      "▁extrem": 7371,
      "▁towed": 7372,
      "▁thir": 7373,
      "▁befor": 7374,
      "led": 7375,
      "earch": 7376,
      "▁novel": 7377,
      "▁pipeline": 7378,
      "▁organiz": 7379,
      "uffs": 7380,
      "▁issu": 7381,
      "▁kitty": 7382,
      "▁wished": 7383,
      "▁astride": 7384,
      "▁|--------+----------------------->": 7385,
      "▁conform": 7386,
      "thy": 7387,
      "▁19": 7388,
      "▁artist": 7389,
      "▁cand": 7390,
      "▁application": 7391,
      "▁sept": 7392,
      "▁….": 7393,
      "itations": 7394,
      "▁blow": 7395,
      "eak": 7396,
      "▁teachers": 7397,
      "▁cast": 7398,
      "▁fruits": 7399,
      "▁kids": 7400,
      "▁reg": 7401,
      "▁eat": 7402,
      "▁left": 7403,
      "▁promp": 7404,
      "▁management": 7405,
      "▁,?": 7406,
      "ission": 7407,
      "▁affair": 7408,
      "ee": 7409,
      "▁giraff": 7410,
      "▁command": 7411,
      "▁goes": 7412,
      "▁send": 7413,
      "astruc": 7414,
      "▁waters": 7415,
      "▁put": 7416,
      "▁consumption": 7417,
      "▁puzzle": 7418,
      "▁memories": 7419,
      "▁appe": 7420,
      "▁suspect": 7421,
      "▁dignity": 7422,
      "▁by": 7423,
      "▁plate": 7424,
      "▁estab": 7425,
      "▁spokesman": 7426,
      "▁same": 7427,
      "ery": 7428,
      "▁attempting": 7429,
      "▁lands": 7430,
      "▁wrong": 7431,
      "rif": 7432,
      "ʻ": 7433,
      "▁services": 7434,
      "▁instead": 7435,
      "▁'d": 7436,
      "▁describ": 7437,
      "up": 7438,
      "▁advant": 7439,
      "▁architect": 7440,
      "▁involvement": 7441,
      "▁informed": 7442,
      "▁dest": 7443,
      "▁tort": 7444,
      "▁costs": 7445,
      "der": 7446,
      "▁’re": 7447,
      "▁integration": 7448,
      "▁also": 7449,
      "▁author": 7450,
      "▁<": 7451,
      "not": 7452,
      "▁housing": 7453,
      "▁conte": 7454,
      "▁choice": 7455,
      "▁miami": 7456,
      "▁links": 7457,
      "▁initiated": 7458,
      "▁dig": 7459,
      "as": 7460,
      "umes": 7461,
      "▁las": 7462,
      "▁feeling": 7463,
      "▁docum": 7464,
      "▁managed": 7465,
      "ld": 7466,
      "orm": 7467,
      "▁other": 7468,
      "▁going": 7469,
      "uck": 7470,
      "▁fear": 7471,
      "▁recruit": 7472,
      "▁racket": 7473,
      "▁prosperity": 7474,
      "▁projects": 7475,
      "▁vend": 7476,
      "▁transform": 7477,
      "iver": 7478,
      "▁q1": 7479,
      "▁cost": 7480,
      "▁den": 7481,
      "▁jeff": 7482,
      "itt": 7483,
      "▁defined": 7484,
      "gg": 7485,
      "vation": 7486,
      "▁father": 7487,
      "▁finance": 7488,
      "▁efficiency": 7489,
      "▁apr": 7490,
      "xts": 7491,
      "▁bran": 7492,
      "▁debt": 7493,
      "▁faces": 7494,
      "com": 7495,
      "▁grand": 7496,
      "eti": 7497,
      "▁comm": 7498,
      "▁ingredients": 7499,
      "▁inh": 7500,
      "▁mutation": 7501,
      "▁perceived": 7502,
      "fted": 7503,
      "minated": 7504,
      "▁rul": 7505,
      "▁bulld": 7506,
      "▁shoe": 7507,
      "▁around": 7508,
      "tially": 7509,
      "▁decided": 7510,
      "▁mike": 7511,
      "▁minimum": 7512,
      "q": 7513,
      "▁founded": 7514,
      "▁favour": 7515,
      "▁shoulder": 7516,
      "▁carried": 7517,
      "▁appointment": 7518,
      "▁lot": 7519,
      "or": 7520,
      "▁virus": 7521,
      "▁discussions": 7522,
      "▁mid": 7523,
      "eren": 7524,
      "▁supermarket": 7525,
      "▁limitations": 7526,
      "▁shake": 7527,
      "▁influenced": 7528,
      "ention": 7529,
      "ire": 7530,
      "▁using": 7531,
      "are": 7532,
      "▁oh": 7533,
      "asing": 7534,
      "▁analysts": 7535,
      "▁cl": 7536,
      "▁pour": 7537,
      "▁percent": 7538,
      "▁wolves": 7539,
      "▁pair": 7540,
      "▁vill": 7541,
      "ithstanding": 7542,
      "▁ren": 7543,
      "▁lic": 7544,
      "▁delivered": 7545,
      "▁dirt": 7546,
      "▁elim": 7547,
      "▁extr": 7548,
      "▁refri": 7549,
      "ustration": 7550,
      "▁stamp": 7551,
      "▁south": 7552,
      "▁bic": 7553,
      "▁met": 7554,
      "▁buil": 7555,
      "ior": 7556,
      "▁conversation": 7557,
      "▁sense": 7558,
      "▁provides": 7559,
      "▁dere": 7560,
      "ier": 7561,
      "▁tongue": 7562,
      "▁sush": 7563,
      "▁wi": 7564,
      "ightly": 7565,
      "▁hero": 7566,
      "▁computer": 7567,
      "▁offic": 7568,
      "he": 7569,
      "▁enjoying": 7570,
      "▁cooked": 7571,
      "lite": 7572,
      "arly": 7573,
      "makers": 7574,
      "▁;": 7575,
      "▁clay": 7576,
      "▁pud": 7577,
      "▁taken": 7578,
      "▁my": 7579,
      "gre": 7580,
      "ries": 7581,
      "tim": 7582,
      "▁plan": 7583,
      "iry": 7584,
      "▁cri": 7585,
      "▁sw": 7586,
      "ie": 7587,
      "jamas": 7588,
      "▁forces": 7589,
      "▁grab": 7590,
      "▁pover": 7591,
      "bow": 7592,
      "▁prepared": 7593,
      "▁fame": 7594,
      "▁soft": 7595,
      "ut": 7596,
      "▁units": 7597,
      "ack": 7598,
      "▁raised": 7599,
      "fications": 7600,
      "▁computers": 7601,
      "▁own": 7602,
      "▁happy": 7603,
      "▁woman": 7604,
      "acted": 7605,
      "▁page": 7606,
      "▁jar": 7607,
      "▁wipe": 7608,
      "▁fries": 7609,
      "▁introduced": 7610,
      "▁artwork": 7611,
      "ir": 7612,
      "▁scene": 7613,
      "▁cove": 7614,
      "▁alt.animals": 7615,
      "▁assume": 7616,
      "▁development": 7617,
      "ever": 7618,
      "▁dal": 7619,
      "▁siz": 7620,
      "▁rate": 7621,
      "▁ber": 7622,
      "icted": 7623,
      "▁gained": 7624,
      "fication": 7625,
      "▁recogn": 7626,
      "▁duckie": 7627,
      "▁songs": 7628,
      "▁consumers": 7629,
      "ei": 7630,
      "▁washed": 7631,
      "erent": 7632,
      "▁·": 7633,
      "▁suggest": 7634,
      "▁basket": 7635,
      "▁verse": 7636,
      "▁islam": 7637,
      "▁weapon": 7638,
      "▁dead": 7639,
      "▁iodine": 7640,
      "▁interviews": 7641,
      "▁disl": 7642,
      "▁developer": 7643,
      "atched": 7644,
      "▁fri": 7645,
      "▁liked": 7646,
      "▁walk": 7647,
      "▁exchange": 7648,
      "▁delete": 7649,
      "▁birth": 7650,
      "▁scam": 7651,
      "▁as": 7652,
      "▁atlan": 7653,
      "illed": 7654,
      "▁cradle": 7655,
      "▁nur": 7656,
      "▁oatme": 7657,
      "aged": 7658,
      "▁pyram": 7659,
      "▁containers": 7660,
      "▁doing": 7661,
      "ify": 7662,
      "▁scr": 7663,
      "▁administ": 7664,
      "▁cust": 7665,
      "▁passion": 7666,
      "▁spoken": 7667,
      "tch": 7668,
      "▁cycl": 7669,
      "▁voted": 7670,
      "▁tribe": 7671,
      "lu": 7672,
      "▁lay": 7673,
      "▁centre": 7674,
      "▁dealt": 7675,
      "ign": 7676,
      "ears": 7677,
      "and": 7678,
      "oll": 7679,
      "itions": 7680,
      "loyed": 7681,
      "▁bec": 7682,
      "▁someone": 7683,
      "▁sir": 7684,
      "▁reach": 7685,
      "▁accused": 7686,
      ".com": 7687,
      "▁purchase": 7688,
      "▁keep": 7689,
      "▁legend": 7690,
      "-1.doc": 7691,
      "▁particularly": 7692,
      "▁devoted": 7693,
      "nding": 7694,
      "▁what": 7695,
      "▁characters": 7696,
      "▁inches": 7697,
      "▁dign": 7698,
      "ead": 7699,
      "entiality": 7700,
      "▁stillman": 7701,
      "▁consult": 7702,
      "land": 7703,
      "gry": 7704,
      "▁drugs": 7705,
      "▁level": 7706,
      "▁sil": 7707,
      "▁wheels": 7708,
      "ight": 7709,
      "edness": 7710,
      "▁&am": 7711,
      "▁pocket": 7712,
      "▁explos": 7713,
      "▁wants": 7714,
      "▁jelly": 7715,
      "ur": 7716,
      "▁fund": 7717,
      "pd": 7718,
      "▁task": 7719,
      "▁sav": 7720,
      "▁persu": 7721,
      "▁vol": 7722,
      "▁accounts": 7723,
      "▁orlando": 7724,
      "▁jud": 7725,
      "ience": 7726,
      "▁took": 7727,
      "▁doubt": 7728,
      "%": 7729,
      "ust": 7730,
      "▁admin": 7731,
      "▁theories": 7732,
      "????????????????????????????????": 7733,
      "ʁ": 7734,
      "▁boys": 7735,
      "▁struck": 7736,
      "oph": 7737,
      "▁jul": 7738,
      "action": 7739,
      "▁brothers": 7740,
      "▁mas": 7741,
      "▁visa": 7742,
      "▁audit": 7743,
      "▁clo": 7744,
      "▁promoted": 7745,
      "▁evidence": 7746,
      "▁telephone": 7747,
      "cles": 7748,
      "▁fever": 7749,
      "▁gains": 7750,
      "▁cr": 7751,
      "▁soccer": 7752,
      "ulture": 7753,
      "--------------------------------": 7754,
      "▁perform": 7755,
      "▁books": 7756,
      "▁fears": 7757,
      "▁call": 7758,
      "▁argued": 7759,
      "urop": 7760,
      "`s": 7761,
      "▁es": 7762,
      "▁casual": 7763,
      "▁prove": 7764,
      "▁mis": 7765,
      "▁medium": 7766,
      "rog": 7767,
      "▁bike": 7768,
      "izing": 7769,
      "very": 7770,
      "yond": 7771,
      "▁negoti": 7772,
      "▁sees": 7773,
      "▁challen": 7774,
      "unct": 7775,
      "▁ket": 7776,
      "▁from": 7777,
      "▁twist": 7778,
      "▁coffee": 7779,
      "▁turn": 7780,
      "▁info": 7781,
      "▁assess": 7782,
      "▁tea": 7783,
      "erate": 7784,
      "▁spoon": 7785,
      "▁flights": 7786,
      "anced": 7787,
      "hin": 7788,
      "▁necess": 7789,
      "000": 7790,
      "ement": 7791,
      "▁reef": 7792,
      "actions": 7793,
      "▁dolly": 7794,
      "rance": 7795,
      "?": 7796,
      "▁economies": 7797,
      "ony": 7798,
      "▁init": 7799,
      "▁conversations": 7800,
      "▁waitress": 7801,
      "▁bottle": 7802,
      "▁nose": 7803,
      "▁rolling": 7804,
      "▁monarch": 7805,
      "▁tasks": 7806,
      "ulate": 7807,
      "▁cats": 7808,
      "??": 7809,
      "▁monit": 7810,
      "▁drama": 7811,
      "▁[...": 7812,
      "asis": 7813,
      "▁euro": 7814,
      "▁employed": 7815,
      "▁sim": 7816,
      "derstand": 7817,
      "ept": 7818,
      "▁robot": 7819,
      "▁sou": 7820,
      "▁concentration": 7821,
      "▁acts": 7822,
      "▁peop": 7823,
      "▁dra": 7824,
      "▁sun": 7825,
      "▁returning": 7826,
      "owers": 7827,
      "▁help": 7828,
      "urday": 7829,
      "ave": 7830,
      "▁seesaw": 7831,
      "i": 7832,
      "▁pounds": 7833,
      "driver": 7834,
      "ults": 7835,
      "▁district": 7836,
      "goti": 7837,
      "▁buying": 7838,
      "▁drew": 7839,
      "▁'": 7840,
      "es": 7841,
      "▁friendship": 7842,
      "▁franc": 7843,
      "▁id": 7844,
      "▁grounds": 7845,
      "enance": 7846,
      "round": 7847,
      "ease": 7848,
      "rous": 7849,
      "work": 7850,
      "▁while": 7851,
      "un": 7852,
      "▁belly": 7853,
      "▁huge": 7854,
      "▁far": 7855,
      "▁through": 7856,
      "▁mon": 7857,
      "rates": 7858,
      "▁portr": 7859,
      "irst": 7860,
      "▁agenda": 7861,
      "▁often": 7862,
      "▁firm": 7863,
      "▁partner": 7864,
      "▁class": 7865,
      "▁pages": 7866,
      "▁relating": 7867,
      "▁secretary": 7868,
      "▁evolving": 7869,
      "▁guest": 7870,
      "▁love": 7871,
      "▁bird": 7872,
      "tor": 7873,
      "▁dancing": 7874,
      "one": 7875,
      "▁instit": 7876,
      "▁earliest": 7877,
      "▁despite": 7878,
      "▁and": 7879,
      "▁save": 7880,
      "▁6": 7881,
      "▁grav": 7882,
      "omp": 7883,
      "bed": 7884,
      "▁door": 7885,
      "ength": 7886,
      "ia": 7887,
      "orp": 7888,
      "▁milit": 7889,
      "▁libr": 7890,
      "▁rent": 7891,
      "▁mark": 7892,
      "▁naima": 7893,
      "▁language": 7894,
      "▁refers": 7895,
      "▁datash": 7896,
      "▁speak": 7897,
      "▁remember": 7898,
      "▁acquis": 7899,
      "min": 7900,
      "ding": 7901,
      "▁x3": 7902,
      "ilar": 7903,
      "iated": 7904,
      "▁whis": 7905,
      "▁til": 7906,
      "▁engage": 7907,
      "ping": 7908,
      "▁throughout": 7909,
      "▁recognition": 7910,
      "arian": 7911,
      "▁to": 7912,
      "bably": 7913,
      "▁receives": 7914,
      "▁minds": 7915,
      "▁cleaning": 7916,
      "ht": 7917,
      "und": 7918,
      "met": 7919,
      "ched": 7920,
      "ipped": 7921,
      "▁hi": 7922,
      "▁tank": 7923,
      "▁separate": 7924,
      "tity": 7925,
      "▁faith": 7926,
      "▁born": 7927,
      "alize": 7928,
      "▁educated": 7929,
      "mber": 7930,
      "aches": 7931,
      "▁arguing": 7932,
      "ss": 7933,
      "▁queries": 7934,
      "▁provide": 7935,
      "▁referen": 7936,
      "▁strugg": 7937,
      "▁denver": 7938,
      "▁connect": 7939,
      "▁toes": 7940,
      "▁processing": 7941,
      "▁lick": 7942,
      "ouse": 7943,
      ".m.": 7944,
      "ilos": 7945,
      "▁hor": 7946,
      "pping": 7947,
      "▁imple": 7948,
      "▁entity": 7949,
      "▁momm": 7950,
      "ous": 7951,
      "▁allow": 7952,
      "........": 7953,
      "▁trains": 7954,
      "ations": 7955,
      "▁bring": 7956,
      "enc": 7957,
      "▁ing": 7958,
      "▁mach": 7959,
      "▁security": 7960,
      "▁miam": 7961,
      "urity": 7962,
      "▁budget": 7963,
      "▁accompan": 7964,
      "▁wore": 7965,
      "▁hands": 7966,
      "▁practices": 7967,
      "▁either": 7968,
      "▁criteria": 7969,
      "ato": 7970,
      "▁difficult": 7971,
      "▁employees": 7972,
      "▁surrounding": 7973,
      "▁funded": 7974,
      "omination": 7975,
      "ribute": 7976,
      "▁male": 7977,
      "ancers": 7978,
      "▁manner": 7979,
      "▁cream": 7980,
      "▁coup": 7981,
      "▁north": 7982,
      "▁worms": 7983,
      "▁lack": 7984,
      "ounts": 7985,
      "▁waiver": 7986,
      "▁knees": 7987,
      "▁reaction": 7988,
      "▁existed": 7989,
      "▁dail": 7990,
      "▁promoting": 7991,
      "▁pretending": 7992,
      "nect": 7993,
      "▁dro": 7994,
      "▁feedback": 7995,
      "ands": 7996,
      "▁intern": 7997,
      "▁file": 7998,
      "_": 7999,
      "os": 8000,
      "▁respons": 8001,
      "igg": 8002,
      "bles": 8003,
      "▁mosque": 8004,
      "ication": 8005,
      "▁adventure": 8006,
      "▁equ": 8007,
      "▁buttons": 8008,
      "▁lined": 8009,
      "▁changing": 8010,
      "▁picture": 8011,
      "cience": 8012,
      "▁deployed": 8013,
      "▁departure": 8014,
      "ta": 8015,
      "▁motor": 8016,
      "nce": 8017,
      "▁temper": 8018,
      "spite": 8019,
      "▁scenes": 8020,
      "▁pur": 8021,
      "▁granted": 8022,
      "iding": 8023,
      "phere": 8024,
      "aying": 8025,
      "▁mush": 8026,
      "▁tuesday": 8027,
      "▁round": 8028,
      "▁ball": 8029,
      "ych": 8030,
      "▁psychology": 8031,
      "▁hide": 8032,
      "iction": 8033,
      "ab": 8034,
      "▁cookies": 8035,
      "rism": 8036,
      "▁investig": 8037,
      "nd": 8038,
      "▁sand": 8039,
      "▁infr": 8040,
      "▁order": 8041,
      "▁asks": 8042,
      "phia": 8043,
      "▁?!": 8044,
      "▁therefore": 8045,
      "ist": 8046,
      "▁establish": 8047,
      "▁lie": 8048,
      "▁actually": 8049,
      "▁ven": 8050,
      "▁rest": 8051,
      "▁journals": 8052,
      "▁airl": 8053,
      "▁interface": 8054,
      "▁matter": 8055,
      "▁strategies": 8056,
      "▁sear": 8057,
      "▁grown": 8058,
      "▁believed": 8059,
      "ear": 8060,
      "esh": 8061,
      "io": 8062,
      "▁blink": 8063,
      "▁tried": 8064,
      "anda": 8065,
      "!!": 8066,
      "▁presents": 8067,
      "▁difficulties": 8068,
      "▁wife": 8069,
      "▁’m": 8070,
      "eign": 8071,
      "aughter": 8072,
      ".pd": 8073,
      "▁horse": 8074,
      "aft": 8075,
      "▁fans": 8076,
      "▁educ": 8077,
      "▁feathers": 8078,
      "▁intrigu": 8079,
      "▁fl": 8080,
      "▁...": 8081,
      "-------": 8082,
      "▁pick": 8083,
      "▁fees": 8084,
      "▁inn": 8085,
      "▁litter": 8086,
      "▁cancer": 8087,
      "▁guinea": 8088,
      "▁paris": 8089,
      "▁wand": 8090,
      "oves": 8091,
      "▁emergency": 8092,
      "°": 8093,
      "▁bri": 8094,
      "▁vehic": 8095,
      "▁pix": 8096,
      "▁nursies": 8097,
      "▁environ": 8098,
      "ines": 8099,
      "▁est": 8100,
      "▁associated": 8101,
      "▁importance": 8102,
      "▁fixed": 8103,
      "▁started": 8104,
      "▁cry": 8105,
      "▁violation": 8106,
      "icate": 8107,
      "ght": 8108,
      "▁touched": 8109,
      "ounce": 8110,
      "▁pil": 8111,
      "▁diapers": 8112,
      "▁ru": 8113,
      "vil": 8114,
      "▁hammer": 8115,
      "▁getting": 8116,
      "orted": 8117,
      "▁humanity": 8118,
      "▁breakf": 8119,
      "ished": 8120,
      "els": 8121,
      "▁restaurant": 8122,
      "▁distric": 8123,
      "▁mouse": 8124,
      "▁wond": 8125,
      "ale": 8126,
      "▁carriage": 8127,
      "ment": 8128,
      "▁mistakes": 8129,
      "▁resulted": 8130,
      "▁made": 8131,
      "▁)": 8132,
      "oy": 8133,
      "▁breath": 8134,
      "▁on": 8135,
      "▁database": 8136,
      "▁shift": 8137,
      "▁chap": 8138,
      "▁ensuring": 8139,
      ".x": 8140,
      "arg": 8141,
      "▁dolphin": 8142,
      "▁wit": 8143,
      "▁15": 8144,
      "▁begin": 8145,
      "▁stud": 8146,
      "thin": 8147,
      "▁white": 8148,
      "▁august": 8149,
      "▁distinction": 8150,
      "▁undertake": 8151,
      "tride": 8152,
      "▁climbing": 8153,
      "▁dessert": 8154,
      "▁ants": 8155,
      "enings": 8156,
      "▁of": 8157,
      "▁contributed": 8158,
      "▁daddy": 8159,
      "__": 8160,
      "▁tracks": 8161,
      "▁forest": 8162,
      "▁reserve": 8163,
      "▁then": 8164,
      "▁dragon": 8165,
      "idd": 8166,
      "▁foli": 8167,
      "▁includes": 8168,
      "▁representatives": 8169,
      "▁almost": 8170,
      "▁fire": 8171,
      "▁allocated": 8172,
      "▁hole": 8173,
      "!!!": 8174,
      "▁mountain": 8175,
      "titude": 8176,
      "▁funeral": 8177,
      "▁caught": 8178,
      "uce": 8179,
      "ators": 8180,
      "▁boy": 8181,
      "▁gang": 8182,
      "▁disp": 8183,
      "▁word": 8184,
      "ended": 8185,
      "▁transit": 8186,
      "gy": 8187,
      "▁angeles": 8188,
      "▁caps": 8189,
      "▁sound": 8190,
      "atic": 8191
    },
    "merges": [
      [
        "▁the",
        "at"
      ],
      [
        "▁ref",
        "eren"
      ],
      [
        "ep",
        "end"
      ],
      [
        "▁v",
        "end"
      ],
      [
        "▁f",
        "urn"
      ],
      [
        "▁tou",
        "ched"
      ],
      [
        "▁impro",
        "ving"
      ],
      [
        "ud",
        "e"
      ],
      [
        "▁am",
        "ount"
      ],
      [
        "▁n",
        "o"
      ],
      [
        "▁copy",
        "right"
      ],
      [
        "▁sw",
        "ord"
      ],
      [
        "▁sh",
        "ell"
      ],
      [
        "▁s",
        "igned"
      ],
      [
        "i",
        "lity"
      ],
      [
        "▁mosqu",
        "es"
      ],
      [
        "▁sur",
        "ge"
      ],
      [
        "a",
        "ged"
      ],
      [
        "ic",
        "ted"
      ],
      [
        "▁w",
        "/"
      ],
      [
        "▁op",
        "ening"
      ],
      [
        "▁cl",
        "ass"
      ],
      [
        "▁play",
        "w"
      ],
      [
        "▁ar",
        "gu"
      ],
      [
        "▁off",
        "ering"
      ],
      [
        "▁j",
        "ail"
      ],
      [
        "▁wou",
        "d"
      ],
      [
        "▁off",
        "er"
      ],
      [
        "▁al",
        "ter"
      ],
      [
        "▁avo",
        "ided"
      ],
      [
        "▁open",
        "ing"
      ],
      [
        "▁supp",
        "orted"
      ],
      [
        "▁",
        "ow"
      ],
      [
        "▁a",
        "r"
      ],
      [
        "c",
        "ut"
      ],
      [
        "▁extre",
        "mely"
      ],
      [
        "▁gu",
        "ys"
      ],
      [
        "▁t",
        "ake"
      ],
      [
        "▁forwar",
        "d"
      ],
      [
        "▁appro",
        "ach"
      ],
      [
        "▁m",
        "op"
      ],
      [
        "fic",
        "ations"
      ],
      [
        "▁m",
        "r."
      ],
      [
        "▁fell",
        "ow"
      ],
      [
        "n",
        "ce"
      ],
      [
        "▁fe",
        "ed"
      ],
      [
        "▁",
        "ess"
      ],
      [
        "▁",
        "oc"
      ],
      [
        "g",
        "et"
      ],
      [
        "▁i",
        "v"
      ],
      [
        "▁com",
        "mon"
      ],
      [
        "▁sp",
        "ent"
      ],
      [
        "▁win",
        "ning"
      ],
      [
        "▁indust",
        "ries"
      ],
      [
        "▁tour",
        "s"
      ],
      [
        "▁dis",
        "l"
      ],
      [
        "▁bo",
        "y"
      ],
      [
        "ili",
        "ties"
      ],
      [
        "▁coord",
        "ination"
      ],
      [
        "▁a",
        "verage"
      ],
      [
        "▁h",
        "uge"
      ],
      [
        "id",
        "ents"
      ],
      [
        "▁wor",
        "ked"
      ],
      [
        "▁a",
        "gre"
      ],
      [
        "el",
        "ine"
      ],
      [
        "os",
        "es"
      ],
      [
        "ad",
        "as"
      ],
      [
        "▁",
        "’s"
      ],
      [
        "▁dis",
        "p"
      ],
      [
        "▁recr",
        "uit"
      ],
      [
        "▁ingred",
        "ients"
      ],
      [
        "▁he",
        "art"
      ],
      [
        "▁list",
        "en"
      ],
      [
        "▁defic",
        "iency"
      ],
      [
        "▁minut",
        "e"
      ],
      [
        "▁maj",
        "ority"
      ],
      [
        "▁guar",
        "antee"
      ],
      [
        "▁prett",
        "y"
      ],
      [
        "▁def",
        "ine"
      ],
      [
        "▁l",
        "ast"
      ],
      [
        "▁a",
        "pr"
      ],
      [
        "c",
        "ally"
      ],
      [
        "e",
        "w"
      ],
      [
        "▁in",
        "equ"
      ],
      [
        "▁ass",
        "oc"
      ],
      [
        "u",
        "ding"
      ],
      [
        "res",
        "sed"
      ],
      [
        "n",
        "is"
      ],
      [
        "▁m",
        "ech"
      ],
      [
        "▁pers",
        "p"
      ],
      [
        "ac",
        "ted"
      ],
      [
        "▁your",
        "s"
      ],
      [
        "▁ba",
        "ck"
      ],
      [
        "▁w",
        "ou"
      ],
      [
        "h",
        "eet"
      ],
      [
        "ut",
        "e"
      ],
      [
        "▁ld2d-",
        "#693"
      ],
      [
        "▁und",
        "er"
      ],
      [
        "▁craw",
        "l"
      ],
      [
        "▁ki",
        "lled"
      ],
      [
        "▁t",
        "am"
      ],
      [
        "▁draw",
        "er"
      ],
      [
        "▁sar",
        "ah"
      ],
      [
        "▁h",
        "ay"
      ],
      [
        "▁poin",
        "ts"
      ],
      [
        "ig",
        "ned"
      ],
      [
        "▁e",
        "ye"
      ],
      [
        "▁incre",
        "ases"
      ],
      [
        "▁writ",
        "ers"
      ],
      [
        "▁es",
        "tim"
      ],
      [
        "▁cab",
        "in"
      ],
      [
        "▁d",
        "av"
      ],
      [
        "▁disc",
        "ount"
      ],
      [
        "id",
        "es"
      ],
      [
        "▁stre",
        "ets"
      ],
      [
        "li",
        "gh"
      ],
      [
        "st",
        "ers"
      ],
      [
        "▁cur",
        "ves"
      ],
      [
        "▁ti",
        "ming"
      ],
      [
        "l",
        "s"
      ],
      [
        "/",
        "/"
      ],
      [
        "▁r",
        "ice"
      ],
      [
        "▁d",
        "ay"
      ],
      [
        "▁bo",
        "at"
      ],
      [
        "▁mem",
        "oir"
      ],
      [
        "▁nat",
        "ural"
      ],
      [
        "▁sun",
        "day"
      ],
      [
        "f",
        "ting"
      ],
      [
        "▁us",
        "e"
      ],
      [
        "▁c",
        "ities"
      ],
      [
        "▁disapp",
        "eared"
      ],
      [
        "i",
        "cally"
      ],
      [
        "▁sel",
        "f"
      ],
      [
        "sel",
        "f"
      ],
      [
        "▁att",
        "acked"
      ],
      [
        "ast",
        "ic"
      ],
      [
        "▁tool",
        "s"
      ],
      [
        "▁fi",
        "red"
      ],
      [
        "▁pred",
        "ators"
      ],
      [
        "▁tr",
        "actor"
      ],
      [
        "ul",
        "l"
      ],
      [
        "▁week",
        "end"
      ],
      [
        "od",
        "e"
      ],
      [
        "▁welf",
        "are"
      ],
      [
        "▁mar",
        "riage"
      ],
      [
        "▁ch",
        "all"
      ],
      [
        "▁show",
        "s"
      ],
      [
        "▁en",
        "ded"
      ],
      [
        "es",
        "ted"
      ],
      [
        "▁beach",
        "es"
      ],
      [
        "▁process",
        "ing"
      ],
      [
        "▁elim",
        "inate"
      ],
      [
        "8",
        "0s"
      ],
      [
        "lo",
        "yed"
      ],
      [
        "ent",
        "ure"
      ],
      [
        "▁car",
        "ried"
      ],
      [
        "▁lead",
        "er"
      ],
      [
        "▁res",
        "ist"
      ],
      [
        "▁hos",
        "t"
      ],
      [
        "▁rec",
        "all"
      ],
      [
        "▁y",
        "oy"
      ],
      [
        "▁determ",
        "ined"
      ],
      [
        "lic",
        "ation"
      ],
      [
        "▁s",
        "ep"
      ],
      [
        "en",
        "ced"
      ],
      [
        "▁pr",
        "in"
      ],
      [
        "is",
        "on"
      ],
      [
        "▁mili",
        "t"
      ],
      [
        "▁h",
        "app"
      ],
      [
        "▁supp",
        "l"
      ],
      [
        "▁a",
        "l"
      ],
      [
        "▁din",
        "ner"
      ],
      [
        "ad",
        "y"
      ],
      [
        "e",
        "ct"
      ],
      [
        "▁follow",
        "ing"
      ],
      [
        "oc",
        "ked"
      ],
      [
        "▁gen",
        "erated"
      ],
      [
        "▁wor",
        "ld"
      ],
      [
        "▁sh",
        "ad"
      ],
      [
        "▁for",
        "ces"
      ],
      [
        "▁ti",
        "tle"
      ],
      [
        "▁sat",
        "urday"
      ],
      [
        "▁j",
        "os"
      ],
      [
        "el",
        "i"
      ],
      [
        "mp",
        "ing"
      ],
      [
        "▁in",
        "to"
      ],
      [
        "p",
        "tion"
      ],
      [
        "▁dail",
        "y"
      ],
      [
        "▁m",
        "ir"
      ],
      [
        "atis",
        "faction"
      ],
      [
        "▁lo",
        "ved"
      ],
      [
        "it",
        "i"
      ],
      [
        "▁fl",
        "es"
      ],
      [
        "al",
        "ize"
      ],
      [
        "▁apprec",
        "iate"
      ],
      [
        "▁n",
        "ations"
      ],
      [
        "▁p",
        "oo"
      ],
      [
        "p",
        "ol"
      ],
      [
        "u",
        "ling"
      ],
      [
        "▁ro",
        "om"
      ],
      [
        "▁appro",
        "ved"
      ],
      [
        "▁des",
        "pite"
      ],
      [
        "▁",
        "it"
      ],
      [
        "▁outc",
        "ome"
      ],
      [
        "oun",
        "d"
      ],
      [
        "tain",
        "ty"
      ],
      [
        "al",
        "ty"
      ],
      [
        "▁broke",
        "n"
      ],
      [
        "i",
        "er"
      ],
      [
        "▁d",
        "ump"
      ],
      [
        "▁car",
        "ries"
      ],
      [
        "t",
        "or"
      ],
      [
        "▁k",
        "et"
      ],
      [
        "▁s",
        "uff"
      ],
      [
        "▁p",
        "ra"
      ],
      [
        "▁hur",
        "ts"
      ],
      [
        "▁respon",
        "se"
      ],
      [
        "▁ev",
        "alu"
      ],
      [
        "▁veg",
        "as"
      ],
      [
        "▁mus",
        "cles"
      ],
      [
        "▁apprec",
        "iated"
      ],
      [
        "▁infr",
        "astruc"
      ],
      [
        "▁com",
        "b"
      ],
      [
        "▁",
        "."
      ],
      [
        "▁hear",
        "d"
      ],
      [
        "▁betw",
        "een"
      ],
      [
        "▁fil",
        "ters"
      ],
      [
        "▁se",
        "am"
      ],
      [
        "ow",
        "ers"
      ],
      [
        "y",
        "m"
      ],
      [
        "▁fin",
        "ished"
      ],
      [
        "▁r",
        "educ"
      ],
      [
        "▁",
        "n"
      ],
      [
        "k",
        "eep"
      ],
      [
        "▁oper",
        "ations"
      ],
      [
        "i",
        "ly"
      ],
      [
        "▁cap",
        "tain"
      ],
      [
        "▁tal",
        "ked"
      ],
      [
        "o",
        "ke"
      ],
      [
        "▁p",
        "ot"
      ],
      [
        "▁p",
        "ud"
      ],
      [
        "▁",
        "x"
      ],
      [
        "▁som",
        "eth"
      ],
      [
        "▁app",
        "l"
      ],
      [
        "▁m",
        "id"
      ],
      [
        "▁coun",
        "sel"
      ],
      [
        "▁stud",
        "ying"
      ],
      [
        "es",
        "sed"
      ],
      [
        "▁tex",
        "ts"
      ],
      [
        "▁requ",
        "ests"
      ],
      [
        "▁ident",
        "ifying"
      ],
      [
        "▁ex",
        "pl"
      ],
      [
        "▁an",
        "t"
      ],
      [
        "▁s",
        "ar"
      ],
      [
        "▁bub",
        "ble"
      ],
      [
        "▁re",
        "sul"
      ],
      [
        "o",
        "ss"
      ],
      [
        "ult",
        "ure"
      ],
      [
        "▁te",
        "ach"
      ],
      [
        "j",
        "o"
      ],
      [
        "▁yog",
        "urt"
      ],
      [
        "▁in",
        "str"
      ],
      [
        "▁gen",
        "eral"
      ],
      [
        "c",
        "ently"
      ],
      [
        "▁e",
        "ver"
      ],
      [
        "▁hors",
        "e"
      ],
      [
        "▁y",
        "outh"
      ],
      [
        "▁att",
        "ach"
      ],
      [
        "▁fig",
        "ures"
      ],
      [
        "▁p",
        "en"
      ],
      [
        "▁trav",
        "el"
      ],
      [
        "▁fl",
        "o"
      ],
      [
        "▁gu",
        "y"
      ],
      [
        "▁pack",
        "age"
      ],
      [
        "▁ir",
        "aq"
      ],
      [
        "c",
        "oon"
      ],
      [
        "n",
        "t"
      ],
      [
        "▁a",
        "w"
      ],
      [
        "▁lit",
        "ter"
      ],
      [
        "p",
        "ers"
      ],
      [
        "▁or",
        "ange"
      ],
      [
        "▁ac",
        "tions"
      ],
      [
        "▁r",
        "ich"
      ],
      [
        "▁inclu",
        "de"
      ],
      [
        "fo",
        "r"
      ],
      [
        "▁present",
        "s"
      ],
      [
        "▁f",
        "lies"
      ],
      [
        "▁",
        "in"
      ],
      [
        "▁sci",
        "ence"
      ],
      [
        "▁dol",
        "lie"
      ],
      [
        "▁fa",
        "b"
      ],
      [
        "▁stand",
        "ing"
      ],
      [
        "▁assist",
        "ant"
      ],
      [
        "▁exp",
        "ecting"
      ],
      [
        "▁anti",
        "qu"
      ],
      [
        "▁fil",
        "es"
      ],
      [
        "▁t",
        "ack"
      ],
      [
        "ul",
        "ations"
      ],
      [
        "▁le",
        "g"
      ],
      [
        "cr",
        "aft"
      ],
      [
        "▁broom",
        "s"
      ],
      [
        "▁repe",
        "ated"
      ],
      [
        "▁fac",
        "ilities"
      ],
      [
        "▁cock",
        "tail"
      ],
      [
        "ol",
        "ved"
      ],
      [
        "g",
        "r"
      ],
      [
        "▁sp",
        "e"
      ],
      [
        "▁t",
        "ale"
      ],
      [
        "▁stir",
        "rup"
      ],
      [
        "▁dow",
        "n"
      ],
      [
        "ic",
        "ed"
      ],
      [
        "at",
        "ors"
      ],
      [
        "▁pupp",
        "y"
      ],
      [
        "▁rem",
        "ove"
      ],
      [
        "os",
        "ing"
      ],
      [
        "ri",
        "ght"
      ],
      [
        "▁f",
        "ans"
      ],
      [
        "▁less",
        "ons"
      ],
      [
        "iv",
        "ing"
      ],
      [
        "▁ha",
        "ve"
      ],
      [
        "▁re",
        "ce"
      ],
      [
        "▁amer",
        "ican"
      ],
      [
        "▁flo",
        "ating"
      ],
      [
        "▁col",
        "umn"
      ],
      [
        "ed",
        "ness"
      ],
      [
        "▁supp",
        "osed"
      ],
      [
        "▁dis",
        "aster"
      ],
      [
        "▁cl",
        "imb"
      ],
      [
        "▁pres",
        "s"
      ],
      [
        "oo",
        "d"
      ],
      [
        "▁call",
        "ed"
      ],
      [
        "▁prem",
        "ium"
      ],
      [
        "▁represent",
        "atives"
      ],
      [
        "▁scen",
        "ar"
      ],
      [
        "▁un",
        "c"
      ],
      [
        "▁p",
        "e"
      ],
      [
        "ar",
        "ly"
      ],
      [
        "▁m",
        "ention"
      ],
      [
        "▁dark",
        "ness"
      ],
      [
        "▁b",
        "room"
      ],
      [
        "▁leg",
        "acy"
      ],
      [
        "▁w",
        "orth"
      ],
      [
        "▁f",
        "a"
      ],
      [
        "▁ind",
        "ust"
      ],
      [
        "▁id",
        "ent"
      ],
      [
        "ion",
        "al"
      ],
      [
        "▁",
        "`"
      ],
      [
        "▁p",
        "le"
      ],
      [
        "▁en",
        "v"
      ],
      [
        "▁n",
        "orth"
      ],
      [
        "g",
        "e"
      ],
      [
        "▁play",
        "er"
      ],
      [
        "▁challen",
        "ges"
      ],
      [
        "▁",
        "h"
      ],
      [
        "▁bir",
        "th"
      ],
      [
        "▁v",
        "ide"
      ],
      [
        "ula",
        "tion"
      ],
      [
        "▁sp",
        "otted"
      ],
      [
        "▁pur",
        "ple"
      ],
      [
        "▁den",
        "y"
      ],
      [
        "▁poli",
        "ticians"
      ],
      [
        "▁jump",
        "ed"
      ],
      [
        "!",
        "!"
      ],
      [
        "▁l",
        "ove"
      ],
      [
        "ak",
        "istan"
      ],
      [
        "▁analys",
        "ts"
      ],
      [
        "c",
        "c"
      ],
      [
        "▁",
        "ident"
      ],
      [
        "▁persp",
        "ective"
      ],
      [
        "▁ho",
        "liday"
      ],
      [
        "▁ac",
        "quis"
      ],
      [
        "▁gr",
        "ill"
      ],
      [
        "▁cons",
        "um"
      ],
      [
        "i",
        "ved"
      ],
      [
        ":",
        "//"
      ],
      [
        "ge",
        "ther"
      ],
      [
        "l",
        "ine"
[...]
