{
  "version": "1.0",
  "truncation": null,
  "padding": null,
  "added_tokens": [
    {
      "id": 2389,
      "content": "[SEP]",
      "single_word": false,
      "lstrip": false,
      "rstrip": false,
      "normalized": false,
      "special": true
    },
    {
      "id": 3967,
      "content": "[UNK]",
      "single_word": false,
      "lstrip": false,
      "rstrip": false,
      "normalized": false,
      "special": true
    },
    {
      "id": 4962,
      "content": "[MASK]",
      "single_word": false,
      "lstrip": false,
      "rstrip": false,
      "normalized": false,
      "special": true
    },
    {
      "id": 6586,
      "content": "[PAD]",
      "single_word": false,
      "lstrip": false,
      "rstrip": false,
      "normalized": false,
      "special": true
    },
    {
      "id": 6700,
      "content": "[CLS]",
      "single_word": false,
      "lstrip": false,
      "rstrip": false,
      "normalized": false,
      "special": true
    }
  ],
  "normalizer": {
    "type": "Sequence",
    "normalizers": [
      {
        "type": "NFD"
      },
      {
        "type": "Lowercase"
      },
      {
        "type": "StripAccents"
      }
    ]
  },
  "pre_tokenizer": {
    "type": "Sequence",
    "pretokenizers": [
      {
        "type": "Metaspace",
        "replacement": "▁",
        "prepend_scheme": "always",
        "split": true
      }
    ]
  },
  "post_processor": {
    "type": "TemplateProcessing",
    "single": [
      {
        "SpecialToken": {
          "id": "[CLS]",
          "type_id": 0
        }
      },
      {
        "Sequence": {
          "id": "A",
          "type_id": 0
        }
      },
      {
        "SpecialToken": {
          "id": "[SEP]",
          "type_id": 0
        }
      }
    ],
    "pair": [
      {
        "SpecialToken": {
          "id": "[CLS]",
          "type_id": 0
        }
      },
      {
        "Sequence": {
          "id": "A",
          "type_id": 0
        }
      },
      {
        "SpecialToken": {
          "id": "[SEP]",
          "type_id": 0
        }
      },
      {
        "Sequence": {
          "id": "B",
          "type_id": 1
        }
      },
      {
        "SpecialToken": {
          "id": "[SEP]",
          "type_id": 1
        }
      }
    ],
    "special_tokens": {
      "[CLS]": {
        "id": "[CLS]",
        "ids": [
          6700
        ],
        "tokens": [
          "[CLS]"
        ]
      },
      "[SEP]": {
        "id": "[SEP]",
        "ids": [
          2389
        ],
        "tokens": [
          "[SEP]"
        ]
      }
    }
  },
  "decoder": {
    "type": "Metaspace",
    "replacement": "▁",
    "prepend_scheme": "always",
    "split": true
  },
  "model": {
    "type": "WordPiece",
    "unk_token": "[UNK]",
    "continuing_subword_prefix": "##",
    "max_input_chars_per_word": 100,
    "vocab": {
      "▁controls": 0,
      "▁shed": 1,
      "▁translation": 2,
      "▁complex": 3,
      "▁wealth": 4,
      "▁traveler": 5,
      "▁tracks": 6,
      "▁astride": 7,
      "▁sch": 8,
      "##fl": 9,
      "##lem": 10,
      "▁aim": 11,
      "▁attention": 12,
      "▁farmers": 13,
      "▁limous": 14,
      "##otted": 15,
      "▁noone": 16,
      "▁inst": 17,
      "▁general": 18,
      "▁tex": 19,
      "▁repres": 20,
      "▁ran": 21,
      "▁turning": 22,
      "##ions": 23,
      "▁lady": 24,
      "▁body": 25,
      "##icing": 26,
      "▁tv": 27,
      "##????????": 28,
      "▁vaccine": 29,
      "▁person": 30,
      "▁producers": 31,
      "▁cha": 32,
      "##el": 33,
      "##mp": 34,
      "##aks": 35,
      "▁acts": 36,
      "##iel": 37,
      "▁foll": 38,
      "▁fallen": 39,
      "##operation": 40,
      "▁dragon": 41,
      "▁targ": 42,
      "▁cast": 43,
      "▁display": 44,
      "▁admit": 45,
      "▁simply": 46,
      "▁receiving": 47,
      "▁chief": 48,
      "▁channel": 49,
      "##ements": 50,
      "s": 51,
      "##raph": 52,
      "▁moves": 53,
      "##alists": 54,
      "▁suffered": 55,
      "▁on": 56,
      "▁difficul": 57,
      "▁city": 58,
      "▁suck": 59,
      "▁plain": 60,
      "▁gar": 61,
      "##apping": 62,
      "##eti": 63,
      "##ticks": 64,
      "▁mechanics": 65,
      "▁mili": 66,
      "▁identifying": 67,
      "▁ingred": 68,
      "▁shall": 69,
      "▁favor": 70,
      "▁insp": 71,
      "▁unit": 72,
      "▁leg": 73,
      "▁fligh": 74,
      "▁dogs": 75,
      "▁sto": 76,
      "▁ha": 77,
      "##erted": 78,
      "##inn": 79,
      "▁pu": 80,
      "m": 81,
      "▁pop": 82,
      "▁car": 83,
      "▁prosp": 84,
      "▁grows": 85,
      "▁calif": 86,
      "▁diss": 87,
      "▁group": 88,
      "▁furn": 89,
      "▁outside": 90,
      "##ade": 91,
      "▁experiences": 92,
      "▁formed": 93,
      "##ires": 94,
      "##ergy": 95,
      "▁procedures": 96,
      "▁fighter": 97,
      "▁took": 98,
      "##ump": 99,
      "▁pursu": 100,
      "▁1970s": 101,
      "▁wants": 102,
      "▁bones": 103,
      "▁hoped": 104,
      "▁tell": 105,
      "##oring": 106,
      "▁tours": 107,
      "▁cent": 108,
      "▁ruin": 109,
      "##ounds": 110,
      "▁busy": 111,
      "▁chalk": 112,
      "▁___________": 113,
      "▁enthusi": 114,
      "▁traged": 115,
      "▁tast": 116,
      "▁??": 117,
      "▁infl": 118,
      "▁received": 119,
      "ε": 120,
      "##ema": 121,
      "▁about": 122,
      "##-s": 123,
      "▁too": 124,
      "▁negotiations": 125,
      "▁ships": 126,
      "##ians": 127,
      "▁-": 128,
      "▁coc": 129,
      "▁satisf": 130,
      "##inal": 131,
      "▁nonstop": 132,
      "▁holiday": 133,
      "##ually": 134,
      "##...": 135,
      "▁heading": 136,
      "▁celebr": 137,
      "▁highly": 138,
      "##val": 139,
      "▁dinosaur": 140,
      "##ners": 141,
      "##ive": 142,
      "▁artwork": 143,
      "▁respons": 144,
      "##ha": 145,
      "##ish": 146,
      "▁dolphin": 147,
      "##ator": 148,
      "▁tac": 149,
      "▁knowing": 150,
      "▁swung": 151,
      "##ime": 152,
      "##ide": 153,
      "##reat": 154,
      "▁downtown": 155,
      "##ival": 156,
      "▁mech": 157,
      "▁old": 158,
      "▁rank": 159,
      "▁cookie": 160,
      "▁software": 161,
      "▁yellow": 162,
      "▁weekday": 163,
      "##’": 164,
      "▁recent": 165,
      "▁dresses": 166,
      "▁cig": 167,
      "▁pressure": 168,
      "▁supermarket": 169,
      "▁analysts": 170,
      "##ught": 171,
      "##ili": 172,
      "▁lettuce": 173,
      "##isted": 174,
      "▁amidst": 175,
      "▁tourist": 176,
      "▁ser": 177,
      "5": 178,
      "▁espec": 179,
      "▁analys": 180,
      "▁welcomed": 181,
      "▁date": 182,
      "##–": 183,
      "▁models": 184,
      "##+----------------": 185,
      "##liament": 186,
      "▁artworks": 187,
      "▁fries": 188,
      "▁walls": 189,
      "▁highl": 190,
      "##²": 191,
      "▁lion": 192,
      "▁mistake": 193,
      "##issed": 194,
      "▁bran": 195,
      "▁doub": 196,
      "▁emer": 197,
      "##rous": 198,
      "▁giraff": 199,
      "▁truth": 200,
      "▁soup": 201,
      "▁spaces": 202,
      "▁cartoon": 203,
      "▁adop": 204,
      "▁<": 205,
      "▁both": 206,
      "▁interesting": 207,
      "▁contained": 208,
      "▁must": 209,
      "▁bye": 210,
      "▁eggs": 211,
      "▁toys": 212,
      "##adle": 213,
      "▁monit": 214,
      "▁kansas": 215,
      "##urs": 216,
      "##works": 217,
      "▁reg": 218,
      "▁bush": 219,
      "▁bos": 220,
      "▁ice": 221,
      "##thers": 222,
      "##affle": 223,
      "▁fired": 224,
      "▁founded": 225,
      "▁texts": 226,
      "▁atmosphere": 227,
      "##spec": 228,
      "x": 229,
      "▁surprise": 230,
      "▁***": 231,
      "##ract": 232,
      "##ve": 233,
      "▁rum": 234,
      "##aph": 235,
      "##tt": 236,
      "▁cognition": 237,
      "▁“": 238,
      "▁tells": 239,
      "##uge": 240,
      "##ative": 241,
      "▁princ": 242,
      "##ple": 243,
      "▁birthday": 244,
      "▁its": 245,
      "▁mich": 246,
      "▁prevent": 247,
      "▁assu": 248,
      "▁waitress": 249,
      "▁feathers": 250,
      "##row": 251,
      "▁-----------------": 252,
      "▁guests": 253,
      "▁tel": 254,
      "▁,": 255,
      "▁thou": 256,
      "##erc": 257,
      "▁sure": 258,
      "##ressing": 259,
      "▁wife": 260,
      "▁them": 261,
      "##orities": 262,
      "▁census": 263,
      "▁usually": 264,
      "▁document": 265,
      "▁miracle": 266,
      "▁munic": 267,
      "▁men": 268,
      "##abit": 269,
      "##iety": 270,
      "##de": 271,
      "##ashington": 272,
      "##orized": 273,
      "▁writ": 274,
      "##eared": 275,
      "##th": 276,
      "▁escape": 277,
      "▁delta": 278,
      "▁transform": 279,
      "▁4": 280,
      "▁interests": 281,
      "▁agency": 282,
      "##uil": 283,
      "##estiv": 284,
      "▁fun": 285,
      "▁hero": 286,
      "##land": 287,
      "▁opportunity": 288,
      "▁puppy": 289,
      "##ball": 290,
      "▁diet": 291,
      "##asts": 292,
      "▁temp": 293,
      "▁student": 294,
      "##00": 295,
      "##ery": 296,
      "▁stand": 297,
      "ο": 298,
      "▁laura": 299,
      "##edness": 300,
      "##iz": 301,
      "▁!?": 302,
      "▁appeared": 303,
      "▁launched": 304,
      "▁foreigners": 305,
      "▁wheels": 306,
      "##ina": 307,
      "▁guard": 308,
      "▁bet": 309,
      "▁step": 310,
      "▁west": 311,
      "▁obtain": 312,
      "▁fut": 313,
      "##ass": 314,
      "▁boat": 315,
      "▁dow": 316,
      "▁smo": 317,
      "▁sub": 318,
      "▁booked": 319,
      "▁prov": 320,
      "▁spotted": 321,
      "▁beautiful": 322,
      "##ed": 323,
      "▁rest": 324,
      "▁----------------------------------------------------------------------": 325,
      "##auce": 326,
      "▁'ll": 327,
      "##phis": 328,
      "##ocol": 329,
      "▁prepared": 330,
      "▁–": 331,
      "▁sal": 332,
      "##ially": 333,
      "▁ripped": 334,
      "▁-----------------------------------------------------------------------": 335,
      "##fort": 336,
      "▁enab": 337,
      "##atme": 338,
      "▁resp": 339,
      "▁parent": 340,
      "##ks": 341,
      "▁soul": 342,
      "▁conver": 343,
      "##ental": 344,
      "▁spa": 345,
      "▁contract": 346,
      "▁argued": 347,
      "▁mile": 348,
      "▁russ": 349,
      ",": 350,
      "##ibility": 351,
      "##izes": 352,
      "▁respon": 353,
      "▁his": 354,
      "##owing": 355,
      "▁aft": 356,
      "▁thrown": 357,
      "##els": 358,
      "##0's": 359,
      "▁cartoons": 360,
      "▁violence": 361,
      "▁communication": 362,
      "▁poetry": 363,
      "▁raised": 364,
      "▁rul": 365,
      "▁earthqu": 366,
      "▁click": 367,
      "##ellow": 368,
      "##order": 369,
      "▁is": 370,
      "▁category": 371,
      "▁political": 372,
      "­": 373,
      "##pec": 374,
      "▁wrote": 375,
      "▁mater": 376,
      "▁money": 377,
      "▁veget": 378,
      "##erta": 379,
      "▁basis": 380,
      "▁consideration": 381,
      "▁without": 382,
      "▁works": 383,
      "▁string": 384,
      "▁another": 385,
      "▁balloons": 386,
      "▁disaster": 387,
      "▁sections": 388,
      "▁realized": 389,
      "##ips": 390,
      "▁:?": 391,
      "▁enjoyed": 392,
      "▁infrastruc": 393,
      "▁noise": 394,
      "▁mayor": 395,
      "▁john": 396,
      "##ici": 397,
      "▁pain": 398,
      "▁composition": 399,
      "▁default": 400,
      "▁throat": 401,
      "▁vis": 402,
      "▁turkey": 403,
      "▁assigned": 404,
      "▁guys": 405,
      "▁condition": 406,
      "▁including": 407,
      "##-w": 408,
      "▁descri": 409,
      "##driver": 410,
      "▁succeed": 411,
      "▁worry": 412,
      "▁technology": 413,
      "▁abs": 414,
      "##ei": 415,
      "▁interference": 416,
      "▁donkey": 417,
      "▁cry": 418,
      "▁am": 419,
      "▁presented": 420,
      "▁dead": 421,
      "##reds": 422,
      "▁ur": 423,
      "▁revised": 424,
      "##ll": 425,
      "▁despite": 426,
      "▁already": 427,
      "▁shark": 428,
      "▁dreamed": 429,
      "▁battle": 430,
      "▁cupcakes": 431,
      "▁equ": 432,
      "▁moving": 433,
      "▁reduc": 434,
      "##lly": 435,
      "▁homes": 436,
      "▁count": 437,
      "##nut": 438,
      "##hic": 439,
      "▁elim": 440,
      "ɑ": 441,
      "##asses": 442,
      "▁mac": 443,
      "##ok": 444,
      "##aly": 445,
      "▁muse": 446,
      "▁pir": 447,
      "▁scale": 448,
      "▁reaching": 449,
      "##ican": 450,
      "▁loved": 451,
      "▁killing": 452,
      "▁ma": 453,
      "▁male": 454,
      "▁bottle": 455,
      "▁towns": 456,
      "▁stands": 457,
      "▁purple": 458,
      "▁stud": 459,
      "▁section": 460,
      "▁ton": 461,
      "▁counterfeiting": 462,
      "##acks": 463,
      "▁attem": 464,
      "▁heels": 465,
      "▁tires": 466,
      "▁oatmeal": 467,
      "▁spir": 468,
      "▁fab": 469,
      "▁dollie": 470,
      "▁br": 471,
      "▁affairs": 472,
      "▁serving": 473,
      "▁themselves": 474,
      "##orders": 475,
      "▁anti": 476,
      "▁soap": 477,
      "▁appears": 478,
      "▁motiv": 479,
      "▁pat": 480,
      "##ius": 481,
      "▁ev": 482,
      "▁programmes": 483,
      "##uts": 484,
      "▁cin": 485,
      "▁analyses": 486,
      "▁extension": 487,
      "▁?????": 488,
      "▁`": 489,
      "▁rin": 490,
      "##ak": 491,
      "##ick": 492,
      "▁existed": 493,
      "▁hear": 494,
      "▁roo": 495,
      "▁laund": 496,
      "▁add": 497,
      "▁statements": 498,
      "ə": 499,
      "▁television": 500,
      "▁think": 501,
      "##lu": 502,
      "▁informed": 503,
      "▁obsf": 504,
      "##ca": 505,
      "▁?!?": 506,
      "▁tens": 507,
      "##ottable": 508,
      "▁researchers": 509,
      "▁departure": 510,
      "▁rat": 511,
      "▁guidelines": 512,
      "▁absorb": 513,
      "▁relig": 514,
      "▁connecting": 515,
      "▁reservation": 516,
      "▁block": 517,
      "▁philadel": 518,
      "▁spos": 519,
      "##boy": 520,
      "▁ap": 521,
      "▁decades": 522,
      "▁load": 523,
      "##uh": 524,
      "▁descriptions": 525,
      "▁bandaid": 526,
      "##ioned": 527,
      "▁mum": 528,
      "▁teeth": 529,
      "▁attempted": 530,
      "▁bulldozer": 531,
      "▁administr": 532,
      "##tain": 533,
      "▁yesterday": 534,
      "▁setting": 535,
      "▁natural": 536,
      "▁exercise": 537,
      "▁entry": 538,
      "##ception": 539,
      "##eration": 540,
      "##ament": 541,
      "##ecting": 542,
      "##alth": 543,
      "##not": 544,
      "▁replaced": 545,
      "##ust": 546,
      "##rism": 547,
      "▁adds": 548,
      "▁crops": 549,
      "▁consult": 550,
      "##ugg": 551,
      "▁fac": 552,
      "##zing": 553,
      "▁bull": 554,
      "##aw": 555,
      "▁famili": 556,
      "##enc": 557,
      "▁expression": 558,
      "▁confir": 559,
      "▁falls": 560,
      "▁hung": 561,
      "▁organiz": 562,
      "▁mr.": 563,
      "##osing": 564,
      "▁american": 565,
      "▁seeing": 566,
      "▁salt": 567,
      "▁******************************************************************": 568,
      "▁http://www": 569,
      "##opath": 570,
      "▁incen": 571,
      "##t": 572,
      "▁cere": 573,
      "▁babies": 574,
      "▁wed": 575,
      "##ression": 576,
      "▁pros": 577,
      "##ct": 578,
      "▁orient": 579,
      "##.doc": 580,
      "##gue": 581,
      "##ycle": 582,
      "▁tip": 583,
      "▁more": 584,
      "▁reproduc": 585,
      "▁insight": 586,
      "▁engineering": 587,
      "▁just": 588,
      "▁spray": 589,
      "##ket": 590,
      "##ging": 591,
      "▁gon": 592,
      "##xce": 593,
      "##'t": 594,
      "▁pops": 595,
      "##ock": 596,
      "##ply": 597,
      "▁background": 598,
      "▁garden": 599,
      "▁displayed": 600,
      "f": 601,
      "▁poet": 602,
      "▁ld2d-#693": 603,
      "##ients": 604,
      "##ugged": 605,
      "##chie": 606,
      "▁sad": 607,
      "▁fire": 608,
      "▁advertis": 609,
      "##ru": 610,
      "▁crawl": 611,
      "##eline": 612,
      "▁fri": 613,
      "▁mi": 614,
      "▁because": 615,
      "▁missed": 616,
      "▁oppose": 617,
      "▁tale": 618,
      "##****": 619,
      "▁proposed": 620,
      "▁overalls": 621,
      "▁increased": 622,
      "##-------": 623,
      "##arters": 624,
      "▁regarded": 625,
      "▁sentences": 626,
      "##cause": 627,
      "▁people": 628,
      "##acked": 629,
      "##where": 630,
      "##ather": 631,
      "▁cupboard": 632,
      "▁technologies": 633,
      "|": 634,
      "▁illust": 635,
      "##=": 636,
      "▁seem": 637,
      "##ived": 638,
      "▁iodine": 639,
      "▁judge": 640,
      "##ination": 641,
      "▁prin": 642,
      "▁available": 643,
      "▁construction": 644,
      "▁license": 645,
      "▁broom": 646,
      "▁faced": 647,
      "##os": 648,
      "▁alligator": 649,
      "▁region": 650,
      "▁considered": 651,
      "▁handling": 652,
      "▁authorities": 653,
      "▁crayons": 654,
      "▁finally": 655,
      "▁bod": 656,
      "▁individuals": 657,
      "##ati": 658,
      "▁letters": 659,
      "##erate": 660,
      "##irst": 661,
      "▁realize": 662,
      "▁ignorance": 663,
      "i": 664,
      "▁officers": 665,
      "▁math": 666,
      "▁resour": 667,
      "##ali": 668,
      "▁collab": 669,
      "▁sizes": 670,
      "##ategy": 671,
      "##time": 672,
      "▁notice": 673,
      "##ailed": 674,
      "▁baby": 675,
      "##ulations": 676,
      "▁reas": 677,
      "▁ambul": 678,
      "##veral": 679,
      "##icking": 680,
      "▁ours": 681,
      "▁traff": 682,
      "▁reaction": 683,
      "▁itself": 684,
      "▁symbol": 685,
      "▁cust": 686,
      "▁isl": 687,
      "##ations": 688,
      "##itting": 689,
      "▁---------------------------------------------------------------------": 690,
      "▁cup": 691,
      "##ief": 692,
      "▁palm": 693,
      "▁tom": 694,
      "▁accused": 695,
      "▁drinking": 696,
      "##ls": 697,
      "▁tor": 698,
      "▁scissors": 699,
      "▁heart": 700,
      "▁struc": 701,
      "▁insights": 702,
      "▁yourselves": 703,
      "##ans": 704,
      "▁preferred": 705,
      "##ets": 706,
      "▁****": 707,
      "##way": 708,
      "▁accompanied": 709,
      "▁islam": 710,
      "##ertain": 711,
      "▁dough": 712,
      "▁hip": 713,
      "▁associ": 714,
      "##ley": 715,
      "▁entity": 716,
      "##encies": 717,
      "▁degre": 718,
      "▁ports": 719,
      "##ess": 720,
      "##uff": 721,
      "▁users": 722,
      "▁give": 723,
      "▁influenced": 724,
      "##ufact": 725,
      "▁fol": 726,
      "▁beneath": 727,
      "▁wip": 728,
      ";": 729,
      "▁swim": 730,
      "▁flex": 731,
      "##pan": 732,
      "▁sweep": 733,
      "##tification": 734,
      "▁movement": 735,
      "▁lik": 736,
      "##........": 737,
      "▁planes": 738,
      "▁dese": 739,
      "##essed": 740,
      "##igh": 741,
      "##==": 742,
      "##cer": 743,
      "##ill": 744,
      "▁with": 745,
      "▁chan": 746,
      "▁ter": 747,
      "▁children": 748,
      "▁ph": 749,
      "##ω": 750,
      "▁export": 751,
      "##ctly": 752,
      "▁husband": 753,
      "β": 754,
      "▁miam": 755,
      "##rew": 756,
      "##vening": 757,
      "##idding": 758,
      "▁calendar": 759,
      "▁firm": 760,
      "##usion": 761,
      "▁pan": 762,
      "▁gas": 763,
      "▁success": 764,
      "##pet": 765,
      "##ice": 766,
      "▁hidden": 767,
      "▁units": 768,
      "▁discussions": 769,
      "##ateg": 770,
      "▁woud": 771,
      "e": 772,
      "▁however": 773,
      "▁try": 774,
      "##cing": 775,
      "▁running": 776,
      "##orp": 777,
      "▁assuming": 778,
      "▁'d": 779,
      "▁singing": 780,
      "##ograph": 781,
      "▁setup": 782,
      "##read": 783,
      "▁telling": 784,
      "##eet": 785,
      "▁welf": 786,
      "▁gym": 787,
      "▁cause": 788,
      "##ition": 789,
      "▁visits": 790,
      "▁regions": 791,
      "▁evolving": 792,
      "▁pattern": 793,
      "▁scenario": 794,
      "##ained": 795,
      "▁plot": 796,
      "▁talked": 797,
      "▁chips": 798,
      "▁options": 799,
      "▁patience": 800,
      "▁oh": 801,
      "▁recover": 802,
      "▁persp": 803,
      "##iny": 804,
      "▁soldiers": 805,
      "▁design": 806,
      "▁mixture": 807,
      "▁purse": 808,
      "▁employed": 809,
      "##arians": 810,
      "▁father": 811,
      "▁chasing": 812,
      "▁delive": 813,
      "▁authors": 814,
      "▁tri": 815,
      "▁unf": 816,
      "▁riding": 817,
      "▁pockets": 818,
      "▁ought": 819,
      "▁dentist": 820,
      "▁extremely": 821,
      "##inea": 822,
      "▁baseball": 823,
      "▁expensive": 824,
      "##8": 825,
      "▁occur": 826,
      "▁taken": 827,
      "▁inc": 828,
      "##onna": 829,
      "▁solution": 830,
      "##ˈ": 831,
      "▁limited": 832,
      "▁ribbon": 833,
      "##let": 834,
      "▁pile": 835,
      "▁intended": 836,
      "▁indicated": 837,
      "##alt": 838,
      "▁her": 839,
      "##rong": 840,
      "▁regulation": 841,
      "▁developer": 842,
      "▁figure": 843,
      "▁interact": 844,
      "##men": 845,
      "▁die": 846,
      "▁carry": 847,
      "▁temper": 848,
      "##yn": 849,
      "▁memories": 850,
      "##eep": 851,
      "▁free": 852,
      "▁yours": 853,
      "▁amendments": 854,
      "▁brows": 855,
      "▁visa": 856,
      "▁continental": 857,
      "##ble": 858,
      "▁ber": 859,
      "▁ex": 860,
      "▁details": 861,
      "▁calling": 862,
      "▁length": 863,
      "▁ginger": 864,
      "##ising": 865,
      "▁mistakes": 866,
      "##so": 867,
      "##oke": 868,
      "▁envelop": 869,
      "▁louis": 870,
      "##zed": 871,
      "▁remain": 872,
      "▁chess": 873,
      "▁wit": 874,
      "▁according": 875,
      "▁sant": 876,
      "▁hoping": 877,
      "##bo": 878,
      "▁sang": 879,
      "▁signs": 880,
      "▁fed": 881,
      "▁throu": 882,
      "▁vehicle": 883,
      "▁prefer": 884,
      "##ence": 885,
      "▁minut": 886,
      "##ledge": 887,
      "##top": 888,
      "▁shut": 889,
      "##uling": 890,
      "▁center": 891,
      "▁funeral": 892,
      "▁foc": 893,
      "##ptions": 894,
      "▁mummy": 895,
      "##6": 896,
      "▁ship": 897,
      "▁scre": 898,
      "▁maybe": 899,
      "▁coach": 900,
      "##!!!": 901,
      "▁by": 902,
      "##lit": 903,
      "▁told": 904,
      "▁located": 905,
      "##oth": 906,
      "▁coat": 907,
      "▁residents": 908,
      "▁dev": 909,
      "##aps": 910,
      "▁effects": 911,
      "▁defin": 912,
      "##gre": 913,
      "▁storm": 914,
      "##liance": 915,
      "▁lighting": 916,
      "▁mrs": 917,
      "##hol": 918,
      "▁angel": 919,
      "▁net": 920,
      "▁det": 921,
      "##•": 922,
      "▁al": 923,
      "▁captured": 924,
      "▁bud": 925,
      "▁ballet": 926,
      "▁combination": 927,
      "▁categories": 928,
      "▁drinks": 929,
      "▁flo": 930,
      "▁profess": 931,
      "▁cleaning": 932,
      "▁differences": 933,
      "▁crap": 934,
      "▁pump": 935,
      "▁dried": 936,
      "▁pers": 937,
      "▁sme": 938,
      "##acle": 939,
      "▁psychology": 940,
      "▁wave": 941,
      "▁banj": 942,
      "##bur": 943,
      "▁sports": 944,
      "▁tos": 945,
      "##ocation": 946,
      "▁managing": 947,
      "▁jeep": 948,
      "▁tie": 949,
      "##----------": 950,
      "##onents": 951,
      "▁year": 952,
      "▁strengthen": 953,
      "▁quickly": 954,
      "▁minn": 955,
      "▁ride": 956,
      "##eeds": 957,
      "##--------": 958,
      "▁conclusion": 959,
      "▁o'clock": 960,
      "▁libr": 961,
      "▁''": 962,
      "▁requires": 963,
      "▁guessed": 964,
      "▁contrib": 965,
      "▁flav": 966,
      "▁efficiency": 967,
      "▁completed": 968,
      "##iew": 969,
      "▁amounts": 970,
      "▁mult": 971,
      "##ς": 972,
      "##&": 973,
      "▁roles": 974,
      "▁’": 975,
      "▁and": 976,
      "▁cookies": 977,
      "▁tips": 978,
      "▁does": 979,
      "▁actress": 980,
      "##ook": 981,
      "▁war": 982,
      "▁pictures": 983,
      "▁avo": 984,
      "▁paul": 985,
      "##ities": 986,
      "▁mathematics": 987,
      "▁governor": 988,
      "##aked": 989,
      "▁rac": 990,
      "##worms": 991,
      "▁spe": 992,
      "▁partner": 993,
      "##ature": 994,
      "▁warning": 995,
      "▁concluded": 996,
      "▁interviewed": 997,
      "##omp": 998,
      "▁deli": 999,
      "▁example": 1000,
      "▁vlog": 1001,
      "▁updates": 1002,
      "▁mids": 1003,
      "ʊ": 1004,
      "▁weake": 1005,
      "▁snitch": 1006,
      "▁hamb": 1007,
      "▁yoga": 1008,
      "▁bathroom": 1009,
      "##apped": 1010,
      "▁houston": 1011,
      "##ocracy": 1012,
      "▁creating": 1013,
      "▁airplan": 1014,
      "▁settle": 1015,
      "▁kiss": 1016,
      "##%": 1017,
      "▁provide": 1018,
      "▁flight": 1019,
      "▁phone": 1020,
      "##old": 1021,
      "▁suffer": 1022,
      "▁always": 1023,
      "▁construc": 1024,
      "▁these": 1025,
      "##clo": 1026,
      "▁yoy": 1027,
      "▁arrives": 1028,
      "##ifies": 1029,
      "▁str": 1030,
      "##ease": 1031,
      "▁world": 1032,
      "▁survival": 1033,
      "▁theirs": 1034,
      "▁prett": 1035,
      "▁text": 1036,
      "▁turned": 1037,
      "##tered": 1038,
      "##lik": 1039,
      "##ides": 1040,
      "▁session": 1041,
      "▁applying": 1042,
      "▁between": 1043,
      "▁6": 1044,
      "▁dropped": 1045,
      "▁best": 1046,
      "##overy": 1047,
      "▁administration": 1048,
      "▁theories": 1049,
      "##ength": 1050,
      "##.": 1051,
      "▁hes": 1052,
      "##k": 1053,
      "▁ent": 1054,
      "▁actions": 1055,
      "▁new": 1056,
      "##ord": 1057,
      "▁rise": 1058,
      "▁books": 1059,
      "▁swinging": 1060,
      "▁imple": 1061,
      "▁_______": 1062,
      "▁scienti": 1063,
      "##ney": 1064,
      "▁who's": 1065,
      "##ines": 1066,
      "##teries": 1067,
      "▁administ": 1068,
      "▁colon": 1069,
      "▁recon": 1070,
      "▁votes": 1071,
      "▁site": 1072,
      "▁interest": 1073,
      "##olding": 1074,
      "▁advance": 1075,
      "▁jellyfish": 1076,
      "▁model": 1077,
      "▁acting": 1078,
      "##ens": 1079,
      "▁verse": 1080,
      "▁absor": 1081,
      "##uries": 1082,
      "▁san": 1083,
      "##ites": 1084,
      "▁act": 1085,
      "##egr": 1086,
      "▁slide": 1087,
      "▁responses": 1088,
      "##ould": 1089,
      "##oking": 1090,
      "▁suc": 1091,
      "##fe": 1092,
      "##ked": 1093,
      "▁pupp": 1094,
      "▁???": 1095,
      "##ocado": 1096,
      "##ead": 1097,
      "▁spent": 1098,
      "▁mechanic": 1099,
      "▁makes": 1100,
      "##ds": 1101,
      "▁accommod": 1102,
      "▁hate": 1103,
      "##fter": 1104,
      "▁pot": 1105,
      "▁candle": 1106,
      "▁invite": 1107,
      "▁commit": 1108,
      "▁belly": 1109,
      "▁neither": 1110,
      "▁10": 1111,
      "▁mathema": 1112,
      "▁ai": 1113,
      "##oh": 1114,
      "▁impression": 1115,
      "##ashed": 1116,
      "▁purch": 1117,
      "▁stirrup": 1118,
      "##ision": 1119,
      "##?": 1120,
      "▁entered": 1121,
      "▁ties": 1122,
      "▁third": 1123,
      "▁will": 1124,
      "▁behin": 1125,
      "▁classroom": 1126,
      "##aroni": 1127,
      "▁preparing": 1128,
      "▁hi": 1129,
      "▁photography": 1130,
      "▁did": 1131,
      "▁problems": 1132,
      "▁cal": 1133,
      "▁charged": 1134,
      "▁waited": 1135,
      "▁thous": 1136,
      "▁characters": 1137,
      "▁trained": 1138,
      "##ning": 1139,
      "##}": 1140,
      "▁character": 1141,
      "▁plenty": 1142,
      "▁flir": 1143,
      "▁jur": 1144,
      "▁pet": 1145,
      "##ato": 1146,
      "▁advantage": 1147,
      "▁behind": 1148,
      "▁dist": 1149,
      "##pp": 1150,
      "▁noon": 1151,
      "▁opinion": 1152,
      "▁priest": 1153,
      "▁dam": 1154,
      "▁ocean": 1155,
      "▁components": 1156,
      "▁mission": 1157,
      "▁strong": 1158,
      "▁information": 1159,
      "##ost": 1160,
      "▁faces": 1161,
      "##itement": 1162,
      "▁timing": 1163,
      "▁kitchen": 1164,
      "##has": 1165,
      "▁discussed": 1166,
      "▁]": 1167,
      "##olis": 1168,
      "•": 1169,
      "▁pred": 1170,
      "▁congratulate": 1171,
      "▁ti": 1172,
      "▁main": 1173,
      "▁drew": 1174,
      "##lions": 1175,
      "▁vote": 1176,
      "▁team": 1177,
      "##uc": 1178,
      "##ex": 1179,
      "▁findings": 1180,
      "▁marketing": 1181,
      "▁microphone": 1182,
      "▁brand": 1183,
      "##pos": 1184,
      "▁taking": 1185,
      "▁wore": 1186,
      "▁trunk": 1187,
      "▁visited": 1188,
      "##vers": 1189,
      "##fer": 1190,
      "▁quar": 1191,
      "▁cheapest": 1192,
      "▁least": 1193,
      "##n": 1194,
      "▁americans": 1195,
      "▁beard": 1196,
      "▁instruc": 1197,
      "▁defend": 1198,
      "▁boss": 1199,
      "▁list": 1200,
      "▁believed": 1201,
      "▁rats": 1202,
      "▁brain": 1203,
      "▁attach": 1204,
      "##iti": 1205,
      "▁colle": 1206,
      "▁decided": 1207,
      "▁packed": 1208,
      "▁frost": 1209,
      "##uss": 1210,
      "##ularity": 1211,
      "▁pony": 1212,
      "▁edition": 1213,
      "▁sentence": 1214,
      "▁depos": 1215,
      "▁trading": 1216,
      "▁categ": 1217,
      "▁mil": 1218,
      "##ports": 1219,
      "▁mas": 1220,
      "▁chairman": 1221,
      "▁deter": 1222,
      "▁still": 1223,
      "▁district": 1224,
      "▁airline": 1225,
      "##enience": 1226,
      "▁articles": 1227,
      "##cr": 1228,
      "▁licensor": 1229,
      "▁scr": 1230,
      "##namon": 1231,
      "▁bananas": 1232,
      "▁tem": 1233,
      "##otyp": 1234,
      "▁inven": 1235,
      "▁root": 1236,
      "▁observed": 1237,
      "▁guit": 1238,
      "##jects": 1239,
      "▁minimum": 1240,
      "##ient": 1241,
      "##iliation": 1242,
      "▁forget": 1243,
      "▁present": 1244,
      "▁shops": 1245,
      "▁characteris": 1246,
      "##mit": 1247,
      "##orter": 1248,
      "▁lit": 1249,
      "##______": 1250,
      "##iron": 1251,
      "▁suggest": 1252,
      "▁curves": 1253,
      "▁grad": 1254,
      "##ng": 1255,
      "##gy": 1256,
      "▁shoot": 1257,
      "▁containers": 1258,
      "##ο": 1259,
      "▁lasted": 1260,
      "▁great": 1261,
      "▁instructions": 1262,
      "##forcement": 1263,
      "▁abe": 1264,
      "▁driven": 1265,
      "▁exchange": 1266,
      "▁suspect": 1267,
      "##rap": 1268,
      "▁format": 1269,
      "▁editors": 1270,
      "##lled": 1271,
      "▁monitor": 1272,
      "▁th": 1273,
      "▁airl": 1274,
      "▁islamists": 1275,
      "##ont": 1276,
      "▁hotel": 1277,
      "▁stock": 1278,
      "##un": 1279,
      "▁girls": 1280,
      "▁enforcement": 1281,
      "##asy": 1282,
      "▁finds": 1283,
      "▁tow": 1284,
      "▁argue": 1285,
      "▁moon": 1286,
      "▁routine": 1287,
      "▁enem": 1288,
      "▁darkness": 1289,
      "##ior": 1290,
      "##rs": 1291,
      "▁flies": 1292,
      "▁dail": 1293,
      "▁raise": 1294,
      "##uk": 1295,
      "##sure": 1296,
      "▁awarded": 1297,
      "▁traders": 1298,
      "▁gn": 1299,
      "▁&amp;": 1300,
      "▁parliament": 1301,
      "▁expanded": 1302,
      "▁cross": 1303,
      "##low": 1304,
      "▁xml": 1305,
      "▁became": 1306,
      "υ": 1307,
      "▁results": 1308,
      "▁luck": 1309,
      "##-1.doc": 1310,
      "[": 1311,
      "▁things": 1312,
      "##--": 1313,
      "▁buck": 1314,
      "▁reviews": 1315,
      "▁sushi": 1316,
      "▁swimming": 1317,
      "▁current": 1318,
      "##ules": 1319,
      "##uration": 1320,
      "g": 1321,
      "##ate": 1322,
      "▁bean": 1323,
      "▁delivered": 1324,
      "##rition": 1325,
      "▁jwww": 1326,
      "▁y": 1327,
      "▁dep": 1328,
      "▁s": 1329,
      "##asion": 1330,
      "##s": 1331,
      "▁working": 1332,
      "▁hopes": 1333,
      "▁exist": 1334,
      "▁anth": 1335,
      "##acters": 1336,
      "▁wond": 1337,
      "##ider": 1338,
      "▁enable": 1339,
      "▁cru": 1340,
      "▁defic": 1341,
      "##dly": 1342,
      "▁degree": 1343,
      "▁played": 1344,
      "##ane": 1345,
      "▁approval": 1346,
      "▁option": 1347,
      "▁equip": 1348,
      "▁spr": 1349,
      "##kin": 1350,
      "##tern": 1351,
      "▁weeks": 1352,
      "▁case": 1353,
      "▁belie": 1354,
      "▁coinc": 1355,
      "▁happened": 1356,
      "##ile": 1357,
      "▁compared": 1358,
      "##ad": 1359,
      "##tingu": 1360,
      "▁plate": 1361,
      "▁gender": 1362,
      "▁indicate": 1363,
      "▁econ": 1364,
      "▁happiness": 1365,
      "▁arrow": 1366,
      "▁par": 1367,
      "##qui": 1368,
      "▁member": 1369,
      "▁elev": 1370,
      "▁candidates": 1371,
      "##eeze": 1372,
      "▁syn": 1373,
      "▁replication": 1374,
      "▁greeted": 1375,
      "▁latest": 1376,
      "▁stick": 1377,
      "▁concent": 1378,
      "▁sh": 1379,
      "▁apolog": 1380,
      "▁analy": 1381,
      "▁.....": 1382,
      "##ott": 1383,
      "▁pittsburgh": 1384,
      "▁exp": 1385,
      "▁whom": 1386,
      "▁arrange": 1387,
      "▁dishes": 1388,
      "▁madam": 1389,
      "▁dessert": 1390,
      "▁educated": 1391,
      "▁town": 1392,
      "▁transit": 1393,
      "▁israel": 1394,
      "▁exce": 1395,
      "▁novelist": 1396,
      "▁roc": 1397,
      "##hing": 1398,
      "▁typ": 1399,
      "▁gl": 1400,
      "▁progress": 1401,
      "▁welfare": 1402,
      "▁clin": 1403,
      "▁mailings": 1404,
      "##ward": 1405,
      "##vements": 1406,
      "▁water": 1407,
      "▁explain": 1408,
      "▁decade": 1409,
      "▁washing": 1410,
      "▁g": 1411,
      "▁po": 1412,
      "▁history": 1413,
      "▁bic": 1414,
      "▁cell": 1415,
      "▁amend": 1416,
      "▁notch": 1417,
      "▁dealer": 1418,
      "▁geomet": 1419,
      "##lection": 1420,
      "▁resolution": 1421,
      "##p": 1422,
      "ˈ": 1423,
      "▁chall": 1424,
      "▁compare": 1425,
      "##-": 1426,
      "##ences": 1427,
      "▁philosophy": 1428,
      "▁novels": 1429,
      "##udes": 1430,
      "▁charges": 1431,
      "▁currency": 1432,
      "##faction": 1433,
      "▁fantasy": 1434,
      "▁confidentiality": 1435,
      "▁consider": 1436,
      "▁sear": 1437,
      "##>": 1438,
      "##res": 1439,
      "▁mathematician": 1440,
      "##nly": 1441,
      "▁entities": 1442,
      "▁join": 1443,
      "##pre": 1444,
      "▁reveal": 1445,
      "##ortant": 1446,
      "▁tomato": 1447,
      "##ithst": 1448,
      "##aker": 1449,
      "▁var": 1450,
      "▁sticker": 1451,
      "▁explained": 1452,
      "▁liter": 1453,
      "##³": 1454,
      "▁charl": 1455,
      "▁looked": 1456,
      "▁av": 1457,
      "▁radiation": 1458,
      "▁une": 1459,
      "▁create": 1460,
      "▁watch": 1461,
      "▁page": 1462,
      "▁quality": 1463,
      "▁disease": 1464,
      "▁maintain": 1465,
      "▁force": 1466,
      "▁motorc": 1467,
      "▁casual": 1468,
      "▁cap": 1469,
      "▁moth": 1470,
      "▁sover": 1471,
      "▁truck": 1472,
      "▁sand": 1473,
      "▁thurs": 1474,
      "▁lifted": 1475,
      "##ros": 1476,
      "▁playw": 1477,
      "▁aunt": 1478,
      "##py": 1479,
      "##enty": 1480,
      "▁implem": 1481,
      "▁ju": 1482,
      "▁saved": 1483,
      "##up": 1484,
      "▁behavior": 1485,
      "▁throw": 1486,
      "▁uncer": 1487,
      "▁sor": 1488,
      "▁proper": 1489,
      "▁inter": 1490,
      "▁outcome": 1491,
      "▁transp": 1492,
      "▁attempting": 1493,
      "##orts": 1494,
      "▁chem": 1495,
      "▁away": 1496,
      "▁boy": 1497,
      "▁little": 1498,
      "▁associate": 1499,
      "▁ra": 1500,
      "p": 1501,
      "▁kind": 1502,
      "##ued": 1503,
      "▁librarians": 1504,
      "▁contributions": 1505,
      "▁clo": 1506,
      "##log": 1507,
      "▁orlando": 1508,
      "▁refuge": 1509,
      "▁court": 1510,
      "▁challenge": 1511,
      "##asure": 1512,
      "▁went": 1513,
      "##lud": 1514,
      "▁supposed": 1515,
      "▁calc": 1516,
      "##ud": 1517,
      "▁writers": 1518,
      "▁refri": 1519,
      "▁train": 1520,
      "▁accompan": 1521,
      "▁businesses": 1522,
      "▁writes": 1523,
      "▁chang": 1524,
      "▁speed": 1525,
      "▁individual": 1526,
      "##utes": 1527,
      "▁risk": 1528,
      "##urn": 1529,
      "▁finance": 1530,
      "##oney": 1531,
      "##iction": 1532,
      "▁fellow": 1533,
      "▁agencies": 1534,
      "##anded": 1535,
      "▁transmed": 1536,
      "▁tort": 1537,
      "▁phil": 1538,
      "▁felt": 1539,
      "▁meat": 1540,
      "▁enjambment": 1541,
      "##inter": 1542,
      "▁sound": 1543,
      "▁watching": 1544,
      "▁nose": 1545,
      "##isting": 1546,
      "##usions": 1547,
      "▁sheep": 1548,
      "##oc": 1549,
      "▁bicycle": 1550,
      "▁trib": 1551,
      "▁experts": 1552,
      "▁stood": 1553,
      "▁humans": 1554,
      "▁during": 1555,
      "▁wiz": 1556,
      "▁newark": 1557,
      "▁meow": 1558,
      "▁exerc": 1559,
      "##que": 1560,
      "##action": 1561,
      "▁yo": 1562,
      "▁ant": 1563,
      "▁loc": 1564,
      "##ologist": 1565,
      "##ept": 1566,
      "##akes": 1567,
      "▁component": 1568,
      "##illing": 1569,
      "##tle": 1570,
      "_": 1571,
      "##ues": 1572,
      "▁emergency": 1573,
      "▁inquiry": 1574,
      "▁vess": 1575,
      "▁den": 1576,
      "##otes": 1577,
      "▁********": 1578,
      "▁device": 1579,
      "▁secure": 1580,
      "##h": 1581,
      "▁scientists": 1582,
      "▁speak": 1583,
      "▁gap": 1584,
      "▁refers": 1585,
      "##etition": 1586,
      "▁vic": 1587,
      "##itical": 1588,
      "▁trials": 1589,
      "▁achie": 1590,
      "▁engine": 1591,
      "▁finished": 1592,
      "##etro": 1593,
      "▁knows": 1594,
      "###6": 1595,
      "▁touched": 1596,
      "▁attack": 1597,
      "##ude": 1598,
      "##oma": 1599,
      "##pping": 1600,
      "▁toronto": 1601,
      "▁~": 1602,
      "▁eff": 1603,
      "▁move": 1604,
      "▁washington": 1605,
      "▁tack": 1606,
      "##cut": 1607,
      "▁at": 1608,
      "▁passion": 1609,
      "▁jobs": 1610,
      "##ville": 1611,
      "▁init": 1612,
      "##orage": 1613,
      "▁walks": 1614,
      "▁emphas": 1615,
      "##ym": 1616,
      "▁theater": 1617,
      "▁happ": 1618,
      "▁worksh": 1619,
      "▁meeting": 1620,
      "▁polar": 1621,
      "▁documented": 1622,
      "▁temples": 1623,
      "▁din": 1624,
      "▁solve": 1625,
      "▁recomm": 1626,
      "{": 1627,
      "▁inspection": 1628,
      "▁abilities": 1629,
      "▁uvb": 1630,
      "▁network": 1631,
      "▁funny": 1632,
      "##actor": 1633,
      "▁cor": 1634,
      "▁wearing": 1635,
      "▁!!!!!!!!!!!": 1636,
      "▁habit": 1637,
      "▁country": 1638,
      "▁room": 1639,
      "##enting": 1640,
      "▁nothing": 1641,
      "▁puzz": 1642,
      "▁dwww": 1643,
      "▁appro": 1644,
      "▁punch": 1645,
      "▁union": 1646,
      "?": 1647,
      "##yl": 1648,
      "▁stream": 1649,
      "▁explanation": 1650,
      "▁er": 1651,
      "##angu": 1652,
      "▁alcohol": 1653,
      "▁ahead": 1654,
      "▁farrier": 1655,
      "▁vari": 1656,
      "▁freezer": 1657,
      "▁befor": 1658,
      "▁reply": 1659,
      "▁effect": 1660,
      "▁arch": 1661,
      "$": 1662,
      "##utions": 1663,
      "º": 1664,
      "▁----==": 1665,
      "##ey": 1666,
      "▁condem": 1667,
      "▁neighborhood": 1668,
      "▁ne": 1669,
      "##aries": 1670,
      "▁regret": 1671,
      "▁seekers": 1672,
      "##for": 1673,
      "##ady": 1674,
      "▁gentle": 1675,
      "▁clar": 1676,
      "##gan": 1677,
      "▁delete": 1678,
      "##ɛ": 1679,
      "▁im": 1680,
      "▁cos": 1681,
      "▁savings": 1682,
      "▁eliminate": 1683,
      "▁rebuil": 1684,
      "▁you": 1685,
      "##uting": 1686,
      "##5": 1687,
      "▁purpose": 1688,
      "▁comparison": 1689,
      "▁help": 1690,
      "▁granted": 1691,
      "##ror": 1692,
      "▁someone": 1693,
      "▁jus": 1694,
      "##inning": 1695,
      "▁trail": 1696,
      "▁stars": 1697,
      "▁alongside": 1698,
      "▁ess": 1699,
      "##ular": 1700,
      "▁accomplish": 1701,
      "▁draw": 1702,
      "▁waiter": 1703,
      "▁build": 1704,
      "##ically": 1705,
      "▁slipped": 1706,
      "▁dat": 1707,
      "##abilities": 1708,
      "▁matters": 1709,
      "▁variety": 1710,
      "▁destination": 1711,
      "▁ext": 1712,
      "▁mon": 1713,
      "▁apple": 1714,
      "##uments": 1715,
      "▁wines": 1716,
      "##force": 1717,
      "▁dw": 1718,
      "▁que": 1719,
      "##respond": 1720,
      "▁frag": 1721,
      "##ta": 1722,
      "▁wand": 1723,
      "##ary": 1724,
      "▁financ": 1725,
      "▁troops": 1726,
      "##ist": 1727,
      "▁sheet": 1728,
      "▁grown": 1729,
      "▁colleag": 1730,
      "##dge": 1731,
      "▁boom": 1732,
      "##ede": 1733,
      "▁wh": 1734,
      "▁burst": 1735,
      "##ded": 1736,
      "▁orange": 1737,
      "▁situations": 1738,
      "##!!!!": 1739,
      "##pathy": 1740,
      "▁gir": 1741,
      "▁seeking": 1742,
      "▁counterfe": 1743,
      "▁accord": 1744,
      "##er": 1745,
      "##inity": 1746,
      "▁kissed": 1747,
      "▁relation": 1748,
      "▁ce": 1749,
      "▁alle": 1750,
      "▁anim": 1751,
      "▁cells": 1752,
      "▁religion": 1753,
      "▁sunsh": 1754,
      "▁uni": 1755,
      "##0th": 1756,
      "▁worms": 1757,
      "▁evalu": 1758,
      "##night": 1759,
      "▁ceo": 1760,
      "▁circumstances": 1761,
      "▁leave": 1762,
      "▁fans": 1763,
      "▁continues": 1764,
      "▁neck": 1765,
      "▁purchase": 1766,
      "▁monster": 1767,
      "##aping": 1768,
      "▁paper": 1769,
      "▁remains": 1770,
      "▁pean": 1771,
      "▁directed": 1772,
      "▁oven": 1773,
      "▁introduc": 1774,
      "▁wou": 1775,
      "▁bubbles": 1776,
      "##irt": 1777,
      "▁feature": 1778,
      "▁series": 1779,
      "▁projects": 1780,
      "▁surrounding": 1781,
      "▁inches": 1782,
      "▁establish": 1783,
      "▁settlement": 1784,
      "▁grandma": 1785,
      "##oun": 1786,
      "▁department": 1787,
      "▁stayed": 1788,
      "▁prosperity": 1789,
      "▁gol": 1790,
      "##ights": 1791,
      "▁contain": 1792,
      "▁losing": 1793,
      "##laim": 1794,
      "▁philadelphia": 1795,
      "▁revenue": 1796,
      "▁weight": 1797,
      "▁imagination": 1798,
      "▁stability": 1799,
      "▁specialist": 1800,
      "▁family": 1801,
      "▁curr": 1802,
      "=": 1803,
      "▁fr": 1804,
      "▁attached": 1805,
      "##using": 1806,
      "▁fil": 1807,
      "▁treat": 1808,
      "▁fuel": 1809,
      "▁reach": 1810,
      "▁strategies": 1811,
      "▁mad": 1812,
      "▁cigar": 1813,
      "▁mod": 1814,
      "##oxide": 1815,
      "▁abo": 1816,
      "##put": 1817,
      "▁receipt": 1818,
      "▁window": 1819,
      "▁client": 1820,
      "▁availability": 1821,
      "▁outf": 1822,
      "##kers": 1823,
      "##tee": 1824,
      "▁pants": 1825,
      "▁rope": 1826,
      "▁discount": 1827,
      "▁showed": 1828,
      "▁dee": 1829,
      "##ointment": 1830,
      "##orted": 1831,
      "##inoc": 1832,
      "##bon": 1833,
      "▁animal": 1834,
      "▁container": 1835,
      "▁ld": 1836,
      "▁wish": 1837,
      "▁wanting": 1838,
      "▁institutions": 1839,
      "▁pron": 1840,
      "▁hearing": 1841,
      "##her": 1842,
      "##.c": 1843,
      "▁lacking": 1844,
      "▁‘’": 1845,
      "▁emails": 1846,
      "##90s": 1847,
      "▁strugg": 1848,
      "▁exception": 1849,
      "▁occurred": 1850,
      "▁sk": 1851,
      "▁conviction": 1852,
      "▁glow": 1853,
      "▁treated": 1854,
      "▁alar": 1855,
      "▁activ": 1856,
      "▁magn": 1857,
      "##ge": 1858,
      "▁equival": 1859,
      "▁excellent": 1860,
      "▁replacement": 1861,
      "▁pick": 1862,
      "▁mr": 1863,
      "▁scam": 1864,
      "▁rags": 1865,
      "▁trou": 1866,
      "##is": 1867,
      "▁followed": 1868,
      "▁falling": 1869,
      "▁polaroids": 1870,
      "##set": 1871,
      "▁hr": 1872,
      "▁changing": 1873,
      "▁circum": 1874,
      "▁femur": 1875,
      "▁polic": 1876,
      "##ner": 1877,
      "▁hel": 1878,
      "▁quite": 1879,
      "▁breast": 1880,
      "▁sometimes": 1881,
      "▁doctors": 1882,
      "▁aqu": 1883,
      "##am": 1884,
      "▁pix": 1885,
      "▁oak": 1886,
      "▁interf": 1887,
      "▁training": 1888,
      "▁sounds": 1889,
      "▁um": 1890,
      "▁underneath": 1891,
      "▁cli": 1892,
      "▁guarant": 1893,
      "##in": 1894,
      "##fact": 1895,
      "▁he": 1896,
      "##amas": 1897,
      "▁parti": 1898,
      "##ouch": 1899,
      "▁bug": 1900,
      "▁cycle": 1901,
      "##sex": 1902,
      "▁spears": 1903,
      "##iated": 1904,
      "▁stol": 1905,
      "##loyed": 1906,
      "▁pulled": 1907,
      "▁poin": 1908,
      "▁incom": 1909,
      "##uggles": 1910,
      "##off": 1911,
      "▁mosquito": 1912,
      "##oint": 1913,
      "##ac": 1914,
      "▁reinfor": 1915,
      "▁nut": 1916,
      "##apers": 1917,
      "▁gold": 1918,
      "##pers": 1919,
      "▁expertise": 1920,
      "▁demonstrated": 1921,
      "▁cracker": 1922,
      "▁assistance": 1923,
      "▁woman": 1924,
      "▁happen": 1925,
      "▁tag": 1926,
      "▁designed": 1927,
      "##ishing": 1928,
      "▁different": 1929,
      "▁mus": 1930,
      "▁brings": 1931,
      "##tit": 1932,
      "▁oil": 1933,
      "▁ic": 1934,
      "▁obl": 1935,
      "▁special": 1936,
      "▁critic": 1937,
      "##ucks": 1938,
      "▁leaned": 1939,
      "▁following": 1940,
      "▁sandwic": 1941,
      "▁someth": 1942,
      "▁pin": 1943,
      "▁assessment": 1944,
      "##par": 1945,
      "▁almost": 1946,
      "▁assessing": 1947,
      "▁publish": 1948,
      "##ecks": 1949,
      "##ends": 1950,
      "▁nations": 1951,
      "##most": 1952,
      "▁compos": 1953,
      "##zen": 1954,
      "▁=": 1955,
      "▁ass": 1956,
      "##ict": 1957,
      "##berries": 1958,
      "▁vol": 1959,
      "▁en": 1960,
      "▁sci": 1961,
      "▁appearance": 1962,
      "▁tro": 1963,
      "▁cott": 1964,
      "##ote": 1965,
      "▁introducing": 1966,
      "▁b/c": 1967,
      "▁color": 1968,
      "▁mechan": 1969,
      "##inction": 1970,
      "▁analyst": 1971,
      "▁son": 1972,
      "▁electric": 1973,
      "▁threat": 1974,
      "▁judg": 1975,
      "##inu": 1976,
      "▁undert": 1977,
      "▁rein": 1978,
      "▁kinds": 1979,
      "▁atlan": 1980,
      "##aughter": 1981,
      "##ged": 1982,
      "▁uti": 1983,
      "▁only": 1984,
      "▁fall": 1985,
      "##4": 1986,
      "##overs": 1987,
      "▁bent": 1988,
      "##9": 1989,
      "▁for": 1990,
      "▁))": 1991,
      "##acamole": 1992,
      "##xts": 1993,
      "▁tried": 1994,
      "▁seconds": 1995,
      "▁exec": 1996,
      "▁able": 1997,
      "##sel": 1998,
      "##hin": 1999,
      "▁boys": 2000,
      "##lined": 2001,
      "##ule": 2002,
      "▁phenom": 2003,
      "▁implement": 2004,
      "##scrib": 2005,
      "▁conduct": 2006,
      "▁surround": 2007,
      "##aled": 2008,
      "▁sister": 2009,
      "▁ld2d-": 2010,
      "##tering": 2011,
      "▁facilitate": 2012,
      "##ects": 2013,
      "▁agriculture": 2014,
      "▁occupation": 2015,
      "▁joh": 2016,
      "##ceptions": 2017,
      "##enn": 2018,
      "▁!.": 2019,
      "▁fix": 2020,
      "##oli": 2021,
      "▁fa": 2022,
      "▁beg": 2023,
      "▁pit": 2024,
      "▁systems": 2025,
      "▁surprised": 2026,
      "▁bottom": 2027,
      "▁animals": 2028,
      "▁may": 2029,
      "▁politicians": 2030,
      "▁partic": 2031,
      "▁chickens": 2032,
      "▁[": 2033,
      "▁overcome": 2034,
      "▁adver": 2035,
      "##chen": 2036,
      "##goti": 2037,
      "▁bul": 2038,
      "▁************************************************": 2039,
      "##ched": 2040,
      "▁occas": 2041,
      "▁a.m.": 2042,
      "▁procedure": 2043,
      "▁vot": 2044,
      "▁camer": 2045,
      "▁accum": 2046,
      "##mping": 2047,
      "▁fear": 2048,
      "▁promise": 2049,
      "##bility": 2050,
      "##ss": 2051,
      "▁total": 2052,
      "▁burden": 2053,
      "▁girl": 2054,
      "▁soli": 2055,
      "▁mode": 2056,
      "▁newspaper": 2057,
      "##ertainly": 2058,
      "▁brought": 2059,
      "##cl": 2060,
      "▁asking": 2061,
      "▁understood": 2062,
      "##rou": 2063,
      "##ainly": 2064,
      "▁'": 2065,
      "▁preven": 2066,
      "▁cities": 2067,
      "##ag": 2068,
      "▁zoo": 2069,
      "▁loss": 2070,
      "▁blow": 2071,
      "▁reflects": 2072,
      "▁emerged": 2073,
      "▁renew": 2074,
      "▁raining": 2075,
      "▁conform": 2076,
      "▁quit": 2077,
      "##als": 2078,
      "##form": 2079,
      "▁squir": 2080,
      "▁become": 2081,
      "▁shirts": 2082,
      "▁peters": 2083,
      "▁disappeared": 2084,
      "▁-------------------------------------------------": 2085,
      "▁weekend": 2086,
      "▁uniform": 2087,
      "▁phenomenon": 2088,
      "▁tuesday": 2089,
      "▁cr": 2090,
      "▁partners": 2091,
      "▁over": 2092,
      "▁bench": 2093,
      "▁citi": 2094,
      "▁communic": 2095,
      "##ections": 2096,
      "▁americ": 2097,
      "▁miss": 2098,
      "▁system": 2099,
      "▁indianapolis": 2100,
      "▁smoking": 2101,
      "##duc": 2102,
      "‘": 2103,
      "▁password": 2104,
      "▁ball": 2105,
      "##eak": 2106,
      "▁helping": 2107,
      "##oration": 2108,
      "##hether": 2109,
      "▁counterfeit": 2110,
      "##se": 2111,
      "##side": 2112,
      "▁identify": 2113,
      "▁plastic": 2114,
      "▁practicing": 2115,
      "▁climb": 2116,
      "▁mud": 2117,
      "▁dolph": 2118,
      "##ou": 2119,
      "▁'s": 2120,
      "##uations": 2121,
      "▁conversations": 2122,
      "▁possible": 2123,
      "##iv": 2124,
      "▁teachers": 2125,
      "▁noticed": 2126,
      "▁patient": 2127,
      "##aded": 2128,
      "▁supply": 2129,
      "▁arguing": 2130,
      "##light": 2131,
      "##amed": 2132,
      "##tives": 2133,
      "##lo": 2134,
      "▁three": 2135,
      "▁guess": 2136,
      "ɛ": 2137,
      "##lar": 2138,
      "▁licen": 2139,
      "▁destruc": 2140,
      "▁nor": 2141,
      "▁tug": 2142,
      "▁belt": 2143,
      "##llow": 2144,
      "▁disp": 2145,
      "##ancers": 2146,
      "▁dec": 2147,
      "▁stomach": 2148,
      "▁females": 2149,
      "▁flat": 2150,
      "▁changed": 2151,
      "##uled": 2152,
      "▁staff": 2153,
      "▁sitting": 2154,
      "▁catch": 2155,
      "▁thro": 2156,
      "▁patterns": 2157,
      "##otw": 2158,
      "▁|--------+----------------": 2159,
      "▁selection": 2160,
      "▁tribe": 2161,
      "▁ing": 2162,
      "▁lab": 2163,
      "▁outc": 2164,
      "##0": 2165,
      "▁lips": 2166,
      "▁iraq": 2167,
      "▁press": 2168,
      "▁out": 2169,
      "▁organizations": 2170,
      "##ony": 2171,
      "▁lets": 2172,
      "▁types": 2173,
      "▁hundreds": 2174,
      "▁lay": 2175,
      "▁bowl": 2176,
      "▁ling": 2177,
      "▁outs": 2178,
      "▁doors": 2179,
      "▁abuse": 2180,
      "▁infrastructure": 2181,
      "▁broad": 2182,
      "▁vendors": 2183,
      "▁gulf": 2184,
      "##erful": 2185,
      "▁bre": 2186,
      "▁gun": 2187,
      "##bles": 2188,
      "▁co-": 2189,
      "▁island": 2190,
      "▁direc": 2191,
      "▁levels": 2192,
      "▁mosqu": 2193,
      "▁confidence": 2194,
      "▁stranger": 2195,
      "▁pos": 2196,
      "##uted": 2197,
      "##olving": 2198,
      "▁distribute": 2199,
      "##,": 2200,
      "▁want": 2201,
      "▁tragedy": 2202,
      "▁hang": 2203,
      "▁party": 2204,
      "▁defe": 2205,
      "##icians": 2206,
      "##asp": 2207,
      "▁enough": 2208,
      "▁magaz": 2209,
      "▁sm": 2210,
      "▁s’": 2211,
      "▁published": 2212,
      "▁repa": 2213,
      "▁board": 2214,
      "▁young": 2215,
      "##ef": 2216,
      "▁apply": 2217,
      "▁assassination": 2218,
      "##ower": 2219,
      "▁your": 2220,
      "▁gre": 2221,
      "▁capture": 2222,
      "▁elbow": 2223,
      "▁critics": 2224,
      "##lets": 2225,
      "▁mentioned": 2226,
      "▁toes": 2227,
      "▁st.": 2228,
      "▁reserves": 2229,
      "▁brooms": 2230,
      "##ix": 2231,
      "▁territ": 2232,
      "▁staring": 2233,
      "▁topic": 2234,
      "##ension": 2235,
      "▁escaped": 2236,
      "▁d": 2237,
      "▁a": 2238,
      "▁receip": 2239,
      "▁involved": 2240,
      "##eria": 2241,
      "▁rapporteur": 2242,
      "▁cle": 2243,
      "▁manual": 2244,
      "##roduc": 2245,
      "▁mig": 2246,
      "▁u.s.": 2247,
      "##nies": 2248,
      "##adas": 2249,
      "##verage": 2250,
      "▁plants": 2251,
      "##tices": 2252,
      "##ties": 2253,
      "▁ro": 2254,
      "▁regarding": 2255,
      "▁ordered": 2256,
      "▁climbed": 2257,
      "▁barrel": 2258,
      "▁poss": 2259,
      "▁panel": 2260,
      "▁injury": 2261,
      "▁offered": 2262,
      "▁&am": 2263,
      "▁wiki": 2264,
      "##gether": 2265,
      "▁vine": 2266,
      "##zer": 2267,
      "▁decline": 2268,
      "##*": 2269,
      "▁bill": 2270,
      "▁consumer": 2271,
      "▁acceptance": 2272,
      "##kes": 2273,
      "##cape": 2274,
      "▁crying": 2275,
      "▁continuing": 2276,
      "▁potato": 2277,
      "▁capt": 2278,
      "##derst": 2279,
      "▁can": 2280,
      "▁interv": 2281,
      "▁clock": 2282,
      "▁speaker": 2283,
      "##ety": 2284,
      "##‘": 2285,
      "▁;": 2286,
      "▁dog": 2287,
      "▁examination": 2288,
      "▁law": 2289,
      "▁concer": 2290,
      "▁conte": 2291,
      "##atis": 2292,
      "▁lists": 2293,
      "▁duel": 2294,
      "▁wa": 2295,
      "▁retired": 2296,
      "▁da": 2297,
      "▁performances": 2298,
      "▁achieve": 2299,
      "▁evenings": 2300,
      "▁log": 2301,
      "##ooth": 2302,
      "▁mass": 2303,
      "▁sussex": 2304,
      "▁avoiding": 2305,
      "▁last": 2306,
      "▁hot": 2307,
      "▁unity": 2308,
      "▁/": 2309,
      "z": 2310,
      "▁swee": 2311,
      "▁slope": 2312,
      "▁memphis": 2313,
      "▁quantity": 2314,
      "▁tolerate": 2315,
      "##resent": 2316,
      "##arm": 2317,
      "##pri": 2318,
      "##ington": 2319,
      "##ns": 2320,
      "▁follows": 2321,
      "▁comput": 2322,
      "▁some": 2323,
      "▁ear": 2324,
      "▁jumping": 2325,
      "▁replace": 2326,
      "▁get": 2327,
      "▁thread": 2328,
      "▁route": 2329,
      "▁table": 2330,
      "##ody": 2331,
      "▁proved": 2332,
      "##mes": 2333,
      "##arr": 2334,
      "▁pic": 2335,
      "▁run": 2336,
      "▁bar": 2337,
      "##mar": 2338,
      "▁around": 2339,
      "▁brief": 2340,
      "▁classes": 2341,
      "▁connections": 2342,
      "▁against": 2343,
      "##ant": 2344,
      "▁particular": 2345,
      "▁dism": 2346,
      "▁de": 2347,
      "▁tar": 2348,
      "##stem": 2349,
      "▁data": 2350,
      "▁sp": 2351,
      "▁kil": 2352,
      "▁guinea": 2353,
      "▁tele": 2354,
      "▁upd": 2355,
      "▁bedroom": 2356,
      "##ech": 2357,
      "▁everybody": 2358,
      "▁altern": 2359,
      "▁patients": 2360,
      "▁idea": 2361,
      "▁cer": 2362,
      "▁suff": 2363,
      "▁bugs": 2364,
      "##ology": 2365,
      "▁shift": 2366,
      "##ale": 2367,
      "##gu": 2368,
      "▁experienced": 2369,
      "▁representative": 2370,
      "##iating": 2371,
      "▁agre": 2372,
      "▁vehicles": 2373,
      "##ears": 2374,
      "##earance": 2375,
      "▁countries": 2376,
      "▁marriage": 2377,
      "##oving": 2378,
      "▁sorry": 2379,
      "##mall": 2380,
      "▁prohibited": 2381,
      "▁relations": 2382,
      "▁°": 2383,
      "▁york": 2384,
      "▁record": 2385,
      "▁'m": 2386,
      "##keys": 2387,
      "▁fit": 2388,
      "[SEP]": 2389,
      "▁jam": 2390,
      "▁---=": 2391,
      "▁oppos": 2392,
      "##ensus": 2393,
      "▁strategy": 2394,
      "##em": 2395,
      "▁where": 2396,
      "##bol": 2397,
      "▁sar": 2398,
      "▁exhibit": 2399,
      "▁transport": 2400,
      "##ords": 2401,
      "▁rocket": 2402,
      "▁tur": 2403,
      "▁leadership": 2404,
      "##rib": 2405,
      "##son": 2406,
      "▁cutting": 2407,
      "▁manner": 2408,
      "##tes": 2409,
      "▁si": 2410,
      "##atory": 2411,
      "▁were": 2412,
      "##laimed": 2413,
      "##υ": 2414,
      "##uch": 2415,
      "▁exam": 2416,
      "##lished": 2417,
      "▁gover": 2418,
      "##aint": 2419,
      "##ify": 2420,
      "##ee": 2421,
      "##unic": 2422,
      "##c": 2423,
      "##ren": 2424,
      "▁hide": 2425,
      "▁dirt": 2426,
      "▁juice": 2427,
      "▁committed": 2428,
      "##river": 2429,
      "▁provided": 2430,
      "▁advant": 2431,
      "▁stre": 2432,
      "▁everyone": 2433,
      "▁sew": 2434,
      "▁sunlight": 2435,
      "##ently": 2436,
      "##if": 2437,
      "▁streets": 2438,
      "##ruc": 2439,
      "▁auth": 2440,
      "▁aspects": 2441,
      "▁covering": 2442,
      "▁las": 2443,
      "##ales": 2444,
      "▁possibilities": 2445,
      "▁equipment": 2446,
      "▁pennies": 2447,
      "▁machine": 2448,
      "▁opened": 2449,
      "▁then": 2450,
      "▁nav": 2451,
      "▁langu": 2452,
      "▁congr": 2453,
      "##r": 2454,
      "▁vs.": 2455,
      "▁keep": 2456,
      "▁developments": 2457,
      "▁or": 2458,
      "##mb": 2459,
      "▁profile": 2460,
      "▁sending": 2461,
      "▁recr": 2462,
      "▁mut": 2463,
      "▁!!!!!!": 2464,
      "##oves": 2465,
      "▁expense": 2466,
      "▁end": 2467,
      "##ference": 2468,
      "▁advised": 2469,
      "▁deal": 2470,
      "▁experim": 2471,
      "—": 2472,
      "▁quartile": 2473,
      "▁datab": 2474,
      "##ying": 2475,
      "▁mou": 2476,
      "▁revision": 2477,
      "▁detective": 2478,
      "##ribb": 2479,
      "##tiff": 2480,
      "▁dates": 2481,
      "##eren": 2482,
      "##eav": 2483,
      "▁friends": 2484,
      "▁play": 2485,
      "##ait": 2486,
      "▁chosen": 2487,
      "▁position": 2488,
      "▁ver": 2489,
      "##2d-": 2490,
      "##si": 2491,
      "##onal": 2492,
      "▁holes": 2493,
      "▁claims": 2494,
      "▁restaur": 2495,
      "▁founder": 2496,
      "##edom": 2497,
      "▁causes": 2498,
      "▁adventure": 2499,
      "▁transition": 2500,
      "▁und": 2501,
      "##ribution": 2502,
      "##tion": 2503,
      "##ording": 2504,
      "▁benef": 2505,
      "▁voice": 2506,
      "▁kicked": 2507,
      "▁solid": 2508,
      "▁smoke": 2509,
      "▁sou": 2510,
      "▁well": 2511,
      "##oo": 2512,
      "▁reminder": 2513,
      "##fting": 2514,
      "▁predators": 2515,
      "##store": 2516,
      "▁measures": 2517,
      "▁racing": 2518,
      "##aq": 2519,
      "##[": 2520,
      "▁se": 2521,
      "##odes": 2522,
      "▁accomp": 2523,
      "▁services": 2524,
      "▁eats": 2525,
      "▁erase": 2526,
      "▁kept": 2527,
      "▁chic": 2528,
      "##sul": 2529,
      "▁seed": 2530,
      "▁recommendations": 2531,
      "▁dipl": 2532,
      "##izing": 2533,
      "▁apartment": 2534,
      "▁htt": 2535,
      "▁learn": 2536,
      "▁helps": 2537,
      "▁involvement": 2538,
      "▁mor": 2539,
      "▁jelly": 2540,
      "▁assume": 2541,
      "▁enj": 2542,
      "▁printed": 2543,
      "▁napkin": 2544,
      "##entions": 2545,
      "##astruc": 2546,
      "▁grew": 2547,
      "▁submit": 2548,
      "##ool": 2549,
      "▁notebook": 2550,
      "▁pep": 2551,
      "▁stay": 2552,
      "##iver": 2553,
      "▁death": 2554,
      "▁arri": 2555,
      "▁deny": 2556,
      "▁correc": 2557,
      "##outh": 2558,
      "▁pay": 2559,
      "▁news": 2560,
      "▁oneself": 2561,
      "▁designs": 2562,
      "▁drank": 2563,
      "▁direction": 2564,
      "▁20": 2565,
      "▁suggestion": 2566,
      "▁budget": 2567,
      "▁notion": 2568,
      "▁ar": 2569,
      "▁bat": 2570,
      "##uality": 2571,
      "▁dry": 2572,
      "▁make": 2573,
      "▁wee": 2574,
      "##sets": 2575,
      "▁pancakes": 2576,
      "▁plus": 2577,
      "▁all": 2578,
      "▁depending": 2579,
      "##/he": 2580,
      "##ached": 2581,
      "▁banana": 2582,
      "##imed": 2583,
      "▁circles": 2584,
      "▁comp": 2585,
      "▁bri": 2586,
      "▁signific": 2587,
      "▁pow": 2588,
      "##ilities": 2589,
      "##ticians": 2590,
      "##enef": 2591,
      "▁stores": 2592,
      "▁phones": 2593,
      "▁type": 2594,
      "▁affected": 2595,
      "▁refl": 2596,
      "▁again": 2597,
      "▁represents": 2598,
      "▁whale": 2599,
      "▁relationships": 2600,
      "##memb": 2601,
      "▁sugges": 2602,
      "▁implemented": 2603,
      "▁laser": 2604,
      "▁hambur": 2605,
      "▁organize": 2606,
      "▁appear": 2607,
      "##gery": 2608,
      "▁transf": 2609,
      "▁dealt": 2610,
      "▁aboard": 2611,
      "▁grapes": 2612,
      "▁sust": 2613,
      "▁rabb": 2614,
      "▁anything": 2615,
      "▁terr": 2616,
      "▁hams": 2617,
      "▁heel": 2618,
      "▁eval": 2619,
      "##les": 2620,
      "##ance": 2621,
      "▁conducted": 2622,
      "##uring": 2623,
      "##av": 2624,
      "##-d": 2625,
      "▁rom": 2626,
      "##ography": 2627,
      "▁shakes": 2628,
      "▁official": 2629,
      "▁joined": 2630,
      "▁coun": 2631,
      "▁that": 2632,
      "▁palace": 2633,
      "▁sandwiches": 2634,
      "▁beginning": 2635,
      "▁actor": 2636,
      "▁subject": 2637,
      "▁wolf": 2638,
      "▁director": 2639,
      "▁robot": 2640,
      "▁left": 2641,
      "▁thank": 2642,
      "##inded": 2643,
      "▁tra": 2644,
      "▁crossing": 2645,
      "▁settled": 2646,
      "▁spell": 2647,
      "▁whether": 2648,
      "##orms": 2649,
      "▁documentation": 2650,
      "▁management": 2651,
      "▁sel": 2652,
      "▁taxes": 2653,
      "▁glass": 2654,
      "▁purpos": 2655,
      "▁centre": 2656,
      "▁describe": 2657,
      "##timate": 2658,
      "▁chocol": 2659,
      "▁sweetie": 2660,
      "##|": 2661,
      "##cle": 2662,
      "##ame": 2663,
      "▁persu": 2664,
      "▁participating": 2665,
      "##en": 2666,
      "▁cod": 2667,
      "##eli": 2668,
      "▁sample": 2669,
      "▁crossed": 2670,
      "▁gallery": 2671,
      "▁vegas": 2672,
      "▁push": 2673,
      "▁low": 2674,
      "##oting": 2675,
      "▁fare": 2676,
      "▁peanuts": 2677,
      "▁march": 2678,
      "μ": 2679,
      "▁ta": 2680,
      "##ght": 2681,
      "▁employ": 2682,
      "##man": 2683,
      "▁investig": 2684,
      "▁along": 2685,
      "▁restriction": 2686,
      "▁website": 2687,
      "▁shelf": 2688,
      "▁crack": 2689,
      "▁plaster": 2690,
      "##use": 2691,
      "▁approached": 2692,
      "##eled": 2693,
      "##pse": 2694,
      "##ger": 2695,
      "##nesday": 2696,
      "▁e-m": 2697,
      "▁soccer": 2698,
      "▁labor": 2699,
      "▁poles": 2700,
      "▁pumpkin": 2701,
      "##aus": 2702,
      "▁arti": 2703,
      "▁garbage": 2704,
      "▁guil": 2705,
      "▁include": 2706,
      "▁7": 2707,
      "▁military": 2708,
      "▁grass": 2709,
      "##ind": 2710,
      "▁answers": 2711,
      "▁lap": 2712,
      "▁cancel": 2713,
      "▁cries": 2714,
      "▁civ": 2715,
      "▁evolution": 2716,
      "▁pretend": 2717,
      "##ooks": 2718,
      "▁dark": 2719,
      "▁initiated": 2720,
      "▁pledged": 2721,
      "1": 2722,
      "▁haircut": 2723,
      "▁appointed": 2724,
      "▁deb": 2725,
      "##inging": 2726,
      "▁connect": 2727,
      "##uated": 2728,
      "▁diff": 2729,
      "▁techniqu": 2730,
      "▁claim": 2731,
      "##ternoon": 2732,
      "▁expect": 2733,
      "▁mont": 2734,
      "##lation": 2735,
      "##********************************": 2736,
      "##gel": 2737,
      "▁hosting": 2738,
      "▁hus": 2739,
      "▁standards": 2740,
      "▁inte": 2741,
      "▁mood": 2742,
      "▁dun": 2743,
      "##mon": 2744,
      "##ault": 2745,
      "▁courses": 2746,
      "▁features": 2747,
      "▁,?": 2748,
      "▁deck": 2749,
      "▁seems": 2750,
      "ł": 2751,
      "▁public": 2752,
      "▁update": 2753,
      "▁incorporated": 2754,
      "▁decre": 2755,
      "##gar": 2756,
      "▁capability": 2757,
      "▁quest": 2758,
      "▁non": 2759,
      "▁vac": 2760,
      "##acking": 2761,
      "##pe": 2762,
      "##olved": 2763,
      "▁names": 2764,
      "▁goes": 2765,
      "▁spons": 2766,
      "▁goo": 2767,
      "▁buildings": 2768,
      "▁production": 2769,
      "▁folio": 2770,
      "##scope": 2771,
      "▁adam": 2772,
      "▁volume": 2773,
      "▁benefits": 2774,
      "▁constit": 2775,
      "▁greetings": 2776,
      "▁real": 2777,
      "▁weap": 2778,
      "##ize": 2779,
      "▁iron": 2780,
      "▁camera": 2781,
      "##aurs": 2782,
      "▁regist": 2783,
      "##ills": 2784,
      "##pop": 2785,
      "▁reflection": 2786,
      "##emb": 2787,
      "▁childhood": 2788,
      "##oral": 2789,
      "▁divided": 2790,
      "##tiles": 2791,
      "▁spring": 2792,
      "##tions": 2793,
      "▁stic": 2794,
      "##ways": 2795,
      "▁fat": 2796,
      "##wi": 2797,
      "▁desire": 2798,
      "▁column": 2799,
      "▁includ": 2800,
      "▁ind": 2801,
      "##clud": 2802,
      "▁hire": 2803,
      "▁0": 2804,
      "▁loan": 2805,
      "▁underm": 2806,
      "##act": 2807,
      "▁freedom": 2808,
      "▁elements": 2809,
      "##list": 2810,
      "▁forms": 2811,
      "##agon": 2812,
      "▁follow": 2813,
      "▁doggie": 2814,
      "▁looks": 2815,
      "▁but": 2816,
      "▁brass": 2817,
      "▁whoever": 2818,
      "##bir": 2819,
      "▁sect": 2820,
      "▁less": 2821,
      "▁attracted": 2822,
      "▁interviews": 2823,
      "▁existing": 2824,
      "▁difficulties": 2825,
      "▁safety": 2826,
      "▁licenses": 2827,
      "▁joke": 2828,
      "æ": 2829,
      "▁issu": 2830,
      "##rigu": 2831,
      "▁hitting": 2832,
      "▁dest": 2833,
      "▁gras": 2834,
      "▁fro": 2835,
      "▁okay": 2836,
      "▁depend": 2837,
      "▁necess": 2838,
      "▁dri": 2839,
      "▁clothes": 2840,
      "▁difficult": 2841,
      "▁full": 2842,
      "##veland": 2843,
      "▁proc": 2844,
      "##titude": 2845,
      "▁knocked": 2846,
      "▁refusing": 2847,
      "▁times": 2848,
      "▁sing": 2849,
      "▁du": 2850,
      "▁fashion": 2851,
      "▁ang": 2852,
      "▁chair": 2853,
      "▁bunch": 2854,
      "##itled": 2855,
      "##umble": 2856,
      "▁happening": 2857,
      "▁appreciated": 2858,
      "▁community": 2859,
      "▁ov": 2860,
      "##ape": 2861,
      "##)": 2862,
      "##dit": 2863,
      "▁computer": 2864,
      "##ho": 2865,
      "▁guidance": 2866,
      "▁’’": 2867,
      "▁sat": 2868,
      "##xim": 2869,
      "▁opportun": 2870,
      "▁harmonisation": 2871,
      "▁rub": 2872,
      "##ih": 2873,
      "▁item": 2874,
      "▁love": 2875,
      "▁dall": 2876,
      "▁month": 2877,
      "▁limb": 2878,
      "▁do": 2879,
      "▁regar": 2880,
      "▁studies": 2881,
      "▁respect": 2882,
      "##tic": 2883,
      "▁supporting": 2884,
      "##eg": 2885,
      "##”": 2886,
      "▁amendment": 2887,
      "▁myself": 2888,
      "▁wind": 2889,
      "▁canc": 2890,
      "▁aimed": 2891,
      "▁forgotten": 2892,
      "▁bee": 2893,
      "▁leaving": 2894,
      "##ummy": 2895,
      "##amples": 2896,
      "▁came": 2897,
      "##nec": 2898,
      "▁ed": 2899,
      "▁c": 2900,
      "▁deaths": 2901,
      "▁oper": 2902,
      "▁begun": 2903,
      "▁pasta": 2904,
      "▁wol": 2905,
      "▁recognize": 2906,
      "▁allig": 2907,
      "▁sl": 2908,
      "▁polaro": 2909,
      "▁hearings": 2910,
      "##oir": 2911,
      "▁scholars": 2912,
      "##nowled": 2913,
      "▁cowboy": 2914,
      "##vel": 2915,
      "▁bone": 2916,
      "##essions": 2917,
      "▁confirmed": 2918,
      "▁cases": 2919,
      "▁travelling": 2920,
      "##tors": 2921,
      "▁compl": 2922,
      "##oted": 2923,
      "##able": 2924,
      "▁applied": 2925,
      "##anim": 2926,
      "▁upon": 2927,
      "##ung": 2928,
      "##ploy": 2929,
      "##igr": 2930,
      "▁cow": 2931,
      "##apolis": 2932,
      "##itation": 2933,
      "▁un": 2934,
      "▁self": 2935,
      "▁met": 2936,
      "▁point": 2937,
      "▁radio": 2938,
      "##elled": 2939,
      "▁destin": 2940,
      "##ky": 2941,
      "##do": 2942,
      "▁uncle": 2943,
      "▁stuck": 2944,
      "▁prepare": 2945,
      "▁expand": 2946,
      "##aser": 2947,
      "▁basket": 2948,
      "▁rev": 2949,
      "##rors": 2950,
      "▁sources": 2951,
      "▁later": 2952,
      "▁dealing": 2953,
      "##urity": 2954,
      "▁organization": 2955,
      "▁codes": 2956,
      "▁filtered": 2957,
      "▁episode": 2958,
      "▁schools": 2959,
      "▁sarah": 2960,
      "##ox": 2961,
      "##ector": 2962,
      "▁exch": 2963,
      "▁wing": 2964,
      "▁something": 2965,
      "▁spl": 2966,
      "▁dreams": 2967,
      "▁parad": 2968,
      "##lite": 2969,
      "▁rele": 2970,
      "##β": 2971,
      "▁legislation": 2972,
      "▁quan": 2973,
      "##ino": 2974,
      "▁thru": 2975,
      "▁legos": 2976,
      "##otte": 2977,
      "▁reputation": 2978,
      "##ull": 2979,
      "##ding": 2980,
      "▁)": 2981,
      "##umn": 2982,
      "▁iod": 2983,
      "▁volley": 2984,
      "▁trav": 2985,
      "▁movements": 2986,
      "▁cas": 2987,
      "▁dece": 2988,
      "▁forwar": 2989,
      "▁purchasing": 2990,
      "▁youth": 2991,
      "▁no": 2992,
      "▁cash": 2993,
      "▁contribution": 2994,
      "▁sug": 2995,
      "▁ident": 2996,
      "##erves": 2997,
      "▁improve": 2998,
      "▁scan": 2999,
      "##ε": 3000,
      "▁fiction": 3001,
      "▁hy": 3002,
      "▁identity": 3003,
      "▁etc.": 3004,
      "▁computers": 3005,
      "▁atlanta": 3006,
      "##ole": 3007,
      "▁sli": 3008,
      "▁sectors": 3009,
      "▁shoe": 3010,
      "▁release": 3011,
      "▁comedy": 3012,
      "▁comple": 3013,
      "▁x": 3014,
      "ʃ": 3015,
      "▁ann": 3016,
      "##eer": 3017,
      "▁beyond": 3018,
      "##red": 3019,
      "▁murder": 3020,
      "▁{": 3021,
      "##as": 3022,
      "▁lost": 3023,
      "▁alt.animals.": 3024,
      "▁name": 3025,
      "▁most": 3026,
      "▁commun": 3027,
      "##an": 3028,
      "▁sovereignty": 3029,
      "▁friend": 3030,
      "▁coming": 3031,
      "▁hos": 3032,
      "▁shame": 3033,
      "##ume": 3034,
      "▁aircraft": 3035,
      "▁3": 3036,
      "▁grow": 3037,
      "▁pre": 3038,
      "▁box": 3039,
      "▁competition": 3040,
      "▁piz": 3041,
      "▁presents": 3042,
      "▁trouble": 3043,
      "▁|": 3044,
      "▁santorum": 3045,
      "▁ate": 3046,
      "▁prison": 3047,
      "##ound": 3048,
      "##anks": 3049,
      "▁glove": 3050,
      "▁got": 3051,
      "▁letter": 3052,
      "▁foundation": 3053,
      "##lies": 3054,
      "▁homeopath": 3055,
      "▁prec": 3056,
      "▁saying": 3057,
      "##ulate": 3058,
      "▁oc": 3059,
      "▁buses": 3060,
      "▁instr": 3061,
      "▁o": 3062,
      "▁sugg": 3063,
      "##nus": 3064,
      "##+": 3065,
      "½": 3066,
      "▁growing": 3067,
      "▁showing": 3068,
      "▁lamb": 3069,
      "▁arranged": 3070,
      "##ress": 3071,
      "▁hal": 3072,
      "▁afric": 3073,
      "##case": 3074,
      "▁lea": 3075,
      "▁roared": 3076,
      "▁land": 3077,
      "##asa": 3078,
      "▁spending": 3079,
      "▁forb": 3080,
      "▁fin": 3081,
      "▁herself": 3082,
      "##itals": 3083,
      "▁activity": 3084,
      "▁like": 3085,
      "▁kitty": 3086,
      "▁considering": 3087,
      "▁terrorist": 3088,
      "▁wake": 3089,
      "▁share": 3090,
      "##peare": 3091,
      "▁zero": 3092,
      "##cope": 3093,
      "##overn": 3094,
      "▁passengers": 3095,
      "##inking": 3096,
      "▁departing": 3097,
      "##riage": 3098,
      "▁host": 3099,
      "▁ri": 3100,
      "▁reflect": 3101,
      "▁restrictions": 3102,
      "▁beauty": 3103,
      "▁sour": 3104,
      "▁environments": 3105,
      "▁imprisoned": 3106,
      "▁shit": 3107,
      "##ope": 3108,
      "▁na": 3109,
      "##airs": 3110,
      "▁find": 3111,
      "▁reality": 3112,
      "▁concepts": 3113,
      "▁dinos": 3114,
      "▁border": 3115,
      "##eas": 3116,
      "▁hiding": 3117,
      "▁x3": 3118,
      "▁proof": 3119,
      "▁helicop": 3120,
      "▁momma": 3121,
      "▁uncertainty": 3122,
      "▁endeav": 3123,
      "▁speech": 3124,
      "▁revolution": 3125,
      "▁police": 3126,
      "▁attend": 3127,
      "▁gardens": 3128,
      "▁i": 3129,
      "▁signed": 3130,
      "##ped": 3131,
      "▁ki": 3132,
      "#": 3133,
      "▁soldi": 3134,
      "▁discip": 3135,
      "▁here": 3136,
      "▁tastes": 3137,
      "##keep": 3138,
      "▁spend": 3139,
      "▁co": 3140,
      "▁prayer": 3141,
      "▁el": 3142,
      "▁shoo": 3143,
      "▁bands": 3144,
      "▁squeeze": 3145,
      "##word": 3146,
      "▁resulting": 3147,
      "##cro": 3148,
      "▁hay": 3149,
      "##oured": 3150,
      "▁movie": 3151,
      "▁hur": 3152,
      "▁fork": 3153,
      "▁won": 3154,
      "##------": 3155,
      "##.m.": 3156,
      "▁doctor": 3157,
      "▁iss": 3158,
      "▁magazine": 3159,
      "▁carol": 3160,
      "▁fact": 3161,
      "##e": 3162,
      "▁teach": 3163,
      "▁percenti": 3164,
      "##head": 3165,
      "##velop": 3166,
      "##za": 3167,
      "▁kit": 3168,
      "▁down": 3169,
      "▁te": 3170,
      "▁reads": 3171,
      "▁school": 3172,
      "▁web": 3173,
      "▁exclu": 3174,
      "##oy": 3175,
      "##ult": 3176,
      "▁above": 3177,
      "▁propose": 3178,
      "▁theat": 3179,
      "▁recommend": 3180,
      "##bers": 3181,
      "▁explos": 3182,
      "▁bring": 3183,
      "▁wor": 3184,
      "##tc": 3185,
      "##rate": 3186,
      "##asis": 3187,
      "##antly": 3188,
      "▁apart": 3189,
      "##gging": 3190,
      "▁dere": 3191,
      "▁search": 3192,
      "##lando": 3193,
      "▁stat": 3194,
      "##omm": 3195,
      "▁reserv": 3196,
      "▁dol": 3197,
      "##ibilities": 3198,
      "▁europe": 3199,
      "##inate": 3200,
      "##thing": 3201,
      "▁ability": 3202,
      "▁insur": 3203,
      "▁adap": 3204,
      "▁periods": 3205,
      "##ives": 3206,
      "▁citizen": 3207,
      "##tity": 3208,
      "##nesses": 3209,
      "▁wizard": 3210,
      "▁round": 3211,
      "▁eye": 3212,
      "##oard": 3213,
      "▁industries": 3214,
      "▁smell": 3215,
      "##quis": 3216,
      "▁=---": 3217,
      "##athers": 3218,
      "▁rode": 3219,
      "▁identi": 3220,
      "##cept": 3221,
      "▁intelligence": 3222,
      "▁obt": 3223,
      "##mer": 3224,
      "▁collect": 3225,
      "▁promp": 3226,
      "▁cats": 3227,
      "▁interface": 3228,
      "▁broken": 3229,
      "##.x": 3230,
      "▁van": 3231,
      "##ads": 3232,
      "▁represent": 3233,
      "▁squ": 3234,
      "▁medic": 3235,
      "▁discovered": 3236,
      "##utor": 3237,
      "▁columns": 3238,
      "##ent": 3239,
      "##ode": 3240,
      "▁humanity": 3241,
      "▁immigration": 3242,
      "▁continent": 3243,
      "##porte": 3244,
      "##ares": 3245,
      "##unk": 3246,
      "▁editor": 3247,
      "▁operator": 3248,
      "▁….": 3249,
      "##avi": 3250,
      "▁switched": 3251,
      "▁guarantee": 3252,
      "##gr": 3253,
      "▁cows": 3254,
      "▁introduced": 3255,
      "##ath": 3256,
      "##urned": 3257,
      "▁grain": 3258,
      "▁trees": 3259,
      "▁bridge": 3260,
      "▁yard": 3261,
      "▁has": 3262,
      "##hen": 3263,
      "▁takes": 3264,
      "##pen": 3265,
      "▁gotten": 3266,
      "a": 3267,
      "▁custom": 3268,
      "▁barn": 3269,
      "▁business": 3270,
      "▁club": 3271,
      "▁weekends": 3272,
      "▁be": 3273,
      "▁bodies": 3274,
      "▁holds": 3275,
      "▁gis": 3276,
      "##mpl": 3277,
      "▁elect": 3278,
      "▁balloon": 3279,
      "##ith": 3280,
      "▁tank": 3281,
      "##vail": 3282,
      "##ading": 3283,
      "▁champ": 3284,
      "+": 3285,
      "▁fulf": 3286,
      "▁---": 3287,
      "##ades": 3288,
      "##cross": 3289,
      "▁provin": 3290,
      "##ree": 3291,
      "▁dogg": 3292,
      "##sp": 3293,
      "▁title": 3294,
      "▁supports": 3295,
      "▁jo": 3296,
      "##rier": 3297,
      "▁boston": 3298,
      "▁chat": 3299,
      "▁del": 3300,
      "▁cam": 3301,
      "##f": 3302,
      "▁plant": 3303,
      "▁liquid": 3304,
      "##down": 3305,
      "##ending": 3306,
      "##ored": 3307,
      "▁spear": 3308,
      "▁quino": 3309,
      "▁tub": 3310,
      "▁ago": 3311,
      "▁!!!": 3312,
      "▁airport": 3313,
      "▁mat": 3314,
      "##ating": 3315,
      "▁appreciate": 3316,
      "##liday": 3317,
      "▁solutions": 3318,
      "▁achievement": 3319,
      "▁wr": 3320,
      "▁mother": 3321,
      "##asing": 3322,
      "▁mom": 3323,
      "▁beaches": 3324,
      "▁application": 3325,
      "▁dress": 3326,
      "##elling": 3327,
      "▁cro": 3328,
      "▁cabb": 3329,
      "▁sit": 3330,
      "▁registered": 3331,
      "▁environment": 3332,
      "▁dra": 3333,
      "##ι": 3334,
      "##gers": 3335,
      "▁diversity": 3336,
      "ʁ": 3337,
      "##____": 3338,
      "▁eating": 3339,
      "▁learning": 3340,
      "##imb": 3341,
      "▁chocolate": 3342,
      "▁turtle": 3343,
      "▁wagon": 3344,
      "▁inhabit": 3345,
      "▁chr": 3346,
      "▁operations": 3347,
      "▁sus": 3348,
      "▁dy": 3349,
      "▁di": 3350,
      "▁thinking": 3351,
      "▁had": 3352,
      "▁sector": 3353,
      "▁conde": 3354,
      "▁chicken": 3355,
      "▁distribution": 3356,
      "▁teaching": 3357,
      "▁attributed": 3358,
      "▁she": 3359,
      "▁hospital": 3360,
      "▁stret": 3361,
      "##nt": 3362,
      "▁instead": 3363,
      "▁when": 3364,
      "▁positions": 3365,
      "▁say": 3366,
      "##ob": 3367,
      "▁families": 3368,
      "▁!!!!!!!!!!!!!!!": 3369,
      "▁story": 3370,
      "▁invest": 3371,
      "▁first": 3372,
      "▁beach": 3373,
      "▁mornings": 3374,
      "##orrow": 3375,
      "▁top": 3376,
      "▁worked": 3377,
      "▁copies": 3378,
      "▁emb": 3379,
      "▁enterpr": 3380,
      "##nding": 3381,
      "▁pati": 3382,
      "▁enc": 3383,
      "▁cre": 3384,
      "##aign": 3385,
      "##ins": 3386,
      "▁videos": 3387,
      "▁ded": 3388,
      "▁couch": 3389,
      "▁....................": 3390,
      "▁!!!!!!!!!!!!!": 3391,
      "▁wild": 3392,
      "▁medium": 3393,
      "▁experi": 3394,
      "▁windows": 3395,
      "▁sev": 3396,
      "##stances": 3397,
      "▁astr": 3398,
      "▁pe": 3399,
      "▁wondering": 3400,
      "▁july": 3401,
      "▁as": 3402,
      "▁tool": 3403,
      "##-p": 3404,
      "▁pencil": 3405,
      "▁cerem": 3406,
      "▁spin": 3407,
      "##des": 3408,
      "▁milit": 3409,
      "##atures": 3410,
      "##`": 3411,
      "▁degrees": 3412,
      "##rectly": 3413,
      "▁|--------+----------------------->": 3414,
      "▁dav": 3415,
      "▁corp": 3416,
      "▁impact": 3417,
      "▁protect": 3418,
      "▁liked": 3419,
      "▁dolphins": 3420,
      "▁·": 3421,
      "▁drug": 3422,
      "▁subs": 3423,
      "##ada": 3424,
      "##otion": 3425,
      "▁cray": 3426,
      "##www": 3427,
      "▁dc": 3428,
      "▁aw": 3429,
      "²": 3430,
      "##cess": 3431,
      "▁requ": 3432,
      "▁integration": 3433,
      "##az": 3434,
      "▁cincinnati": 3435,
      "##uty": 3436,
      "▁price": 3437,
      "##---------------": 3438,
      "##es": 3439,
      "▁economists": 3440,
      "▁location": 3441,
      "▁carro": 3442,
      "##x": 3443,
      "▁adopted": 3444,
      "▁guerr": 3445,
      "▁---------------------------------": 3446,
      "##ober": 3447,
      "##akers": 3448,
      "##ization": 3449,
      "##ion": 3450,
      "▁studio": 3451,
      "▁knew": 3452,
      "##ises": 3453,
      "▁sump": 3454,
      "▁demon": 3455,
      "▁sharing": 3456,
      "▁rabbits": 3457,
      "▁north": 3458,
      "▁belief": 3459,
      "▁vacc": 3460,
      "▁judgments": 3461,
      "▁oatme": 3462,
      "▁demand": 3463,
      "▁ensuring": 3464,
      "##te": 3465,
      "##------->": 3466,
      "##rote": 3467,
      "▁parking": 3468,
      "▁begins": 3469,
      "▁pushing": 3470,
      "##eted": 3471,
      "▁parake": 3472,
      "▁bea": 3473,
      "##iles": 3474,
      "▁sunday": 3475,
      "▁task": 3476,
      "▁adding": 3477,
      "▁reading": 3478,
      "▁picked": 3479,
      "▁post": 3480,
      "##oup": 3481,
      "▁implementing": 3482,
      "##ays": 3483,
      "▁grandmother": 3484,
      "▁aesthe": 3485,
      "▁horsie": 3486,
      "▁liqu": 3487,
      "##ability": 3488,
      "▁developed": 3489,
      "▁glasses": 3490,
      "▁principle": 3491,
      "▁freedoms": 3492,
      "##ited": 3493,
      "▁word": 3494,
      "`": 3495,
      "▁investment": 3496,
      "▁obs": 3497,
      "##ough": 3498,
      "▁avoided": 3499,
      "▁need": 3500,
      "▁probably": 3501,
      "##abb": 3502,
      "▁counsel": 3503,
      "▁candid": 3504,
      "▁complete": 3505,
      "▁macaroni": 3506,
      "▁shakespeare": 3507,
      "##irts": 3508,
      "▁screw": 3509,
      "▁ps": 3510,
      "▁stair": 3511,
      "▁decl": 3512,
      "▁19": 3513,
      "##ty": 3514,
      "▁surpr": 3515,
      "##um": 3516,
      "▁dro": 3517,
      "##imum": 3518,
      "▁comm": 3519,
      "▁course": 3520,
      "##tsbur": 3521,
      "##ication": 3522,
      "▁cabbage": 3523,
      "##^": 3524,
      "▁pad": 3525,
      "▁med": 3526,
      "▁products": 3527,
      "##aring": 3528,
      "▁lose": 3529,
      "▁jew": 3530,
      "▁lin": 3531,
      "▁dated": 3532,
      "▁awa": 3533,
      "▁questioned": 3534,
      "##ons": 3535,
      "▁recipient": 3536,
      "▁conf": 3537,
      "##unc": 3538,
      "▁ens": 3539,
      "▁score": 3540,
      "▁sense": 3541,
      "▁publication": 3542,
      "▁nice": 3543,
      "▁documents": 3544,
      "▁cook": 3545,
      "▁shorts": 3546,
      "▁passport": 3547,
      "##umes": 3548,
      "##illed": 3549,
      "▁mushroom": 3550,
      "##d-": 3551,
      "▁scored": 3552,
      "##oll": 3553,
      "▁records": 3554,
      "##ried": 3555,
      "▁tops": 3556,
      "▁sisters": 3557,
      "##lin": 3558,
      "▁viewed": 3559,
      "▁green": 3560,
      "▁excuse": 3561,
      "▁assass": 3562,
      "▁seeds": 3563,
      "##eces": 3564,
      "▁laughter": 3565,
      "##app": 3566,
      "▁airports": 3567,
      "##arg": 3568,
      "▁player": 3569,
      "▁valley": 3570,
      "##uly": 3571,
      "▁night": 3572,
      "▁u": 3573,
      "▁dollars": 3574,
      "▁sens": 3575,
      "▁bulld": 3576,
      "▁suppl": 3577,
      "▁facil": 3578,
      "▁approve": 3579,
      "▁attitude": 3580,
      "##ann": 3581,
      "▁assist": 3582,
      "▁schem": 3583,
      "▁places": 3584,
      "▁terrorists": 3585,
      "▁quack": 3586,
      "▁cour": 3587,
      "▁eng": 3588,
      "▁mouse": 3589,
      "▁est": 3590,
      "##ague": 3591,
      "##itional": 3592,
      "▁promised": 3593,
      "▁satel": 3594,
      "▁ignor": 3595,
      "##acts": 3596,
      "▁tree": 3597,
      "##ories": 3598,
      "▁such": 3599,
      "##ective": 3600,
      "▁needs": 3601,
      "▁pieces": 3602,
      "##very": 3603,
      "##entiality": 3604,
      "▁pajamas": 3605,
      "##eding": 3606,
      "▁propos": 3607,
      "##corn": 3608,
      "##int": 3609,
      "##·": 3610,
      "▁shore": 3611,
      "##isture": 3612,
      "##body": 3613,
      "▁write": 3614,
      "##oss": 3615,
      "▁personality": 3616,
      "##isms": 3617,
      "▁rap": 3618,
      "##ck": 3619,
      "▁recru": 3620,
      "▁mar": 3621,
      "##he": 3622,
      "▁fingers": 3623,
      "▁ve": 3624,
      "▁destro": 3625,
      "##.pd": 3626,
      "##ening": 3627,
      "##ished": 3628,
      "▁kitten": 3629,
      "▁:": 3630,
      "▁coop": 3631,
      "▁drawn": 3632,
      "##hap": 3633,
      "##its": 3634,
      "##elf": 3635,
      "##rim": 3636,
      "▁foreign": 3637,
      "▁ladies": 3638,
      "▁grounds": 3639,
      "▁syrup": 3640,
      "▁suggested": 3641,
      "##sters": 3642,
      "▁scene": 3643,
      "▁inves": 3644,
      "##sus": 3645,
      "▁facility": 3646,
      "▁playing": 3647,
      "##-c": 3648,
      "##ro": 3649,
      "▁negoti": 3650,
      "▁wine": 3651,
      "##une": 3652,
      "▁require": 3653,
      "##rows": 3654,
      "▁buttons": 3655,
      "▁reported": 3656,
      "▁traveling": 3657,
      "▁struggle": 3658,
      "▁bath": 3659,
      "▁pl": 3660,
      "▁look": 3661,
      "▁foot": 3662,
      "▁assault": 3663,
      "##tr": 3664,
      "▁!!": 3665,
      "##orld": 3666,
      "▁&": 3667,
      "▁cove": 3668,
      "##orate": 3669,
      "▁pizza": 3670,
      "##cakes": 3671,
      "▁cock": 3672,
      "##are": 3673,
      "##ash": 3674,
      "▁env": 3675,
      "▁promoted": 3676,
      "##illa": 3677,
      "▁waiver": 3678,
      "▁birds": 3679,
      "▁poodle": 3680,
      "▁nove": 3681,
      "▁fever": 3682,
      "▁turns": 3683,
      "▁promote": 3684,
      "▁dining": 3685,
      "▁hurt": 3686,
      "##ci": 3687,
      "▁enemy": 3688,
      "##go": 3689,
      "▁acquis": 3690,
      "▁s/he": 3691,
      "##king": 3692,
      "▁territory": 3693,
      "▁greet": 3694,
      "##ocr": 3695,
      "##ters": 3696,
      "##alty": 3697,
      "##iod": 3698,
      "▁recall": 3699,
      "▁awareness": 3700,
      "##icul": 3701,
      "##enix": 3702,
      "▁account": 3703,
      "▁les": 3704,
      "▁charm": 3705,
      "▁ven": 3706,
      "▁asylum": 3707,
      "▁fill": 3708,
      "▁snakes": 3709,
      "##ete": 3710,
      "##ado": 3711,
      "▁contr": 3712,
      "##acket": 3713,
      "▁authority": 3714,
      "▁links": 3715,
      "▁contacts": 3716,
      ":": 3717,
      "▁governments": 3718,
      "##ification": 3719,
      "▁sho": 3720,
      "▁whole": 3721,
      "4": 3722,
      "▁adj": 3723,
      "▁blink": 3724,
      "▁statue": 3725,
      "▁jacket": 3726,
      "▁hit": 3727,
      "▁defining": 3728,
      "▁subscrib": 3729,
      "##aste": 3730,
      "##amus": 3731,
      "▁crowd": 3732,
      "##uscri": 3733,
      "##ub": 3734,
      "▁compan": 3735,
      "▁ye": 3736,
      "▁app": 3737,
      "##ician": 3738,
      "##mited": 3739,
      "##ounce": 3740,
      "▁strike": 3741,
      "##ural": 3742,
      "▁directions": 3743,
      "##aganda": 3744,
      "##it": 3745,
      "▁elevator": 3746,
      "▁tic": 3747,
      "▁mos": 3748,
      "▁saf": 3749,
      "##pr": 3750,
      "##to": 3751,
      "▁yog": 3752,
      "▁distributed": 3753,
      "▁soil": 3754,
      "▁surface": 3755,
      "▁influ": 3756,
      "▁explo": 3757,
      "##ince": 3758,
      "▁suffering": 3759,
      "##struc": 3760,
      "▁feed": 3761,
      "▁start": 3762,
      "##oop": 3763,
      "▁[...]": 3764,
      "▁snack": 3765,
      "##ute": 3766,
      "▁guards": 3767,
      "▁control": 3768,
      "▁consum": 3769,
      "▁owl": 3770,
      "##uropean": 3771,
      "▁found": 3772,
      "▁gang": 3773,
      "▁ep": 3774,
      "▁fir": 3775,
      "▁offer": 3776,
      "▁coordination": 3777,
      "▁peop": 3778,
      "▁bag": 3779,
      "▁principles": 3780,
      "▁kitt": 3781,
      "▁due": 3782,
      "▁dem": 3783,
      "▁farmer": 3784,
      "▁disability": 3785,
      "▁pyr": 3786,
      "▁remained": 3787,
      "▁`s": 3788,
      "##orm": 3789,
      "▁horse": 3790,
      "▁rel": 3791,
      "▁justice": 3792,
      "▁laundry": 3793,
      "▁ad": 3794,
      "▁profits": 3795,
      "▁customers": 3796,
      "▁rolled": 3797,
      "▁proce": 3798,
      "▁jar": 3799,
      "▁chef": 3800,
      "▁importance": 3801,
      "▁silk": 3802,
      "▁smile": 3803,
      "▁adm": 3804,
      "▁grit": 3805,
      "▁yogurt": 3806,
      "▁vacuum": 3807,
      "▁gen": 3808,
      "▁texas": 3809,
      "▁backed": 3810,
      "##ah": 3811,
      "▁climbing": 3812,
      "▁techn": 3813,
      "##cinn": 3814,
      "▁rene": 3815,
      "▁copied": 3816,
      "##erent": 3817,
      "▁fox": 3818,
      "▁bab": 3819,
      "▁handed": 3820,
      "▁stillman": 3821,
      "▁river": 3822,
      "▁stopping": 3823,
      "##rest": 3824,
      "▁drops": 3825,
      "▁ped": 3826,
      "▁candy": 3827,
      "▁gamb": 3828,
      "▁economies": 3829,
      "▁antiqu": 3830,
      "##ave": 3831,
      "▁next": 3832,
      "▁arrangements": 3833,
      "▁fine": 3834,
      "▁rot": 3835,
      "▁con": 3836,
      "▁proceed": 3837,
      "▁handle": 3838,
      "▁charge": 3839,
      "##anced": 3840,
      "▁hed": 3841,
      "▁fishing": 3842,
      "##ansas": 3843,
      "▁offers": 3844,
      "##;": 3845,
      "▁counc": 3846,
      "▁geor": 3847,
      "##ores": 3848,
      "▁wall": 3849,
      "▁show": 3850,
      "▁shot": 3851,
      "▁instructor": 3852,
      "▁memoir": 3853,
      "▁meth": 3854,
      "▁violation": 3855,
      "##inger": 3856,
      "▁congratulations": 3857,
      "▁aside": 3858,
      "▁percent": 3859,
      "##ods": 3860,
      "▁paid": 3861,
      "▁vend": 3862,
      "▁till": 3863,
      "▁examine": 3864,
      "▁receive": 3865,
      "##port": 3866,
      "▁flights": 3867,
      "▁form": 3868,
      "▁comment": 3869,
      "▁newsp": 3870,
      "▁seattle": 3871,
      "▁described": 3872,
      "▁ey": 3873,
      "##day": 3874,
      "▁deteri": 3875,
      "▁come": 3876,
      "▁event": 3877,
      "▁fortune": 3878,
      "▁guar": 3879,
      "▁stories": 3880,
      "▁cy": 3881,
      "▁frozen": 3882,
      "##cp": 3883,
      "##y": 3884,
      "▁neighbors": 3885,
      "▁mm": 3886,
      "▁re": 3887,
      "##iss": 3888,
      "##zz": 3889,
      "▁lim": 3890,
      "▁gone": 3891,
      "▁cir": 3892,
      "##ause": 3893,
      "▁strain": 3894,
      "▁shower": 3895,
      "##ark": 3896,
      "▁grid": 3897,
      "##://": 3898,
      "▁income": 3899,
      "##°": 3900,
      "▁globe": 3901,
      "▁certific": 3902,
      "y": 3903,
      "▁cupcake": 3904,
      "▁pro": 3905,
      "▁set": 3906,
      "##ire": 3907,
      "▁soldier": 3908,
      "▁after": 3909,
      "▁nights": 3910,
      "▁fabric": 3911,
      "▁lesson": 3912,
      "▁establishment": 3913,
      "…": 3914,
      "▁sett": 3915,
      "▁resume": 3916,
      "▁flew": 3917,
      "▁paragraph": 3918,
      "▁audience": 3919,
      "##uter": 3920,
      "▁performed": 3921,
      "##box": 3922,
      "▁disl": 3923,
      "▁himself": 3924,
      "##me": 3925,
      "▁planned": 3926,
      "##elines": 3927,
      "▁coll": 3928,
      "▁telephone": 3929,
      "▁horn": 3930,
      "##ority": 3931,
      "##phere": 3932,
      "▁mark": 3933,
      "▁banjo": 3934,
      "▁cultures": 3935,
      "▁soda": 3936,
      "▁recording": 3937,
      "▁scheduled": 3938,
      "▁manag": 3939,
      "▁into": 3940,
      "##ages": 3941,
      "▁delivery": 3942,
      "▁it's": 3943,
      "▁states": 3944,
      "##uf": 3945,
      "##onstr": 3946,
      "##ings": 3947,
      "##lling": 3948,
      "▁diseases": 3949,
      "▁coast": 3950,
      "▁chances": 3951,
      "▁senators": 3952,
      "▁produc": 3953,
      "▁encouraged": 3954,
      "▁manufactur": 3955,
      "▁eyes": 3956,
      "▁atop": 3957,
      "##ual": 3958,
      "##ber": 3959,
      "▁asked": 3960,
      "▁conference": 3961,
      "▁proposals": 3962,
      "▁closing": 3963,
      "##art": 3964,
      "ν": 3965,
      "▁remove": 3966,
      "[UNK]": 3967,
      "▁sold": 3968,
      "▁hosp": 3969,
      "▁aims": 3970,
      "▁consc": 3971,
      "##ivers": 3972,
      "▁airplane": 3973,
      "▁blocks": 3974,
      "▁ign": 3975,
      "##ack": 3976,
      "▁pipeline": 3977,
      "▁skill": 3978,
      "▁queries": 3979,
      "##temp": 3980,
      "##ipl": 3981,
      "▁communities": 3982,
      "▁voices": 3983,
      "▁adapted": 3984,
      "▁ursula": 3985,
      "▁ask": 3986,
      "▁pink": 3987,
      "▁middle": 3988,
      "▁spacetime": 3989,
      "▁seventh": 3990,
      "▁hold": 3991,
      "▁revers": 3992,
      "▁detail": 3993,
      "▁restric": 3994,
      "▁incorp": 3995,
      "▁acknowled": 3996,
      "▁jews": 3997,
      "##imore": 3998,
      "▁removed": 3999,
      "▁haf": 4000,
      "▁jeans": 4001,
      "##med": 4002,
      "▁locations": 4003,
      "▁burn": 4004,
      "▁wal": 4005,
      "▁distric": 4006,
      "▁comes": 4007,
      "▁perio": 4008,
      "▁serv": 4009,
      "▁conn": 4010,
      "▁transformation": 4011,
      "▁linked": 4012,
      "▁contracts": 4013,
      "##itely": 4014,
      "##iful": 4015,
      "▁civili": 4016,
      "▁cold": 4017,
      "▁attemp": 4018,
      "##wn": 4019,
      "▁poll": 4020,
      "▁views": 4021,
      "##il": 4022,
      "▁prof": 4023,
      "▁former": 4024,
      "##rop": 4025,
      "▁emp": 4026,
      "▁pretending": 4027,
      "##care": 4028,
      "▁policy": 4029,
      "▁eur": 4030,
      "▁warming": 4031,
      "##œ": 4032,
      "▁hammer": 4033,
      "▁vod": 4034,
      "##ze": 4035,
      "##itch": 4036,
      "##bby": 4037,
      "##roleum": 4038,
      "▁phys": 4039,
      "##istic": 4040,
      "▁accomm": 4041,
      "▁acqui": 4042,
      "▁mice": 4043,
      "▁intentions": 4044,
      "##ases": 4045,
      "▁fish": 4046,
      "▁rever": 4047,
      "▁investigate": 4048,
      "▁k": 4049,
      "##id": 4050,
      "##ug": 4051,
      "▁farm": 4052,
      "##ming": 4053,
      "▁!!!!": 4054,
      "▁avoid": 4055,
      "▁have": 4056,
      "##ambment": 4057,
      "##crib": 4058,
      "▁essence": 4059,
      "▁depends": 4060,
      "##…": 4061,
      "▁returning": 4062,
      "##warded": 4063,
      "▁book": 4064,
      "▁knee": 4065,
      "▁affect": 4066,
      "▁obtained": 4067,
      "▁w": 4068,
      "▁’d": 4069,
      "##orti": 4070,
      "▁lou": 4071,
      "##uary": 4072,
      "##iness": 4073,
      "▁ag": 4074,
      "▁fighting": 4075,
      "▁bro": 4076,
      "##sent": 4077,
      "▁path": 4078,
      "▁sched": 4079,
      "▁sweater": 4080,
      "▁survive": 4081,
      "##mely": 4082,
      "##ny": 4083,
      "▁through": 4084,
      "▁apar": 4085,
      "##??": 4086,
      "##ater": 4087,
      "▁compon": 4088,
      "▁supported": 4089,
      "▁adoption": 4090,
      "▁season": 4091,
      "##hood": 4092,
      "▁technique": 4093,
      "##ork": 4094,
      "##come": 4095,
      "▁counterpar": 4096,
      "▁report": 4097,
      "▁lick": 4098,
      "##ints": 4099,
      "▁sil": 4100,
      "▁conditions": 4101,
      "▁manufact": 4102,
      "##tie": 4103,
      "▁east": 4104,
      "##hea": 4105,
      "▁measure": 4106,
      "▁fer": 4107,
      "##itt": 4108,
      "▁surgery": 4109,
      "▁steak": 4110,
      "▁limitations": 4111,
      "▁biting": 4112,
      "▁industry": 4113,
      "▁lot": 4114,
      "▁sw": 4115,
      "▁n": 4116,
      "^": 4117,
      "▁managers": 4118,
      "ς": 4119,
      "▁ring": 4120,
      "##ership": 4121,
      "▁5": 4122,
      "▁refrigerator": 4123,
      "▁belongs": 4124,
      "▁priv": 4125,
      "##.xls": 4126,
      "▁crop": 4127,
      "▁notwithstanding": 4128,
      "##tured": 4129,
      "##(": 4130,
      "▁issue": 4131,
      "##=----": 4132,
      "<": 4133,
      "##1": 4134,
      "▁crush": 4135,
      "▁thri": 4136,
      "▁fee": 4137,
      "##rel": 4138,
      "##ders": 4139,
      "▁pen": 4140,
      "##ourse": 4141,
      "▁integ": 4142,
      "▁don": 4143,
      "o": 4144,
      "▁cleaned": 4145,
      "▁hurts": 4146,
      "▁product": 4147,
      "▁earliest": 4148,
      "▁others": 4149,
      "▁pack": 4150,
      "▁stir": 4151,
      "▁fright": 4152,
      "▁paths": 4153,
      "##ounded": 4154,
      "▁sc": 4155,
      "▁branch": 4156,
      "▁national": 4157,
      "▁crime": 4158,
      "▁game": 4159,
      "##chup": 4160,
      "▁workforce": 4161,
      "▁many": 4162,
      "##iency": 4163,
      "##ocity": 4164,
      "##000": 4165,
      "▁longer": 4166,
      "##**********************************": 4167,
      "##ml": 4168,
      "▁hors": 4169,
      "▁him": 4170,
      "▁wik": 4171,
      "##friend": 4172,
      "▁bringing": 4173,
      "▁brothers": 4174,
      "▁ref": 4175,
      "##titudes": 4176,
      "▁commitment": 4177,
      "▁interview": 4178,
      "##ister": 4179,
      "▁pa": 4180,
      "▁mike": 4181,
      "##jected": 4182,
      "▁expansion": 4183,
      "▁pass": 4184,
      "▁bomb": 4185,
      "##con": 4186,
      "##ard": 4187,
      "▁photos": 4188,
      "##berry": 4189,
      "▁lock": 4190,
      "▁pointing": 4191,
      "##engers": 4192,
      "▁intrigu": 4193,
      "##ur": 4194,
      "▁check": 4195,
      "▁man": 4196,
      "##esty": 4197,
      "▁rag": 4198,
      "▁chest": 4199,
      "▁theory": 4200,
      "▁menti": 4201,
      "▁should": 4202,
      "##view": 4203,
      "▁oath": 4204,
      "▁accep": 4205,
      "▁ple": 4206,
      "▁thoughts": 4207,
      "##inally": 4208,
      "▁chicago": 4209,
      "##mitted": 4210,
      "##istence": 4211,
      "u": 4212,
      "▁butterfl": 4213,
      "▁selected": 4214,
      "▁invented": 4215,
      "▁attempts": 4216,
      "▁festivals": 4217,
      "▁asyl": 4218,
      "▁jump": 4219,
      "▁squirt": 4220,
      "##per": 4221,
      "▁race": 4222,
      "##erving": 4223,
      "▁b/": 4224,
      "▁cat": 4225,
      "▁concern": 4226,
      "##ictions": 4227,
      "▁pret": 4228,
      "▁der": 4229,
      "▁film": 4230,
      "▁so": 4231,
      "▁comb": 4232,
      "##ret": 4233,
      "##ants": 4234,
      "▁going": 4235,
      "▁b": 4236,
      "▁dream": 4237,
      "##umbled": 4238,
      "▁!!!!!!!!!!": 4239,
      "▁bel": 4240,
      "▁peanut": 4241,
      "##tery": 4242,
      "▁ski": 4243,
      "▁audio": 4244,
      "▁penc": 4245,
      "##kle": 4246,
      "▁cooked": 4247,
      "▁guerrillas": 4248,
      "##ests": 4249,
      "##att": 4250,
      "▁bu": 4251,
      "##ense": 4252,
      "▁reflected": 4253,
      "▁preparation": 4254,
      "##????????????????": 4255,
      "▁king": 4256,
      "▁millions": 4257,
      "▁concl": 4258,
      "▁legisl": 4259,
      "▁cocktail": 4260,
      "▁trial": 4261,
      "▁tot": 4262,
      "▁indic": 4263,
      "▁two": 4264,
      "▁protected": 4265,
      "##ption": 4266,
      "▁contents": 4267,
      "▁fares": 4268,
      "▁coo": 4269,
      "▁preserve": 4270,
      "▁establishing": 4271,
      "▁thursday": 4272,
      "▁dis": 4273,
      "##ect": 4274,
      "▁split": 4275,
      "▁prevail": 4276,
      "▁consciousness": 4277,
      "▁worn": 4278,
      "▁-----------------------------------------------------------------": 4279,
      "7": 4280,
      "▁cabinet": 4281,
      "▁toast": 4282,
      "##ligence": 4283,
      "▁gallon": 4284,
      "▁gri": 4285,
      "▁way": 4286,
      "##eets": 4287,
      "##derstand": 4288,
      "▁second": 4289,
      "▁warned": 4290,
      "▁genius": 4291,
      "▁was": 4292,
      "▁poverty": 4293,
      "▁listing": 4294,
      "▁restaurants": 4295,
      "##ang": 4296,
      "▁soft": 4297,
      "▁expecting": 4298,
      "▁agent": 4299,
      "▁connection": 4300,
      "▁adv": 4301,
      "##ishment": 4302,
      "##gest": 4303,
      "▁alliance": 4304,
      "▁filed": 4305,
      "▁wi": 4306,
      "j": 4307,
      "▁clear": 4308,
      "▁needed": 4309,
      "▁operation": 4310,
      "▁evidence": 4311,
      "▁hor": 4312,
      "▁jih": 4313,
      "▁peace": 4314,
      "▁landscape": 4315,
      "▁image": 4316,
      "##rent": 4317,
      "▁girlfriend": 4318,
      "▁figures": 4319,
      "▁career": 4320,
      "##erence": 4321,
      "▁revealed": 4322,
      "▁separate": 4323,
      "##structed": 4324,
      "▁mommy": 4325,
      "##ł": 4326,
      "##sive": 4327,
      "##ancing": 4328,
      "▁glo": 4329,
      "▁select": 4330,
      "▁mel": 4331,
      "▁yea": 4332,
      "▁though": 4333,
      "▁defense": 4334,
      "##arity": 4335,
      "##ing": 4336,
      "▁vehic": 4337,
      "▁gained": 4338,
      "▁walked": 4339,
      "▁giving": 4340,
      "▁ending": 4341,
      "▁coverage": 4342,
      "▁spokesman": 4343,
      "##anc": 4344,
      "▁penny": 4345,
      "##ined": 4346,
      "▁known": 4347,
      "▁beside": 4348,
      "##iac": 4349,
      "▁calls": 4350,
      "▁id": 4351,
      "ω": 4352,
      "##actions": 4353,
      "▁required": 4354,
      "▁californ": 4355,
      "▁hands": 4356,
      "▁guacamole": 4357,
      "##ew": 4358,
      "▁”": 4359,
      "▁innovation": 4360,
      "▁gives": 4361,
      "##inks": 4362,
      "▁lands": 4363,
      "▁blame": 4364,
      "##ains": 4365,
      "##rup": 4366,
      "▁sights": 4367,
      "▁art": 4368,
      "▁bucket": 4369,
      "▁tail": 4370,
      "▁nov": 4371,
      "▁implementation": 4372,
      "▁concerned": 4373,
      "▁wan": 4374,
      "▁exper": 4375,
      "##μ": 4376,
      "▁allocated": 4377,
      "##line": 4378,
      "▁designer": 4379,
      "▁boot": 4380,
      "##ident": 4381,
      "▁approach": 4382,
      "##essing": 4383,
      "▁compar": 4384,
      "##umin": 4385,
      "▁coupons": 4386,
      "▁firms": 4387,
      "▁pil": 4388,
      "▁transl": 4389,
      "##antee": 4390,
      "▁jul": 4391,
      "▁alread": 4392,
      "##eb": 4393,
      "##80s": 4394,
      "▁phot": 4395,
      "▁tiger": 4396,
      "▁understanding": 4397,
      "▁relief": 4398,
      "▁defined": 4399,
      "▁soy": 4400,
      "▁continu": 4401,
      "▁gcp": 4402,
      "##get": 4403,
      "##icals": 4404,
      "▁persons": 4405,
      "▁gains": 4406,
      "▁dinosaurs": 4407,
      "▁mold": 4408,
      "▁origin": 4409,
      "##ere": 4410,
      "▁navy": 4411,
      "▁born": 4412,
      "##books": 4413,
      "▁achieved": 4414,
      "##eds": 4415,
      "##here": 4416,
      "▁consequences": 4417,
      "▁tragedies": 4418,
      "##boat": 4419,
      "▁franc": 4420,
      "▁nur": 4421,
      "▁throughout": 4422,
      "##asters": 4423,
      "▁perhap": 4424,
      "▁fold": 4425,
      "▁includes": 4426,
      "▁aband": 4427,
      "▁george": 4428,
      "▁pool": 4429,
      "##di": 4430,
      "▁goose": 4431,
      "▁bon": 4432,
      "▁posts": 4433,
      "▁pho": 4434,
      "▁forces": 4435,
      "##ceived": 4436,
      "▁forehead": 4437,
      "▁talking": 4438,
      "▁let": 4439,
      "▁!": 4440,
      "##stit": 4441,
      "▁hoof": 4442,
      "▁origins": 4443,
      "##“": 4444,
      "▁suitcase": 4445,
      "▁row": 4446,
      "▁’m": 4447,
      "▁cars": 4448,
      "▁sleep": 4449,
      "▁rip": 4450,
      "▁amer": 4451,
      "▁highligh": 4452,
      "▁walking": 4453,
      "##life": 4454,
      "##tician": 4455,
      "▁scribble": 4456,
      "▁average": 4457,
      "▁introduce": 4458,
      "▁bearing": 4459,
      "▁baltimore": 4460,
      "▁range": 4461,
      "▁requested": 4462,
      "▁monkey": 4463,
      "▁bott": 4464,
      "▁light": 4465,
      "▁parties": 4466,
      "▁allies": 4467,
      "▁st": 4468,
      "▁cancer": 4469,
      "▁work": 4470,
      "##ames": 4471,
      "##met": 4472,
      "▁checked": 4473,
      "▁entertainment": 4474,
      "▁nobody": 4475,
      "▁negot": 4476,
      "▁explore": 4477,
      "##ought": 4478,
      "▁bew": 4479,
      "▁passes": 4480,
      "▁installing": 4481,
      "▁big": 4482,
      "▁call": 4483,
      "▁correspondence": 4484,
      "▁docum": 4485,
      "##rops": 4486,
      "▁rates": 4487,
      "##erm": 4488,
      "##oin": 4489,
      "##end": 4490,
      "##60s": 4491,
      "▁becom": 4492,
      "##ail": 4493,
      "▁webs": 4494,
      "##ration": 4495,
      "▁towards": 4496,
      "▁parakeet": 4497,
      "##ir": 4498,
      "▁yelling": 4499,
      "*": 4500,
      "▁extend": 4501,
      "▁government": 4502,
      "▁died": 4503,
      "▁sale": 4504,
      "▁trans": 4505,
      "▁cover": 4506,
      "▁believes": 4507,
      "▁compli": 4508,
      "▁lantern": 4509,
      "▁dign": 4510,
      "▁ab": 4511,
      "▁bars": 4512,
      "▁risks": 4513,
      "▁pi": 4514,
      "▁representatives": 4515,
      "##bed": 4516,
      "##place": 4517,
      "▁sleeping": 4518,
      "##uses": 4519,
      "##ip": 4520,
      "##ich": 4521,
      "##aying": 4522,
      "##ʃ": 4523,
      "▁drill": 4524,
      "▁har": 4525,
      "▁reports": 4526,
      "##i": 4527,
      "▁ears": 4528,
      "▁econom": 4529,
      "▁sss": 4530,
      "▁threatened": 4531,
      "##igration": 4532,
      "##uma": 4533,
      "▁combined": 4534,
      "##oul": 4535,
      "##ees": 4536,
      "##ops": 4537,
      "##—": 4538,
      "▁moments": 4539,
      "▁salon": 4540,
      "##ighter": 4541,
      "▁creates": 4542,
      "▁duck": 4543,
      "▁ban": 4544,
      "▁heads": 4545,
      "▁fail": 4546,
      "▁hiking": 4547,
      "▁peoples": 4548,
      "▁clay": 4549,
      "##'s": 4550,
      "▁enh": 4551,
      "▁fe": 4552,
      "▁taught": 4553,
      "▁than": 4554,
      "##ly": 4555,
      "##ible": 4556,
      "##fully": 4557,
      "▁imp": 4558,
      "##dy": 4559,
      "▁hom": 4560,
      "##ture": 4561,
      "@": 4562,
      "▁inj": 4563,
      "▁prep": 4564,
      "▁arab": 4565,
      "##sts": 4566,
      "▁breakfast": 4567,
      "▁mention": 4568,
      "▁reminded": 4569,
      "▁hers": 4570,
      "▁cinnamon": 4571,
      "##iam": 4572,
      "▁diego": 4573,
      "##ickness": 4574,
      "▁examining": 4575,
      "▁vs": 4576,
      "▁guid": 4577,
      "▁mind": 4578,
      "▁company": 4579,
      "▁listen": 4580,
      "▁true": 4581,
      "##ational": 4582,
      "▁propaganda": 4583,
      "▁": 4584,
      "▁tend": 4585,
      "▁projected": 4586,
      "▁executed": 4587,
      ".": 4588,
      "▁deals": 4589,
      "▁clothing": 4590,
      "▁kid": 4591,
      "▁reception": 4592,
      "##{": 4593,
      "▁cliff": 4594,
      "▁floating": 4595,
      "▁sn": 4596,
      "▁tickle": 4597,
      "▁doubts": 4598,
      "##qual": 4599,
      "▁murders": 4600,
      "▁fre": 4601,
      "▁flooding": 4602,
      "▁hug": 4603,
      "▁posted": 4604,
      "##unch": 4605,
      "▁negotiated": 4606,
      "▁des": 4607,
      "##!!": 4608,
      "▁vict": 4609,
      "▁further": 4610,
      "▁branches": 4611,
      "##ated": 4612,
      "▁cleveland": 4613,
      "▁wheel": 4614,
      "▁piv": 4615,
      "##vert": 4616,
      "##ily": 4617,
      "▁error": 4618,
      "##ace": 4619,
      "▁sees": 4620,
      "▁oct": 4621,
      "▁giant": 4622,
      "##ves": 4623,
      "▁hat": 4624,
      "▁minute": 4625,
      "▁centuries": 4626,
      "##aid": 4627,
      "##cally": 4628,
      "##ject": 4629,
      "▁li": 4630,
      "▁acc": 4631,
      "▁began": 4632,
      "▁hotels": 4633,
      "▁regime": 4634,
      "▁spot": 4635,
      "##ligh": 4636,
      "▁chap": 4637,
      "▁office": 4638,
      "▁since": 4639,
      "▁discussion": 4640,
      "##yst": 4641,
      "##issors": 4642,
      "▁demonstr": 4643,
      "▁wrest": 4644,
      "##ol": 4645,
      "▁female": 4646,
      "▁recorder": 4647,
      "▁notw": 4648,
      "##ely": 4649,
      "▁ignore": 4650,
      "ʻ": 4651,
      "▁!!!!!!!": 4652,
      "▁aid": 4653,
      "▁eat": 4654,
      "▁estate": 4655,
      "▁treatments": 4656,
      "▁withd": 4657,
      "▁survey": 4658,
      "▁hour": 4659,
      "▁reform": 4660,
      "##ye": 4661,
      "##ital": 4662,
      "▁decision": 4663,
      "▁tol": 4664,
      "▁hon": 4665,
      "▁lifetime": 4666,
      "##ster": 4667,
      "▁arguments": 4668,
      "▁dancing": 4669,
      "▁picture": 4670,
      "▁sup": 4671,
      "▁honey": 4672,
      "▁asc": 4673,
      "##bre": 4674,
      "▁…": 4675,
      "##ong": 4676,
      "▁music": 4677,
      "▁presentation": 4678,
      "▁fixed": 4679,
      "##ours": 4680,
      "##ios": 4681,
      "##enom": 4682,
      "▁tons": 4683,
      "▁dilem": 4684,
      "▁intercon": 4685,
      "▁comments": 4686,
      "▁minister": 4687,
      "n": 4688,
      "##inental": 4689,
      "▁flying": 4690,
      "▁roll": 4691,
      "##sh": 4692,
      "▁ends": 4693,
      "▁boats": 4694,
      "▁constituency": 4695,
      "▁reducing": 4696,
      "##ious": 4697,
      "▁earned": 4698,
      "##ec": 4699,
      "▁hard": 4700,
      "▁vom": 4701,
      "##$$": 4702,
      "▁resource": 4703,
      "▁integr": 4704,
      "##perity": 4705,
      "▁qu": 4706,
      "▁ceremony": 4707,
      "▁duties": 4708,
      "▁hall": 4709,
      "▁taxi": 4710,
      "##ensity": 4711,
      "▁che": 4712,
      "▁dialog": 4713,
      "▁settings": 4714,
      "##iving": 4715,
      "▁laur": 4716,
      "▁deployed": 4717,
      "▁identified": 4718,
      "▁lic": 4719,
      "##/": 4720,
      "▁issued": 4721,
      "▁craw": 4722,
      "##icke": 4723,
      "▁expl": 4724,
      "▁tab": 4725,
      "▁colour": 4726,
      "##u": 4727,
      "▁even": 4728,
      "▁plan": 4729,
      "##fication": 4730,
      "##mped": 4731,
      "▁exh": 4732,
      "▁nume": 4733,
      "▁exposure": 4734,
      "▁ready": 4735,
      "▁import": 4736,
      "▁premium": 4737,
      "##iling": 4738,
      "▁n't": 4739,
      "▁therefore": 4740,
      "##lf": 4741,
      "▁wednesday": 4742,
      "▁prosec": 4743,
      "##rit": 4744,
      "▁role": 4745,
      "▁seas": 4746,
      "▁gd": 4747,
      "▁january": 4748,
      "##z": 4749,
      "##pensive": 4750,
      "▁discre": 4751,
      "▁asp": 4752,
      "▁nails": 4753,
      "##ugh": 4754,
      "▁islands": 4755,
      "▁abandoned": 4756,
      "▁bo": 4757,
      "##ressed": 4758,
      "'": 4759,
      "▁owned": 4760,
      "##l": 4761,
      "▁collap": 4762,
      "##onom": 4763,
      "▁identifies": 4764,
      "▁buil": 4765,
      "▁level": 4766,
      "▁cros": 4767,
      "▁visiting": 4768,
      "##ida": 4769,
      "▁sword": 4770,
      "▁in": 4771,
      "▁household": 4772,
      "##ators": 4773,
      "##pond": 4774,
      "▁shake": 4775,
      "▁receives": 4776,
      "▁tampa": 4777,
      "##cri": 4778,
      "##ors": 4779,
      "##ounts": 4780,
      "▁fant": 4781,
      "▁fash": 4782,
      "▁captain": 4783,
      "##osed": 4784,
      "▁quote": 4785,
      "▁before": 4786,
      "▁pipe": 4787,
      "▁november": 4788,
      "▁mop": 4789,
      "▁occup": 4790,
      "▁developing": 4791,
      "##ra": 4792,
      "▁drop": 4793,
      "##ʒ": 4794,
      "▁expected": 4795,
      "##idden": 4796,
      "##ank": 4797,
      "▁tu": 4798,
      "▁drive": 4799,
      "▁em": 4800,
      "▁vint": 4801,
      "▁meas": 4802,
      "▁unc": 4803,
      "▁sha": 4804,
      "##acting": 4805,
      "▁frequ": 4806,
      "▁rush": 4807,
      "▁mid-": 4808,
      "##erences": 4809,
      "▁trad": 4810,
      "##inc": 4811,
      "▁arts": 4812,
      "▁paperwork": 4813,
      "▁likes": 4814,
      "##alist": 4815,
      "▁grav": 4816,
      "▁height": 4817,
      "▁grill": 4818,
      "##owers": 4819,
      "##inds": 4820,
      "▁india": 4821,
      "▁liber": 4822,
      "▁jihad": 4823,
      "▁financial": 4824,
      "##ession": 4825,
      "▁boxes": 4826,
      "▁waiting": 4827,
      "▁daily": 4828,
      "##ates": 4829,
      "##oned": 4830,
      "##hold": 4831,
      "▁incident": 4832,
      "▁statement": 4833,
      "▁destroyed": 4834,
      "▁storage": 4835,
      "▁refer": 4836,
      "##cent": 4837,
      "##iding": 4838,
      "9": 4839,
      "▁particles": 4840,
      "▁depar": 4841,
      "▁pricing": 4842,
      "▁health": 4843,
      "▁based": 4844,
      "##ama": 4845,
      "▁archit": 4846,
      "▁copyright": 4847,
      "▁median": 4848,
      "▁growth": 4849,
      "▁agreement": 4850,
      "▁dressed": 4851,
      "▁rif": 4852,
      "▁contro": 4853,
      "▁pur": 4854,
      "▁impacts": 4855,
      "▁shadows": 4856,
      "▁sugar": 4857,
      "##ury": 4858,
      "▁ones": 4859,
      "▁values": 4860,
      "▁compete": 4861,
      "▁spea": 4862,
      "▁tray": 4863,
      "##rating": 4864,
      "▁societies": 4865,
      "▁intervention": 4866,
      "▁this": 4867,
      "▁execution": 4868,
      "▁discovery": 4869,
      "▁examined": 4870,
      "##pa": 4871,
      "▁christ": 4872,
      "▁commitments": 4873,
      "▁trave": 4874,
      "▁red": 4875,
      "▁whose": 4876,
      "##war": 4877,
      "▁tummy": 4878,
      "▁scar": 4879,
      "▁bound": 4880,
      "▁arrival": 4881,
      "##alog": 4882,
      "##na": 4883,
      "▁addition": 4884,
      "##oms": 4885,
      "##b": 4886,
      "▁powder": 4887,
      "▁any": 4888,
      "▁choo": 4889,
      "▁december": 4890,
      "▁quinoa": 4891,
      "▁petroleum": 4892,
      "##path": 4893,
      "▁opposite": 4894,
      "▁images": 4895,
      "▁up": 4896,
      "##********": 4897,
      "▁quinn": 4898,
      "▁temperature": 4899,
      "▁fort": 4900,
      "▁dying": 4901,
      "▁earth": 4902,
      "▁monday": 4903,
      "▁remarks": 4904,
      "▁bread": 4905,
      "##isters": 4906,
      "▁atmos": 4907,
      "▁practices": 4908,
      "▁cried": 4909,
      "▁us": 4910,
      "▁mess": 4911,
      "▁thing": 4912,
      "▁wo": 4913,
      "##ai": 4914,
      "▁key": 4915,
      "##ulated": 4916,
      "▁materials": 4917,
      "▁bears": 4918,
      "▁theme": 4919,
      "▁promotion": 4920,
      "▁given": 4921,
      "▁band": 4922,
      "▁licens": 4923,
      "▁every": 4924,
      "##et": 4925,
      "▁stairs": 4926,
      "▁declared": 4927,
      "▁conduc": 4928,
      "▁china": 4929,
      "▁drama": 4930,
      "▁entering": 4931,
      "▁penalty": 4932,
      "##igg": 4933,
      "▁large": 4934,
      "▁owners": 4935,
      "▁momm": 4936,
      "##uum": 4937,
      "▁remind": 4938,
      "##ved": 4939,
      "▁which": 4940,
      "##waukee": 4941,
      "▁restaurant": 4942,
      "##uro": 4943,
      "▁sem": 4944,
      "▁perform": 4945,
      "##ia": 4946,
      "▁>>": 4947,
      "▁attacks": 4948,
      "##ws": 4949,
      "##etter": 4950,
      "##ground": 4951,
      "▁suicide": 4952,
      "▁ways": 4953,
      "##rance": 4954,
      "▁relationship": 4955,
      "▁expanding": 4956,
      "##alsa": 4957,
      "##own": 4958,
      "##atch": 4959,
      "▁particularly": 4960,
      "▁debated": 4961,
      "[MASK]": 4962,
      "##ax": 4963,
      "▁created": 4964,
      "▁shoulder": 4965,
      "▁together": 4966,
      "▁surf": 4967,
      "▁daughter": 4968,
      "▁points": 4969,
      "▁poem": 4970,
      "▁lil": 4971,
      "▁better": 4972,
      "▁recip": 4973,
      "##tually": 4974,
      "▁sleeve": 4975,
      "##ums": 4976,
      "##ocked": 4977,
      "▁apples": 4978,
      "▁fits": 4979,
      "▁distur": 4980,
      "▁priorities": 4981,
      "▁staying": 4982,
      "ʒ": 4983,
      "##bly": 4984,
      "▁motion": 4985,
      "▁hous": 4986,
      "▁presence": 4987,
      "##q": 4988,
      "▁es": 4989,
      "▁heat": 4990,
      "##atic": 4991,
      "▁failure": 4992,
      "##ested": 4993,
      "##rael": 4994,
      "▁skills": 4995,
      "▁hoc": 4996,
      "▁specify": 4997,
      "▁dinner": 4998,
      "▁offering": 4999,
      "▁lean": 5000,
      "▁message": 5001,
      "▁apprec": 5002,
      "##cery": 5003,
      "▁also": 5004,
      "▁collected": 5005,
      "▁evolved": 5006,
      "##iration": 5007,
      "▁produces": 5008,
      "▁package": 5009,
      "▁harm": 5010,
      "▁fought": 5011,
      "▁knowledge": 5012,
      "▁bir": 5013,
      "▁tomatoes": 5014,
      "▁cards": 5015,
      "##fri": 5016,
      "▁artists": 5017,
      "▁style": 5018,
      "▁survived": 5019,
      "▁button": 5020,
      "▁wig": 5021,
      "▁recognition": 5022,
      "v": 5023,
      "▁hearts": 5024,
      "##ito": 5025,
      "▁reviewed": 5026,
      "▁balances": 5027,
      "\"": 5028,
      "▁constitu": 5029,
      "▁vide": 5030,
      "▁boo": 5031,
      "##olution": 5032,
      "▁morning": 5033,
      "##ike": 5034,
      "▁stone": 5035,
      "▁bacon": 5036,
      "##fications": 5037,
      "▁determine": 5038,
      "##.com/": 5039,
      "▁each": 5040,
      "▁inclu": 5041,
      "##arian": 5042,
      "▁cycl": 5043,
      "▁proced": 5044,
      "▁contest": 5045,
      "▁recogn": 5046,
      "▁mul": 5047,
      "▁space": 5048,
      "##pol": 5049,
      "œ": 5050,
      "▁spoken": 5051,
      "▁circ": 5052,
      "▁min": 5053,
      "▁e": 5054,
      "▁t": 5055,
      "▁los": 5056,
      "▁attitudes": 5057,
      "▁arrangement": 5058,
      "▁rabbit": 5059,
      "▁reasons": 5060,
      "▁throwing": 5061,
      "▁secret": 5062,
      "▁break": 5063,
      "▁legs": 5064,
      "##plan": 5065,
      "##bb": 5066,
      "##ional": 5067,
      "▁gets": 5068,
      "▁journal": 5069,
      "▁sav": 5070,
      "##iously": 5071,
      "▁rule": 5072,
      "▁coff": 5073,
      "▁chemicals": 5074,
      "▁socks": 5075,
      "▁those": 5076,
      "▁frid": 5077,
      "##wood": 5078,
      "▁implications": 5079,
      "▁road": 5080,
      "▁smiling": 5081,
      "▁lack": 5082,
      "##thin": 5083,
      "▁seam": 5084,
      "##erve": 5085,
      "▁measured": 5086,
      "##ical": 5087,
      "▁written": 5088,
      "▁elephant": 5089,
      "▁deficiency": 5090,
      "▁neuro": 5091,
      "▁yester": 5092,
      "##tles": 5093,
      "▁develop": 5094,
      "▁cake": 5095,
      "▁hun": 5096,
      "##enth": 5097,
      "##ight": 5098,
      "▁r": 5099,
      "▁environ": 5100,
      "▁inform": 5101,
      "▁certain": 5102,
      "▁conv": 5103,
      "▁grant": 5104,
      "▁pref": 5105,
      "##chang": 5106,
      "##ore": 5107,
      "▁coffee": 5108,
      "##o": 5109,
      "▁listened": 5110,
      "▁prev": 5111,
      "▁america": 5112,
      "%": 5113,
      "##ourn": 5114,
      "▁headed": 5115,
      "##re": 5116,
      "▁clean": 5117,
      "▁upside": 5118,
      "##formed": 5119,
      "▁far": 5120,
      "▁advis": 5121,
      "▁sti": 5122,
      "##tling": 5123,
      "##ument": 5124,
      "##zac": 5125,
      "##ials": 5126,
      "▁stepping": 5127,
      "▁jungle": 5128,
      "▁sign": 5129,
      "▁climate": 5130,
      "▁recipe": 5131,
      "▁km": 5132,
      "▁purchased": 5133,
      "##esthe": 5134,
      "▁permission": 5135,
      "▁suspected": 5136,
      "##oked": 5137,
      "##usted": 5138,
      "##7": 5139,
      "##!": 5140,
      "▁desk": 5141,
      "▁effort": 5142,
      "▁messages": 5143,
      "▁beings": 5144,
      "▁arg": 5145,
      "▁increases": 5146,
      "▁lo": 5147,
      "▁accepted": 5148,
      "▁sonnets": 5149,
      "▁'ve": 5150,
      "▁beans": 5151,
      "##arch": 5152,
      "##co": 5153,
      "##cean": 5154,
      "##appy": 5155,
      "##ices": 5156,
      "▁ach": 5157,
      "##ancy": 5158,
      "##ə": 5159,
      "▁manuscri": 5160,
      "##bs": 5161,
      "▁opin": 5162,
      "##icked": 5163,
      "▁plans": 5164,
      "▁loves": 5165,
      "▁becoming": 5166,
      "▁agric": 5167,
      ")": 5168,
      "▁pyram": 5169,
      "▁individ": 5170,
      "▁minds": 5171,
      "##hip": 5172,
      "▁park": 5173,
      "##der": 5174,
      "▁execute": 5175,
      "▁lines": 5176,
      "##fin": 5177,
      "##back": 5178,
      "▁recog": 5179,
      "▁holidays": 5180,
      "▁preserved": 5181,
      "▁jan": 5182,
      "##tor": 5183,
      "▁deliver": 5184,
      "▁priority": 5185,
      "▁ret": 5186,
      "▁towed": 5187,
      "▁addressing": 5188,
      "▁tape": 5189,
      "##olve": 5190,
      "▁spec": 5191,
      "▁slept": 5192,
      "▁rose": 5193,
      "##enance": 5194,
      "▁starts": 5195,
      "▁via": 5196,
      "▁killed": 5197,
      "▁!!!!!!!!!!!!!!!!!!!": 5198,
      "▁exc": 5199,
      "“": 5200,
      "▁reduces": 5201,
      "▁statis": 5202,
      "▁stretched": 5203,
      "▁square": 5204,
      "##70s": 5205,
      "▁appropri": 5206,
      "▁aven": 5207,
      "▁estimated": 5208,
      "▁denied": 5209,
      "▁describ": 5210,
      "▁addressed": 5211,
      "▁belong": 5212,
      "▁references": 5213,
      "##ils": 5214,
      "▁opinions": 5215,
      "▁impro": 5216,
      "▁heav": 5217,
      "▁etc": 5218,
      "▁ho": 5219,
      "▁cooperation": 5220,
      "▁pulling": 5221,
      "##duction": 5222,
      "▁era": 5223,
      "▁coordin": 5224,
      "▁terrorism": 5225,
      "▁gain": 5226,
      "▁adopt": 5227,
      "▁vegetables": 5228,
      "##ces": 5229,
      "▁swallow": 5230,
      "▁cafe": 5231,
      "▁doubt": 5232,
      "##ied": 5233,
      "##house": 5234,
      "▁thy": 5235,
      "▁>": 5236,
      "▁increasing": 5237,
      "▁jumped": 5238,
      "▁made": 5239,
      "▁contrast": 5240,
      "▁said": 5241,
      "▁functions": 5242,
      "##aling": 5243,
      "▁crimes": 5244,
      "##ov": 5245,
      "▁approved": 5246,
      "▁skin": 5247,
      "▁assets": 5248,
      "▁august": 5249,
      "▁dre": 5250,
      "##leum": 5251,
      "▁pepper": 5252,
      "▁rep": 5253,
      "▁rememb": 5254,
      "▁......": 5255,
      "▁especially": 5256,
      "##ably": 5257,
      "▁sail": 5258,
      "▁making": 5259,
      "▁extre": 5260,
      "▁recognized": 5261,
      "▁charlotte": 5262,
      "##----": 5263,
      "ø": 5264,
      "▁siz": 5265,
      "▁besides": 5266,
      "▁off": 5267,
      "##ern": 5268,
      "##alls": 5269,
      "▁expectations": 5270,
      "▁corner": 5271,
      "▁markets": 5272,
      "▁piano": 5273,
      "▁breaking": 5274,
      "▁bom": 5275,
      "▁shuttle": 5276,
      "##93": 5277,
      "▁laws": 5278,
      "c": 5279,
      "##w": 5280,
      "##ment": 5281,
      "##leg": 5282,
      "##---": 5283,
      "▁medicine": 5284,
      "▁pra": 5285,
      "▁frame": 5286,
      "▁uses": 5287,
      "▁stretch": 5288,
      "▁balzac": 5289,
      "▁imagined": 5290,
      "##ired": 5291,
      "▁quick": 5292,
      "##ys": 5293,
      "▁scenar": 5294,
      "▁waters": 5295,
      "##eel": 5296,
      "▁robo": 5297,
      "▁imagine": 5298,
      "##ne": 5299,
      "##illas": 5300,
      "##eignty": 5301,
      "▁vit": 5302,
      "▁caps": 5303,
      "▁certificate": 5304,
      "##eng": 5305,
      "##uzz": 5306,
      "▁painting": 5307,
      "▁cooking": 5308,
      "▁diaper": 5309,
      "▁lawyers": 5310,
      "▁none": 5311,
      "▁enter": 5312,
      "▁fam": 5313,
      "##fic": 5314,
      "▁bub": 5315,
      "▁wat": 5316,
      "▁divers": 5317,
      "##ke": 5318,
      "▁fair": 5319,
      "▁destroy": 5320,
      "▁earli": 5321,
      "▁inside": 5322,
      "▁studying": 5323,
      "▁p.m.": 5324,
      "▁realism": 5325,
      "▁phenomen": 5326,
      "▁acquired": 5327,
      "▁sky": 5328,
      "▁expressed": 5329,
      "▁streng": 5330,
      "▁tonight": 5331,
      "▁goals": 5332,
      "▁signing": 5333,
      "▁challen": 5334,
      "▁privacy": 5335,
      "▁engage": 5336,
      "▁code": 5337,
      "▁phase": 5338,
      "▁questions": 5339,
      "▁kn": 5340,
      "▁versions": 5341,
      "▁hope": 5342,
      "▁whil": 5343,
      "▁method": 5344,
      "▁dr": 5345,
      "##æ": 5346,
      "##ists": 5347,
      "▁areas": 5348,
      "##ilos": 5349,
      "▁foods": 5350,
      "▁led": 5351,
      "▁cred": 5352,
      "▁iv": 5353,
      "##cake": 5354,
      "▁collapsed": 5355,
      "▁salad": 5356,
      "▁gal": 5357,
      "##nce": 5358,
      "##ris": 5359,
      "▁pour": 5360,
      "▁couple": 5361,
      "▁shop": 5362,
      "##either": 5363,
      "##ustration": 5364,
      "▁af": 5365,
      "▁officer": 5366,
      "▁fees": 5367,
      "▁kill": 5368,
      "##ove": 5369,
      "▁—": 5370,
      "##ining": 5371,
      "▁shr": 5372,
      "##ulture": 5373,
      "▁datash": 5374,
      "▁aff": 5375,
      "▁meetings": 5376,
      "##earch": 5377,
      "▁pocketbook": 5378,
      "##tice": 5379,
      "▁passed": 5380,
      "▁marked": 5381,
      "▁mo": 5382,
      "▁responsibilities": 5383,
      "▁ensure": 5384,
      "##portun": 5385,
      "▁tickets": 5386,
      "▁donations": 5387,
      "▁camp": 5388,
      "##-b": 5389,
      "▁friendly": 5390,
      "▁complaint": 5391,
      "▁banks": 5392,
      "##ev": 5393,
      "▁demanding": 5394,
      "▁mov": 5395,
      "##itate": 5396,
      "▁somebody": 5397,
      "▁experience": 5398,
      "▁hist": 5399,
      "##isf": 5400,
      "▁cruise": 5401,
      "▁carbon": 5402,
      "##our": 5403,
      "▁u.": 5404,
      "##irc": 5405,
      "▁minutes": 5406,
      "▁snow": 5407,
      "▁addiction": 5408,
      "▁pilot": 5409,
      "▁population": 5410,
      "▁valu": 5411,
      "##ened": 5412,
      "▁lar": 5413,
      "▁browser": 5414,
      "▁continued": 5415,
      "▁myce": 5416,
      "▁bad": 5417,
      "▁definition": 5418,
      "▁ou": 5419,
      "▁declare": 5420,
      "▁univers": 5421,
      "▁angeles": 5422,
      "▁roman": 5423,
      "▁says": 5424,
      "##ife": 5425,
      "##ff": 5426,
      "▁assumed": 5427,
      "▁buy": 5428,
      "▁leash": 5429,
      "▁lights": 5430,
      "▁resear": 5431,
      "▁initiatives": 5432,
      "##ement": 5433,
      "▁organized": 5434,
      "▁tomorrow": 5435,
      "▁confid": 5436,
      "▁blood": 5437,
      "##mentation": 5438,
      "##esaw": 5439,
      "▁pray": 5440,
      "##????": 5441,
      "▁intel": 5442,
      "##pt": 5443,
      "▁intern": 5444,
      "▁files": 5445,
      "▁screen": 5446,
      "▁element": 5447,
      "▁mach": 5448,
      "▁princip": 5449,
      "▁often": 5450,
      "▁def": 5451,
      "▁easy": 5452,
      "##ver": 5453,
      "▁rock": 5454,
      "▁pee": 5455,
      "▁playwright": 5456,
      "##acles": 5457,
      "▁gro": 5458,
      "▁methods": 5459,
      "▁damage": 5460,
      "▁transaction": 5461,
      "▁backs": 5462,
      "▁convinced": 5463,
      "▁portr": 5464,
      "▁veter": 5465,
      "##irl": 5466,
      "▁machines": 5467,
      "▁shadow": 5468,
      "▁query": 5469,
      "▁dig": 5470,
      "▁beds": 5471,
      "▁incitement": 5472,
      "▁welc": 5473,
      "▁reason": 5474,
      "▁confusion": 5475,
      "▁vodka": 5476,
      "▁brother": 5477,
      "##ik": 5478,
      "▁bl": 5479,
      "▁represented": 5480,
      "##ats": 5481,
      "▁garage": 5482,
      "▁trips": 5483,
      "▁bal": 5484,
      "▁life": 5485,
      "▁track": 5486,
      "##ures": 5487,
      "▁stage": 5488,
      "▁stamp": 5489,
      "▁flu": 5490,
      "##oles": 5491,
      "▁mirror": 5492,
      "##lief": 5493,
      "##oodle": 5494,
      "▁statute": 5495,
      "▁dividends": 5496,
      "▁**": 5497,
      "##ab": 5498,
      "##isl": 5499,
      "▁micro": 5500,
      "▁division": 5501,
      "##vation": 5502,
      "##]": 5503,
      "##ness": 5504,
      "##op": 5505,
      "##acter": 5506,
      "▁destiny": 5507,
      "##aft": 5508,
      "▁mu": 5509,
      "##areness": 5510,
      "▁tric": 5511,
      "▁filled": 5512,
      "♥": 5513,
      "▁sym": 5514,
      "▁named": 5515,
      "▁pair": 5516,
      "▁therap": 5517,
      "▁attr": 5518,
      "▁of": 5519,
      "##alized": 5520,
      "##gation": 5521,
      "##ately": 5522,
      "▁wrap": 5523,
      "##cience": 5524,
      "##oph": 5525,
      "▁defeated": 5526,
      "▁ans": 5527,
      "##apes": 5528,
      "##raw": 5529,
      "##ric": 5530,
      "▁dose": 5531,
      "##ite": 5532,
      "▁shared": 5533,
      "##zations": 5534,
      "▁note": 5535,
      "▁thought": 5536,
      "▁everything": 5537,
      "▁amongst": 5538,
      "##:": 5539,
      "³": 5540,
      "▁concrete": 5541,
      "##enda": 5542,
      "▁lying": 5543,
      "##st": 5544,
      "##iting": 5545,
      "▁send": 5546,
      "##yp": 5547,
      "▁generated": 5548,
      "▁mycelium": 5549,
      "##ceed": 5550,
      "▁crimin": 5551,
      "▁crew": 5552,
      "▁headquarters": 5553,
      "▁phrase": 5554,
      "▁nail": 5555,
      "##ics": 5556,
      "▁garb": 5557,
      "▁operating": 5558,
      "##ideration": 5559,
      "▁built": 5560,
      "▁teasp": 5561,
      "▁mem": 5562,
      "##½": 5563,
      "▁remembered": 5564,
      "##ast": 5565,
      "▁opening": 5566,
      "▁modified": 5567,
      "▁cous": 5568,
      "▁walk": 5569,
      "##$": 5570,
      "##aves": 5571,
      "▁motorcycle": 5572,
      "##aws": 5573,
      "▁wiggle": 5574,
      "##ird": 5575,
      "▁carriage": 5576,
      "##lor": 5577,
      "▁surr": 5578,
      "▁exposed": 5579,
      "##emic": 5580,
      "▁feels": 5581,
      "▁lawyer": 5582,
      "##ʊ": 5583,
      "▁entertain": 5584,
      "▁proposal": 5585,
      "▁res": 5586,
      "▁child": 5587,
      "▁rh": 5588,
      "##ar": 5589,
      "▁football": 5590,
      "▁learned": 5591,
      "▁furniture": 5592,
      "▁consu": 5593,
      "##mo": 5594,
      "▁cradle": 5595,
      "▁dad": 5596,
      "▁tre": 5597,
      "▁appreciation": 5598,
      "##gs": 5599,
      "▁wil": 5600,
      "##cles": 5601,
      "d": 5602,
      "▁decisions": 5603,
      "▁talks": 5604,
      "##iveness": 5605,
      "▁http://": 5606,
      "▁vi": 5607,
      "▁manuf": 5608,
      "##ssible": 5609,
      "##ologists": 5610,
      "▁paintings": 5611,
      "▁costs": 5612,
      "##tly": 5613,
      "▁somewhere": 5614,
      "▁pushed": 5615,
      "▁betw": 5616,
      "▁serves": 5617,
      "▁sac": 5618,
      "##ondon": 5619,
      "▁wear": 5620,
      "▁dump": 5621,
      "##ft": 5622,
      "▁helic": 5623,
      "▁affects": 5624,
      "##used": 5625,
      "▁++++": 5626,
      "▁smelled": 5627,
      "▁offici": 5628,
      "▁moun": 5629,
      "▁lead": 5630,
      "▁uv": 5631,
      "▁groups": 5632,
      "##hibited": 5633,
      "##uits": 5634,
      "##option": 5635,
      "##ʁ": 5636,
      "▁dust": 5637,
      "##age": 5638,
      "▁+": 5639,
      "##aking": 5640,
      "##tis": 5641,
      "##fts": 5642,
      "▁married": 5643,
      "##round": 5644,
      "##ifying": 5645,
      "▁newspapers": 5646,
      "▁dim": 5647,
      "##nic": 5648,
      "▁aug": 5649,
      "▁friday": 5650,
      "##po": 5651,
      "##riend": 5652,
      "▁anthrax": 5653,
      "##ality": 5654,
      "▁2": 5655,
      "▁contacted": 5656,
      "##sually": 5657,
      "▁extent": 5658,
      "▁--": 5659,
      "▁creation": 5660,
      "▁agree": 5661,
      "▁scribb": 5662,
      "▁generators": 5663,
      "▁pr": 5664,
      "▁experien": 5665,
      "▁ticket": 5666,
      "▁once": 5667,
      "▁quarter": 5668,
      "##wor": 5669,
      "##nect": 5670,
      "▁suggests": 5671,
      "▁sell": 5672,
      "##aper": 5673,
      "▁trains": 5674,
      "▁drink": 5675,
      "▁subst": 5676,
      "▁sequ": 5677,
      "##ars": 5678,
      "▁ques": 5679,
      "##ards": 5680,
      "▁undertake": 5681,
      "▁trust": 5682,
      "▁boil": 5683,
      "##ether": 5684,
      "##mission": 5685,
      "▁ba": 5686,
      "▁rang": 5687,
      "▁mouth": 5688,
      "##mal": 5689,
      "▁driver": 5690,
      "##om": 5691,
      "▁..........": 5692,
      "▁part": 5693,
      "▁changes": 5694,
      "▁cla": 5695,
      "▁started": 5696,
      "▁achieving": 5697,
      "▁sites": 5698,
      "##aced": 5699,
      "▁shad": 5700,
      "▁literature": 5701,
      "▁contin": 5702,
      "##stop": 5703,
      "▁refused": 5704,
      "▁mis": 5705,
      "▁performing": 5706,
      "▁absence": 5707,
      "##lim": 5708,
      "▁poop": 5709,
      "▁order": 5710,
      "▁president": 5711,
      "▁toll": 5712,
      "▁alternative": 5713,
      "▁language": 5714,
      "▁initial": 5715,
      "▁denver": 5716,
      "▁bother": 5717,
      "▁portion": 5718,
      "▁landing": 5719,
      "▁god": 5720,
      "▁trying": 5721,
      "▁m": 5722,
      "##ousness": 5723,
      "##ows": 5724,
      "▁dish": 5725,
      "▁focus": 5726,
      "▁ozone": 5727,
      "##º": 5728,
      "▁wonder": 5729,
      "▁blue": 5730,
      "▁basketball": 5731,
      "▁legislature": 5732,
      "##uation": 5733,
      "▁traveled": 5734,
      "##anding": 5735,
      "▁link": 5736,
      "▁moisture": 5737,
      "##til": 5738,
      "▁buying": 5739,
      "▁clown": 5740,
      "/": 5741,
      "▁signature": 5742,
      "▁muscles": 5743,
      "##istan": 5744,
      "▁driving": 5745,
      "▁attorn": 5746,
      "▁philosoph": 5747,
      "▁stopped": 5748,
      "}": 5749,
      "▁doughnut": 5750,
      "▁quoted": 5751,
      "▁verif": 5752,
      "▁believe": 5753,
      "▁sting": 5754,
      "##educ": 5755,
      "▁por": 5756,
      "▁black": 5757,
      "▁serve": 5758,
      "▁bank": 5759,
      "▁employment": 5760,
      "▁petersburg": 5761,
      "▁chew": 5762,
      "▁tap": 5763,
      "▁test": 5764,
      "▁baking": 5765,
      "▁scenes": 5766,
      "▁occasion": 5767,
      "▁cont": 5768,
      "▁blan": 5769,
      "▁popcorn": 5770,
      "▁chose": 5771,
      "##aughters": 5772,
      "▁carrot": 5773,
      "##aged": 5774,
      "▁drugs": 5775,
      "##hered": 5776,
      "▁fly": 5777,
      "▁difference": 5778,
      "▁passage": 5779,
      "▁breathe": 5780,
      "##lion": 5781,
      "▁pill": 5782,
      "▁database": 5783,
      "▁turb": 5784,
      "▁managed": 5785,
      "▁contributed": 5786,
      "ρ": 5787,
      "▁cler": 5788,
      "▁ants": 5789,
      "▁afternoon": 5790,
      "##aur": 5791,
      "▁sex": 5792,
      "▁same": 5793,
      "▁mail": 5794,
      "##3": 5795,
      "▁choices": 5796,
      "▁cohes": 5797,
      "▁ladder": 5798,
      "▁welcome": 5799,
      "##selves": 5800,
      "▁cheap": 5801,
      "▁question": 5802,
      "▁.": 5803,
      "▁selling": 5804,
      "▁manager": 5805,
      "▁cages": 5806,
      "▁what": 5807,
      "▁fu": 5808,
      "##ults": 5809,
      "▁cups": 5810,
      "▁mer": 5811,
      "▁capac": 5812,
      "▁enjo": 5813,
      "▁bas": 5814,
      "▁cris": 5815,
      "▁crisis": 5816,
      "▁roads": 5817,
      "##ry": 5818,
      "▁interpre": 5819,
      "▁aut": 5820,
      "##over": 5821,
      "▁museum": 5822,
      "##apse": 5823,
      "&": 5824,
      "▁goat": 5825,
      "▁gener": 5826,
      "##ted": 5827,
      "##ph": 5828,
      "▁alleged": 5829,
      "▁pounds": 5830,
      "▁maintained": 5831,
      "##face": 5832,
      "▁bird": 5833,
      "▁allowed": 5834,
      "##cently": 5835,
      "0": 5836,
      "##ams": 5837,
      "▁elected": 5838,
      "▁balt": 5839,
      "▁neighb": 5840,
      "▁wondered": 5841,
      "▁development": 5842,
      "▁limousine": 5843,
      "▁neg": 5844,
      "▁boots": 5845,
      "▁horror": 5846,
      "▁profession": 5847,
      "##σ": 5848,
      "▁excel": 5849,
      "##pd": 5850,
      "▁collection": 5851,
      "▁play+": 5852,
      "##huh": 5853,
      "##inder": 5854,
      "▁contains": 5855,
      "▁waste": 5856,
      "▁dey": 5857,
      "##igned": 5858,
      "▁agreements": 5859,
      "##gry": 5860,
      "▁watched": 5861,
      "##omed": 5862,
      "##ier": 5863,
      "▁brush": 5864,
      "▁carrying": 5865,
      "##ut": 5866,
      "##ms": 5867,
      "▁potential": 5868,
      "##ean": 5869,
      "##gets": 5870,
      "▁crayon": 5871,
      "▁pm": 5872,
      "▁veg": 5873,
      "▁customs": 5874,
      "▁factors": 5875,
      "▁d'": 5876,
      "##gh": 5877,
      "##lic": 5878,
      "▁encour": 5879,
      "##zation": 5880,
      "▁finish": 5881,
      "▁pull": 5882,
      "▁**********": 5883,
      "##ring": 5884,
      "##ilize": 5885,
      "▁statistics": 5886,
      "##ele": 5887,
      "##igning": 5888,
      "##lus": 5889,
      "▁errors": 5890,
      "##eness": 5891,
      "▁bought": 5892,
      "##uffs": 5893,
      "▁grand": 5894,
      "▁sight": 5895,
      "▁convention": 5896,
      "▁shock": 5897,
      "##aches": 5898,
      "##augh": 5899,
      "▁cop": 5900,
      "▁phr": 5901,
      "▁populations": 5902,
      "▁hand": 5903,
      "▁divisions": 5904,
      "##iff": 5905,
      "##eth": 5906,
      "▁stops": 5907,
      "##ctions": 5908,
      "▁bec": 5909,
      "▁desert": 5910,
      "▁representation": 5911,
      "##ies": 5912,
      "▁allow": 5913,
      "##work": 5914,
      "▁handled": 5915,
      "##isions": 5916,
      "▁declar": 5917,
      "▁putting": 5918,
      "##self": 5919,
      "▁twist": 5920,
      "▁mist": 5921,
      "▁society": 5922,
      "▁ended": 5923,
      "▁venture": 5924,
      "▁put": 5925,
      "▁investigation": 5926,
      "▁rubber": 5927,
      "▁tied": 5928,
      "▁realised": 5929,
      "▁flash": 5930,
      "▁weapon": 5931,
      "▁insurance": 5932,
      "##load": 5933,
      "▁gard": 5934,
      "▁samples": 5935,
      "##ɔ": 5936,
      "▁200": 5937,
      "##eys": 5938,
      "h": 5939,
      "##bing": 5940,
      "▁lobby": 5941,
      "▁facul": 5942,
      "▁secretary": 5943,
      "##ansion": 5944,
      "▁lifesty": 5945,
      "▁fan": 5946,
      "▁rece": 5947,
      "▁qa": 5948,
      "▁hyp": 5949,
      "▁leader": 5950,
      "▁arr": 5951,
      "▁cher": 5952,
      "▁vanilla": 5953,
      "▁whe": 5954,
      "▁army": 5955,
      "▁indicates": 5956,
      "▁near": 5957,
      "▁certa": 5958,
      "▁chec": 5959,
      "##ands": 5960,
      "▁arriving": 5961,
      "▁laughing": 5962,
      "3": 5963,
      "▁fav": 5964,
      "▁summ": 5965,
      "▁long": 5966,
      "▁expos": 5967,
      "▁poc": 5968,
      "▁laying": 5969,
      "▁amid": 5970,
      "▁hanging": 5971,
      "▁limit": 5972,
      "▁prop": 5973,
      "##ium": 5974,
      "▁gathered": 5975,
      "▁rising": 5976,
      "▁mystery": 5977,
      "▁own": 5978,
      "▁sea": 5979,
      "▁prem": 5980,
      "##derstanding": 5981,
      "##ue": 5982,
      "▁tooth": 5983,
      "▁congress": 5984,
      "▁terms": 5985,
      "##lications": 5986,
      "▁hamster": 5987,
      "##uggle": 5988,
      "▁cited": 5989,
      "▁getting": 5990,
      "▁att": 5991,
      "▁suit": 5992,
      "▁architecture": 5993,
      "▁requests": 5994,
      "▁maj": 5995,
      "▁thanks": 5996,
      "▁themes": 5997,
      "▁avocado": 5998,
      "▁declaration": 5999,
      "▁cuck": 6000,
      "##ential": 6001,
      "▁locom": 6002,
      "▁j": 6003,
      "▁fame": 6004,
      "▁wrong": 6005,
      "##ien": 6006,
      "▁policies": 6007,
      "▁super": 6008,
      "▁extr": 6009,
      "▁caused": 6010,
      "▁phoenix": 6011,
      "▁ch": 6012,
      "▁user": 6013,
      "##ʻ": 6014,
      "▁fields": 6015,
      "▁action": 6016,
      "▁employees": 6017,
      "▁landed": 6018,
      "▁*****": 6019,
      "##ear": 6020,
      "▁wished": 6021,
      "▁tam": 6022,
      "##ange": 6023,
      "▁---------------------------------------------------------------------------": 6024,
      "▁forgot": 6025,
      "##fish": 6026,
      "▁day": 6027,
      "##amp": 6028,
      "▁back": 6029,
      "▁live": 6030,
      "▁struck": 6031,
      "##min": 6032,
      "▁protection": 6033,
      "##a": 6034,
      "▁@": 6035,
      "##eric": 6036,
      "▁anal": 6037,
      "▁decide": 6038,
      "##ie": 6039,
      "▁pup": 6040,
      "##ields": 6041,
      "▁runs": 6042,
      "▁speci": 6043,
      "▁subscri": 6044,
      "▁demonstrate": 6045,
      "▁francisco": 6046,
      "▁heard": 6047,
      "▁notic": 6048,
      "▁spirit": 6049,
      "▁discus": 6050,
      "▁feeling": 6051,
      "▁constitution": 6052,
      "▁lun": 6053,
      "##atched": 6054,
      "▁keys": 6055,
      "▁friendship": 6056,
      "##omic": 6057,
      "▁-----": 6058,
      "▁as400": 6059,
      "▁susp": 6060,
      "##ep": 6061,
      "##anda": 6062,
      "▁assoc": 6063,
      "▁bunny": 6064,
      "##nel": 6065,
      "▁cut": 6066,
      "▁perspective": 6067,
      "▁enti": 6068,
      "##±": 6069,
      "▁wars": 6070,
      "▁checking": 6071,
      "▁whatever": 6072,
      "▁majority": 6073,
      "▁chairs": 6074,
      "▁remember": 6075,
      "▁airlines": 6076,
      "▁victory": 6077,
      "▁elections": 6078,
      "##tick": 6079,
      "▁influence": 6080,
      "##unction": 6081,
      "▁right": 6082,
      "▁fl": 6083,
      "▁monaster": 6084,
      "▁sept": 6085,
      "##@": 6086,
      "▁miami": 6087,
      "▁placed": 6088,
      "▁guide": 6089,
      "▁knoc": 6090,
      "▁males": 6091,
      "##ht": 6092,
      "▁rent": 6093,
      "▁secon": 6094,
      "##ven": 6095,
      "##icated": 6096,
      "▁possibility": 6097,
      "##tivity": 6098,
      "▁lunch": 6099,
      "▁explan": 6100,
      "▁argu": 6101,
      "▁flowers": 6102,
      "▁victims": 6103,
      "▁autumn": 6104,
      "▁egg": 6105,
      "▁winds": 6106,
      "▁networks": 6107,
      "##ine": 6108,
      "▁might": 6109,
      "▁established": 6110,
      "▁wash": 6111,
      "▁talent": 6112,
      "▁tools": 6113,
      "▁ok": 6114,
      "▁sle": 6115,
      "##onds": 6116,
      "▁ideas": 6117,
      "▁involving": 6118,
      "▁prepar": 6119,
      "▁supp": 6120,
      "##s.": 6121,
      "▁produce": 6122,
      "▁stro": 6123,
      "▁sa": 6124,
      "##ocent": 6125,
      "##utation": 6126,
      "▁concerning": 6127,
      "##uck": 6128,
      "##igrants": 6129,
      "▁fung": 6130,
      "▁incre": 6131,
      "##orated": 6132,
      "▁investi": 6133,
      "▁until": 6134,
      "▁attract": 6135,
      "▁vacation": 6136,
      "▁generate": 6137,
      "▁languages": 6138,
      "##ering": 6139,
      "–": 6140,
      "##ction": 6141,
      "▁foli": 6142,
      "▁tas": 6143,
      "##su": 6144,
      "▁diseas": 6145,
      "▁’ll": 6146,
      "##ables": 6147,
      "##ution": 6148,
      "▁conclude": 6149,
      "##..": 6150,
      "##rol": 6151,
      "▁companies": 6152,
      "▁rights": 6153,
      "##ship": 6154,
      "▁neighbor": 6155,
      "▁miles": 6156,
      "##iciency": 6157,
      "▁interaction": 6158,
      "##ld": 6159,
      "##bal": 6160,
      "▁legacy": 6161,
      "##ych": 6162,
      "▁arrest": 6163,
      "##rax": 6164,
      "▁issues": 6165,
      "##band": 6166,
      "▁conclusions": 6167,
      "##inist": 6168,
      "##au": 6169,
      "##lent": 6170,
      "▁research": 6171,
      "##xt": 6172,
      "##vailable": 6173,
      "▁time": 6174,
      "▁searching": 6175,
      "▁viol": 6176,
      "▁estimate": 6177,
      "##ts": 6178,
      "▁week": 6179,
      "▁nature": 6180,
      "▁mosque": 6181,
      "▁local": 6182,
      "▁worship": 6183,
      "▁corn": 6184,
      "▁rice": 6185,
      "▁master": 6186,
      "▁jud": 6187,
      "▁witn": 6188,
      "##tch": 6189,
      "▁summer": 6190,
      "##ory": 6191,
      "▁appe": 6192,
      "▁suggesting": 6193,
      "▁manage": 6194,
      "▁artist": 6195,
      "▁bed": 6196,
      "▁consequ": 6197,
      "##neath": 6198,
      "##cend": 6199,
      "▁reb": 6200,
      "▁tun": 6201,
      "▁'re": 6202,
      "▁bite": 6203,
      "##ener": 6204,
      "##be": 6205,
      "▁fence": 6206,
      "▁camel": 6207,
      "▁from": 6208,
      "##ids": 6209,
      "##isd": 6210,
      "▁edit": 6211,
      "##eor": 6212,
      "▁tennis": 6213,
      "▁tire": 6214,
      "▁evening": 6215,
      "▁.?": 6216,
      "▁interconnect": 6217,
      "▁flag": 6218,
      "▁litt": 6219,
      "▁col": 6220,
      "▁swww": 6221,
      "▁jury": 6222,
      "▁open": 6223,
      "▁leaf": 6224,
      "▁devoted": 6225,
      "▁sock": 6226,
      "▁plaintiff": 6227,
      "▁p": 6228,
      "▁difficulty": 6229,
      "▁sake": 6230,
      "##aze": 6231,
      "▁opposition": 6232,
      "▁clou": 6233,
      "##++": 6234,
      "##rying": 6235,
      "▁whis": 6236,
      "▁q1": 6237,
      "▁trends": 6238,
      "▁inflation": 6239,
      "▁pled": 6240,
      "##all": 6241,
      "▁resul": 6242,
      "▁satellite": 6243,
      "▁confirm": 6244,
      "▁paris": 6245,
      "▁cage": 6246,
      "▁stepped": 6247,
      "##p;": 6248,
      "##rec": 6249,
      "▁paused": 6250,
      "▁sometime": 6251,
      "▁either": 6252,
      "▁h": 6253,
      "▁sy": 6254,
      "▁content": 6255,
      "▁property": 6256,
      "▁intervening": 6257,
      "##j": 6258,
      "##anted": 6259,
      "##right": 6260,
      "##.d": 6261,
      "▁bus": 6262,
      "▁abbre": 6263,
      "▁?!": 6264,
      "##otch": 6265,
      "##like": 6266,
      "▁morn": 6267,
      "▁collecting": 6268,
      "▁provision": 6269,
      "▁transfer": 6270,
      "##roph": 6271,
      "▁good": 6272,
      "##rates": 6273,
      "##ared": 6274,
      "▁dance": 6275,
      "▁cond": 6276,
      "##nets": 6277,
      "##----------------": 6278,
      "▁scen": 6279,
      "##urt": 6280,
      "▁tent": 6281,
      "▁structures": 6282,
      "##amb": 6283,
      "▁feat": 6284,
      "##ware": 6285,
      "▁1": 6286,
      "▁offices": 6287,
      "##com": 6288,
      "▁significance": 6289,
      "▁grumb": 6290,
      "##ake": 6291,
      "##ample": 6292,
      "##ozer": 6293,
      "##ison": 6294,
      "▁memory": 6295,
      "▁evac": 6296,
      "▁sales": 6297,
      "##ablish": 6298,
      "▁cl": 6299,
      "▁reference": 6300,
      "##d": 6301,
      "▁criteria": 6302,
      "##other": 6303,
      "▁nursies": 6304,
      "▁inf": 6305,
      "##eers": 6306,
      "▁dna": 6307,
      "▁opposed": 6308,
      "##--------+----------------": 6309,
      "▁responsibility": 6310,
      "▁rainbow": 6311,
      "▁anoder": 6312,
      "##bit": 6313,
      "▁festiv": 6314,
      "▁pitch": 6315,
      "▁tw": 6316,
      "▁provides": 6317,
      "▁inh": 6318,
      "▁lemon": 6319,
      "▁teams": 6320,
      "▁menu": 6321,
      "##oods": 6322,
      "▁core": 6323,
      "▁!!!?": 6324,
      "▁spre": 6325,
      "##!!!!!!!!": 6326,
      "##ri": 6327,
      "▁read": 6328,
      "▁print": 6329,
      "▁period": 6330,
      "##nam": 6331,
      "▁shar": 6332,
      "▁accept": 6333,
      "▁celeb": 6334,
      "##ais": 6335,
      "▁begin": 6336,
      "▁fax": 6337,
      "▁pip": 6338,
      "▁yourself": 6339,
      "▁perf": 6340,
      "##ount": 6341,
      "##out": 6342,
      "▁funds": 6343,
      "▁interested": 6344,
      "▁objec": 6345,
      "▁swing": 6346,
      "##ackers": 6347,
      "▁could": 6348,
      "▁http://www.": 6349,
      "▁ble": 6350,
      "▁california": 6351,
      "##lect": 6352,
      "▁narr": 6353,
      "##2": 6354,
      "##ally": 6355,
      "▁lots": 6356,
      "▁except": 6357,
      "▁sep": 6358,
      "▁cost": 6359,
      "▁factory": 6360,
      "▁gr": 6361,
      "##auc": 6362,
      "▁power": 6363,
      "▁white": 6364,
      "▁meals": 6365,
      "▁continue": 6366,
      "▁nap": 6367,
      "▁sol": 6368,
      "▁tested": 6369,
      "##ul": 6370,
      "▁ground": 6371,
      "##ism": 6372,
      "▁mot": 6373,
      "▁distingu": 6374,
      "▁virus": 6375,
      "▁knight": 6376,
      "▁conclu": 6377,
      "##'clock": 6378,
      "▁thousands": 6379,
      "##af": 6380,
      "▁jun": 6381,
      "▁payments": 6382,
      "▁objectives": 6383,
      "▁invitation": 6384,
      "▁slice": 6385,
      "▁epis": 6386,
      "▁char": 6387,
      "▁fle": 6388,
      "##knowled": 6389,
      "▁schol": 6390,
      "▁ob": 6391,
      "##omet": 6392,
      "▁paying": 6393,
      "##....": 6394,
      "▁duty": 6395,
      "▁accident": 6396,
      "▁sons": 6397,
      "##esday": 6398,
      "▁agents": 6399,
      "##lines": 6400,
      "##room": 6401,
      "▁ord": 6402,
      "▁bot": 6403,
      "▁poster": 6404,
      "▁isda": 6405,
      "▁cincinn": 6406,
      "##------------": 6407,
      "▁starting": 6408,
      "▁go": 6409,
      "▁crit": 6410,
      "]": 6411,
      "##pped": 6412,
      "▁not": 6413,
      "##rog": 6414,
      "▁occ": 6415,
      "▁derived": 6416,
      "##oil": 6417,
      "▁pres": 6418,
      "▁==----": 6419,
      "▁exists": 6420,
      "▁municip": 6421,
      "▁door": 6422,
      "▁ac": 6423,
      "##mented": 6424,
      "▁never": 6425,
      "▁volunte": 6426,
      "▁toy": 6427,
      "##amole": 6428,
      "##tures": 6429,
      "▁weather": 6430,
      "▁moved": 6431,
      "▁living": 6432,
      "▁rate": 6433,
      "▁mixed": 6434,
      "▁orig": 6435,
      "##elt": 6436,
      "▁pleasure": 6437,
      "▁helped": 6438,
      "▁bike": 6439,
      "▁century": 6440,
      "##centi": 6441,
      "##ce": 6442,
      "▁inequ": 6443,
      "##aging": 6444,
      "▁shape": 6445,
      "▁tunnel": 6446,
      "▁soon": 6447,
      "▁diapers": 6448,
      "▁trag": 6449,
      "##iousness": 6450,
      "▁notes": 6451,
      "▁basil": 6452,
      "▁called": 6453,
      "▁ir": 6454,
      "▁isd": 6455,
      "##alization": 6456,
      "▁jail": 6457,
      "▁service": 6458,
      "##adel": 6459,
      "▁capital": 6460,
      "▁behaviors": 6461,
      "▁election": 6462,
      "▁crow": 6463,
      "▁worm": 6464,
      "##oved": 6465,
      "▁seesaw": 6466,
      "##uals": 6467,
      "##ency": 6468,
      "▁scientist": 6469,
      "▁harry": 6470,
      "▁knees": 6471,
      "##ots": 6472,
      "▁independ": 6473,
      "▁speaking": 6474,
      "▁introduction": 6475,
      "▁avail": 6476,
      "▁conflict": 6477,
      "▁reduction": 6478,
      "▁sod": 6479,
      "▁debate": 6480,
      "##ribute": 6481,
      "▁coup": 6482,
      "##iture": 6483,
      "▁invol": 6484,
      "▁wolves": 6485,
      "▁tractor": 6486,
      "▁cfl": 6487,
      "▁pub": 6488,
      "##atisfaction": 6489,
      "##acted": 6490,
      "▁repeat": 6491,
      "▁prod": 6492,
      "▁admitted": 6493,
      "▁see": 6494,
      "##iled": 6495,
      "▁treatment": 6496,
      "##ise": 6497,
      "▁adjust": 6498,
      "##onto": 6499,
      "##ocated": 6500,
      "▁gradu": 6501,
      "##ood": 6502,
      "±": 6503,
      "▁gh": 6504,
      "##itated": 6505,
      "▁attachment": 6506,
      "▁anyone": 6507,
      "▁programme": 6508,
      "▁manufacturers": 6509,
      "##asm": 6510,
      "▁...": 6511,
      "▁f": 6512,
      "▁testing": 6513,
      "##ully": 6514,
      "▁days": 6515,
      "##isco": 6516,
      "##ka": 6517,
      "▁loans": 6518,
      "▁architect": 6519,
      "▁london": 6520,
      "▁nash": 6521,
      "##gage": 6522,
      "▁..": 6523,
      "▁target": 6524,
      "##ell": 6525,
      "▁withdraw": 6526,
      "▁straps": 6527,
      "▁seized": 6528,
      "▁allows": 6529,
      "▁bron": 6530,
      "##clock": 6531,
      "▁tourists": 6532,
      "▁feet": 6533,
      "##ield": 6534,
      "▁ignored": 6535,
      "▁map": 6536,
      "▁‘": 6537,
      "▁belon": 6538,
      "##or": 6539,
      "▁minus": 6540,
      "##\"": 6541,
      "▁ham": 6542,
      "##jection": 6543,
      "▁dal": 6544,
      "▁added": 6545,
      "▁chain": 6546,
      "##hib": 6547,
      "▁audi": 6548,
      "▁bang": 6549,
      "##ological": 6550,
      "##alize": 6551,
      "##lity": 6552,
      "##la": 6553,
      "▁initiative": 6554,
      "##makers": 6555,
      "▁estim": 6556,
      "▁criticism": 6557,
      "▁amount": 6558,
      "▁matter": 6559,
      "▁anybody": 6560,
      "##urop": 6561,
      "▁they": 6562,
      "▁schema": 6563,
      "▁microscope": 6564,
      "▁congrat": 6565,
      "▁term": 6566,
      "▁media": 6567,
      "▁expert": 6568,
      "▁layout": 6569,
      "8": 6570,
      "▁behalf": 6571,
      "▁version": 6572,
      "##ognition": 6573,
      "▁care": 6574,
      "▁mines": 6575,
      "▁improvement": 6576,
      "▁permitted": 6577,
      "▁providing": 6578,
      "▁served": 6579,
      "▁requi": 6580,
      "▁head": 6581,
      "▁shell": 6582,
      "▁repe": 6583,
      "▁months": 6584,
      "##ea": 6585,
      "[PAD]": 6586,
      "▁use": 6587,
      "▁observation": 6588,
      "▁operators": 6589,
      "▁dioxide": 6590,
      "##iry": 6591,
      "▁attorney": 6592,
      "▁bit": 6593,
      "▁filtering": 6594,
      "▁side": 6595,
      "▁threw": 6596,
      "▁supplies": 6597,
      "▁install": 6598,
      "▁cheek": 6599,
      "##tile": 6600,
      "▁ke": 6601,
      "▁interpret": 6602,
      "▁nest": 6603,
      "▁policeman": 6604,
      "▁certainly": 6605,
      "##ific": 6606,
      "##eros": 6607,
      "▁hill": 6608,
      "##jamas": 6609,
      "▁air": 6610,
      "▁pace": 6611,
      "▁cons": 6612,
      "▁shade": 6613,
      "▁claimed": 6614,
      "▁supermar": 6615,
      "##craft": 6616,
      "▁hav": 6617,
      "##oon": 6618,
      "▁holding": 6619,
      "▁relax": 6620,
      "▁exchang": 6621,
      "▁versus": 6622,
      "▁pal": 6623,
      "##orting": 6624,
      "##uce": 6625,
      "▁ga": 6626,
      "▁repl": 6627,
      "▁opportunities": 6628,
      "▁nephew": 6629,
      "##oot": 6630,
      "▁batteries": 6631,
      "▁...................": 6632,
      "▁maint": 6633,
      "▁response": 6634,
      "##cre": 6635,
      "▁borders": 6636,
      "▁vers": 6637,
      "▁gu": 6638,
      "##ρ": 6639,
      "▁ourselves": 6640,
      "##ecess": 6641,
      "▁mys": 6642,
      ">": 6643,
      "▁thir": 6644,
      "▁rules": 6645,
      "▁goods": 6646,
      "▁towel": 6647,
      "▁surge": 6648,
      "##tive": 6649,
      "▁wheat": 6650,
      "▁strive": 6651,
      "▁straw": 6652,
      "▁cart": 6653,
      "▁cigarette": 6654,
      "▁drawer": 6655,
      "▁participation": 6656,
      "▁review": 6657,
      "##rons": 6658,
      "▁future": 6659,
      "##alities": 6660,
      "▁displ": 6661,
      "▁attacked": 6662,
      "▁edge": 6663,
      "▁wedding": 6664,
      "▁neph": 6665,
      "▁status": 6666,
      "##oices": 6667,
      "▁accounts": 6668,
      "##qu": 6669,
      "▁journals": 6670,
      "▁gi": 6671,
      "▁winning": 6672,
      "▁prote": 6673,
      "▁digging": 6674,
      "##lig": 6675,
      "▁restri": 6676,
      "▁dollar": 6677,
      "##ch": 6678,
      "▁techniques": 6679,
      "▁village": 6680,
      "▁advice": 6681,
      "▁shipped": 6682,
      "▁reserve": 6683,
      "##uit": 6684,
      "▁dies": 6685,
      "▁teen": 6686,
      "▁lat": 6687,
      "▁customer": 6688,
      "▁oblig": 6689,
      "▁z": 6690,
      "▁failed": 6691,
      "##ything": 6692,
      "▁shoulders": 6693,
      "▁junk": 6694,
      "##ortion": 6695,
      "▁govern": 6696,
      "▁housing": 6697,
      "▁structure": 6698,
      "▁administrator": 6699,
      "[CLS]": 6700,
      "▁plat": 6701,
      "▁lord": 6702,
      "▁definitely": 6703,
      "▁poli": 6704,
      "▁gath": 6705,
      "##quarters": 6706,
      "▁saturday": 6707,
      "▁8": 6708,
      "▁trash": 6709,
      "▁strateg": 6710,
      "▁leading": 6711,
      "▁suite": 6712,
      "▁hasid": 6713,
      "▁songs": 6714,
      "▁tour": 6715,
      "▁responded": 6716,
      "##on": 6717,
      "##ach": 6718,
      "▁beliefs": 6719,
      "▁beat": 6720,
      "▁pri": 6721,
      "▁shown": 6722,
      "▁prom": 6723,
      "▁generation": 6724,
      "▁to": 6725,
      "▁included": 6726,
      "▁traditions": 6727,
      "▁how": 6728,
      "▁hund": 6729,
      "▁chapter": 6730,
      "##selve": 6731,
      "▁wipe": 6732,
      "▁behavi": 6733,
      "▁fles": 6734,
      "▁cloth": 6735,
      "▁cream": 6736,
      "▁lip": 6737,
      "##mate": 6738,
      "▁magic": 6739,
      "▁forwarded": 6740,
      "▁manip": 6741,
      "##and": 6742,
      "▁value": 6743,
      "▁pillow": 6744,
      "▁mama": 6745,
      "▁faculty": 6746,
      "▁discussing": 6747,
      "##atives": 6748,
      "▁rais": 6749,
      "▁anyth": 6750,
      "▁mount": 6751,
      "▁performance": 6752,
      "▁situation": 6753,
      "##ced": 6754,
      "▁su": 6755,
      "▁owe": 6756,
      "▁resulted": 6757,
      "▁independence": 6758,
      "##rem": 6759,
      "▁tea": 6760,
      "##icted": 6761,
      "▁explanations": 6762,
      "▁wel": 6763,
      "▁broke": 6764,
      "▁programs": 6765,
      "▁guy": 6766,
      "▁doing": 6767,
      "▁journey": 6768,
      "##dle": 6769,
      "▁sought": 6770,
      "▁locked": 6771,
      "▁morality": 6772,
      "▁sandwich": 6773,
      "##og": 6774,
      "▁sauce": 6775,
      "▁bac": 6776,
      "▁lined": 6777,
      "▁lives": 6778,
      "▁je": 6779,
      "▁ru": 6780,
      "▁across": 6781,
      "##gl": 6782,
      "▁enjoy": 6783,
      "▁contact": 6784,
      "##ers": 6785,
      "▁missile": 6786,
      "▁church": 6787,
      "##oe": 6788,
      "▁posed": 6789,
      "▁english": 6790,
      "▁naima": 6791,
      "▁beet": 6792,
      "▁one": 6793,
      "▁field": 6794,
      "##ipped": 6795,
      "▁graduate": 6796,
      "▁actors": 6797,
      "##ghts": 6798,
      "##alism": 6799,
      "▁epm": 6800,
      "▁lif": 6801,
      "▁helicopters": 6802,
      "##oses": 6803,
      "▁cord": 6804,
      "▁uk": 6805,
      "▁photograph": 6806,
      "▁allowing": 6807,
      "▁vision": 6808,
      "▁arrang": 6809,
      "▁alt.": 6810,
      "▁it": 6811,
      "##any": 6812,
      "▁exploration": 6813,
      "##ago": 6814,
      "▁size": 6815,
      "▁mix": 6816,
      "##ain": 6817,
      "▁our": 6818,
      "▁surve": 6819,
      "▁result": 6820,
      "##enders": 6821,
      "▁are": 6822,
      "▁sir": 6823,
      "▁duckie": 6824,
      "▁arm": 6825,
      "▁occasions": 6826,
      "▁goal": 6827,
      "##ana": 6828,
      "▁chick": 6829,
      "▁encourage": 6830,
      "▁credit": 6831,
      "▁domain": 6832,
      "▁ste": 6833,
      "▁montreal": 6834,
      "##fted": 6835,
      "▁shoes": 6836,
      "▁alter": 6837,
      "##anger": 6838,
      "▁resist": 6839,
      "##tainly": 6840,
      "(": 6841,
      "▁entitled": 6842,
      "##enced": 6843,
      "##ches": 6844,
      "▁passing": 6845,
      "l": 6846,
      "##<": 6847,
      "##acy": 6848,
      "▁flow": 6849,
      "##eal": 6850,
      "▁parks": 6851,
      "▁express": 6852,
      "▁bottles": 6853,
      "▁adults": 6854,
      "▁inviting": 6855,
      "##ents": 6856,
      "▁depart": 6857,
      "b": 6858,
      "▁maintenance": 6859,
      "▁forced": 6860,
      "▁vice": 6861,
      "##uis": 6862,
      "▁distinction": 6863,
      "##ments": 6864,
      "##orum": 6865,
      "▁re-": 6866,
      "▁clos": 6867,
      "▁drag": 6868,
      "▁observ": 6869,
      "▁.......": 6870,
      "▁imm": 6871,
      "▁....": 6872,
      "▁using": 6873,
      "▁missiles": 6874,
      "##ma": 6875,
      "##gg": 6876,
      "▁fem": 6877,
      "▁mir": 6878,
      "▁universities": 6879,
      "▁mosques": 6880,
      "▁fing": 6881,
      "##phone": 6882,
      "▁arrived": 6883,
      "▁experiment": 6884,
      "▁improved": 6885,
      "▁retail": 6886,
      "▁hum": 6887,
      "▁filter": 6888,
      "▁hobby": 6889,
      "▁fate": 6890,
      "▁declined": 6891,
      "##elly": 6892,
      "▁gave": 6893,
      "##mm": 6894,
      "##olog": 6895,
      "▁stones": 6896,
      "▁floor": 6897,
      "▁funded": 6898,
      "▁held": 6899,
      "##unct": 6900,
      "▁tube": 6901,
      "▁means": 6902,
      "▁seemed": 6903,
      "▁answ": 6904,
      "▁ren": 6905,
      "▁bumble": 6906,
      "▁zone": 6907,
      "▁facts": 6908,
      "▁tension": 6909,
      "##ured": 6910,
      "▁face": 6911,
      "##fore": 6912,
      "▁transportation": 6913,
      "##ild": 6914,
      "▁pointed": 6915,
      "▁connec": 6916,
      "▁operate": 6917,
      "▁library": 6918,
      "▁fi": 6919,
      "▁distinguish": 6920,
      "##town": 6921,
      "▁assess": 6922,
      "▁council": 6923,
      "##bow": 6924,
      "▁grape": 6925,
      "▁separ": 6926,
      "▁ten": 6927,
      "▁beh": 6928,
      "##ses": 6929,
      "##♥": 6930,
      "##osen": 6931,
      "▁alone": 6932,
      "▁papers": 6933,
      "▁pocket": 6934,
      "##iders": 6935,
      "##tled": 6936,
      "▁til": 6937,
      "▁unlike": 6938,
      "▁?": 6939,
      "▁close": 6940,
      "▁cohesion": 6941,
      "##lers": 6942,
      "##inating": 6943,
      "##lium": 6944,
      "##tiv": 6945,
      "▁pursue": 6946,
      "##irus": 6947,
      "▁context": 6948,
      "##ic": 6949,
      "##yond": 6950,
      "▁challenges": 6951,
      "▁repair": 6952,
      "▁bills": 6953,
      "▁thinks": 6954,
      "▁front": 6955,
      "▁som": 6956,
      "▁balls": 6957,
      "▁coord": 6958,
      "▁skip": 6959,
      "##wear": 6960,
      "##urday": 6961,
      "##iece": 6962,
      "▁opens": 6963,
      "▁me": 6964,
      "##owl": 6965,
      "▁swa": 6966,
      "##owled": 6967,
      "▁pie": 6968,
      "▁common": 6969,
      "▁tick": 6970,
      "▁visit": 6971,
      "▁bric": 6972,
      "##.s": 6973,
      "##im": 6974,
      "▁answer": 6975,
      "##inated": 6976,
      "▁social": 6977,
      "##astic": 6978,
      "▁estab": 6979,
      "▁harmon": 6980,
      "▁sush": 6981,
      "▁whic": 6982,
      "▁understand": 6983,
      "▁rail": 6984,
      "▁lake": 6985,
      "▁val": 6986,
      "▁laun": 6987,
      "▁june": 6988,
      "##oice": 6989,
      "▁hoo": 6990,
      "##gle": 6991,
      "▁unem": 6992,
      "##omination": 6993,
      "▁economy": 6994,
      "▁international": 6995,
      "▁few": 6996,
      "▁butter": 6997,
      "▁assistant": 6998,
      "▁com": 6999,
      "▁plane": 7000,
      "##kets": 7001,
      "▁cheese": 7002,
      "▁potty": 7003,
      "▁ever": 7004,
      "▁other": 7005,
      "▁take": 7006,
      "▁nt": 7007,
      "▁fore": 7008,
      "##phia": 7009,
      "▁motor": 7010,
      "##erest": 7011,
      "▁touch": 7012,
      "##**": 7013,
      "▁guest": 7014,
      "▁pig": 7015,
      "▁chee": 7016,
      "▁danger": 7017,
      "▁workers": 7018,
      "▁human": 7019,
      "##orn": 7020,
      "▁seat": 7021,
      "▁port": 7022,
      "##~": 7023,
      "##iation": 7024,
      "▁disapp": 7025,
      "▁spiders": 7026,
      "##inus": 7027,
      "▁houses": 7028,
      "##ero": 7029,
      "##lan": 7030,
      "##ulating": 7031,
      "##ond": 7032,
      "▁dating": 7033,
      "▁alt.animals": 7034,
      "▁.........": 7035,
      "##arks": 7036,
      "▁picking": 7037,
      "▁gather": 7038,
      "▁eaten": 7039,
      "▁topics": 7040,
      "6": 7041,
      "##ow": 7042,
      "▁missing": 7043,
      "▁winter": 7044,
      "▁licensed": 7045,
      "##ti": 7046,
      "▁gifts": 7047,
      "▁certi": 7048,
      "▁balance": 7049,
      "##ano": 7050,
      "▁turn": 7051,
      "▁compens": 7052,
      "w": 7053,
      "▁youn": 7054,
      "▁scul": 7055,
      "##nis": 7056,
      "##afts": 7057,
      "##ered": 7058,
      "##lities": 7059,
      "▁nurs": 7060,
      "##ember": 7061,
      "▁denti": 7062,
      "▁voted": 7063,
      "▁********************************": 7064,
      "▁inn": 7065,
      "▁alco": 7066,
      "##azed": 7067,
      "▁visitors": 7068,
      "▁rays": 7069,
      "##iate": 7070,
      "##ones": 7071,
      "▁recommended": 7072,
      "▁pilg": 7073,
      "▁efforts": 7074,
      "▁launch": 7075,
      "▁hedge": 7076,
      "##yr": 7077,
      "▁spider": 7078,
      "▁supporters": 7079,
      "▁buc": 7080,
      "##ert": 7081,
      "▁fiel": 7082,
      "##ingly": 7083,
      "▁imag": 7084,
      "##tims": 7085,
      "▁switch": 7086,
      "##ned": 7087,
      "▁ol": 7088,
      "▁fli": 7089,
      "##erv": 7090,
      "▁numbers": 7091,
      "▁airfare": 7092,
      "##avor": 7093,
      "##vision": 7094,
      "▁rolling": 7095,
      "▁tutor": 7096,
      "▁discover": 7097,
      "▁vill": 7098,
      "▁sin": 7099,
      "##ping": 7100,
      "▁rebuild": 7101,
      "##animals": 7102,
      "▁muscle": 7103,
      "##_": 7104,
      "▁squirrel": 7105,
      "▁house": 7106,
      "▁non-": 7107,
      "##vest": 7108,
      "##le": 7109,
      "▁mag": 7110,
      "▁banan": 7111,
      "##hes": 7112,
      "##est": 7113,
      "▁tax": 7114,
      "▁exhib": 7115,
      "▁obst": 7116,
      "##agraph": 7117,
      "##ral": 7118,
      "▁sim": 7119,
      "▁desp": 7120,
      "##++++": 7121,
      "▁commission": 7122,
      "▁beer": 7123,
      "▁fears": 7124,
      "###": 7125,
      "##aces": 7126,
      "▁finding": 7127,
      "▁info": 7128,
      "▁within": 7129,
      "▁legend": 7130,
      "▁writer": 7131,
      "▁global": 7132,
      "▁correspond": 7133,
      "▁elephants": 7134,
      "▁seen": 7135,
      "▁university": 7136,
      "▁suggestions": 7137,
      "##loy": 7138,
      "▁comed": 7139,
      "▁prices": 7140,
      "▁reduce": 7141,
      "##sm": 7142,
      "▁per": 7143,
      "▁universe": 7144,
      "▁reduced": 7145,
      "▁ducks": 7146,
      "▁describing": 7147,
      "##oor": 7148,
      "##aped": 7149,
      "##erated": 7150,
      "▁sun": 7151,
      "▁reef": 7152,
      "##rif": 7153,
      "▁movies": 7154,
      "▁dou": 7155,
      "▁mic": 7156,
      "##iced": 7157,
      "▁lamp": 7158,
      "▁determ": 7159,
      "▁calend": 7160,
      "##itations": 7161,
      "▁interp": 7162,
      "~": 7163,
      "▁plays": 7164,
      "##nuts": 7165,
      "·": 7166,
      "▁pride": 7167,
      "▁sides": 7168,
      "▁’ve": 7169,
      "##ald": 7170,
      "##thy": 7171,
      "▁mur": 7172,
      "▁emerging": 7173,
      "▁toward": 7174,
      "▁onto": 7175,
      "##.pdf": 7176,
      "##ign": 7177,
      "▁rather": 7178,
      "▁copy": 7179,
      "▁achievements": 7180,
      "▁bits": 7181,
      "▁south": 7182,
      "▁corpor": 7183,
      "##enti": 7184,
      "▁pud": 7185,
      "▁stop": 7186,
      "▁citizens": 7187,
      "##ø": 7188,
      "##esh": 7189,
      "##roduction": 7190,
      "##v": 7191,
      "##ointed": 7192,
      "▁items": 7193,
      "▁file": 7194,
      "##ift": 7195,
      "##ester": 7196,
      "##und": 7197,
      "##gin": 7198,
      "##nd": 7199,
      "▁bubble": 7200,
      "##jec": 7201,
      "▁wednesdays": 7202,
      "▁appl": 7203,
      "▁processes": 7204,
      "##epend": 7205,
      "▁silence": 7206,
      "▁adult": 7207,
      "q": 7208,
      "▁building": 7209,
      "▁class": 7210,
      "▁covered": 7211,
      "##ter": 7212,
      "##ose": 7213,
      "▁uhhuh": 7214,
      "▁acknowledge": 7215,
      "▁energy": 7216,
      "▁opp": 7217,
      "▁slee": 7218,
      "▁early": 7219,
      "##rated": 7220,
      "▁there": 7221,
      "▁lived": 7222,
      "▁popularity": 7223,
      "▁security": 7224,
      "▁squi": 7225,
      "▁respond": 7226,
      "▁keeping": 7227,
      "▁puts": 7228,
      "▁project": 7229,
      "▁spill": 7230,
      "##ashing": 7231,
      "##φ": 7232,
      "▁internet": 7233,
      "##-1": 7234,
      "##aos": 7235,
      "▁letting": 7236,
      "▁resc": 7237,
      "##erved": 7238,
      "▁words": 7239,
      "▁return": 7240,
      "▁cele": 7241,
      "##gement": 7242,
      "▁ther": 7243,
      "▁bags": 7244,
      "▁affair": 7245,
      "▁summary": 7246,
      "▁existence": 7247,
      "▁market": 7248,
      "▁choose": 7249,
      "##ience": 7250,
      "▁campaign": 7251,
      "▁hippop": 7252,
      "▁claiming": 7253,
      "##ous": 7254,
      "##ected": 7255,
      "▁ingredients": 7256,
      "##ender": 7257,
      "▁closed": 7258,
      "▁iran": 7259,
      "▁assemb": 7260,
      "▁know": 7261,
      "▁_____": 7262,
      "▁carries": 7263,
      "▁gent": 7264,
      "▁battery": 7265,
      "▁rad": 7266,
      "▁if": 7267,
      "▁major": 7268,
      "▁substances": 7269,
      "##yth": 7270,
      "▁http": 7271,
      "▁song": 7272,
      "##ure": 7273,
      "▁roof": 7274,
      "”": 7275,
      "##pl": 7276,
      "##wa": 7277,
      "▁waves": 7278,
      "▁apol": 7279,
      "▁galleries": 7280,
      "▁installed": 7281,
      "▁area": 7282,
      "▁answered": 7283,
      "▁hea": 7284,
      "▁stated": 7285,
      "▁fur": 7286,
      "▁professor": 7287,
      "▁late": 7288,
      "▁tradition": 7289,
      "##mber": 7290,
      "▁purs": 7291,
      "σ": 7292,
      "▁trader": 7293,
      "▁hair": 7294,
      "▁flood": 7295,
      "##­": 7296,
      "▁lover": 7297,
      "##ified": 7298,
      "▁discuss": 7299,
      "▁laughed": 7300,
      "##isation": 7301,
      "▁years": 7302,
      "▁checks": 7303,
      "▁sounded": 7304,
      "▁settlers": 7305,
      "▁jose": 7306,
      "▁nat": 7307,
      "▁card": 7308,
      "##eign": 7309,
      "##ayed": 7310,
      "▁daddy": 7311,
      "▁membership": 7312,
      "▁happens": 7313,
      "##ker": 7314,
      "▁q": 7315,
      "##issions": 7316,
      "▁happy": 7317,
      "▁conversation": 7318,
      "▁soci": 7319,
      "##raction": 7320,
      "▁targets": 7321,
      "▁multipl": 7322,
      "▁committee": 7323,
      "▁planet": 7324,
      "▁analysis": 7325,
      "▁arrested": 7326,
      "▁impris": 7327,
      "##forming": 7328,
      "▁breakf": 7329,
      "▁recorded": 7330,
      "▁view": 7331,
      "▁roar": 7332,
      "▁instance": 7333,
      "▁save": 7334,
      "▁flavor": 7335,
      "▁chance": 7336,
      "’": 7337,
      "▁diplom": 7338,
      "##eting": 7339,
      "▁very": 7340,
      "▁concerns": 7341,
      "##ving": 7342,
      "##'": 7343,
      "▁initi": 7344,
      "##ased": 7345,
      "▁eth": 7346,
      "##dered": 7347,
      "##ributed": 7348,
      "▁unto": 7349,
      "▁ket": 7350,
      "▁gate": 7351,
      "°": 7352,
      "▁conse": 7353,
      "▁divid": 7354,
      "▁determined": 7355,
      "##ensions": 7356,
      "##od": 7357,
      "▁hop": 7358,
      "▁purposes": 7359,
      "▁would": 7360,
      "▁women": 7361,
      "▁figured": 7362,
      "▁flower": 7363,
      "▁bun": 7364,
      "▁afford": 7365,
      "▁wanted": 7366,
      "##ouse": 7367,
      "▁process": 7368,
      "▁commissioner": 7369,
      "##rely": 7370,
      "▁store": 7371,
      "▁keeps": 7372,
      "▁disc": 7373,
      "▁prove": 7374,
      "▁noted": 7375,
      "▁intend": 7376,
      "##ron": 7377,
      "▁applies": 7378,
      "▁ris": 7379,
      "▁cult": 7380,
      "▁improving": 7381,
      "##gency": 7382,
      "▁home": 7383,
      "▁l": 7384,
      "##ling": 7385,
      "▁*": 7386,
      "▁strip": 7387,
      "▁tourism": 7388,
      "▁blanket": 7389,
      "▁seating": 7390,
      "▁planning": 7391,
      "▁favour": 7392,
      "▁milwaukee": 7393,
      "▁author": 7394,
      "▁racket": 7395,
      "▁actually": 7396,
      "▁percentage": 7397,
      "▁dragged": 7398,
      "##cc": 7399,
      "▁payment": 7400,
      "▁sum": 7401,
      "##0s": 7402,
      "▁exceed": 7403,
      "##400": 7404,
      "▁bulb": 7405,
      "▁united": 7406,
      "##burg": 7407,
      "▁circle": 7408,
      "▁depth": 7409,
      "▁cri": 7410,
      "▁urs": 7411,
      "▁recently": 7412,
      "▁writing": 7413,
      "▁who": 7414,
      "▁numerous": 7415,
      "##ogn": 7416,
      "▁really": 7417,
      "##ton": 7418,
      "##arked": 7419,
      "##aith": 7420,
      "▁study": 7421,
      "▁ml": 7422,
      "▁enjoying": 7423,
      "▁washed": 7424,
      "▁campus": 7425,
      "▁surp": 7426,
      "▁practice": 7427,
      "▁platform": 7428,
      "▁recommendation": 7429,
      "▁rapporte": 7430,
      "▁line": 7431,
      "##ps": 7432,
      "▁members": 7433,
      "▁award": 7434,
      "▁ll": 7435,
      "▁dar": 7436,
      "▁trip": 7437,
      "##.m": 7438,
      "##ran": 7439,
      "▁strawberry": 7440,
      "##alu": 7441,
      "▁focused": 7442,
      "▁number": 7443,
      "▁bow": 7444,
      "▁studied": 7445,
      "▁gum": 7446,
      "##cked": 7447,
      "##'re": 7448,
      "▁travel": 7449,
      "▁lies": 7450,
      "▁pages": 7451,
      "▁journ": 7452,
      "##enture": 7453,
      "▁video": 7454,
      "##’t": 7455,
      "▁destruction": 7456,
      "▁proble": 7457,
      "##itive": 7458,
      "▁fungi": 7459,
      "▁oz": 7460,
      "▁taste": 7461,
      "▁electricity": 7462,
      "▁feelings": 7463,
      "▁consumption": 7464,
      "▁oakland": 7465,
      "▁l2": 7466,
      "▁done": 7467,
      "▁grandm": 7468,
      "▁steam": 7469,
      "##tise": 7470,
      "▁attempt": 7471,
      "▁fellows": 7472,
      "▁evaluation": 7473,
      "▁bi": 7474,
      "##coon": 7475,
      "▁increase": 7476,
      "▁spoon": 7477,
      "▁access": 7478,
      "▁feedback": 7479,
      "▁refuse": 7480,
      "▁referred": 7481,
      "▁tal": 7482,
      "▁sty": 7483,
      "##m": 7484,
      "▁consid": 7485,
      "▁terror": 7486,
      "▁shows": 7487,
      "▁sec": 7488,
      "##sed": 7489,
      "▁requirement": 7490,
      "▁facilities": 7491,
      "##overed": 7492,
      "##ot": 7493,
      "##ima": 7494,
      "▁kick": 7495,
      "▁weapons": 7496,
      "▁pretty": 7497,
      "▁paint": 7498,
      "▁job": 7499,
      "▁surrounded": 7500,
      "▁concentration": 7501,
      "▁sticks": 7502,
      "▁attended": 7503,
      "▁organ": 7504,
      "▁choice": 7505,
      "▁rain": 7506,
      "##lish": 7507,
      "▁festival": 7508,
      "▁reviewing": 7509,
      "##ided": 7510,
      "▁particip": 7511,
      "▁politics": 7512,
      "▁lawy": 7513,
      "▁num": 7514,
      "▁strength": 7515,
      "▁corners": 7516,
      "▁invited": 7517,
      "▁containing": 7518,
      "▁asks": 7519,
      "##ized": 7520,
      "▁enron": 7521,
      "##oni": 7522,
      "▁wait": 7523,
      "▁bombs": 7524,
      "▁stem": 7525,
      "##attle": 7526,
      "▁requiring": 7527,
      "▁small": 7528,
      "▁saving": 7529,
      "▁fruits": 7530,
      "▁outfit": 7531,
      "▁submitted": 7532,
      "▁bur": 7533,
      "##idence": 7534,
      "##:/": 7535,
      "▁rug": 7536,
      "r": 7537,
      "##placement": 7538,
      "▁knock": 7539,
      "▁among": 7540,
      "##ael": 7541,
      "▁short": 7542,
      "▁consul": 7543,
      "▁supper": 7544,
      "##itions": 7545,
      "▁eas": 7546,
      "▁soc": 7547,
      "▁listening": 7548,
      "##riendly": 7549,
      "▁temperatures": 7550,
      "##ɑ": 7551,
      "##agement": 7552,
      "##een": 7553,
      "▁object": 7554,
      "▁objects": 7555,
      "##erating": 7556,
      "##one": 7557,
      "▁while": 7558,
      "▁knife": 7559,
      "▁contribute": 7560,
      "##tail": 7561,
      "▁please": 7562,
      "##ctive": 7563,
      "##vement": 7564,
      "▁debt": 7565,
      "##ation": 7566,
      "▁convers": 7567,
      "▁maintaining": 7568,
      "▁tech": 7569,
      "##ache": 7570,
      "▁tables": 7571,
      "▁faith": 7572,
      "▁rescue": 7573,
      "▁fruit": 7574,
      "▁worth": 7575,
      "▁tasks": 7576,
      "▁teh": 7577,
      "##den": 7578,
      "▁station": 7579,
      "##__": 7580,
      "##olves": 7581,
      "▁wire": 7582,
      "▁food": 7583,
      "##icult": 7584,
      "▁piece": 7585,
      "##pts": 7586,
      "▁marsh": 7587,
      "▁pivottable": 7588,
      "▁properties": 7589,
      "##oder": 7590,
      "t": 7591,
      "▁w/": 7592,
      "▁equals": 7593,
      "▁laugh": 7594,
      "▁films": 7595,
      "##iqu": 7596,
      "▁sort": 7597,
      "▁translated": 7598,
      "▁function": 7599,
      "##idents": 7600,
      "▁amended": 7601,
      "▁anoth": 7602,
      "▁fault": 7603,
      "▁filters": 7604,
      "▁_": 7605,
      "▁kids": 7606,
      "##ybody": 7607,
      "▁ben": 7608,
      "▁star": 7609,
      "▁rout": 7610,
      "##osite": 7611,
      "▁focusing": 7612,
      "▁amb": 7613,
      "▁description": 7614,
      "▁chart": 7615,
      "##icide": 7616,
      "▁convin": 7617,
      "##hus": 7618,
      "▁sen": 7619,
      "##orded": 7620,
      "##aining": 7621,
      "##ap": 7622,
      "▁fight": 7623,
      "##rested": 7624,
      "▁meant": 7625,
      "##my": 7626,
      "▁concept": 7627,
      "▁server": 7628,
      "▁trade": 7629,
      "##play": 7630,
      "▁email": 7631,
      "##book": 7632,
      "▁material": 7633,
      "▁.!": 7634,
      "▁jos": 7635,
      "▁spread": 7636,
      "▁rental": 7637,
      "▁place": 7638,
      "▁resources": 7639,
      "▁giraffe": 7640,
      "▁events": 7641,
      "▁advertising": 7642,
      "▁dom": 7643,
      "▁crackers": 7644,
      "##****************": 7645,
      "##essment": 7646,
      "▁half": 7647,
      "##ial": 7648,
      "▁lessons": 7649,
      "▁interpreted": 7650,
      "▁dignity": 7651,
      "▁standing": 7652,
      "▁science": 7653,
      "▁pover": 7654,
      "▁under": 7655,
      "▁forth": 7656,
      "▁drove": 7657,
      "▁hole": 7658,
      "▁suppose": 7659,
      "▁april": 7660,
      "▁gift": 7661,
      "##at": 7662,
      "##ously": 7663,
      "▁lego": 7664,
      "▁standard": 7665,
      "▁spokes": 7666,
      "▁favorite": 7667,
      "▁leads": 7668,
      "##umb": 7669,
      "▁owner": 7670,
      "▁indust": 7671,
      "▁capacity": 7672,
      "▁referen": 7673,
      "▁reve": 7674,
      "##tuce": 7675,
      "▁tr": 7676,
      "▁regards": 7677,
      "▁stri": 7678,
      "▁ec": 7679,
      "##iring": 7680,
      "▁kidding": 7681,
      "▁reconciliation": 7682,
      "▁specific": 7683,
      "▁argument": 7684,
      "▁poor": 7685,
      "▁alt": 7686,
      "▁educ": 7687,
      "▁factor": 7688,
      "▁facing": 7689,
      "▁mechanism": 7690,
      "▁slip": 7691,
      "▁div": 7692,
      "▁jokes": 7693,
      "▁ge": 7694,
      "##minated": 7695,
      "▁boyfriend": 7696,
      "▁inv": 7697,
      "##bably": 7698,
      "##al": 7699,
      "▁psych": 7700,
      "▁conserv": 7701,
      "##vil": 7702,
      "##ager": 7703,
      "##ian": 7704,
      "##alf": 7705,
      "▁tongue": 7706,
      "▁enthus": 7707,
      "▁important": 7708,
      "▁apr": 7709,
      "▁int": 7710,
      "▁past": 7711,
      "▁kittens": 7712,
      "▁modify": 7713,
      "▁fell": 7714,
      "▁adapt": 7715,
      "▁(": 7716,
      "▁democracy": 7717,
      "##of": 7718,
      "▁command": 7719,
      "▁involve": 7720,
      "▁coincidence": 7721,
      "▁extended": 7722,
      "##acing": 7723,
      "▁la": 7724,
      "##cularly": 7725,
      "▁looking": 7726,
      "##ility": 7727,
      "▁match": 7728,
      "##ort": 7729,
      "▁pol": 7730,
      "▁funnel": 7731,
      "▁address": 7732,
      "▁hurry": 7733,
      "##tiveness": 7734,
      "▁infr": 7735,
      "##ection": 7736,
      "##ised": 7737,
      "▁their": 7738,
      "▁perhaps": 7739,
      "▁neighbour": 7740,
      "▁regre": 7741,
      "▁swit": 7742,
      "▁yet": 7743,
      "▁an": 7744,
      "▁seek": 7745,
      "▁----": 7746,
      "▁swe": 7747,
      "▁sent": 7748,
      "▁productivity": 7749,
      "▁gall": 7750,
      "▁stopover": 7751,
      "ι": 7752,
      "▁cargo": 7753,
      "▁meter": 7754,
      "▁acted": 7755,
      "##vely": 7756,
      "▁cab": 7757,
      "▁caught": 7758,
      "▁remaining": 7759,
      "-": 7760,
      "▁...............": 7761,
      "▁huge": 7762,
      "##ended": 7763,
      "▁indian": 7764,
      "▁framework": 7765,
      "##ome": 7766,
      "##yed": 7767,
      "▁rooms": 7768,
      "▁potatoes": 7769,
      "##heet": 7770,
      "▁vet": 7771,
      "##ission": 7772,
      "##ever": 7773,
      "##ther": 7774,
      "##artment": 7775,
      "▁vessel": 7776,
      "▁problem": 7777,
      "▁pod": 7778,
      "▁mid": 7779,
      "▁dolly": 7780,
      "▁much": 7781,
      "▁mayonna": 7782,
      "##g": 7783,
      "▁becomes": 7784,
      "▁ele": 7785,
      "##ilosoph": 7786,
      "▁bright": 7787,
      "▁aud": 7788,
      "▁grammar": 7789,
      "##eral": 7790,
      "▁relating": 7791,
      "▁marry": 7792,
      "▁beef": 7793,
      "▁mountains": 7794,
      "▁parents": 7795,
      "▁butt": 7796,
      "▁released": 7797,
      "▁audit": 7798,
      "▁bor": 7799,
      "▁sink": 7800,
      "▁crash": 7801,
      "▁merc": 7802,
      "▁dallas": 7803,
      "▁players": 7804,
      "▁e-mail": 7805,
      "##aming": 7806,
      "###693": 7807,
      "▁dess": 7808,
      "##enings": 7809,
      "▁refin": 7810,
      "▁lad": 7811,
      "▁cabin": 7812,
      "▁shares": 7813,
      "▁pittsbur": 7814,
      "▁innovations": 7815,
      "▁surv": 7816,
      "▁mush": 7817,
      "▁blog": 7818,
      "▁powers": 7819,
      "▁underst": 7820,
      "▁rec": 7821,
      "##ithstanding": 7822,
      "▁cand": 7823,
      "▁poems": 7824,
      "▁saw": 7825,
      "▁thre": 7826,
      "φ": 7827,
      "2": 7828,
      "▁pract": 7829,
      "▁resistance": 7830,
      "▁’re": 7831,
      "##.com": 7832,
      "▁insects": 7833,
      "▁loo": 7834,
      "▁progr": 7835,
      "##urch": 7836,
      "▁photo": 7837,
      "▁generations": 7838,
      "▁v": 7839,
      "▁iodised": 7840,
      "##arture": 7841,
      "##ase": 7842,
      "▁reconc": 7843,
      "##ghting": 7844,
      "▁advise": 7845,
      "##ν": 7846,
      "▁forg": 7847,
      "▁dan": 7848,
      "##eck": 7849,
      "▁nation": 7850,
      "##ologies": 7851,
      "##arly": 7852,
      "▁hours": 7853,
      "▁routes": 7854,
      "##the": 7855,
      "▁requirements": 7856,
      "##-m": 7857,
      "##mos": 7858,
      "▁bear": 7859,
      "##ighb": 7860,
      "##str": 7861,
      "##us": 7862,
      "▁mean": 7863,
      "▁laid": 7864,
      "▁support": 7865,
      "▁cave": 7866,
      "▁distance": 7867,
      "▁theatre": 7868,
      "##ush": 7869,
      "▁mine": 7870,
      "##lie": 7871,
      "▁education": 7872,
      "▁innov": 7873,
      "▁concre": 7874,
      "▁poo": 7875,
      "▁conferences": 7876,
      "##icate": 7877,
      "▁else": 7878,
      "▁colors": 7879,
      "▁counter": 7880,
      "▁reven": 7881,
      "▁rolls": 7882,
      "##outs": 7883,
      "▁arms": 7884,
      "##ula": 7885,
      "▁admin": 7886,
      "▁assured": 7887,
      "##equ": 7888,
      "▁monks": 7889,
      "▁bronze": 7890,
      "##mans": 7891,
      "▁metal": 7892,
      "##ler": 7893,
      "▁parts": 7894,
      "▁ketchup": 7895,
      "▁impl": 7896,
      "▁provisions": 7897,
      "##ges": 7898,
      "▁folks": 7899,
      "▁activities": 7900,
      "▁describes": 7901,
      "▁euro": 7902,
      "##imp": 7903,
      "ɔ": 7904,
      "▁partnership": 7905,
      "▁silver": 7906,
      "k": 7907,
      "▁draft": 7908,
      "##lights": 7909,
      "▁equality": 7910,
      "##ticip": 7911,
      "##ither": 7912,
      "▁fig": 7913,
      "▁promoting": 7914,
      "▁readers": 7915,
      "▁conflic": 7916,
      "▁participants": 7917,
      "▁snake": 7918,
      "▁returned": 7919,
      "▁win": 7920,
      "▁wom": 7921,
      "▁tasted": 7922,
      "##esting": 7923,
      "▁orders": 7924,
      "▁gram": 7925,
      "▁guns": 7926,
      "##omach": 7927,
      "▁toile": 7928,
      "▁wid": 7929,
      "▁finger": 7930,
      "▁birth": 7931,
      "▁leaves": 7932,
      "##ounced": 7933,
      "▁economic": 7934,
      "▁wood": 7935,
      "▁’s": 7936,
      "▁mutation": 7937,
      "##no": 7938,
      "##ity": 7939,
      "▁my": 7940,
      "##lication": 7941,
      "▁tear": 7942,
      "▁reached": 7943,
      "▁artic": 7944,
      "##orth": 7945,
      "▁transactions": 7946,
      "##aff": 7947,
      "▁moment": 7948,
      "▁ow": 7949,
      "▁appointment": 7950,
      "##ril": 7951,
      "▁unemployment": 7952,
      "##air": 7953,
      "##fare": 7954,
      "▁subjects": 7955,
      "▁offic": 7956,
      "▁species": 7957,
      "▁prac": 7958,
      "▁produced": 7959,
      "##ularly": 7960,
      "▁pollution": 7961,
      "##ivid": 7962,
      "▁emissions": 7963,
      "▁seats": 7964,
      "▁examples": 7965,
      "▁tha": 7966,
      "▁rob": 7967,
      "##ffic": 7968,
      "▁ya": 7969,
      "##utiful": 7970,
      "▁applications": 7971,
      "##????????????????????????????????": 7972,
      "##eland": 7973,
      "▁lan": 7974,
      "▁agreed": 7975,
      "▁tags": 7976,
      "▁forward": 7977,
      "▁european": 7978,
      "▁officials": 7979,
      "▁hell": 7980,
      "▁change": 7981,
      "▁street": 7982,
      "▁cur": 7983,
      "▁cereal": 7984,
      "▁listed": 7985,
      "▁used": 7986,
      "▁associated": 7987,
      "##ront": 7988,
      "##real": 7989,
      "##ink": 7990,
      "▁\"": 7991,
      "▁'em": 7992,
      "▁bil": 7993,
      "▁inspired": 7994,
      "▁wilt": 7995,
      "▁connected": 7996,
      "▁stress": 7997,
      "▁schedule": 7998,
      "▁state": 7999,
      "▁feel": 8000,
      "▁citiz": 8001,
      "▁rib": 8002,
      "▁now": 8003,
      "▁sur": 8004,
      "##board": 8005,
      "▁consumers": 8006,
      "▁ins": 8007,
      "##key": 8008,
      "▁mountain": 8009,
      "▁candidate": 8010,
      "▁agenda": 8011,
      "##ributing": 8012,
      "##aster": 8013,
      "##eries": 8014,
      "▁traffic": 8015,
      "▁possession": 8016,
      "##yone": 8017,
      "▁ceiling": 8018,
      "##alk": 8019,
      "##tainty": 8020,
      "▁college": 8021,
      "▁smal": 8022,
      "▁having": 8023,
      "##ieties": 8024,
      "▁rem": 8025,
      "▁several": 8026,
      "▁eleph": 8027,
      "▁causing": 8028,
      "▁witch": 8029,
      "▁bell": 8030,
      "##ries": 8031,
      "##uth": 8032,
      "▁leaders": 8033,
      "##ulf": 8034,
      "##attered": 8035,
      "##wic": 8036,
      "▁repeated": 8037,
      "##okes": 8038,
      "▁fund": 8039,
      "▁grab": 8040,
      "▁horses": 8041,
      "▁regulations": 8042,
      "▁inch": 8043,
      "##nels": 8044,
      "▁pas": 8045,
      "▁benefit": 8046,
      "▁lear": 8047,
      "▁monarch": 8048,
      "▁lie": 8049,
      "▁pets": 8050,
      "##owed": 8051,
      "▁games": 8052,
      "▁culture": 8053,
      "▁seal": 8054,
      "▁pronounced": 8055,
      "▁conc": 8056,
      "##ployment": 8057,
      "▁arrive": 8058,
      "▁today": 8059,
      "▁woke": 8060,
      "▁midnight": 8061,
      "##err": 8062,
      "▁milk": 8063,
      "▁toilet": 8064,
      "##less": 8065,
      "▁meaning": 8066,
      "▁chees": 8067,
      "▁[...": 8068,
      "##unt": 8069,
      "▁blew": 8070,
      "▁<<": 8071,
      "▁colleagues": 8072,
      "##sing": 8073,
      "▁ide": 8074,
      "▁source": 8075,
      "▁ca": 8076,
      "▁been": 8077,
      "##formation": 8078,
      "▁program": 8079,
      "▁esc": 8080,
      "▁meal": 8081,
      "##--------------------------------": 8082,
      "▁profit": 8083,
      "##erts": 8084,
      "▁the": 8085,
      "▁shel": 8086,
      "▁why": 8087,
      "▁base": 8088,
      "▁vegetable": 8089,
      "##br": 8090,
      "▁aspect": 8091,
      "▁perceived": 8092,
      "▁we": 8093,
      "##io": 8094,
      "▁article": 8095,
      "▁spoke": 8096,
      "▁below": 8097,
      "▁chim": 8098,
      "▁tests": 8099,
      "▁age": 8100,
      "▁announced": 8101,
      "▁carried": 8102,
      "##idd": 8103,
      "##tw": 8104,
      "▁breath": 8105,
      "▁steps": 8106,
      "▁regard": 8107,
      "▁prot": 8108,
      "##ette": 8109,
      "▁define": 8110,
      "##ances": 8111,
      "▁rocks": 8112,
      "▁processing": 8113,
      "▁high": 8114,
      "▁extrem": 8115,
      "▁fo": 8116,
      "##ruption": 8117,
      "▁recruit": 8118,
      "▁yeah": 8119,
      "!": 8120,
      "▁gel": 8121,
      "##r.": 8122,
      "▁op": 8123,
      "##ib": 8124,
      "##jo": 8125,
      "▁anticip": 8126,
      "▁airlin": 8127,
      "▁tou": 8128,
      "▁counterparty": 8129,
      "▁drawing": 8130,
      "##uate": 8131,
      "▁forest": 8132,
      "▁maps": 8133,
      "▁n’t": 8134,
      "▁request": 8135,
      "##ig": 8136,
      "▁shopping": 8137,
      "▁funding": 8138,
      "▁!!!!!": 8139,
      "▁being": 8140,
      "##ay": 8141,
      "▁le": 8142,
      "##arl": 8143,
      "##ails": 8144,
      "##li": 8145,
      "##ulars": 8146,
      "▁conce": 8147,
      "##avery": 8148,
      "▁september": 8149,
      "▁shirt": 8150,
      "▁accordance": 8151,
      "##ukee": 8152,
      "▁inqu": 8153,
      "##unte": 8154,
      "##ching": 8155,
      "▁talk": 8156,
      "▁uh": 8157,
      "##ipping": 8158,
      "▁doll": 8159,
      "##icular": 8160,
      "##ulation": 8161,
      "▁refriger": 8162,
      "##ocks": 8163,
      "##tim": 8164,
      "▁teacher": 8165,
      "▁directive": 8166,
      "##anges": 8167,
      "##ten": 8168,
      "▁novel": 8169,
      "▁puzzle": 8170,
      "▁wildlife": 8171,
      "▁qui": 8172,
      "##ented": 8173,
      "▁ill": 8174,
      "▁doc": 8175,
      "▁pun": 8176,
      "##ention": 8177,
      "▁meet": 8178,
      "##ww": 8179,
      "▁instit": 8180,
      "▁students": 8181,
      "▁screwdriver": 8182,
      "▁blown": 8183,
      "##tics": 8184,
      "▁participate": 8185,
      "##!?": 8186,
      "##ting": 8187,
      "▁stuff": 8188,
      "##ful": 8189,
      "##led": 8190,
      "##ativity": 8191
    }
  }
}