{
  "version": "1.0",
  "truncation": null,
  "padding": null,
  "added_tokens": [
    {
      "id": 699,
      "content": "[PAD]",
      "single_word": false,
      "lstrip": false,
      "rstrip": false,
      "normalized": false,
      "special": true
    },
    {
      "id": 1908,
      "content": "[UNK]",
      "single_word": false,
      "lstrip": false,
      "rstrip": false,
      "normalized": false,
      "special": true
    },
    {
      "id": 2120,
      "content": "[CLS]",
      "single_word": false,
      "lstrip": false,
      "rstrip": false,
      "normalized": false,
      "special": true
    },
    {
      "id": 2476,
      "content": "[SEP]",
      "single_word": false,
      "lstrip": false,
      "rstrip": false,
      "normalized": false,
      "special": true
    },
    {
      "id": 3149,
      "content": "[MASK]",
      "single_word": false,
      "lstrip": false,
      "rstrip": false,
      "normalized": false,
      "special": true
    }
  ],
  "normalizer": {
    "type": "Sequence",
    "normalizers": [
      {
        "type": "NFD"
      },
      {
        "type": "Lowercase"
      },
      {
        "type": "StripAccents"
      }
    ]
  },
  "pre_tokenizer": {
    "type": "Sequence",
    "pretokenizers": [
      {
        "type": "Metaspace",
        "replacement": "▁",
        "prepend_scheme": "always",
        "split": true
      }
    ]
  },
  "post_processor": {
    "type": "TemplateProcessing",
    "single": [
      {
        "SpecialToken": {
          "id": "[CLS]",
          "type_id": 0
        }
      },
      {
        "Sequence": {
          "id": "A",
          "type_id": 0
        }
      },
      {
        "SpecialToken": {
          "id": "[SEP]",
          "type_id": 0
        }
      }
    ],
    "pair": [
      {
        "SpecialToken": {
          "id": "[CLS]",
          "type_id": 0
        }
      },
      {
        "Sequence": {
          "id": "A",
          "type_id": 0
        }
      },
      {
        "SpecialToken": {
          "id": "[SEP]",
          "type_id": 0
        }
      },
      {
        "Sequence": {
          "id": "B",
          "type_id": 1
        }
      },
      {
        "SpecialToken": {
          "id": "[SEP]",
          "type_id": 1
        }
      }
    ],
    "special_tokens": {
      "[CLS]": {
        "id": "[CLS]",
        "ids": [
          2120
        ],
        "tokens": [
          "[CLS]"
        ]
      },
      "[SEP]": {
        "id": "[SEP]",
        "ids": [
          2476
        ],
        "tokens": [
          "[SEP]"
        ]
      }
    }
  },
  "decoder": {
    "type": "Metaspace",
    "replacement": "▁",
    "prepend_scheme": "always",
    "split": true
  },
  "model": {
    "type": "Unigram",
    "unk_id": 1908,
    "vocab": [
      [
        "n",
        -4.908729745083298
      ],
      [
        "▁indiana",
        -6.677476247584471
      ],
      [
        "▁send",
        -7.010702550415962
      ],
      [
        "▁balzac",
        -6.776892985365578
      ],
      [
        "▁ca",
        -4.021459500937557
      ],
      [
        "*************",
        -12.63592864490868
      ],
      [
        "▁stomach",
        -9.216943613267615
      ],
      [
        "▁persona",
        -7.163868015445408
      ],
      [
        "tion",
        -7.539051037622932
      ],
      [
        "▁background",
        -8.92346809754456
      ],
      [
        "!!!!!!",
        -10.71985271599892
      ],
      [
        "▁unite",
        -7.293944788822664
      ],
      [
        "▁purpose",
        -8.102291505184763
      ],
      [
        "▁character",
        -8.115500986336793
      ],
      [
        "▁participa",
        -9.038718271847005
      ],
      [
        "▁delete",
        -8.995020198938137
      ],
      [
        "▁cow",
        -8.179690089835708
      ],
      [
        "▁bo",
        -4.5121139884195465
      ],
      [
        "▁river",
        -8.355890003809007
      ],
      [
        "▁c",
        -7.464378526851302
      ],
      [
        "▁car",
        -5.944484843548301
      ],
      [
        "elief",
        -9.094887767904577
      ],
      [
        "▁egg",
        -7.872640054151842
      ],
      [
        "▁an",
        -9.820616148417278
      ],
      [
        "▁ant",
        -8.07381301185632
      ],
      [
        "nd",
        -9.236601350363305
      ],
      [
        "q",
        -8.106977222159466
      ],
      [
        "▁your",
        -4.441892259932327
      ],
      [
        "▁pro",
        -7.211453933737824
      ],
      [
        "▁relate",
        -8.875343751627707
      ],
      [
        "an",
        -7.701249963484149
      ],
      [
        "▁raise",
        -7.862368665323697
      ],
      [
        "ous",
        -8.753691967497861
      ],
      [
        "tha",
        -5.882854310653147
      ],
      [
        "▁the",
        -1.5036323933989628
      ],
      [
        "▁",
        -2.345074069766005
      ],
      [
        "yo",
        -12.726913103948085
      ],
      [
        "..",
        -11.6166454357157
      ],
      [
        "▁pilot",
        -8.819697063888725
      ],
      [
        "▁great",
        -5.158725407219528
      ],
      [
        "▁seek",
        -7.794721868270505
      ],
      [
        "▁ride",
        -8.524860939973944
      ],
      [
        "▁le",
        -6.641113467851519
      ],
      [
        "um",
        -11.058978476488804
      ],
      [
        "▁user",
        -7.94686394948986
      ],
      [
        "2",
        -3.9783356324857158
      ],
      [
        "▁degree",
        -8.511832342446453
      ],
      [
        "▁governor",
        -8.999124735900713
      ],
      [
        "at",
        -12.527794121947867
      ],
      [
        "▁cash",
        -8.420087610225682
      ],
      [
        "▁finding",
        -9.16960617209487
      ],
      [
        "o",
        -3.5119033932708597
      ],
      [
        "`",
        -9.585942977269655
      ],
      [
        "▁ap",
        -8.967049891672927
      ],
      [
        "▁stor",
        -8.001711846913501
      ],
      [
        "▁reference",
        -8.511931062686745
      ],
      [
        "▁switch",
        -9.213013115128833
      ],
      [
        "▁instance",
        -8.728700900309207
      ],
      [
        "▁the",
        -4.368852518839425
      ],
      [
        "▁firm",
        -8.536144868958694
      ],
      [
        "▁worm",
        -8.83306646032122
      ],
      [
        "▁wh",
        -6.667104945947118
      ],
      [
        "▁s",
        -5.346467888196824
      ],
      [
        "▁trade",
        -8.312075063098856
      ],
      [
        "en",
        -7.180770542726827
      ],
      [
        "were",
        -7.167827169458954
      ],
      [
        "▁bus",
        -5.9896243171846635
      ],
      [
        "▁scal",
        -8.854262280581608
      ],
      [
        "▁import",
        -6.248272192306516
      ],
      [
        "▁read",
        -6.125286429904584
      ],
      [
        "▁el",
        -8.913344358678843
      ],
      [
        "t",
        -1.4210259656718716
      ],
      [
        "y",
        -7.14930709824996
      ],
      [
        "▁submitt",
        -9.23487695729021
      ],
      [
        "▁ma",
        -6.872057889626475
      ],
      [
        "▁establish",
        -7.872287748638467
      ],
      [
        "ff",
        -8.67386596568681
      ],
      [
        "▁focuse",
        -9.211524198346563
      ],
      [
        "▁!!!!!!!!!!",
        -11.835042718013746
      ],
      [
        "▁receiv",
        -8.281500766022912
      ],
      [
        "▁augu",
        -7.7773176042589505
      ],
      [
        "ar",
        -7.403787687720679
      ],
      [
        "at",
        -7.578884631351963
      ],
      [
        "▁directive",
        -8.102290307189087
      ],
      [
        "▁m",
        -8.808938386214283
      ],
      [
        "▁media",
        -8.184776128102005
      ],
      [
        "entl",
        -5.672554744168814
      ],
      [
        "▁mar",
        -7.297696740242504
      ],
      [
        "with",
        -6.357203910909968
      ],
      [
        "▁president",
        -7.446433186007898
      ],
      [
        "▁tol",
        -6.346755550568246
      ],
      [
        "uch",
        -7.227515523436937
      ],
      [
        "▁robot",
        -8.696473206826564
      ],
      [
        "▁winter",
        -8.295871169518074
      ],
      [
        "▁de",
        -7.219112376193933
      ],
      [
        "▁person",
        -6.833138349476712
      ],
      [
        "▁rabbit",
        -8.397995949098288
      ],
      [
        "▁ticket",
        -7.5882770451074295
      ],
      [
        "▁bike",
        -8.315481499947122
      ],
      [
        "e",
        -3.6987654616553973
      ],
      [
        "▁love",
        -7.821445912638369
      ],
      [
        "▁vs",
        -8.84932320378803
      ],
      [
        "▁generation",
        -8.377496851346336
      ],
      [
        "▁drop",
        -8.286286269122698
      ],
      [
        "▁police",
        -7.852645463891125
      ],
      [
        "k",
        -12.810278406305976
      ],
      [
        "▁conclusion",
        -8.787540364728878
      ],
      [
        "▁toast",
        -7.981855447091121
      ],
      [
        "▁master",
        -8.79278366680871
      ],
      [
        ".",
        -1.4533572890270836
      ],
      [
        "▁o",
        -7.903254943525872
      ],
      [
        "ma",
        -6.048419740934698
      ],
      [
        "▁baby",
        -6.500569538443069
      ],
      [
        "3",
        -10.925660239071423
      ],
      [
        "the",
        -3.8465712775810488
      ],
      [
        "ter",
        -7.365013215623208
      ],
      [
        "▁neck",
        -8.151479540815174
      ],
      [
        "h",
        -3.151586959751487
      ],
      [
        "▁purchase",
        -8.519796011439709
      ],
      [
        "m",
        -3.7542502650210796
      ],
      [
        "▁sales",
        -8.522653410349296
      ],
      [
        "▁tradition",
        -8.85559007076512
      ],
      [
        "▁cocktail",
        -9.216943537778427
      ],
      [
        "ndo",
        -6.446814175920228
      ],
      [
        "▁protect",
        -7.6478212800122485
      ],
      [
        "▁al",
        -6.196821287924996
      ],
      [
        "tic",
        -8.8265499572987
      ],
      [
        "ar",
        -7.070180781046311
      ],
      [
        "▁divide",
        -9.190883552998816
      ],
      [
        "▁fixed",
        -7.9833664899746974
      ],
      [
        "▁famil",
        -6.726079805847224
      ],
      [
        "y",
        -9.93729819650814
      ],
      [
        "▁mar",
        -8.756154584812446
      ],
      [
        "fro",
        -6.468812278161513
      ],
      [
        "r",
        -6.977308910407107
      ],
      [
        "▁bec",
        -7.535835746995765
      ],
      [
        "▁handle",
        -8.361116241446648
      ],
      [
        "all",
        -9.143859500098722
      ],
      [
        "▁israel",
        -7.042396580929527
      ],
      [
        "▁now",
        -4.075357952692865
      ],
      [
        "▁alr",
        -5.228749683775931
      ],
      [
        "▁advi",
        -8.535265685975862
      ],
      [
        "▁deserve",
        -9.026390977354469
      ],
      [
        "d",
        -7.736282935630404
      ],
      [
        "▁map",
        -8.564418347291952
      ],
      [
        "▁shar",
        -9.323179623415278
      ],
      [
        "▁first",
        -5.646883055112838
      ],
      [
        "▁impact",
        -8.355891721003994
      ],
      [
        "▁hard",
        -6.981459197999821
      ],
      [
        "▁connection",
        -7.667928412339712
      ],
      [
        "▁nai",
        -7.200946706543447
      ],
      [
        "like",
        -9.262996894325436
      ],
      [
        "▁bread",
        -8.026877142638188
      ],
      [
        "▁welcome",
        -8.867113751641234
      ],
      [
        "▁not",
        -7.200425170962376
      ],
      [
        "▁",
        -2.8219036520832894
      ],
      [
        "▁won",
        -8.47883821519625
      ],
      [
        "▁male",
        -8.822004581314566
      ],
      [
        "k",
        -6.427881069140615
      ],
      [
        "▁oakl",
        -6.081524326249055
      ],
      [
        "▁organization",
        -8.221079316054567
      ],
      [
        "f",
        -7.031933244243013
      ],
      [
        "▁2",
        -4.236268747166906
      ],
      [
        "it",
        -7.619367739875833
      ],
      [
        "▁london",
        -6.999199217919589
      ],
      [
        "le",
        -8.50795881827378
      ],
      [
        "▁on",
        -5.361902469050708
      ],
      [
        "vs",
        -12.525459860751756
      ],
      [
        "**",
        -10.999767360300744
      ],
      [
        "▁household",
        -9.081135028646244
      ],
      [
        "****",
        -11.697598525938803
      ],
      [
        "▁appearance",
        -8.859665433628084
      ],
      [
        "▁distance",
        -8.820178708496165
      ],
      [
        "▁understanding",
        -8.516439428350697
      ],
      [
        "▁every",
        -6.189232902579145
      ],
      [
        "▁se",
        -7.331513262247149
      ],
      [
        "▁",
        -1.302891434072171
      ],
      [
        "el",
        -7.053894490506609
      ],
      [
        "▁change",
        -7.11650615464455
      ],
      [
        "ed",
        -8.2961072334848
      ],
      [
        "▁server",
        -8.820251348788805
      ],
      [
        "ce",
        -5.340986048479182
      ],
      [
        "▁deploy",
        -9.293957825282968
      ],
      [
        "hat",
        -8.562382551748577
      ],
      [
        "▁:",
        -8.560951170374057
      ],
      [
        "▁fill",
        -7.5273199551953365
      ],
      [
        "o",
        -1.7235607545640583
      ],
      [
        "▁clear",
        -9.215699984641848
      ],
      [
        "▁paris",
        -7.236939178226198
      ],
      [
        "i",
        -11.770631529841472
      ],
      [
        "▁eye",
        -6.7141217215007565
      ],
      [
        "3",
        -8.78716293598233
      ],
      [
        "f",
        -7.281137016091158
      ],
      [
        "▁com",
        -8.165395837160538
      ],
      [
        "ook",
        -6.641626205827474
      ],
      [
        "▁lean",
        -9.096300030768612
      ],
      [
        "▁discusse",
        -9.424436303222725
      ],
      [
        "in",
        -12.60578636228786
      ],
      [
        ";",
        -5.738552662576513
      ],
      [
        "▁bean",
        -9.085577157622819
      ],
      [
        "w",
        -7.411054368279365
      ],
      [
        "ture",
        -7.81960982533579
      ],
      [
        "d",
        -6.601197211229196
      ],
      [
        "▁agree",
        -7.253405628739583
      ],
      [
        "ach",
        -8.260175839519409
      ],
      [
        "ive",
        -5.025022787645253
      ],
      [
        "▁whil",
        -4.621993292267832
      ],
      [
        "▁container",
        -8.613096975124025
      ],
      [
        "▁sa",
        -6.480620694170948
      ],
      [
        "▁onl",
        -6.357181621155046
      ],
      [
        "▁mo",
        -7.225016705620556
      ],
      [
        "▁promise",
        -8.237400325629473
      ],
      [
        "▁cookie",
        -8.505811307028567
      ],
      [
        "▁figure",
        -8.819696643698252
      ],
      [
        "▁econom",
        -7.3885931912046985
      ],
      [
        "▁leg",
        -7.482530775623637
      ],
      [
        "▁election",
        -7.9961323812441565
      ],
      [
        "▁perform",
        -7.9516644364622575
      ],
      [
        "▁suck",
        -8.73240815058813
      ],
      [
        "▁direction",
        -8.419735081117501
      ],
      [
        "▁solution",
        -8.15147945569067
      ],
      [
        "▁sleep",
        -7.3867615725125875
      ],
      [
        "ax",
        -7.957429546796635
      ],
      [
        "▁one",
        -6.966178114737579
      ],
      [
        "▁warm",
        -8.897398393907192
      ],
      [
        "▁box",
        -7.371362901652741
      ],
      [
        "▁was",
        -3.43571718377914
      ],
      [
        "▁hundred",
        -5.955365271488084
      ],
      [
        "q",
        -12.653795411026692
      ],
      [
        "t",
        -10.200270897839118
      ],
      [
        "▁south",
        -6.831050186369672
      ],
      [
        "▁sweep",
        -9.443273260985471
      ],
      [
        "▁wo",
        -7.25034794109828
      ],
      [
        "’",
        -5.269098193125767
      ],
      [
        "c",
        -10.270631529841472
      ],
      [
        "▁runn",
        -7.605528184991227
      ],
      [
        ".",
        -9.207163296872874
      ],
      [
        "▁occur",
        -8.661361815316441
      ],
      [
        "w",
        -11.841782454984505
      ],
      [
        "▁",
        -2.7000107461934846
      ],
      [
        "l",
        -8.214727387657476
      ],
      [
        "▁fe",
        -8.914030362010493
      ],
      [
        "▁comparison",
        -9.123870045291513
      ],
      [
        "▁capital",
        -8.086431809773359
      ],
      [
        "▁occurr",
        -8.562198231586656
      ],
      [
        "ha",
        -9.035947903990632
      ],
      [
        "▁building",
        -7.928126585424438
      ],
      [
        "▁sai",
        -5.08691055481988
      ],
      [
        "de",
        -11.783538262690449
      ],
      [
        "4",
        -8.923153861219454
      ],
      [
        "▁portion",
        -9.041464865639405
      ],
      [
        "▁re-",
        -8.721355501734267
      ],
      [
        "pe",
        -10.887219134304972
      ],
      [
        "e",
        -2.3851922693400898
      ],
      [
        "▁is",
        -5.984605269276846
      ],
      [
        "▁mission",
        -8.834349610863262
      ],
      [
        "▁prove",
        -8.168219478103088
      ],
      [
        "▁difficult",
        -8.640123998122338
      ],
      [
        "▁col",
        -9.076627203047325
      ],
      [
        "i",
        -2.7294335593499106
      ],
      [
        "n",
        -5.486893563346862
      ],
      [
        "'",
        -2.482385910194264
      ],
      [
        "▁!",
        -6.89487113485091
      ],
      [
        "▁do",
        -4.354884306024818
      ],
      [
        "▁advise",
        -8.642676767136889
      ],
      [
        "y",
        -4.489015840271201
      ],
      [
        "wise",
        -7.250263014346251
      ],
      [
        "▁no",
        -8.615805374393982
      ],
      [
        "tw",
        -7.916974077212662
      ],
      [
        "let",
        -9.138793533962309
      ],
      [
        "▁away",
        -5.529427344981297
      ],
      [
        "▁plan",
        -7.598651349297334
      ],
      [
        "▁affair",
        -8.787438095747412
      ],
      [
        "▁of",
        -5.372005060076645
      ],
      [
        "ight",
        -7.544412920616464
      ],
      [
        "▁shoulder",
        -8.69647340710104
      ],
      [
        "_",
        -4.628726667259624
      ],
      [
        "of",
        -8.026473360529637
      ],
      [
        "ep",
        -8.964188828874324
      ],
      [
        "▁style",
        -8.040434908053214
      ],
      [
        "▁initiate",
        -8.949744924277967
      ],
      [
        "efficien",
        -9.169437708935291
      ],
      [
        "▁design",
        -8.26674546974375
      ],
      [
        "▁attribut",
        -9.360514952474078
      ],
      [
        "▁aspect",
        -8.221141738810385
      ],
      [
        "▁t",
        -13.04700383885649
      ],
      [
        "▁arrest",
        -9.02482456647259
      ],
      [
        "▁longe",
        -6.970271318305978
      ],
      [
        "▁world",
        -6.304401061820538
      ],
      [
        "▁flood",
        -8.887517048372679
      ],
      [
        "▁suggestion",
        -8.725884969313293
      ],
      [
        "are",
        -6.0074420158852755
      ],
      [
        "▁holiday",
        -8.88751220696219
      ],
      [
        "▁citizens",
        -8.155322500037236
      ],
      [
        "▁amid",
        -9.982268227011591
      ],
      [
        "▁quartile",
        -9.080391684523477
      ],
      [
        "o",
        -3.931859826234785
      ],
      [
        "▁john",
        -6.43859690850405
      ],
      [
        "f",
        -8.905782894141495
      ],
      [
        "▁guest",
        -8.725903771755222
      ],
      [
        "rit",
        -8.711909599087585
      ],
      [
        "▁propos",
        -9.210258085636664
      ],
      [
        "▁t",
        -7.491726534268921
      ],
      [
        "▁pain",
        -8.48439456547764
      ],
      [
        "my",
        -7.634247853704349
      ],
      [
        "ca",
        -8.459737813616309
      ],
      [
        "▁ris",
        -9.20008949094287
      ],
      [
        "▁de",
        -7.396430300391956
      ],
      [
        "e",
        -4.182485491868038
      ],
      [
        "▁fire",
        -7.560571012724341
      ],
      [
        "▁test",
        -8.14215972269377
      ],
      [
        "▁over",
        -5.746199670579694
      ],
      [
        "▁mind",
        -7.397956965639862
      ],
      [
        "▁mid",
        -8.839557943166152
      ],
      [
        "▁associate",
        -8.574150142076096
      ],
      [
        "▁ha",
        -8.56060294069948
      ],
      [
        "+",
        -10.834960006133098
      ],
      [
        "▁newspaper",
        -8.511803875423658
      ],
      [
        "▁airfare",
        -8.923998950931967
      ],
      [
        "▁subject",
        -7.99613216460455
      ],
      [
        "▁open",
        -6.446986532387996
      ],
      [
        "▁mix",
        -8.5503199672976
      ],
      [
        "▁big",
        -5.164406598255679
      ],
      [
        "▁involve",
        -7.945953540093921
      ],
      [
        "operation",
        -8.758089899944205
      ],
      [
        "▁vehicle",
        -8.887512158809358
      ],
      [
        "▁us",
        -6.5218719918286725
      ],
      [
        "ant",
        -7.805191051445353
      ],
      [
        "▁leave",
        -5.929274021604734
      ],
      [
        "▁season",
        -8.359062764414066
      ],
      [
        "ibl",
        -7.063379830970229
      ],
      [
        "▁block",
        -8.33682074244903
      ],
      [
        "▁push",
        -7.134800138392693
      ],
      [
        "ac",
        -8.033584466117276
      ],
      [
        "ka",
        -8.551583514202843
      ],
      [
        "se",
        -5.996840838387732
      ],
      [
        "▁adam",
        -5.987733709603641
      ],
      [
        "`",
        -11.832476852014032
      ],
      [
        "ton",
        -8.749021132259392
      ],
      [
        "▁artwork",
        -9.170000365066286
      ],
      [
        "ave",
        -6.872084745117334
      ],
      [
        "▁clear",
        -7.455924141981425
      ],
      [
        "▁review",
        -7.607760851354363
      ],
      [
        "▁america",
        -6.805892094766217
      ],
      [
        "-----",
        -11.778022025595234
      ],
      [
        "ver",
        -8.129848097289846
      ],
      [
        "▁club",
        -9.216943576577803
      ],
      [
        "once",
        -6.213434230210199
      ],
      [
        "▁got",
        -7.758129679899486
      ],
      [
        "mine",
        -10.279761504850597
      ],
      [
        "ro",
        -6.707930556601703
      ],
      [
        "▁hide",
        -8.394334826868617
      ],
      [
        "▁bear",
        -8.442463514443517
      ],
      [
        "▁l2",
        -9.080618184187369
      ],
      [
        "▁mess",
        -9.13529534665706
      ],
      [
        "▁teach",
        -8.290834019702363
      ],
      [
        "her",
        -9.029804971560168
      ],
      [
        "▁u",
        -12.73122369669515
      ],
      [
        "▁defend",
        -9.145912033232495
      ],
      [
        "▁f",
        -11.570644583811621
      ],
      [
        "▁ca",
        -8.744876320400493
      ],
      [
        "▁modern",
        -7.2893754413007565
      ],
      [
        "▁database",
        -8.511749949255972
      ],
      [
        "▁develope",
        -9.249352525576292
      ],
      [
        "▁moment",
        -7.619365472594727
      ],
      [
        "▁website",
        -7.812616912668437
      ],
      [
        "_",
        -5.201045034743488
      ],
      [
        "▁structure",
        -8.086462457065844
      ],
      [
        "▁ag",
        -6.715931851231953
      ],
      [
        "▁xm",
        -7.149206549637243
      ],
      [
        "ve",
        -7.530189962329173
      ],
      [
        "▁",
        -1.4771507384749105
      ],
      [
        "▁drama",
        -9.169325248910472
      ],
      [
        "▁differ",
        -9.364938636273932
      ],
      [
        "▁mo",
        -7.666721555623175
      ],
      [
        "1",
        -12.707635305583393
      ],
      [
        "▁cheese",
        -7.837043727004968
      ],
      [
        "▁right",
        -5.710999127079453
      ],
      [
        "▁san",
        -4.549934815287142
      ],
      [
        "▁+++++",
        -12.167530999473765
      ],
      [
        "▁",
        -1.879078986922659
      ],
      [
        "ins",
        -12.167094736746972
      ],
      [
        "▁realise",
        -9.285368907153273
      ],
      [
        "end",
        -9.343969701357597
      ],
      [
        "▁restaurant",
        -7.454148241575403
      ],
      [
        "▁replace",
        -8.29378861232647
      ],
      [
        "▁screw",
        -9.123869968977653
      ],
      [
        "▁lay",
        -7.83455951931724
      ],
      [
        "▁grant",
        -8.406788658269399
      ],
      [
        "▁snake",
        -8.419739262519148
      ],
      [
        "▁cat",
        -7.130995090598844
      ],
      [
        "▁fair",
        -7.1859296782387645
      ],
      [
        "ite",
        -7.044615132236147
      ],
      [
        "▁introduce",
        -8.200117681523333
      ],
      [
        "▁card",
        -7.589935950633074
      ],
      [
        "▁team",
        -7.489339765579031
      ],
      [
        "▁response",
        -7.836858238716574
      ],
      [
        "▁commissioner",
        -8.943416559594128
      ],
      [
        "▁be",
        -8.335218369223364
      ],
      [
        "wha",
        -11.428549959890994
      ],
      [
        "▁living",
        -8.640218886045767
      ],
      [
        "▁strateg",
        -8.536140307071953
      ],
      [
        "▁",
        -1.6256745059821878
      ],
      [
        "▁email",
        -7.578773222760409
      ],
      [
        "▁info",
        -8.960330966509218
      ],
      [
        "▁novel",
        -8.296280055282253
      ],
      [
        "▁mam",
        -8.621617564024273
      ],
      [
        "ail",
        -8.982246677363793
      ],
      [
        "▁dress",
        -7.922935736617031
      ],
      [
        "mber",
        -8.492872498582962
      ],
      [
        "ible",
        -7.187702115575742
      ],
      [
        "▁finish",
        -7.390927051909596
      ],
      [
        "k",
        -6.601882593626262
      ],
      [
        "▁j",
        -6.0592118436648414
      ],
      [
        "▁tank",
        -8.178215990133197
      ],
      [
        "▁crop",
        -8.960269655204407
      ],
      [
        "▁command",
        -8.992686532161631
      ],
      [
        "/",
        -11.20763530558339
      ],
      [
        "▁ser",
        -8.25464930958914
      ],
      [
        "▁cup",
        -7.551690482998459
      ],
      [
        "rself",
        -10.493759088762307
      ],
      [
        "▁print",
        -9.00754385471476
      ],
      [
        "oul",
        -4.862598188843797
      ],
      [
        "oh",
        -5.752813539380159
      ],
      [
        "▁fear",
        -9.030068234004945
      ],
      [
        "▁city",
        -5.7496977402763685
      ],
      [
        "▁hat",
        -7.723964943177416
      ],
      [
        "▁exist",
        -7.503767107828424
      ],
      [
        "▁share",
        -7.958676915142011
      ],
      [
        "▁wood",
        -8.739854070160543
      ],
      [
        "▁word",
        -6.806647864047421
      ],
      [
        "▁ear",
        -8.51380692920621
      ],
      [
        "▁attempt",
        -8.276639244496826
      ],
      [
        "▁aim",
        -8.734736249555842
      ],
      [
        "rou",
        -13.078869863422522
      ],
      [
        "e",
        -3.866122931705931
      ],
      [
        "ove",
        -8.770730135638402
      ],
      [
        "▁energy",
        -7.710254107816979
      ],
      [
        "▁american",
        -5.923904653259069
      ],
      [
        "▁th",
        -5.732750877800901
      ],
      [
        "▁pl",
        -3.2601159934010724
      ],
      [
        "our",
        -8.602635877523241
      ],
      [
        "▁paint",
        -8.81800342621576
      ],
      [
        "▁doubt",
        -8.923226450372857
      ],
      [
        "▁en",
        -8.445995296597175
      ],
      [
        "ning",
        -8.758933472931854
      ],
      [
        "▁&",
        -7.590436870188815
      ],
      [
        "▁air",
        -6.76560104667951
      ],
      [
        "on",
        -8.1917012505937
      ],
      [
        "▁blow",
        -7.619058735936671
      ],
      [
        "p",
        -7.066816683755824
      ],
      [
        "k",
        -7.182195613661991
      ],
      [
        "▁urge",
        -9.411700244063756
      ],
      [
        "ice",
        -7.482348072578886
      ],
      [
        "▁",
        -3.5515534901066914
      ],
      [
        "▁tummy",
        -8.819696909708828
      ],
      [
        "▁attorney",
        -9.21694353779829
      ],
      [
        "▁religion",
        -8.787439871338812
      ],
      [
        "formation",
        -6.3930203049447325
      ],
      [
        "▁bulldo",
        -8.397997323665685
      ],
      [
        "▁editor",
        -9.000117278361182
      ],
      [
        "ext",
        -5.948412029126283
      ],
      [
        "one",
        -6.076324489393661
      ],
      [
        "▁go",
        -8.803147197359284
      ],
      [
        "ie",
        -7.494042399448487
      ],
      [
        "▁standard",
        -7.874378960239033
      ],
      [
        "▁tri",
        -8.25020254601136
      ],
      [
        "x",
        -6.8356093943361715
      ],
      [
        "ise",
        -8.626926506208594
      ],
      [
        "▁drink",
        -7.166090136053161
      ],
      [
        "▁human",
        -6.556366750583185
      ],
      [
        "▁safe",
        -7.253644350897146
      ],
      [
        "oursel",
        -8.941083358478036
      ],
      [
        "▁iraq",
        -6.531904846313313
      ],
      [
        "▁again",
        -5.055600915647587
      ],
      [
        "▁o",
        -7.106158376632667
      ],
      [
        "▁contact",
        -8.56114018444546
      ],
      [
        "▁fit",
        -7.675468551801042
      ],
      [
        "▁farmer",
        -9.007456608702139
      ],
      [
        "▁lawyer",
        -9.170622383221856
      ],
      [
        "▁ride",
        -7.57088732838403
      ],
      [
        "▁disappear",
        -9.025395337929355
      ],
      [
        "▁forward",
        -8.407128460924563
      ],
      [
        "▁fax",
        -8.421501157880703
      ],
      [
        "▁crayon",
        -9.123908582995679
      ],
      [
        "▁factor",
        -8.245975372245494
      ],
      [
        "-",
        -6.765722548819912
      ],
      [
        "▁video",
        -7.732112971538104
      ],
      [
        "▁y",
        -12.564790908332268
      ],
      [
        "▁paul",
        -6.2911579165301434
      ],
      [
        "m",
        -6.009894094785829
      ],
      [
        "▁sand",
        -8.788186726567911
      ],
      [
        "▁pass",
        -7.307761619104325
      ],
      [
        "▁treat",
        -9.12244813113502
      ],
      [
        "▁summer",
        -7.668168189905595
      ],
      [
        "▁rec",
        -7.0072767537993075
      ],
      [
        "ide",
        -11.89009109688605
      ],
      [
        "▁mail",
        -8.441975209823593
      ],
      [
        "▁fold",
        -8.89888426895811
      ],
      [
        "ester",
        -7.614889363662998
      ],
      [
        "less",
        -6.291852799812492
      ],
      [
        "▁under",
        -6.340505141486626
      ],
      [
        "europ",
        -6.79352500653621
      ],
      [
        "▁update",
        -8.923317144802338
      ],
      [
        "▁zoo",
        -8.888068378153445
      ],
      [
        "▁regard",
        -7.888147346547675
      ],
      [
        "ertain",
        -6.8715652381419625
      ],
      [
        "las",
        -4.934397653464572
      ],
      [
        "▁place",
        -5.97552090107049
      ],
      [
        "******",
        -12.400348347525032
      ],
      [
        "▁broke",
        -7.02286805861565
      ],
      [
        "▁highlight",
        -8.969748489235473
      ],
      [
        "▁onl",
        -4.832955045729422
      ],
      [
        "▁cur",
        -7.133100595910538
      ],
      [
        "▁brother",
        -7.9269424963659185
      ],
      [
        "---------",
        -11.379442948397054
      ],
      [
        "▁press",
        -8.660236372359865
      ],
      [
        "▁technique",
        -8.756187999620044
      ],
      [
        "b",
        -3.4366148757197568
      ],
      [
        "▁u",
        -9.051332700543057
      ],
      [
        "▁plann",
        -7.863411079835668
      ],
      [
        "ne",
        -7.416934719219764
      ],
      [
        "o",
        -4.757238422636543
      ],
      [
        "▁someon",
        -6.931479858311979
      ],
      [
        "▁participate",
        -8.830257973207264
      ],
      [
        "▁port",
        -8.791426502646008
      ],
      [
        "▁statement",
        -8.283199658757818
      ],
      [
        "▁rely",
        -9.145980370528957
      ],
      [
        "▁heel",
        -9.123887803495048
      ],
      [
        "▁mo",
        -6.386859315429376
      ],
      [
        "’",
        -10.78153641900687
      ],
      [
        "▁own",
        -8.023250615119258
      ],
      [
        "per",
        -8.726136413540846
      ],
      [
        "▁stay",
        -9.124370694504206
      ],
      [
        "position",
        -9.0127388001521
      ],
      [
        "▁part",
        -6.0202728201655535
      ],
      [
        "▁tree",
        -7.701735158572218
      ],
      [
        "▁bigge",
        -7.0789892227515505
      ],
      [
        "im",
        -8.854489551847179
      ],
      [
        "▁over",
        -9.078225487752855
      ],
      [
        "▁'",
        -6.425214222828881
      ],
      [
        "▁heat",
        -8.060452690975215
      ],
      [
        "▁load",
        -9.006487675009382
      ],
      [
        "half",
        -8.969509701511594
      ],
      [
        "▁un",
        -9.152759833302571
      ],
      [
        "▁say",
        -5.020055208945686
      ],
      [
        "▁like",
        -4.758550093217762
      ],
      [
        "▁stuff",
        -7.306659826059991
      ],
      [
        "▁mill",
        -5.806332795739784
      ],
      [
        "▁form",
        -7.096046790120671
      ],
      [
        "▁dish",
        -8.4211822727429
      ],
      [
        "▁opinion",
        -8.276639661359717
      ],
      [
        "▁o",
        -5.5051082632013175
      ],
      [
        "▁dragg",
        -9.154571963846962
      ],
      [
        "▁d",
        -7.835324086530706
      ],
      [
        "day",
        -7.523400618805456
      ],
      [
        "▁fix",
        -7.571761303624871
      ],
      [
        "▁use",
        -5.376712606513006
      ],
      [
        "▁cook",
        -7.633903245864477
      ],
      [
        "▁kitchen",
        -8.185669981321245
      ],
      [
        "air",
        -9.133000384208778
      ],
      [
        "take",
        -8.759793077145687
      ],
      [
        "▁admitt",
        -9.049564673083047
      ],
      [
        "▁....",
        -10.744960055570607
      ],
      [
        "▁transit",
        -9.178403805848987
      ],
      [
        "▁face",
        -8.031543205840347
      ],
      [
        "▁else",
        -6.193820371878903
      ],
      [
        "▁ingredient",
        -9.080391683931541
      ],
      [
        "▁thr",
        -4.171737371864407
      ],
      [
        "▁write",
        -6.549067944212382
      ],
      [
        "lik",
        -7.407883937870426
      ],
      [
        "tial",
        -9.050003660931548
      ],
      [
        "▁li",
        -9.360770019549522
      ],
      [
        "▁chance",
        -7.926723705839864
      ],
      [
        "▁increase",
        -8.820130774719802
      ],
      [
        "aw",
        -8.635393372690027
      ],
      [
        "▁plast",
        -8.960500173831381
      ],
      [
        "▁replication",
        -8.819696744168843
      ],
      [
        "▁along",
        -7.533964767221531
      ],
      [
        "rate",
        -9.42651146824745
      ],
      [
        "▁good",
        -4.598078696122425
      ],
      [
        "▁mos",
        -6.7054045308103385
      ],
      [
        "▁north",
        -9.038733475063662
      ],
      [
        "-",
        -5.0561714688933765
      ],
      [
        "▁menu",
        -8.567584267809684
      ],
      [
        "▁trans",
        -8.7484308455886
      ],
      [
        "▁network",
        -8.56120687954466
      ],
      [
        "▁account",
        -9.360499241317074
      ],
      [
        "▁start",
        -8.136081255425534
      ],
      [
        "▁there",
        -4.1506920944455326
      ],
      [
        "▁fellow",
        -9.03872549137705
      ],
      [
        "▁article",
        -7.887246847174498
      ],
      [
        "▁horsie",
        -8.151480814514752
      ],
      [
        "▁all",
        -7.233537423515028
      ],
      [
        "±",
        -11.925660239071421
      ],
      [
        "er",
        -5.41592212726871
      ],
      [
        "tter",
        -5.970593096106856
      ],
      [
        "ove",
        -8.910776172545935
      ],
      [
        "▁office",
        -7.1373626323419215
      ],
      [
        "▁live",
        -6.4022916255705535
      ],
      [
        "▁earl",
        -7.23689365952583
      ],
      [
        "▁law",
        -7.098797919527961
      ],
      [
        "▁copy",
        -8.533434250249996
      ],
      [
        "▁in",
        -3.2387404176839407
      ],
      [
        "▁mind",
        -8.62897434810612
      ],
      [
        "▁jun",
        -7.250515333933406
      ],
      [
        "▁product",
        -7.144694182176071
      ],
      [
        "----------------",
        -8.720621540620424
      ],
      [
        "▁parent",
        -7.597973588209074
      ],
      [
        "▁book",
        -7.527313072312097
      ],
      [
        "▁belief",
        -8.488470225120022
      ],
      [
        "▁unt",
        -9.905702178190086
      ],
      [
        "▁partner",
        -8.819534586194884
      ],
      [
        "▁wa",
        -8.825879020264777
      ],
      [
        "▁confirm",
        -8.120681179643658
      ],
      [
        "▁dis",
        -7.527970165719957
      ],
      [
        "▁polic",
        -8.78420342838983
      ],
      [
        "▁paper",
        -6.811064970065042
      ],
      [
        "til",
        -7.784555654766264
      ],
      [
        "▁york",
        -5.898067754643051
      ],
      [
        "▁ground",
        -6.598258737315575
      ],
      [
        "ant",
        -5.65993211659834
      ],
      [
        "▁pupp",
        -8.755176934455605
      ],
      [
        "▁simple",
        -7.298001257945252
      ],
      [
        "▁spoke",
        -7.662118865388581
      ],
      [
        "·",
        -9.88131015228541
      ],
      [
        "▁g",
        -7.240861415586581
      ],
      [
        "▁territor",
        -8.66790181955008
      ],
      [
        "kin",
        -9.038414802321533
      ],
      [
        "▁scare",
        -9.20458049062011
      ],
      [
        "▁off",
        -9.009500143169456
      ],
      [
        "▁glo",
        -6.858729859080638
      ],
      [
        "▁daughter",
        -8.070792421223594
      ],
      [
        "▁license",
        -9.164949153563807
      ],
      [
        "▁draft",
        -9.083459478640432
      ],
      [
        "ean",
        -6.912683510075581
      ],
      [
        "▁enron",
        -6.666633476926522
      ],
      [
        "ll",
        -7.494378486819104
      ],
      [
        "▁kni",
        -8.677404735783163
      ],
      [
        "▁insect",
        -9.217858816956213
      ],
      [
        "town",
        -7.598583364221026
      ],
      [
        "▁guarantee",
        -8.611129027755467
      ],
      [
        "▁interview",
        -8.977517289680325
      ],
      [
        "ego",
        -6.75241437602735
      ],
      [
        "▁includ",
        -6.833177670588736
      ],
      [
        "▁application",
        -7.800710161798443
      ],
      [
        "▁ask",
        -5.92038103808715
      ],
      [
        "▁settlement",
        -8.536140409133335
      ],
      [
        "▁identifie",
        -8.504044139166487
      ],
      [
        "▁concept",
        -8.195374080475702
      ],
      [
        "o",
        -5.874656600078544
      ],
      [
        "▁black",
        -8.889279194876657
      ],
      [
        "h",
        -4.449069131649335
      ],
      [
        "▁climb",
        -7.986495884101737
      ],
      [
        "den",
        -7.389034121029413
      ],
      [
        "dy",
        -8.039254141798633
      ],
      [
        "as",
        -11.470631745927642
      ],
      [
        "▁???",
        -12.710326831142815
      ],
      [
        "▁achieve",
        -8.147531663921677
      ],
      [
        "ee",
        -5.7134182807115295
      ],
      [
        "am",
        -8.439299181712826
      ],
      [
        "▁hold",
        -9.043810112066787
      ],
      [
        "▁jose",
        -7.128049795742402
      ],
      [
        "▁bodi",
        -9.084117650068768
      ],
      [
        "ing",
        -4.909233382480111
      ],
      [
        "▁shopp",
        -9.08431180265642
      ],
      [
        "▁realize",
        -8.060523133677941
      ],
      [
        "▁success",
        -8.46278105745426
      ],
      [
        "▁radio",
        -9.219830350752586
      ],
      [
        "▁director",
        -8.511749913319608
      ],
      [
        "▁main",
        -6.743124854223845
      ],
      [
        "]",
        -6.107285657565928
      ],
      [
        "ur",
        -7.477857332032501
      ],
      [
        "▁chang",
        -8.008629503993417
      ],
      [
        "▁fun",
        -7.0666474588122075
      ],
      [
        "h",
        -5.561550694199752
      ],
      [
        "auti",
        -6.786796365666034
      ],
      [
        "▁transaction",
        -8.613097129415841
      ],
      [
        "▁sort",
        -7.713349633957149
      ],
      [
        "s",
        -3.5612652791976194
      ],
      [
        "▁little",
        -4.980723849944373
      ],
      [
        "▁recipient",
        -9.080391683828804
      ],
      [
        "▁putt",
        -8.158922509182144
      ],
      [
        "▁patient",
        -9.083385951759638
      ],
      [
        "▁password",
        -9.123884720131798
      ],
      [
        "▁wednesday",
        -6.714008221289247
      ],
      [
        "a",
        -4.730462131174871
      ],
      [
        "▁wake",
        -8.394018509598096
      ],
      [
        "▁bab",
        -8.268382899817947
      ],
      [
        ".....",
        -11.977458560269762
      ],
      [
        "▁pour",
        -8.070754748925946
      ],
      [
        "so",
        -4.878830597655819
      ],
      [
        "▁rail",
        -9.080691728937694
      ],
      [
        "▁bowl",
        -7.9974941474846455
      ],
      [
        "▁figure",
        -8.200549725684937
      ],
      [
        "▁extend",
        -8.23777162680596
      ],
      [
        "▁realit",
        -8.757490994768817
      ],
      [
        "▁promote",
        -8.608173117278714
      ],
      [
        "▁boy",
        -7.019460252455515
      ],
      [
        "[PAD]",
        0.0
      ],
      [
        "▁muscle",
        -8.696473256240786
      ],
      [
        "▁gym",
        -9.080716098112397
      ],
      [
        "a",
        -3.8090227617556476
      ],
      [
        "t",
        -3.1149023117862136
      ],
      [
        "▁animal",
        -7.064213837031686
      ],
      [
        "▁determine",
        -8.031306582582058
      ],
      [
        "▁abandon",
        -9.212464557526882
      ],
      [
        "▁interest",
        -7.3138463008365235
      ],
      [
        "son",
        -6.585038971921412
      ],
      [
        "▁critic",
        -8.295871385758812
      ],
      [
        "s",
        -3.2318891890768686
      ],
      [
        "▁enable",
        -8.485653695965325
      ],
      [
        "▁contribute",
        -8.721181520426633
      ],
      [
        "▁ou",
        -13.722228931311994
      ],
      [
        "▁fight",
        -7.564697244157757
      ],
      [
        "▁at",
        -5.040331045484085
      ],
      [
        "▁d",
        -8.66826635577538
      ],
      [
        "▁voice",
        -7.637528279142687
      ],
      [
        "▁201",
        -4.629308400060953
      ],
      [
        "▁feel",
        -6.135129679347383
      ],
      [
        "▁smoke",
        -9.029108372842545
      ],
      [
        "▁content",
        -8.136052123603282
      ],
      [
        "5",
        -3.9349924025881613
      ],
      [
        "▁cla",
        -8.892573238075416
      ],
      [
        "▁debt",
        -9.218993946644222
      ],
      [
        "a",
        -10.36027840626602
      ],
      [
        "▁the",
        -6.346201117748008
      ],
      [
        "▁step",
        -7.532545737177429
      ],
      [
        "▁option",
        -7.62054058722151
      ],
      [
        "f",
        -10.765301919425882
      ],
      [
        "rec",
        -7.563249920027834
      ],
      [
        "▁worker",
        -8.386702114549118
      ],
      [
        "▁se",
        -8.65281690288646
      ],
      [
        "▁mil",
        -6.2178749054446385
      ],
      [
        "▁go",
        -3.9477519069450997
      ],
      [
        "r",
        -5.4322971977959815
      ],
      [
        "ry",
        -7.1493904234452375
      ],
      [
        "▁position",
        -7.58551572668748
      ],
      [
        "wo",
        -10.600779294355887
      ],
      [
        "▁con",
        -7.505145151995536
      ],
      [
        "▁dance",
        -9.069633632679107
      ],
      [
        "▁freez",
        -9.373485835187363
      ],
      [
        "▁process",
        -6.9619146280502155
      ],
      [
        "-",
        -6.902957581157097
      ],
      [
        "▁initiative",
        -8.853065530383738
      ],
      [
        "▁when",
        -3.9318797654183104
      ],
      [
        "▁root",
        -8.239340229963744
      ],
      [
        "▁approach",
        -8.419735080563477
      ],
      [
        "▁tor",
        -6.59432015412254
      ],
      [
        "▁who",
        -5.033694261489916
      ],
      [
        "▁proceed",
        -8.64930711641317
      ],
      [
        "u",
        -12.810278406305976
      ],
      [
        "▁population",
        -7.9540082905450475
      ],
      [
        "▁fina",
        -6.594469095657319
      ],
      [
        "▁hole",
        -7.9566186601214826
      ],
      [
        "▁land",
        -7.404660408373981
      ],
      [
        "▁operate",
        -9.26664418038164
      ],
      [
        "d",
        -6.638356827931881
      ],
      [
        "▁lab",
        -8.99640587153236
      ],
      [
        "▁blood",
        -8.376891329485353
      ],
      [
        "hav",
        -7.464751966707237
      ],
      [
        "▁flower",
        -8.072579386229501
      ],
      [
        "▁unit",
        -8.169113657763326
      ],
      [
        "ation",
        -5.7578209231489765
      ],
      [
        "▁measure",
        -8.66078877166251
      ],
      [
        "o",
        -4.2167080953592855
      ],
      [
        "▁manager",
        -8.137343087061883
      ],
      [
        "▁writ",
        -7.110939147606393
      ],
      [
        "▁shal",
        -7.0325008928194634
      ],
      [
        "▁all",
        -8.40291871959889
      ],
      [
        "▁ph",
        -9.177900458162007
      ],
      [
        "▁note",
        -7.834116089145225
      ],
      [
        "mination",
        -9.088803942448342
      ],
      [
        "he",
        -6.048336889101976
      ],
      [
        "g",
        -4.631809892328854
      ],
      [
        "▁magazine",
        -9.16932449015297
      ],
      [
        "▁convert",
        -8.916979657935837
      ],
      [
        "▁dragon",
        -8.725961549724527
      ],
      [
        "▁hel",
        -7.245677028959271
      ],
      [
        "–",
        -5.905733460450745
      ],
      [
        "▁ad",
        -8.312796023265216
      ],
      [
        "amb",
        -8.749151654427784
      ],
      [
        "▁organize",
        -9.11584890900788
      ],
      [
        "log",
        -9.09133382759933
      ],
      [
        "ca",
        -7.141411780500674
      ],
      [
        "roni",
        -9.220291646439286
      ],
      [
        "tho",
        -10.448055372352602
      ],
      [
        "▁br",
        -7.532766402496921
      ],
      [
        "▁driver",
        -8.571438616704281
      ],
      [
        "ever",
        -7.831432693761964
      ],
      [
        "▁location",
        -7.827006929804737
      ],
      [
        "▁drive",
        -7.535443308692442
      ],
      [
        "▁percent",
        -8.275786676170393
      ],
      [
        "_",
        -4.735940816345124
      ],
      [
        "oit",
        -7.371655096310108
      ],
      [
        "▁pop",
        -8.31881464626104
      ],
      [
        "▁whole",
        -6.270126945865008
      ],
      [
        "▁barn",
        -8.51471468490503
      ],
      [
        "▁shape",
        -8.613112779310399
      ],
      [
        "▁definition",
        -8.960263751426002
      ],
      [
        "▁color",
        -8.649343940973306
      ],
      [
        "and",
        -11.257296211407963
      ],
      [
        "▁close",
        -7.11502240079139
      ],
      [
        "▁exchange",
        -9.252106009712
      ],
      [
        "---------------",
        -9.361054628922307
      ],
      [
        "▁where",
        -4.295607078995645
      ],
      [
        "s",
        -3.4323096462437865
      ],
      [
        "'",
        -10.925660239071423
      ],
      [
        "ay",
        -4.398672589980726
      ],
      [
        "▁boxe",
        -8.874440659223083
      ],
      [
        "▁no",
        -6.625414240065368
      ],
      [
        "complete",
        -7.441782075291681
      ],
      [
        "a",
        -1.784802076090795
      ],
      [
        "▁phoe",
        -6.470391100104839
      ],
      [
        "der",
        -7.243585232811172
      ],
      [
        "▁d",
        -7.837953371148171
      ],
      [
        "▁do",
        -3.6858831645663166
      ],
      [
        "|",
        -9.719926862834651
      ],
      [
        "▁communication",
        -8.587966616284092
      ],
      [
        "▁computer",
        -7.800936317011006
      ],
      [
        "▁milita",
        -6.883185739735111
      ],
      [
        "▁domain",
        -9.038725487086722
      ],
      [
        "ou",
        -7.021157929762656
      ],
      [
        "ive",
        -8.374109375573967
      ],
      [
        "dom",
        -9.194902981039345
      ],
      [
        "▁..........",
        -12.830818015419348
      ],
      [
        "▁unfortuna",
        -7.549589134851153
      ],
      [
        "▁vote",
        -8.191384363135551
      ],
      [
        "…",
        -9.197828780273426
      ],
      [
        "▁steal",
        -9.2840917300488
      ],
      [
        "▁birth",
        -8.512832860482522
      ],
      [
        "▁bec",
        -7.4976419712532465
      ],
      [
        "▁concern",
        -8.239254382881619
      ],
      [
        "▁pai",
        -7.895712621623877
      ],
      [
        "▁pi",
        -8.875606205518407
      ],
      [
        "▁blog",
        -9.172052559729341
      ],
      [
        "▁candidate",
        -8.853029512456077
      ],
      [
        "▁effect",
        -7.63730569847781
      ],
      [
        "▁court",
        -8.257977252391235
      ],
      [
        "7",
        -4.6006497390552505
      ],
      [
        "▁re",
        -7.705712950666447
      ],
      [
        "▁meal",
        -7.588571484021917
      ],
      [
        "▁individual",
        -8.561140155979066
      ],
      [
        "▁state",
        -6.055091385595466
      ],
      [
        "▁freedom",
        -8.086429968389753
      ],
      [
        "▁sex",
        -8.726401675517666
      ],
      [
        "▁respect",
        -9.024946751241245
      ],
      [
        "▁shorts",
        -8.977787828377705
      ],
      [
        "ial",
        -6.617192983272803
      ],
      [
        "▁document",
        -7.777317582949337
      ],
      [
        "ch",
        -5.570015910585939
      ],
      [
        "▁slippe",
        -9.155563785450259
      ],
      [
        "▁death",
        -7.343368173056893
      ],
      [
        "▁com",
        -6.276845960926166
      ],
      [
        "@",
        -7.37363482958904
      ],
      [
        "▁intend",
        -7.878414666613798
      ],
      [
        "▁litera",
        -8.853048086727451
      ],
      [
        "a",
        -4.130361687978228
      ],
      [
        "▁color",
        -7.397563484698041
      ],
      [
        "▁tag",
        -8.998908137437832
      ],
      [
        "▁form",
        -7.229122621167228
      ],
      [
        "eaten",
        -9.340308157443427
      ],
      [
        "▁service",
        -6.1586790026811995
      ],
      [
        "(",
        -4.690054248533107
      ],
      [
        "▁mumm",
        -8.316246375597277
      ],
      [
        "▁king",
        -8.566525061847617
      ],
      [
        "▁examin",
        -9.377013372104653
      ],
      [
        "▁20",
        -4.844886168365915
      ],
      [
        "u",
        -6.499139571092141
      ],
      [
        "▁yo",
        -9.274236374866302
      ],
      [
        "orrow",
        -7.122672146595612
      ],
      [
        "w",
        -6.747238093076364
      ],
      [
        "u",
        -3.4498478262533245
      ],
      [
        "▁where",
        -5.614914026485336
      ],
      [
        "▁paint",
        -8.410390060706064
      ],
      [
        "▁expression",
        -8.85313211333125
      ],
      [
        "▁flow",
        -8.690843722762539
      ],
      [
        "▁lea",
        -6.746900389964052
      ],
      [
        "▁comment",
        -9.027458153108224
      ],
      [
        "c",
        -6.066413695157375
      ],
      [
        "ame",
        -5.336550110322487
      ],
      [
        "▁hair",
        -6.961946290224792
      ],
      [
        "0",
        -3.7401553914094876
      ],
      [
        "▁no",
        -6.709205954266236
      ],
      [
        "▁o",
        -12.326071694749007
      ],
      [
        "▁apartment",
        -8.419735082546314
      ],
      [
        "▁da",
        -7.903378949837745
      ],
      [
        "4",
        -4.227577718061922
      ],
      [
        "rent",
        -5.521074983472676
      ],
      [
        "▁owner",
        -7.884099749778288
      ],
      [
        "▁gra",
        -8.822380734139827
      ],
      [
        "}",
        -12.810278406305976
      ],
      [
        "os",
        -12.71061285681801
      ],
      [
        "tional",
        -6.048598725648832
      ],
      [
        "▁back",
        -7.208301882596641
      ],
      [
        "whi",
        -12.327535299766522
      ],
      [
        "o",
        -10.13682536586598
      ],
      [
        "▁display",
        -7.855065846435074
      ],
      [
        "▁adopt",
        -8.092872173831568
      ],
      [
        "▁lip",
        -9.041291573230366
      ],
      [
        "ble",
        -5.978990578455024
      ],
      [
        "▁assum",
        -9.165025065780604
      ],
      [
        "▁desire",
        -9.216946150353202
      ],
      [
        "▁real",
        -4.874120198670135
      ],
      [
        "▁context",
        -8.511867129123324
      ],
      [
        "▁du",
        -7.062173102212168
      ],
      [
        "em",
        -13.645521914879932
      ],
      [
        "▁miss",
        -7.4404016868154
      ],
      [
        "’",
        -11.119861525668208
      ],
      [
        "▁earlie",
        -6.343694260173169
      ],
      [
        "▁fight",
        -8.556444104866852
      ],
      [
        "▁garage",
        -8.787726275326047
      ],
      [
        "▁theme",
        -8.998725109543658
      ],
      [
        "sumption",
        -8.960145236628982
      ],
      [
        "▁sav",
        -8.80767445096748
      ],
      [
        "▁taste",
        -8.03348461793793
      ],
      [
        "▁emerge",
        -9.38954857975813
      ],
      [
        "▁science",
        -8.2269697739805
      ],
      [
        "▁recall",
        -8.775931441520877
      ],
      [
        "▁make",
        -4.9131648496900775
      ],
      [
        "▁table",
        -7.183063846806957
      ],
      [
        "▁nov",
        -7.36011616109744
      ],
      [
        "▁leav",
        -5.943353927407217
      ],
      [
        "▁rock",
        -8.05554008577477
      ],
      [
        "-",
        -11.770631529841472
      ],
      [
        "▁hold",
        -6.661459958134625
      ],
      [
        "▁leave",
        -8.756191816197287
      ],
      [
        "▁sold",
        -8.854102639208472
      ],
      [
        "▁future",
        -7.789037103628768
      ],
      [
        "▁skills",
        -8.674893452609716
      ],
      [
        "▁toys",
        -8.159783368775788
      ],
      [
        "k",
        -4.9696005187939205
      ],
      [
        "▁motion",
        -9.171786867028842
      ],
      [
        "▁basil",
        -8.538931470237134
      ],
      [
        "▁mountain",
        -8.315634794968119
      ],
      [
        "▁function",
        -8.64634731649623
      ],
      [
        "▁regard",
        -7.5181281910160465
      ],
      [
        "▁another",
        -5.70473121673835
      ],
      [
        "ous",
        -7.400129012987348
      ],
      [
        "▁sense",
        -7.803351317846216
      ],
      [
        "g",
        -6.769506707442067
      ],
      [
        "x",
        -11.810278406305976
      ],
      [
        "▁filter",
        -8.221198041400385
      ],
      [
        "▁shot",
        -8.853393027899449
      ],
      [
        "▁injur",
        -8.960264418577658
      ],
      [
        "▁material",
        -8.151479862451207
      ],
      [
        "▁respond",
        -8.077348590338405
      ],
      [
        "▁socks",
        -9.213747370597716
      ],
      [
        "line",
        -8.559509135766652
      ],
      [
        "▁think",
        -9.16935776696436
      ],
      [
        "▁call",
        -5.507270510526615
      ],
      [
        "ough",
        -11.681371392484522
      ],
      [
        "▁tha",
        -2.389866280899322
      ],
      [
        "r",
        -4.802076662594015
      ],
      [
        "_",
        -4.384580076550113
      ],
      [
        "▁recommend",
        -6.895939823875512
      ],
      [
        "▁repair",
        -8.464728831185955
      ],
      [
        "about",
        -5.6244658561614616
      ],
      [
        "▁march",
        -7.222956755173649
      ],
      [
        "▁floor",
        -7.3433658249617775
      ],
      [
        "is",
        -6.944029365249887
      ],
      [
        "▁her",
        -5.255891180698642
      ],
      [
        "▁place",
        -7.751819224249484
      ],
      [
        "▁hung",
        -8.973203302111912
      ],
      [
        "▁doll",
        -8.370678581328722
      ],
      [
        "▁agenc",
        -8.536238558248685
      ],
      [
        "man",
        -6.614414434088506
      ],
      [
        "▁visit",
        -7.170082819623274
      ],
      [
        "▁camel",
        -8.276640801306392
      ],
      [
        "ful",
        -5.211743761945356
      ],
      [
        "▁off",
        -6.057483206463368
      ],
      [
        "--",
        -6.649124866636526
      ],
      [
        "▁hop",
        -9.20339929580699
      ],
      [
        "▁recommendation",
        -9.123869944701418
      ],
      [
        "▁--",
        -8.092250728111036
      ],
      [
        "▁contribution",
        -8.640123998122538
      ],
      [
        "ve",
        -8.736942800002197
      ],
      [
        "▁development",
        -7.627305677431964
      ],
      [
        "c",
        -6.218807370961619
      ],
      [
        "▁official",
        -8.203213841529262
      ],
      [
        "▁war",
        -7.268531854627152
      ],
      [
        "▁national",
        -6.406663850264038
      ],
      [
        "ign",
        -7.2091698257293855
      ],
      [
        "▁sector",
        -8.376727164926757
      ],
      [
        "eather",
        -8.465370609516151
      ],
      [
        "▁euro",
        -8.640126199585442
      ],
      [
        "ocus",
        -8.960841532056333
      ],
      [
        "▁payment",
        -8.536595842590732
      ],
      [
        "▁ira",
        -7.262090301229988
      ],
      [
        "▁?",
        -7.157961543371248
      ],
      [
        "▁stock",
        -8.492148000007814
      ],
      [
        "▁most",
        -5.67441530637149
      ],
      [
        "enti",
        -7.448158532075226
      ],
      [
        "▁sign",
        -7.9848697491259895
      ],
      [
        "other",
        -9.529450321587992
      ],
      [
        "▁relat",
        -9.299645529150311
      ],
      [
        "▁seattle",
        -6.803437356597682
      ],
      [
        "▁quarter",
        -9.052956694032652
      ],
      [
        "▁quick",
        -6.745647669671999
      ],
      [
        "ober",
        -7.368781672293722
      ],
      [
        "w",
        -5.491188161949157
      ],
      [
        "tuck",
        -8.669650365756599
      ],
      [
        "▁direct",
        -8.924893410825268
      ],
      [
        "et",
        -6.968554700762771
      ],
      [
        "one",
        -9.353132765357133
      ],
      [
        "want",
        -9.323151046085508
      ],
      [
        "th",
        -10.632252390293505
      ],
      [
        "▁charge",
        -8.49326477627249
      ],
      [
        "ate",
        -8.517381669978011
      ],
      [
        "▁beg",
        -7.530272615901482
      ],
      [
        "▁m",
        -7.860570558349283
      ],
      [
        "▁sure",
        -5.83860052409209
      ],
      [
        "h",
        -8.179398798278543
      ],
      [
        "est",
        -5.834993291504394
      ],
      [
        "▁uh",
        -11.519265493247671
      ],
      [
        "uh",
        -5.177654103719439
      ],
      [
        "▁suggest",
        -7.269309469923409
      ],
      [
        "..........",
        -12.04219046270542
      ],
      [
        "▁hearing",
        -8.923226587477386
      ],
      [
        "as",
        -4.369503812218433
      ],
      [
        "me",
        -7.279545566726051
      ],
      [
        "▁plane",
        -8.011060126255805
      ],
      [
        "▁gender",
        -8.853335522894143
      ],
      [
        "▁variet",
        -8.960510686661943
      ],
      [
        "▁owl",
        -9.175415697930676
      ],
      [
        "▁roar",
        -8.86883153585313
      ],
      [
        "▁count",
        -7.906853085517547
      ],
      [
        "at",
        -8.964835354007597
      ],
      [
        "ike",
        -3.964776749538939
      ],
      [
        "▁story",
        -7.486752696585063
      ],
      [
        "▁hope",
        -6.850381843185085
      ],
      [
        "▁congratulate",
        -9.360851869981587
      ],
      [
        "▁gap",
        -9.1737037149462
      ],
      [
        "▁excell",
        -6.7968984467651445
      ],
      [
        "s",
        -1.9627050752487971
      ],
      [
        "▁dead",
        -6.792772852962086
      ],
      [
        "f",
        -6.608821903122247
      ],
      [
        "▁presiden",
        -6.716120448889351
      ],
      [
        "▁nest",
        -9.172291796593397
      ],
      [
        "▁general",
        -6.982809582124102
      ],
      [
        "▁j",
        -8.517124255356881
      ],
      [
        "▁calculate",
        -9.310419178133518
      ],
      [
        "y",
        -2.356688656645275
      ],
      [
        "-",
        -9.206366238425398
      ],
      [
        "us",
        -7.778989704250542
      ],
      [
        "▁di",
        -8.714196175217431
      ],
      [
        "▁!!!!",
        -9.976697986141936
      ],
      [
        "abl",
        -5.607246216433183
      ],
      [
        "▁wine",
        -7.996364599712911
      ],
      [
        "shal",
        -10.060319638891782
      ],
      [
        "j",
        -11.707635305543437
      ],
      [
        "▁email",
        -9.283670887663895
      ],
      [
        "6",
        -4.586613867475252
      ],
      [
        "▁br",
        -9.147238720845868
      ],
      [
        "hem",
        -13.98800345435682
      ],
      [
        "deni",
        -9.224125945123491
      ],
      [
        "o",
        -3.5173493339713575
      ],
      [
        "▁uni",
        -6.803378237432464
      ],
      [
        "▁plant",
        -7.857294334963626
      ],
      [
        "{",
        -11.810278406305976
      ],
      [
        "▁suffer",
        -7.928009550386038
      ],
      [
        "▁breast",
        -9.217005135816757
      ],
      [
        ",000",
        -5.495299463876596
      ],
      [
        "▁pre",
        -7.769928746563558
      ],
      [
        "▁!!",
        -8.596936672797925
      ],
      [
        "▁char",
        -6.42599318507917
      ],
      [
        "▁cover",
        -8.443252732364815
      ],
      [
        "▁attitude",
        -9.123876819431771
      ],
      [
        "▁hotel",
        -7.607651031530639
      ],
      [
        "▁item",
        -7.607602143346999
      ],
      [
        "▁creat",
        -8.00466740362287
      ],
      [
        "▁speaker",
        -9.123869945045707
      ],
      [
        "▁cook",
        -9.135021460988003
      ],
      [
        "lf",
        -10.491965744396772
      ],
      [
        "in",
        -8.465254429914015
      ],
      [
        "i",
        -6.532200686243057
      ],
      [
        "▁sever",
        -6.308517651343796
      ],
      [
        "land",
        -6.180929649234821
      ],
      [
        "▁break",
        -7.4288678891284174
      ],
      [
        "▁advantage",
        -8.81969606449028
      ],
      [
        "▁mixe",
        -9.18631769402687
      ],
      [
        "▁us",
        -5.578402828284721
      ],
      [
        "▁swallow",
        -9.360870468050315
      ],
      [
        "al",
        -6.7816231592257825
      ],
      [
        "il",
        -8.027275832760731
      ],
      [
        "ry",
        -5.935161893856904
      ],
      [
        "▁spread",
        -8.61092097078106
      ],
      [
        "▁my",
        -4.589203075656636
      ],
      [
        "here",
        -5.7267247990743835
      ],
      [
        "easure",
        -8.95922014463483
      ],
      [
        "▁talk",
        -5.949477257980686
      ],
      [
        "▁vegetable",
        -8.819704383473985
      ],
      [
        "▁ya",
        -10.057489520944594
      ],
      [
        "▁cheap",
        -6.93449626107068
      ],
      [
        "ti",
        -5.086986431945127
      ],
      [
        "▁test",
        -7.462644608207331
      ],
      [
        "▁refer",
        -8.213241469647645
      ],
      [
        "▁license",
        -7.767979767270777
      ],
      [
        "p",
        -8.268707774345442
      ],
      [
        "▁re",
        -6.688884180512101
      ],
      [
        "▁puzzle",
        -9.080392369097337
      ],
      [
        "ula",
        -7.009970634005315
      ],
      [
        "▁employ",
        -8.875024277893623
      ],
      [
        "▁every",
        -8.96049418921693
      ],
      [
        "==",
        -11.055194985824043
      ],
      [
        "▁china",
        -6.612034642802275
      ],
      [
        "book",
        -8.557311059629232
      ],
      [
        "icide",
        -8.696793154669027
      ],
      [
        "▁scream",
        -9.212301766933104
      ],
      [
        "r",
        -4.3481861650490226
      ],
      [
        "-",
        -12.303800120175861
      ],
      [
        "▁end",
        -7.739997475527316
      ],
      [
        "▁goin",
        -8.291618189562122
      ],
      [
        "king",
        -9.168556985503093
      ],
      [
        "▁dolphin",
        -9.21694353777859
      ],
      [
        "▁reaction",
        -9.216945876331481
      ],
      [
        "_",
        -4.3303563868877815
      ],
      [
        "▁trial",
        -8.756702045717159
      ],
      [
        "▁bear",
        -7.413292550567692
      ],
      [
        "v",
        -5.575747967194121
      ],
      [
        "▁b",
        -6.787231881305394
      ],
      [
        "ll",
        -5.776077771667073
      ],
      [
        "▁wou",
        -10.722851391669158
      ],
      [
        "▁hard",
        -6.2698592650442055
      ],
      [
        "y",
        -4.124785020807785
      ],
      [
        "l",
        -4.5492073385446234
      ],
      [
        "had",
        -6.878629606664507
      ],
      [
        "▁profit",
        -9.16933028764747
      ],
      [
        "▁sink",
        -9.14696015504483
      ],
      [
        "▁support",
        -7.330211589948614
      ],
      [
        "▁finishe",
        -8.079018015374686
      ],
      [
        "▁tea",
        -8.005515618352948
      ],
      [
        "▁farm",
        -8.66168905096403
      ],
      [
        "▁anyway",
        -7.149342360070847
      ],
      [
        "▁type",
        -6.993080398677356
      ],
      [
        "▁green",
        -6.684628782587111
      ],
      [
        "▁hu",
        -5.311218427794809
      ],
      [
        "▁ra",
        -7.264634109176454
      ],
      [
        "▁detr",
        -7.365578977525217
      ],
      [
        "▁moon",
        -8.400073716858397
      ],
      [
        "▁b",
        -7.312066243997634
      ],
      [
        "▁cigarette",
        -9.038725180902146
      ],
      [
        "▁.......",
        -13.318608259993672
      ],
      [
        "!!!!!!!!!!!!!!",
        -12.258495128023615
      ],
      [
        "▁stream",
        -9.127246834577521
      ],
      [
        "▁with",
        -4.952485445949646
      ],
      [
        "or",
        -6.34535778142382
      ],
      [
        "▁eliminate",
        -9.066763360245695
      ],
      [
        "▁dinosaur",
        -7.9133275646061625
      ],
      [
        "▁objective",
        -8.923805520080826
      ],
      [
        "▁young",
        -6.413958168445247
      ],
      [
        "▁t",
        -8.151778055974344
      ],
      [
        "in",
        -7.051805178413207
      ],
      [
        "▁b",
        -12.241560312219251
      ],
      [
        "▁old",
        -5.586906487994287
      ],
      [
        "▁area",
        -6.633506172057675
      ],
      [
        "▁enter",
        -7.664202702451771
      ],
      [
        "among",
        -10.114427603570839
      ],
      [
        "▁attack",
        -7.996132152971002
      ],
      [
        "▁wait",
        -6.4435862654354095
      ],
      [
        "ard",
        -7.346491139930017
      ],
      [
        "▁lead",
        -8.918931910255136
      ],
      [
        "p",
        -6.1429944473577205
      ],
      [
        "▁as",
        -5.1827083301970625
      ],
      [
        "www",
        -6.037551421693645
      ],
      [
        "▁impress",
        -9.443579547563832
      ],
      [
        "s",
        -4.934659831115518
      ],
      [
        "▁friendl",
        -6.990607316596084
      ],
      [
        "▁c",
        -7.194865397578264
      ],
      [
        "got",
        -9.258822941761718
      ],
      [
        "her",
        -5.970249124020138
      ],
      [
        "ch",
        -5.743182008517046
      ],
      [
        "pos",
        -9.971496173792502
      ],
      [
        "▁universit",
        -6.8235898416761405
      ],
      [
        "▁example",
        -6.887981254285923
      ],
      [
        "c",
        -5.089017709022672
      ],
      [
        "▁kne",
        -7.241416540283397
      ],
      [
        "▁becom",
        -9.051990026645438
      ],
      [
        "▁origin",
        -8.977340488016292
      ],
      [
        "m",
        -6.7697770087744225
      ],
      [
        "▁dc",
        -6.315017702654553
      ],
      [
        "▁enem",
        -8.85305883298894
      ],
      [
        "side",
        -8.980075690553761
      ],
      [
        "▁declare",
        -8.58821911898314
      ],
      [
        "▁view",
        -8.258169616922892
      ],
      [
        "▁model",
        -7.942408274525652
      ],
      [
        "▁couple",
        -7.514746374831105
      ],
      [
        "▁ha",
        -4.961582746137714
      ],
      [
        "ian",
        -8.886281959573067
      ],
      [
        "um",
        -7.368975224421662
      ],
      [
        "me",
        -6.250742814045079
      ],
      [
        "__________",
        -11.310280138036862
      ],
      [
        "▁social",
        -6.614955515202298
      ],
      [
        "▁answer",
        -7.765823468089585
      ],
      [
        "▁la",
        -6.234224018822062
      ],
      [
        "▁be",
        -5.041130330655389
      ],
      [
        "▁study",
        -7.4287601947056805
      ],
      [
        "u",
        -5.9829718967998025
      ],
      [
        "▁company",
        -7.159175805174211
      ],
      [
        "▁ladder",
        -9.128784176178105
      ],
      [
        "▁coin",
        -9.17480565591104
      ],
      [
        "▁damage",
        -8.667902776144157
      ],
      [
        "every",
        -9.010438236282951
      ],
      [
        "▁programme",
        -7.940340874201702
      ],
      [
        "world",
        -7.278688094485754
      ],
      [
        "▁arrive",
        -6.562010512051669
      ],
      [
        "▁jump",
        -7.5777361657240965
      ],
      [
        "ound",
        -5.61124075279864
      ],
      [
        "▁smile",
        -9.168788834185621
      ],
      [
        "ish",
        -6.666207458055393
      ],
      [
        "▁look",
        -4.774514457323838
      ],
      [
        "w",
        -5.189900606426425
      ],
      [
        "▁seat",
        -7.78622778798273
      ],
      [
        "▁far",
        -5.853635313577881
      ],
      [
        "morali",
        -9.033316275194254
      ],
      [
        "▁bank",
        -8.377275839643652
      ],
      [
        "▁god",
        -9.044494760744112
      ],
      [
        "▁facilit",
        -8.561140157760299
      ],
      [
        "▁assure",
        -9.165045670762654
      ],
      [
        "dr.",
        -7.36044500395861
      ],
      [
        "▁danc",
        -8.619351382735312
      ],
      [
        "▁base",
        -7.837463717445983
      ],
      [
        "▁create",
        -6.916483019848426
      ],
      [
        "▁n",
        -6.7457576266198265
      ],
      [
        "▁earlie",
        -7.181797654149654
      ],
      [
        "cour",
        -7.539159453764968
      ],
      [
        "▁defeat",
        -9.024964534526536
      ],
      [
        "most",
        -5.889693681307584
      ],
      [
        "what",
        -6.6959009818164335
      ],
      [
        "▁on",
        -11.41378886164738
      ],
      [
        "▁short",
        -6.594763792945896
      ],
      [
        "▁discuss",
        -7.343250401243637
      ],
      [
        "▁move",
        -6.640303779448729
      ],
      [
        "▁manag",
        -9.33288579656999
      ],
      [
        "▁provision",
        -8.464684575872088
      ],
      [
        "▁midd",
        -8.34351613913224
      ],
      [
        "▁reach",
        -7.623129132054625
      ],
      [
        "▁adjust",
        -8.81943056587951
      ],
      [
        "▁b",
        -8.653977413552017
      ],
      [
        "▁salt",
        -8.316899565779925
      ],
      [
        "▁way",
        -5.50502050497518
      ],
      [
        "▁drop",
        -9.04181994981553
      ],
      [
        "▁book",
        -6.396482390770305
      ],
      [
        "st",
        -12.50667684532212
      ],
      [
        "ft",
        -6.965664792887015
      ],
      [
        ".",
        -12.707635305583393
      ],
      [
        "men",
        -8.575510800501588
      ],
      [
        "o'",
        -8.688547346441494
      ],
      [
        "h",
        -12.810278406305953
      ],
      [
        "▁customer",
        -7.382587718953526
      ],
      [
        ".......",
        -12.587104664338755
      ],
      [
        "▁reject",
        -9.212291352067611
      ],
      [
        "ado",
        -9.176192457724936
      ],
      [
        "▁compete",
        -9.235698832012206
      ],
      [
        "herself",
        -11.97634857643032
      ],
      [
        "▁among",
        -7.2254285659457125
      ],
      [
        "▁believe",
        -6.538158286587613
      ],
      [
        "▁wo",
        -7.267365822071618
      ],
      [
        "▁lo",
        -6.736748336690295
      ],
      [
        "▁categor",
        -8.787438293266323
      ],
      [
        "▁interview",
        -8.102322380121585
      ],
      [
        "▁consumer",
        -8.928115725001415
      ],
      [
        "▁setting",
        -8.853650404090555
      ],
      [
        "▁oct",
        -7.141142473970357
      ],
      [
        "p",
        -5.293431670462068
      ],
      [
        "▁locate",
        -8.166922333003015
      ],
      [
        "▁gain",
        -8.357524823784749
      ],
      [
        "▁lock",
        -8.433810179311402
      ],
      [
        "b",
        -9.077941439510095
      ],
      [
        "ro",
        -9.323176805322918
      ],
      [
        "x",
        -12.039036616560043
      ],
      [
        "▁employ",
        -8.639894297964336
      ],
      [
        "▁199",
        -5.317256283957202
      ],
      [
        "▁tha",
        -7.359273592220826
      ],
      [
        "▁",
        -0.7082085629404791
      ],
      [
        "▁slid",
        -8.839298793469695
      ],
      [
        "▁contract",
        -8.184076471032185
      ],
      [
        "sing",
        -8.692224253441063
      ],
      [
        "▁uncle",
        -8.6130988394805
      ],
      [
        "‘",
        -9.32263420951717
      ],
      [
        "▁swim",
        -8.318377595961834
      ],
      [
        "u",
        -5.646689165622992
      ],
      [
        "ed",
        -2.876766076595114
      ],
      [
        "▁become",
        -6.846957219988554
      ],
      [
        "▁fina",
        -7.557620854095129
      ],
      [
        "▁educat",
        -8.055407797618354
      ],
      [
        "ium",
        -9.014128226028207
      ],
      [
        "▁time",
        -5.0334879187466575
      ],
      [
        "ist",
        -7.24282332385988
      ],
      [
        "▁competition",
        -8.66806701648105
      ],
      [
        "▁thre",
        -8.490099273367072
      ],
      [
        "▁board",
        -9.283379317465256
      ],
      [
        "▁dial",
        -9.286248255548502
      ],
      [
        "ition",
        -8.98917662145875
      ],
      [
        "▁a",
        -6.484556626444801
      ],
      [
        "▁goat",
        -8.923842016975591
      ],
      [
        "▁rain",
        -8.276687297536638
      ],
      [
        "▁coffee",
        -7.849203950634448
      ],
      [
        "▁gre",
        -8.641113811258577
      ],
      [
        "▁local",
        -6.57751425338309
      ],
      [
        "▁bulb",
        -8.998727861188419
      ],
      [
        "▁present",
        -8.207153306155334
      ],
      [
        "▁p",
        -7.0739428297070654
      ],
      [
        "▁addiction",
        -9.123870740802033
      ],
      [
        "os",
        -12.781528412373152
      ],
      [
        "▁up",
        -5.004285843445531
      ],
      [
        "▁us",
        -7.3584463314768165
      ],
      [
        "ched",
        -9.337331019732819
      ],
      [
        "ent",
        -6.026292739638932
      ],
      [
        "st.",
        -6.038947423780039
      ],
      [
        "▁duck",
        -8.365628947512553
      ],
      [
        "▁imagine",
        -7.707056211457395
      ],
      [
        "▁expert",
        -8.18567096301599
      ],
      [
        "▁operation",
        -8.39709750128522
      ],
      [
        "ary",
        -8.994954858971788
      ],
      [
        "▁to",
        -4.877779908052065
      ],
      [
        "▁bal",
        -5.2300750565320575
      ],
      [
        "▁earl",
        -6.294145863916422
      ],
      [
        "▁bed",
        -7.141218186935178
      ],
      [
        "mp",
        -8.561430826518587
      ],
      [
        "▁asset",
        -9.125329721614333
      ],
      [
        "▁nine",
        -5.672094930765971
      ],
      [
        "re",
        -8.421918623493923
      ],
      [
        "▁counterpart",
        -8.667901870700764
      ],
      [
        "self",
        -5.973973300353701
      ],
      [
        "▁vary",
        -9.359706773186014
      ],
      [
        "▁bedroom",
        -8.697423365628289
      ],
      [
        "▁ju",
        -7.014867216967266
      ],
      [
        "▁burst",
        -9.360641045467792
      ],
      [
        "t",
        -4.857854609021999
      ],
      [
        "ce",
        -6.716123088150296
      ],
      [
        "▁judgment",
        -9.123869982100748
      ],
      [
        "▁advance",
        -9.410256147462524
      ],
      [
        "▁je",
        -8.718464131816196
      ],
      [
        "▁post",
        -8.180190563541796
      ],
      [
        "▁pro",
        -8.176086083262977
      ],
      [
        "▁rug",
        -8.92323814933704
      ],
      [
        "▁spring",
        -8.671751084428612
      ],
      [
        "▁thank",
        -6.722052781598699
      ],
      [
        "head",
        -9.05129821171414
      ],
      [
        "▁insight",
        -9.123869944823143
      ],
      [
        "ent",
        -8.214593509377867
      ],
      [
        "---",
        -10.542734627330931
      ],
      [
        "▁propert",
        -7.4131640324254855
      ],
      [
        "▁street",
        -7.3893489104263965
      ],
      [
        "▁best",
        -5.572959491080885
      ],
      [
        "▁dirt",
        -8.787455502718792
      ],
      [
        "▁b",
        -6.17573805327475
      ],
      [
        "▁reference",
        -9.376456987727982
      ],
      [
        "▁thr",
        -10.763747459831114
      ],
      [
        "▁mom",
        -6.897876860616452
      ],
      [
        "him",
        -8.090238517203447
      ],
      [
        "▁assist",
        -8.6107164910709
      ],
      [
        "▁shoe",
        -7.413234866447684
      ],
      [
        "▁house",
        -6.352613214970077
      ],
      [
        "ance",
        -6.843591265163251
      ],
      [
        "ember",
        -6.20100111500425
      ],
      [
        "▁row",
        -8.627311835288015
      ],
      [
        "▁register",
        -9.083751068424034
      ],
      [
        "▁s",
        -12.226333961823995
      ],
      [
        ")",
        -4.681454226988154
      ],
      [
        "▁report",
        -7.014096727235549
      ],
      [
        "▁wan",
        -5.44162962435048
      ],
      [
        "ther",
        -5.232010347024702
      ],
      [
        "▁practice",
        -8.376719353628014
      ],
      [
        "▁trail",
        -9.118689561025066
      ],
      [
        "ught",
        -8.207422363822904
      ],
      [
        "▁grow",
        -6.92731896607752
      ],
      [
        "▁ye",
        -7.575686894615634
      ],
      [
        "▁wed",
        -8.58751825374781
      ],
      [
        "▁island",
        -7.57875765328162
      ],
      [
        "▁m",
        -7.008065295960894
      ],
      [
        "t",
        -2.4878868855370015
      ],
      [
        "▁action",
        -7.3292821016335585
      ],
      [
        "▁soup",
        -9.123906814053967
      ],
      [
        "▁system",
        -6.993077346444125
      ],
      [
        "▁stretch",
        -8.470534988847277
      ],
      [
        "▁bye",
        -9.135951588317361
      ],
      [
        "_",
        -5.969535083399892
      ],
      [
        "tha",
        -9.346659201024885
      ],
      [
        "▁boom",
        -8.853038175197817
      ],
      [
        "m",
        -3.877617167919065
      ],
      [
        "▁touch",
        -8.923433775887512
      ],
      [
        "▁up",
        -8.336977202845489
      ],
      [
        "▁observe",
        -8.234673799315816
      ],
      [
        "▁school",
        -6.319918365273971
      ],
      [
        "tra",
        -8.956646271249955
      ],
      [
        "▁hire",
        -8.685795281176249
      ],
      [
        "▁dis",
        -9.010239066066248
      ],
      [
        "pear",
        -6.47487379413309
      ],
      [
        "▁component",
        -8.613096972182158
      ],
      [
        "▁got",
        -5.199521392430971
      ],
      [
        "▁white",
        -6.200269289236962
      ],
      [
        "▁bel",
        -7.316235749878892
      ],
      [
        "▁handl",
        -9.298413936634732
      ],
      [
        "and",
        -5.572005516136555
      ],
      [
        "p",
        -6.326571753016403
      ],
      [
        "ea",
        -5.383019325135234
      ],
      [
        "▁funn",
        -6.8697663908629885
      ],
      [
        "▁line",
        -6.69490420323131
      ],
      [
        "▁desk",
        -8.08663677729701
      ],
      [
        "▁cent",
        -9.220380689968312
      ],
      [
        "▁surger",
        -9.085279867879681
      ],
      [
        "▁w",
        -7.847448350576819
      ],
      [
        "ought",
        -6.8320619203240085
      ],
      [
        "▁bomb",
        -8.664939839333261
      ],
      [
        "▁mark",
        -8.602526147128756
      ],
      [
        "▁doctor",
        -7.66802303774338
      ],
      [
        "▁new",
        -4.7645933626070915
      ],
      [
        "▁surround",
        -8.139335840369649
      ],
      [
        "▁behavior",
        -8.46468457431364
      ],
      [
        "▁in",
        -5.990964429098376
      ],
      [
        "▁stick",
        -8.470154685681408
      ],
      [
        "sburg",
        -4.9979293475784194
      ],
      [
        "b",
        -12.153426364471347
      ],
      [
        "ves",
        -8.373917024390437
      ],
      [
        "▁employee",
        -8.464877412472033
      ],
      [
        "▁file",
        -9.438616817551106
      ],
      [
        "▁wild",
        -8.939851203304793
      ],
      [
        "▁term",
        -7.350059746022408
      ],
      [
        "▁follow",
        -6.362041922472535
      ],
      [
        "▁lower",
        -9.36524903874381
      ],
      [
        "▁train",
        -6.987818898136919
      ],
      [
        "▁close",
        -6.872122316633374
      ],
      [
        "▁message",
        -7.668486863308202
      ],
      [
        "in",
        -5.083038796106619
      ],
      [
        "come",
        -8.677123893348812
      ],
      [
        "ism",
        -7.472621997880676
      ],
      [
        "light",
        -8.505484290822253
      ],
      [
        "▁matter",
        -8.916816432592363
      ],
      [
        "o",
        -1.7919375046051371
      ],
      [
        "▁fund",
        -7.831147418397853
      ],
      [
        "▁sea",
        -7.316940977426712
      ],
      [
        "▁close",
        -7.658641754651466
      ],
      [
        "▁expand",
        -8.318777532004205
      ],
      [
        "▁dance",
        -8.790815007511728
      ],
      [
        "▁cu",
        -9.169193689893886
      ],
      [
        "▁herself",
        -8.8392699528665
      ],
      [
        "be",
        -6.697446996375136
      ],
      [
        "▁level",
        -7.321140746549115
      ],
      [
        "▁lives",
        -8.02548169330824
      ],
      [
        "▁attend",
        -7.72235016362234
      ],
      [
        "▁metal",
        -8.46514143867087
      ],
      [
        "--------------",
        -9.810432193692524
      ],
      [
        "ide",
        -9.177341108546004
      ],
      [
        "▁opene",
        -8.749317240528171
      ],
      [
        "▁dress",
        -8.469099679585577
      ],
      [
        "inc",
        -7.751841047967409
      ],
      [
        "speci",
        -6.56809779980563
      ],
      [
        "▁notion",
        -9.218018960954858
      ],
      [
        "▁for",
        -3.676327704226436
      ],
      [
        "▁over",
        -8.25197773416436
      ],
      [
        "ental",
        -6.85117598314483
      ],
      [
        "l",
        -2.7651899767306247
      ],
      [
        "▁bee",
        -8.770994446920016
      ],
      [
        "time",
        -8.13541454372015
      ],
      [
        "▁diffe",
        -5.787677870707446
      ],
      [
        "▁dirt",
        -7.284134994020468
      ],
      [
        "▁grandmother",
        -8.239252801178928
      ],
      [
        "▁carry",
        -7.4452905083337955
      ],
      [
        "he",
        -7.549205452271606
      ],
      [
        "▁miles",
        -8.581393473223175
      ],
      [
        "ern",
        -6.849387477125365
      ],
      [
        "▁=",
        -10.684975132019087
      ],
      [
        "way",
        -8.266928592843282
      ],
      [
        "▁mis",
        -8.779490857735354
      ],
      [
        "on",
        -5.903321937222155
      ],
      [
        "▁guideline",
        -8.923318864321372
      ],
      [
        "thin",
        -5.708700200719424
      ],
      [
        "▁debate",
        -8.667951627681566
      ],
      [
        "on",
        -6.905645557616412
      ],
      [
        "▁feature",
        -8.853030808034571
      ],
      [
        "▁list",
        -5.604972914754906
      ],
      [
        "▁use",
        -7.267892017966104
      ],
      [
        "▁boot",
        -8.336177477453067
      ],
      [
        "▁possibilit",
        -8.819698693404654
      ],
      [
        "un",
        -11.720693959703445
      ],
      [
        "▁pizza",
        -8.239267472957323
      ],
      [
        "cial",
        -6.719047619607357
      ],
      [
        "_",
        -5.537490390474223
      ],
      [
        "▁6",
        -4.915061083533738
      ],
      [
        "▁sh",
        -8.27688201579792
      ],
      [
        "any",
        -8.672174552810601
      ],
      [
        "▁operator",
        -8.696852753789948
      ],
      [
        "▁feed",
        -7.955860455662812
      ],
      [
        "ies",
        -5.048707314614969
      ],
      [
        "▁force",
        -8.278667594786835
      ],
      [
        "4",
        -11.925660239071421
      ],
      [
        "▁thi",
        -3.955288045893009
      ],
      [
        "▁tw",
        -3.110490919801345
      ],
      [
        "▁sat",
        -7.888505393270265
      ],
      [
        "dia",
        -7.541339966809506
      ],
      [
        "▁writer",
        -7.998063626797059
      ],
      [
        "???????????????",
        -11.531210826536753
      ],
      [
        "access",
        -7.293715939656362
      ],
      [
        "nature",
        -8.174529554141163
      ],
      [
        "-",
        -4.310181122036845
      ],
      [
        "▁peace",
        -7.657818625275035
      ],
      [
        "▁record",
        -7.590202869594289
      ],
      [
        "be",
        -8.086772398805063
      ],
      [
        "al",
        -4.268364097368864
      ],
      [
        "real",
        -7.172033070632411
      ],
      [
        "▁di",
        -7.278837625506096
      ],
      [
        "u",
        -6.695873815508354
      ],
      [
        "▁modify",
        -9.146879595428274
      ],
      [
        "▁airline",
        -7.025502534330493
      ],
      [
        "not",
        -11.552459937114449
      ],
      [
        "doc",
        -8.597775714188025
      ],
      [
        "y",
        -4.5693853521597925
      ],
      [
        "▁w",
        -7.600125098473432
      ],
      [
        "▁prett",
        -6.0774269011538085
      ],
      [
        "▁bag",
        -7.431370248626756
      ],
      [
        "▁launch",
        -8.712884229565555
      ],
      [
        "▁transmit",
        -9.360635752733137
      ],
      [
        "hin",
        -7.547082465230565
      ],
      [
        "th",
        -6.309957278833341
      ],
      [
        "▁base",
        -6.930850999991949
      ],
      [
        "▁wrong",
        -6.889840448844239
      ],
      [
        "▁exchange",
        -8.819696765247082
      ],
      [
        "▁yellow",
        -6.965176970186363
      ],
      [
        "ha",
        -6.934556625686796
      ],
      [
        "ence",
        -7.176978326991938
      ],
      [
        "z",
        -8.709992816899392
      ],
      [
        "▁regime",
        -9.038725512274777
      ],
      [
        "e",
        -4.756996595538276
      ],
      [
        "▁body",
        -7.683297788188867
      ],
      [
        "d",
        -6.06173743063176
      ],
      [
        "▁***",
        -11.706988063870577
      ],
      [
        "▁hands",
        -7.84084925320845
      ],
      [
        "r",
        -5.705603667194821
      ],
      [
        "▁four",
        -4.645122731153732
      ],
      [
        "i",
        -5.57681562265097
      ],
      [
        "dden",
        -9.234145617308972
      ],
      [
        "▁tha",
        -6.391787174921177
      ],
      [
        "▁roman",
        -6.285402666758411
      ],
      [
        "l",
        -4.943432235573655
      ],
      [
        "▁one",
        -5.634758520204922
      ],
      [
        "▁'",
        -9.052455780862363
      ],
      [
        "n",
        -8.248483443981259
      ],
      [
        "▁define",
        -8.349527247807606
      ],
      [
        "▁space",
        -7.191348025076549
      ],
      [
        "▁analyst",
        -8.828343842181374
      ],
      [
        "▁ensure",
        -7.629783506026658
      ],
      [
        "▁scene",
        -8.51176739934912
      ],
      [
        "▁",
        -1.2052669954522912
      ],
      [
        "▁bas",
        -8.497951332467174
      ],
      [
        "fe",
        -8.44210562283323
      ],
      [
        "on",
        -6.870845246803458
      ],
      [
        "▁few",
        -5.7598031210673275
      ],
      [
        "▁complete",
        -8.078426580578027
      ],
      [
        "s",
        -3.9323488869734176
      ],
      [
        "▁evolve",
        -9.219395974338203
      ],
      [
        "▁difference",
        -7.6080850461007525
      ],
      [
        "al",
        -7.304549979831503
      ],
      [
        "id",
        -8.85045198564125
      ],
      [
        "i",
        -4.958782707846554
      ],
      [
        "y",
        -7.530712123467335
      ],
      [
        "ch",
        -7.867358473290685
      ],
      [
        "▁chose",
        -8.649066045350407
      ],
      [
        "ul",
        -10.976443136227793
      ],
      [
        "▁resource",
        -8.295870183493776
      ],
      [
        "▁region",
        -7.788957528186415
      ],
      [
        "▁state",
        -6.817692271492893
      ],
      [
        "in",
        -5.972258428642649
      ],
      [
        "i",
        -10.976929076213445
      ],
      [
        "!!!!!!!",
        -11.238141621059212
      ],
      [
        "▁sign",
        -7.643620500304603
      ],
      [
        "▁conclude",
        -8.698352782806548
      ],
      [
        "▁cream",
        -8.61376063903139
      ],
      [
        "▁decision",
        -7.63734364821517
      ],
      [
        "n",
        -3.9840298251398396
      ],
      [
        "▁bri",
        -7.255424553734033
      ],
      [
        "▁class",
        -6.435839001181261
      ],
      [
        "▁studie",
        -8.538202096197887
      ],
      [
        "▁hav",
        -6.718104064181433
      ],
      [
        "▁",
        -2.5121035408022987
      ],
      [
        "▁lik",
        -5.142726697149617
      ],
      [
        "tractor",
        -8.891746071782972
      ],
      [
        "▁twist",
        -9.28344110355502
      ],
      [
        "▁storm",
        -8.729885739033914
      ],
      [
        "▁’",
        -6.974791146606354
      ],
      [
        "▁hi",
        -8.633197166119894
      ],
      [
        "▁tomato",
        -9.169339671254274
      ],
      [
        "some",
        -9.946535093477788
      ],
      [
        "ice",
        -7.594983220700395
      ],
      [
        "p",
        -6.379676684275524
      ],
      [
        "▁park",
        -9.212673940397465
      ],
      [
        "▁participant",
        -8.69647835588712
      ],
      [
        "along",
        -10.452772586670008
      ],
      [
        "+",
        -11.925660239071421
      ],
      [
        "th",
        -8.014660046279783
      ],
      [
        "▁etc",
        -7.824802520377602
      ],
      [
        "▁grow",
        -7.940441023343274
      ],
      [
        "▁obs",
        -9.21708271862314
      ],
      [
        "c",
        -11.925660239071421
      ],
      [
        "▁medicine",
        -8.923226637889027
      ],
      [
        "▁power",
        -7.272494128467484
      ],
      [
        "u",
        -6.759958710825652
      ],
      [
        "w",
        -3.847734666333153
      ],
      [
        "▁be",
        -6.418192732652731
      ],
      [
        "▁deliver",
        -8.049358438413172
      ],
      [
        "▁cha",
        -8.659152392222111
      ],
      [
        "▁de",
        -6.027779167896615
      ],
      [
        "rove",
        -8.69355978323242
      ],
      [
        "▁stop",
        -6.638462490604868
      ],
      [
        "▁doughnut",
        -8.960272485267838
      ],
      [
        "▁‘",
        -9.549274777276095
      ],
      [
        "▁_",
        -8.58743407694508
      ],
      [
        "▁study",
        -7.777318078017562
      ],
      [
        "▁how",
        -3.9468069168529585
      ],
      [
        "▁poet",
        -8.536914196757197
      ],
      [
        "▁abilit",
        -8.366522322577062
      ],
      [
        "▁button",
        -7.657751460610127
      ],
      [
        "▁other",
        -7.476001329729437
      ],
      [
        "▁ex",
        -7.967285712976985
      ],
      [
        "▁ever",
        -12.15183873490786
      ],
      [
        "▁note",
        -8.02542655364769
      ],
      [
        "▁lego",
        -8.426974812277754
      ],
      [
        "▁claim",
        -7.677906900628578
      ],
      [
        "▁blue",
        -6.5873585788894955
      ],
      [
        "▁situation",
        -7.721124396179961
      ],
      [
        "▁stillman",
        -7.264076336258403
      ],
      [
        "▁pressure",
        -8.787813494265828
      ],
      [
        "▁p",
        -9.237570785962834
      ],
      [
        "▁mr",
        -7.014939835080129
      ],
      [
        "▁altho",
        -5.5250653344630365
      ],
      [
        "▁melt",
        -9.28704839047327
      ],
      [
        "s",
        -3.279426749827511
      ],
      [
        "▁compare",
        -8.265165019192352
      ],
      [
        "▁16",
        -5.674082561475753
      ],
      [
        "f",
        -11.770631529841472
      ],
      [
        "▁cal",
        -9.187948034539252
      ],
      [
        "ling",
        -8.656944928295674
      ],
      [
        "▁acknowledge",
        -8.931292194758996
      ],
      [
        "way",
        -7.413310175314248
      ],
      [
        "▁s",
        -7.3226938615224135
      ],
      [
        "le",
        -6.457472216553487
      ],
      [
        "▁join",
        -7.607559899605136
      ],
      [
        "▁vet",
        -8.51337779976204
      ],
      [
        "▁referr",
        -8.883806051214275
      ],
      [
        "▁food",
        -6.213060860252179
      ],
      [
        "▁t",
        -7.159435104150309
      ],
      [
        "house",
        -8.931180413125478
      ],
      [
        "▁g",
        -6.747886763049845
      ],
      [
        "▁crime",
        -8.85303165273744
      ],
      [
        "▁re",
        -7.5452357933588035
      ],
      [
        "▁sandwich",
        -8.376719354739883
      ],
      [
        ".",
        -6.938746849327971
      ],
      [
        "v",
        -11.925660239071421
      ],
      [
        "our",
        -7.25248867554389
      ],
      [
        "??????",
        -13.834852348222816
      ],
      [
        "▁secret",
        -9.080240977205818
      ],
      [
        "w",
        -10.925660239071423
      ],
      [
        "▁on",
        -2.700071180263146
      ],
      [
        "to",
        -8.826207245373501
      ],
      [
        "b",
        -4.989213884672491
      ],
      [
        "▁turn",
        -7.996151635643568
      ],
      [
        "▁cause",
        -8.151481569636447
      ],
      [
        "▁stil",
        -5.179362880414711
      ],
      [
        "▁qualit",
        -7.437607515917092
      ],
      [
        "▁jew",
        -9.08070588184273
      ],
      [
        "▁fri",
        -7.673051705287245
      ],
      [
        "▁implement",
        -8.187586598347401
      ],
      [
        "ed",
        -6.795748025181247
      ],
      [
        "abou",
        -8.011008626944378
      ],
      [
        "▁friday",
        -6.952953189626692
      ],
      [
        "▁try",
        -5.699561699790409
      ],
      [
        "▁release",
        -8.105118794128881
      ],
      [
        "▁argue",
        -8.347926044747924
      ],
      [
        "▁tip",
        -8.960367179529511
      ],
      [
        "ting",
        -8.398526626205726
      ],
      [
        "hin",
        -10.355812176309545
      ],
      [
        "s",
        -2.358705181573896
      ],
      [
        "kee",
        -6.30219827073261
      ],
      [
        "▁nail",
        -8.613228145572283
      ],
      [
        "▁custom",
        -9.117886138625346
      ],
      [
        "ago",
        -6.457454052720728
      ],
      [
        "▁import",
        -8.725898698859437
      ],
      [
        "▁jeff",
        -7.355750548638969
      ],
      [
        "▁union",
        -8.9620343025676
      ],
      [
        "▁defin",
        -9.375465394046818
      ],
      [
        "▁on",
        -5.373374977856899
      ],
      [
        "v",
        -7.189853336756621
      ],
      [
        "▁circle",
        -8.239252803639864
      ],
      [
        "ate",
        -7.545575350373912
      ],
      [
        "ell",
        -7.1683916806056445
      ],
      [
        "▁laugh",
        -7.709788335891905
      ],
      [
        "phone",
        -8.728371290137284
      ],
      [
        "am",
        -10.163570533105498
      ],
      [
        "▁business",
        -6.864580627149186
      ],
      [
        ",",
        -12.303800120175861
      ],
      [
        "▁size",
        -8.040279487103879
      ],
      [
        "▁bunn",
        -8.640832405419772
      ],
      [
        "▁south",
        -8.819705341495732
      ],
      [
        "▁wander",
        -8.971707719183435
      ],
      [
        "▁shop",
        -7.733025084514147
      ],
      [
        "▁take",
        -4.974076290965646
      ],
      [
        "▁limit",
        -8.544266779409964
      ],
      [
        "nder",
        -9.164028849285986
      ],
      [
        "▁web",
        -7.874375878046247
      ],
      [
        "▁carrie",
        -8.115915210446387
      ],
      [
        "be",
        -5.8753117268286665
      ],
      [
        "•",
        -12.810278406305976
      ],
      [
        "▁nove",
        -8.8533477689531
      ],
      [
        "▁forward",
        -6.90085416688369
      ],
      [
        "▁to",
        -7.774833365148701
      ],
      [
        "▁pushe",
        -9.339702222344467
      ],
      [
        "▁stop",
        -7.914255812273738
      ],
      [
        "nt",
        -6.784027279257939
      ],
      [
        "1",
        -3.8535279155612745
      ],
      [
        "▁seem",
        -6.245683384999831
      ],
      [
        "▁wel",
        -5.239750120745514
      ],
      [
        "rican",
        -6.621653965549827
      ],
      [
        "▁per",
        -6.408765002859662
      ],
      [
        "full",
        -6.272233315765132
      ],
      [
        "p",
        -6.261203873790647
      ],
      [
        "▁tourist",
        -8.39882020912513
      ],
      [
        "in",
        -6.821546047507693
      ],
      [
        "▁lady",
        -8.623778655961548
      ],
      [
        "▁head",
        -8.281523441147987
      ],
      [
        "▁feed",
        -8.908070109428966
      ],
      [
        "o",
        -6.877907499943204
      ],
      [
        "▁player",
        -8.327969841936287
      ],
      [
        "▁staff",
        -7.4458154894044215
      ],
      [
        "▁hum",
        -9.127025916394324
      ],
      [
        "▁analys",
        -8.234448528554164
      ],
      [
        "▁societ",
        -7.60760076739078
      ],
      [
        "e",
        -4.069614543994382
      ],
      [
        "▁dropp",
        -8.034717269481467
      ],
      [
        "▁knee",
        -8.887543496794647
      ],
      [
        "▁7",
        -5.116752489530166
      ],
      [
        "wau",
        -6.330383459265543
      ],
      [
        "▁de",
        -7.133759330193251
      ],
      [
        "▁department",
        -8.397995948961373
      ],
      [
        "▁t",
        -7.45890416965616
      ],
      [
        "▁electrici",
        -8.923226442855443
      ],
      [
        "▁garden",
        -8.221071439506012
      ],
      [
        "▁their",
        -5.253175569214527
      ],
      [
        "▁i",
        -8.414006726853913
      ],
      [
        "▁selection",
        -9.038725031528884
      ],
      [
        "▁install",
        -8.573909449201338
      ],
      [
        "ail",
        -5.888541626445163
      ],
      [
        "▁fall",
        -6.9143533266820105
      ],
      [
        "▁glass",
        -7.651089530657507
      ],
      [
        "▁",
        -1.4632797141835407
      ],
      [
        "▁couch",
        -9.080520989673364
      ],
      [
        "▁bec",
        -3.613577850939203
      ],
      [
        "▁breakfast",
        -7.647406688366276
      ],
      [
        "▁machine",
        -8.23925300745611
      ],
      [
        "less",
        -6.3768290441130455
      ],
      [
        "▁build",
        -7.533699094761116
      ],
      [
        "iction",
        -8.944265896315288
      ],
      [
        "done",
        -6.7834521924648845
      ],
      [
        "▁shoot",
        -8.514553830619484
      ],
      [
        "n",
        -2.772310985610549
      ],
      [
        "▁client",
        -8.81969664837052
      ],
      [
        "-------------",
        -10.209257586536696
      ],
      [
        "▁negotiation",
        -9.216943538611048
      ],
      [
        "▁chocolate",
        -8.335477856596388
      ],
      [
        "▁liv",
        -7.570239989097203
      ],
      [
        "▁chicken",
        -7.479618094834508
      ],
      [
        "enti",
        -9.138469515775558
      ],
      [
        "ness",
        -6.8247538409090795
      ],
      [
        "*****",
        -11.55114666431147
      ],
      [
        "!!!!!!!!!!!!!!!",
        -11.726744569091506
      ],
      [
        "▁train",
        -8.089393905948796
      ],
      [
        "▁gun",
        -8.2585172541473
      ],
      [
        "▁object",
        -8.040017712058521
      ],
      [
        "▁spirit",
        -8.887578254900154
      ],
      [
        "ilar",
        -7.306926894076488
      ],
      [
        "▁million",
        -8.726548101755789
      ],
      [
        "▁remove",
        -7.971838894142864
      ],
      [
        "pm",
        -6.061094385241822
      ],
      [
        "▁producer",
        -9.125157861239522
      ],
      [
        "▁do",
        -9.172013762299397
      ],
      [
        "▁share",
        -8.668084785943185
      ],
      [
        "▁shout",
        -9.15195904554747
      ],
      [
        "▁twenty",
        -4.856647518973699
      ],
      [
        "er",
        -6.115462792319052
      ],
      [
        "▁destroy",
        -8.407121557018147
      ],
      [
        "▁sub",
        -8.41573437559284
      ],
      [
        "2",
        -11.770631529841472
      ],
      [
        "▁laura",
        -6.068239547282948
      ],
      [
        "ha",
        -8.022827823781132
      ],
      [
        "▁life",
        -6.429225869129952
      ],
      [
        "▁manner",
        -8.69659031270747
      ],
      [
        "▁missile",
        -9.169350063020874
      ],
      [
        "▁ensur",
        -8.932108183470353
      ],
      [
        "ologi",
        -7.274968840286015
      ],
      [
        "g",
        -6.634938445940061
      ],
      [
        "ding",
        -8.718424413211814
      ],
      [
        "▁mother",
        -6.859878365255122
      ],
      [
        "▁qa",
        -7.083499219665282
      ],
      [
        "enth",
        -7.251062652065433
      ],
      [
        "ma",
        -8.023398630505657
      ],
      [
        "▁f",
        -6.831058922367424
      ],
      [
        "▁united",
        -6.4903492154040405
      ],
      [
        "ve",
        -10.92566035959162
      ],
      [
        "▁sleep",
        -8.355890799369575
      ],
      [
        "▁speci",
        -8.309994548216956
      ],
      [
        "▁members",
        -7.951723226772981
      ],
      [
        "▁george",
        -6.776890662826511
      ],
      [
        "▁cam",
        -6.278293092448771
      ],
      [
        "▁fund",
        -8.889089241995938
      ],
      [
        "▁wonder",
        -7.394909470106592
      ],
      [
        "▁spell",
        -8.438578417452812
      ],
      [
        "▁democra",
        -8.257771320516436
      ],
      [
        "▁remark",
        -9.216943561793538
      ],
      [
        "▁19",
        -8.920953055251385
      ],
      [
        "ough",
        -5.854176465378226
      ],
      [
        "▁art",
        -7.5703610267286825
      ],
      [
        "▁front",
        -7.601454435138757
      ],
      [
        "▁tire",
        -8.998754855652784
      ],
      [
        "▁sunday",
        -7.388268224229664
      ],
      [
        "u",
        -8.070949385963766
      ],
      [
        "▁di",
        -6.385736502600605
      ],
      [
        "▁rest",
        -7.612453355379895
      ],
      [
        "▁th",
        -5.467207919803627
      ],
      [
        "▁cracker",
        -9.219869338542086
      ],
      [
        "▁kitt",
        -7.981335639531538
      ],
      [
        "▁caus",
        -8.900027625784086
      ],
      [
        "▁equal",
        -9.44085675564732
      ],
      [
        "▁get",
        -7.116919860684064
      ],
      [
        "▁==",
        -12.464802984085608
      ],
      [
        "▁sci",
        -9.072952856580422
      ],
      [
        "ten",
        -6.696279519574173
      ],
      [
        "f",
        -7.674786905690743
      ],
      [
        "▁experience",
        -7.087068893496163
      ],
      [
        "er",
        -7.534039384376678
      ],
      [
        "te",
        -9.340799971988403
      ],
      [
        "▁establishe",
        -8.806470403235926
      ],
      [
        "▁in",
        -6.281002056505655
      ],
      [
        "uh",
        -13.441672283788352
      ],
      [
        "▁fare",
        -6.243598581231868
      ],
      [
        "▁california",
        -6.985563614707917
      ],
      [
        "_______",
        -12.708394161505037
      ],
      [
        "▁stair",
        -8.999039406325553
      ],
      [
        "▁squirt",
        -9.288686004311
      ],
      [
        "▁hi",
        -7.870383075677771
      ],
      [
        "▁campaign",
        -8.1348127820024
      ],
      [
        "_",
        -4.6553638775550565
      ],
      [
        "▁track",
        -8.420159885183455
      ],
      [
        "shoul",
        -8.078104899454067
      ],
      [
        "hi",
        -12.596011167150566
      ],
      [
        "▁offer",
        -6.973364069203792
      ],
      [
        "▁evening",
        -7.092884842754999
      ],
      [
        "▁know",
        -4.428565868834826
      ],
      [
        "▁independen",
        -8.790922294957042
      ],
      [
        "▁govern",
        -9.283563698877625
      ],
      [
        "r",
        -6.1491067157679815
      ],
      [
        "▁capacit",
        -8.257771740324742
      ],
      [
        "out",
        -8.075003317222459
      ],
      [
        "▁varie",
        -9.44308354851523
      ],
      [
        "cal",
        -5.9443159686160865
      ],
      [
        "st",
        -4.586035877960723
      ],
      [
        "▁s",
        -9.732919305058479
      ],
      [
        "▁ocean",
        -8.998726730327286
      ],
      [
        "the",
        -7.024914228420359
      ],
      [
        "▁app",
        -9.1360832125772
      ],
      [
        "▁ar",
        -6.2451219693605635
      ],
      [
        "***************",
        -11.823410765088374
      ],
      [
        "it",
        -6.529377036237729
      ],
      [
        "▁road",
        -7.599567740137317
      ],
      [
        "▁companie",
        -8.276659249114067
      ],
      [
        "g",
        -6.332895806031362
      ],
      [
        "▁rush",
        -9.239331250726643
      ],
      [
        "ting",
        -6.1285489463278005
      ],
      [
        "▁apple",
        -8.377477888894493
      ],
      [
        "▁studi",
        -8.067920754521662
      ],
      [
        "▁cartoon",
        -8.85303250082357
      ],
      [
        "l",
        -4.932719265569361
      ],
      [
        "▁reading",
        -9.22078153821079
      ],
      [
        "d",
        -11.061985573933999
      ],
      [
        "▁stone",
        -8.85394363141789
      ],
      [
        "▁ok",
        -3.6625702522183037
      ],
      [
        "▁version",
        -8.239352138778676
      ],
      [
        "▁ruin",
        -9.15065426852602
      ],
      [
        "▁document",
        -8.81970296046568
      ],
      [
        "/",
        -7.238871675863221
      ],
      [
        "▁connect",
        -7.758087071008227
      ],
      [
        "one",
        -8.361856041647858
      ],
      [
        "▁hurt",
        -7.0391796372335245
      ],
      [
        "▁begin",
        -7.430154484278815
      ],
      [
        "▁hope",
        -8.404095197514982
      ],
      [
        "▁receive",
        -7.005589039321805
      ],
      [
        "▁other",
        -4.5395040691075765
      ],
      [
        "woul",
        -7.186489786394996
      ],
      [
        "!!!!!!!!!!!!",
        -12.386019684959304
      ],
      [
        "▁\"",
        -8.960736102532653
      ],
      [
        "!!",
        -8.56163946564786
      ],
      [
        "▁site",
        -7.516176501886119
      ],
      [
        "▁expectation",
        -8.923317100997785
      ],
      [
        "▁bro",
        -9.263525512982529
      ],
      [
        "▁roman",
        -6.825919429447128
      ],
      [
        "▁l",
        -6.916928039762629
      ],
      [
        "▁open",
        -6.700602120712368
      ],
      [
        "▁construct",
        -9.18317412548558
      ],
      [
        "▁improv",
        -8.765723976381787
      ],
      [
        "▁page",
        -7.0265985753286895
      ],
      [
        "▁)",
        -8.967339649659891
      ],
      [
        "♥",
        -12.810278406305976
      ],
      [
        "▁stage",
        -8.698019412692508
      ],
      [
        "um",
        -7.473447019932895
      ],
      [
        "▁elephant",
        -8.756187999539797
      ],
      [
        "ar",
        -9.38103595699485
      ],
      [
        "▁obtain",
        -8.438158095999771
      ],
      [
        "▁clean",
        -7.614144936595171
      ],
      [
        "ng",
        -7.341026937785574
      ],
      [
        "[UNK]",
        0.0
      ],
      [
        "x",
        -11.925660239071421
      ],
      [
        "▁back",
        -4.76794666312063
      ],
      [
        "ure",
        -8.118158498829867
      ],
      [
        "▁transport",
        -8.917221765190645
      ],
      [
        "igh",
        -5.036196688107231
      ],
      [
        "▁trip",
        -6.58322999789118
      ],
      [
        "▁sunday",
        -7.439608531210321
      ],
      [
        "side",
        -6.036964273039711
      ],
      [
        "polis",
        -6.346417235986102
      ],
      [
        "▁soldier",
        -8.613096971445692
      ],
      [
        "w",
        -10.416994930697198
      ],
      [
        "s",
        -3.328190644063051
      ],
      [
        "▁channel",
        -8.819696156902857
      ],
      [
        "nt",
        -7.926099267872553
      ],
      [
        "▁statu",
        -8.876990776813212
      ],
      [
        "▁v",
        -10.549009922820543
      ],
      [
        "▁wa",
        -9.240034987883696
      ],
      [
        "▁fish",
        -7.29041536295049
      ],
      [
        "”",
        -6.5176806785063475
      ],
      [
        "▁name",
        -7.643043092503144
      ],
      [
        "▁ears",
        -8.752879831463549
      ],
      [
        "▁iodi",
        -8.853030213415847
      ],
      [
        "▁host",
        -9.168810829922519
      ],
      [
        "▁plan",
        -8.307157985587114
      ],
      [
        "▁procedure",
        -8.487940389310216
      ],
      [
        "x",
        -7.839595997550478
      ],
      [
        "!!!!",
        -9.583850804162545
      ],
      [
        "▁head",
        -6.621197649136684
      ],
      [
        "▁description",
        -8.923226675086234
      ],
      [
        "▁number",
        -6.210399829628592
      ],
      [
        "!!!!!!!!!!",
        -11.368032386117479
      ],
      [
        "▁forget",
        -7.8047061598920475
      ],
      [
        "▁please",
        -8.564434024630248
      ],
      [
        "do",
        -6.801638483122261
      ],
      [
        "▁west",
        -7.16662573671208
      ],
      [
        "▁suit",
        -9.034212128978872
      ],
      [
        "▁underst",
        -9.122260045145696
      ],
      [
        "▁i",
        -7.352216322514234
      ],
      [
        "▁depart",
        -7.211735076250526
      ],
      [
        "▁priorit",
        -8.696473209852103
      ],
      [
        "▁center",
        -8.337433226566898
      ],
      [
        "▁wh",
        -11.28246861509878
      ],
      [
        "ion",
        -7.111931306513912
      ],
      [
        "_",
        -4.900921085182438
      ],
      [
        "▁sit",
        -6.330185365203777
      ],
      [
        "▁arrow",
        -9.124038588751858
      ],
      [
        "w",
        -6.333928096726785
      ],
      [
        "▁lack",
        -8.703374223642642
      ],
      [
        "▁invite",
        -8.504707143195631
      ],
      [
        "▁track",
        -9.041973619179506
      ],
      [
        "▁they",
        -4.1663145534812855
      ],
      [
        "oget",
        -6.134195808425582
      ],
      [
        "▁balloon",
        -8.37673217444738
      ],
      [
        "oo",
        -8.60499018695634
      ],
      [
        "▁further",
        -7.053770262695196
      ],
      [
        "▁cats",
        -8.802696259025517
      ],
      [
        "hap",
        -6.538456397502309
      ],
      [
        "k",
        -8.62653820904472
      ],
      [
        "▁refuse",
        -8.380345088153414
      ],
      [
        "!!!",
        -8.681878390748498
      ],
      [
        "ament",
        -7.898664581102432
      ],
      [
        "▁guess",
        -7.080943056021663
      ],
      [
        "eat",
        -8.359058933190482
      ],
      [
        "▁shut",
        -8.40855525823017
      ],
      [
        "▁**",
        -12.566425383930483
      ],
      [
        "▁woul",
        -4.259042174156751
      ],
      [
        "▁file",
        -7.123631378906847
      ],
      [
        "▁micro",
        -8.276639694658613
      ],
      [
        "▁park",
        -7.8258503620912805
      ],
      [
        "▁al",
        -8.703377934073089
      ],
      [
        "▁arrangement",
        -8.96026349665036
      ],
      [
        "▁pick",
        -6.856487804306816
      ],
      [
        "▁bump",
        -9.283223577838324
      ],
      [
        "▁tape",
        -7.992135511469011
      ],
      [
        "▁",
        -1.4271932053481233
      ],
      [
        "here",
        -6.183649337266312
      ],
      [
        "ped",
        -8.244818001486966
      ],
      [
        "▁supplie",
        -9.10850433710879
      ],
      [
        "pover",
        -9.186619763691631
      ],
      [
        "▁the",
        -11.09220806935517
      ],
      [
        "▁program",
        -7.6472824930213745
      ],
      [
        "l",
        -6.2055390445399565
      ],
      [
        "▁comment",
        -7.822203929235285
      ],
      [
        "▁mak",
        -6.471703968163164
      ],
      [
        "▁investigate",
        -9.19726521086874
      ],
      [
        "▁pivot",
        -8.221071087153097
      ],
      [
        "ho",
        -8.554119697639074
      ],
      [
        "f",
        -6.192928136779798
      ],
      [
        "▁peanut",
        -8.696493613361936
      ],
      [
        "▁hot",
        -6.460844592279476
      ],
      [
        "▁bu",
        -8.90277890318454
      ],
      [
        "▁joke",
        -7.754459953938312
      ],
      [
        "'",
        -2.6782468275802227
      ],
      [
        "▁down",
        -7.572524168226138
      ],
      [
        "▁cra",
        -8.744690332634077
      ],
      [
        "h",
        -2.3558809577216078
      ],
      [
        "▁mon",
        -7.089104440324166
      ],
      [
        "▁passenger",
        -9.216943580602956
      ],
      [
        "abo",
        -12.396353484691211
      ],
      [
        "r",
        -3.522172518100258
      ],
      [
        "▁job",
        -6.805931174749688
      ],
      [
        "▁reduce",
        -8.267613503121149
      ],
      [
        "ar",
        -7.227971639397844
      ],
      [
        "▁leaders",
        -8.367335737972816
      ],
      [
        "▁reco",
        -8.925900762925231
      ],
      [
        "▁gift",
        -8.887512291008537
      ],
      [
        "▁spill",
        -8.918939825192812
      ],
      [
        "▁repair",
        -9.288645750649827
      ],
      [
        "tic",
        -7.116147008177122
      ],
      [
        "▁detail",
        -7.836859423219972
      ],
      [
        "▁hav",
        -4.47068279899715
      ],
      [
        "i",
        -4.785587726083073
      ],
      [
        "▁abou",
        -5.1502907813187875
      ],
      [
        "▁donkey",
        -8.99872504735843
      ],
      [
        "▁gon",
        -5.350338757148288
      ],
      [
        "ty",
        -6.4139229126522626
      ],
      [
        "▁anthr",
        -8.613108446781391
      ],
      [
        "▁bee",
        -8.571528797556873
      ],
      [
        "▁industr",
        -7.953873036340948
      ],
      [
        "▁assume",
        -8.180302739335136
      ],
      [
        "▁may",
        -8.487805845481697
      ],
      [
        ".........",
        -12.385442840267194
      ],
      [
        "▁air",
        -6.0201336254600015
      ],
      [
        "ng",
        -9.119444186113508
      ],
      [
        "▁truth",
        -8.487940459490225
      ],
      [
        "ding",
        -8.0783902910098
      ],
      [
        "▁hang",
        -7.880202537394021
      ],
      [
        "▁board",
        -8.016572855282181
      ],
      [
        "ept",
        -7.217695514232073
      ],
      [
        "▁piece",
        -6.96781455293655
      ],
      [
        "▁kick",
        -8.610188776671855
      ],
      [
        "▁fl",
        -9.30286718829165
      ],
      [
        "uff",
        -9.02331409997782
      ],
      [
        "▁suit",
        -9.442799361406374
      ],
      [
        "▁histor",
        -7.541387607600669
      ],
      [
        "▁wish",
        -7.590511462557424
      ],
      [
        "....",
        -10.519573882973248
      ],
      [
        "▁sept",
        -6.604449666732886
      ],
      [
        "▁thes",
        -5.533559998489873
      ],
      [
        "▁until",
        -5.5638749337406646
      ],
      [
        "▁peter",
        -6.731808973412266
      ],
      [
        ".",
        -7.015451316975299
      ],
      [
        "▁hill",
        -9.12476352692493
      ],
      [
        "le",
        -7.288360568497718
      ],
      [
        "▁room",
        -6.401687799269684
      ],
      [
        "▁securit",
        -7.617404688247977
      ],
      [
        "▁s",
        -8.496574491134886
      ],
      [
        "where",
        -6.01525835379799
      ],
      [
        "▁schedule",
        -8.203213840140062
      ],
      [
        "▁water",
        -6.433898318215807
      ],
      [
        "h",
        -10.741453583244953
      ],
      [
        "▁publishe",
        -8.041078949278049
      ],
      [
        "▁monday",
        -7.278818467358425
      ],
      [
        "ther",
        -8.47414026107005
      ],
      [
        "wealth",
        -8.923256446532516
      ],
      [
        "nda",
        -8.985330967418504
      ],
      [
        "es",
        -5.867405313705935
      ],
      [
        "▁represent",
        -7.84192061450014
      ],
      [
        "▁",
        -2.3835752038720193
      ],
      [
        "▁transport",
        -6.604467960840209
      ],
      [
        "▁spend",
        -7.795473079364302
      ],
      [
        "n",
        -4.5571833613477795
      ],
      [
        "▁learn",
        -6.838105611386304
      ],
      [
        "hood",
        -8.759441653776195
      ],
      [
        "▁choose",
        -7.779741653182732
      ],
      [
        "▁predict",
        -9.147860661032121
      ],
      [
        "▁wear",
        -7.030136924463811
      ],
      [
        "red",
        -7.0567063380842345
      ],
      [
        "▁fun",
        -8.108338126141614
      ],
      [
        "▁key",
        -7.996897666659143
      ],
      [
        "d",
        -5.9477191613994504
      ],
      [
        "▁travel",
        -7.316864703250338
      ],
      [
        "which",
        -9.187918605841523
      ],
      [
        "n",
        -2.150777991036591
      ],
      [
        "▁encourage",
        -8.417000379120314
      ],
      [
        "ing",
        -6.502982686062673
      ],
      [
        "▁run",
        -8.669301778733283
      ],
      [
        "▁visa",
        -8.613361893919713
      ],
      [
        "▁ass",
        -8.863973836113304
      ],
      [
        "ho",
        -11.734257522352875
      ],
      [
        "▁counter",
        -8.670369497165364
      ],
      [
        "▁solve",
        -9.079268602044394
      ],
      [
        "▁notice",
        -8.756197793068267
      ],
      [
        "▁address",
        -8.459391630396816
      ],
      [
        "▁al",
        -4.246888182650369
      ],
      [
        "1",
        -8.640110920790612
      ],
      [
        "▁love",
        -6.439965781634038
      ],
      [
        "▁control",
        -7.457310695836761
      ],
      [
        "▁conflict",
        -8.667901780410334
      ],
      [
        "▁circum",
        -8.887957862928076
      ],
      [
        "t",
        -5.31872887030421
      ],
      [
        "▁yours",
        -8.946628168237133
      ],
      [
        "▁accident",
        -8.239252801174397
      ],
      [
        "▁pack",
        -8.142426691225264
      ],
      [
        "▁un",
        -9.477616961067127
      ],
      [
        "▁design",
        -8.117580129951966
      ],
      [
        "▁pin",
        -8.715703490953587
      ],
      [
        "e",
        -2.2184347982162924
      ],
      [
        "▁apr",
        -7.080204494422818
      ],
      [
        "re",
        -7.102225890172845
      ],
      [
        "▁definit",
        -7.014693227758429
      ],
      [
        "▁corner",
        -8.119334718825932
      ],
      [
        "ring",
        -8.252052990872274
      ],
      [
        "▁search",
        -8.706829101337929
      ],
      [
        "id",
        -9.150834025689743
      ],
      [
        "▁good",
        -8.071050115508168
      ],
      [
        "h",
        -4.6934243343720325
      ],
      [
        "▁seven",
        -5.479252271885461
      ],
      [
        "▁wait",
        -9.120835427364884
      ],
      [
        "▁source",
        -7.55071559283623
      ],
      [
        "▁ok",
        -6.289238687970232
      ],
      [
        "[CLS]",
        0.0
      ],
      [
        "▁assistan",
        -8.442594149042531
      ],
      [
        "▁through",
        -6.050063511843283
      ],
      [
        "▁folk",
        -8.923229581741735
      ],
      [
        "▁worry",
        -8.610892468635155
      ],
      [
        "▁sara",
        -6.68679848391138
      ],
      [
        "▁cris",
        -8.758063941140499
      ],
      [
        "▁th",
        -4.476221050677899
      ],
      [
        "ha",
        -9.950407672530257
      ],
      [
        "▁.",
        -6.602433684213669
      ],
      [
        "▁forgot",
        -7.758661021247899
      ],
      [
        "▁afford",
        -8.68904551827087
      ],
      [
        "▁e",
        -8.780833583811516
      ],
      [
        "▁fin",
        -7.13921038761765
      ],
      [
        "▁fo",
        -8.948053582407423
      ],
      [
        "▁never",
        -5.373709755189779
      ],
      [
        "▁sell",
        -7.902661868973678
      ],
      [
        "▁sil",
        -9.205538703859592
      ],
      [
        "▁thought",
        -6.440770853893309
      ],
      [
        "h",
        -3.294768851479734
      ],
      [
        "▁commission",
        -7.48348264406183
      ],
      [
        "▁!!!!!!!",
        -11.846846990791377
      ],
      [
        "▁film",
        -8.22144721329392
      ],
      [
        "▁chew",
        -9.28732838811906
      ],
      [
        "▁earth",
        -8.119381326187579
      ],
      [
        "’",
        -6.26611087511166
      ],
      [
        "▁",
        -2.6211102193894833
      ],
      [
        "▁result",
        -7.909088133194663
      ],
      [
        "▁insist",
        -9.443311260613681
      ],
      [
        "or",
        -7.085234330232895
      ],
      [
        "▁skin",
        -8.445097928105328
      ],
      [
        "▁year",
        -5.479954968956782
      ],
      [
        "janu",
        -7.244976107624808
      ],
      [
        "▁cast",
        -9.323984159509102
      ],
      [
        "▁d",
        -8.724840587039013
      ],
      [
        "ia",
        -6.46572768572054
      ],
      [
        "—",
        -6.131623132035529
      ],
      [
        "them",
        -7.937344547440428
      ],
      [
        "!!!!!!!!!!!!!",
        -12.159030662584136
      ],
      [
        "▁policy",
        -7.96027505983172
      ],
      [
        "▁method",
        -7.9537835286735215
      ],
      [
        "▁care",
        -7.916052306427313
      ],
      [
        "▁angel",
        -6.911102437869754
      ],
      [
        "▁under",
        -8.85328824015376
      ],
      [
        "▁worth",
        -6.937472774448308
      ],
      [
        "▁oppose",
        -8.689039683321802
      ],
      [
        "▁quote",
        -8.970656992345866
      ],
      [
        "<",
        -7.228670777278908
      ],
      [
        "▁cut",
        -8.619399010850714
      ],
      [
        "x",
        -6.627227203346111
      ],
      [
        "▁wol",
        -8.488718645100917
      ],
      [
        "▁suc",
        -6.023455274139659
      ],
      [
        "▁inter",
        -6.952119591150534
      ],
      [
        "b",
        -6.1504537306829885
      ],
      [
        "to",
        -7.034425037071648
      ],
      [
        "▁press",
        -8.466229944950783
      ],
      [
        "▁north",
        -7.0466915970605415
      ],
      [
        "ar",
        -7.063891730229105
      ],
      [
        "the",
        -9.636382313932264
      ],
      [
        "toward",
        -10.5930503330447
      ],
      [
        "▁labor",
        -8.669192077985084
      ],
      [
        "▁has",
        -5.672018519169682
      ],
      [
        "▁pool",
        -8.854340121391436
      ],
      [
        "▁trouble",
        -7.9961402165583415
      ],
      [
        "▁d",
        -6.385383206556362
      ],
      [
        "▁mumm",
        -7.223584635370784
      ],
      [
        "▁sp",
        -8.107831717624427
      ],
      [
        "er",
        -5.2157715594066945
      ],
      [
        "ade",
        -9.163853728411702
      ],
      [
        "t",
        -6.030829771013778
      ],
      [
        "▁ignore",
        -8.690690195797188
      ],
      [
        "▁consequence",
        -8.923226441705136
      ],
      [
        "▁author",
        -8.053784648607103
      ],
      [
        "▁pant",
        -8.438104137289418
      ],
      [
        "▁http://www.",
        -6.835725387207398
      ],
      [
        "**************",
        -12.31917194045622
      ],
      [
        "▁influence",
        -9.142093804611847
      ],
      [
        "ot",
        -8.634250207778758
      ],
      [
        "▁weekend",
        -8.055425188855452
      ],
      [
        "▁vlog",
        -9.16964198116683
      ],
      [
        "▁pillow",
        -8.511750185376151
      ],
      [
        "▁fall",
        -8.40636749201184
      ],
      [
        "▁woke",
        -8.96938748504948
      ],
      [
        "&",
        -6.519024570430864
      ],
      [
        "ment",
        -6.494612436723121
      ],
      [
        "▁brain",
        -8.315635872117745
      ],
      [
        "in",
        -6.981579375279514
      ],
      [
        "▁whe",
        -5.420825829967308
      ],
      [
        "for",
        -5.767560284088035
      ],
      [
        "▁wif",
        -7.413257984908348
      ],
      [
        "▁elect",
        -8.201859762683116
      ],
      [
        "▁uh",
        -4.032163193927326
      ],
      [
        "rose",
        -8.623280558283351
      ],
      [
        "▁son",
        -7.88314789012954
      ],
      [
        "▁approval",
        -9.123869944711316
      ],
      [
        "t",
        -5.349699802262844
      ],
      [
        "▁shoul",
        -5.182621289545295
      ],
      [
        "▁ev",
        -8.168984609430542
      ],
      [
        "was",
        -6.42545466381976
      ],
      [
        "`",
        -11.770631529841472
      ],
      [
        "▁deliver",
        -8.613097418887598
      ],
      [
        "▁am",
        -6.725198085379274
      ],
      [
        "▁link",
        -8.121096130214303
      ],
      [
        "▁care",
        -7.695339058275782
      ],
      [
        "▁beginning",
        -8.487940388594948
      ],
      [
        "▁second",
        -6.165745746144752
      ],
      [
        "table",
        -8.106033439616613
      ],
      [
        "▁get",
        -4.421414040666525
      ],
      [
        "▁order",
        -7.583793869267323
      ],
      [
        "************",
        -12.973373201788785
      ],
      [
        "scope",
        -9.169323849458058
      ],
      [
        "▁l",
        -8.071622223687715
      ],
      [
        "▁draw",
        -6.654847932334819
      ],
      [
        "ious",
        -7.178441696046659
      ],
      [
        "ship",
        -7.965780243568245
      ],
      [
        "▁god",
        -7.141342431366642
      ],
      [
        "▁present",
        -7.660713438513456
      ],
      [
        "▁include",
        -7.061085876825674
      ],
      [
        "▁publish",
        -8.886603719170564
      ],
      [
        "as",
        -7.54452203721696
      ],
      [
        "▁wor",
        -8.534574165976904
      ],
      [
        "ast",
        -10.037434414241018
      ],
      [
        "▁excuse",
        -9.212314087949528
      ],
      [
        "▁pencil",
        -8.010625613404239
      ],
      [
        "▁credit",
        -7.967762469353025
      ],
      [
        "▁import",
        -9.36022865385811
      ],
      [
        "got",
        -10.98607480809809
      ],
      [
        "ami",
        -6.501920155674309
      ],
      [
        "▁pe",
        -7.653575341127877
      ],
      [
        "thi",
        -6.886019402075815
      ],
      [
        "q",
        -8.45857891560698
      ],
      [
        "▁f",
        -6.537668415611798
      ],
      [
        "_",
        -4.8283611448919315
      ],
      [
        "▁traged",
        -9.16932483231328
      ],
      [
        "▁six",
        -4.954665155508478
      ],
      [
        "▁demand",
        -8.376691249688534
      ],
      [
        "r",
        -5.625332128294126
      ],
      [
        "▁friend",
        -7.098054325008396
      ],
      [
        "ley",
        -7.053163356109509
      ],
      [
        "-------",
        -13.306664066647064
      ],
      [
        "▁carbon",
        -9.216979986582473
      ],
      [
        "g",
        -5.178950778187781
      ],
      [
        "▁attache",
        -7.394647312444762
      ],
      [
        "▁exhibit",
        -8.81969606406947
      ],
      [
        "▁f",
        -8.821102863888438
      ],
      [
        "▁question",
        -6.940774554299401
      ],
      [
        "▁eat",
        -5.6316209781590745
      ],
      [
        "▁acquire",
        -9.042177457619601
      ],
      [
        "▁border",
        -8.586785284063456
      ],
      [
        "ed",
        -4.3347423109077265
      ],
      [
        "thes",
        -8.344899422662623
      ],
      [
        "tha",
        -8.930932078915008
      ],
      [
        "▁depend",
        -7.769878710648066
      ],
      [
        "▁refus",
        -9.153500385357804
      ],
      [
        "▁lion",
        -8.731586927554355
      ],
      [
        "▁ripp",
        -9.016047538058624
      ],
      [
        "▁technolog",
        -7.913327574475932
      ],
      [
        "▁gather",
        -8.61079917971708
      ],
      [
        "ou",
        -11.026065425264347
      ],
      [
        "ha",
        -13.163230928458335
      ],
      [
        "▁engine",
        -8.751911522732705
      ],
      [
        "▁roll",
        -8.827099005855356
      ],
      [
        "▁screen",
        -8.464684587137533
      ],
      [
        "▁currenc",
        -8.925982449105422
      ],
      [
        "v",
        -8.221020636134378
      ],
      [
        "▁li",
        -8.905933880865888
      ],
      [
        "h",
        -8.082311726515218
      ],
      [
        "n",
        -4.842692419104056
      ],
      [
        "▁reveal",
        -8.538070794943604
      ],
      [
        "l",
        -6.758199687090753
      ],
      [
        "▁thu",
        -7.206479342278372
      ],
      [
        "▁tent",
        -8.937311135461075
      ],
      [
        "▁edge",
        -8.887526414877552
      ],
      [
        "▁rest",
        -8.780464668951797
      ],
      [
        "▁spoon",
        -8.92323371423474
      ],
      [
        "thi",
        -6.816229796495275
      ],
      [
        "▁to",
        -4.828081713777489
      ],
      [
        "▁increas",
        -8.53900235210116
      ],
      [
        "!!!!!!!!!!!",
        -12.390566855407181
      ],
      [
        "ten",
        -7.555046472329298
      ],
      [
        "▁constituenc",
        -9.080391683828726
      ],
      [
        "c",
        -6.144387633440203
      ],
      [
        "nd",
        -8.129110544840849
      ],
      [
        "▁interna",
        -6.979968294030549
      ],
      [
        "▁fi",
        -8.896282388839595
      ],
      [
        "▁nonstop",
        -7.5234409521077446
      ],
      [
        "fo",
        -12.318804377466208
      ],
      [
        "they",
        -7.005894765477494
      ],
      [
        "f",
        -2.4516511753350763
      ],
      [
        "me",
        -6.477495628531309
      ],
      [
        "all",
        -4.386146326760172
      ],
      [
        "▁dec",
        -8.623105624318299
      ],
      [
        "al",
        -7.346946077370534
      ],
      [
        "▁be",
        -4.961294813347506
      ],
      [
        "▁play",
        -7.56524513739988
      ],
      [
        "▁touch",
        -7.580939470623513
      ],
      [
        "▁pig",
        -8.466027118186767
      ],
      [
        "▁church",
        -8.315477948920822
      ],
      [
        "▁indicate",
        -8.34885140451932
      ],
      [
        "▁hate",
        -8.40402299196232
      ],
      [
        "▁conduct",
        -8.47053861262362
      ],
      [
        "▁ab",
        -8.860843904040433
      ],
      [
        "on",
        -11.079524852188499
      ],
      [
        "▁course",
        -7.218541794418536
      ],
      [
        "▁sample",
        -8.565606250306262
      ],
      [
        "▁first",
        -4.829267318650501
      ],
      [
        "▁un",
        -5.798991763268779
      ],
      [
        "▁co",
        -7.3283963749532015
      ],
      [
        "▁whi",
        -7.824648129212422
      ],
      [
        "aking",
        -9.118354290941348
      ],
      [
        "▁yog",
        -8.640146853951949
      ],
      [
        "▁watch",
        -6.422132444968376
      ],
      [
        "cinn",
        -7.200700396868386
      ],
      [
        "▁swing",
        -8.734704912712491
      ],
      [
        "▁mess",
        -9.163694913339114
      ],
      [
        "-----------",
        -10.993459808798361
      ],
      [
        "▁interest",
        -6.45681399413694
      ],
      [
        "r",
        -7.556471746184325
      ],
      [
        "▁absorb",
        -9.024768821123665
      ],
      [
        "▁other",
        -7.5787548873627975
      ],
      [
        "▁attract",
        -8.538253893795229
      ],
      [
        "a",
        -7.313902365806134
      ],
      [
        "▁issue",
        -8.748243023434334
      ],
      [
        "ing",
        -7.042262489258168
      ],
      [
        "▁hop",
        -8.4796290412475
      ],
      [
        "▁30",
        -5.898121181112609
      ],
      [
        "through",
        -8.833708491403344
      ],
      [
        "▁tool",
        -8.37730071642854
      ],
      [
        "▁dec",
        -7.3924632428208525
      ],
      [
        "?????",
        -11.017867342887754
      ],
      [
        "▁ok",
        -6.793719205581699
      ],
      [
        "▁somethin",
        -5.952656046882825
      ],
      [
        "▁before",
        -6.6514196137008295
      ],
      [
        "▁terrorist",
        -8.924389204432252
      ],
      [
        "el",
        -7.022978776406453
      ],
      [
        "▁toy",
        -8.068826245788582
      ],
      [
        "▁pay",
        -6.894095309609328
      ],
      [
        "▁theatre",
        -9.038725393975731
      ],
      [
        "▁’",
        -9.7081408527352
      ],
      [
        "▁neighbour",
        -9.216772335824786
      ],
      [
        "s",
        -7.035194481589117
      ],
      [
        "▁urs",
        -7.133812843592845
      ],
      [
        "▁hit",
        -6.806185863543326
      ],
      [
        "▁stole",
        -9.362240009490456
      ],
      [
        "▁climate",
        -8.397996040818356
      ],
      [
        "▁arm",
        -7.278270355020909
      ],
      [
        "hol",
        -7.396681751776911
      ],
      [
        "▁strong",
        -6.705735057937477
      ],
      [
        "▁blame",
        -9.251880993408966
      ],
      [
        "▁kansa",
        -6.811230330250781
      ],
      [
        "▁outcome",
        -9.169327741677735
      ],
      [
        "m",
        -3.421156060075173
      ],
      [
        "▁risk",
        -9.094089437034025
      ],
      [
        "▁settle",
        -8.543389365197694
      ],
      [
        "▁second",
        -8.667901781798514
      ],
      [
        "inst",
        -6.754258181145743
      ],
      [
        "▁pocket",
        -7.754459659503548
      ],
      [
        "▁pos",
        -6.272087047022913
      ],
      [
        "▁affect",
        -7.947152464864956
      ],
      [
        "70",
        -9.21694353791038
      ],
      [
        "en",
        -6.619270477162171
      ],
      [
        "▁applie",
        -8.02839247144541
      ],
      [
        "▁fro",
        -8.847864777376085
      ],
      [
        "▁change",
        -6.890078977690357
      ],
      [
        "national",
        -7.263849459139401
      ],
      [
        "▁inform",
        -8.411798429957743
      ],
      [
        "en",
        -8.960701284908302
      ],
      [
        "▁argument",
        -8.397995949455344
      ],
      [
        "▁new",
        -5.519541181328751
      ],
      [
        "board",
        -8.347606507677906
      ],
      [
        "▁read",
        -6.595874326993178
      ],
      [
        "▁interpret",
        -9.041564964558667
      ],
      [
        "▁crie",
        -8.680881358113988
      ],
      [
        "------------",
        -10.609482153313088
      ],
      [
        "▁manage",
        -8.279946590380614
      ],
      [
        "▁m",
        -6.109562226064084
      ],
      [
        "ma",
        -9.512744794518076
      ],
      [
        "▁just",
        -3.9535889976245384
      ],
      [
        "s",
        -5.850145103808338
      ],
      [
        "▁expect",
        -7.097626935970076
      ],
      [
        "▁t",
        -8.001755625623431
      ],
      [
        "▁weight",
        -8.615898833656862
      ],
      [
        "▁compar",
        -9.282297036030215
      ],
      [
        "▁india",
        -6.824040119082205
      ],
      [
        "is",
        -6.551512324352629
      ],
      [
        "ve",
        -6.412359021217133
      ],
      [
        "▁muc",
        -5.922368473306233
      ],
      [
        "▁`",
        -11.296918948688285
      ],
      [
        "ou",
        -5.693854455428379
      ],
      [
        "▁atm",
        -8.398147954647921
      ],
      [
        "▁representative",
        -9.080391683828603
      ],
      [
        "ampa",
        -7.290181793402966
      ],
      [
        "ra",
        -7.674826693567061
      ],
      [
        "▁so",
        -5.253845430228908
      ],
      [
        "sh",
        -9.209405661343489
      ],
      [
        "t",
        -4.811365475966639
      ],
      [
        "▁belt",
        -9.123914738777307
      ],
      [
        "call",
        -6.4707648400225155
      ],
      [
        "▁listen",
        -7.39626607878537
      ],
      [
        "▁vega",
        -6.635007151032915
      ],
      [
        "_",
        -5.0347307007443804
      ],
      [
        "▁vote",
        -8.217560882040823
      ],
      [
        "▁prepar",
        -8.757126478595298
      ],
      [
        "adam",
        -8.801204290585094
      ],
      [
        "ibilit",
        -9.001138243070544
      ],
      [
        "ers",
        -7.1030794882651085
      ],
      [
        "▁enjoy",
        -6.958235282635592
      ],
      [
        "▁town",
        -7.278296875438283
      ],
      [
        "▁motor",
        -9.123911414460832
      ],
      [
        "▁basket",
        -8.960263834465621
      ],
      [
        "man",
        -7.72214053945189
      ],
      [
        "ol",
        -8.098156237469563
      ],
      [
        "▁conversation",
        -8.203273469637574
      ],
      [
        "be",
        -8.581302110008357
      ],
      [
        "▁small",
        -5.796754880294776
      ],
      [
        "▁grab",
        -8.865392312630064
      ],
      [
        "idence",
        -8.086516438613055
      ],
      [
        "iness",
        -8.746950893897328
      ],
      [
        "▁a",
        -6.746763213277558
      ],
      [
        "▁absolute",
        -7.501200598055169
      ],
      [
        "▁hers",
        -11.553708895953593
      ],
      [
        "get",
        -10.22512405160739
      ],
      [
        "▁,",
        -8.528595320707595
      ],
      [
        "▁parl",
        -7.9174887841752755
      ],
      [
        "▁alway",
        -5.519820572217112
      ],
      [
        "▁submit",
        -9.415786562877546
      ],
      [
        "▁chair",
        -7.3967621303258415
      ],
      [
        "▁rubb",
        -8.696473294785536
      ],
      [
        "at",
        -7.706429681576975
      ],
      [
        "▁loss",
        -8.606601156730287
      ],
      [
        "▁target",
        -8.787438022389779
      ],
      [
        "▁coast",
        -8.561146812783505
      ],
      [
        "▁appreciate",
        -8.071396535783002
      ],
      [
        "▁mr",
        -7.273031942122844
      ],
      [
        "▁heart",
        -7.812614952552662
      ],
      [
        "▁pollut",
        -8.998981184762249
      ],
      [
        "due",
        -7.28851969435859
      ],
      [
        "▁sound",
        -8.056004596801618
      ],
      [
        "corn",
        -8.930004510928168
      ],
      [
        "▁hundred",
        -8.819696064316304
      ],
      [
        "\"",
        -4.22482060981751
      ],
      [
        "▁p",
        -6.583243332153932
      ],
      [
        "▁support",
        -7.841740516479839
      ],
      [
        "da",
        -11.222074835862148
      ],
      [
        "as",
        -6.594058164000631
      ],
      [
        "▁keep",
        -6.147582535994962
      ],
      [
        "on",
        -5.130753300564142
      ],
      [
        "▁notice",
        -7.764069890327629
      ],
      [
        "▁breath",
        -8.923226530042513
      ],
      [
        "▁respect",
        -8.203323532952933
      ],
      [
        "▁din",
        -9.103629886181892
      ],
      [
        "▁counterfeit",
        -9.12387052553453
      ],
      [
        "▁witch",
        -8.998933037123026
      ],
      [
        "et",
        -7.922763757749793
      ],
      [
        "▁cake",
        -8.203548630724674
      ],
      [
        "▁imme",
        -7.436168493080066
      ],
      [
        "[SEP]",
        0.0
      ],
      [
        "▁which",
        -6.392990913741314
      ],
      [
        "▁float",
        -8.688947204043847
      ],
      [
        "▁waste",
        -9.124935399848116
      ],
      [
        "▁edit",
        -9.326390060793624
      ],
      [
        "▁request",
        -8.086417664276423
      ],
      [
        "▁estimate",
        -8.098732058245107
      ],
      [
        "nition",
        -8.895316967619639
      ],
      [
        "▁speed",
        -8.819700786291069
      ],
      [
        "▁committ",
        -9.169860122076315
      ],
      [
        "▁b/",
        -11.153795423368507
      ],
      [
        "▁contact",
        -8.028097009870914
      ],
      [
        "▁v",
        -8.292371398184915
      ],
      [
        "ntl",
        -7.392382711792216
      ],
      [
        "▁percentage",
        -8.071384263197615
      ],
      [
        "ne",
        -12.213083490762878
      ],
      [
        "▁rid",
        -8.692506648163228
      ],
      [
        "▁episode",
        -9.21694357252228
      ],
      [
        "▁element",
        -8.134821157340216
      ],
      [
        "▁salon",
        -9.124555536515611
      ],
      [
        "▁complet",
        -9.42658221300684
      ],
      [
        "▁>",
        -9.582936923105237
      ],
      [
        "▁win",
        -8.000208710302205
      ],
      [
        "▁d",
        -8.804879413247377
      ],
      [
        "▁remember",
        -6.274852527604202
      ],
      [
        "ary",
        -6.493998529129069
      ],
      [
        "▁---",
        -13.632274009623934
      ],
      [
        "us",
        -3.920615676271251
      ],
      [
        "▁watch",
        -8.960381965628686
      ],
      [
        "▁guy",
        -6.71676782140044
      ],
      [
        "▁lunch",
        -7.578816532810315
      ],
      [
        "▁pattern",
        -9.03872503190598
      ],
      [
        "▁strawberr",
        -9.080391708709893
      ],
      [
        "▁+",
        -12.232017845449422
      ],
      [
        "▁battle",
        -9.080431227822888
      ],
      [
        "▁invest",
        -8.92347630255485
      ],
      [
        "no",
        -9.393120652578665
      ],
      [
        "▁toda",
        -6.263055244653625
      ],
      [
        "ww",
        -11.310312733422174
      ],
      [
        "your",
        -7.282301018614932
      ],
      [
        "▁cit",
        -6.63495181490747
      ],
      [
        "over",
        -8.61529201880396
      ],
      [
        "▁continu",
        -9.162919533482437
      ],
      [
        "▁fr",
        -8.56669605808989
      ],
      [
        "▁need",
        -4.9754309386742674
      ],
      [
        "▁m",
        -6.93110486153691
      ],
      [
        "yours",
        -12.142066938395672
      ],
      [
        "▁consider",
        -6.853368035562674
      ],
      [
        "▁choice",
        -8.118419686609656
      ],
      [
        "?????????????",
        -12.70099418020655
      ],
      [
        "ru",
        -7.3777699177564084
      ],
      [
        "g",
        -7.307917268225807
      ],
      [
        "▁wors",
        -7.1919873934551335
      ],
      [
        "▁vo",
        -8.480415664306676
      ],
      [
        "▁challenge",
        -8.487940388277236
      ],
      [
        "▁francisco",
        -4.790806721901821
      ],
      [
        "▁environment",
        -7.967761930235129
      ],
      [
        "▁leadership",
        -9.217985862125818
      ],
      [
        "than",
        -8.760961957451034
      ],
      [
        "▁!!!!!!",
        -11.169643353147766
      ],
      [
        "▁capture",
        -9.024939351066113
      ],
      [
        "▁smell",
        -9.08039181275079
      ],
      [
        "c",
        -4.327503421637194
      ],
      [
        "▁protection",
        -8.239252803869842
      ],
      [
        "6",
        -9.216899121533652
      ],
      [
        "▁ga",
        -7.345565621664554
      ],
      [
        "▁educate",
        -9.404391758100541
      ],
      [
        "ow",
        -10.59600381348684
      ],
      [
        "▁wash",
        -7.504951731329325
      ],
      [
        "▁catch",
        -7.591525767138456
      ],
      [
        "▁night",
        -6.460519968200141
      ],
      [
        "o",
        -3.685656293320066
      ],
      [
        "▁cell",
        -8.511821794266265
      ],
      [
        "▁wipe",
        -8.779911817932993
      ],
      [
        "▁of",
        -6.502938737333261
      ],
      [
        "▁true",
        -7.013220592988147
      ],
      [
        "▁pu",
        -9.421400638928933
      ],
      [
        "ighten",
        -9.43439811874087
      ],
      [
        "red",
        -7.917229904324256
      ],
      [
        "▁preserve",
        -8.929681157232357
      ],
      [
        "▁government",
        -6.9218414706134155
      ],
      [
        "▁librar",
        -9.21681979529707
      ],
      [
        "▁tail",
        -8.29666352688395
      ],
      [
        "▁access",
        -7.562739663223562
      ],
      [
        "▁incorporate",
        -8.867489578700768
      ],
      [
        "▁teacher",
        -7.92666281920998
      ],
      [
        "▁11",
        -5.487104098601486
      ],
      [
        "▁snow",
        -8.397997250289041
      ],
      [
        "e",
        -9.487298196508139
      ],
      [
        "▁mi",
        -6.329246453419489
      ],
      [
        "▁discover",
        -7.971377119603126
      ],
      [
        "ou",
        -10.30332967954138
      ],
      [
        "er",
        -10.542953920852197
      ],
      [
        "land",
        -8.787627065923703
      ],
      [
        "▁hand",
        -6.527532593615033
      ],
      [
        "ard",
        -10.783635794113795
      ],
      [
        "▁yard",
        -9.01493607806211
      ],
      [
        "▁generate",
        -8.75601484485504
      ],
      [
        "▁unit",
        -9.179203765796299
      ],
      [
        "canada",
        -7.372545342126393
      ],
      [
        "▁meaning",
        -8.453463297589357
      ],
      [
        "▁engage",
        -9.027959368460433
      ],
      [
        "▁engl",
        -7.3562289671656025
      ],
      [
        "a",
        -5.858125791097324
      ],
      [
        "▁withdraw",
        -9.283877617981842
      ],
      [
        "▁an",
        -4.119119639414188
      ],
      [
        "▁work",
        -6.025187949164228
      ],
      [
        "▁yea",
        -3.1381024377751405
      ],
      [
        "▁increase",
        -7.819773319320149
      ],
      [
        "alit",
        -8.760430665631885
      ],
      [
        "▁doggie",
        -7.647428703439606
      ],
      [
        "▁stepp",
        -8.664658010126121
      ],
      [
        "beside",
        -11.715294844028275
      ],
      [
        "▁h",
        -7.850127434920214
      ],
      [
        "▁oil",
        -7.6507804575525205
      ],
      [
        "▁last",
        -8.168201016046803
      ],
      [
        "▁soon",
        -6.254854376229238
      ],
      [
        "▁iran",
        -6.869489833685237
      ],
      [
        "▁worth",
        -7.288217349982408
      ],
      [
        "ry",
        -7.477042467158304
      ],
      [
        "dle",
        -8.646695640848325
      ],
      [
        "▁show",
        -7.743656537800783
      ],
      [
        "▁cle",
        -6.736947481450366
      ],
      [
        "ous",
        -4.87272141173675
      ],
      [
        "▁human",
        -8.534914647556718
      ],
      [
        "▁lead",
        -7.517633113995592
      ],
      [
        "yo",
        -13.477506734468584
      ],
      [
        "u",
        -5.2260390664233505
      ],
      [
        "▁particular",
        -6.879661482062576
      ],
      [
        "▁interact",
        -9.212624344128375
      ],
      [
        "who",
        -7.94396558235722
      ],
      [
        "▁economic",
        -6.772570457784909
      ],
      [
        "c",
        -5.44278263792476
      ],
      [
        "▁du",
        -6.791389539449149
      ],
      [
        "zer",
        -8.224015679755048
      ],
      [
        "▁equipment",
        -9.08039316226801
      ],
      [
        "▁aunt",
        -8.960865426247896
      ],
      [
        "▁period",
        -7.413159132792199
      ],
      [
        "▁learn",
        -8.315480642049883
      ],
      [
        "read",
        -5.745973914349878
      ],
      [
        "▁mu",
        -5.496880053479114
      ],
      [
        "▁ha",
        -4.343238869011367
      ],
      [
        "▁8",
        -5.378483124250874
      ],
      [
        "▁it",
        -4.990832559725664
      ],
      [
        "▁colleague",
        -8.923226441787417
      ],
      [
        "▁de",
        -12.371289160620995
      ],
      [
        "▁actor",
        -9.084292713292339
      ],
      [
        "▁fore",
        -8.923465069221695
      ],
      [
        "ur",
        -11.938972523959853
      ],
      [
        "▁cold",
        -6.679730130703026
      ],
      [
        "/",
        -7.232475893671974
      ],
      [
        "thou",
        -5.2755113615352185
      ],
      [
        "countries",
        -7.335963384501514
      ],
      [
        "▁intellig",
        -8.511749936789036
      ],
      [
        "▁continue",
        -6.897750134033349
      ],
      [
        "▁manage",
        -8.423583778435727
      ],
      [
        "▁help",
        -7.578754029107365
      ],
      [
        "▁ba",
        -8.63554649482305
      ],
      [
        "▁c",
        -7.115854882496244
      ],
      [
        "▁10",
        -4.650404494469818
      ],
      [
        "▁warm",
        -9.092386316359836
      ],
      [
        "▁afternoon",
        -6.771518582549797
      ],
      [
        "▁t",
        -6.581326392513223
      ],
      [
        "▁qu",
        -8.601907235679407
      ],
      [
        "▁morning",
        -6.000120143286302
      ],
      [
        "▁distribute",
        -8.56609744035245
      ],
      [
        "▁spot",
        -9.193999268676992
      ],
      [
        "▁defen",
        -8.595791509446329
      ],
      [
        "▁photo",
        -8.667899914117745
      ],
      [
        "▁act",
        -8.31177302297877
      ],
      [
        "▁ma",
        -6.304844418931761
      ],
      [
        "▁b",
        -7.005897978310935
      ],
      [
        "ooooo",
        -12.71015855894965
      ],
      [
        "▁passe",
        -8.470532806029887
      ],
      [
        "▁fine",
        -6.622671821318005
      ],
      [
        "▁um",
        -3.615304440315332
      ],
      [
        "▁let",
        -5.266393225607882
      ],
      [
        "▁succeed",
        -8.81956799339538
      ],
      [
        "▁alter",
        -9.364013232035528
      ],
      [
        "▁any",
        -6.715036310546548
      ],
      [
        "▁improve",
        -7.9706922204608
      ],
      [
        "▁phil",
        -5.248908426229393
      ],
      [
        "under",
        -9.182318398461064
      ],
      [
        "▁di",
        -5.822008523961464
      ],
      [
        ">",
        -7.243668748634377
      ],
      [
        "***********",
        -13.214685143023583
      ],
      [
        "▁answer",
        -7.948120084470887
      ],
      [
        "go",
        -8.652390594870235
      ],
      [
        "▁length",
        -9.12387115911736
      ],
      [
        "▁momm",
        -6.828298447791853
      ],
      [
        "▁drink",
        -8.040256502061432
      ],
      [
        "▁jun",
        -8.180361157364022
      ],
      [
        "▁water",
        -8.917076026260121
      ],
      [
        "▁pretend",
        -8.139216432580561
      ],
      [
        "ming",
        -8.557360031403563
      ],
      [
        "▁match",
        -9.081241443968551
      ],
      [
        "▁restriction",
        -8.819697656088554
      ],
      [
        "▁relationship",
        -8.295977476132588
      ],
      [
        "se",
        -9.378030818966653
      ],
      [
        "▁orange",
        -9.080391736416026
      ],
      [
        "b",
        -10.475491467591677
      ],
      [
        "▁so",
        -3.7744192074049634
      ],
      [
        "p",
        -12.28153641900687
      ],
      [
        "▁minute",
        -6.846115463037491
      ],
      [
        "ing",
        -4.779772680984797
      ],
      [
        "ve",
        -8.975014890483797
      ],
      [
        "▁amaz",
        -7.2975510369699
      ],
      [
        "▁w",
        -6.298882848285829
      ],
      [
        "▁potential",
        -9.123870011242285
      ],
      [
        "▁high",
        -6.500572263972546
      ],
      [
        "▁up",
        -5.080133948048412
      ],
      [
        "m",
        -4.633343155688267
      ],
      [
        "▁sheet",
        -8.476896875009034
      ],
      [
        "▁evolv",
        -9.307357676860246
      ],
      [
        "▁specify",
        -9.283681199074485
      ],
      [
        "▁eight",
        -5.45617522748721
      ],
      [
        "▁member",
        -7.293888133461845
      ],
      [
        "****************",
        -9.642473869126556
      ],
      [
        "▁books",
        -8.271999411350793
      ],
      [
        "▁intern",
        -8.260173015318548
      ],
      [
        "out",
        -6.242361992765792
      ],
      [
        "▁co",
        -7.042445747343085
      ],
      [
        "f",
        -2.549806178690008
      ],
      [
        "▁risk",
        -8.221085933683746
      ],
      [
        "▁abo",
        -8.974191354937807
      ],
      [
        "▁cowboy",
        -8.787438184076839
      ],
      [
        "▁cover",
        -7.530766538554042
      ],
      [
        "▁claim",
        -8.419830722262825
      ],
      [
        "er",
        -7.476797335921252
      ],
      [
        "eda",
        -7.39119373799779
      ],
      [
        "msel",
        -8.064757822162456
      ],
      [
        "en",
        -7.180907493805097
      ],
      [
        "▁surprise",
        -8.397995949034483
      ],
      [
        "▁pipe",
        -9.080226385174702
      ],
      [
        "▁emerg",
        -8.615334838944051
      ],
      [
        "l",
        -12.810278406305953
      ],
      [
        "▁12",
        -5.2458269485953
      ],
      [
        "y",
        -3.633985897988561
      ],
      [
        "▁ours",
        -11.444714850985516
      ],
      [
        "▁simpl",
        -6.887166233920471
      ],
      [
        "i",
        -3.6573677594667693
      ],
      [
        "m",
        -9.599321042075395
      ],
      [
        "▁project",
        -9.443500858672703
      ],
      [
        "▁recognize",
        -8.349560514077385
      ],
      [
        "▁communit",
        -7.545179626267756
      ],
      [
        "▁dollar",
        -7.2304002448944455
      ],
      [
        "▁phone",
        -7.184235406349587
      ],
      [
        "▁yo",
        -9.375395264527263
      ],
      [
        "1",
        -12.810278406305976
      ],
      [
        "n",
        -4.72563031026995
      ],
      [
        "h",
        -6.846743245280662
      ],
      [
        "▁queries",
        -9.18332801795523
      ],
      [
        "▁rent",
        -8.812025043454252
      ],
      [
        "▁he",
        -5.355777969941404
      ],
      [
        "al",
        -5.958726361627539
      ],
      [
        "----",
        -10.83180367459837
      ],
      [
        "e",
        -2.362962577693258
      ],
      [
        "ever",
        -6.0073375635282105
      ],
      [
        "▁treat",
        -7.700576317288588
      ],
      [
        "▁fort",
        -6.67782007577805
      ],
      [
        "▁a",
        -5.967256489737386
      ],
      [
        "▁airline",
        -5.684454962162794
      ],
      [
        "ic",
        -6.031345409737585
      ],
      [
        "▁co",
        -7.205937425386225
      ],
      [
        "▁goal",
        -8.0871612786386
      ],
      [
        "bo",
        -6.774893251226908
      ],
      [
        "▁l",
        -8.926943481680606
      ],
      [
        "▁reserve",
        -9.08039827298765
      ],
      [
        "les",
        -6.373733205880214
      ],
      [
        "▁fee",
        -7.36741630764531
      ],
      [
        "use",
        -7.908039679543822
      ],
      [
        "▁late",
        -6.267339765221746
      ],
      [
        "▁majorit",
        -8.613444370554797
      ],
      [
        "▁mosquito",
        -9.038725017162863
      ],
      [
        "▁hi",
        -5.3515630451182075
      ],
      [
        "▁?!?",
        -13.944841065246216
      ],
      [
        "▁career",
        -8.303245205045553
      ],
      [
        "▁admit",
        -9.184319919238236
      ],
      [
        "▁whi",
        -8.851405274144836
      ],
      [
        "▁pitt",
        -5.109957628049473
      ],
      [
        "ge",
        -8.390309779020665
      ],
      [
        "▁found",
        -6.336787716580186
      ],
      [
        "▁leader",
        -8.143862894022408
      ],
      [
        "n",
        -4.454280324818546
      ],
      [
        "▁feather",
        -9.171252181532425
      ],
      [
        "mike",
        -7.140322264104477
      ],
      [
        "▁orla",
        -6.661679213327273
      ],
      [
        "▁diaper",
        -8.887514306500762
      ],
      [
        "▁bench",
        -9.123873400302152
      ],
      [
        "▁access",
        -9.360592997055347
      ],
      [
        "▁i",
        -7.733415807312335
      ],
      [
        "y",
        -4.796594636724666
      ],
      [
        "▁earn",
        -8.527899775111031
      ],
      [
        "▁pie",
        -8.60970273545404
      ],
      [
        "how",
        -6.8343150304575
      ],
      [
        "▁agricultur",
        -9.038725017166328
      ],
      [
        "▁..",
        -13.091198978275363
      ],
      [
        "ock",
        -6.949752816097767
      ],
      [
        "ly",
        -7.767757140854561
      ],
      [
        "▁format",
        -8.296763971128419
      ],
      [
        "▁chic",
        -6.464542883881845
      ],
      [
        "▁occasion",
        -8.998725074701786
      ],
      [
        "▁w/",
        -11.15379541592156
      ],
      [
        "▁boat",
        -7.6099188262353135
      ],
      [
        "ve",
        -8.540782673552975
      ],
      [
        "ce",
        -7.959106722472015
      ],
      [
        "ou",
        -10.954094405007353
      ],
      [
        "▁furni",
        -8.819700415584807
      ],
      [
        "wh",
        -8.549184731091053
      ],
      [
        "le",
        -6.872979158718937
      ],
      [
        "▁adult",
        -8.376719370603144
      ],
      [
        "m",
        -6.234681282410025
      ],
      [
        "al",
        -6.561525238534631
      ],
      [
        "gen",
        -9.024920985422918
      ],
      [
        "▁grammar",
        -8.960263484107442
      ],
      [
        "▁fi",
        -4.740511853306687
      ],
      [
        "!!!!!!!!!!!!!!!!",
        -11.398152869348259
      ],
      [
        "their",
        -8.058235903390358
      ],
      [
        "▁sky",
        -8.1025562247717
      ],
      [
        "look",
        -8.924097104575832
      ],
      [
        "ain",
        -7.576259667897785
      ],
      [
        "/",
        -13.8725705263812
      ],
      [
        "ac",
        -7.160388903002505
      ],
      [
        "▁cut",
        -6.988656765585494
      ],
      [
        "▁point",
        -6.776556051656632
      ],
      [
        "re",
        -7.538895177674713
      ],
      [
        "▁sister",
        -8.040302769378005
      ],
      [
        "▁entit",
        -8.853128391993668
      ],
      [
        "▁deal",
        -7.63485871442625
      ],
      [
        "▁why",
        -4.973704831338078
      ],
      [
        "h",
        -9.530401437393046
      ],
      [
        "$",
        -11.28153641900687
      ],
      [
        "▁light",
        -6.78941206518117
      ],
      [
        "▁knock",
        -8.290881246865812
      ],
      [
        "▁participat",
        -9.424939284286868
      ],
      [
        "▁crowd",
        -8.960264387560278
      ],
      [
        "▁price",
        -6.71495658941383
      ],
      [
        "▁decide",
        -7.1256742126874455
      ],
      [
        "▁describ",
        -9.139284859075023
      ],
      [
        "▁very",
        -4.371071920638461
      ],
      [
        "sit",
        -9.383504073805348
      ],
      [
        "▁ones",
        -10.697747661474345
      ],
      [
        "▁range",
        -8.5386288540977
      ],
      [
        "▁score",
        -9.03872693085847
      ],
      [
        "▁su",
        -7.568302466784634
      ],
      [
        "▁b",
        -6.612012272435214
      ],
      [
        "g",
        -10.925660239071423
      ],
      [
        "keep",
        -9.170125644337698
      ],
      [
        "▁mean",
        -8.018083086506497
      ],
      [
        "▁how",
        -5.336934980005224
      ],
      [
        "hey",
        -12.24726347818536
      ],
      [
        "▁band",
        -7.930891841909928
      ],
      [
        "▁noise",
        -8.151601393382219
      ],
      [
        "en",
        -7.94383763680862
      ],
      [
        "have",
        -7.697358281809178
      ],
      [
        "ic",
        -7.61690669834341
      ],
      [
        "▁see",
        -4.551308700229445
      ],
      [
        "▁mov",
        -7.166072223475296
      ],
      [
        "▁remind",
        -8.351327217733763
      ],
      [
        "▁sentence",
        -8.923232579359775
      ],
      [
        "▁wave",
        -8.82699765897334
      ],
      [
        "▁cur",
        -6.97220494149292
      ],
      [
        "▁waste",
        -9.038733443818636
      ],
      [
        "▁land",
        -8.482368756490764
      ],
      [
        "▁cheape",
        -6.199647512997842
      ],
      [
        "right",
        -7.391738418087057
      ],
      [
        "▁serve",
        -6.80670337700455
      ],
      [
        "s",
        -2.856836203130574
      ],
      [
        "▁review",
        -8.033199575130796
      ],
      [
        "▁field",
        -7.094005265707065
      ],
      [
        "▁opportunit",
        -7.913327564373368
      ],
      [
        "has",
        -9.011977185158957
      ],
      [
        "▁decline",
        -9.11707460588914
      ],
      [
        "▁dust",
        -8.854501243006426
      ],
      [
        "fusion",
        -9.171436463383738
      ],
      [
        "▁assess",
        -8.689162915160052
      ],
      [
        "▁contin",
        -6.9749752562620015
      ],
      [
        "ath",
        -10.701134267338519
      ],
      [
        "work",
        -8.921642084877405
      ],
      [
        "▁marr",
        -8.344179040642356
      ],
      [
        "f",
        -6.619575894914964
      ],
      [
        "▁lick",
        -8.629187638831143
      ],
      [
        "▁19",
        -5.4772626976529235
      ],
      [
        "▁suppose",
        -7.33864174470321
      ],
      [
        "▁researcher",
        -9.117416334669539
      ],
      [
        "▁update",
        -9.307863758981759
      ],
      [
        "▁exercise",
        -9.331770677504128
      ],
      [
        "▁photograph",
        -8.458866092533235
      ],
      [
        "▁butter",
        -8.39899608425373
      ],
      [
        "▁feeling",
        -8.563669727287229
      ],
      [
        "▁cur",
        -8.932579823331764
      ],
      [
        "▁psycholog",
        -9.216958332728755
      ],
      [
        "’",
        -13.8724705263812
      ],
      [
        ".",
        -9.0084367062112
      ],
      [
        "’",
        -8.311179329526977
      ],
      [
        "▁sha",
        -13.234491823502221
      ],
      [
        "▁red",
        -6.333813204650047
      ],
      [
        "▁theor",
        -7.824664755149863
      ],
      [
        "▁diversi",
        -9.0397668880492
      ],
      [
        "i",
        -5.516102924902142
      ],
      [
        "▁visit",
        -8.5344686408947
      ],
      [
        "▁problem",
        -6.648347422405645
      ],
      [
        "▁.........",
        -13.962818968391915
      ],
      [
        "▁day",
        -5.5497980852745314
      ],
      [
        "▁kitten",
        -8.697743301369814
      ],
      [
        "--------",
        -11.127153465961992
      ],
      [
        "▁separate",
        -8.89988291275871
      ],
      [
        "t",
        -3.4258600649643967
      ],
      [
        "▁describe",
        -7.5151118278972
      ],
      [
        "▁_",
        -6.233767671506925
      ],
      [
        "▁.....",
        -12.537509853927435
      ],
      [
        "▁advance",
        -8.998727169652906
      ],
      [
        "what",
        -7.801290938444229
      ],
      [
        "▁squeeze",
        -9.058207563184354
      ],
      [
        "00",
        -5.601908175947245
      ],
      [
        "▁c",
        -6.691884532447162
      ],
      [
        "p",
        -12.303800120175861
      ],
      [
        "ell",
        -9.376633534543751
      ],
      [
        "▁spot",
        -8.421205824207409
      ],
      [
        "▁apri",
        -8.581647655106377
      ],
      [
        "▁ce",
        -8.811721279934048
      ],
      [
        "es",
        -6.876952332114524
      ],
      [
        "@",
        -8.595300215537408
      ],
      [
        "▁institution",
        -8.35588601986888
      ],
      [
        "▁long",
        -5.65343326945267
      ],
      [
        "▁telephone",
        -8.696992992380663
      ],
      [
        "re",
        -6.5270678446587755
      ],
      [
        "_",
        -4.456929594736267
      ],
      [
        "*",
        -8.693194179626392
      ],
      [
        "▁measure",
        -8.120096173602686
      ],
      [
        "tel",
        -6.390730603715606
      ],
      [
        "re",
        -11.340506330349147
      ],
      [
        "▁apply",
        -7.699492334367162
      ],
      [
        "▁bug",
        -8.261220481087907
      ],
      [
        "▁income",
        -8.787455464565479
      ],
      [
        "▁flew",
        -9.36325101694856
      ],
      [
        "7",
        -9.216902069764288
      ],
      [
        "▁avoid",
        -7.722032801214737
      ],
      [
        "▁hell",
        -5.579624852051386
      ],
      [
        "de",
        -8.535528435239922
      ],
      [
        "▁responsibilit",
        -8.355886019880021
      ],
      [
        "▁tie",
        -8.806909932474442
      ],
      [
        "▁resident",
        -9.169324874442342
      ],
      [
        "▁scientist",
        -8.887514103807998
      ],
      [
        "▁matter",
        -7.505720524888654
      ],
      [
        "▁crawl",
        -9.283315065899274
      ],
      [
        "▁expe",
        -7.313414294763917
      ],
      [
        "▁rang",
        -8.982017603045382
      ],
      [
        "▁oh",
        -3.2899133699130756
      ],
      [
        "▁gotte",
        -9.31265395207345
      ],
      [
        "!!!!!",
        -11.849555816551455
      ],
      [
        "▁1",
        -4.047171860870492
      ],
      [
        "ext",
        -7.384595250247742
      ],
      [
        "▁15",
        -5.4561862377902095
      ],
      [
        "▁inch",
        -8.93084191236678
      ],
      [
        "▁set",
        -6.866630984593461
      ],
      [
        "▁language",
        -6.993077345197551
      ],
      [
        "f",
        -8.590723168736831
      ],
      [
        "▁punch",
        -8.91668404709228
      ],
      [
        "ch",
        -6.965200618973387
      ],
      [
        "▁home",
        -6.828055413329657
      ],
      [
        "▁disaster",
        -8.56114092810419
      ],
      [
        "▁flavor",
        -8.923226451209459
      ],
      [
        "whom",
        -12.043381109938869
      ],
      [
        "night",
        -8.138923327664049
      ],
      [
        "a",
        -2.8896488760980406
      ],
      [
        "tter",
        -6.783327446752775
      ],
      [
        "▁sink",
        -9.17224950914374
      ],
      [
        "ap",
        -8.545134066423048
      ],
      [
        "▁basi",
        -8.241400965249298
      ],
      [
        "i",
        -1.9310834849042582
      ],
      [
        "▁record",
        -8.25522370849124
      ],
      [
        "l",
        -6.794751193104144
      ],
      [
        "▁strength",
        -8.819696064223113
      ],
      [
        "▁u.s.",
        -7.293928547996556
      ],
      [
        "ian",
        -6.0764278226503095
      ],
      [
        "▁t",
        -8.51074744854803
      ],
      [
        "we",
        -9.175861871794693
      ],
      [
        "▁whale",
        -8.613334126188366
      ],
      [
        "▁benefit",
        -8.68921933497451
      ],
      [
        "t",
        -4.573340008156835
      ],
      [
        "▁lot",
        -6.288690508911256
      ],
      [
        "▁administration",
        -8.29629837316273
      ],
      [
        "▁date",
        -9.442067739645166
      ],
      [
        "▁",
        -1.429224151881007
      ],
      [
        "▁award",
        -9.145675020118118
      ],
      [
        "▁natural",
        -6.989556970057124
      ],
      [
        "▁line",
        -9.336035042585555
      ],
      [
        "▁d",
        -8.180990272888579
      ],
      [
        "▁dal",
        -5.1031312299685965
      ],
      [
        "▁free",
        -6.3132940497602625
      ],
      [
        "▁se",
        -8.094494879163094
      ],
      [
        "▁production",
        -8.652641772090615
      ],
      [
        "▁top",
        -7.426473898343171
      ],
      [
        "▁letter",
        -7.204077513325634
      ],
      [
        "▁wind",
        -8.257774807265097
      ],
      [
        "▁ma",
        -8.539376449403818
      ],
      [
        "▁bother",
        -8.347322225484815
      ],
      [
        "▁we",
        -5.969460857835287
      ],
      [
        "▁acco",
        -7.520476654430368
      ],
      [
        "a",
        -5.205257851429506
      ],
      [
        "▁some",
        -6.593686694992894
      ],
      [
        "▁s",
        -7.2016004436635175
      ],
      [
        "i",
        -5.226793519697355
      ],
      [
        "▁produce",
        -7.63749091094875
      ],
      [
        "v",
        -6.9140258171198665
      ],
      [
        "an",
        -6.580590713007868
      ],
      [
        "▁investment",
        -8.853029441446814
      ],
      [
        "▁ski",
        -9.001797112228406
      ],
      [
        "▁toward",
        -7.687252074323171
      ],
      [
        "ddy",
        -5.597179594980002
      ],
      [
        "▁feature",
        -9.064491124353996
      ],
      [
        "▁speak",
        -7.239835423288421
      ],
      [
        "▁clear",
        -6.855258059848384
      ],
      [
        "▁smell",
        -8.186978174367109
      ],
      [
        "▁session",
        -8.790145808509296
      ],
      [
        "more",
        -7.0924871061843655
      ],
      [
        "▁other",
        -8.386331254747677
      ],
      [
        "▁act",
        -8.041418261246278
      ],
      [
        "▁explanation",
        -9.080391683847203
      ],
      [
        "d",
        -10.889404706649984
      ],
      [
        "▁any",
        -6.200640577973125
      ],
      [
        "▁thank",
        -6.299459731837786
      ],
      [
        "led",
        -7.211734321165092
      ],
      [
        "▁bo",
        -8.678440275998891
      ],
      [
        "des",
        -8.219792757979947
      ],
      [
        "▁project",
        -7.32143208008294
      ],
      [
        "no",
        -6.988244225294419
      ],
      [
        "an",
        -13.70487764730738
      ],
      [
        "sel",
        -8.826133072965293
      ],
      [
        "▁budget",
        -8.56114044043177
      ],
      [
        "oth",
        -8.842116098097984
      ],
      [
        "▁explain",
        -7.175392007103508
      ],
      [
        "▁favorite",
        -9.038734018345819
      ],
      [
        "▁pull",
        -7.056814369868905
      ],
      [
        "▁dut",
        -8.881334110534642
      ],
      [
        "ball",
        -8.210648347070492
      ],
      [
        "l",
        -5.233182386482138
      ],
      [
        "▁glove",
        -8.960278470228184
      ],
      [
        "▁propose",
        -7.770609407272636
      ],
      [
        "li",
        -7.823242699792452
      ],
      [
        "a",
        -3.0361378326562036
      ],
      [
        "er",
        -8.073934204086363
      ],
      [
        "later",
        -5.988474399927434
      ],
      [
        "▁airport",
        -7.597956423971422
      ],
      [
        "▁as",
        -3.75801648861614
      ],
      [
        "▁g",
        -7.277611285017578
      ],
      [
        "elf",
        -12.595825789223744
      ],
      [
        "▁buy",
        -6.587746264825932
      ],
      [
        "▁louis",
        -7.042205573267505
      ],
      [
        "▁enj",
        -8.787562149609283
      ],
      [
        "▁group",
        -6.604477869223665
      ],
      [
        "▁sudden",
        -7.4773120002241225
      ],
      [
        "▁emergenc",
        -8.887512155990327
      ],
      [
        "▁birthday",
        -7.589134761512645
      ],
      [
        "▁christ",
        -7.300928525557131
      ],
      [
        "▁-",
        -7.106383807340565
      ],
      [
        "▁request",
        -8.139182503322722
      ],
      [
        "es",
        -6.190263414163086
      ],
      [
        "▁cop",
        -8.740136652838359
      ],
      [
        "▁allow",
        -6.9809427988303
      ],
      [
        "dl",
        -7.48629222181447
      ],
      [
        "▁movie",
        -7.421236012705993
      ],
      [
        "!",
        -5.002391128270716
      ],
      [
        "▁long",
        -5.947503023927554
      ],
      [
        "▁movement",
        -8.356868242298713
      ],
      [
        "▁parti",
        -6.861010162495646
      ],
      [
        "▁man",
        -6.271984359750811
      ],
      [
        "▁thing",
        -5.613395197413895
      ],
      [
        "▁pet",
        -8.137475773635654
      ],
      [
        "ough",
        -6.757999109291238
      ],
      [
        "▁state",
        -8.068356973088136
      ],
      [
        "▁woman",
        -7.523440864577599
      ],
      [
        "▁mont",
        -6.667462772909577
      ],
      [
        "▁trust",
        -8.121345029439361
      ],
      [
        "▁creation",
        -8.730163473427641
      ],
      [
        "hes",
        -13.2536395611446
      ],
      [
        "ler",
        -8.88877676002035
      ],
      [
        "▁’",
        -11.653797199629468
      ],
      [
        "over",
        -9.188771017412943
      ],
      [
        "politic",
        -6.515086073278683
      ],
      [
        "ie",
        -6.594805163020693
      ],
      [
        "**********",
        -11.18260191905142
      ],
      [
        "▁viol",
        -8.99574909449927
      ],
      [
        "r",
        -4.205444117082512
      ],
      [
        "▁save",
        -7.460705679004733
      ],
      [
        "▁destination",
        -9.040245096768253
      ],
      [
        "ion",
        -6.180732240892203
      ],
      [
        "▁europe",
        -6.770604656035175
      ],
      [
        "see",
        -9.049613460170495
      ],
      [
        "▁permit",
        -9.024763626504695
      ],
      [
        "i",
        -2.9052598758450294
      ],
      [
        "▁pl",
        -8.198259039806256
      ],
      [
        "▁cin",
        -7.1514701452127625
      ],
      [
        "▁meeting",
        -7.541541333205604
      ],
      [
        "▁bit",
        -6.857625465961402
      ],
      [
        "▁whom",
        -8.815811107281924
      ],
      [
        "▁rise",
        -9.231808899821043
      ],
      [
        "ww",
        -11.770677750629414
      ],
      [
        "ia",
        -7.981307519787568
      ],
      [
        "▁reason",
        -7.171711951534217
      ],
      [
        "▁fork",
        -8.853353228946016
      ],
      [
        "▁what",
        -4.999866406006407
      ],
      [
        "▁declaration",
        -9.080392191392056
      ],
      [
        "▁threaten",
        -8.917157554625366
      ],
      [
        "▁|",
        -9.776609991678535
      ],
      [
        "u",
        -4.005956395885905
      ],
      [
        "eeth",
        -8.36355984555763
      ],
      [
        "will",
        -7.214694535384876
      ],
      [
        "▁cycle",
        -8.853030354716765
      ],
      [
        "bal",
        -6.877981207083328
      ],
      [
        "=",
        -11.380897020098319
      ],
      [
        "▁think",
        -4.867037107920854
      ],
      [
        "▁da",
        -9.772392388497229
      ],
      [
        "ect",
        -8.250049229689823
      ],
      [
        "ver",
        -4.643486516394232
      ],
      [
        "▁towel",
        -8.96078834267023
      ],
      [
        "▁belong",
        -7.909109751690545
      ],
      [
        "n",
        -5.575385108590866
      ],
      [
        "us",
        -9.889961405511787
      ],
      [
        "head",
        -7.109249811403601
      ],
      [
        "l",
        -7.778878820001796
      ],
      [
        "m",
        -8.111314411788435
      ],
      [
        "nforcement",
        -8.960943401215788
      ],
      [
        "▁kind",
        -6.315144828800624
      ],
      [
        "ta",
        -8.247675919960205
      ],
      [
        "▁wh",
        -5.509002581214282
      ],
      [
        "c",
        -5.811834898890697
      ],
      [
        "▁18",
        -5.485808363114372
      ],
      [
        "_",
        -7.394377796483064
      ],
      [
        "▁[",
        -9.009499651994831
      ],
      [
        "▁cross",
        -8.458026529841618
      ],
      [
        "▁murder",
        -8.71929972009357
      ],
      [
        "▁mrs",
        -8.86825412372855
      ],
      [
        "ere",
        -8.9394830435864
      ],
      [
        "▁complaint",
        -9.21694353777194
      ],
      [
        "▁identit",
        -9.050786148158148
      ],
      [
        "o",
        -4.960517581308592
      ],
      [
        "▁common",
        -6.83188665264987
      ],
      [
        "c",
        -6.008928337258089
      ],
      [
        "▁concern",
        -8.18734877856811
      ],
      [
        "▁_______",
        -11.336214334389922
      ],
      [
        "ent",
        -5.270498460199944
      ],
      [
        "ual",
        -6.36502189831647
      ],
      [
        "▁los",
        -7.057733230058733
      ],
      [
        "▁quer",
        -8.438819969914144
      ],
      [
        "▁in",
        -5.300291641118423
      ],
      [
        "▁mor",
        -5.345130170783909
      ],
      [
        "▁bound",
        -9.29915380952337
      ],
      [
        "▁r",
        -7.875906494424209
      ],
      [
        "▁finance",
        -8.853698989640836
      ],
      [
        "▁man",
        -4.986646391547884
      ],
      [
        "▁de",
        -8.417906198579672
      ],
      [
        "▁bring",
        -6.61685591217293
      ],
      [
        "is",
        -7.10095694405546
      ],
      [
        "▁agent",
        -8.419758597200811
      ],
      [
        "▁whos",
        -8.171894668355208
      ],
      [
        "▁student",
        -7.479573187494293
      ],
      [
        "▁call",
        -7.3899739535727065
      ],
      [
        "▁'",
        -9.685211806328248
      ],
      [
        "...............",
        -11.214670331718136
      ],
      [
        "▁game",
        -6.67492127272534
      ],
      [
        "......",
        -13.08817150327664
      ],
      [
        "▁kill",
        -7.261076649944989
      ],
      [
        "▁something",
        -8.464707426664663
      ],
      [
        "▁mous",
        -8.641673365966716
      ],
      [
        "▁child",
        -7.42935127369154
      ],
      [
        "▁legislat",
        -8.819380215675938
      ],
      [
        "shed",
        -9.252416951702074
      ],
      [
        "▁may",
        -6.751293367918482
      ],
      [
        "▁we",
        -7.78527139394196
      ],
      [
        "▁result",
        -7.389348607007523
      ],
      [
        "▁camera",
        -8.511750096923526
      ],
      [
        "[MASK]",
        0.0
      ],
      [
        "n",
        -1.763362936029182
      ],
      [
        "long",
        -7.46212460326381
      ],
      [
        "▁entr",
        -9.1383560766978
      ],
      [
        "▁no",
        -3.1231490279289718
      ],
      [
        "'s",
        -8.603282909460837
      ],
      [
        "r",
        -3.544374778346116
      ],
      [
        "ta",
        -7.14777299921885
      ],
      [
        "▁view",
        -7.225935158585302
      ],
      [
        "▁bird",
        -7.366092448597783
      ],
      [
        "t",
        -2.591311722972385
      ],
      [
        "▁amount",
        -7.2781239419419075
      ],
      [
        "nix",
        -6.4753455168319265
      ],
      [
        "▁as",
        -4.879682590360853
      ],
      [
        "▁loan",
        -8.442527330374492
      ],
      [
        "c",
        -8.638626362649184
      ],
      [
        "▁shake",
        -8.986524122660615
      ],
      [
        "aught",
        -7.744287489299082
      ],
      [
        "▁po",
        -8.808024522037588
      ],
      [
        "▁tow",
        -8.99433038713105
      ],
      [
        "▁hid",
        -8.684293292126576
      ],
      [
        "▁owe",
        -9.309170567773855
      ],
      [
        "▁error",
        -8.51175283318299
      ],
      [
        "▁cancel",
        -8.969339575900687
      ],
      [
        "up",
        -7.969355360081218
      ],
      [
        "phi",
        -7.032070604541475
      ],
      [
        "▁<",
        -9.936691962505732
      ],
      [
        "▁til",
        -10.08890471521851
      ],
      [
        "▁treatment",
        -8.277292309821547
      ],
      [
        "▁performance",
        -8.315616760243579
      ],
      [
        "upper",
        -9.000223696652167
      ],
      [
        "bec",
        -10.574143790540935
      ],
      [
        "▁here",
        -4.079579998525942
      ],
      [
        "▁return",
        -6.980570236197516
      ],
      [
        "▁coat",
        -8.93179522025958
      ],
      [
        "▁fai",
        -8.907171450632363
      ],
      [
        "▁collect",
        -7.953103109768134
      ],
      [
        "▁week",
        -6.45605071409975
      ],
      [
        "▁complain",
        -9.025065023844638
      ],
      [
        "▁progress",
        -8.561140223292318
      ],
      [
        "▁with",
        -3.805476671507483
      ],
      [
        "▁sing",
        -8.947672389427074
      ],
      [
        "▁…",
        -9.511839873390812
      ],
      [
        "▁infrastructure",
        -9.038725017166236
      ],
      [
        "▁texa",
        -6.900880991406102
      ],
      [
        "dy",
        -7.034797477489856
      ],
      [
        "▁implement",
        -8.887512159290889
      ],
      [
        "▁suspect",
        -8.610884333859165
      ],
      [
        "▁!!!!!!!!!!!!!",
        -13.199573544020165
      ],
      [
        "▁magic",
        -8.923077971104512
      ],
      [
        "▁sorr",
        -6.765052041130429
      ],
      [
        "▁smoke",
        -9.40119212792208
      ],
      [
        "▁sugar",
        -8.640386033794908
      ],
      [
        "▁copyright",
        -9.217000553989449
      ],
      [
        "▁foot",
        -7.82486781085991
      ],
      [
        "th",
        -6.262439557465997
      ],
      [
        "▁out",
        -5.28307788551118
      ],
      [
        "▁agreement",
        -7.523439646606449
      ],
      [
        "the",
        -8.916273046268788
      ],
      [
        "▁beside",
        -8.602917140222484
      ],
      [
        "▁commitment",
        -9.080391694616416
      ],
      [
        "go",
        -8.520333324768858
      ],
      [
        "▁execute",
        -8.568324959413838
      ],
      [
        "▁pott",
        -8.226039811563332
      ],
      [
        "der",
        -8.163473377761157
      ],
      [
        "▁route",
        -8.787455504387772
      ],
      [
        "sible",
        -5.963259940662837
      ],
      [
        "▁operat",
        -9.416450268859371
      ],
      [
        "▁discussion",
        -8.37671935351842
      ],
      [
        "▁hospital",
        -8.315477856718175
      ],
      [
        "▁chapter",
        -8.998945280624355
      ],
      [
        "ver",
        -10.086671659406763
      ],
      [
        "▁bathroom",
        -8.276823487567986
      ],
      [
        "▁min",
        -8.852916290154063
      ],
      [
        "“",
        -6.491662973714449
      ],
      [
        "sed",
        -9.034925344918342
      ],
      [
        "▁!!!",
        -8.822914129701736
      ],
      [
        "▁...",
        -9.238424474979164
      ],
      [
        ".com",
        -6.587277844321583
      ],
      [
        "▁title",
        -8.725911657682675
      ],
      [
        "▁oz",
        -9.169452320591136
      ],
      [
        "▁roll",
        -8.093633649111608
      ],
      [
        "▁clos",
        -8.852234879791947
      ],
      [
        "for",
        -4.020786215354944
      ],
      [
        "▁tha",
        -6.431820319444924
      ],
      [
        "▁weapon",
        -8.071495550712495
      ],
      [
        "▁tiger",
        -8.640139438657584
      ],
      [
        "▁sun",
[...]
