{
  "version": "1.0",
  "truncation": null,
  "padding": null,
  "added_tokens": [
    {
      "id": 6501,
      "content": "[PAD]",
      "single_word": false,
      "lstrip": false,
      "rstrip": false,
      "normalized": false,
      "special": true
    },
    {
      "id": 7666,
      "content": "[MASK]",
      "single_word": false,
      "lstrip": false,
      "rstrip": false,
      "normalized": false,
      "special": true
    },
    {
      "id": 7844,
      "content": "[UNK]",
      "single_word": false,
      "lstrip": false,
      "rstrip": false,
      "normalized": false,
      "special": true
    },
    {
      "id": 12879,
      "content": "[CLS]",
      "single_word": false,
      "lstrip": false,
      "rstrip": false,
      "normalized": false,
      "special": true
    },
    {
      "id": 13292,
      "content": "[SEP]",
      "single_word": false,
      "lstrip": false,
      "rstrip": false,
      "normalized": false,
      "special": true
    }
  ],
  "normalizer": {
    "type": "Sequence",
    "normalizers": [
      {
        "type": "NFD"
      },
      {
        "type": "Lowercase"
      },
      {
        "type": "StripAccents"
      }
    ]
  },
  "pre_tokenizer": {
    "type": "Sequence",
    "pretokenizers": [
      {
        "type": "Metaspace",
        "replacement": "▁",
        "prepend_scheme": "always",
        "split": true
      }
    ]
  },
  "post_processor": {
    "type": "TemplateProcessing",
    "single": [
      {
        "SpecialToken": {
          "id": "[CLS]",
          "type_id": 0
        }
      },
      {
        "Sequence": {
          "id": "A",
          "type_id": 0
        }
      },
      {
        "SpecialToken": {
          "id": "[SEP]",
          "type_id": 0
        }
      }
    ],
    "pair": [
      {
        "SpecialToken": {
          "id": "[CLS]",
          "type_id": 0
        }
      },
      {
        "Sequence": {
          "id": "A",
          "type_id": 0
        }
      },
      {
        "SpecialToken": {
          "id": "[SEP]",
          "type_id": 0
        }
      },
      {
        "Sequence": {
          "id": "B",
          "type_id": 1
        }
      },
      {
        "SpecialToken": {
          "id": "[SEP]",
          "type_id": 1
        }
      }
    ],
    "special_tokens": {
      "[CLS]": {
        "id": "[CLS]",
        "ids": [
          12879
        ],
        "tokens": [
          "[CLS]"
        ]
      },
      "[SEP]": {
        "id": "[SEP]",
        "ids": [
          13292
        ],
        "tokens": [
          "[SEP]"
        ]
      }
    }
  },
  "decoder": {
    "type": "Metaspace",
    "replacement": "▁",
    "prepend_scheme": "always",
    "split": true
  },
  "model": {
    "type": "WordPiece",
    "unk_token": "[UNK]",
    "continuing_subword_prefix": "##",
    "max_input_chars_per_word": 100,
    "vocab": {
      "▁candy": 0,
      "▁contested": 1,
      "▁threats": 2,
      "▁rude": 3,
      "▁squirt": 4,
      "##stood": 5,
      "▁slipped": 6,
      "▁scand": 7,
      "▁guaranteeing": 8,
      "▁cognition": 9,
      "##p;": 10,
      "##to": 11,
      "▁chat": 12,
      "▁curriculum": 13,
      "##hel": 14,
      "▁introduc": 15,
      "##rage": 16,
      "##ulate": 17,
      "▁allocated": 18,
      "▁circles": 19,
      "▁interv": 20,
      "▁there": 21,
      "▁trafficking": 22,
      "##holes": 23,
      "▁ecosystems": 24,
      "▁date": 25,
      "▁circum": 26,
      "▁twirl": 27,
      "▁passages": 28,
      "▁realities": 29,
      "##my": 30,
      "▁dies": 31,
      "##estone": 32,
      "▁ec": 33,
      "##0s": 34,
      "▁involved": 35,
      "▁quit": 36,
      "▁ha": 37,
      "▁must": 38,
      "##chn": 39,
      "▁proble": 40,
      "▁airplan": 41,
      "▁tells": 42,
      "▁boots": 43,
      "▁perce": 44,
      "▁form": 45,
      "##rust": 46,
      "##wi": 47,
      "▁beck": 48,
      "▁conventions": 49,
      "##inger": 50,
      "##aste": 51,
      "##ament": 52,
      "▁forgotten": 53,
      "##resp": 54,
      "▁areas": 55,
      "##rty": 56,
      "▁thomas": 57,
      "▁scorp": 58,
      "▁odds": 59,
      "##upled": 60,
      "##son": 61,
      "▁resources": 62,
      "▁whistle": 63,
      "▁recommended": 64,
      "▁dome": 65,
      "▁q": 66,
      "##ortion": 67,
      "▁morcillas": 68,
      "▁paint": 69,
      "▁joining": 70,
      "##pletely": 71,
      "##53": 72,
      "▁pun": 73,
      "▁wanted": 74,
      "##mped": 75,
      "▁provocation": 76,
      "##iece": 77,
      "▁football": 78,
      "▁wasp": 79,
      "▁ego": 80,
      "▁establish": 81,
      "▁appears": 82,
      "▁advisor": 83,
      "▁fueled": 84,
      "▁pounce": 85,
      "##encies": 86,
      "▁futures": 87,
      "▁acupuncturist": 88,
      "▁affiliate": 89,
      "▁accumulation": 90,
      "▁subscribed": 91,
      "▁guidelines": 92,
      "▁grandd": 93,
      "▁grants": 94,
      "▁created": 95,
      "▁bathroom": 96,
      "##iversity": 97,
      "▁lest": 98,
      "▁generates": 99,
      "##ways": 100,
      "▁wedding": 101,
      "##fran": 102,
      "▁thanx": 103,
      "▁negligence": 104,
      "##ects": 105,
      "▁wait": 106,
      "▁voters": 107,
      "##itage": 108,
      "▁laundry": 109,
      "▁commerce": 110,
      "▁worksheet": 111,
      "▁old": 112,
      "##rav": 113,
      "##aces": 114,
      "▁buy": 115,
      "##inence": 116,
      "▁sinking": 117,
      "▁map": 118,
      "▁iran": 119,
      "▁well": 120,
      "▁watch": 121,
      "▁employees": 122,
      "▁replication": 123,
      "▁suff": 124,
      "▁childhood": 125,
      "▁gaining": 126,
      "▁squ": 127,
      "▁pile": 128,
      "##-p": 129,
      "▁y": 130,
      "▁israelis": 131,
      "▁daily": 132,
      "▁exceeded": 133,
      "▁bench": 134,
      "▁merry": 135,
      "##ful": 136,
      "▁cham": 137,
      "▁transmed": 138,
      "▁answering": 139,
      "▁bankruptcy": 140,
      "▁hm": 141,
      "▁triumph": 142,
      "##ocks": 143,
      "▁spend": 144,
      "▁buc": 145,
      "▁input": 146,
      "▁dynamics": 147,
      "▁u": 148,
      "▁headed": 149,
      "▁charlie": 150,
      "▁ammunition": 151,
      "▁abundance": 152,
      "##utes": 153,
      "##ortant": 154,
      "▁postage": 155,
      "▁central": 156,
      "▁!!!?": 157,
      "##urally": 158,
      "▁gives": 159,
      "▁gallon": 160,
      "▁fig": 161,
      "▁x36": 162,
      "▁wonderful": 163,
      "▁indian": 164,
      "▁once": 165,
      "▁uva": 166,
      "##lifish": 167,
      "▁hard": 168,
      "##nesday": 169,
      "▁practices": 170,
      "▁promises": 171,
      "##cently": 172,
      "##cally": 173,
      "▁mar": 174,
      "▁invention": 175,
      "##chang": 176,
      "▁stub": 177,
      "##read": 178,
      "▁commits": 179,
      "##quently": 180,
      "▁rip": 181,
      "▁belts": 182,
      "▁oblig": 183,
      "▁popup": 184,
      "##actions": 185,
      "▁felt": 186,
      "▁excitement": 187,
      "▁waterway": 188,
      "▁finance": 189,
      "▁ra": 190,
      "▁obstacle": 191,
      "▁rescued": 192,
      "▁labeled": 193,
      "##roc": 194,
      "##ointment": 195,
      "▁blows": 196,
      "▁driver": 197,
      "▁donkey": 198,
      "▁identify": 199,
      "▁memorial": 200,
      "▁fail": 201,
      "▁plug": 202,
      "##bt": 203,
      "▁fairs": 204,
      "▁will": 205,
      "▁spons": 206,
      "▁amendment": 207,
      "▁capit": 208,
      "▁contrad": 209,
      "▁sir": 210,
      "▁tamed": 211,
      "▁busted": 212,
      "##gold": 213,
      "▁golden": 214,
      "▁with": 215,
      "▁diesel": 216,
      "▁const": 217,
      "▁commission": 218,
      "▁upside": 219,
      "▁first": 220,
      "▁inscri": 221,
      "▁reind": 222,
      "▁gogg": 223,
      "▁forward": 224,
      "▁trees": 225,
      "▁pushes": 226,
      "▁hasid": 227,
      "▁mid-": 228,
      "##hirt": 229,
      "▁outcome": 230,
      "▁hinds": 231,
      "▁papers": 232,
      "##enron.com": 233,
      "▁management": 234,
      "##teen": 235,
      "▁coinc": 236,
      "▁cradle": 237,
      "▁mistakes": 238,
      "##zers": 239,
      "##atme": 240,
      "▁dime": 241,
      "▁tying": 242,
      "##un": 243,
      "▁conduct": 244,
      "▁...................": 245,
      "▁histories": 246,
      "##ecuted": 247,
      "▁wai": 248,
      "##ioned": 249,
      "##ighed": 250,
      "▁indic": 251,
      "▁varied": 252,
      "##itude": 253,
      "▁ever": 254,
      "##oice": 255,
      "▁flush": 256,
      "##arr": 257,
      "##ished": 258,
      "▁distributed": 259,
      "▁dried": 260,
      "▁reserve": 261,
      "▁boy": 262,
      "▁disappear": 263,
      "▁prophet": 264,
      "▁sometimes": 265,
      "▁subjected": 266,
      "▁clues": 267,
      "##se": 268,
      "▁intrud": 269,
      "▁partnership": 270,
      "▁motive": 271,
      "▁gast": 272,
      "▁info": 273,
      "▁tum": 274,
      "▁appellants": 275,
      "▁pillars": 276,
      "##ead": 277,
      "▁incubation": 278,
      "▁facilitated": 279,
      "▁forehead": 280,
      "▁nut": 281,
      "##hind": 282,
      "##inity": 283,
      "▁sudd": 284,
      "▁radar": 285,
      "▁racking": 286,
      "▁continent": 287,
      "▁outc": 288,
      "▁applause": 289,
      "▁said": 290,
      "▁demon": 291,
      "▁bop": 292,
      "▁inn": 293,
      "##cing": 294,
      "▁dimension": 295,
      "▁mat": 296,
      "▁inves": 297,
      "▁cfl": 298,
      "##hikii": 299,
      "##erential": 300,
      "▁caves": 301,
      "##estiv": 302,
      "▁habits": 303,
      "▁oil": 304,
      "▁control": 305,
      "▁tacoma": 306,
      "▁bec": 307,
      "▁tires": 308,
      "▁jobs": 309,
      "▁support": 310,
      "▁transmedia": 311,
      "##org": 312,
      "▁fully": 313,
      "##jects": 314,
      "▁reality": 315,
      "▁enjoyed": 316,
      "▁advoc": 317,
      "▁dlc": 318,
      "##igrants": 319,
      "▁tickles": 320,
      "▁alleged": 321,
      "▁tril": 322,
      "##ails": 323,
      "▁darkness": 324,
      "▁councill": 325,
      "▁sentiment": 326,
      "▁known": 327,
      "▁soldier": 328,
      "##liflower": 329,
      "▁playroom": 330,
      "▁funds": 331,
      "▁********************************": 332,
      "##vant": 333,
      "##throw": 334,
      "▁ray": 335,
      "▁pur": 336,
      "##±": 337,
      "▁generals": 338,
      "▁singles": 339,
      "##erarch": 340,
      "##ke": 341,
      "▁boasts": 342,
      "▁kleenex": 343,
      "##tspots": 344,
      "▁tragedies": 345,
      "▁useful": 346,
      "▁grf": 347,
      "▁divid": 348,
      "▁enrolled": 349,
      "▁endorsed": 350,
      "▁shiny": 351,
      "##atively": 352,
      "▁approxim": 353,
      "▁foreigner": 354,
      "##arians": 355,
      "▁cushion": 356,
      "##ality": 357,
      "##ider": 358,
      "▁prot": 359,
      "▁draw": 360,
      "▁canopy": 361,
      "##igr": 362,
      "▁lean": 363,
      "▁winters": 364,
      "▁hovered": 365,
      "##.rabb": 366,
      "▁party": 367,
      "▁blood": 368,
      "▁emphasize": 369,
      "▁silicone": 370,
      "▁nuis": 371,
      "▁abilities": 372,
      "▁surroundings": 373,
      "▁wipe": 374,
      "▁maintains": 375,
      "▁organizing": 376,
      "▁editing": 377,
      "▁equip": 378,
      "##formation": 379,
      "##singly": 380,
      "##lity": 381,
      "▁thom": 382,
      "▁campaign": 383,
      "▁scan": 384,
      "▁ice": 385,
      "##yan": 386,
      "▁programs": 387,
      "▁phone": 388,
      "##otive": 389,
      "▁dud": 390,
      "▁soft": 391,
      "▁updates": 392,
      "##ackers": 393,
      "▁muttering": 394,
      "▁militias": 395,
      "##alis": 396,
      "##kly": 397,
      "▁rough": 398,
      "▁server": 399,
      "##ad": 400,
      "▁banknote": 401,
      "”": 402,
      "##eak": 403,
      "▁mister": 404,
      "▁bon": 405,
      "▁arising": 406,
      "##earing": 407,
      "▁courtyard": 408,
      "▁abbreviation": 409,
      "▁bigger": 410,
      "▁gent": 411,
      "##oung": 412,
      "##ual": 413,
      "▁encompass": 414,
      "▁dip": 415,
      "▁blamed": 416,
      "##9th": 417,
      "##ards": 418,
      "▁starting": 419,
      "▁egyptian": 420,
      "▁window": 421,
      "▁examination": 422,
      "▁transpar": 423,
      "▁paints": 424,
      "▁grease": 425,
      "##iented": 426,
      "▁song": 427,
      "##izing": 428,
      "▁ukra": 429,
      "##ill": 430,
      "##otto": 431,
      "▁scored": 432,
      "▁impress": 433,
      "▁mm": 434,
      "##????????????????????????????????": 435,
      "▁rap": 436,
      "▁become": 437,
      "▁refunds": 438,
      "▁worshippers": 439,
      "▁modification": 440,
      "▁enh": 441,
      "▁devoted": 442,
      "▁developing": 443,
      "▁filed": 444,
      "▁kim": 445,
      "##ieved": 446,
      "▁geometries": 447,
      "▁flour": 448,
      "▁banned": 449,
      "▁refugee": 450,
      "▁align": 451,
      "▁fligh": 452,
      "▁autumn": 453,
      "▁sim": 454,
      "▁limitations": 455,
      "##hap": 456,
      "▁lion": 457,
      "▁preci": 458,
      "▁wolves": 459,
      "▁criminal": 460,
      "▁prel": 461,
      "▁prob": 462,
      "▁airline": 463,
      "▁atrocities": 464,
      "▁jury": 465,
      "##derstanding": 466,
      "▁associated": 467,
      "▁payers": 468,
      "▁strength": 469,
      "▁rising": 470,
      "▁sources": 471,
      "▁commissioned": 472,
      "▁possessions": 473,
      "▁badge": 474,
      "▁sheltered": 475,
      "▁painting": 476,
      "▁does": 477,
      "##ghted": 478,
      "▁satisfaction": 479,
      "▁chronic": 480,
      "▁sued": 481,
      "▁calculated": 482,
      "▁realised": 483,
      "▁booking": 484,
      "▁analy": 485,
      "▁grade": 486,
      "▁dipping": 487,
      "▁ask": 488,
      "▁districts": 489,
      "▁schedule": 490,
      "▁lil": 491,
      "##ong": 492,
      "##fact": 493,
      "##arked": 494,
      "▁encouraged": 495,
      "▁artich": 496,
      "▁positioning": 497,
      "▁cures": 498,
      "▁globe": 499,
      "▁dialing": 500,
      "▁interpre": 501,
      "▁assert": 502,
      "▁kiss": 503,
      "▁read": 504,
      "▁spanning": 505,
      "▁profession": 506,
      "▁quartile": 507,
      "▁mc": 508,
      "##ecutive": 509,
      "▁myce": 510,
      "▁extremist": 511,
      "▁clothes": 512,
      "▁mood": 513,
      "▁proposals": 514,
      "▁misc": 515,
      "##ito": 516,
      "▁illusion": 517,
      "▁bri": 518,
      "▁stic": 519,
      "▁-----": 520,
      "▁bulldozer": 521,
      "▁tracks": 522,
      "▁ob": 523,
      "▁satisfy": 524,
      "▁looming": 525,
      "##led": 526,
      "##tee": 527,
      "##-m": 528,
      "▁hospital": 529,
      "▁transp": 530,
      "▁wished": 531,
      "▁rn": 532,
      "##iss": 533,
      "▁mud": 534,
      "##olds": 535,
      "▁lod": 536,
      "▁waf": 537,
      "▁baking": 538,
      "##tened": 539,
      "▁delhi": 540,
      "▁hun": 541,
      "##ti": 542,
      "▁homeland": 543,
      "▁alter": 544,
      "▁forever": 545,
      "▁reached": 546,
      "##avi": 547,
      "##inkles": 548,
      "##bil": 549,
      "▁overwhel": 550,
      "▁boosting": 551,
      "##oth": 552,
      "▁received": 553,
      "▁sunlight": 554,
      "▁wifi": 555,
      "▁pecking": 556,
      "▁delta": 557,
      "##ato": 558,
      "▁prolon": 559,
      "##nation": 560,
      "##imated": 561,
      "▁reside": 562,
      "▁dna": 563,
      "▁amounts": 564,
      "▁surrounded": 565,
      "▁cycl": 566,
      "##.pd": 567,
      "▁tide": 568,
      "##uly": 569,
      "▁gam": 570,
      "▁consumers": 571,
      "▁glimpse": 572,
      "▁alth": 573,
      "▁straps": 574,
      "▁refus": 575,
      "▁stunk": 576,
      "▁stickers": 577,
      "▁proceeding": 578,
      "▁phd": 579,
      "▁fundamentalists": 580,
      "▁implications": 581,
      "##dies": 582,
      "▁communicated": 583,
      "##ossing": 584,
      "▁hous": 585,
      "##porter": 586,
      "##ooped": 587,
      "##cially": 588,
      "▁encourages": 589,
      "▁shrubs": 590,
      "▁rank": 591,
      "▁thirtieth": 592,
      "##mest": 593,
      "▁painter": 594,
      "▁cruelty": 595,
      "##rouded": 596,
      "▁n": 597,
      "▁stopping": 598,
      "##ray": 599,
      "▁cap": 600,
      "##ilt": 601,
      "▁bias": 602,
      "##ativeness": 603,
      "##code": 604,
      "▁facilitate": 605,
      "▁solicit": 606,
      "▁highest": 607,
      "▁limb": 608,
      "▁'ll": 609,
      "▁shrie": 610,
      "##ourage": 611,
      "▁signoff": 612,
      "▁dr": 613,
      "▁meth": 614,
      "▁call": 615,
      "▁undermine": 616,
      "▁crossed": 617,
      "##comm": 618,
      "##ploy": 619,
      "##htm": 620,
      "▁spect": 621,
      "##l": 622,
      "▁vial": 623,
      "▁await": 624,
      "▁[...]": 625,
      "▁using": 626,
      "▁arsen": 627,
      "##orit": 628,
      "▁tanker": 629,
      "▁fabrications": 630,
      "##ican": 631,
      "▁beneath": 632,
      "##aps": 633,
      "##ld": 634,
      "##ored": 635,
      "##icult": 636,
      "##book": 637,
      "▁infr": 638,
      "▁farm": 639,
      "▁hardship": 640,
      "▁pulling": 641,
      "▁cinema": 642,
      "▁concerns": 643,
      "▁wilderness": 644,
      "▁learners": 645,
      "##ocking": 646,
      "##ouk": 647,
      "▁fruits": 648,
      "▁fantastic": 649,
      "##hing": 650,
      "▁communic": 651,
      "▁exile": 652,
      "▁beetle": 653,
      "▁chin": 654,
      "▁turntable": 655,
      "▁introduce": 656,
      "##eriously": 657,
      "▁credit": 658,
      "##arf": 659,
      "▁methods": 660,
      "##ason": 661,
      "▁classified": 662,
      "▁scrub": 663,
      "▁fetch": 664,
      "▁gel": 665,
      "▁dodge": 666,
      "▁hopes": 667,
      "▁bot": 668,
      "▁panted": 669,
      "##enses": 670,
      "##erals": 671,
      "▁points": 672,
      "▁patents": 673,
      "▁lan": 674,
      "▁analysts": 675,
      "▁elu": 676,
      "##aa": 677,
      "▁stuffed": 678,
      "▁locomotive": 679,
      "▁legos": 680,
      "▁insulation": 681,
      "▁mrs.": 682,
      "##heet": 683,
      "▁megawatt": 684,
      "▁teaspoons": 685,
      "▁americans": 686,
      "▁phenomena": 687,
      "##kness": 688,
      "▁pse": 689,
      "ς": 690,
      "▁scar": 691,
      "▁advancing": 692,
      "##alet": 693,
      "▁preserv": 694,
      "##ep": 695,
      "▁sav": 696,
      "▁lif": 697,
      "▁destiny": 698,
      "▁popped": 699,
      "▁potato": 700,
      "▁tort": 701,
      "##ism": 702,
      "▁bore": 703,
      "▁effectiveness": 704,
      "▁chase": 705,
      "##ook": 706,
      "▁alphabet": 707,
      "▁ill": 708,
      "##ancing": 709,
      "##5-1.doc": 710,
      "##tured": 711,
      "▁arguing": 712,
      "▁deeds": 713,
      "##bar": 714,
      "▁escaped": 715,
      "▁adults": 716,
      "##ave": 717,
      "▁rbi": 718,
      "##amp": 719,
      "▁ensu": 720,
      "##-in": 721,
      "▁animals": 722,
      "▁drugstore": 723,
      "▁sque": 724,
      "▁lb": 725,
      "▁thirds": 726,
      "▁bird": 727,
      "▁conte": 728,
      "##elected": 729,
      "##iki": 730,
      "▁setoff": 731,
      "▁tresp": 732,
      "▁mothers": 733,
      "##time": 734,
      "▁agency": 735,
      "##enti": 736,
      "▁showing": 737,
      "▁differential": 738,
      "▁tribes": 739,
      "▁mercy": 740,
      "▁cd": 741,
      "▁cia": 742,
      "▁login": 743,
      "▁pilot": 744,
      "▁declining": 745,
      "▁trap": 746,
      "▁spices": 747,
      "▁tastes": 748,
      "▁sleepy": 749,
      "▁excel": 750,
      "▁oo": 751,
      "##oil": 752,
      "##uded": 753,
      "▁alternative": 754,
      "▁accum": 755,
      "▁operative": 756,
      "▁extending": 757,
      "▁ki": 758,
      "##ssibly": 759,
      "##istry": 760,
      "▁stare": 761,
      "▁gasped": 762,
      "▁visitor": 763,
      "##-1.xls": 764,
      "##other": 765,
      "▁charged": 766,
      "▁assigned": 767,
      "##²": 768,
      "##ger": 769,
      "▁l2": 770,
      "▁excer": 771,
      "▁ice-cre": 772,
      "▁sandwiches": 773,
      "▁determ": 774,
      "▁freak": 775,
      "▁recc": 776,
      "##oli": 777,
      "##ace": 778,
      "##omm": 779,
      "▁overalls": 780,
      "▁conqu": 781,
      "##tings": 782,
      "▁repurp": 783,
      "##omic": 784,
      "▁tribe": 785,
      "▁attacking": 786,
      "▁plenty": 787,
      "##grad": 788,
      "▁unit": 789,
      "▁alt.": 790,
      "▁mess": 791,
      "##be": 792,
      "##roleum": 793,
      "▁milit": 794,
      "##rou": 795,
      "▁pret": 796,
      "▁bay": 797,
      "▁veto": 798,
      "▁novelists": 799,
      "▁comment": 800,
      "##umbs": 801,
      "▁recreate": 802,
      "▁dispatched": 803,
      "▁sunshine": 804,
      "▁offici": 805,
      "▁conducting": 806,
      "▁denom": 807,
      "▁youn": 808,
      "▁messages": 809,
      "▁i.e.": 810,
      "▁chairs": 811,
      "##uster": 812,
      "▁hamsters": 813,
      "▁resc": 814,
      "▁respects": 815,
      "▁co": 816,
      "▁across": 817,
      "##naires": 818,
      "▁finishing": 819,
      "▁appe": 820,
      "▁proceedings": 821,
      "▁demanding": 822,
      "▁fountain": 823,
      "▁beating": 824,
      "##antic": 825,
      "▁tenth": 826,
      "▁arise": 827,
      "▁regulate": 828,
      "▁lime": 829,
      "##essment": 830,
      "▁scoop": 831,
      "▁whoo": 832,
      "▁lids": 833,
      "▁confessed": 834,
      "##acked": 835,
      "▁constituency": 836,
      "▁interpretations": 837,
      "▁ded": 838,
      "▁sle": 839,
      "▁twist": 840,
      "▁hosting": 841,
      "▁die": 842,
      "▁mug": 843,
      "##rying": 844,
      "▁reint": 845,
      "▁biting": 846,
      "▁demonstration": 847,
      "▁yellow": 848,
      "##boy": 849,
      "##dered": 850,
      "▁ce": 851,
      "▁neighbor": 852,
      "▁thir": 853,
      "▁aspirations": 854,
      "▁candidate": 855,
      "▁ger": 856,
      "▁schedules": 857,
      "▁collec": 858,
      "▁reluctance": 859,
      "▁commodity": 860,
      "▁debtors": 861,
      "##ator": 862,
      "##red": 863,
      "##unes": 864,
      "▁chemicals": 865,
      "##ized": 866,
      "▁son": 867,
      "▁mill": 868,
      "##ject": 869,
      "▁pdt": 870,
      "##gal": 871,
      "##e": 872,
      "▁idiots": 873,
      "▁fisher": 874,
      "▁marie": 875,
      "▁cass": 876,
      "▁parti": 877,
      "##urt": 878,
      "▁squirrel": 879,
      "▁tantrums": 880,
      "▁recre": 881,
      "##ing": 882,
      "##hus": 883,
      "▁concentrate": 884,
      "▁project": 885,
      "▁exposure": 886,
      "▁peanuts": 887,
      "▁staring": 888,
      "▁dined": 889,
      "##aponize": 890,
      "▁methodology": 891,
      "▁schools": 892,
      "▁steve": 893,
      "##dents": 894,
      "##aining": 895,
      "##ream": 896,
      "▁labelled": 897,
      "▁noth": 898,
      "▁ey": 899,
      "##xce": 900,
      "##ε": 901,
      "▁dolph": 902,
      "▁orch": 903,
      "▁here": 904,
      "##nowled": 905,
      "▁floated": 906,
      "##outh": 907,
      "##ensity": 908,
      "##cret": 909,
      "▁orchestra": 910,
      "▁any": 911,
      "▁fixed": 912,
      "▁eei": 913,
      "##fe": 914,
      "▁bus": 915,
      "##oup": 916,
      "##lin": 917,
      "##ught": 918,
      "▁acquis": 919,
      "▁appointees": 920,
      "##assing": 921,
      "▁studio": 922,
      "▁boston": 923,
      "▁threw": 924,
      "▁wrong": 925,
      "▁minutes": 926,
      "▁currently": 927,
      "▁wish": 928,
      "▁bless": 929,
      "▁eigh": 930,
      "▁remed": 931,
      "▁markets": 932,
      "▁transportation": 933,
      "##fed": 934,
      "##lla": 935,
      "##play": 936,
      "##....": 937,
      "##tc": 938,
      "▁creations": 939,
      "▁scre": 940,
      "##acture": 941,
      "▁prevailing": 942,
      "▁assumed": 943,
      "##icians": 944,
      "▁sword": 945,
      "##ive": 946,
      "▁tower": 947,
      "▁comply": 948,
      "##oween": 949,
      "▁4th": 950,
      "▁sketch": 951,
      "▁grandmas": 952,
      "▁labels": 953,
      "▁wisd": 954,
      "##ilos": 955,
      "▁mir": 956,
      "▁facebook": 957,
      "▁las": 958,
      "▁hab": 959,
      "▁dragon": 960,
      "▁vend": 961,
      "▁exit": 962,
      "##ader": 963,
      "▁prof": 964,
      "▁separated": 965,
      "▁compensate": 966,
      "▁contracts": 967,
      "##antly": 968,
      "▁courage": 969,
      "▁equally": 970,
      "▁median": 971,
      "▁‘’": 972,
      "##born": 973,
      "##ketch": 974,
      "##chest": 975,
      "▁initi": 976,
      "▁proposes": 977,
      "▁reap": 978,
      "##____": 979,
      "▁tul": 980,
      "▁complaints": 981,
      "▁permits": 982,
      "▁tanks": 983,
      "▁formed": 984,
      "▁acronym": 985,
      "▁procession": 986,
      "▁fr": 987,
      "▁simply": 988,
      "▁aim": 989,
      "▁hones": 990,
      "▁dash": 991,
      "▁master": 992,
      "▁tossed": 993,
      "▁load": 994,
      "▁counters": 995,
      "##raid": 996,
      "▁subscribers": 997,
      "▁cau": 998,
      "##-fe": 999,
      "##arranged": 1000,
      "▁dirt": 1001,
      "▁grown": 1002,
      "▁hastened": 1003,
      "▁withdrawing": 1004,
      "##ody": 1005,
      "▁policeman": 1006,
      "▁gran": 1007,
      "▁greetings": 1008,
      "▁he": 1009,
      "▁maize": 1010,
      "##at": 1011,
      "▁governor": 1012,
      "▁lacked": 1013,
      "▁speech": 1014,
      "##rities": 1015,
      "##ocrat": 1016,
      "##-w": 1017,
      "▁loss": 1018,
      "##ared": 1019,
      "▁foreigners": 1020,
      "##/c": 1021,
      "▁roo": 1022,
      "▁spaces": 1023,
      "▁policymakers": 1024,
      "▁condition": 1025,
      "▁rapids": 1026,
      "▁candidates": 1027,
      "▁counted": 1028,
      "▁blades": 1029,
      "##isions": 1030,
      "▁goods": 1031,
      "##sst": 1032,
      "▁affirm": 1033,
      "▁relevant": 1034,
      "▁consi": 1035,
      "▁summoned": 1036,
      "▁kitchen": 1037,
      "▁captain": 1038,
      "▁ach": 1039,
      ".": 1040,
      "▁recruited": 1041,
      "▁os": 1042,
      "▁sentence": 1043,
      "▁shive": 1044,
      "▁descend": 1045,
      "▁political": 1046,
      "▁breaks": 1047,
      "▁corrected": 1048,
      "▁satisf": 1049,
      "▁hotdogs": 1050,
      "▁flavors": 1051,
      "▁underwear": 1052,
      "▁curled": 1053,
      "▁6th": 1054,
      "▁breakf": 1055,
      "▁benefited": 1056,
      "▁leverage": 1057,
      "▁18": 1058,
      "▁oneself": 1059,
      "z": 1060,
      "▁incubator": 1061,
      "▁sush": 1062,
      "▁bu": 1063,
      "▁legs": 1064,
      "▁dest": 1065,
      "##unds": 1066,
      "▁british": 1067,
      "▁sauc": 1068,
      "▁fores": 1069,
      "##arism": 1070,
      "▁single": 1071,
      "▁orange": 1072,
      "▁innov": 1073,
      "▁seen": 1074,
      "▁explosives": 1075,
      "▁root": 1076,
      "▁rumbling": 1077,
      "▁concern": 1078,
      "▁6": 1079,
      "##ourn": 1080,
      "}": 1081,
      "▁threatens": 1082,
      "▁vic": 1083,
      "▁fisheries": 1084,
      "##eep": 1085,
      "▁mult": 1086,
      "##east": 1087,
      "##alised": 1088,
      "##eared": 1089,
      "▁kicking": 1090,
      "▁describes": 1091,
      "▁giraffe": 1092,
      "▁numbers": 1093,
      "##ical": 1094,
      "▁wails": 1095,
      "▁component": 1096,
      "▁consisted": 1097,
      "▁chest": 1098,
      "▁floor": 1099,
      "##/2000": 1100,
      "▁technologies": 1101,
      "▁mostly": 1102,
      "▁zoo": 1103,
      "▁probe": 1104,
      "▁steak": 1105,
      "##xim": 1106,
      "##o": 1107,
      "##unity": 1108,
      "▁shrew": 1109,
      "▁appropri": 1110,
      "▁deputy": 1111,
      "##osystem": 1112,
      "▁aimed": 1113,
      "▁accessing": 1114,
      "##m": 1115,
      "##iry": 1116,
      "▁needles": 1117,
      "▁greek": 1118,
      "▁instit": 1119,
      "▁dorm": 1120,
      "▁greatness": 1121,
      "▁flashing": 1122,
      "##iot": 1123,
      "▁somehow": 1124,
      "▁h": 1125,
      "▁facing": 1126,
      "##zas": 1127,
      "##ci": 1128,
      "##entally": 1129,
      "▁wreck": 1130,
      "##aments": 1131,
      "▁glu": 1132,
      "▁losing": 1133,
      "▁hz": 1134,
      "▁hors": 1135,
      "▁choke": 1136,
      "##olding": 1137,
      "▁memo": 1138,
      "▁luggage": 1139,
      "▁accordance": 1140,
      "##aff": 1141,
      "##rm": 1142,
      "##4-1.doc": 1143,
      "▁slavery": 1144,
      "▁p.m": 1145,
      "▁bud": 1146,
      "▁orient": 1147,
      "▁sophie": 1148,
      "▁popularity": 1149,
      "▁centr": 1150,
      "▁dey": 1151,
      "##=----": 1152,
      "▁plot": 1153,
      "##ove": 1154,
      "▁browser": 1155,
      "▁harmonised": 1156,
      "##apes": 1157,
      "▁grain": 1158,
      "▁pip": 1159,
      "▁locking": 1160,
      "▁championship": 1161,
      "##vd": 1162,
      "▁holes": 1163,
      "▁been": 1164,
      "▁ga": 1165,
      "▁danger": 1166,
      "▁lotos": 1167,
      "▁cans": 1168,
      "▁firing": 1169,
      "▁wiggle": 1170,
      "##-b": 1171,
      "▁vacuum": 1172,
      "▁ther": 1173,
      "▁suffix": 1174,
      "▁injuries": 1175,
      "##others": 1176,
      "##ination": 1177,
      "▁impossible": 1178,
      "▁nowhere": 1179,
      "▁tug": 1180,
      "▁locals": 1181,
      "##version": 1182,
      "▁confirming": 1183,
      "##us": 1184,
      "▁fumes": 1185,
      "▁cornfl": 1186,
      "▁archive": 1187,
      "##port": 1188,
      "▁today": 1189,
      "▁lady": 1190,
      "##‘": 1191,
      "##lets": 1192,
      "##ignation": 1193,
      "▁sailors": 1194,
      "▁entirely": 1195,
      "##ar": 1196,
      "▁innovation": 1197,
      "▁lectures": 1198,
      "▁amazing": 1199,
      "▁tra": 1200,
      "▁liq": 1201,
      "▁dump": 1202,
      "▁ashes": 1203,
      "▁cloth": 1204,
      "##eros": 1205,
      "##ashes": 1206,
      "▁aids": 1207,
      "▁tog": 1208,
      "▁sector": 1209,
      "▁bankn": 1210,
      ",": 1211,
      "▁header": 1212,
      "▁shoo": 1213,
      "##<": 1214,
      "##onal": 1215,
      "##ickened": 1216,
      "▁municip": 1217,
      "▁private": 1218,
      "##sitive": 1219,
      "▁course": 1220,
      "▁stuff": 1221,
      "▁watched": 1222,
      "▁scientist": 1223,
      "##liances": 1224,
      "▁intolerance": 1225,
      "▁redeem": 1226,
      "▁finalizing": 1227,
      "▁tand": 1228,
      "##ount": 1229,
      "▁deal": 1230,
      "##olve": 1231,
      "▁sco": 1232,
      "▁alread": 1233,
      "▁hundreds": 1234,
      "▁recording": 1235,
      "▁temperatures": 1236,
      "▁cruise": 1237,
      "▁explore": 1238,
      "▁print": 1239,
      "▁attorney": 1240,
      "▁ens": 1241,
      "▁meowing": 1242,
      "▁picking": 1243,
      "▁giving": 1244,
      "##etes": 1245,
      "▁governance": 1246,
      "##velled": 1247,
      "▁devised": 1248,
      "▁speaks": 1249,
      "▁molecules": 1250,
      "▁often": 1251,
      "##acamole": 1252,
      "##raf": 1253,
      "▁dominate": 1254,
      "▁api": 1255,
      "▁ration": 1256,
      "▁anger": 1257,
      "▁fears": 1258,
      "##:30": 1259,
      "##edia": 1260,
      "▁limestone": 1261,
      "▁side": 1262,
      "▁band": 1263,
      "▁attracted": 1264,
      "▁hiss": 1265,
      "▁health": 1266,
      "▁magic": 1267,
      "▁nec": 1268,
      "▁citing": 1269,
      "##tern": 1270,
      "▁pill": 1271,
      "▁balloons": 1272,
      "##ulations": 1273,
      "▁gang": 1274,
      "▁disperse": 1275,
      "▁proc": 1276,
      "▁astronauts": 1277,
      "▁subscrib": 1278,
      "▁enemy": 1279,
      "▁squeak": 1280,
      "▁pretended": 1281,
      "▁aversion": 1282,
      "▁la": 1283,
      "▁breach": 1284,
      "▁aspir": 1285,
      "▁mushroom": 1286,
      "##err": 1287,
      "##pins": 1288,
      "▁already": 1289,
      "##all": 1290,
      "▁engine": 1291,
      "▁consorti": 1292,
      "▁damaged": 1293,
      "▁devising": 1294,
      "▁dangerous": 1295,
      "▁colour": 1296,
      "##ened": 1297,
      "▁consultation": 1298,
      "▁spite": 1299,
      "▁fund": 1300,
      "##xt": 1301,
      "▁15": 1302,
      "▁coat": 1303,
      "##ires": 1304,
      "▁faun": 1305,
      "▁mo": 1306,
      "▁trick": 1307,
      "##ecess": 1308,
      "##ist": 1309,
      "▁hats": 1310,
      "▁haircut": 1311,
      "▁distributing": 1312,
      "▁infuse": 1313,
      "▁assoc": 1314,
      "▁protege": 1315,
      "▁reflects": 1316,
      "▁”": 1317,
      "▁taxi": 1318,
      "▁ranging": 1319,
      "▁traced": 1320,
      "▁stung": 1321,
      "▁requesting": 1322,
      "▁snake": 1323,
      "##itled": 1324,
      "▁shrimp": 1325,
      "▁urged": 1326,
      "▁grabbing": 1327,
      "▁fre": 1328,
      "▁profile": 1329,
      "▁fold": 1330,
      "##-time": 1331,
      "▁increase": 1332,
      "▁donate": 1333,
      "▁attending": 1334,
      "▁witches": 1335,
      "▁cro": 1336,
      "▁situations": 1337,
      "▁doll": 1338,
      "##oses": 1339,
      "▁investig": 1340,
      "▁concent": 1341,
      "##ibb": 1342,
      "▁reh": 1343,
      "▁un": 1344,
      "▁extinction": 1345,
      "▁numbered": 1346,
      "▁buyer": 1347,
      "▁stret": 1348,
      "##wardness": 1349,
      "##ys": 1350,
      "▁helic": 1351,
      "▁marty": 1352,
      "▁traveling": 1353,
      "▁posted": 1354,
      "##uten": 1355,
      "▁jer": 1356,
      "##erates": 1357,
      "▁nationalities": 1358,
      "▁parachute": 1359,
      "▁dol": 1360,
      "φ": 1361,
      "▁tasks": 1362,
      "▁wagging": 1363,
      "##dish": 1364,
      "▁submitted": 1365,
      "▁holiday": 1366,
      "▁marrying": 1367,
      "▁reintroduction": 1368,
      "▁settlements": 1369,
      "##-off": 1370,
      "▁sk": 1371,
      "##2d-": 1372,
      "▁t+re": 1373,
      "▁monkeys": 1374,
      "▁norms": 1375,
      "▁dress": 1376,
      "▁uses": 1377,
      "▁juice": 1378,
      "▁insul": 1379,
      "u": 1380,
      "▁totes": 1381,
      "▁termin": 1382,
      "▁attitudes": 1383,
      "##ang": 1384,
      "▁aggression": 1385,
      "▁progression": 1386,
      "▁headset": 1387,
      "▁savages": 1388,
      "##icts": 1389,
      "▁snowing": 1390,
      "▁henry": 1391,
      "▁econom": 1392,
      "▁pausing": 1393,
      "▁indicated": 1394,
      "##bernation": 1395,
      "▁islets": 1396,
      "▁rained": 1397,
      "▁twice": 1398,
      "##bon": 1399,
      "▁agreeing": 1400,
      "##nov": 1401,
      "▁blues": 1402,
      "▁clients": 1403,
      "##ances": 1404,
      "▁blankets": 1405,
      "▁manners": 1406,
      "##ffic": 1407,
      "▁marshes": 1408,
      "▁restaur": 1409,
      "▁orig": 1410,
      "▁professional": 1411,
      "▁quiddit": 1412,
      "▁centuries": 1413,
      "▁persp": 1414,
      "▁element": 1415,
      "▁comments": 1416,
      "▁saves": 1417,
      "##ener": 1418,
      "▁lunchtime": 1419,
      "▁discourse": 1420,
      "▁manuscri": 1421,
      "▁buggy": 1422,
      "▁marketing": 1423,
      "▁posts": 1424,
      "##piles": 1425,
      "##tification": 1426,
      "▁spacetime": 1427,
      "▁ssh": 1428,
      "▁shrouded": 1429,
      "▁temper": 1430,
      "##zing": 1431,
      "▁mystery": 1432,
      "▁quad": 1433,
      "▁stap": 1434,
      "##celer": 1435,
      "▁aspiration": 1436,
      "##enail": 1437,
      "▁beverage": 1438,
      "▁count": 1439,
      "##;": 1440,
      "▁muscles": 1441,
      "▁ships": 1442,
      "▁jurisd": 1443,
      "##umps": 1444,
      "▁wiel": 1445,
      "▁conv": 1446,
      "▁dep": 1447,
      "##iciency": 1448,
      "▁mwh": 1449,
      "▁chips": 1450,
      "▁email": 1451,
      "##uty": 1452,
      "▁bub": 1453,
      "##dress": 1454,
      "##ingle": 1455,
      "▁potential": 1456,
      "▁dine": 1457,
      "##roenter": 1458,
      "##boats": 1459,
      "▁pleas": 1460,
      "▁appeal": 1461,
      "▁chasers": 1462,
      "##ould": 1463,
      "▁booked": 1464,
      "##bi": 1465,
      "▁neither": 1466,
      "▁complaint": 1467,
      "▁boarding": 1468,
      "▁transf": 1469,
      "▁vod": 1470,
      "▁striking": 1471,
      "##cro": 1472,
      "##inched": 1473,
      "▁math": 1474,
      "▁pati": 1475,
      "▁track": 1476,
      "▁accuracy": 1477,
      "▁partnerships": 1478,
      "##ota": 1479,
      "▁atlan": 1480,
      "▁nursery": 1481,
      "▁epm": 1482,
      "▁real": 1483,
      "▁specim": 1484,
      "▁subway": 1485,
      "▁pattern": 1486,
      "▁blanket": 1487,
      "##ption": 1488,
      "##bur": 1489,
      "▁want": 1490,
      "▁command": 1491,
      "▁scient": 1492,
      "##ice": 1493,
      "▁war": 1494,
      "▁takeoffs": 1495,
      "▁let": 1496,
      "##ow": 1497,
      "▁rock": 1498,
      "▁artic": 1499,
      "▁ur": 1500,
      "▁fragments": 1501,
      "▁judgment": 1502,
      "▁silver": 1503,
      "##cularly": 1504,
      "&": 1505,
      "##yth": 1506,
      "▁tod": 1507,
      "▁shipment": 1508,
      "##utin": 1509,
      "##inks": 1510,
      "▁bust": 1511,
      "▁worship": 1512,
      "▁communicate": 1513,
      "▁honesty": 1514,
      "▁pel": 1515,
      "▁hust": 1516,
      "▁dying": 1517,
      "▁skipping": 1518,
      "▁secur": 1519,
      "▁relating": 1520,
      "##sex": 1521,
      "▁intermed": 1522,
      "▁sub": 1523,
      "▁prayers": 1524,
      "▁constr": 1525,
      "▁collab": 1526,
      "▁worked": 1527,
      "##person": 1528,
      "▁conviction": 1529,
      "▁conformity": 1530,
      "▁machine": 1531,
      "▁logic": 1532,
      "##iation": 1533,
      "▁detail": 1534,
      "▁dragged": 1535,
      "▁defender": 1536,
      "##fall": 1537,
      "▁x33907": 1538,
      "▁apolog": 1539,
      "##yalty": 1540,
      "▁squeal": 1541,
      "##eign": 1542,
      "▁hypnotized": 1543,
      "▁freezer": 1544,
      "▁dick": 1545,
      "▁developers": 1546,
      "▁emission": 1547,
      "▁technician": 1548,
      "▁foo": 1549,
      "▁stim": 1550,
      "##teries": 1551,
      "##ini": 1552,
      "##atives": 1553,
      "▁collap": 1554,
      "▁pedic": 1555,
      "▁you": 1556,
      "##icating": 1557,
      "▁invested": 1558,
      "▁faculty": 1559,
      "▁magazine": 1560,
      "##ybod": 1561,
      "##agne": 1562,
      "▁corners": 1563,
      "▁resume": 1564,
      "▁activities": 1565,
      "▁licen": 1566,
      "▁hr": 1567,
      "▁massac": 1568,
      "▁priorities": 1569,
      "▁slave": 1570,
      "##lusion": 1571,
      "##isters": 1572,
      "##enfranch": 1573,
      "▁=": 1574,
      "##eted": 1575,
      "▁illusions": 1576,
      "▁medal": 1577,
      "▁remains": 1578,
      "p": 1579,
      "▁dri": 1580,
      "▁lions": 1581,
      "▁after": 1582,
      "▁gots": 1583,
      "▁world": 1584,
      "##³": 1585,
      "▁....................": 1586,
      "▁rule": 1587,
      "▁changed": 1588,
      "▁pajamas": 1589,
      "▁creates": 1590,
      "▁magnet": 1591,
      "▁cabb": 1592,
      "##yed": 1593,
      "▁emit": 1594,
      "##ple": 1595,
      "▁blinked": 1596,
      "▁star": 1597,
      "##veland": 1598,
      "▁units": 1599,
      "▁satur": 1600,
      "▁pew": 1601,
      "▁hills": 1602,
      "▁product": 1603,
      "##ilter": 1604,
      "▁expressing": 1605,
      "##atic": 1606,
      "▁presence": 1607,
      "##okes": 1608,
      "▁publications": 1609,
      "▁confron": 1610,
      "▁instance": 1611,
      "▁segment": 1612,
      "##very": 1613,
      "▁depths": 1614,
      "▁eu": 1615,
      "▁inhabitants": 1616,
      "▁select": 1617,
      "▁somewh": 1618,
      "##press": 1619,
      "▁high": 1620,
      "▁guerr": 1621,
      "##gulation": 1622,
      "▁calories": 1623,
      "▁doc": 1624,
      "▁prop": 1625,
      "▁passing": 1626,
      "▁equals": 1627,
      "▁big": 1628,
      "▁ribbon": 1629,
      "▁emitting": 1630,
      "▁textbook": 1631,
      "▁generali": 1632,
      "▁marry": 1633,
      "▁attempted": 1634,
      "▁awesome": 1635,
      "▁expect": 1636,
      "▁jealousy": 1637,
      "▁advice": 1638,
      "▁approach": 1639,
      "##warded": 1640,
      "##irmed": 1641,
      "▁found": 1642,
      "▁million": 1643,
      "##tiles": 1644,
      "▁themselves": 1645,
      "▁rates": 1646,
      "▁sharks": 1647,
      "▁writings": 1648,
      "##atly": 1649,
      "▁hated": 1650,
      "▁souls": 1651,
      "▁cutted": 1652,
      "▁undermining": 1653,
      "▁islands": 1654,
      "▁|": 1655,
      "▁turboprop": 1656,
      "##etti": 1657,
      "▁rom": 1658,
      "##łod": 1659,
      "▁ago": 1660,
      "▁produc": 1661,
      "▁enfor": 1662,
      "▁obsc": 1663,
      "▁flap": 1664,
      "##rils": 1665,
      "▁creatures": 1666,
      "##ationed": 1667,
      "▁anticipating": 1668,
      "▁challenged": 1669,
      "▁involving": 1670,
      "▁cuc": 1671,
      "▁clean": 1672,
      "##dle": 1673,
      "▁----------------------------------------------------------------------": 1674,
      "▁click": 1675,
      "▁accord": 1676,
      "▁chall": 1677,
      "ł": 1678,
      "##enience": 1679,
      "▁scrape": 1680,
      "##ioration": 1681,
      "▁water": 1682,
      "▁spy": 1683,
      "##·": 1684,
      "##ognition": 1685,
      "▁bachel": 1686,
      "▁advise": 1687,
      "▁screen": 1688,
      "▁shame": 1689,
      "▁tipt": 1690,
      "▁jaw": 1691,
      "▁ρ": 1692,
      "##vir": 1693,
      "##pily": 1694,
      "▁vide": 1695,
      "▁accounts": 1696,
      "▁discount": 1697,
      "▁treating": 1698,
      "##ster": 1699,
      "▁stethoscope": 1700,
      "▁altitude": 1701,
      "##zed": 1702,
      "▁scary": 1703,
      "▁within": 1704,
      "▁fi": 1705,
      "▁overlook": 1706,
      "##eously": 1707,
      "▁zip": 1708,
      "▁retrieve": 1709,
      "▁survivors": 1710,
      "▁distribution": 1711,
      "▁artist": 1712,
      "▁craft": 1713,
      "▁cattle": 1714,
      "▁80's": 1715,
      "▁ecommerce": 1716,
      "▁delivery": 1717,
      "▁201": 1718,
      "▁cla": 1719,
      "▁thumb": 1720,
      "▁denied": 1721,
      "▁economists": 1722,
      "##br": 1723,
      "▁package": 1724,
      "▁poo": 1725,
      "##ifies": 1726,
      "▁spring": 1727,
      "▁km": 1728,
      "▁accommodation": 1729,
      "▁imbal": 1730,
      "##ghetti": 1731,
      "▁injection": 1732,
      "##alked": 1733,
      "▁perhap": 1734,
      "▁martyrs": 1735,
      "▁praise": 1736,
      "▁tiles": 1737,
      "▁spin": 1738,
      "▁dose": 1739,
      "▁sushi": 1740,
      "▁index": 1741,
      "##gust": 1742,
      "▁flops": 1743,
      "▁portraits": 1744,
      "▁mer": 1745,
      "▁seasons": 1746,
      "▁squared": 1747,
      "▁constantly": 1748,
      "##bac": 1749,
      "##ugs": 1750,
      "▁makeup": 1751,
      "▁nineteenth": 1752,
      "▁calculate": 1753,
      "▁justify": 1754,
      "▁yoghurt": 1755,
      "##rality": 1756,
      "##erns": 1757,
      "▁aa": 1758,
      "▁laughter": 1759,
      "▁pamph": 1760,
      "▁wiring": 1761,
      "▁journ": 1762,
      "##ivers": 1763,
      "##alidated": 1764,
      "##.htm": 1765,
      "▁loc": 1766,
      "▁gpa": 1767,
      "##zation": 1768,
      "##rigu": 1769,
      "▁monopoly": 1770,
      "##nce": 1771,
      "##omes": 1772,
      "▁toile": 1773,
      "##butz": 1774,
      "▁assassination": 1775,
      "ο": 1776,
      "##alled": 1777,
      "##ars": 1778,
      "▁com": 1779,
      "▁components": 1780,
      "▁textile": 1781,
      "▁beds": 1782,
      "▁withdrew": 1783,
      "▁yogh": 1784,
      "▁sculp": 1785,
      "##acles": 1786,
      "▁phon": 1787,
      "▁south": 1788,
      "▁rapidly": 1789,
      "▁caution": 1790,
      "▁visu": 1791,
      "▁brows": 1792,
      "▁coded": 1793,
      "▁headband": 1794,
      "##lics": 1795,
      "▁pas": 1796,
      "▁identification": 1797,
      "▁worsh": 1798,
      "▁conjunction": 1799,
      "▁til": 1800,
      "▁chan": 1801,
      "▁gone": 1802,
      "▁countries": 1803,
      "▁sti": 1804,
      "▁sty": 1805,
      "▁judgments": 1806,
      "##ken": 1807,
      "▁barking": 1808,
      "▁purple": 1809,
      "▁stadium": 1810,
      "▁continental": 1811,
      "▁adm": 1812,
      "##erta": 1813,
      "▁whose": 1814,
      "▁meets": 1815,
      "▁lib": 1816,
      "▁preferred": 1817,
      "▁acceler": 1818,
      "▁gym": 1819,
      "▁=---": 1820,
      "##itals": 1821,
      "##&": 1822,
      "▁childcare": 1823,
      "▁receiving": 1824,
      "ε": 1825,
      "##anding": 1826,
      "▁gri": 1827,
      "▁tiger": 1828,
      "▁excluding": 1829,
      "▁cuffs": 1830,
      "▁glass": 1831,
      "▁artworks": 1832,
      "▁lunche": 1833,
      "▁ridden": 1834,
      "##œ": 1835,
      "▁studies": 1836,
      "##agging": 1837,
      "▁minimum": 1838,
      "▁literature": 1839,
      "▁dance": 1840,
      "##overs": 1841,
      "▁protocol": 1842,
      "▁legisl": 1843,
      "▁enthusiasts": 1844,
      "▁planning": 1845,
      "##amation": 1846,
      "##ra": 1847,
      "▁houses": 1848,
      "▁neighbors": 1849,
      "▁197": 1850,
      "▁mute": 1851,
      "▁saucepan": 1852,
      "▁ready": 1853,
      "▁vol": 1854,
      "▁got": 1855,
      "##ining": 1856,
      "▁nearly": 1857,
      "##oices": 1858,
      "▁vitamin": 1859,
      "▁who's": 1860,
      "▁civilization": 1861,
      "▁registered": 1862,
      "▁deficit": 1863,
      "▁ev": 1864,
      "▁waited": 1865,
      "▁saddam": 1866,
      "▁eng": 1867,
      "▁encouraging": 1868,
      "▁node": 1869,
      "▁capacities": 1870,
      "▁pulls": 1871,
      "▁weak": 1872,
      "##eer": 1873,
      "▁confiscated": 1874,
      "##****": 1875,
      "##wic": 1876,
      "▁channe": 1877,
      "▁pivotchart": 1878,
      "▁chief": 1879,
      "##iments": 1880,
      "▁mish": 1881,
      "##river": 1882,
      "▁accomplishments": 1883,
      "▁pro": 1884,
      "##agraph": 1885,
      "▁ink": 1886,
      "▁encourage": 1887,
      "▁lied": 1888,
      "##let": 1889,
      "▁swaying": 1890,
      "▁request": 1891,
      "▁dug": 1892,
      "▁lawn": 1893,
      "▁quino": 1894,
      "▁fa": 1895,
      "▁intercepted": 1896,
      "▁weasley": 1897,
      "##-out": 1898,
      "##ius": 1899,
      "▁biked": 1900,
      "##olence": 1901,
      "##ree": 1902,
      "##ece": 1903,
      "▁unable": 1904,
      "▁historians": 1905,
      "##orying": 1906,
      "▁woman": 1907,
      "##3rd": 1908,
      "▁achie": 1909,
      "##ce": 1910,
      "▁tem": 1911,
      "▁unf": 1912,
      "▁mature": 1913,
      "##el": 1914,
      "▁completed": 1915,
      "▁aven": 1916,
      "##here": 1917,
      "##orted": 1918,
      "▁medic": 1919,
      "▁wondering": 1920,
      "##kay": 1921,
      "▁killed": 1922,
      "▁blame": 1923,
      "##arities": 1924,
      "##acks": 1925,
      "▁bleeding": 1926,
      "▁jurisdictions": 1927,
      "▁mini": 1928,
      "▁wines": 1929,
      "##rif": 1930,
      "▁failure": 1931,
      "▁presidents": 1932,
      "▁hoped": 1933,
      "▁orchestrated": 1934,
      "##mm": 1935,
      "##lling": 1936,
      "▁beauty": 1937,
      "▁hang": 1938,
      "▁panda": 1939,
      "##hibited": 1940,
      "▁`": 1941,
      "##,000": 1942,
      "▁regain": 1943,
      "▁crickets": 1944,
      "5": 1945,
      "▁dancing": 1946,
      "▁past": 1947,
      "▁shar": 1948,
      "▁corporation": 1949,
      "▁rhinoceros": 1950,
      "▁tile": 1951,
      "▁teasing": 1952,
      "▁lick": 1953,
      "##dit": 1954,
      "##uries": 1955,
      "▁disney": 1956,
      "▁becoming": 1957,
      "▁famili": 1958,
      "▁judging": 1959,
      "▁flo": 1960,
      "▁buses": 1961,
      "▁phones": 1962,
      "▁argues": 1963,
      "▁important": 1964,
      "▁mold": 1965,
      "▁smuggling": 1966,
      "▁ang": 1967,
      "▁convergence": 1968,
      "▁symbol": 1969,
      "##ceed": 1970,
      "▁wake": 1971,
      "▁nat": 1972,
      "##hoods": 1973,
      "##ocation": 1974,
      "▁greenhouse": 1975,
      "▁electron": 1976,
      "##tles": 1977,
      "▁spec": 1978,
      "##opath": 1979,
      "▁staff": 1980,
      "▁generally": 1981,
      "##ighter": 1982,
      "▁intensity": 1983,
      "▁multi": 1984,
      "▁bulb": 1985,
      "▁vow": 1986,
      "▁invent": 1987,
      "##ises": 1988,
      "▁anchored": 1989,
      "▁highlights": 1990,
      "▁preventing": 1991,
      "▁refer": 1992,
      "▁atmos": 1993,
      "▁whatever": 1994,
      "##ieth": 1995,
      "▁ceo": 1996,
      "▁exploited": 1997,
      "▁warrant": 1998,
      "▁oatmeal": 1999,
      "▁diagr": 2000,
      "▁faced": 2001,
      "##ging": 2002,
      "##cence": 2003,
      "##fu": 2004,
      "▁controversy": 2005,
      "▁1920s": 2006,
      "▁reserved": 2007,
      "▁archbishop": 2008,
      "▁feeding": 2009,
      "▁thanking": 2010,
      "▁mow": 2011,
      "▁doing": 2012,
      "▁arms": 2013,
      "▁lip": 2014,
      "▁drawn": 2015,
      "##lear": 2016,
      "▁takes": 2017,
      "##pec": 2018,
      "▁commerc": 2019,
      "▁ama": 2020,
      "▁hearings": 2021,
      "▁oct": 2022,
      "▁scoring": 2023,
      "▁seed": 2024,
      "##bout": 2025,
      "##eteria": 2026,
      "▁oils": 2027,
      "▁place": 2028,
      "▁knitting": 2029,
      "▁rid": 2030,
      "▁violation": 2031,
      "▁stif": 2032,
      "##moil": 2033,
      "▁phase": 2034,
      "##aster": 2035,
      "##espan": 2036,
      "▁ramifications": 2037,
      "▁wrongdoing": 2038,
      "##ea": 2039,
      "▁billion": 2040,
      "##ressing": 2041,
      "▁arrange": 2042,
      "▁characteris": 2043,
      "##ives": 2044,
      "▁rein": 2045,
      "##achment": 2046,
      "▁frogg": 2047,
      "▁scientific": 2048,
      "▁nume": 2049,
      "##bers": 2050,
      "▁commem": 2051,
      "▁television": 2052,
      "##loading": 2053,
      "▁forgiven": 2054,
      "▁firm": 2055,
      "▁specified": 2056,
      "##30": 2057,
      "▁harvest": 2058,
      "▁mig": 2059,
      "▁fuzz": 2060,
      "▁teeth": 2061,
      "▁wh": 2062,
      "▁afric": 2063,
      "▁spiders": 2064,
      "▁convictions": 2065,
      "▁swee": 2066,
      "▁holds": 2067,
      "▁bric": 2068,
      "##owered": 2069,
      "▁telephone": 2070,
      "▁planets": 2071,
      "▁jur": 2072,
      "▁welfare": 2073,
      "##bscrib": 2074,
      "▁dvd": 2075,
      "▁jigsaw": 2076,
      "▁assemb": 2077,
      "▁cats": 2078,
      "##ny": 2079,
      "▁microscope": 2080,
      "▁generalizability": 2081,
      "▁poured": 2082,
      "##fire": 2083,
      "▁hailed": 2084,
      "##field": 2085,
      "▁shut": 2086,
      "##storm": 2087,
      "##fess": 2088,
      "▁retirement": 2089,
      "▁hyd": 2090,
      "▁discussion": 2091,
      "▁pockets": 2092,
      "##ident": 2093,
      "##icide": 2094,
      "▁coin": 2095,
      "▁models": 2096,
      "##aggeration": 2097,
      "▁asking": 2098,
      "##--": 2099,
      "##olt": 2100,
      "▁hem": 2101,
      "##ielder": 2102,
      "##cean": 2103,
      "▁containing": 2104,
      "▁corpora": 2105,
      "▁cookies": 2106,
      "##eded": 2107,
      "▁regular": 2108,
      "▁ca": 2109,
      "▁hide": 2110,
      "▁seeds": 2111,
      "▁purpos": 2112,
      "▁households": 2113,
      "▁thre": 2114,
      "▁debated": 2115,
      "▁investigating": 2116,
      "▁spirit": 2117,
      "▁grandpa": 2118,
      "▁computing": 2119,
      "▁pron": 2120,
      "▁worries": 2121,
      "##pts": 2122,
      "▁som": 2123,
      "##arraf": 2124,
      "▁vegetables": 2125,
      "▁gates": 2126,
      "▁agencies": 2127,
      "▁bib": 2128,
      "▁solution": 2129,
      "▁duration": 2130,
      "▁rival": 2131,
      "▁waiver": 2132,
      "##ipping": 2133,
      "▁truths": 2134,
      "##ios": 2135,
      "▁avoidance": 2136,
      "▁test": 2137,
      "▁ruler": 2138,
      "▁transformed": 2139,
      "▁under": 2140,
      "##ening": 2141,
      "▁workforce": 2142,
      "▁curr": 2143,
      "▁federation": 2144,
      "▁dram": 2145,
      "▁theat": 2146,
      "##ot": 2147,
      "▁considerations": 2148,
      "▁implementing": 2149,
      "▁formality": 2150,
      "▁rob": 2151,
      "▁dinosaurs": 2152,
      "▁tidbit": 2153,
      "▁rental": 2154,
      "▁plate": 2155,
      "##.e": 2156,
      "▁increasingly": 2157,
      "▁traders": 2158,
      "##esy": 2159,
      "▁pills": 2160,
      "▁influenced": 2161,
      "▁windows": 2162,
      "▁alt.animals.dog": 2163,
      "▁clothing": 2164,
      "▁holt": 2165,
      "▁blew": 2166,
      "##dy": 2167,
      "##onents": 2168,
      "▁assump": 2169,
      "▁files": 2170,
      "▁tips": 2171,
      "▁paramet": 2172,
      "%": 2173,
      "▁deposit": 2174,
      "▁teenagers": 2175,
      "▁dongle": 2176,
      "▁muggles": 2177,
      "▁01": 2178,
      "▁maximum": 2179,
      "##hhu": 2180,
      "▁recognized": 2181,
      "▁borrowers": 2182,
      "▁female": 2183,
      "▁archit": 2184,
      "##47": 2185,
      "##tieth": 2186,
      "##weight": 2187,
      "##-3": 2188,
      "▁defin": 2189,
      "▁me": 2190,
      "▁b2b": 2191,
      "▁id": 2192,
      "▁olive": 2193,
      "▁scene": 2194,
      "##iousness": 2195,
      "▁fy0": 2196,
      "##ales": 2197,
      "▁rejection": 2198,
      "▁symbolism": 2199,
      "##ro": 2200,
      "▁ding": 2201,
      "▁waters": 2202,
      "##raph": 2203,
      "▁meetings": 2204,
      "▁nud": 2205,
      "▁detroit": 2206,
      "▁relatively": 2207,
      "▁russ": 2208,
      "▁reptile": 2209,
      "▁bathtub": 2210,
      "▁programme": 2211,
      "▁wound": 2212,
      "▁indianapolis": 2213,
      "▁ny": 2214,
      "##dles": 2215,
      "▁particular": 2216,
      "▁dh": 2217,
      "▁sympathize": 2218,
      "▁wide": 2219,
      "▁reported": 2220,
      "▁stop": 2221,
      "▁missed": 2222,
      "##letter": 2223,
      "▁profit": 2224,
      "▁extra": 2225,
      "▁association": 2226,
      "▁waitresses": 2227,
      "▁suggest": 2228,
      "##stem": 2229,
      "##-for": 2230,
      "##iel": 2231,
      "▁uhhuh": 2232,
      "▁expression": 2233,
      "▁such": 2234,
      "##idency": 2235,
      "▁fos": 2236,
      "▁clattering": 2237,
      "▁sweater": 2238,
      "▁dynam": 2239,
      "▁lives": 2240,
      "▁animation": 2241,
      "▁behavi": 2242,
      "▁mother": 2243,
      "▁pretending": 2244,
      "▁itself": 2245,
      "▁diale": 2246,
      "##nament": 2247,
      "▁patent": 2248,
      "▁still": 2249,
      "▁bear": 2250,
      "▁var": 2251,
      "##ife": 2252,
      "▁intervention": 2253,
      "▁slices": 2254,
      "##ateg": 2255,
      "##itge": 2256,
      "▁concepts": 2257,
      "▁alt": 2258,
      "▁yourself": 2259,
      "▁tuned": 2260,
      "▁second-class": 2261,
      "##oop": 2262,
      "▁alternatives": 2263,
      "▁parliament": 2264,
      "▁accust": 2265,
      "▁dive": 2266,
      "##umph": 2267,
      "▁fash": 2268,
      "##dges": 2269,
      "##aging": 2270,
      "▁compete": 2271,
      "▁bubbles": 2272,
      "▁fount": 2273,
      "##ecution": 2274,
      "##ae": 2275,
      "##rog": 2276,
      "▁ballerina": 2277,
      "▁besides": 2278,
      "▁scenes": 2279,
      "▁vote": 2280,
      "▁shopping": 2281,
      "▁meeting": 2282,
      "▁suicide": 2283,
      "##ey": 2284,
      "▁charl": 2285,
      "▁coordination": 2286,
      "▁eval": 2287,
      "##uation": 2288,
      "▁robots": 2289,
      "▁youtube": 2290,
      "▁retain": 2291,
      "▁lots": 2292,
      "▁from": 2293,
      "▁marshmallow": 2294,
      "▁jews": 2295,
      "▁words": 2296,
      "▁seat": 2297,
      "▁persuading": 2298,
      "▁remembered": 2299,
      "▁bill": 2300,
      "▁differing": 2301,
      "▁pixies": 2302,
      "▁fir": 2303,
      "##til": 2304,
      "▁drum": 2305,
      "▁stall": 2306,
      "▁highlighted": 2307,
      "▁thanks": 2308,
      "▁shines": 2309,
      "##erts": 2310,
      "##ubs": 2311,
      "▁bits": 2312,
      "▁coup": 2313,
      "▁assessing": 2314,
      "▁taxes": 2315,
      "▁hoof": 2316,
      "##string": 2317,
      "▁bean": 2318,
      "▁leash": 2319,
      "▁photograph": 2320,
      "▁municipalities": 2321,
      "▁succeeded": 2322,
      "▁vowed": 2323,
      "▁peric": 2324,
      "##-s": 2325,
      "##oom": 2326,
      "##ions": 2327,
      "▁provide": 2328,
      "▁celebrity": 2329,
      "▁burn": 2330,
      "▁tame": 2331,
      "▁antenna": 2332,
      "▁shippers": 2333,
      "▁plugged": 2334,
      "▁democracy": 2335,
      "▁superseding": 2336,
      "▁sperm": 2337,
      "##vail": 2338,
      "▁votes": 2339,
      "▁balancing": 2340,
      "▁lent": 2341,
      "▁burden": 2342,
      "▁fostering": 2343,
      "▁charco": 2344,
      "▁pa": 2345,
      "##rem": 2346,
      "▁flexibility": 2347,
      "▁contained": 2348,
      "▁feel": 2349,
      "▁feet": 2350,
      "▁generation": 2351,
      "▁sy": 2352,
      "▁ribbons": 2353,
      "▁barrel": 2354,
      "▁masts": 2355,
      "▁assault": 2356,
      "▁bil": 2357,
      "▁grapes": 2358,
      "##esity": 2359,
      "▁cooking": 2360,
      "▁location": 2361,
      "▁acorn": 2362,
      "▁workmanship": 2363,
      "▁gee": 2364,
      "▁junk": 2365,
      "##awing": 2366,
      "▁trunk": 2367,
      "▁preached": 2368,
      "##hr": 2369,
      "##ocr": 2370,
      "▁fur": 2371,
      "##eas": 2372,
      "##itional": 2373,
      "▁dism": 2374,
      "##erc": 2375,
      "▁enthusi": 2376,
      "##otch": 2377,
      "▁therefore": 2378,
      "▁melanoma": 2379,
      "▁mod": 2380,
      "##ober": 2381,
      "##iently": 2382,
      "▁aggregate": 2383,
      "##ied": 2384,
      "▁pittsburgh": 2385,
      "##zer": 2386,
      "▁angel": 2387,
      "▁mobil": 2388,
      "▁relying": 2389,
      "##ned": 2390,
      "▁smells": 2391,
      "▁get": 2392,
      "##-cent": 2393,
      "ʒ": 2394,
      "▁hole": 2395,
      "▁‘": 2396,
      "▁olives": 2397,
      "▁pocketbook": 2398,
      "##ittering": 2399,
      "▁rests": 2400,
      "##dly": 2401,
      "##ogy": 2402,
      "▁store": 2403,
      "▁spilling": 2404,
      "▁anywhere": 2405,
      "▁fung": 2406,
      "##unct": 2407,
      "▁shade": 2408,
      "▁accessibility": 2409,
      "▁reopen": 2410,
      "##x": 2411,
      "▁flavor": 2412,
      "▁23rd": 2413,
      "▁bunk": 2414,
      "▁castle": 2415,
      "##-president": 2416,
      "▁magazines": 2417,
      "▁method": 2418,
      "▁warhol": 2419,
      "##ww": 2420,
      "▁dogs": 2421,
      "▁quiz": 2422,
      "##ida": 2423,
      "##enumber": 2424,
      "▁seller": 2425,
      "▁cease": 2426,
      "▁categories": 2427,
      "▁taxpay": 2428,
      "▁wrapped": 2429,
      "▁circ": 2430,
      "▁cream": 2431,
      "▁teaspoon": 2432,
      "▁pir": 2433,
      "▁s": 2434,
      "▁yarns": 2435,
      "##turing": 2436,
      "▁pay": 2437,
      "▁necktie": 2438,
      "##sm": 2439,
      "▁precedent": 2440,
      "▁mam": 2441,
      "▁dry": 2442,
      "▁vali": 2443,
      "##ril": 2444,
      "▁flew": 2445,
      "▁explaining": 2446,
      "▁commander": 2447,
      "▁search": 2448,
      "▁sake": 2449,
      "##ct": 2450,
      "▁dotted": 2451,
      "▁frontier": 2452,
      "##tain": 2453,
      "▁washing": 2454,
      "##asis": 2455,
      "##ich": 2456,
      "▁prospect": 2457,
      "▁assumptions": 2458,
      "▁collector": 2459,
      "ω": 2460,
      "▁lower": 2461,
      "##........": 2462,
      "▁released": 2463,
      "▁assass": 2464,
      "##ummy": 2465,
      "▁fries": 2466,
      "##iating": 2467,
      "##ething": 2468,
      "##stal": 2469,
      "▁wad": 2470,
      "##clo": 2471,
      "▁connected": 2472,
      "##ers": 2473,
      "▁harmonisation": 2474,
      "▁weapon": 2475,
      "▁poa": 2476,
      "##ractors": 2477,
      "##ə": 2478,
      "▁habit": 2479,
      "▁shone": 2480,
      "▁mesh": 2481,
      "▁subpoenas": 2482,
      "▁nation": 2483,
      "▁orchest": 2484,
      "▁jul": 2485,
      "▁partner": 2486,
      "▁husbands": 2487,
      "▁cabinet": 2488,
      "▁conditioning": 2489,
      "▁ecology": 2490,
      "▁cavity": 2491,
      "▁impeachment": 2492,
      "▁novelty": 2493,
      "▁dung": 2494,
      "▁dem": 2495,
      "▁sailing": 2496,
      "##onize": 2497,
      "▁endeav": 2498,
      "▁tiny": 2499,
      "##legation": 2500,
      "##ously": 2501,
      "▁jud": 2502,
      "▁20": 2503,
      "▁stuttering": 2504,
      "▁persu": 2505,
      "▁aun": 2506,
      "▁generations": 2507,
      "▁card": 2508,
      "▁refres": 2509,
      "▁discus": 2510,
      "##itic": 2511,
      "▁rattled": 2512,
      "▁contributed": 2513,
      "##ogh": 2514,
      "▁explan": 2515,
      "▁doorstep": 2516,
      "##erole": 2517,
      "▁ro": 2518,
      "▁relation": 2519,
      "▁websites": 2520,
      "▁tech": 2521,
      "▁null": 2522,
      "▁minus": 2523,
      "▁bandage": 2524,
      "##mon": 2525,
      "▁inclu": 2526,
      "▁emerging": 2527,
      "##perc": 2528,
      "▁narr": 2529,
      "##tis": 2530,
      "▁understood": 2531,
      "▁ladies": 2532,
      "▁dangling": 2533,
      "▁mortality": 2534,
      "▁scenarios": 2535,
      "##quarters": 2536,
      "▁paths": 2537,
      "▁bearing": 2538,
      "▁sheep": 2539,
      "▁wel": 2540,
      "##lium": 2541,
      "▁pros": 2542,
      "▁talking": 2543,
      "▁controvers": 2544,
      "##uh": 2545,
      "▁remain": 2546,
      "▁makes": 2547,
      "▁declined": 2548,
      "▁inspector": 2549,
      "##resident": 2550,
      "▁slugs": 2551,
      "▁declared": 2552,
      "▁assumption": 2553,
      "##amel": 2554,
      "▁bounce": 2555,
      "##ieties": 2556,
      "▁nutrition": 2557,
      "1": 2558,
      "##ck": 2559,
      "▁isl": 2560,
      "▁walls": 2561,
      "##ooding": 2562,
      "##alizations": 2563,
      "▁trading": 2564,
      "▁dominance": 2565,
      "##uts": 2566,
      "▁statute": 2567,
      "▁motives": 2568,
      "##terations": 2569,
      "##ince": 2570,
      "##lder": 2571,
      "▁bunnies": 2572,
      "▁assignment": 2573,
      "▁launch": 2574,
      "▁wiped": 2575,
      "▁regar": 2576,
      "▁bouts": 2577,
      "##af": 2578,
      "▁appearance": 2579,
      "##mally": 2580,
      "▁nerve": 2581,
      "▁fathers": 2582,
      "▁cakes": 2583,
      "##orry": 2584,
      "▁hav": 2585,
      "▁subsidi": 2586,
      "▁forth": 2587,
      "▁tutor": 2588,
      "▁calculations": 2589,
      "▁childbirth": 2590,
      "▁accommodate": 2591,
      "▁ability": 2592,
      "▁uncle": 2593,
      "▁collected": 2594,
      "##aph": 2595,
      "##ry": 2596,
      "▁difficulty": 2597,
      "▁nail": 2598,
      "▁speaking": 2599,
      "▁summer": 2600,
      "▁apartment": 2601,
      "▁beaches": 2602,
      "▁sprouts": 2603,
      "▁desc": 2604,
      "▁flossing": 2605,
      "▁carried": 2606,
      "▁forums": 2607,
      "▁grew": 2608,
      "▁instructor": 2609,
      "##utions": 2610,
      "▁healthy": 2611,
      "▁commercial": 2612,
      "▁bap": 2613,
      "##orrow": 2614,
      "##ton": 2615,
      "##aking": 2616,
      "▁ten": 2617,
      "▁periods": 2618,
      "▁capt": 2619,
      "▁subpo": 2620,
      "▁mysteries": 2621,
      "▁helmet": 2622,
      "▁chem": 2623,
      "▁ideals": 2624,
      "▁reflecting": 2625,
      "##ators": 2626,
      "▁confid": 2627,
      "##itoring": 2628,
      "▁tramp": 2629,
      "▁sensing": 2630,
      "▁propos": 2631,
      "▁swe": 2632,
      "▁uma": 2633,
      "▁administrator": 2634,
      "▁disease": 2635,
      "▁blaze": 2636,
      "▁checked": 2637,
      "▁ants": 2638,
      "▁bedroom": 2639,
      "▁gram": 2640,
      "▁functions": 2641,
      "▁hos": 2642,
      "▁cor": 2643,
      "▁uncovered": 2644,
      "▁see": 2645,
      "▁neighborhood": 2646,
      "##ression": 2647,
      "▁chrom": 2648,
      "##omin": 2649,
      "▁carve": 2650,
      "▁coerce": 2651,
      "▁foul": 2652,
      "▁chi": 2653,
      "▁ben": 2654,
      "##unh": 2655,
      "▁overall": 2656,
      "▁bleachers": 2657,
      "▁starters": 2658,
      "##ependency": 2659,
      "##uild": 2660,
      "▁joh": 2661,
      "##rely": 2662,
      "▁visa": 2663,
      "▁outbreak": 2664,
      "▁uneas": 2665,
      "▁rewarded": 2666,
      "▁exclusion": 2667,
      "▁emailed": 2668,
      "▁careers": 2669,
      "▁dil": 2670,
      "▁pover": 2671,
      "▁divorce": 2672,
      "▁prosec": 2673,
      "▁fallout": 2674,
      "▁ai": 2675,
      "▁dancer": 2676,
      "##ticism": 2677,
      "▁container": 2678,
      "▁array": 2679,
      "▁bumped": 2680,
      "▁lands": 2681,
      "▁tearing": 2682,
      "▁salads": 2683,
      "▁pri": 2684,
      "▁trends": 2685,
      "▁option": 2686,
      "▁response": 2687,
      "##xts": 2688,
      "▁carwash": 2689,
      "▁located": 2690,
      "▁obtaining": 2691,
      "##otograp": 2692,
      "▁publication": 2693,
      "##osed": 2694,
      "▁pumpkin": 2695,
      "▁innovations": 2696,
      "▁bom": 2697,
      "▁congratulations": 2698,
      "▁minority": 2699,
      "▁arrows": 2700,
      "##s.": 2701,
      "▁congratulate": 2702,
      "▁loves": 2703,
      "▁seizures": 2704,
      "▁immigration": 2705,
      "##ceived": 2706,
      "▁teaching": 2707,
      "▁grinder": 2708,
      "▁pins": 2709,
      "▁spilled": 2710,
      "▁dad": 2711,
      "▁ide": 2712,
      "▁spent": 2713,
      "▁preven": 2714,
      "▁excl": 2715,
      "▁public": 2716,
      "▁possibilities": 2717,
      "▁focus": 2718,
      "▁mice": 2719,
      "▁underneath": 2720,
      "##ommerce": 2721,
      "▁associate": 2722,
      "▁lux": 2723,
      "▁eff": 2724,
      "▁lisa_": 2725,
      "▁disclaimer": 2726,
      "▁mare": 2727,
      "▁opera": 2728,
      "▁imbalance": 2729,
      "▁hesitate": 2730,
      "##door": 2731,
      "##icting": 2732,
      "▁mimic": 2733,
      "▁reasons": 2734,
      "▁hed": 2735,
      "▁seek": 2736,
      "e": 2737,
      "▁curator": 2738,
      "##ticoat": 2739,
      "▁towns": 2740,
      "▁metering": 2741,
      "▁renovation": 2742,
      "▁nons": 2743,
      "▁motorist": 2744,
      "##lying": 2745,
      "▁clause": 2746,
      "▁luck": 2747,
      "##itating": 2748,
      "##inoc": 2749,
      "▁subd": 2750,
      "▁rage": 2751,
      "##position": 2752,
      "▁minds": 2753,
      "##nies": 2754,
      "▁disl": 2755,
      "##ods": 2756,
      "▁homeopathy": 2757,
      "##yards": 2758,
      "▁manufacturing": 2759,
      "▁campus": 2760,
      "▁dining": 2761,
      "##ib": 2762,
      "▁trouble": 2763,
      "▁sexuality": 2764,
      "▁exce": 2765,
      "▁section": 2766,
      "▁pouring": 2767,
      "##anged": 2768,
      "▁tolerance": 2769,
      "▁secretary": 2770,
      "▁vets": 2771,
      "▁operate": 2772,
      "▁correl": 2773,
      "##tish": 2774,
      "▁lur": 2775,
      "▁trucks": 2776,
      "▁frag": 2777,
      "▁temperature": 2778,
      "▁spore": 2779,
      "▁prin": 2780,
      "▁shipped": 2781,
      "▁sequence": 2782,
      "▁revised": 2783,
      "##her": 2784,
      "▁accuses": 2785,
      "▁properties": 2786,
      "▁homosex": 2787,
      "▁collabor": 2788,
      "▁government": 2789,
      "▁threatening": 2790,
      "▁chameleon": 2791,
      "▁military": 2792,
      "▁adv": 2793,
      "▁corp": 2794,
      "##dog": 2795,
      "##poon": 2796,
      "▁while": 2797,
      "##ybody": 2798,
      "▁grandpar": 2799,
      "▁protections": 2800,
      "▁formulate": 2801,
      "▁her": 2802,
      "##-8": 2803,
      "▁citizen": 2804,
      "##chant": 2805,
      "##iron": 2806,
      "▁temple": 2807,
      "▁notepad": 2808,
      "##unc": 2809,
      "­": 2810,
      "▁syrup": 2811,
      "▁ones": 2812,
      "▁nationality": 2813,
      "##erance": 2814,
      "▁failures": 2815,
      "▁whee": 2816,
      "##+room": 2817,
      "##fighter": 2818,
      "##itis": 2819,
      "▁enhance": 2820,
      "##lines": 2821,
      "▁approximation": 2822,
      "▁diseas": 2823,
      "▁nightlife": 2824,
      "▁ship": 2825,
      "▁torti": 2826,
      "▁sleeps": 2827,
      "##lid": 2828,
      "▁metro": 2829,
      "▁ancestors": 2830,
      "▁understands": 2831,
      "▁rivers": 2832,
      "▁approval": 2833,
      "▁concl": 2834,
      "▁prevail": 2835,
      "##stit": 2836,
      "▁themes": 2837,
      "▁liking": 2838,
      "▁committ": 2839,
      "▁...............": 2840,
      "▁care": 2841,
      "##waukee": 2842,
      "▁hit": 2843,
      "▁applic": 2844,
      "▁midter": 2845,
      "##urbs": 2846,
      "##ucking": 2847,
      "##ycles": 2848,
      "▁cases": 2849,
      "##lit": 2850,
      "▁pride": 2851,
      "##arity": 2852,
      "▁wee": 2853,
      "##+": 2854,
      "##atements": 2855,
      "▁bike": 2856,
      "▁camera": 2857,
      "▁cereal": 2858,
      "▁insp": 2859,
      "▁organ": 2860,
      "▁cents": 2861,
      "▁p.s.": 2862,
      "▁workout": 2863,
      "##ady": 2864,
      "▁soups": 2865,
      "▁ld2d-#69366-1.doc": 2866,
      "▁resear": 2867,
      "▁sauce": 2868,
      "▁conn": 2869,
      "##ometer": 2870,
      "ɔ": 2871,
      "▁outliers": 2872,
      "▁possibility": 2873,
      "▁securities": 2874,
      "▁outfits": 2875,
      "▁n't": 2876,
      "▁banks": 2877,
      "▁lessons": 2878,
      "##hole": 2879,
      "▁suspended": 2880,
      "▁credence": 2881,
      "##aire": 2882,
      "▁makers": 2883,
      "▁adoles": 2884,
      "▁item": 2885,
      "##esome": 2886,
      "##ont": 2887,
      "+": 2888,
      "▁combination": 2889,
      "▁ena": 2890,
      "▁repres": 2891,
      "##ctive": 2892,
      "▁magn": 2893,
      "▁chec": 2894,
      "▁conserv": 2895,
      "##odor": 2896,
      "▁sus": 2897,
      "▁argued": 2898,
      "▁reject": 2899,
      "▁pickle": 2900,
      "##%": 2901,
      "▁sup": 2902,
      "▁subject": 2903,
      "▁laugh": 2904,
      "▁estim": 2905,
      "##text": 2906,
      "▁fighting": 2907,
      "▁ge": 2908,
      "▁securing": 2909,
      "##cosm": 2910,
      "##terness": 2911,
      "▁tries": 2912,
      "▁interfaces": 2913,
      "▁colleag": 2914,
      "▁killing": 2915,
      "##anoma": 2916,
      "▁chased": 2917,
      "▁trave": 2918,
      "##isl": 2919,
      "▁designer": 2920,
      "▁aviation": 2921,
      "▁billions": 2922,
      "##ertain": 2923,
      "▁llms": 2924,
      "▁oper": 2925,
      "##chief": 2926,
      "▁envelope": 2927,
      "▁farming": 2928,
      "▁em": 2929,
      "##erious": 2930,
      "##!!!!": 2931,
      "##ff": 2932,
      "▁insight": 2933,
      "▁possess": 2934,
      "▁twa": 2935,
      "▁recipe": 2936,
      "▁blowing": 2937,
      "▁melting": 2938,
      "▁umb": 2939,
      "▁emper": 2940,
      "▁groups": 2941,
      "##owned": 2942,
      "▁grim": 2943,
      "▁**********": 2944,
      "##itt": 2945,
      "▁mapping": 2946,
      "▁shel": 2947,
      "x": 2948,
      "▁friend": 2949,
      "▁prototyp": 2950,
      "##ker": 2951,
      "▁thinking": 2952,
      "▁opposition": 2953,
      "▁student": 2954,
      "##cl": 2955,
      "▁living": 2956,
      "▁spikes": 2957,
      "▁comparisons": 2958,
      "▁lingerie": 2959,
      "▁departs": 2960,
      "▁topic": 2961,
      "▁recorder": 2962,
      "▁hippopotamus": 2963,
      "##idered": 2964,
      "##unting": 2965,
      "##fully": 2966,
      "▁masters": 2967,
      "▁tough": 2968,
      "##ately": 2969,
      "▁those": 2970,
      "▁exploration": 2971,
      "##atch": 2972,
      "▁tyr": 2973,
      "▁suggesting": 2974,
      "##itate": 2975,
      "▁charcoal": 2976,
      "▁thrift": 2977,
      "▁sett": 2978,
      "##kes": 2979,
      "##look": 2980,
      "▁rac": 2981,
      "▁monit": 2982,
      "▁suppl": 2983,
      "▁episodes": 2984,
      "▁desir": 2985,
      "▁chandeliers": 2986,
      "▁adapted": 2987,
      "▁stev": 2988,
      "▁principles": 2989,
      "▁frequ": 2990,
      "▁gosh": 2991,
      "▁noontime": 2992,
      "##any": 2993,
      "▁łodz": 2994,
      "##asa": 2995,
      "▁researching": 2996,
      "▁layer": 2997,
      "▁**": 2998,
      "##eeper": 2999,
      "▁bell": 3000,
      "##ulses": 3001,
      "▁gastroenteritis": 3002,
      "##mp": 3003,
      "▁cyclone": 3004,
      "▁mim": 3005,
      "##rited": 3006,
      "##oodle": 3007,
      "▁states": 3008,
      "##ass": 3009,
      "▁limous": 3010,
      "▁motiv": 3011,
      "▁mummy": 3012,
      "▁scrambled": 3013,
      "▁coordinated": 3014,
      "▁longer": 3015,
      "▁oak": 3016,
      "▁queen": 3017,
      "▁therap": 3018,
      "▁knoc": 3019,
      "j": 3020,
      "▁risk": 3021,
      "▁ac": 3022,
      "##'s": 3023,
      "▁colors": 3024,
      "▁hydrogen": 3025,
      "▁grains": 3026,
      "▁scooped": 3027,
      "▁trajectory": 3028,
      "▁altogether": 3029,
      "▁2003": 3030,
      "▁disenfranch": 3031,
      "▁perio": 3032,
      "▁waving": 3033,
      "▁jingle": 3034,
      "▁princip": 3035,
      "▁prepared": 3036,
      "▁lighting": 3037,
      "##eys": 3038,
      "▁retrospect": 3039,
      "##ize": 3040,
      "▁pounds": 3041,
      "▁foods": 3042,
      "▁famous": 3043,
      "##ec": 3044,
      "##tit": 3045,
      "▁sandal": 3046,
      "▁working": 3047,
      "▁diseases": 3048,
      "▁sunken": 3049,
      "▁succession": 3050,
      "▁judge": 3051,
      "##v.": 3052,
      "▁ld2d-#69345-1.doc": 3053,
      "##tick": 3054,
      "▁handing": 3055,
      "▁transforming": 3056,
      "▁fac": 3057,
      "▁distric": 3058,
      "▁avenue": 3059,
      "▁bulld": 3060,
      "▁guarantee": 3061,
      "▁kay": 3062,
      "▁st": 3063,
      "▁operation": 3064,
      "▁anatomy": 3065,
      "##ouncing": 3066,
      "##arth": 3067,
      "##ym": 3068,
      "▁absorbed": 3069,
      "▁statistics": 3070,
      "▁contributions": 3071,
      "##ome": 3072,
      "▁resili": 3073,
      "▁dialects": 3074,
      "▁ducks": 3075,
      "▁femur": 3076,
      "▁election": 3077,
      "▁counterparty": 3078,
      "##irited": 3079,
      "▁outro": 3080,
      "##and": 3081,
      "▁persuade": 3082,
      "##yi": 3083,
      "▁trip": 3084,
      "##id": 3085,
      "▁testing": 3086,
      "▁recalled": 3087,
      "▁kinds": 3088,
      "##ν": 3089,
      "▁fl": 3090,
      "▁chocolate": 3091,
      "▁jealous": 3092,
      "##www": 3093,
      "▁everywhere": 3094,
      "▁player": 3095,
      "▁removal": 3096,
      "▁gda": 3097,
      "▁bags": 3098,
      "▁prejud": 3099,
      "▁claim": 3100,
      "▁init": 3101,
      "▁dragons": 3102,
      "##erves": 3103,
      "##icked": 3104,
      "▁exercised": 3105,
      "▁vio": 3106,
      "##50s": 3107,
      "▁treated": 3108,
      "##ward": 3109,
      "##.7": 3110,
      "##4": 3111,
      "▁restricted": 3112,
      "▁arch": 3113,
      "▁ep": 3114,
      "▁repetition": 3115,
      "##unately": 3116,
      "▁material": 3117,
      "▁milwaukee": 3118,
      "▁sport": 3119,
      "▁deteriorate": 3120,
      "▁bounced": 3121,
      "▁formatting": 3122,
      "▁horses": 3123,
      "▁royalist": 3124,
      "▁buyers": 3125,
      "▁-----------------------------------------------------------------------": 3126,
      "##orea": 3127,
      "▁till": 3128,
      "##ago": 3129,
      "▁lets": 3130,
      "▁recru": 3131,
      "▁better": 3132,
      "▁pref": 3133,
      "▁mathematics": 3134,
      "▁drums": 3135,
      "▁protection": 3136,
      "▁right": 3137,
      "##chie": 3138,
      "▁pd": 3139,
      "▁sh": 3140,
      "▁sust": 3141,
      "▁hamas": 3142,
      "▁alcoholism": 3143,
      "#": 3144,
      "##ansion": 3145,
      "##fp": 3146,
      "▁envir": 3147,
      "▁merits": 3148,
      "▁hum": 3149,
      "##ashed": 3150,
      "▁landscapes": 3151,
      "##pi": 3152,
      "▁loved": 3153,
      "##ris": 3154,
      "▁pakistan": 3155,
      "▁peanut": 3156,
      "▁stretch": 3157,
      "▁leaning": 3158,
      "▁berries": 3159,
      "▁pages": 3160,
      "▁victorians": 3161,
      "▁brains": 3162,
      "▁finding": 3163,
      "▁boom": 3164,
      "▁screws": 3165,
      "##ither": 3166,
      "##esses": 3167,
      "##istan": 3168,
      "▁settle": 3169,
      "▁mercury": 3170,
      "▁pennies": 3171,
      "##70": 3172,
      "▁peninsula": 3173,
      "▁deb": 3174,
      "▁lawsuit": 3175,
      "▁promote": 3176,
      "▁leave": 3177,
      "##nia": 3178,
      "▁fallen": 3179,
      "▁recreating": 3180,
      "▁analyses": 3181,
      "▁hing": 3182,
      "▁comedy": 3183,
      "##peakers": 3184,
      "▁guarantees": 3185,
      "##aria": 3186,
      "▁fire": 3187,
      "▁casting": 3188,
      "▁expectations": 3189,
      "▁uth": 3190,
      "▁scul": 3191,
      "▁trou": 3192,
      "▁phenomenon": 3193,
      "▁phen": 3194,
      "##i": 3195,
      "▁introducing": 3196,
      "▁fight": 3197,
      "▁mistake": 3198,
      "▁monologue": 3199,
      "▁boot": 3200,
      "▁cared": 3201,
      "▁masterpi": 3202,
      "##uz": 3203,
      "▁proven": 3204,
      "##jectory": 3205,
      "##leration": 3206,
      "▁forb": 3207,
      "▁nightclubs": 3208,
      "▁title": 3209,
      "▁shirts": 3210,
      "##gies": 3211,
      "▁environment": 3212,
      "▁negotiation": 3213,
      "##onation": 3214,
      "##aith": 3215,
      "▁nos": 3216,
      "▁resour": 3217,
      "▁bottle": 3218,
      "##plan": 3219,
      "▁tables": 3220,
      "▁contributes": 3221,
      "▁bacter": 3222,
      "▁instant": 3223,
      "▁exchang": 3224,
      "##09": 3225,
      "▁bicycles": 3226,
      "▁pipeline": 3227,
      "▁cheeks": 3228,
      "▁pyth": 3229,
      "▁offer": 3230,
      "▁confused": 3231,
      "▁teleph": 3232,
      "▁procr": 3233,
      "▁bail": 3234,
      "##v": 3235,
      "▁ballet": 3236,
      "▁birds": 3237,
      "▁pigs": 3238,
      "▁symptoms": 3239,
      "▁organisations": 3240,
      "▁kangaroo": 3241,
      "▁sash": 3242,
      "▁fal": 3243,
      "▁rig": 3244,
      "##view": 3245,
      "▁lawyer": 3246,
      "▁drove": 3247,
      "▁matt": 3248,
      "▁condem": 3249,
      "▁'": 3250,
      "##aping": 3251,
      "▁edition": 3252,
      "▁uncover": 3253,
      "##orting": 3254,
      "▁incap": 3255,
      "▁matches": 3256,
      "▁self": 3257,
      "▁destroy": 3258,
      "▁regional": 3259,
      "##aust": 3260,
      "▁propped": 3261,
      "##unt": 3262,
      "##vailable": 3263,
      "▁comparing": 3264,
      "▁smooth": 3265,
      "▁canes": 3266,
      "▁astride": 3267,
      "##/2001": 3268,
      "##ase": 3269,
      "▁combine": 3270,
      "▁repl": 3271,
      "▁eol": 3272,
      "▁dust": 3273,
      "▁judged": 3274,
      "▁cosplay": 3275,
      "▁alarms": 3276,
      "▁definitely": 3277,
      "▁vintage": 3278,
      "▁black": 3279,
      "▁pall": 3280,
      "▁visibility": 3281,
      "▁bulletin": 3282,
      "▁criticized": 3283,
      "▁sol": 3284,
      "##ugged": 3285,
      "▁off": 3286,
      "##lie": 3287,
      "▁discussing": 3288,
      "##inding": 3289,
      "▁ban": 3290,
      "▁decor": 3291,
      "▁knives": 3292,
      "##ines": 3293,
      "##math": 3294,
      "▁questionna": 3295,
      "▁compressor": 3296,
      "▁ag": 3297,
      "▁keeping": 3298,
      "▁midnight": 3299,
      "##entic": 3300,
      "▁hours": 3301,
      "##cend": 3302,
      "▁shine": 3303,
      "##ograph": 3304,
      "▁ss": 3305,
      "▁likelihood": 3306,
      "▁sky": 3307,
      "▁weekdays": 3308,
      "▁dark": 3309,
      "▁deriv": 3310,
      "▁austral": 3311,
      "##fing": 3312,
      "▁target": 3313,
      "▁reccomend": 3314,
      "▁celebr": 3315,
      "▁2004": 3316,
      "##step": 3317,
      "▁need": 3318,
      "▁scrap": 3319,
      "▁exhibited": 3320,
      "▁vi": 3321,
      "▁gained": 3322,
      "▁nickname": 3323,
      "##armacy": 3324,
      "▁ambul": 3325,
      "▁other": 3326,
      "▁disrup": 3327,
      "##riting": 3328,
      "##erd": 3329,
      "##ordination": 3330,
      "▁covered": 3331,
      "▁clarify": 3332,
      "▁mixed": 3333,
      "▁equation": 3334,
      "▁appetizers": 3335,
      "▁phr": 3336,
      "▁blog": 3337,
      "▁cab": 3338,
      "▁imm": 3339,
      "##(s)": 3340,
      "▁parakeets": 3341,
      "▁thus": 3342,
      "##ulator": 3343,
      "▁wives": 3344,
      "▁rentals": 3345,
      "▁interrupted": 3346,
      "▁scen": 3347,
      "▁enjoyment": 3348,
      "▁requ": 3349,
      "##.html": 3350,
      "▁edward": 3351,
      "▁reef": 3352,
      "▁older": 3353,
      "▁skys": 3354,
      "▁resembled": 3355,
      "▁puff": 3356,
      "▁christi": 3357,
      "▁fear": 3358,
      "▁usb": 3359,
      "▁pyram": 3360,
      "▁heated": 3361,
      "▁attemp": 3362,
      "▁connecting": 3363,
      "▁consensus": 3364,
      "▁too": 3365,
      "##eop": 3366,
      "▁instructions": 3367,
      "##tiality": 3368,
      "▁withdrawn": 3369,
      "▁max": 3370,
      "##fare": 3371,
      "##bod": 3372,
      "▁spos": 3373,
      "▁exped": 3374,
      "##quet": 3375,
      "▁punchline": 3376,
      "▁councillors": 3377,
      "▁buildings": 3378,
      "##oft": 3379,
      "##ight": 3380,
      "▁slow": 3381,
      "▁americ": 3382,
      "▁decline": 3383,
      "##ings": 3384,
      "##ras": 3385,
      "▁starfighter": 3386,
      "▁texts": 3387,
      "▁rain": 3388,
      "▁pollut": 3389,
      "##asley": 3390,
      "▁asser": 3391,
      "▁70s": 3392,
      "##fl": 3393,
      "##0's": 3394,
      "▁foss": 3395,
      "▁statement": 3396,
      "▁string": 3397,
      "▁robber": 3398,
      "▁exchanged": 3399,
      "##worms": 3400,
      "▁swa": 3401,
      "▁anthrop": 3402,
      "##-h": 3403,
      "▁programmes": 3404,
      "▁smoke": 3405,
      "▁processor": 3406,
      "▁acclaimed": 3407,
      "▁smoked": 3408,
      "##ev": 3409,
      "▁bob": 3410,
      "▁lav": 3411,
      "▁gd": 3412,
      "▁prevention": 3413,
      "▁hate": 3414,
      "▁league": 3415,
      "▁radicals": 3416,
      "▁cleanup": 3417,
      "▁treats": 3418,
      "▁wizard": 3419,
      "▁disappointment": 3420,
      "▁negotiations": 3421,
      "▁manor": 3422,
      "▁~": 3423,
      "▁case": 3424,
      "▁alliance": 3425,
      "▁submarine": 3426,
      "▁relieved": 3427,
      "##ardised": 3428,
      "▁commentators": 3429,
      "▁proximity": 3430,
      "▁coupled": 3431,
      "##erm": 3432,
      "##wise": 3433,
      "▁round": 3434,
      "▁bou": 3435,
      "▁language": 3436,
      "▁products": 3437,
      "▁unity": 3438,
      "▁super": 3439,
      "▁sliding": 3440,
      "##righted": 3441,
      "##oleum": 3442,
      "▁moustache": 3443,
      "▁lavatory": 3444,
      "▁toof": 3445,
      "▁patience": 3446,
      "##icate": 3447,
      "##ets": 3448,
      "▁tending": 3449,
      "▁european": 3450,
      "▁paradise": 3451,
      "▁gold": 3452,
      "▁total": 3453,
      "##lessly": 3454,
      "▁trays": 3455,
      "▁fares": 3456,
      "▁collections": 3457,
      "##rison": 3458,
      "▁intr": 3459,
      "▁tip": 3460,
      "▁invest": 3461,
      "▁ech": 3462,
      "▁tun": 3463,
      "▁dollar": 3464,
      "▁ankle": 3465,
      "▁then": 3466,
      "▁squeezed": 3467,
      "##cc": 3468,
      "▁assistance": 3469,
      "▁backup": 3470,
      "▁played": 3471,
      "▁lem": 3472,
      "▁unrave": 3473,
      "▁indulged": 3474,
      "▁fires": 3475,
      "▁passed": 3476,
      "▁fiance": 3477,
      "▁newsgroups": 3478,
      "##ob": 3479,
      "##dam": 3480,
      "▁admire": 3481,
      "▁investigate": 3482,
      "▁shared": 3483,
      "##eeze": 3484,
      "##ots": 3485,
      "▁foot": 3486,
      "▁jam": 3487,
      "##ority": 3488,
      "▁drag": 3489,
      "##otted": 3490,
      "▁plates": 3491,
      "##entiality": 3492,
      "▁backs": 3493,
      "▁buns": 3494,
      "##acing": 3495,
      "▁marks": 3496,
      "▁pool": 3497,
      "##ressive": 3498,
      "▁protecting": 3499,
      "▁ts": 3500,
      "▁expel": 3501,
      "▁pens": 3502,
      "▁pizza": 3503,
      "##-fl": 3504,
      "▁repub": 3505,
      "▁pleasant": 3506,
      "▁laughs": 3507,
      "▁caff": 3508,
      "▁tor": 3509,
      "▁comet": 3510,
      "?": 3511,
      "##osure": 3512,
      "▁clubs": 3513,
      "▁acquired": 3514,
      "▁autobiography": 3515,
      "▁emergency": 3516,
      "▁sucked": 3517,
      "▁qui": 3518,
      "▁written": 3519,
      "##ologists": 3520,
      "▁wearing": 3521,
      "##oundings": 3522,
      "▁burst": 3523,
      "▁american": 3524,
      "▁i": 3525,
      "▁demonstrates": 3526,
      "##ovation": 3527,
      "▁youtu": 3528,
      "▁establishing": 3529,
      "▁ultras": 3530,
      "▁theater": 3531,
      "▁lear": 3532,
      "##ief": 3533,
      "▁variety": 3534,
      "▁agreements": 3535,
      "▁equal": 3536,
      "##uge": 3537,
      "▁compos": 3538,
      "▁ornament": 3539,
      "▁hurried": 3540,
      "▁x3-98": 3541,
      "##fights": 3542,
      "▁enem": 3543,
      "_": 3544,
      "▁kar": 3545,
      "##eph": 3546,
      "▁manufacturer": 3547,
      "▁cock": 3548,
      "##hh": 3549,
      "▁dish": 3550,
      "▁flat": 3551,
      "▁rope": 3552,
      "▁young": 3553,
      "▁boo": 3554,
      "▁cand": 3555,
      "▁smiling": 3556,
      "▁yiddish": 3557,
      "##ez": 3558,
      "##ude": 3559,
      "##cel": 3560,
      "▁discrim": 3561,
      "▁lifted": 3562,
      "▁tam": 3563,
      "▁session": 3564,
      "##ig": 3565,
      "▁conditions": 3566,
      "##acket": 3567,
      "##ighten": 3568,
      "▁rack": 3569,
      "▁messing": 3570,
      "##pol": 3571,
      "▁goats": 3572,
      "##200": 3573,
      "▁pandemic": 3574,
      "▁hund": 3575,
      "▁frozen": 3576,
      "▁every": 3577,
      "▁virus": 3578,
      "▁gps": 3579,
      "▁stomachs": 3580,
      "▁shaped": 3581,
      "##enda": 3582,
      "##aurs": 3583,
      "▁whether": 3584,
      "▁pac": 3585,
      "▁guitar": 3586,
      "▁pre-": 3587,
      "▁abs": 3588,
      "##ialize": 3589,
      "▁essence": 3590,
      "▁tsunami": 3591,
      "▁cry": 3592,
      "##rite": 3593,
      "▁1830s": 3594,
      "##itical": 3595,
      "▁gro": 3596,
      "▁oink": 3597,
      "▁merely": 3598,
      "▁conference": 3599,
      "##irl": 3600,
      "▁since": 3601,
      "▁rumors": 3602,
      "▁otherwise": 3603,
      "▁bucks": 3604,
      "##iam": 3605,
      "▁inte": 3606,
      "##tively": 3607,
      "##i-": 3608,
      "▁shortly": 3609,
      "▁adult": 3610,
      "▁weekend": 3611,
      "▁ladder": 3612,
      "##ology": 3613,
      "▁positions": 3614,
      "▁extension": 3615,
      "▁witnessed": 3616,
      "▁waived": 3617,
      "▁gestured": 3618,
      "▁artill": 3619,
      "▁scratched": 3620,
      "▁lens": 3621,
      "▁chewed": 3622,
      "▁week": 3623,
      "▁detective": 3624,
      "##loqu": 3625,
      "▁perm": 3626,
      "##ront": 3627,
      "▁attributed": 3628,
      "ι": 3629,
      "▁fug": 3630,
      "▁disgust": 3631,
      "##uddled": 3632,
      "▁destination": 3633,
      "\"": 3634,
      "▁liquidation": 3635,
      "▁rabb": 3636,
      "##uates": 3637,
      "##ata": 3638,
      "▁restriction": 3639,
      "##oes": 3640,
      "##-pos": 3641,
      "##rote": 3642,
      "▁references": 3643,
      "▁facil": 3644,
      "▁cosmos": 3645,
      "▁ham": 3646,
      "##cers": 3647,
      "▁musicians": 3648,
      "##ounce": 3649,
      "##igating": 3650,
      "▁cooker": 3651,
      "##bish": 3652,
      "##ominated": 3653,
      "▁scri": 3654,
      "##head": 3655,
      "▁point": 3656,
      "▁m": 3657,
      "##.ht": 3658,
      "▁perfec": 3659,
      "##keys": 3660,
      "▁dived": 3661,
      "▁crest": 3662,
      "▁boil": 3663,
      "▁actors": 3664,
      "▁england": 3665,
      "##pot": 3666,
      "##riendly": 3667,
      "▁drug": 3668,
      "##resses": 3669,
      "▁wednesday": 3670,
      "▁confine": 3671,
      "##lico": 3672,
      "▁organizations": 3673,
      "##cause": 3674,
      "▁nonstop": 3675,
      "▁divide": 3676,
      "▁civilizations": 3677,
      "##-up": 3678,
      "▁administration": 3679,
      "▁ignored": 3680,
      "▁corpus": 3681,
      "##year": 3682,
      "▁legislature": 3683,
      "##he": 3684,
      "▁tasted": 3685,
      "▁show": 3686,
      "▁recipient": 3687,
      "ɑ": 3688,
      "##essing": 3689,
      "▁thought": 3690,
      "##atees": 3691,
      "▁fertilizer": 3692,
      "▁sheet": 3693,
      "##alf": 3694,
      "▁appreciated": 3695,
      "##yro": 3696,
      "▁ve": 3697,
      "▁financ": 3698,
      "##nets": 3699,
      "▁wrestle": 3700,
      "▁power": 3701,
      "▁balcony": 3702,
      "▁shortage": 3703,
      "▁tablet": 3704,
      "##????????": 3705,
      "▁mode": 3706,
      "▁soda": 3707,
      "▁poses": 3708,
      "▁stripe": 3709,
      "##ycle": 3710,
      "▁barriers": 3711,
      "▁kicked": 3712,
      "▁laughing": 3713,
      "##chored": 3714,
      "▁fee": 3715,
      "##3i": 3716,
      "▁mouse": 3717,
      "▁urge": 3718,
      "▁******************************************************************": 3719,
      "▁kins": 3720,
      "##do": 3721,
      "##ays": 3722,
      "▁harm": 3723,
      "▁belly": 3724,
      "##ew": 3725,
      "▁depends": 3726,
      "▁pupp": 3727,
      "▁assuming": 3728,
      "▁payments": 3729,
      "##or": 3730,
      "▁inject": 3731,
      "▁zawahiri": 3732,
      "▁sne": 3733,
      "▁clay": 3734,
      "▁mouf": 3735,
      "##arters": 3736,
      "▁argue": 3737,
      "▁worst": 3738,
      "▁width": 3739,
      "▁relativ": 3740,
      "##tled": 3741,
      "▁ears": 3742,
      "▁stranger": 3743,
      "▁palace": 3744,
      "▁crush": 3745,
      "##rap": 3746,
      "▁stood": 3747,
      "##iri": 3748,
      "▁memory": 3749,
      "▁communications": 3750,
      "##istocks": 3751,
      "▁carrier": 3752,
      "▁sighed": 3753,
      "▁soli": 3754,
      "▁marshmall": 3755,
      "▁warl": 3756,
      "##enc": 3757,
      "##jec": 3758,
      "▁supermarket": 3759,
      "▁glowing": 3760,
      "▁audio": 3761,
      "▁chewing": 3762,
      "▁opt": 3763,
      "##tices": 3764,
      "##ale": 3765,
      "▁bol": 3766,
      "▁’re": 3767,
      "##oke": 3768,
      "▁outbre": 3769,
      "▁pancake": 3770,
      "##istem": 3771,
      "##la": 3772,
      "▁inclined": 3773,
      "▁interval": 3774,
      "▁book": 3775,
      "▁publishers": 3776,
      "##inal": 3777,
      "##alancing": 3778,
      "▁ver": 3779,
      "##acting": 3780,
      "▁sakes": 3781,
      "▁ranger": 3782,
      "##93": 3783,
      "▁countryside": 3784,
      "▁sucks": 3785,
      "▁establishments": 3786,
      "##°": 3787,
      "▁bin": 3788,
      "▁skip": 3789,
      "##80s": 3790,
      "▁ordered": 3791,
      "##ute": 3792,
      "##iring": 3793,
      "▁staircase": 3794,
      "▁fraud": 3795,
      "##oa": 3796,
      "@": 3797,
      "▁empathy": 3798,
      "▁locks": 3799,
      "▁necess": 3800,
      "▁sac": 3801,
      "▁slammed": 3802,
      "▁territory": 3803,
      "▁anyway": 3804,
      "##tition": 3805,
      "▁voices": 3806,
      "##oration": 3807,
      "▁requi": 3808,
      "##isti": 3809,
      "▁tig": 3810,
      "▁orph": 3811,
      "##orated": 3812,
      "▁dom": 3813,
      "▁apologize": 3814,
      "▁bod": 3815,
      "▁stores": 3816,
      "▁slide": 3817,
      "▁restr": 3818,
      "##reed": 3819,
      "▁roots": 3820,
      "▁membership": 3821,
      "##8th": 3822,
      "▁horsesho": 3823,
      "▁sail": 3824,
      "▁children": 3825,
      "▁sp": 3826,
      "▁considering": 3827,
      "##flies": 3828,
      "▁bok": 3829,
      "##earm": 3830,
      "▁ascertain": 3831,
      "▁disorders": 3832,
      "▁switch": 3833,
      "▁losses": 3834,
      "▁wishing": 3835,
      "▁dempse": 3836,
      "▁loop": 3837,
      "▁experts": 3838,
      "▁aware": 3839,
      "ʁ": 3840,
      "▁recog": 3841,
      "▁museums": 3842,
      "▁calm": 3843,
      "▁lookout": 3844,
      "▁pasture": 3845,
      "▁throws": 3846,
      "▁businessmen": 3847,
      "▁sailor": 3848,
      "##tted": 3849,
      "▁afraid": 3850,
      "▁enacting": 3851,
      "▁urs": 3852,
      "▁decree": 3853,
      "▁driveway": 3854,
      "##erco": 3855,
      "▁traffick": 3856,
      "▁imported": 3857,
      "▁dere": 3858,
      "▁intersection": 3859,
      "##oods": 3860,
      "▁dead": 3861,
      "▁dign": 3862,
      "▁composition": 3863,
      "▁tickle": 3864,
      "▁grow": 3865,
      "▁bought": 3866,
      "▁obsession": 3867,
      "▁him": 3868,
      "▁skitt": 3869,
      "##stant": 3870,
      "▁harry": 3871,
      "▁discharge": 3872,
      "▁doubts": 3873,
      "##icing": 3874,
      "##paper": 3875,
      "▁month": 3876,
      "##ability": 3877,
      "▁rotating": 3878,
      "▁clo": 3879,
      "##********": 3880,
      "▁.....": 3881,
      "▁perceptions": 3882,
      "##esday": 3883,
      "▁applied": 3884,
      "▁apost": 3885,
      "▁rely": 3886,
      "▁sheets": 3887,
      "▁refl": 3888,
      "▁least": 3889,
      "▁greet": 3890,
      "▁pin": 3891,
      "▁circus": 3892,
      "▁dates": 3893,
      "▁reserves": 3894,
      "▁main": 3895,
      "##7th": 3896,
      "▁lollipop": 3897,
      "▁verif": 3898,
      "▁occurrence": 3899,
      "▁tablespoon": 3900,
      "▁outlined": 3901,
      "n": 3902,
      "##py": 3903,
      "▁horsemen": 3904,
      "##.l.c": 3905,
      "##ention": 3906,
      "▁ped": 3907,
      "##osite": 3908,
      "▁ppl": 3909,
      "▁personal": 3910,
      "▁hub": 3911,
      "▁ideology": 3912,
      "▁!!!": 3913,
      "▁bra": 3914,
      "##esh": 3915,
      "▁conducted": 3916,
      "▁executing": 3917,
      "##mals": 3918,
      "##amble": 3919,
      "▁none": 3920,
      "▁minerals": 3921,
      "▁declarations": 3922,
      "▁ele": 3923,
      "▁starred": 3924,
      "▁boule": 3925,
      "▁twenty": 3926,
      "▁sticking": 3927,
      "##gible": 3928,
      "▁hidden": 3929,
      "▁iss": 3930,
      "##forming": 3931,
      "##struc": 3932,
      "▁checkout": 3933,
      "▁interpreted": 3934,
      "##idence": 3935,
      "▁discl": 3936,
      "▁collects": 3937,
      "##atnot": 3938,
      "▁traged": 3939,
      "▁begun": 3940,
      "##ilarities": 3941,
      "▁lantern": 3942,
      "▁gad": 3943,
      "▁mirror": 3944,
      "▁glaze": 3945,
      "##h-": 3946,
      "##attle": 3947,
      "##adm": 3948,
      "▁burrow": 3949,
      "▁polaroids": 3950,
      "▁sie": 3951,
      "▁referencing": 3952,
      "▁offset": 3953,
      "▁determination": 3954,
      "▁dividing": 3955,
      "▁supply": 3956,
      "▁vest": 3957,
      "▁functioning": 3958,
      "▁sometime": 3959,
      "▁gather": 3960,
      "▁spind": 3961,
      "▁was": 3962,
      "▁director": 3963,
      "▁fork": 3964,
      "▁dangers": 3965,
      "▁notebook": 3966,
      "▁maintained": 3967,
      "▁molec": 3968,
      "▁tai": 3969,
      "▁cer": 3970,
      "▁play+": 3971,
      "##aled": 3972,
      "▁forget": 3973,
      "▁runner": 3974,
      "##olly": 3975,
      "##umb": 3976,
      "▁meow": 3977,
      "▁pitches": 3978,
      "▁democratic": 3979,
      "▁revisions": 3980,
      "▁squirted": 3981,
      "▁specifies": 3982,
      "▁societies": 3983,
      "▁moment": 3984,
      "▁application": 3985,
      "##leon": 3986,
      "▁alert": 3987,
      "##ca": 3988,
      "▁'ve": 3989,
      "##ross": 3990,
      "▁learning": 3991,
      "▁reactions": 3992,
      "▁patrons": 3993,
      "▁affili": 3994,
      "##ht": 3995,
      "▁resolved": 3996,
      "▁collage": 3997,
      "▁pair": 3998,
      "##anistan": 3999,
      "▁cash": 4000,
      "▁smaller": 4001,
      "▁migrated": 4002,
      "##tile": 4003,
      "##yn": 4004,
      "##les": 4005,
      "▁turned": 4006,
      "▁starts": 4007,
      "▁curric": 4008,
      "▁uk": 4009,
      "▁pillow": 4010,
      "▁corruption": 4011,
      "▁narrative": 4012,
      "▁sept": 4013,
      "##tal": 4014,
      "##keepers": 4015,
      "▁cocoa": 4016,
      "▁specifically": 4017,
      "▁snack": 4018,
      "▁knife": 4019,
      "▁sacrifices": 4020,
      "▁distractions": 4021,
      "▁modem": 4022,
      "##rush": 4023,
      "▁immigrants": 4024,
      "▁pines": 4025,
      "▁stopovers": 4026,
      "##rial": 4027,
      "▁poison": 4028,
      "▁imposed": 4029,
      "##s": 4030,
      "##ope": 4031,
      "▁quick": 4032,
      "▁glit": 4033,
      "▁foll": 4034,
      "▁waiters": 4035,
      "▁heard": 4036,
      "▁poc": 4037,
      "##rof": 4038,
      "▁aer": 4039,
      "##egration": 4040,
      "▁u.": 4041,
      "▁maintenance": 4042,
      "▁cropd": 4043,
      "##anger": 4044,
      "▁roof": 4045,
      "▁destroyed": 4046,
      "▁ticket": 4047,
      "▁motel": 4048,
      "##cessarily": 4049,
      "▁disreg": 4050,
      "▁prefect": 4051,
      "▁moon": 4052,
      "##erve": 4053,
      "▁cough": 4054,
      "▁prefecture": 4055,
      "##ritation": 4056,
      "▁kg": 4057,
      "▁on": 4058,
      "▁cars": 4059,
      "▁]": 4060,
      "▁stolen": 4061,
      "▁fulf": 4062,
      "▁owes": 4063,
      "▁contract": 4064,
      "▁uhhu": 4065,
      "▁2005": 4066,
      "##icking": 4067,
      "▁transcri": 4068,
      "##t": 4069,
      "▁contemp": 4070,
      "▁frame": 4071,
      "▁wrap": 4072,
      "▁possession": 4073,
      "##iac": 4074,
      "##@enron.com": 4075,
      "▁incom": 4076,
      "▁spike": 4077,
      "▁reaches": 4078,
      "▁totally": 4079,
      "##ulating": 4080,
      "##anx": 4081,
      "h": 4082,
      "▁fungi": 4083,
      "▁receptionist": 4084,
      "▁detected": 4085,
      "▁relationships": 4086,
      "##arred": 4087,
      "▁treati": 4088,
      "▁zoom": 4089,
      "▁by": 4090,
      "▁cross": 4091,
      "##roduction": 4092,
      "▁honey": 4093,
      "▁’ve": 4094,
      "▁mis": 4095,
      "▁mexican": 4096,
      "▁solved": 4097,
      "▁fool": 4098,
      "▁whom": 4099,
      "##eng": 4100,
      "▁tv": 4101,
      "▁millions": 4102,
      "##unch": 4103,
      "▁conse": 4104,
      "▁flood": 4105,
      "▁validity": 4106,
      "▁later": 4107,
      "▁bor": 4108,
      "▁worse": 4109,
      "▁professors": 4110,
      "▁syn": 4111,
      "##anc": 4112,
      "##round": 4113,
      "▁sorrow": 4114,
      "##idding": 4115,
      "▁port": 4116,
      "▁time": 4117,
      "▁closet": 4118,
      "▁assuring": 4119,
      "##st": 4120,
      "##osis": 4121,
      "▁traveler": 4122,
      "▁debate": 4123,
      "▁twin": 4124,
      "▁daring": 4125,
      "▁columb": 4126,
      "▁explanation": 4127,
      "▁pr": 4128,
      "▁nights": 4129,
      "▁essay": 4130,
      "▁carefully": 4131,
      "▁skit": 4132,
      "▁america": 4133,
      "▁anth": 4134,
      "▁balance": 4135,
      "▁controls": 4136,
      "▁shop": 4137,
      "##awatt": 4138,
      "▁fart": 4139,
      "##nd": 4140,
      "▁recip": 4141,
      "▁restri": 4142,
      "▁postc": 4143,
      "##hment": 4144,
      "▁ad": 4145,
      "▁dye": 4146,
      "##__": 4147,
      "▁towels": 4148,
      "▁cens": 4149,
      "▁respecting": 4150,
      "▁plaque": 4151,
      "##kles": 4152,
      "▁staying": 4153,
      "▁sidew": 4154,
      "▁olds": 4155,
      "▁tighten": 4156,
      "▁revis": 4157,
      "▁depart": 4158,
      "▁perceive": 4159,
      "▁pav": 4160,
      "▁parents": 4161,
      "▁concentrating": 4162,
      "##wom": 4163,
      "##mental": 4164,
      "##ici": 4165,
      "▁existence": 4166,
      "##lights": 4167,
      "▁geof": 4168,
      "▁underlined": 4169,
      "▁surv": 4170,
      "##icks": 4171,
      "▁tub": 4172,
      "▁rises": 4173,
      "##angling": 4174,
      "▁administered": 4175,
      "▁pittsbur": 4176,
      "▁before": 4177,
      "▁mayonna": 4178,
      "▁posting": 4179,
      "▁cursor": 4180,
      "▁joined": 4181,
      "##igning": 4182,
      "▁last": 4183,
      "▁resulting": 4184,
      "##cp": 4185,
      "▁lettuce": 4186,
      "▁unless": 4187,
      "▁chosen": 4188,
      "▁ski": 4189,
      "##ionary": 4190,
      "▁cat-fl": 4191,
      "▁standing": 4192,
      "##ag": 4193,
      "▁peppers": 4194,
      "##pots": 4195,
      "##pe": 4196,
      "##anish": 4197,
      "▁wear": 4198,
      "▁tokyo": 4199,
      "…": 4200,
      "▁volatilities": 4201,
      "▁champagne": 4202,
      "▁stretching": 4203,
      "▁wea": 4204,
      "##essed": 4205,
      "▁addressed": 4206,
      "▁period": 4207,
      "▁sear": 4208,
      "▁enjoying": 4209,
      "▁proficiency": 4210,
      "##-war": 4211,
      "▁loaded": 4212,
      "▁ear": 4213,
      "▁priv": 4214,
      "▁curtains": 4215,
      "▁provoking": 4216,
      "▁sod": 4217,
      "##ud": 4218,
      "▁poll": 4219,
      "▁mor": 4220,
      "▁towar": 4221,
      "▁ly": 4222,
      "▁related": 4223,
      "▁nuts": 4224,
      "▁alcoho": 4225,
      "##ino": 4226,
      "▁drool": 4227,
      "##hero": 4228,
      "▁samp": 4229,
      "##lc": 4230,
      "▁pranks": 4231,
      "▁earthquake": 4232,
      "▁consideration": 4233,
      "▁geomet": 4234,
      "##itated": 4235,
      "##iban": 4236,
      "##uned": 4237,
      "▁committed": 4238,
      "##ering": 4239,
      "▁smelled": 4240,
      "##althy": 4241,
      "▁kaoshikii": 4242,
      "##ids": 4243,
      "▁mant": 4244,
      "▁code": 4245,
      "▁aper": 4246,
      "##uil": 4247,
      "▁travellers": 4248,
      "▁searches": 4249,
      "▁nailed": 4250,
      "▁20th": 4251,
      "▁ap": 4252,
      "▁quinoa": 4253,
      "▁cance": 4254,
      "▁progress": 4255,
      "▁canned": 4256,
      "▁joking": 4257,
      "▁free": 4258,
      "▁basic": 4259,
      "##books": 4260,
      "▁ph": 4261,
      "▁club": 4262,
      "▁compiling": 4263,
      "##idly": 4264,
      "##yp": 4265,
      "##igma": 4266,
      "▁younger": 4267,
      "##page": 4268,
      "▁sunsh": 4269,
      "##ounter": 4270,
      "▁trauma": 4271,
      "▁colleges": 4272,
      "▁dow": 4273,
      "▁toilet": 4274,
      "▁splash": 4275,
      "▁cares": 4276,
      "▁heightened": 4277,
      "▁eyeb": 4278,
      "▁paired": 4279,
      "##light": 4280,
      "▁referee": 4281,
      "##alg": 4282,
      "##eck": 4283,
      "▁coupon": 4284,
      "▁experim": 4285,
      "##agon": 4286,
      "▁japan": 4287,
      "▁stead": 4288,
      "▁flags": 4289,
      "▁law": 4290,
      "▁unfortunately": 4291,
      "▁sleep": 4292,
      "▁funeral": 4293,
      "▁attempting": 4294,
      "##lar": 4295,
      "▁arab": 4296,
      "▁divers": 4297,
      "##ake": 4298,
      "▁glad": 4299,
      "▁cric": 4300,
      "##istic": 4301,
      "##val": 4302,
      "▁elastic": 4303,
      "▁handled": 4304,
      "▁germ": 4305,
      "##ball": 4306,
      "▁imbalances": 4307,
      "##etic": 4308,
      "▁photo": 4309,
      "▁macaroni": 4310,
      "▁rights": 4311,
      "##ilities": 4312,
      "▁p.": 4313,
      "▁needed": 4314,
      "▁summit": 4315,
      "▁watching": 4316,
      "▁coupons": 4317,
      "▁liver": 4318,
      "▁accepted": 4319,
      "##emb": 4320,
      "▁vine": 4321,
      "▁rhinoc": 4322,
      "▁drinking": 4323,
      "▁muttered": 4324,
      "▁stealing": 4325,
      "##-life": 4326,
      "▁16": 4327,
      "▁copying": 4328,
      "##earch": 4329,
      "▁14": 4330,
      "▁biology": 4331,
      "▁hostages": 4332,
      "▁sc": 4333,
      "##riend": 4334,
      "▁foster": 4335,
      "▁kn": 4336,
      "##onishment": 4337,
      "▁lightning": 4338,
      "##zac": 4339,
      "▁incorporated": 4340,
      "▁candid": 4341,
      "##icit": 4342,
      "▁resilience": 4343,
      "▁hill": 4344,
      "▁reinforcing": 4345,
      "▁ov": 4346,
      "▁clue": 4347,
      "▁eas": 4348,
      "–": 4349,
      "▁mornings": 4350,
      "▁yog": 4351,
      "##gmented": 4352,
      "▁steth": 4353,
      "▁dedicated": 4354,
      "▁strip": 4355,
      "▁avoiding": 4356,
      "▁bottles": 4357,
      "▁investors": 4358,
      "##pub": 4359,
      "▁lesson": 4360,
      "##uting": 4361,
      "▁sight": 4362,
      "▁korea": 4363,
      "##eignty": 4364,
      "▁nose": 4365,
      "▁migr": 4366,
      "▁significant": 4367,
      "▁sout": 4368,
      "▁resorts": 4369,
      "▁expelling": 4370,
      "▁clutching": 4371,
      "▁graduates": 4372,
      "▁tail": 4373,
      "##yness": 4374,
      "▁b/c": 4375,
      "##ortment": 4376,
      "▁vig": 4377,
      "▁trickle": 4378,
      "##ault": 4379,
      "▁ansi-": 4380,
      "▁pies": 4381,
      "▁fields": 4382,
      "▁buckets": 4383,
      "▁doz": 4384,
      "▁fronti": 4385,
      "▁mantis": 4386,
      "▁beard": 4387,
      "##iety": 4388,
      "▁tac": 4389,
      "##uff": 4390,
      "▁italian": 4391,
      "▁waiter": 4392,
      "▁genitals": 4393,
      "▁corn": 4394,
      "▁aftershocks": 4395,
      "▁butterfly": 4396,
      "##bness": 4397,
      "▁wav": 4398,
      "##y": 4399,
      "▁comfortable": 4400,
      "▁relics": 4401,
      "▁recordings": 4402,
      "▁regime": 4403,
      "▁addiction": 4404,
      "▁beep": 4405,
      "▁mand": 4406,
      "##isc": 4407,
      "▁bag": 4408,
      "▁mater": 4409,
      "▁illust": 4410,
      "▁manif": 4411,
      "▁finalize": 4412,
      "▁burping": 4413,
      "▁jew": 4414,
      "▁vessel": 4415,
      "▁crump": 4416,
      "▁eb": 4417,
      "##arg": 4418,
      "▁breakfast": 4419,
      "▁regions": 4420,
      "▁agree": 4421,
      "▁shift": 4422,
      "##gry": 4423,
      "##f-": 4424,
      "▁in": 4425,
      "##foli": 4426,
      "▁volcano": 4427,
      "▁stayed": 4428,
      "▁likely": 4429,
      "▁sons": 4430,
      "▁buff": 4431,
      "▁scanned": 4432,
      "##met": 4433,
      "▁cem": 4434,
      "▁kiw": 4435,
      "##um": 4436,
      "▁j": 4437,
      "▁number": 4438,
      "▁wilt": 4439,
      "▁alleg": 4440,
      "▁meas": 4441,
      "▁realise": 4442,
      "▁add": 4443,
      "▁belongs": 4444,
      "▁refrigerator": 4445,
      "▁drift": 4446,
      "▁highlight": 4447,
      "▁returned": 4448,
      "▁hands": 4449,
      "##act": 4450,
      "▁order": 4451,
      "##idents": 4452,
      "▁documents": 4453,
      "▁dusting": 4454,
      "▁skimmer": 4455,
      "▁hometown": 4456,
      "▁break": 4457,
      "##pri": 4458,
      "▁expenses": 4459,
      "▁crave": 4460,
      "▁nin": 4461,
      "▁stampede": 4462,
      "▁toward": 4463,
      "▁lawy": 4464,
      "##elag": 4465,
      "##|": 4466,
      "##ected": 4467,
      "▁attempts": 4468,
      "▁insects": 4469,
      "▁about": 4470,
      "▁’": 4471,
      "▁californ": 4472,
      "##are": 4473,
      "▁wins": 4474,
      "▁trivia": 4475,
      "##hiki": 4476,
      "▁update": 4477,
      "▁bridges": 4478,
      "▁chand": 4479,
      "▁ir": 4480,
      "##issing": 4481,
      "##urities": 4482,
      "##ases": 4483,
      "▁composed": 4484,
      "▁p": 4485,
      "▁necklace": 4486,
      "▁followers": 4487,
      "▁pract": 4488,
      "▁referenced": 4489,
      "▁engineering": 4490,
      "▁sacrificed": 4491,
      "▁engineers": 4492,
      "▁trav": 4493,
      "▁bound": 4494,
      "▁poor": 4495,
      "##ο": 4496,
      "▁proceeded": 4497,
      "##oly": 4498,
      "▁tens": 4499,
      "##ded": 4500,
      "▁lu": 4501,
      "##ite": 4502,
      "▁veg": 4503,
      "▁oops": 4504,
      "##chester": 4505,
      "▁cond": 4506,
      "▁aston": 4507,
      "▁prisoners": 4508,
      "▁porch": 4509,
      "▁expiration": 4510,
      "▁blacks": 4511,
      "##lig": 4512,
      "##ł": 4513,
      "##vil": 4514,
      "##not": 4515,
      "▁depend": 4516,
      "▁leggings": 4517,
      "▁gle": 4518,
      "▁special": 4519,
      "▁guards": 4520,
      "▁bait": 4521,
      "▁previously": 4522,
      "##otape": 4523,
      "▁queso": 4524,
      "▁enjoys": 4525,
      "▁distract": 4526,
      "##istor": 4527,
      "▁barber": 4528,
      "▁---------------------------------": 4529,
      "▁southeast": 4530,
      "▁trained": 4531,
      "▁nav": 4532,
      "▁occurs": 4533,
      "▁daniel": 4534,
      "▁beaver": 4535,
      "▁occupies": 4536,
      "▁abcs": 4537,
      "▁dated": 4538,
      "▁neverth": 4539,
      "▁queue": 4540,
      "##iologist": 4541,
      "▁atop": 4542,
      "##ather": 4543,
      "##vard": 4544,
      "▁gisb": 4545,
      "▁united": 4546,
      "▁http://www": 4547,
      "▁unles": 4548,
      "▁swimming": 4549,
      "##oor": 4550,
      "##ium": 4551,
      "##oxide": 4552,
      "▁computers": 4553,
      "▁canvas": 4554,
      "▁ideation": 4555,
      "##amati": 4556,
      "▁elbows": 4557,
      "▁explain": 4558,
      "▁exception": 4559,
      "▁flex": 4560,
      "▁safe": 4561,
      "▁highl": 4562,
      "▁interventions": 4563,
      "▁abandoned": 4564,
      "$": 4565,
      "##ips": 4566,
      "▁twisted": 4567,
      "▁assured": 4568,
      "▁imagined": 4569,
      "##rectly": 4570,
      "##ι": 4571,
      "▁engines": 4572,
      "▁proph": 4573,
      "▁normally": 4574,
      "▁resistance": 4575,
      "##up": 4576,
      "##inning": 4577,
      "▁enriched": 4578,
      "▁compelled": 4579,
      "▁called": 4580,
      "▁tariff": 4581,
      "▁dare": 4582,
      "▁chicken": 4583,
      "▁independent": 4584,
      "##oof": 4585,
      "##alising": 4586,
      "▁s’": 4587,
      "▁opportunity": 4588,
      "##ressed": 4589,
      "▁jihadis": 4590,
      "##uched": 4591,
      "##ested": 4592,
      "▁standards": 4593,
      "##000": 4594,
      "▁ours": 4595,
      "▁prosp": 4596,
      "▁reimb": 4597,
      "▁indeed": 4598,
      "▁flee": 4599,
      "▁naming": 4600,
      "▁landm": 4601,
      "▁helping": 4602,
      "▁factory": 4603,
      "▁warn": 4604,
      "▁jellyfish": 4605,
      "##drops": 4606,
      "▁paperwork": 4607,
      "▁linguistics": 4608,
      "▁fishes": 4609,
      "##engers": 4610,
      "▁debut": 4611,
      "▁options": 4612,
      "▁females": 4613,
      "##nosis": 4614,
      "▁magnitude": 4615,
      "▁wants": 4616,
      "▁pig": 4617,
      "##duction": 4618,
      "▁skiing": 4619,
      "▁readers": 4620,
      "##erina": 4621,
      "▁av": 4622,
      "##pp": 4623,
      "▁wol": 4624,
      "▁o": 4625,
      "▁format": 4626,
      "▁disp": 4627,
      "▁pronunciation": 4628,
      "▁face": 4629,
      "##nut": 4630,
      "▁respected": 4631,
      "▁peeling": 4632,
      "▁draping": 4633,
      "▁treaties": 4634,
      "▁pand": 4635,
      "▁knowing": 4636,
      "▁defendant": 4637,
      "▁pseudonym": 4638,
      "▁victor": 4639,
      "##rill": 4640,
      "▁joint": 4641,
      "▁job": 4642,
      "▁jazz": 4643,
      "▁whereas": 4644,
      "##ic": 4645,
      "▁going": 4646,
      "##ven": 4647,
      "▁loving": 4648,
      "##ough": 4649,
      "##am": 4650,
      "##lan": 4651,
      "▁monarch": 4652,
      "▁brought": 4653,
      "▁adhering": 4654,
      "▁continued": 4655,
      "▁ethnic": 4656,
      "▁premium": 4657,
      "▁oz": 4658,
      "▁implied": 4659,
      "▁recommendation": 4660,
      "▁wand": 4661,
      "▁mmbtu": 4662,
      "▁anyone": 4663,
      "▁facilities": 4664,
      "▁reas": 4665,
      "▁limited": 4666,
      "▁average": 4667,
      "▁successor": 4668,
      "##waves": 4669,
      "▁ab": 4670,
      "▁mov": 4671,
      "##ald": 4672,
      "##ision": 4673,
      "▁tongue": 4674,
      "▁kill": 4675,
      "▁swap": 4676,
      "▁tit": 4677,
      "##ze": 4678,
      "▁everybody": 4679,
      "##faction": 4680,
      "▁destruction": 4681,
      "▁candle": 4682,
      "▁flung": 4683,
      "▁cit": 4684,
      "##more": 4685,
      "▁russia": 4686,
      "▁runway": 4687,
      "▁deposition": 4688,
      "▁martyr": 4689,
      "▁hire": 4690,
      "▁treatments": 4691,
      "▁trumpets": 4692,
      "##-1": 4693,
      "▁export": 4694,
      "▁behaviour": 4695,
      "▁restaurant": 4696,
      "▁copyrighted": 4697,
      "▁money": 4698,
      "▁sweeping": 4699,
      "▁jwww": 4700,
      "▁constitu": 4701,
      "▁rapporteur": 4702,
      "▁alerts": 4703,
      "▁percentile": 4704,
      "▁family": 4705,
      "▁sting": 4706,
      "##iz": 4707,
      "▁representative": 4708,
      "▁nodded": 4709,
      "##subscrib": 4710,
      "▁chili": 4711,
      "▁lat": 4712,
      "▁thi": 4713,
      "▁nature": 4714,
      "▁exa": 4715,
      "▁heritage": 4716,
      "▁during": 4717,
      "▁dpr": 4718,
      "▁leisure": 4719,
      "▁tha": 4720,
      "▁tomatoes": 4721,
      "▁vulnerability": 4722,
      "##aic": 4723,
      "##tiation": 4724,
      "##owering": 4725,
      "▁questionnaire": 4726,
      "▁superv": 4727,
      "▁transmitter": 4728,
      "▁beginning": 4729,
      "▁incub": 4730,
      "▁champ": 4731,
      "##sically": 4732,
      "▁converted": 4733,
      "▁oppose": 4734,
      "##--------": 4735,
      "▁theropods": 4736,
      "▁stre": 4737,
      "▁sandwic": 4738,
      "▁relevance": 4739,
      "▁rode": 4740,
      "▁apprec": 4741,
      "##olerance": 4742,
      "▁strut": 4743,
      "▁construc": 4744,
      "▁california": 4745,
      "##ifically": 4746,
      "▁cage": 4747,
      "##:3": 4748,
      "▁receive": 4749,
      "▁interjection": 4750,
      "##jected": 4751,
      "▁dam": 4752,
      "▁sofa": 4753,
      "▁likeness": 4754,
      "▁trend": 4755,
      "▁voted": 4756,
      "▁bunny": 4757,
      "▁translating": 4758,
      "▁dill": 4759,
      "▁discouraging": 4760,
      "▁peer": 4761,
      "▁ferocity": 4762,
      "▁larg": 4763,
      "▁fleeing": 4764,
      "▁regularly": 4765,
      "▁april": 4766,
      "##ational": 4767,
      "▁balances": 4768,
      "▁febr": 4769,
      "▁funny": 4770,
      "##stop": 4771,
      "▁gesture": 4772,
      "▁imp": 4773,
      "▁sure": 4774,
      "##g.": 4775,
      "▁ow": 4776,
      "▁4": 4777,
      "▁audit": 4778,
      "▁seg": 4779,
      "▁gf": 4780,
      "▁highlighting": 4781,
      "▁marx": 4782,
      "##hee": 4783,
      "▁welc": 4784,
      "▁kilometres": 4785,
      "▁bice": 4786,
      "##ecut": 4787,
      "▁feeds": 4788,
      "▁scienti": 4789,
      "▁imper": 4790,
      "▁engaging": 4791,
      "▁rapporte": 4792,
      "##ighted": 4793,
      "▁respons": 4794,
      "▁charlotte": 4795,
      "##itivity": 4796,
      "▁uploads": 4797,
      "▁aff": 4798,
      "▁crimin": 4799,
      "▁notw": 4800,
      "▁witnesses": 4801,
      "▁reach": 4802,
      "▁autof": 4803,
      "▁award": 4804,
      "▁puzzle": 4805,
      "▁!!!!!!!!!!!!!!!": 4806,
      "▁acc": 4807,
      "▁brings": 4808,
      "▁scub": 4809,
      "▁hom": 4810,
      "▁motor": 4811,
      "▁thigh": 4812,
      "▁hip": 4813,
      "▁image": 4814,
      "##areness": 4815,
      "▁sank": 4816,
      "##olog": 4817,
      "▁pointed": 4818,
      "▁collateral": 4819,
      "##rayed": 4820,
      "▁congr": 4821,
      "▁locked": 4822,
      "▁choo": 4823,
      "|": 4824,
      "▁size": 4825,
      "▁hatred": 4826,
      "▁minn": 4827,
      "▁london": 4828,
      "▁cr": 4829,
      "##eal": 4830,
      "▁shouting": 4831,
      "▁upd": 4832,
      "▁preoc": 4833,
      "##keeping": 4834,
      "##alist": 4835,
      "▁mous": 4836,
      "##uter": 4837,
      "▁arrive": 4838,
      "▁penins": 4839,
      "▁eleph": 4840,
      "▁advanced": 4841,
      "▁messed": 4842,
      "▁bul": 4843,
      "▁buttered": 4844,
      "▁army": 4845,
      "▁contin": 4846,
      "▁gover": 4847,
      "▁door": 4848,
      "▁ske": 4849,
      "▁departments": 4850,
      "▁tap": 4851,
      "▁expand": 4852,
      "▁relate": 4853,
      "##vely": 4854,
      "▁covers": 4855,
      "▁healing": 4856,
      "▁manual": 4857,
      "▁baby": 4858,
      "▁consortium": 4859,
      "▁host": 4860,
      "▁grandma": 4861,
      "▁nar": 4862,
      "##ologue": 4863,
      "##9": 4864,
      "▁lie": 4865,
      "▁credited": 4866,
      "▁europeans": 4867,
      "▁sets": 4868,
      "▁criticism": 4869,
      "▁teh": 4870,
      "##aved": 4871,
      "▁cleveland": 4872,
      "##ney": 4873,
      "▁tickling": 4874,
      "##eur": 4875,
      "##eth": 4876,
      "▁accustomed": 4877,
      "▁bid": 4878,
      "▁travelling": 4879,
      "▁acres": 4880,
      "▁25": 4881,
      "▁promising": 4882,
      "▁grasp": 4883,
      "▁….": 4884,
      "##ased": 4885,
      "▁fedayeen": 4886,
      "▁gnomes": 4887,
      "▁ancestry": 4888,
      "▁airport": 4889,
      "▁gradu": 4890,
      "##arding": 4891,
      "▁murdered": 4892,
      "##mit": 4893,
      "▁unde": 4894,
      "▁objec": 4895,
      "▁@": 4896,
      "▁threat": 4897,
      "▁paws": 4898,
      "▁penalties": 4899,
      "▁nice": 4900,
      "b": 4901,
      "▁neolog": 4902,
      "▁physician": 4903,
      "##`": 4904,
      "▁kissed": 4905,
      "##rors": 4906,
      "▁boards": 4907,
      "##erit": 4908,
      "▁advances": 4909,
      "▁abo": 4910,
      "##ifications": 4911,
      "▁glow": 4912,
      "▁obesity": 4913,
      "▁defeated": 4914,
      "▁figure": 4915,
      "▁reminder": 4916,
      "▁but": 4917,
      "▁heyday": 4918,
      "##atched": 4919,
      "▁afternoon": 4920,
      "##enting": 4921,
      "▁as400": 4922,
      "▁gain": 4923,
      "##ernobyl": 4924,
      "▁scheme": 4925,
      "▁sewed": 4926,
      "▁lengths": 4927,
      "▁handle": 4928,
      "▁editions": 4929,
      "▁proceed": 4930,
      "▁peaceful": 4931,
      "▁denver": 4932,
      "▁vice-president": 4933,
      "▁handful": 4934,
      "▁schema": 4935,
      "▁&amp;": 4936,
      "▁ringing": 4937,
      "▁rats": 4938,
      "▁deserves": 4939,
      "▁elev": 4940,
      "▁conver": 4941,
      "▁lisa": 4942,
      "▁22nd": 4943,
      "▁accomplish": 4944,
      "▁shower": 4945,
      "▁attached": 4946,
      "##eav": 4947,
      "▁legal": 4948,
      "▁intercon": 4949,
      "▁person": 4950,
      "▁combining": 4951,
      "▁mop": 4952,
      "##inema": 4953,
      "▁bombed": 4954,
      "▁restored": 4955,
      "##em": 4956,
      "▁shipping": 4957,
      "##cano": 4958,
      "▁inven": 4959,
      "▁clouds": 4960,
      "▁aggr": 4961,
      "▁athe": 4962,
      "▁imit": 4963,
      "▁20s": 4964,
      "▁parole": 4965,
      "▁observing": 4966,
      "##asted": 4967,
      "##fter": 4968,
      "##vern": 4969,
      "▁and": 4970,
      "##oss": 4971,
      "##ole": 4972,
      "▁stair": 4973,
      "##ine": 4974,
      "##olation": 4975,
      "##7.doc": 4976,
      "▁phot": 4977,
      "▁sidewalk": 4978,
      "▁vice": 4979,
      "▁ribs": 4980,
      "▁neg": 4981,
      "▁grades": 4982,
      "##aughters": 4983,
      "▁blinking": 4984,
      "▁celebration": 4985,
      "##bat": 4986,
      "▁beginner": 4987,
      "▁’ll": 4988,
      "▁feeling": 4989,
      "▁footage": 4990,
      "▁supports": 4991,
      "##aj": 4992,
      "▁victims": 4993,
      "▁uhh": 4994,
      "▁interceptor": 4995,
      "##so": 4996,
      "▁dock": 4997,
      "▁merit": 4998,
      "▁squeeze": 4999,
      "▁amended": 5000,
      "▁drinks": 5001,
      "▁terrorist": 5002,
      "▁weeks": 5003,
      "▁administer": 5004,
      "▁performances": 5005,
      "▁painted": 5006,
      "▁mattress": 5007,
      "▁detractors": 5008,
      "▁investment": 5009,
      "▁flies": 5010,
      "▁path": 5011,
      "##ada": 5012,
      "▁follows": 5013,
      "##apping": 5014,
      "##lion": 5015,
      "##eff": 5016,
      "³": 5017,
      "▁sorry": 5018,
      "▁guard": 5019,
      "▁bowl": 5020,
      "▁pet": 5021,
      "▁described": 5022,
      "▁authorized": 5023,
      "▁sow": 5024,
      "▁hates": 5025,
      "##ura": 5026,
      "▁rented": 5027,
      "##escend": 5028,
      "▁whe": 5029,
      "▁superiority": 5030,
      "##ils": 5031,
      "▁episode": 5032,
      "▁buck": 5033,
      "▁obligations": 5034,
      "▁leads": 5035,
      "▁lec": 5036,
      "▁dealer": 5037,
      "▁yards": 5038,
      "▁looks": 5039,
      "##oster": 5040,
      "▁speed": 5041,
      "##west": 5042,
      "▁hundred": 5043,
      "▁shake": 5044,
      "▁shirt": 5045,
      "▁trust": 5046,
      "▁datasheet": 5047,
      "▁inh": 5048,
      "▁tablets": 5049,
      "▁rfp": 5050,
      "##rano": 5051,
      "▁numerous": 5052,
      "▁skin": 5053,
      "▁decre": 5054,
      "▁password": 5055,
      "▁originate": 5056,
      "▁mohammed": 5057,
      "##ounds": 5058,
      "▁profess": 5059,
      "##cer": 5060,
      "▁gazed": 5061,
      "▁penc": 5062,
      "▁hotel": 5063,
      "##sal": 5064,
      "##ection": 5065,
      "▁etiquette": 5066,
      "▁misfortune": 5067,
      "##gth": 5068,
      "▁hur": 5069,
      "▁demonstrated": 5070,
      "▁incomes": 5071,
      "▁friends": 5072,
      "▁displayed": 5073,
      "▁plur": 5074,
      "▁budgie": 5075,
      "##ister": 5076,
      "##ples": 5077,
      "##ological": 5078,
      "##ap": 5079,
      "▁guaran": 5080,
      "▁waive": 5081,
      "▁antibiotics": 5082,
      "▁pick": 5083,
      "##rogen": 5084,
      "▁warming": 5085,
      "##rid": 5086,
      "##fuge": 5087,
      "▁ri": 5088,
      "▁bartender": 5089,
      "▁edge": 5090,
      "▁racket": 5091,
      "▁relax": 5092,
      "##duc": 5093,
      "▁sm": 5094,
      "▁text": 5095,
      "##edience": 5096,
      "▁conduc": 5097,
      "▁elevator": 5098,
      "▁aggreg": 5099,
      "▁poems": 5100,
      "##enom": 5101,
      "##bag": 5102,
      "▁barbe": 5103,
      "▁theatre": 5104,
      "▁despite": 5105,
      "▁pencils": 5106,
      "▁electricity": 5107,
      "▁roar": 5108,
      "▁annex": 5109,
      "▁retal": 5110,
      "▁danny": 5111,
      "▁grill": 5112,
      "##/0": 5113,
      "▁co-f": 5114,
      "▁>>": 5115,
      "▁charity": 5116,
      "▁easily": 5117,
      "▁bce": 5118,
      "▁labour": 5119,
      "▁usually": 5120,
      "##wor": 5121,
      "▁attorneys": 5122,
      "▁simple": 5123,
      "▁suggestions": 5124,
      "▁’s": 5125,
      "##rupt": 5126,
      "▁injured": 5127,
      "▁granddaughter": 5128,
      "##icious": 5129,
      "▁lever": 5130,
      "▁voy": 5131,
      "##ills": 5132,
      "▁sacrifice": 5133,
      "▁politics": 5134,
      "##osity": 5135,
      "▁poetry": 5136,
      "▁interp": 5137,
      "##tub": 5138,
      "▁factions": 5139,
      "▁pinch": 5140,
      "▁broaden": 5141,
      "▁cutter": 5142,
      "▁estimated": 5143,
      "▁mr": 5144,
      "▁amazed": 5145,
      "▁occ": 5146,
      "▁rushed": 5147,
      "▁defended": 5148,
      "##ouble": 5149,
      "▁own": 5150,
      "##ert": 5151,
      "▁council": 5152,
      "##ectively": 5153,
      "▁nobody": 5154,
      "▁clearly": 5155,
      "▁destro": 5156,
      "▁cube": 5157,
      "▁genes": 5158,
      "▁cuckoo": 5159,
      "▁stalls": 5160,
      "▁terror": 5161,
      "##ained": 5162,
      "▁vodka": 5163,
      "▁stressed": 5164,
      "▁waning": 5165,
      "▁clin": 5166,
      "▁picket": 5167,
      "▁ann": 5168,
      "▁pant": 5169,
      "##rations": 5170,
      "▁patient": 5171,
      "▁pentagon": 5172,
      "##known": 5173,
      "##gin": 5174,
      "▁prosecutors": 5175,
      "##ipped": 5176,
      "▁recon": 5177,
      "▁bord": 5178,
      "▁recommendations": 5179,
      "▁thumbs": 5180,
      "▁chemist": 5181,
      "▁cited": 5182,
      "##ush": 5183,
      "▁tsar": 5184,
      "▁appreciation": 5185,
      "##ully": 5186,
      "▁yach": 5187,
      "▁farmer": 5188,
      "▁stress": 5189,
      "▁threatened": 5190,
      "▁pavement": 5191,
      "▁ensured": 5192,
      "▁museum": 5193,
      "▁boycott": 5194,
      "▁credentials": 5195,
      "▁obviously": 5196,
      "▁values": 5197,
      "▁por": 5198,
      "▁procedure": 5199,
      "▁seaman": 5200,
      "▁boing": 5201,
      "▁stickerbirds": 5202,
      "▁monitor": 5203,
      "##angut": 5204,
      "▁histor": 5205,
      "##irts": 5206,
      "##ania": 5207,
      "▁undert": 5208,
      "▁stationery": 5209,
      "▁define": 5210,
      "▁migration": 5211,
      "##lists": 5212,
      "▁gath": 5213,
      "▁include": 5214,
      "▁stomach": 5215,
      "▁commands": 5216,
      "##!!": 5217,
      "▁insult": 5218,
      "▁exac": 5219,
      "▁cell": 5220,
      "▁toronto": 5221,
      "▁tunnels": 5222,
      "▁valu": 5223,
      "▁appropriations": 5224,
      "▁bli": 5225,
      "▁identifies": 5226,
      "▁marriage": 5227,
      "▁b.": 5228,
      "▁legiti": 5229,
      "▁ak47": 5230,
      "▁alt.animals.cat": 5231,
      "##eled": 5232,
      "##ort": 5233,
      "▁bye": 5234,
      "▁killings": 5235,
      "▁22": 5236,
      "▁future": 5237,
      "▁responses": 5238,
      "##of": 5239,
      "##ogue": 5240,
      "▁major": 5241,
      "##pics": 5242,
      "▁skirt": 5243,
      "▁supper": 5244,
      "##assment": 5245,
      "##adrons": 5246,
      "##antee": 5247,
      "▁pollution": 5248,
      "▁waves": 5249,
      "▁symbolizes": 5250,
      "▁ket": 5251,
      "▁gloom": 5252,
      "▁which": 5253,
      "▁approaches": 5254,
      "##89": 5255,
      "▁symbols": 5256,
      "▁neighb": 5257,
      "▁rin": 5258,
      "▁excited": 5259,
      "▁heart": 5260,
      "▁orientation": 5261,
      "##mar": 5262,
      "▁rocks": 5263,
      "▁broadcast": 5264,
      "▁psychology": 5265,
      "▁ethics": 5266,
      "▁bitm": 5267,
      "##idn": 5268,
      "▁productivity": 5269,
      "▁burbank": 5270,
      "▁riding": 5271,
      "▁enclosure": 5272,
      "▁surp": 5273,
      "▁dr.": 5274,
      "##pse": 5275,
      "##ous": 5276,
      "▁blueberries": 5277,
      "▁installing": 5278,
      "▁outlets": 5279,
      "▁correct": 5280,
      "##orter": 5281,
      "##tes": 5282,
      "##.c": 5283,
      "▁rgds": 5284,
      "##wash": 5285,
      "▁sand": 5286,
      "▁grab": 5287,
      "▁_": 5288,
      "##asters": 5289,
      "▁told": 5290,
      "▁waved": 5291,
      "##lane": 5292,
      "▁anticip": 5293,
      "##jo": 5294,
      "▁calling": 5295,
      "▁everyone": 5296,
      "▁plain": 5297,
      "▁physics": 5298,
      "▁peop": 5299,
      "##reated": 5300,
      "▁iodised": 5301,
      "▁flown": 5302,
      "▁prayer": 5303,
      "▁always": 5304,
      "▁getting": 5305,
      "▁nt": 5306,
      "▁fourth": 5307,
      "▁supplement": 5308,
      "▁stone": 5309,
      "##usement": 5310,
      "▁sen": 5311,
      "▁lacking": 5312,
      "▁flav": 5313,
      "▁strike": 5314,
      "▁squir": 5315,
      "▁im": 5316,
      "▁doughnut": 5317,
      "▁everything": 5318,
      "▁notch": 5319,
      "##unition": 5320,
      "▁easter": 5321,
      "##”s": 5322,
      "▁prize": 5323,
      "▁bun": 5324,
      "▁comes": 5325,
      "▁creativity": 5326,
      "▁tim": 5327,
      "▁muffin": 5328,
      "▁cha": 5329,
      "##omb": 5330,
      "##reneurs": 5331,
      "##atograph": 5332,
      "▁pled": 5333,
      "▁squirrels": 5334,
      "▁reve": 5335,
      "▁surrounding": 5336,
      "▁alt.animals": 5337,
      "▁inch": 5338,
      "▁authorship": 5339,
      "▁thous": 5340,
      "▁may": 5341,
      "▁!!!!!!!": 5342,
      "▁arbit": 5343,
      "▁growing": 5344,
      "▁rust": 5345,
      "▁taun": 5346,
      "▁teach": 5347,
      "▁fate": 5348,
      "##issance": 5349,
      "▁scribb": 5350,
      "▁conting": 5351,
      "▁th": 5352,
      "▁pop": 5353,
      "##tionally": 5354,
      "▁boat": 5355,
      "▁talk": 5356,
      "##otyp": 5357,
      "##cases": 5358,
      "##agn": 5359,
      "▁hierarch": 5360,
      "▁our": 5361,
      "▁homeopath": 5362,
      "▁speci": 5363,
      "▁fer": 5364,
      "▁hor": 5365,
      "▁chalkboard": 5366,
      "##tone": 5367,
      "##---": 5368,
      "▁particip": 5369,
      "▁vs.": 5370,
      "▁solve": 5371,
      "##odder": 5372,
      "▁reflection": 5373,
      "▁advertis": 5374,
      "▁7th": 5375,
      "▁than": 5376,
      "▁prepay": 5377,
      "##iqu": 5378,
      "▁pull": 5379,
      "##iliar": 5380,
      "▁unc": 5381,
      "##like": 5382,
      "▁moreau": 5383,
      "##uzz": 5384,
      "##rad": 5385,
      "▁louis": 5386,
      "▁worrying": 5387,
      "▁listening": 5388,
      "▁reviewer": 5389,
      "▁p.m.": 5390,
      "▁moonlight": 5391,
      "▁property": 5392,
      "▁uv": 5393,
      "▁weakened": 5394,
      "##oozing": 5395,
      "▁dating": 5396,
      "▁valued": 5397,
      "##mbling": 5398,
      "▁keyboard": 5399,
      "▁workshops": 5400,
      "##ange": 5401,
      "▁offense": 5402,
      "3": 5403,
      "▁connect": 5404,
      "▁accept": 5405,
      "##hunt": 5406,
      "▁sized": 5407,
      "▁becom": 5408,
      "▁man-": 5409,
      "▁end": 5410,
      "##ashing": 5411,
      "▁huge": 5412,
      "▁move": 5413,
      "▁passage": 5414,
      "▁ld2d-": 5415,
      "##ggies": 5416,
      "▁competing": 5417,
      "##ket": 5418,
      "##le": 5419,
      "▁parakeet": 5420,
      "▁preparedness": 5421,
      "▁cropdusters": 5422,
      "##tigr": 5423,
      "▁---=": 5424,
      "##ure": 5425,
      "▁appease": 5426,
      "##feration": 5427,
      "##hs": 5428,
      "▁des": 5429,
      "▁prere": 5430,
      "##apolis": 5431,
      "▁married": 5432,
      "▁clip": 5433,
      "▁filtering": 5434,
      "▁walnut": 5435,
      "##placement": 5436,
      "##akes": 5437,
      "▁cig": 5438,
      "▁....": 5439,
      "▁grabbed": 5440,
      "##uations": 5441,
      "##eem": 5442,
      "`": 5443,
      "▁official": 5444,
      "▁incen": 5445,
      "▁shove": 5446,
      "▁bath+room": 5447,
      "▁tray": 5448,
      "##ians": 5449,
      "▁winds": 5450,
      "▁rece": 5451,
      "▁steward": 5452,
      "▁distortions": 5453,
      "▁cancelled": 5454,
      "##fitting": 5455,
      "▁mhm": 5456,
      "▁cleared": 5457,
      "▁missile": 5458,
      "▁meanings": 5459,
      "▁expert": 5460,
      "▁nonsense": 5461,
      "▁tucked": 5462,
      "▁jump": 5463,
      "▁crap": 5464,
      "▁springs": 5465,
      "##atory": 5466,
      "▁passion": 5467,
      "▁petticoat": 5468,
      "▁entering": 5469,
      "▁rod": 5470,
      "##che": 5471,
      "##innia": 5472,
      "▁sin": 5473,
      "##uments": 5474,
      "▁carn": 5475,
      "▁conflicts": 5476,
      "▁sph": 5477,
      "▁knows": 5478,
      "##chup": 5479,
      "▁bic": 5480,
      "▁modernity": 5481,
      "##ager": 5482,
      "▁builds": 5483,
      "▁pretext": 5484,
      "▁proclaimed": 5485,
      "##ock": 5486,
      "##vol": 5487,
      "##-1.doc": 5488,
      "▁occupation": 5489,
      "▁overs": 5490,
      "▁audiences": 5491,
      "▁gun": 5492,
      "▁elephant": 5493,
      "##agged": 5494,
      "##sually": 5495,
      "▁reversion": 5496,
      "▁leg": 5497,
      "▁reel": 5498,
      "▁platted": 5499,
      "▁cooperate": 5500,
      "▁did": 5501,
      "▁default": 5502,
      "▁acquisition": 5503,
      "▁affection": 5504,
      "▁clar": 5505,
      "▁notify": 5506,
      "▁frosting": 5507,
      "##ych": 5508,
      "##ectors": 5509,
      "▁dischar": 5510,
      "##------": 5511,
      "##atories": 5512,
      "▁albeit": 5513,
      "▁artists": 5514,
      "▁mosques": 5515,
      "▁curtain": 5516,
      "##uncture": 5517,
      "▁sought": 5518,
      "##mie": 5519,
      "▁cray": 5520,
      "▁discoveries": 5521,
      "▁starve": 5522,
      "▁occurr": 5523,
      "▁civil": 5524,
      "##rint": 5525,
      "▁comprised": 5526,
      "▁appalled": 5527,
      "▁rav": 5528,
      "##otte": 5529,
      "▁rebalancing": 5530,
      "▁pretend": 5531,
      "▁donkeys": 5532,
      "##pers": 5533,
      "##ined": 5534,
      "##angu": 5535,
      "▁cleaning": 5536,
      "▁monster": 5537,
      "##operation": 5538,
      "▁mails": 5539,
      "▁k": 5540,
      "▁friendly": 5541,
      "▁motivation": 5542,
      "▁absorbing": 5543,
      "▁jet": 5544,
      "##ayed": 5545,
      "▁late": 5546,
      "▁inciting": 5547,
      "▁acceptance": 5548,
      "##issors": 5549,
      "▁sou": 5550,
      "▁2010": 5551,
      "▁murderers": 5552,
      "▁forwarded": 5553,
      "▁endured": 5554,
      "▁coordinate": 5555,
      "▁dilemmas": 5556,
      "##ub": 5557,
      "##liance": 5558,
      "▁craw": 5559,
      "▁cust": 5560,
      "▁senate": 5561,
      "▁mmbt": 5562,
      "▁proposing": 5563,
      "▁mutil": 5564,
      "##onna": 5565,
      "##ched": 5566,
      "##ipp": 5567,
      "▁luminol": 5568,
      "##70s": 5569,
      "##agers": 5570,
      "##iance": 5571,
      "▁surround": 5572,
      "▁transferring": 5573,
      "▁says": 5574,
      "##onom": 5575,
      "▁helped": 5576,
      "▁festival": 5577,
      "##att": 5578,
      "▁congrat": 5579,
      "##rived": 5580,
      "▁predicted": 5581,
      "▁prec": 5582,
      "##ottable": 5583,
      "▁stand": 5584,
      "##inth": 5585,
      "▁networks": 5586,
      "▁prototypes": 5587,
      "▁large": 5588,
      "▁minut": 5589,
      "▁offering": 5590,
      "▁buckled": 5591,
      "▁der": 5592,
      "▁english": 5593,
      "▁squee": 5594,
      "▁cake": 5595,
      "▁leaves": 5596,
      "##isture": 5597,
      "▁decisions": 5598,
      "##emination": 5599,
      "▁wording": 5600,
      "##erred": 5601,
      "▁concerts": 5602,
      "##liament": 5603,
      "##av": 5604,
      "##81-1.doc": 5605,
      "▁viability": 5606,
      "▁envelop": 5607,
      "▁she": 5608,
      "▁procedures": 5609,
      "▁tails": 5610,
      "▁viet": 5611,
      "▁stockings": 5612,
      "▁car": 5613,
      "▁galloping": 5614,
      "▁checking": 5615,
      "▁prove": 5616,
      "▁opp": 5617,
      "▁observ": 5618,
      "▁fastened": 5619,
      "##giveness": 5620,
      "▁sponge": 5621,
      "##impl": 5622,
      "▁pent": 5623,
      "▁spa": 5624,
      "▁ultrasounds": 5625,
      "▁selection": 5626,
      "##ocrats": 5627,
      "##.g.": 5628,
      "▁montreal": 5629,
      "##rating": 5630,
      "▁although": 5631,
      "▁contro": 5632,
      "▁suggests": 5633,
      "▁gra": 5634,
      "▁banjo": 5635,
      "▁spoon": 5636,
      "##boat": 5637,
      "▁sheik": 5638,
      "▁wrest": 5639,
      "▁non-": 5640,
      "##uration": 5641,
      "▁happiness": 5642,
      "▁collar": 5643,
      "▁friday": 5644,
      "▁passenger": 5645,
      "▁de": 5646,
      "▁mule": 5647,
      "##stances": 5648,
      "▁ansi": 5649,
      "▁typically": 5650,
      "▁|--------+----------------------->": 5651,
      "▁ontario": 5652,
      "▁obtained": 5653,
      "##iciary": 5654,
      "▁exceed": 5655,
      "▁notwithstanding": 5656,
      "▁hi": 5657,
      "▁colle": 5658,
      "▁backed": 5659,
      "▁tors": 5660,
      "▁fresh": 5661,
      "##pit": 5662,
      "▁receipt": 5663,
      "▁scent": 5664,
      "##avery": 5665,
      "▁wrongdo": 5666,
      "▁improvement": 5667,
      "##ingness": 5668,
      "▁htm": 5669,
      "▁modes": 5670,
      "▁mit": 5671,
      "▁circumstances": 5672,
      "▁que": 5673,
      "▁exports": 5674,
      "##room": 5675,
      "▁intervals": 5676,
      "▁occurring": 5677,
      "##ria": 5678,
      "▁jelly": 5679,
      "▁tempura": 5680,
      "▁served": 5681,
      "▁transformation": 5682,
      "##gan": 5683,
      "t": 5684,
      "▁prevented": 5685,
      "▁hook": 5686,
      "##ribution": 5687,
      "▁frequented": 5688,
      "##ached": 5689,
      "##rics": 5690,
      "▁nap": 5691,
      "▁reference": 5692,
      "▁mask": 5693,
      "##istribution": 5694,
      "▁sits": 5695,
      "▁milks": 5696,
      "▁defines": 5697,
      "▁minneapolis": 5698,
      "▁urgency": 5699,
      "▁easi": 5700,
      "▁mids": 5701,
      "##gg": 5702,
      "▁plunged": 5703,
      "▁placed": 5704,
      "▁smoothie": 5705,
      "▁customize": 5706,
      "▁remark": 5707,
      "▁banner": 5708,
      "▁rate": 5709,
      "▁cockatiel": 5710,
      "##s)": 5711,
      "▁penalty": 5712,
      "▁nyl": 5713,
      "▁envelopes": 5714,
      "▁wages": 5715,
      "▁observe": 5716,
      "##ade": 5717,
      "▁targets": 5718,
      "▁charges": 5719,
      "▁giant": 5720,
      "▁payroll": 5721,
      "▁claws": 5722,
      "▁resist": 5723,
      "##elt": 5724,
      "▁ethnicity": 5725,
      "▁security": 5726,
      "▁siz": 5727,
      "▁rusted": 5728,
      "▁certainly": 5729,
      "▁int": 5730,
      "▁system": 5731,
      "▁pit": 5732,
      "▁pen": 5733,
      "▁tugging": 5734,
      "##lation": 5735,
      "▁hour": 5736,
      "▁bew": 5737,
      "▁forearm": 5738,
      "▁hens": 5739,
      "▁burial": 5740,
      "▁nano": 5741,
      "▁shields": 5742,
      "▁afghanistan": 5743,
      "▁even": 5744,
      "▁reduction": 5745,
      "▁enrong": 5746,
      "▁float": 5747,
      "▁fri": 5748,
      "##*": 5749,
      "▁smo": 5750,
      "##tors": 5751,
      "▁construction": 5752,
      "▁tup": 5753,
      "▁video": 5754,
      "▁suspect": 5755,
      "▁supplied": 5756,
      "▁breed": 5757,
      "▁dependency": 5758,
      "▁consciousness": 5759,
      "▁st.": 5760,
      "▁depar": 5761,
      "▁buddy": 5762,
      "▁hold": 5763,
      "▁true": 5764,
      "▁key": 5765,
      "▁hiring": 5766,
      "▁elephants": 5767,
      "▁inversion": 5768,
      "##cove": 5769,
      "##onsum": 5770,
      "##entil": 5771,
      "▁playing": 5772,
      "▁cir": 5773,
      "##saw": 5774,
      "▁zeitgeist": 5775,
      "▁travelled": 5776,
      "▁kept": 5777,
      "##$": 5778,
      "▁disintegration": 5779,
      "▁coal": 5780,
      "▁veggies": 5781,
      "▁collaborated": 5782,
      "▁tulsa": 5783,
      "▁u.s.": 5784,
      "▁doub": 5785,
      "▁heavens": 5786,
      "▁enters": 5787,
      "##acies": 5788,
      "▁folks": 5789,
      "##02": 5790,
      "##sand": 5791,
      "##tions": 5792,
      "▁apple": 5793,
      "▁stopped": 5794,
      "▁charge": 5795,
      "▁bush": 5796,
      "▁firstly": 5797,
      "▁midterms": 5798,
      "##-class": 5799,
      "##ect": 5800,
      "▁syria": 5801,
      "▁cos": 5802,
      "▁suffered": 5803,
      "▁spoke": 5804,
      "##ributed": 5805,
      "▁mind": 5806,
      "▁climate": 5807,
      "▁guest": 5808,
      "▁convention": 5809,
      "▁tobac": 5810,
      "▁oppos": 5811,
      "▁mid": 5812,
      "▁collaboration": 5813,
      "▁consequ": 5814,
      "▁wailing": 5815,
      "##idemic": 5816,
      "▁prev": 5817,
      "##ppled": 5818,
      "##eli": 5819,
      "▁extrad": 5820,
      "▁german": 5821,
      "▁brown": 5822,
      "▁attr": 5823,
      "▁fingers": 5824,
      "##alls": 5825,
      "▁article": 5826,
      "##orate": 5827,
      "▁fiction": 5828,
      "##board": 5829,
      "▁onto": 5830,
      "▁vendors": 5831,
      "▁erase": 5832,
      "▁salvation": 5833,
      "▁len": 5834,
      "▁vomit": 5835,
      "▁completion": 5836,
      "▁chap": 5837,
      "▁channel": 5838,
      "▁thyroid": 5839,
      "▁smugg": 5840,
      "▁volunteer": 5841,
      "▁aught": 5842,
      "##łodz": 5843,
      "##nish": 5844,
      "▁contexts": 5845,
      "##rently": 5846,
      "▁abstract": 5847,
      "▁flaw": 5848,
      "##-sm": 5849,
      "▁poster": 5850,
      "▁backside": 5851,
      "▁recovered": 5852,
      "▁ath": 5853,
      "▁varying": 5854,
      "▁desp": 5855,
      "##owers": 5856,
      "##ried": 5857,
      "▁identifying": 5858,
      "##yday": 5859,
      "##yme": 5860,
      "▁regulation": 5861,
      "▁sneakers": 5862,
      "##cover": 5863,
      "##ime": 5864,
      "▁·": 5865,
      "##estic": 5866,
      "▁nanny": 5867,
      "##kton": 5868,
      "##ho": 5869,
      "▁experien": 5870,
      "▁embass": 5871,
      "##gh": 5872,
      "▁flea": 5873,
      "▁coincidence": 5874,
      "▁obst": 5875,
      "▁storing": 5876,
      "▁8": 5877,
      "▁mosquitoes": 5878,
      "▁tasting": 5879,
      "▁orders": 5880,
      "▁dict": 5881,
      "▁rendered": 5882,
      "▁chunk": 5883,
      "▁catches": 5884,
      "▁exclaim": 5885,
      "▁queries": 5886,
      "##ysical": 5887,
      "##nity": 5888,
      "▁ven": 5889,
      "##enron": 5890,
      "▁ought": 5891,
      "##cott": 5892,
      "▁diaper": 5893,
      "▁reaching": 5894,
      "▁amid": 5895,
      "▁incurred": 5896,
      "##ink": 5897,
      "▁bat": 5898,
      "▁sugg": 5899,
      "▁podc": 5900,
      "▁referend": 5901,
      "▁complement": 5902,
      "▁dozens": 5903,
      "▁cod": 5904,
      "▁development": 5905,
      "▁announce": 5906,
      "##iting": 5907,
      "##men": 5908,
      "▁liked": 5909,
      "▁specify": 5910,
      "▁judgement": 5911,
      "▁mul": 5912,
      "##ss.xls": 5913,
      "##unge": 5914,
      "▁suspicion": 5915,
      "▁alto": 5916,
      "▁praised": 5917,
      "▁effects": 5918,
      "▁shif": 5919,
      "▁locomotion": 5920,
      "▁silkie": 5921,
      "▁finances": 5922,
      "▁proves": 5923,
      "▁dots": 5924,
      "▁exiled": 5925,
      "▁asked": 5926,
      "##ician": 5927,
      "d": 5928,
      "▁registration": 5929,
      "▁whis": 5930,
      "▁cat-flap": 5931,
      "▁spell": 5932,
      "▁grip": 5933,
      "▁protein": 5934,
      "▁mus": 5935,
      "▁suburbs": 5936,
      "▁good": 5937,
      "▁counter": 5938,
      "##day": 5939,
      "▁tro": 5940,
      "▁-----------------------------------------------------------------": 5941,
      "##estim": 5942,
      "▁scissors": 5943,
      "▁prestige": 5944,
      "▁chequ": 5945,
      "▁eliminated": 5946,
      "▁octop": 5947,
      "▁mailing": 5948,
      "▁supers": 5949,
      "▁grocery": 5950,
      "▁tendency": 5951,
      "▁soil": 5952,
      "▁°": 5953,
      "▁enrongss.xls": 5954,
      "▁writ": 5955,
      "##most": 5956,
      "▁nursies": 5957,
      "▁rome": 5958,
      "▁crop": 5959,
      "▁founder": 5960,
      "▁cerem": 5961,
      "▁pending": 5962,
      "▁heights": 5963,
      "##eos": 5964,
      "▁cri": 5965,
      "▁considered": 5966,
      "▁pictures": 5967,
      "▁defense": 5968,
      "▁pipe": 5969,
      "▁hind": 5970,
      "▁referring": 5971,
      "▁changes": 5972,
      "▁canc": 5973,
      "▁volati": 5974,
      "▁caus": 5975,
      "▁wondered": 5976,
      "▁overchar": 5977,
      "##rovers": 5978,
      "##ner": 5979,
      "▁napkin": 5980,
      "▁commiss": 5981,
      "▁stun": 5982,
      "▁derived": 5983,
      "##veyed": 5984,
      "##rise": 5985,
      "▁shark": 5986,
      "##arily": 5987,
      "▁bent": 5988,
      "##uated": 5989,
      "▁repressed": 5990,
      "##vet": 5991,
      "▁slam": 5992,
      "▁verify": 5993,
      "##ullness": 5994,
      "##oder": 5995,
      "▁curve": 5996,
      "▁resolution": 5997,
      "▁markers": 5998,
      "▁illustrate": 5999,
      "##lock": 6000,
      "▁no.": 6001,
      "▁stock": 6002,
      "##orti": 6003,
      "▁confrontation": 6004,
      "##oscope": 6005,
      "▁whit": 6006,
      "##liability": 6007,
      "▁struck": 6008,
      "▁slime": 6009,
      "▁laura": 6010,
      "▁pud": 6011,
      "▁fits": 6012,
      "▁echo": 6013,
      "▁hopefully": 6014,
      "▁commons": 6015,
      "##out": 6016,
      "▁1960s": 6017,
      "##leade": 6018,
      "▁network": 6019,
      "▁amidst": 6020,
      "▁finds": 6021,
      "▁males": 6022,
      "▁tr": 6023,
      "##φ": 6024,
      "▁slowly": 6025,
      "▁fever": 6026,
      "▁diagn": 6027,
      "##obs": 6028,
      "▁liquid": 6029,
      "##owar": 6030,
      "##isal": 6031,
      "▁chatting": 6032,
      "##ghting": 6033,
      "▁sweep": 6034,
      "0": 6035,
      "▁e-mail": 6036,
      "°": 6037,
      "▁scholar": 6038,
      "▁http://www.": 6039,
      "##ancers": 6040,
      "##σ": 6041,
      "##gl": 6042,
      "▁************************************************": 6043,
      "##erating": 6044,
      "##ivia": 6045,
      "▁desired": 6046,
      "▁characterized": 6047,
      "▁equity": 6048,
      "##een": 6049,
      "▁verifies": 6050,
      "▁we": 6051,
      "’": 6052,
      "▁momma": 6053,
      "▁yrs": 6054,
      "▁exter": 6055,
      "▁shores": 6056,
      "▁sort": 6057,
      "▁receives": 6058,
      "▁beeper": 6059,
      "▁ambition": 6060,
      "##ban": 6061,
      "▁evacuate": 6062,
      "▁blocks": 6063,
      "##aman": 6064,
      "▁baker": 6065,
      "▁sat": 6066,
      "▁restrictions": 6067,
      "▁unic": 6068,
      "▁donated": 6069,
      "▁temples": 6070,
      "▁hypnosis": 6071,
      "##ury": 6072,
      "▁aristocrats": 6073,
      "##.pdf": 6074,
      "▁flic": 6075,
      "▁create": 6076,
      "▁shit": 6077,
      "##rect": 6078,
      "##nuts": 6079,
      "##icular": 6080,
      "▁ou": 6081,
      "▁xml": 6082,
      "▁ducked": 6083,
      "▁swept": 6084,
      "▁jason": 6085,
      "##thma": 6086,
      "▁surviving": 6087,
      "##ql": 6088,
      "▁cele": 6089,
      "##macy": 6090,
      "▁waffles": 6091,
      "▁sell": 6092,
      "▁es": 6093,
      "▁metaph": 6094,
      "▁flourishing": 6095,
      "##edge": 6096,
      "##arl": 6097,
      "##tion": 6098,
      "▁sweet": 6099,
      "▁fem": 6100,
      "▁transparency": 6101,
      "▁koala": 6102,
      "##ug": 6103,
      "▁pericles": 6104,
      "▁kib": 6105,
      "▁conversations": 6106,
      "▁ok": 6107,
      "##marked": 6108,
      "▁bears": 6109,
      "▁principle": 6110,
      "##nec": 6111,
      "▁levels": 6112,
      "##ival": 6113,
      "▁internet": 6114,
      "##sel": 6115,
      "##sets": 6116,
      "▁feature": 6117,
      "▁relates": 6118,
      "▁recipients": 6119,
      "##fics": 6120,
      "▁eliminate": 6121,
      "##igate": 6122,
      "▁shaking": 6123,
      "▁miss": 6124,
      "##omach": 6125,
      "▁social": 6126,
      "▁features": 6127,
      "##ma": 6128,
      "▁benefits": 6129,
      "▁perpet": 6130,
      "##ning": 6131,
      "##phere": 6132,
      "▁pension": 6133,
      "##itality": 6134,
      "▁advancement": 6135,
      "▁novelist": 6136,
      "▁hey": 6137,
      "▁governments": 6138,
      "▁resisted": 6139,
      "▁associ": 6140,
      "##orage": 6141,
      "##iness": 6142,
      "▁debt": 6143,
      "▁conclu": 6144,
      "▁dando": 6145,
      "##tuce": 6146,
      "▁resulted": 6147,
      "▁hiking": 6148,
      "▁consume": 6149,
      "▁displaced": 6150,
      "▁berth": 6151,
      "▁delayed": 6152,
      "▁bottoms": 6153,
      "##reds": 6154,
      "▁quiet": 6155,
      "##umped": 6156,
      "▁eated": 6157,
      "▁novel": 6158,
      "▁liter": 6159,
      "▁glare": 6160,
      "▁baptised": 6161,
      "▁caught": 6162,
      "##iography": 6163,
      "▁fought": 6164,
      "▁go": 6165,
      "▁polaro": 6166,
      "▁currents": 6167,
      "▁'m": 6168,
      "▁rati": 6169,
      "##.v.": 6170,
      "▁proud": 6171,
      "▁discover": 6172,
      "▁anthropologist": 6173,
      "##laimed": 6174,
      "▁inquired": 6175,
      "▁furs": 6176,
      "▁violence": 6177,
      "▁misfort": 6178,
      "▁list": 6179,
      "▁newspaper": 6180,
      "##ension": 6181,
      "▁cott": 6182,
      "▁carbon": 6183,
      "▁curb": 6184,
      "▁privileges": 6185,
      "▁leader": 6186,
      "▁waffle": 6187,
      "▁families": 6188,
      "l": 6189,
      "##inated": 6190,
      "##ustration": 6191,
      "▁vanish": 6192,
      "▁lott": 6193,
      "▁firewood": 6194,
      "▁win": 6195,
      "▁raid": 6196,
      "▁artworld": 6197,
      "▁creep": 6198,
      "▁front": 6199,
      "▁pressure": 6200,
      "▁flower": 6201,
      "▁carries": 6202,
      "▁spo": 6203,
      "▁scaven": 6204,
      "##50": 6205,
      "▁contribution": 6206,
      "▁barrette": 6207,
      "▁winking": 6208,
      "##elped": 6209,
      "▁hardness": 6210,
      "▁india": 6211,
      "▁factor": 6212,
      "▁ident": 6213,
      "▁salesman": 6214,
      "▁based": 6215,
      "▁adjust": 6216,
      "▁beef": 6217,
      "▁extended": 6218,
      "▁shyness": 6219,
      "▁cycles": 6220,
      "##ted": 6221,
      "##ares": 6222,
      "▁moreover": 6223,
      "▁regist": 6224,
      "▁poop": 6225,
      "##lications": 6226,
      "##ishing": 6227,
      "▁rated": 6228,
      "▁disliked": 6229,
      "▁dilemma": 6230,
      "▁struggle": 6231,
      "##words": 6232,
      "##ico": 6233,
      "▁filled": 6234,
      "##flow": 6235,
      "▁doggie": 6236,
      "▁thx": 6237,
      "▁staple": 6238,
      "▁appropriate": 6239,
      "##fting": 6240,
      "▁constructed": 6241,
      "▁llc": 6242,
      "▁plays": 6243,
      "▁shorts": 6244,
      "▁hambur": 6245,
      "▁crashed": 6246,
      "▁sut": 6247,
      "##ular": 6248,
      "▁gamb": 6249,
      "▁weeds": 6250,
      "##ruary": 6251,
      "▁playwrights": 6252,
      "##itive": 6253,
      "▁cultures": 6254,
      "▁becomes": 6255,
      "▁meat": 6256,
      "▁claims": 6257,
      "▁colon": 6258,
      "▁----==": 6259,
      "▁snakes": 6260,
      "▁enchil": 6261,
      "▁rolling": 6262,
      "▁silk": 6263,
      "▁pail": 6264,
      "▁reinfor": 6265,
      "▁factors": 6266,
      "##anese": 6267,
      "▁structure": 6268,
      "▁handker": 6269,
      "▁muse": 6270,
      "▁loose": 6271,
      "▁ken": 6272,
      "##uity": 6273,
      "▁aro": 6274,
      "##etro": 6275,
      "▁salinity": 6276,
      "▁arrang": 6277,
      "▁horrors": 6278,
      "▁landed": 6279,
      "▁comfor": 6280,
      "▁sustainability": 6281,
      "▁abb": 6282,
      "▁encompassing": 6283,
      "▁colours": 6284,
      "▁cat": 6285,
      "▁toast": 6286,
      "▁ends": 6287,
      "▁sheriff": 6288,
      "▁fat": 6289,
      "▁moder": 6290,
      "▁crops": 6291,
      "▁alone": 6292,
      "▁cav": 6293,
      "▁brass": 6294,
      "▁emphas": 6295,
      "▁basil": 6296,
      "▁competi": 6297,
      "▁remod": 6298,
      "▁postp": 6299,
      "##oking": 6300,
      "▁chocolates": 6301,
      "▁evolving": 6302,
      "▁bending": 6303,
      "##aq": 6304,
      "▁incredibly": 6305,
      "▁petersburg": 6306,
      "▁walks": 6307,
      "##elessness": 6308,
      "▁took": 6309,
      "▁subs": 6310,
      "▁26": 6311,
      "▁stroll": 6312,
      "▁...": 6313,
      "▁letters": 6314,
      "##sed": 6315,
      "▁displacement": 6316,
      "##oo": 6317,
      "##agre": 6318,
      "▁divor": 6319,
      "##tivity": 6320,
      "##pen": 6321,
      "▁micros": 6322,
      "▁bi": 6323,
      "##ours": 6324,
      "▁resource": 6325,
      "▁reservation": 6326,
      "▁anthrax": 6327,
      "##isted": 6328,
      "▁appointed": 6329,
      "##uses": 6330,
      "##rated": 6331,
      "▁visited": 6332,
      "##ourse": 6333,
      "▁abused": 6334,
      "▁toured": 6335,
      "▁v02": 6336,
      "▁address": 6337,
      "▁done": 6338,
      "▁captured": 6339,
      "##ans": 6340,
      "##cod": 6341,
      "▁wore": 6342,
      "▁roofs": 6343,
      "▁figures": 6344,
      "##orned": 6345,
      "▁opens": 6346,
      "##min": 6347,
      "##imed": 6348,
      "▁deleted": 6349,
      "##asts": 6350,
      "▁ebbed": 6351,
      "▁acupunct": 6352,
      "▁hea": 6353,
      "▁scenar": 6354,
      "▁newark": 6355,
      "##orist": 6356,
      "▁performed": 6357,
      "##ules": 6358,
      "##mmed": 6359,
      "▁guerrillas": 6360,
      "▁decade": 6361,
      "##isms": 6362,
      "##where": 6363,
      "▁li": 6364,
      "▁gcp": 6365,
      "▁crust": 6366,
      "▁vernon": 6367,
      "▁crushing": 6368,
      "▁report": 6369,
      "▁p.s": 6370,
      "##city": 6371,
      "▁predict": 6372,
      "##burg": 6373,
      "▁homosexuality": 6374,
      "##rest": 6375,
      "▁procl": 6376,
      "▁diplomacy": 6377,
      "▁disagre": 6378,
      "▁cried": 6379,
      "▁python": 6380,
      "▁forbidden": 6381,
      "▁constitutions": 6382,
      "##atten": 6383,
      "##back": 6384,
      "##ume": 6385,
      "▁court": 6386,
      "##dering": 6387,
      "▁somebody": 6388,
      "▁maker": 6389,
      "▁goat": 6390,
      "▁january": 6391,
      "##ystem": 6392,
      "▁underp": 6393,
      "##file": 6394,
      "▁provisions": 6395,
      "▁origins": 6396,
      "▁cow": 6397,
      "▁monaster": 6398,
      "▁stro": 6399,
      "▁county": 6400,
      "##ably": 6401,
      "##eap": 6402,
      "▁si": 6403,
      "▁sparks": 6404,
      "▁pursued": 6405,
      "▁flatbread": 6406,
      "▁transforms": 6407,
      "▁alle": 6408,
      "▁fights": 6409,
      "▁photographer": 6410,
      "▁each": 6411,
      "▁spawn": 6412,
      "▁tran": 6413,
      "##ror": 6414,
      "▁wor": 6415,
      "▁marginalized": 6416,
      "▁flatten": 6417,
      "▁attended": 6418,
      "▁euro": 6419,
      "▁conflict": 6420,
      "▁lamb": 6421,
      "▁strawberries": 6422,
      "##aca": 6423,
      "▁home": 6424,
      "▁poli": 6425,
      "▁fam": 6426,
      "▁october": 6427,
      "▁realism": 6428,
      "##ab": 6429,
      "##ucker": 6430,
      "▁intake": 6431,
      "▁pushing": 6432,
      "##ugg": 6433,
      "▁promoting": 6434,
      "▁demands": 6435,
      "▁seeker": 6436,
      "▁disappearance": 6437,
      "▁deserted": 6438,
      "##ork": 6439,
      "##zations": 6440,
      "▁sniff": 6441,
      "##inging": 6442,
      "##being": 6443,
      "▁peters": 6444,
      "##itement": 6445,
      "▁amb": 6446,
      "▁reintroduc": 6447,
      "▁clash": 6448,
      "▁split": 6449,
      "▁reportedly": 6450,
      "▁cors": 6451,
      "▁protects": 6452,
      "▁writing": 6453,
      "▁natur": 6454,
      "▁rect": 6455,
      "▁screens": 6456,
      "▁jo": 6457,
      "##ipelag": 6458,
      "▁shad": 6459,
      "▁modern": 6460,
      "▁mates": 6461,
      "▁complex": 6462,
      "▁profic": 6463,
      "▁cockati": 6464,
      "▁qualified": 6465,
      "▁turb": 6466,
      "##omer": 6467,
      "▁facilitating": 6468,
      "▁appren": 6469,
      "▁spoons": 6470,
      "▁flights": 6471,
      "▁death": 6472,
      "▁04": 6473,
      "##uls": 6474,
      "▁extend": 6475,
      "▁hamb": 6476,
      "▁sled": 6477,
      "##ellow": 6478,
      "▁debr": 6479,
      "▁caf": 6480,
      "▁impacts": 6481,
      "▁hears": 6482,
      "▁output": 6483,
      "▁radiation": 6484,
      "▁bran": 6485,
      "▁asks": 6486,
      "▁skill": 6487,
      "▁buddies": 6488,
      "▁cart": 6489,
      "▁surgery": 6490,
      "▁strangers": 6491,
      "▁tournament": 6492,
      "▁spending": 6493,
      "▁evaluator": 6494,
      "▁ruts": 6495,
      "▁fris": 6496,
      "▁prizes": 6497,
      "▁willow": 6498,
      "▁atheists": 6499,
      "▁website": 6500,
      "[PAD]": 6501,
      "##oun": 6502,
      "▁ecodes": 6503,
      "▁kung": 6504,
      "▁hobby": 6505,
      "##cape": 6506,
      "▁rit": 6507,
      "##ign": 6508,
      "##able": 6509,
      "▁sculpt": 6510,
      "▁deployed": 6511,
      "##tail": 6512,
      "▁nip": 6513,
      "▁crimes": 6514,
      "▁convicts": 6515,
      "▁attack": 6516,
      "▁flooring": 6517,
      "##umulation": 6518,
      "##eneration": 6519,
      "▁bureaucr": 6520,
      "▁figured": 6521,
      "▁wobblers": 6522,
      "▁pilg": 6523,
      "##ually": 6524,
      "▁senti": 6525,
      "▁childbir": 6526,
      "▁consumerism": 6527,
      "▁revolves": 6528,
      "##mering": 6529,
      "▁great": 6530,
      "##gatory": 6531,
      "▁long": 6532,
      "▁reliability": 6533,
      "##ascience": 6534,
      "##unking": 6535,
      "##self": 6536,
      "▁goals": 6537,
      "▁philadelphia": 6538,
      "▁compass": 6539,
      "▁congregation": 6540,
      "▁gazing": 6541,
      "▁exper": 6542,
      "▁genius": 6543,
      "##erence": 6544,
      "▁epidemic": 6545,
      "▁formal": 6546,
      "▁fridge": 6547,
      "▁rum": 6548,
      "▁hamp": 6549,
      "▁reluct": 6550,
      "▁grape": 6551,
      "▁gli": 6552,
      "##roph": 6553,
      "▁tempt": 6554,
      "▁monk": 6555,
      "▁lee": 6556,
      "▁intending": 6557,
      "▁insisted": 6558,
      "▁'s": 6559,
      "##********************************": 6560,
      "▁soul": 6561,
      "▁opposed": 6562,
      "▁arres": 6563,
      "▁kil": 6564,
      "▁definitions": 6565,
      "▁mosque": 6566,
      "##ick": 6567,
      "▁haven": 6568,
      "##gence": 6569,
      "▁theory": 6570,
      "▁baked": 6571,
      "##unks": 6572,
      "▁intercept": 6573,
      "▁objectives": 6574,
      "##fication": 6575,
      "▁plaintiffs": 6576,
      "▁sender": 6577,
      "▁fluids": 6578,
      "▁depending": 6579,
      "##jection": 6580,
      "##lined": 6581,
      "▁re": 6582,
      "▁cous": 6583,
      "▁nite": 6584,
      "▁attitude": 6585,
      "▁prints": 6586,
      "▁muffs": 6587,
      "▁enjo": 6588,
      "##inned": 6589,
      "▁december": 6590,
      "##ounts": 6591,
      "▁removed": 6592,
      "▁misunderstanding": 6593,
      "▁mal": 6594,
      "##eb": 6595,
      "▁telephones": 6596,
      "##timately": 6597,
      "▁privacy": 6598,
      "##rows": 6599,
      "▁trailer": 6600,
      "▁cane": 6601,
      "▁freezing": 6602,
      "▁ivory": 6603,
      "##animals": 6604,
      "▁wig": 6605,
      "▁rent": 6606,
      "▁glove": 6607,
      "##iversary": 6608,
      "##ulf": 6609,
      "▁crushed": 6610,
      "##urred": 6611,
      "▁steamer": 6612,
      "##nding": 6613,
      "▁dealing": 6614,
      "▁into": 6615,
      "##father": 6616,
      "▁l": 6617,
      "▁campaigns": 6618,
      "##makers": 6619,
      "##tity": 6620,
      "▁china": 6621,
      "▁whereabouts": 6622,
      "##ounced": 6623,
      "▁technique": 6624,
      "▁frightened": 6625,
      "▁70's": 6626,
      "##idated": 6627,
      "▁most": 6628,
      "▁ecli": 6629,
      "##enings": 6630,
      "▁church": 6631,
      "▁alt.animals.": 6632,
      "▁mech": 6633,
      "▁signs": 6634,
      "▁stations": 6635,
      "▁ate": 6636,
      "▁footst": 6637,
      "##ts": 6638,
      "▁surface": 6639,
      "▁customs": 6640,
      "▁tricycle": 6641,
      "▁cook": 6642,
      "▁masks": 6643,
      "▁t.v.": 6644,
      "##inder": 6645,
      "▁autofilter": 6646,
      "▁claimed": 6647,
      "▁irritation": 6648,
      "▁veranda": 6649,
      "▁house-": 6650,
      "▁niece": 6651,
      "▁horr": 6652,
      "▁confidence": 6653,
      "##alty": 6654,
      "▁posters": 6655,
      "##6-1.doc": 6656,
      "▁roosters": 6657,
      "▁jean": 6658,
      "▁shoulder": 6659,
      "##affle": 6660,
      "▁goose": 6661,
      "▁adoption": 6662,
      "##ina": 6663,
      "▁unfold": 6664,
      "##-en": 6665,
      "▁limits": 6666,
      "▁approximately": 6667,
      "▁awards": 6668,
      "▁alignment": 6669,
      "▁recons": 6670,
      "▁rules": 6671,
      "▁$$$": 6672,
      "▁commanders": 6673,
      "▁duckie": 6674,
      "▁musician": 6675,
      "▁suppressed": 6676,
      "▁convince": 6677,
      "##o.": 6678,
      "##oneering": 6679,
      "▁flourish": 6680,
      "▁plight": 6681,
      "▁flir": 6682,
      "▁paper": 6683,
      "##eat": 6684,
      "▁dis": 6685,
      "▁them": 6686,
      "▁clashes": 6687,
      "▁perspectives": 6688,
      "▁these": 6689,
      "##eterm": 6690,
      "▁v": 6691,
      "▁continuation": 6692,
      "▁soils": 6693,
      "##ima": 6694,
      "##-": 6695,
      "▁burning": 6696,
      "##ract": 6697,
      "▁discuss": 6698,
      "▁philosophy": 6699,
      "▁pony": 6700,
      "▁falls": 6701,
      "▁australia": 6702,
      "▁fert": 6703,
      "▁acted": 6704,
      "##through": 6705,
      "##ala": 6706,
      "▁ensure": 6707,
      "##thes": 6708,
      "▁disob": 6709,
      "##ctions": 6710,
      "##llow": 6711,
      "##ization": 6712,
      "▁ft": 6713,
      "▁takeoff": 6714,
      "##io": 6715,
      "▁purchase": 6716,
      "##chem": 6717,
      "▁altar": 6718,
      "▁extradition": 6719,
      "▁http": 6720,
      "▁daughters": 6721,
      "▁hairs": 6722,
      "▁mathematicians": 6723,
      "▁introduction": 6724,
      "▁pot": 6725,
      "▁renewal": 6726,
      "▁coach": 6727,
      "▁ignore": 6728,
      "▁go's": 6729,
      "##tures": 6730,
      "▁curlers": 6731,
      "▁cost": 6732,
      "▁suggestion": 6733,
      "▁wounded": 6734,
      "▁selecting": 6735,
      "##ided": 6736,
      "##-f": 6737,
      "▁send": 6738,
      "▁realized": 6739,
      "▁careful": 6740,
      "▁faith": 6741,
      "##istence": 6742,
      "##di": 6743,
      "▁efficiency": 6744,
      "▁below": 6745,
      "##cillas": 6746,
      "▁appla": 6747,
      "▁virt": 6748,
      "▁reveals": 6749,
      "▁beside": 6750,
      "▁staged": 6751,
      "▁towering": 6752,
      "##will": 6753,
      "▁rescue": 6754,
      "▁appear": 6755,
      "▁sit": 6756,
      "▁gum": 6757,
      "▁religious": 6758,
      "▁recruit": 6759,
      "▁july": 6760,
      "▁unfort": 6761,
      "▁inst": 6762,
      "▁hunt": 6763,
      "##comp": 6764,
      "▁embassy": 6765,
      "##estab": 6766,
      "##eless": 6767,
      "▁celeb": 6768,
      "▁knew": 6769,
      "▁snapped": 6770,
      "##**********************************": 6771,
      "▁stupid": 6772,
      "▁stocks": 6773,
      "▁clarification": 6774,
      "▁insist": 6775,
      "▁fle": 6776,
      "##ative": 6777,
      "▁hut": 6778,
      "▁officials": 6779,
      "▁gaze": 6780,
      "▁embarr": 6781,
      "▁deception": 6782,
      "▁return": 6783,
      "##y0": 6784,
      "▁ltte": 6785,
      "▁puss": 6786,
      "##stered": 6787,
      "##quil": 6788,
      "##rep": 6789,
      "##eine": 6790,
      "##ishment": 6791,
      "▁par": 6792,
      "▁champions": 6793,
      "▁collectors": 6794,
      "▁guar": 6795,
      "▁piece": 6796,
      "▁yesterday": 6797,
      "▁download": 6798,
      "▁concerning": 6799,
      "▁calculation": 6800,
      "▁ingredients": 6801,
      "▁costume": 6802,
      "▁needle": 6803,
      "▁pow": 6804,
      "##elle": 6805,
      "▁sympath": 6806,
      "##p": 6807,
      "##fri": 6808,
      "▁stands": 6809,
      "▁simp": 6810,
      "##inds": 6811,
      "▁quite": 6812,
      "##uss": 6813,
      "▁office": 6814,
      "▁tons": 6815,
      "▁experiments": 6816,
      "▁resched": 6817,
      "▁authorization": 6818,
      "▁alt.animals.d": 6819,
      "▁audiobooks": 6820,
      "▁invented": 6821,
      "▁_______": 6822,
      "▁emer": 6823,
      "▁shelter": 6824,
      "▁notes": 6825,
      "##unciation": 6826,
      "▁attachments": 6827,
      "▁fab": 6828,
      "##edicated": 6829,
      "▁karma": 6830,
      "▁reads": 6831,
      "▁distingu": 6832,
      "▁bases": 6833,
      "▁positive": 6834,
      "▁observations": 6835,
      "▁?!": 6836,
      "##keting": 6837,
      "▁omission": 6838,
      "▁import": 6839,
      "▁wing": 6840,
      "▁overlooked": 6841,
      "▁immensity": 6842,
      "▁escape": 6843,
      "##idden": 6844,
      "##phab": 6845,
      "▁fuck": 6846,
      "▁interesting": 6847,
      "▁community": 6848,
      "##ird": 6849,
      "▁columbus": 6850,
      "▁bloss": 6851,
      "▁having": 6852,
      "##'t": 6853,
      "▁snatched": 6854,
      "▁streak": 6855,
      "y": 6856,
      "▁compounded": 6857,
      "▁probably": 6858,
      "▁eye": 6859,
      "▁compli": 6860,
      "▁lying": 6861,
      "▁financial": 6862,
      "▁ld": 6863,
      "##wa": 6864,
      "▁all": 6865,
      "▁rodents": 6866,
      "▁story": 6867,
      "▁monies": 6868,
      "▁-----------------": 6869,
      "▁bree": 6870,
      "▁pound": 6871,
      "▁designated": 6872,
      "▁novels": 6873,
      "▁touched": 6874,
      "▁deterioration": 6875,
      "▁leaned": 6876,
      "▁intrigued": 6877,
      "▁tupper": 6878,
      "▁enhanced": 6879,
      "▁environ": 6880,
      "▁signal": 6881,
      "▁ram": 6882,
      "##bes": 6883,
      "##omination": 6884,
      "▁sweats": 6885,
      "▁structures": 6886,
      "##eral": 6887,
      "##tingu": 6888,
      "##lect": 6889,
      "▁appealed": 6890,
      "▁flooding": 6891,
      "▁credibility": 6892,
      "▁imprisonment": 6893,
      "##oir": 6894,
      "##orum": 6895,
      "▁income": 6896,
      "▁tricks": 6897,
      "▁spit": 6898,
      "##austed": 6899,
      "▁schemes": 6900,
      "▁dancers": 6901,
      "##yg": 6902,
      "▁where": 6903,
      "▁never": 6904,
      "▁consid": 6905,
      "▁approached": 6906,
      "##ali": 6907,
      "▁himself": 6908,
      "▁balt": 6909,
      "▁dinner": 6910,
      "▁seriously": 6911,
      "▁nutrients": 6912,
      "▁schem": 6913,
      "▁discour": 6914,
      "##bern": 6915,
      "▁land": 6916,
      "▁inspired": 6917,
      "▁rebel": 6918,
      "▁instinct": 6919,
      "▁embarrassment": 6920,
      "▁spea": 6921,
      "▁symmet": 6922,
      "▁fin": 6923,
      "▁diet": 6924,
      "▁ropes": 6925,
      "▁congressman": 6926,
      "##isco": 6927,
      "##½": 6928,
      "▁providers": 6929,
      "▁admit": 6930,
      "▁beings": 6931,
      "▁crack": 6932,
      "##ership": 6933,
      "##enade": 6934,
      "##ups": 6935,
      "▁behave": 6936,
      "▁wether": 6937,
      "▁failed": 6938,
      "##dity": 6939,
      "##ucks": 6940,
      "▁formation": 6941,
      "▁sizz": 6942,
      "▁topper": 6943,
      "▁lith": 6944,
      "▁augmented": 6945,
      "▁tragicomed": 6946,
      "▁island": 6947,
      "##ceptions": 6948,
      "##inist": 6949,
      "##hakes": 6950,
      "##&b": 6951,
      "▁spe": 6952,
      "▁spells": 6953,
      "▁founded": 6954,
      "▁writers": 6955,
      "▁an": 6956,
      "▁balls": 6957,
      "▁nails": 6958,
      "##.net": 6959,
      "▁cousins": 6960,
      "▁goes": 6961,
      "▁sees": 6962,
      "▁vib": 6963,
      "▁ginger": 6964,
      "▁masterpieces": 6965,
      "▁swit": 6966,
      "▁wheat": 6967,
      "▁cycle": 6968,
      "##enex": 6969,
      "▁farrier": 6970,
      "▁anticipated": 6971,
      "##lites": 6972,
      "▁potatoes": 6973,
      "▁scholarship": 6974,
      "▁david": 6975,
      "##ingly": 6976,
      "▁substance": 6977,
      "▁sneak": 6978,
      "▁co-founder": 6979,
      "▁mailings": 6980,
      "▁agriculture": 6981,
      "▁enchiladas": 6982,
      "▁deny": 6983,
      "▁replied": 6984,
      "▁raise": 6985,
      "▁willing": 6986,
      "▁white": 6987,
      "##ired": 6988,
      "##ien": 6989,
      "▁evil": 6990,
      "▁whipped": 6991,
      "▁fantasy": 6992,
      "##outs": 6993,
      "▁flesh": 6994,
      "▁shout": 6995,
      "##yl": 6996,
      "▁dais": 6997,
      "▁hand": 6998,
      "##abouts": 6999,
      "▁develop": 7000,
      "▁diagram": 7001,
      "##ucky": 7002,
      "▁measure": 7003,
      "▁nove": 7004,
      "▁sea": 7005,
      "▁throw": 7006,
      "▁when": 7007,
      "##q": 7008,
      "▁oath": 7009,
      "▁rating": 7010,
      "♥": 7011,
      "▁plat": 7012,
      "▁remn": 7013,
      "▁habitat": 7014,
      "▁bar": 7015,
      "▁serves": 7016,
      "▁bounds": 7017,
      "▁generate": 7018,
      "▁fas": 7019,
      "##adel": 7020,
      "##-e": 7021,
      "##anne": 7022,
      "##anal": 7023,
      "##utors": 7024,
      "▁acknowledge": 7025,
      "▁emperor": 7026,
      "▁articles": 7027,
      "▁offic": 7028,
      "▁shun": 7029,
      "▁garlic": 7030,
      "▁airlines": 7031,
      "º": 7032,
      "▁welcomed": 7033,
      "▁neigh": 7034,
      "▁peace": 7035,
      "▁litt": 7036,
      "##roidered": 7037,
      "##use": 7038,
      "▁thyro": 7039,
      "▁mart": 7040,
      "▁cas": 7041,
      "β": 7042,
      "##fications": 7043,
      "▁brushed": 7044,
      "▁busses": 7045,
      "▁highway": 7046,
      "▁negative": 7047,
      "▁?!?": 7048,
      "▁complaining": 7049,
      "▁vict": 7050,
      "▁battling": 7051,
      "▁submits": 7052,
      "▁hideout": 7053,
      "▁trans": 7054,
      "▁expos": 7055,
      "▁implemented": 7056,
      "▁offended": 7057,
      "▁sealed": 7058,
      "▁awareness": 7059,
      "▁repairs": 7060,
      "▁clinging": 7061,
      "##.m": 7062,
      "▁crisis": 7063,
      "▁helicop": 7064,
      "##&d": 7065,
      "▁pooping": 7066,
      "▁drama": 7067,
      "▁pouch": 7068,
      "▁jacket": 7069,
      "▁one": 7070,
      "▁correlation": 7071,
      "##ukee": 7072,
      "##ticians": 7073,
      "▁bed": 7074,
      "##ois": 7075,
      "##ped": 7076,
      "▁posed": 7077,
      "▁chocol": 7078,
      "##yalist": 7079,
      "▁lounge": 7080,
      "▁suck": 7081,
      "▁spouting": 7082,
      "##alculation": 7083,
      "▁fol": 7084,
      "▁bludgers": 7085,
      "##tibility": 7086,
      "▁bake": 7087,
      "##inental": 7088,
      "##46": 7089,
      "]": 7090,
      "▁borrow": 7091,
      "▁wells": 7092,
      "▁drink": 7093,
      "▁urine": 7094,
      "▁barrels": 7095,
      "▁untill": 7096,
      "##ressor": 7097,
      "▁through": 7098,
      "▁salary": 7099,
      "▁heat": 7100,
      "▁bos": 7101,
      "▁manufact": 7102,
      "▁caps": 7103,
      "▁very": 7104,
      "▁retention": 7105,
      "▁hu": 7106,
      "##group": 7107,
      "▁ar": 7108,
      "▁antibio": 7109,
      "▁disapp": 7110,
      "▁hurt": 7111,
      "##ultural": 7112,
      "##riage": 7113,
      "▁specific": 7114,
      "▁aboard": 7115,
      "▁revolution": 7116,
      "▁pork": 7117,
      "▁alley": 7118,
      "▁acquire": 7119,
      "▁temp": 7120,
      "##tride": 7121,
      "▁beak": 7122,
      "##alog": 7123,
      "▁flunking": 7124,
      "▁fucking": 7125,
      "▁pipes": 7126,
      "▁feelings": 7127,
      "▁headquarters": 7128,
      "▁transfers": 7129,
      "▁passengers": 7130,
      "▁warfare": 7131,
      "##utionary": 7132,
      "▁asset": 7133,
      "▁sur": 7134,
      "▁trash": 7135,
      "▁damage": 7136,
      "▁--": 7137,
      "##itations": 7138,
      "▁mur": 7139,
      "▁soon": 7140,
      "▁decades": 7141,
      "##eachment": 7142,
      "##ently": 7143,
      "##ges": 7144,
      "▁dogg": 7145,
      "▁identi": 7146,
      "▁tampa": 7147,
      "▁distortion": 7148,
      "##tainty": 7149,
      "▁arr": 7150,
      "##de": 7151,
      "▁surge": 7152,
      "▁matters": 7153,
      "##erable": 7154,
      "▁ori": 7155,
      "▁memories": 7156,
      "▁necessarily": 7157,
      "▁portrait": 7158,
      "▁document": 7159,
      "##ile": 7160,
      "▁prohibited": 7161,
      "▁theodor": 7162,
      "▁contacted": 7163,
      "▁combines": 7164,
      "▁rub": 7165,
      "▁assemble": 7166,
      "##aints": 7167,
      "▁crayons": 7168,
      "##centi": 7169,
      "▁give": 7170,
      "##ests": 7171,
      "##arded": 7172,
      "##oved": 7173,
      "▁angeles": 7174,
      "▁visits": 7175,
      "##-boat": 7176,
      "##ores": 7177,
      "▁locom": 7178,
      "▁mist": 7179,
      "▁snitch": 7180,
      "▁elect": 7181,
      "▁outl": 7182,
      "▁preparation": 7183,
      "##uis": 7184,
      "▁zone": 7185,
      "##:/": 7186,
      "##iver": 7187,
      "##ity": 7188,
      "▁particularly": 7189,
      "▁weakening": 7190,
      "##oys": 7191,
      "##nings": 7192,
      "▁lowered": 7193,
      "▁billi": 7194,
      "▁horn": 7195,
      "▁sleeping": 7196,
      "▁earthworms": 7197,
      "▁published": 7198,
      "▁outcomes": 7199,
      "▁dre": 7200,
      "▁tush": 7201,
      "▁reintroduced": 7202,
      "▁floating": 7203,
      "##ron": 7204,
      "▁reasonable": 7205,
      "▁screwdriver": 7206,
      "##ull": 7207,
      "▁socialist": 7208,
      "▁permitted": 7209,
      "##etition": 7210,
      "▁folded": 7211,
      "▁participating": 7212,
      "▁state": 7213,
      "##down": 7214,
      "▁corporations": 7215,
      "▁glance": 7216,
      "##ere": 7217,
      "▁frank": 7218,
      "##don": 7219,
      "▁herd": 7220,
      "▁disconnec": 7221,
      "▁catast": 7222,
      "▁forbidding": 7223,
      "▁wik": 7224,
      "▁cris": 7225,
      "▁tiss": 7226,
      "▁necessity": 7227,
      "▁current": 7228,
      "▁crash": 7229,
      "▁tric": 7230,
      "▁bind": 7231,
      "##ulum": 7232,
      "▁woken": 7233,
      "##ux": 7234,
      "▁mechanism": 7235,
      "▁eaten": 7236,
      "##bolism": 7237,
      "▁boxes": 7238,
      "▁referred": 7239,
      "▁plotted": 7240,
      "▁conges": 7241,
      "##umbled": 7242,
      "▁crooks": 7243,
      "▁melt": 7244,
      "▁equ": 7245,
      "▁caused": 7246,
      "▁sang": 7247,
      "##ool": 7248,
      "##oms": 7249,
      "▁examples": 7250,
      "▁forcing": 7251,
      "##atches": 7252,
      "▁requirements": 7253,
      "▁review": 7254,
      "##uck": 7255,
      "##essions": 7256,
      "▁mweta": 7257,
      "▁shed": 7258,
      "▁rulers": 7259,
      "##bal": 7260,
      "▁pays": 7261,
      "▁drowning": 7262,
      "▁maked": 7263,
      "##oe": 7264,
      "▁granted": 7265,
      "▁laborers": 7266,
      "▁wr": 7267,
      "▁cluster": 7268,
      "##qual": 7269,
      "▁beyon": 7270,
      "▁parent": 7271,
      "▁channels": 7272,
      "▁obl": 7273,
      "##ialization": 7274,
      "▁butt": 7275,
      "▁unemployment": 7276,
      "▁constit": 7277,
      "▁interacting": 7278,
      "▁vacc": 7279,
      "▁exactly": 7280,
      "▁climb": 7281,
      "▁accent": 7282,
      "▁spelling": 7283,
      "##paste": 7284,
      "▁hallway": 7285,
      "▁equi": 7286,
      "▁replaced": 7287,
      "##erview": 7288,
      "▁celebrating": 7289,
      "▁propri": 7290,
      "▁poverty": 7291,
      "▁cheap": 7292,
      "▁stab": 7293,
      "##verage": 7294,
      "▁patients": 7295,
      "▁design": 7296,
      "##ait": 7297,
      "▁cells": 7298,
      "##vity": 7299,
      "▁refin": 7300,
      "▁closely": 7301,
      "▁bottom": 7302,
      "▁thunder": 7303,
      "▁for": 7304,
      "▁tube": 7305,
      "▁knees": 7306,
      "▁yelled": 7307,
      "▁yea": 7308,
      "##ion": 7309,
      "▁lunch": 7310,
      "▁.!": 7311,
      "▁sleeves": 7312,
      "▁mba": 7313,
      "▁functionality": 7314,
      "▁mwe": 7315,
      "▁lit": 7316,
      "##ying": 7317,
      "▁toll": 7318,
      "##.un": 7319,
      "▁academ": 7320,
      "▁installation": 7321,
      "▁tears": 7322,
      "▁sst": 7323,
      "##sical": 7324,
      "▁halloween": 7325,
      "▁enri": 7326,
      "▁hormone": 7327,
      "##vious": 7328,
      "▁prospects": 7329,
      "▁wrinkles": 7330,
      "##l.c": 7331,
      "▁fut": 7332,
      "▁fry": 7333,
      "##ilight": 7334,
      "▁ter": 7335,
      "▁cuck": 7336,
      "▁how": 7337,
      "▁forgot": 7338,
      "▁mot": 7339,
      "▁translation": 7340,
      "▁liber": 7341,
      "##lam": 7342,
      "##6": 7343,
      "▁accident": 7344,
      "▁substant": 7345,
      "▁events": 7346,
      "##ending": 7347,
      "##vert": 7348,
      "▁waist": 7349,
      "##owners": 7350,
      "▁covering": 7351,
      "▁eur": 7352,
      "▁breasts": 7353,
      "▁price": 7354,
      "▁teddy": 7355,
      "##ugging": 7356,
      "▁sponsored": 7357,
      "▁log": 7358,
      "▁buz": 7359,
      "▁pup": 7360,
      "##ainted": 7361,
      "▁interfere": 7362,
      "▁skittles": 7363,
      "▁pour": 7364,
      "##otes": 7365,
      "▁elsewhere": 7366,
      "▁institutions": 7367,
      "##ify": 7368,
      "▁fireplace": 7369,
      "▁subsid": 7370,
      "##nas": 7371,
      "▁brainw": 7372,
      "▁gown": 7373,
      "##-of": 7374,
      "▁datasheets": 7375,
      "▁mexico": 7376,
      "▁summary": 7377,
      "▁crosst": 7378,
      "##ses": 7379,
      "▁surr": 7380,
      "▁transporting": 7381,
      "▁exacerb": 7382,
      "##itting": 7383,
      "▁arrives": 7384,
      "▁fours": 7385,
      "▁bump": 7386,
      "▁twenties": 7387,
      "##:": 7388,
      "▁delay": 7389,
      "▁kitt": 7390,
      "##illed": 7391,
      "▁raccoon": 7392,
      "▁vast": 7393,
      "▁demons": 7394,
      "▁standardisation": 7395,
      "▁injury": 7396,
      "▁supple": 7397,
      "▁rall": 7398,
      "▁bir": 7399,
      "##enef": 7400,
      "▁tear": 7401,
      "▁device": 7402,
      "##nh": 7403,
      "▁fall": 7404,
      "▁il": 7405,
      "▁compares": 7406,
      "▁festivals": 7407,
      "▁chor": 7408,
      "▁usurp": 7409,
      "▁data": 7410,
      "▁propose": 7411,
      "##oops": 7412,
      "▁generators": 7413,
      "▁competence": 7414,
      "##esty": 7415,
      "##ooks": 7416,
      "##fortable": 7417,
      "▁murder": 7418,
      "▁inde": 7419,
      "▁locations": 7420,
      "##aid": 7421,
      "▁used": 7422,
      "▁imagination": 7423,
      "▁islamic": 7424,
      "▁exaggerated": 7425,
      "▁gtc": 7426,
      "▁athletes": 7427,
      "▁packages": 7428,
      "##'re": 7429,
      "##tise": 7430,
      "▁decide": 7431,
      "▁besid": 7432,
      "▁spreadsheet": 7433,
      "##vision": 7434,
      "▁starvation": 7435,
      "▁overc": 7436,
      "ˈ": 7437,
      "##!?": 7438,
      "##rael": 7439,
      "▁radio": 7440,
      "▁intentions": 7441,
      "##pg": 7442,
      "▁respondents": 7443,
      "##issions": 7444,
      "▁mouth": 7445,
      "▁enterprise": 7446,
      "▁users": 7447,
      "▁laund": 7448,
      "▁bure": 7449,
      "▁pond": 7450,
      "##advant": 7451,
      "##907": 7452,
      "▁western": 7453,
      "▁colony": 7454,
      "▁tracking": 7455,
      "▁reass": 7456,
      "▁regulated": 7457,
      "##uits": 7458,
      "▁light": 7459,
      "##eralism": 7460,
      "▁manatees": 7461,
      "##f": 7462,
      "▁informed": 7463,
      "##ford": 7464,
      "▁uti": 7465,
      "▁managers": 7466,
      "▁{": 7467,
      "▁hoping": 7468,
      "▁sings": 7469,
      "##gance": 7470,
      "▁chickens": 7471,
      "##ood": 7472,
      "▁walking": 7473,
      "▁causing": 7474,
      "##alu": 7475,
      "▁bron": 7476,
      "▁james": 7477,
      "▁q1": 7478,
      "▁respec": 7479,
      "▁railway": 7480,
      "▁astronom": 7481,
      "▁browsers": 7482,
      "▁isol": 7483,
      "##ributing": 7484,
      "##ideration": 7485,
      "▁obsf": 7486,
      "▁bagels": 7487,
      "▁scratch": 7488,
      "##arized": 7489,
      "▁betw": 7490,
      "▁sor": 7491,
      "##==": 7492,
      "▁out": 7493,
      "##ainly": 7494,
      "▁shadow": 7495,
      "##emark": 7496,
      "##ffle": 7497,
      "▁lowest": 7498,
      "▁accur": 7499,
      "##osm": 7500,
      "##ting": 7501,
      "▁arriving": 7502,
      "##ric": 7503,
      "▁guaranteed": 7504,
      "##ground": 7505,
      "▁flocked": 7506,
      "▁borders": 7507,
      "▁cabbage": 7508,
      "##aves": 7509,
      "▁videoc": 7510,
      "##13": 7511,
      "▁environments": 7512,
      "▁hunger": 7513,
      "▁dair": 7514,
      "##ora": 7515,
      "▁camping": 7516,
      "▁ya": 7517,
      "##thin": 7518,
      "▁remembering": 7519,
      "▁briefcase": 7520,
      "▁practicing": 7521,
      "▁capitalism": 7522,
      "▁chapters": 7523,
      "▁holder": 7524,
      "##2": 7525,
      "▁drawstring": 7526,
      "##ache": 7527,
      "▁september": 7528,
      "▁wrote": 7529,
      "▁inherited": 7530,
      "▁fading": 7531,
      "▁simulation": 7532,
      "##aulted": 7533,
      "▁conclusion": 7534,
      "▁expanded": 7535,
      "▁referr": 7536,
      "▁identities": 7537,
      "##nik": 7538,
      "▁hack": 7539,
      "▁preserved": 7540,
      "##thy": 7541,
      "▁disobedience": 7542,
      "##.": 7543,
      "##rich": 7544,
      "▁field": 7545,
      "▁pack": 7546,
      "▁retrie": 7547,
      "▁malnutrition": 7548,
      "##ls": 7549,
      "▁residents": 7550,
      "##dge": 7551,
      "▁ignor": 7552,
      "▁commissioner": 7553,
      "▁proved": 7554,
      "##life": 7555,
      "▁watered": 7556,
      "▁dishwash": 7557,
      "▁reply": 7558,
      "##over": 7559,
      "▁pee": 7560,
      "##xic": 7561,
      "▁linked": 7562,
      "▁arrangements": 7563,
      "▁alb": 7564,
      "▁block": 7565,
      "▁four": 7566,
      "##chen": 7567,
      "▁barn": 7568,
      "▁engineer": 7569,
      "▁imperialism": 7570,
      "▁fracture": 7571,
      "▁dinosaur": 7572,
      "##orded": 7573,
      "▁grant": 7574,
      "▁transition": 7575,
      "▁set": 7576,
      "▁perhaps": 7577,
      "##lf": 7578,
      "▁anem": 7579,
      "▁penet": 7580,
      "▁invite": 7581,
      "▁hairsty": 7582,
      "##wh": 7583,
      "▁shrap": 7584,
      "▁abandon": 7585,
      "▁piggie": 7586,
      "▁strive": 7587,
      "▁coast": 7588,
      "##epend": 7589,
      "▁pager": 7590,
      "▁byebye": 7591,
      "##bean": 7592,
      "##onally": 7593,
      "▁commit": 7594,
      "##ving": 7595,
      "##ath": 7596,
      "##ength": 7597,
      "▁meet": 7598,
      "▁declar": 7599,
      "▁team": 7600,
      "▁sailed": 7601,
      "##ologies": 7602,
      "▁mention": 7603,
      "▁norm": 7604,
      "▁stating": 7605,
      "▁cashout": 7606,
      "▁questioned": 7607,
      "▁revive": 7608,
      "▁analyzed": 7609,
      "▁signed": 7610,
      "▁doubt": 7611,
      "▁crocod": 7612,
      "▁ling": 7613,
      "##rous": 7614,
      "##rr": 7615,
      "▁spir": 7616,
      "##nancy": 7617,
      "▁jenn": 7618,
      "▁forwarding": 7619,
      "▁coloni": 7620,
      "##king": 7621,
      "▁register": 7622,
      "▁phenomen": 7623,
      "▁signing": 7624,
      "▁screaming": 7625,
      "▁hound": 7626,
      "▁research": 7627,
      "▁orphan": 7628,
      "▁specialists": 7629,
      "▁bbq": 7630,
      "▁refuge": 7631,
      "▁up": 7632,
      "▁attrib": 7633,
      "##.s": 7634,
      "▁sum": 7635,
      "▁lun": 7636,
      "▁aqu": 7637,
      "▁submarines": 7638,
      "▁intern": 7639,
      "▁geometry": 7640,
      "▁lymph": 7641,
      "▁sights": 7642,
      "▁spayed": 7643,
      "▁critics": 7644,
      "▁desk": 7645,
      "▁renewed": 7646,
      "##phology": 7647,
      "##(": 7648,
      "▁phil": 7649,
      "▁bund": 7650,
      "##ocol": 7651,
      "▁definition": 7652,
      "▁glancing": 7653,
      "▁repeating": 7654,
      "▁mountains": 7655,
      "▁destruc": 7656,
      "▁licenses": 7657,
      "▁doctors": 7658,
      "▁sixties": 7659,
      "##eor": 7660,
      "▁layover": 7661,
      "▁grumb": 7662,
      "##dens": 7663,
      "▁worms": 7664,
      "▁burger": 7665,
      "[MASK]": 7666,
      "▁char": 7667,
      "▁crit": 7668,
      "▁citizens": 7669,
      "##lands": 7670,
      "▁importance": 7671,
      "##ials": 7672,
      "▁deer": 7673,
      "▁flats": 7674,
      "▁undertaken": 7675,
      "▁gas": 7676,
      "▁vs": 7677,
      "▁erected": 7678,
      "##temp": 7679,
      "##ctuary": 7680,
      "▁publish": 7681,
      "▁being": 7682,
      "▁thurs": 7683,
      "▁ridic": 7684,
      "▁name": 7685,
      "▁experienced": 7686,
      "▁sticks": 7687,
      "##enment": 7688,
      "##way": 7689,
      "▁led": 7690,
      "▁science": 7691,
      "##inking": 7692,
      "▁raisin": 7693,
      "▁actor": 7694,
      "▁procrastination": 7695,
      "##oll": 7696,
      "▁finals": 7697,
      "▁deregulation": 7698,
      "▁recovering": 7699,
      "##ience": 7700,
      "▁sal": 7701,
      "▁chine": 7702,
      "##portun": 7703,
      "▁length": 7704,
      "##rabb": 7705,
      "▁day": 7706,
      "##bq": 7707,
      "▁teles": 7708,
      "▁neuro": 7709,
      "##lent": 7710,
      "▁napkins": 7711,
      "▁expects": 7712,
      "▁manuf": 7713,
      "▁bunch": 7714,
      "▁boiler": 7715,
      "##od": 7716,
      "▁planet": 7717,
      "▁treas": 7718,
      "▁arises": 7719,
      "▁cherished": 7720,
      "▁lack": 7721,
      "##sting": 7722,
      "▁yelling": 7723,
      "##eren": 7724,
      "##set": 7725,
      "▁shuttle": 7726,
      "▁ignoring": 7727,
      "##fs": 7728,
      "▁per": 7729,
      "##houses": 7730,
      "##iddit": 7731,
      "▁deficiency": 7732,
      "▁tre": 7733,
      "▁vehicle": 7734,
      "▁fertili": 7735,
      "▁routine": 7736,
      "▁…": 7737,
      "▁disciplines": 7738,
      "▁aver": 7739,
      "▁reconstr": 7740,
      "▁motorc": 7741,
      "▁rows": 7742,
      "▁doctor": 7743,
      "##fa": 7744,
      "▁vet": 7745,
      "▁motivated": 7746,
      "##tra": 7747,
      "##repres": 7748,
      "##anza": 7749,
      "##bled": 7750,
      "▁domain": 7751,
      "▁category": 7752,
      "▁member": 7753,
      "▁radi": 7754,
      "▁smeared": 7755,
      "▁forecast": 7756,
      "▁topics": 7757,
      "▁dope": 7758,
      "▁che": 7759,
      "▁smal": 7760,
      "▁schedul": 7761,
      "▁fortunes": 7762,
      "▁censor": 7763,
      "▁morality": 7764,
      "▁soph": 7765,
      "▁defence": 7766,
      "▁favoured": 7767,
      "▁retail": 7768,
      "▁s/he": 7769,
      "▁spinning": 7770,
      "▁danced": 7771,
      "##itch": 7772,
      "▁augmentation": 7773,
      "▁origin": 7774,
      "##gill": 7775,
      "▁manti": 7776,
      "▁cincinnati": 7777,
      "▁frow": 7778,
      "▁femora": 7779,
      "▁lar": 7780,
      "▁discrimination": 7781,
      "▁experiencing": 7782,
      "▁haste": 7783,
      "▁delive": 7784,
      "##oves": 7785,
      "▁ourselves": 7786,
      "▁fox": 7787,
      "▁tot": 7788,
      "▁rhy": 7789,
      "▁induced": 7790,
      "▁awa": 7791,
      "##ul": 7792,
      "##ors": 7793,
      "▁hamm": 7794,
      "##pan": 7795,
      "▁babies": 7796,
      "##ularly": 7797,
      "▁participate": 7798,
      "▁recall": 7799,
      "▁kittens": 7800,
      "▁grandmother": 7801,
      "##gation": 7802,
      "▁experiment": 7803,
      "##gins": 7804,
      "▁french": 7805,
      "▁neighboring": 7806,
      "▁flicker": 7807,
      "▁mom": 7808,
      "▁ho": 7809,
      "##ρ": 7810,
      "▁economy": 7811,
      "▁basis": 7812,
      "▁salsa": 7813,
      "▁leap": 7814,
      "a": 7815,
      "##ula": 7816,
      "▁authors": 7817,
      "##+re": 7818,
      "▁welcome": 7819,
      "▁cont": 7820,
      "▁shrim": 7821,
      "▁bees": 7822,
      "▁fing": 7823,
      "##an": 7824,
      "▁deposited": 7825,
      "▁kang": 7826,
      "▁installed": 7827,
      "##uggles": 7828,
      "▁candles": 7829,
      "▁massage": 7830,
      "▁kid": 7831,
      "▁despit": 7832,
      "▁grace": 7833,
      "▁funnel": 7834,
      "▁subst": 7835,
      "▁cider": 7836,
      "▁squirter": 7837,
      "▁survey": 7838,
      "▁clown": 7839,
      "▁valuing": 7840,
      "▁stepping": 7841,
      "▁[": 7842,
      "##bility": 7843,
      "[UNK]": 7844,
      "▁marble": 7845,
      "▁moun": 7846,
      "▁achieve": 7847,
      "▁yester": 7848,
      "##afts": 7849,
      "▁hungry": 7850,
      "▁laser": 7851,
      "##ighb": 7852,
      "▁able": 7853,
      "▁guests": 7854,
      "▁comprom": 7855,
      "▁assisting": 7856,
      "##erted": 7857,
      "▁stays": 7858,
      "▁partners": 7859,
      "▁timed": 7860,
      "▁responds": 7861,
      "▁hards": 7862,
      "##rd": 7863,
      "▁boost": 7864,
      "##unami": 7865,
      "▁timer": 7866,
      "▁harmon": 7867,
      "##force": 7868,
      "▁drill": 7869,
      "▁w/": 7870,
      "▁might": 7871,
      "▁/": 7872,
      "▁singing": 7873,
      "▁scr": 7874,
      "▁speculation": 7875,
      "▁cottage": 7876,
      "▁philosopher": 7877,
      "▁indicate": 7878,
      "▁wors": 7879,
      "▁coll": 7880,
      "▁reproduction": 7881,
      "▁improved": 7882,
      "##uling": 7883,
      "##atter": 7884,
      "▁ascending": 7885,
      "▁authorities": 7886,
      "▁sniffed": 7887,
      "▁saw": 7888,
      "▁straw": 7889,
      "▁examining": 7890,
      "▁consulted": 7891,
      "##ba": 7892,
      "▁refusing": 7893,
      "▁israel": 7894,
      "▁......": 7895,
      "##sd": 7896,
      "▁gm": 7897,
      "##eti": 7898,
      "▁e-": 7899,
      "##alization": 7900,
      "▁liqu": 7901,
      "##faced": 7902,
      "▁grandfather": 7903,
      "▁concrete": 7904,
      "▁rul": 7905,
      "▁pleased": 7906,
      "▁elections": 7907,
      "##berry": 7908,
      "##ky": 7909,
      "▁charles": 7910,
      "▁ic": 7911,
      "▁bur": 7912,
      "▁bosom": 7913,
      "▁lemon": 7914,
      "##pensive": 7915,
      "##mission": 7916,
      "▁clarity": 7917,
      "##uate": 7918,
      "▁guit": 7919,
      "▁ambulances": 7920,
      "▁gift": 7921,
      "▁luxury": 7922,
      "##rance": 7923,
      "▁'re": 7924,
      "▁sounding": 7925,
      "▁substit": 7926,
      "▁completely": 7927,
      "##loy": 7928,
      "▁louds": 7929,
      "▁manage": 7930,
      "▁met": 7931,
      "▁[...": 7932,
      "▁soc": 7933,
      "##/he": 7934,
      "▁wite": 7935,
      "▁carp": 7936,
      "▁disappointed": 7937,
      "▁disclose": 7938,
      "▁mayonnaise": 7939,
      "▁collaborate": 7940,
      "▁transfer": 7941,
      "##ber": 7942,
      "##ocentrism": 7943,
      "▁ail": 7944,
      "##gain": 7945,
      "▁harmony": 7946,
      "▁journalist": 7947,
      "▁square": 7948,
      "▁movement": 7949,
      "##tician": 7950,
      "▁transferred": 7951,
      "▁top": 7952,
      "▁exe": 7953,
      "▁cocktail": 7954,
      "▁bothered": 7955,
      "▁pra": 7956,
      "▁enable": 7957,
      "▁secession": 7958,
      "▁isd": 7959,
      "▁victory": 7960,
      "▁direct": 7961,
      "▁possible": 7962,
      "▁zeitge": 7963,
      "##ment": 7964,
      "▁'em": 7965,
      "##'et": 7966,
      "▁“": 7967,
      "##ash": 7968,
      "▁al": 7969,
      "▁cam": 7970,
      "▁construct": 7971,
      "▁repeat": 7972,
      "▁trusted": 7973,
      "▁gdp": 7974,
      "##irus": 7975,
      "▁assure": 7976,
      "▁allow": 7977,
      "▁ment": 7978,
      "▁rains": 7979,
      "▁berry": 7980,
      "##ay": 7981,
      "##abilities": 7982,
      "##ists": 7983,
      "▁turmoil": 7984,
      "▁nipple": 7985,
      "▁sanctuary": 7986,
      "▁affected": 7987,
      "▁founders": 7988,
      "▁counterfe": 7989,
      "▁hippop": 7990,
      "▁fence": 7991,
      "▁fly": 7992,
      "▁licensor": 7993,
      "▁nuclear": 7994,
      "##.ve": 7995,
      "##rehension": 7996,
      "▁seats": 7997,
      "▁jokes": 7998,
      "▁aggre": 7999,
      "##æ": 8000,
      "▁according": 8001,
      "##biting": 8002,
      "▁games": 8003,
      "œ": 8004,
      "##pay": 8005,
      "▁hero": 8006,
      "▁named": 8007,
      "▁motorcycle": 8008,
      "##c": 8009,
      "▁sunglasses": 8010,
      "▁pinky": 8011,
      "▁what": 8012,
      "##low": 8013,
      "▁stories": 8014,
      "##ns": 8015,
      "<": 8016,
      "▁sounds": 8017,
      "##xth": 8018,
      "▁swede": 8019,
      "##yc": 8020,
      "▁mechanics": 8021,
      "▁disability": 8022,
      "##ivity": 8023,
      "##:1": 8024,
      "##icted": 8025,
      "▁ret": 8026,
      "▁images": 8027,
      "##cope": 8028,
      "▁updated": 8029,
      "▁jumped": 8030,
      "▁ceiling": 8031,
      "##ply": 8032,
      "▁source": 8033,
      "▁suited": 8034,
      "▁toys": 8035,
      "▁recovery": 8036,
      "▁crab": 8037,
      "▁photograp": 8038,
      "▁paying": 8039,
      "▁shakes": 8040,
      "▁developed": 8041,
      "▁crosses": 8042,
      "▁seeing": 8043,
      "##istency": 8044,
      "▁conclude": 8045,
      "▁broadc": 8046,
      "▁reaffirm": 8047,
      "▁9th": 8048,
      "▁emiss": 8049,
      "▁belie": 8050,
      "▁adopt": 8051,
      "▁retained": 8052,
      "▁prices": 8053,
      "▁no": 8054,
      "▁retire": 8055,
      "▁landings": 8056,
      "▁wife": 8057,
      "▁resize": 8058,
      "▁talked": 8059,
      "▁streets": 8060,
      "▁dropping": 8061,
      "##agement": 8062,
      "▁terrain": 8063,
      "▁apply": 8064,
      "▁excepted": 8065,
      "▁preparing": 8066,
      "▁earth": 8067,
      "▁answers": 8068,
      "▁tattoo": 8069,
      "##uction": 8070,
      "▁swung": 8071,
      "▁bitsy": 8072,
      "▁transmit": 8073,
      "##des": 8074,
      "▁thrive": 8075,
      "▁obtain": 8076,
      "▁twentieth": 8077,
      "▁amendments": 8078,
      "▁hoops": 8079,
      "▁31": 8080,
      "▁awaited": 8081,
      "##oul": 8082,
      "##-st": 8083,
      "▁strol": 8084,
      "▁shudder": 8085,
      "▁emails": 8086,
      "▁raging": 8087,
      "▁naima": 8088,
      "▁gigg": 8089,
      "▁cloud": 8090,
      "##6-1.xls": 8091,
      "▁fluff": 8092,
      "##rier": 8093,
      "##cery": 8094,
      "##unction": 8095,
      "▁interf": 8096,
      "##ij": 8097,
      "▁c": 8098,
      "▁l'": 8099,
      "▁moose": 8100,
      "▁defined": 8101,
      "##qui": 8102,
      "▁pec": 8103,
      "▁selected": 8104,
      "##aud": 8105,
      "▁toss": 8106,
      "##ml": 8107,
      "▁cruises": 8108,
      "▁catalog": 8109,
      "▁tab": 8110,
      "▁watering": 8111,
      "##craft": 8112,
      "##writ": 8113,
      "▁cur": 8114,
      "▁rose": 8115,
      "▁conform": 8116,
      "##ringing": 8117,
      "▁furniture": 8118,
      "▁bad": 8119,
      "##erry": 8120,
      "▁proof": 8121,
      "▁impression": 8122,
      "▁proponents": 8123,
      "##wering": 8124,
      "▁nickel": 8125,
      "▁bakes": 8126,
      "▁logo": 8127,
      "▁embed": 8128,
      "▁complete": 8129,
      "▁reminded": 8130,
      "▁struggling": 8131,
      "▁amongst": 8132,
      "##auce": 8133,
      "▁percentage": 8134,
      "▁sacrif": 8135,
      "##ozer": 8136,
      "▁waterways": 8137,
      "##90": 8138,
      "▁physi": 8139,
      "##tics": 8140,
      "▁tattoos": 8141,
      "▁bookst": 8142,
      "ʃ": 8143,
      "▁cuts": 8144,
      "▁thousand": 8145,
      "▁lanterns": 8146,
      "▁polic": 8147,
      "##keness": 8148,
      "▁honor": 8149,
      "▁seemed": 8150,
      "▁darn": 8151,
      "▁verse": 8152,
      "▁widely": 8153,
      "##bee": 8154,
      "▁styrof": 8155,
      "▁viewpoints": 8156,
      "▁guardian": 8157,
      "##ergy": 8158,
      "‘": 8159,
      "▁pricing": 8160,
      "▁disparities": 8161,
      "▁revenue": 8162,
      "▁eee": 8163,
      "▁herbs": 8164,
      "##alists": 8165,
      "▁conforms": 8166,
      "##ye": 8167,
      "##roduc": 8168,
      "▁executive": 8169,
      "▁op": 8170,
      "▁arrog": 8171,
      "##oplane": 8172,
      "▁vlog": 8173,
      "##ically": 8174,
      "▁dissolved": 8175,
      "▁something": 8176,
      "▁redistribution": 8177,
      "▁his": 8178,
      "▁llm": 8179,
      "▁hot": 8180,
      "▁deprived": 8181,
      "▁nod": 8182,
      "##ode": 8183,
      "##unte": 8184,
      "▁representations": 8185,
      "▁actually": 8186,
      "##raved": 8187,
      "▁chinese": 8188,
      "##-n": 8189,
      "▁cool": 8190,
      "▁blow": 8191,
      "▁occas": 8192,
      "##,": 8193,
      "##aucr": 8194,
      "▁personality": 8195,
      "▁lined": 8196,
      "▁reproduc": 8197,
      "##tiveness": 8198,
      "▁opportun": 8199,
      "▁veins": 8200,
      "##derstand": 8201,
      "##isation": 8202,
      "##ything": 8203,
      "##box": 8204,
      "▁initially": 8205,
      "▁coincides": 8206,
      "▁keeps": 8207,
      "##go": 8208,
      "##ith": 8209,
      "##lier": 8210,
      "▁cows": 8211,
      "##flower": 8212,
      "▁feels": 8213,
      "▁degrees": 8214,
      "▁opponent": 8215,
      "▁ninet": 8216,
      "▁approved": 8217,
      "▁negoti": 8218,
      "▁tunnel": 8219,
      "▁humor": 8220,
      "##place": 8221,
      "▁troubled": 8222,
      "##esis": 8223,
      "▁nothing": 8224,
      "##aches": 8225,
      "▁donor": 8226,
      "▁chalk": 8227,
      "▁flop": 8228,
      "▁leading": 8229,
      "▁greeted": 8230,
      "▁far": 8231,
      "##tiv": 8232,
      "##nocentrism": 8233,
      "▁commemorated": 8234,
      "▁vanished": 8235,
      "▁soy": 8236,
      "▁circular": 8237,
      "##attered": 8238,
      "##liday": 8239,
      "▁calls": 8240,
      "##angled": 8241,
      "▁scuba": 8242,
      "▁tofu": 8243,
      "▁chrome": 8244,
      "▁thoughts": 8245,
      "▁projecting": 8246,
      "▁40": 8247,
      "##phie": 8248,
      "▁pace": 8249,
      "▁preserve": 8250,
      "▁gathered": 8251,
      "##?": 8252,
      "▁silkies": 8253,
      "▁directive": 8254,
      "▁ministers": 8255,
      "▁melted": 8256,
      "▁helicopters": 8257,
      "▁avoided": 8258,
      "▁ingred": 8259,
      "▁pie": 8260,
      "▁mass": 8261,
      "##rum": 8262,
      "▁resu": 8263,
      "▁heads": 8264,
      "##ride": 8265,
      "▁appearing": 8266,
      "##ero": 8267,
      "▁seminars": 8268,
      "▁traveled": 8269,
      "##cuse": 8270,
      "##ued": 8271,
      "▁integr": 8272,
      "▁patter": 8273,
      "▁contractor": 8274,
      "##right": 8275,
      "##gue": 8276,
      "▁sausages": 8277,
      "▁authority": 8278,
      "▁concluded": 8279,
      "▁shack": 8280,
      "▁helpful": 8281,
      "##)": 8282,
      "▁therapy": 8283,
      "▁decrease": 8284,
      "##finger": 8285,
      "▁retraction": 8286,
      "▁denying": 8287,
      "▁quaffle": 8288,
      "▁yeah": 8289,
      "▁therapist": 8290,
      "▁enough": 8291,
      "##osh": 8292,
      "▁ital": 8293,
      "▁bible": 8294,
      "▁pang": 8295,
      "▁cler": 8296,
      "▁populations": 8297,
      "▁maw": 8298,
      "▁explo": 8299,
      "##ant": 8300,
      "▁help": 8301,
      "##vals": 8302,
      "▁brushing": 8303,
      "▁wandered": 8304,
      "▁describe": 8305,
      "▁would": 8306,
      "▁hop": 8307,
      "▁helps": 8308,
      "▁federal": 8309,
      "▁wow": 8310,
      "▁opin": 8311,
      "▁islamists": 8312,
      "▁surplus": 8313,
      "▁global": 8314,
      "▁worried": 8315,
      "▁arrested": 8316,
      "▁almond": 8317,
      "##aughter": 8318,
      "æ": 8319,
      "##bus": 8320,
      "▁declaring": 8321,
      "##eries": 8322,
      "▁dus": 8323,
      "▁business": 8324,
      "'": 8325,
      "##ialism": 8326,
      "▁prod": 8327,
      "▁rep": 8328,
      "##ments": 8329,
      "▁hashtag": 8330,
      "▁stored": 8331,
      "▁hauling": 8332,
      "##dled": 8333,
      "##gie": 8334,
      "▁driving": 8335,
      "▁dar": 8336,
      "▁28": 8337,
      "▁plan": 8338,
      "##tle": 8339,
      "▁live": 8340,
      "▁powers": 8341,
      "▁quotes": 8342,
      "▁absolut": 8343,
      "▁august": 8344,
      "▁content": 8345,
      "▁aside": 8346,
      "▁became": 8347,
      "▁hung": 8348,
      "▁perf": 8349,
      "▁flag": 8350,
      "##neath": 8351,
      "▁thro": 8352,
      "▁dear": 8353,
      "▁succumb": 8354,
      "▁mpg": 8355,
      "▁2014": 8356,
      "▁reflected": 8357,
      "▁30th": 8358,
      "▁scott": 8359,
      "##ifted": 8360,
      "##tice": 8361,
      "##ilize": 8362,
      "##rosp": 8363,
      "##lement": 8364,
      "▁ron": 8365,
      "▁diss": 8366,
      "▁sens": 8367,
      "▁_____": 8368,
      "▁liability": 8369,
      "▁adver": 8370,
      "▁architect": 8371,
      "▁fitness": 8372,
      "▁attractions": 8373,
      "##eri": 8374,
      "##ie": 8375,
      "▁activ": 8376,
      "##hood": 8377,
      "▁learned": 8378,
      "▁revol": 8379,
      "▁humped": 8380,
      "▁allig": 8381,
      "▁recorded": 8382,
      "##ping": 8383,
      "▁finger": 8384,
      "▁coconut": 8385,
      "▁reminds": 8386,
      "▁swinging": 8387,
      "▁switched": 8388,
      "##pple": 8389,
      "▁saus": 8390,
      "▁exem": 8391,
      "▁apar": 8392,
      "▁so": 8393,
      "▁vince": 8394,
      "##rel": 8395,
      "##less": 8396,
      "##ox": 8397,
      "▁rhino": 8398,
      "▁realization": 8399,
      "▁creative": 8400,
      "▁ale": 8401,
      "##science": 8402,
      "▁march": 8403,
      "▁concre": 8404,
      "##in": 8405,
      "▁measures": 8406,
      "▁abstr": 8407,
      "##eeled": 8408,
      "##ell": 8409,
      "▁greatly": 8410,
      "▁explained": 8411,
      "▁alar": 8412,
      "▁organized": 8413,
      "##pent": 8414,
      "▁databases": 8415,
      "▁guilty": 8416,
      "▁viol": 8417,
      "##enn": 8418,
      "▁vis": 8419,
      "▁rejects": 8420,
      "▁fair": 8421,
      "▁erec": 8422,
      "##vance": 8423,
      "▁!.": 8424,
      "##ancer": 8425,
      "▁favour": 8426,
      "▁cooperation": 8427,
      "▁hoax": 8428,
      "##rits": 8429,
      "▁bookstore": 8430,
      "▁gotted": 8431,
      "##utor": 8432,
      "##kin": 8433,
      "▁knights": 8434,
      "▁doom": 8435,
      "##inc": 8436,
      "▁yawning": 8437,
      "▁wheelchair": 8438,
      "##onde": 8439,
      "##cut": 8440,
      "##7h": 8441,
      "▁season": 8442,
      "▁astr": 8443,
      "▁estab": 8444,
      "##arn": 8445,
      "▁former": 8446,
      "▁ak": 8447,
      "▁openness": 8448,
      "##gate": 8449,
      "▁wild": 8450,
      "▁influ": 8451,
      "▁tire": 8452,
      "▁pole": 8453,
      "▁qualifications": 8454,
      "▁accepting": 8455,
      "▁disgorgement": 8456,
      "▁intervening": 8457,
      "▁citation": 8458,
      "▁hasidim": 8459,
      "##front": 8460,
      "▁active": 8461,
      "▁invites": 8462,
      "##alize": 8463,
      "▁explor": 8464,
      "##ibs": 8465,
      "▁versus": 8466,
      "▁outcom": 8467,
      "▁attrition": 8468,
      "▁commentaries": 8469,
      "▁columns": 8470,
      "▁thri": 8471,
      "▁towed": 8472,
      "▁solem": 8473,
      "##inos": 8474,
      "▁freedoms": 8475,
      "##entralized": 8476,
      "##aties": 8477,
      "##kers": 8478,
      "▁iraq": 8479,
      "##eu": 8480,
      "▁mike": 8481,
      "##mpl": 8482,
      "▁.......": 8483,
      "▁elbow": 8484,
      "▁applications": 8485,
      "▁targeting": 8486,
      "▁headache": 8487,
      "▁uneasiness": 8488,
      "▁calculating": 8489,
      "▁hal": 8490,
      "##uj": 8491,
      "▁cafeteria": 8492,
      "▁;": 8493,
      "▁soci": 8494,
      "▁absence": 8495,
      "▁are": 8496,
      "▁anc": 8497,
      "▁t3i": 8498,
      "▁fortune": 8499,
      "##even": 8500,
      "▁scanning": 8501,
      "##atitude": 8502,
      "▁jus": 8503,
      "##merce": 8504,
      "▁burs": 8505,
      "▁ciac": 8506,
      "▁agre": 8507,
      "##tyard": 8508,
      "##iddish": 8509,
      "▁if": 8510,
      "▁educated": 8511,
      "▁cannon": 8512,
      "▁kent": 8513,
      "▁oc": 8514,
      "▁kingdom": 8515,
      "##imore": 8516,
      "▁disagree": 8517,
      "##-l": 8518,
      "▁hello": 8519,
      "▁sched": 8520,
      "##ured": 8521,
      "▁expire": 8522,
      "▁evaluate": 8523,
      "##'clock": 8524,
      "▁tomato": 8525,
      "##oni": 8526,
      "▁majority": 8527,
      "▁realize": 8528,
      "▁leot": 8529,
      "▁amm": 8530,
      "▁stirrups": 8531,
      "▁infinity": 8532,
      "▁seeking": 8533,
      "▁conve": 8534,
      "##erned": 8535,
      "▁vegetable": 8536,
      "▁repaired": 8537,
      "▁straightened": 8538,
      "▁cabins": 8539,
      "▁enculturation": 8540,
      "▁morphology": 8541,
      "▁posture": 8542,
      "##ightened": 8543,
      "##acts": 8544,
      "▁promise": 8545,
      "▁successfully": 8546,
      "▁ranch": 8547,
      "▁general": 8548,
      "▁heaven": 8549,
      "##ious": 8550,
      "r": 8551,
      "##lds": 8552,
      "▁accountant": 8553,
      "▁cauldron": 8554,
      "▁inscriptions": 8555,
      "##clock": 8556,
      "▁entrance": 8557,
      "##og": 8558,
      "▁leaf": 8559,
      "▁accomm": 8560,
      "##overy": 8561,
      "▁items": 8562,
      "##iol": 8563,
      "▁qua": 8564,
      "▁transl": 8565,
      "▁wang": 8566,
      "▁x33": 8567,
      "##su": 8568,
      "▁ranked": 8569,
      "▁airports": 8570,
      "##gers": 8571,
      "▁serving": 8572,
      "▁appointment": 8573,
      "▁planted": 8574,
      "##asure": 8575,
      "##unic": 8576,
      "▁role": 8577,
      "##tp": 8578,
      "▁damn": 8579,
      "##lo": 8580,
      "▁broad": 8581,
      "▁assassinated": 8582,
      "##iencies": 8583,
      "▁sensation": 8584,
      "▁shakespeare": 8585,
      "▁tele": 8586,
      "▁lope": 8587,
      "▁kitty": 8588,
      "##ved": 8589,
      "▁until": 8590,
      "##hrm": 8591,
      "▁ground": 8592,
      "▁wangs": 8593,
[...]
