{
  "version": "1.0",
  "truncation": null,
  "padding": null,
  "added_tokens": [
    {
      "id": 347,
      "content": "[CLS]",
      "single_word": false,
      "lstrip": false,
      "rstrip": false,
      "normalized": false,
      "special": true
    },
    {
      "id": 1112,
      "content": "[UNK]",
      "single_word": false,
      "lstrip": false,
      "rstrip": false,
      "normalized": false,
      "special": true
    },
    {
      "id": 1622,
      "content": "[MASK]",
      "single_word": false,
      "lstrip": false,
      "rstrip": false,
      "normalized": false,
      "special": true
    },
    {
      "id": 3130,
      "content": "[SEP]",
      "single_word": false,
      "lstrip": false,
      "rstrip": false,
      "normalized": false,
      "special": true
    },
    {
      "id": 3939,
      "content": "[PAD]",
      "single_word": false,
      "lstrip": false,
      "rstrip": false,
      "normalized": false,
      "special": true
    }
  ],
  "normalizer": {
    "type": "Sequence",
    "normalizers": [
      {
        "type": "NFD"
      },
      {
        "type": "Lowercase"
      },
      {
        "type": "StripAccents"
      }
    ]
  },
  "pre_tokenizer": {
    "type": "Sequence",
    "pretokenizers": [
      {
        "type": "Metaspace",
        "replacement": "▁",
        "prepend_scheme": "always",
        "split": true
      }
    ]
  },
  "post_processor": {
    "type": "TemplateProcessing",
    "single": [
      {
        "SpecialToken": {
          "id": "[CLS]",
          "type_id": 0
        }
      },
      {
        "Sequence": {
          "id": "A",
          "type_id": 0
        }
      },
      {
        "SpecialToken": {
          "id": "[SEP]",
          "type_id": 0
        }
      }
    ],
    "pair": [
      {
        "SpecialToken": {
          "id": "[CLS]",
          "type_id": 0
        }
      },
      {
        "Sequence": {
          "id": "A",
          "type_id": 0
        }
      },
      {
        "SpecialToken": {
          "id": "[SEP]",
          "type_id": 0
        }
      },
      {
        "Sequence": {
          "id": "B",
          "type_id": 1
        }
      },
      {
        "SpecialToken": {
          "id": "[SEP]",
          "type_id": 1
        }
      }
    ],
    "special_tokens": {
      "[CLS]": {
        "id": "[CLS]",
        "ids": [
          347
        ],
        "tokens": [
          "[CLS]"
        ]
      },
      "[SEP]": {
        "id": "[SEP]",
        "ids": [
          3130
        ],
        "tokens": [
          "[SEP]"
        ]
      }
    }
  },
  "decoder": {
    "type": "Metaspace",
    "replacement": "▁",
    "prepend_scheme": "always",
    "split": true
  },
  "model": {
    "type": "Unigram",
    "unk_id": 1112,
    "vocab": [
      [
        "▁future",
        -7.789037103628768
      ],
      [
        "▁path",
        -8.403055722158694
      ],
      [
        "▁declare",
        -8.58821911898314
      ],
      [
        "▁production",
        -8.652641772090615
      ],
      [
        "▁salad",
        -8.58678531671425
      ],
      [
        "2",
        -11.770631529841472
      ],
      [
        "▁knowledge",
        -8.1184193394843
      ],
      [
        "----",
        -10.83180367459837
      ],
      [
        "▁post",
        -7.878502570412043
      ],
      [
        "▁warm",
        -9.092386316359836
      ],
      [
        "▁interest",
        -7.3138463008365235
      ],
      [
        "got",
        -10.98607480809809
      ],
      [
        "▁book",
        -6.396482390770305
      ],
      [
        "▁a",
        -7.227841123730134
      ],
      [
        "m",
        -5.207345861107033
      ],
      [
        "ious",
        -7.178441696046659
      ],
      [
        "▁one",
        -5.634758520204922
      ],
      [
        "tho",
        -10.448055372352602
      ],
      [
        "▁base",
        -7.837463717445983
      ],
      [
        "ce",
        -7.959106722472015
      ],
      [
        "b",
        -10.475491467591677
      ],
      [
        "ade",
        -9.163853728411702
      ],
      [
        "7",
        -9.216902069764286
      ],
      [
        "▁shoot",
        -8.514553830619484
      ],
      [
        "▁cer",
        -6.993604117416121
      ],
      [
        "▁grammar",
        -8.960263484107442
      ],
      [
        "▁industr",
        -7.953873036340948
      ],
      [
        "or",
        -7.085234330232892
      ],
      [
        "▁prob",
        -5.886808177766353
      ],
      [
        "▁partner",
        -8.819534586194884
      ],
      [
        "▁computer",
        -7.800936317011006
      ],
      [
        "▁move",
        -6.640303779448729
      ],
      [
        "▁ensure",
        -7.629783506026659
      ],
      [
        "▁pre",
        -7.769928746563558
      ],
      [
        "▁sport",
        -8.613737138579312
      ],
      [
        "▁park",
        -9.212673940397465
      ],
      [
        "▁plant",
        -8.843420525445511
      ],
      [
        "▁something",
        -8.464707426664663
      ],
      [
        "▁release",
        -8.105118794128881
      ],
      [
        "▁arrest",
        -9.02482456647259
      ],
      [
        "back",
        -9.051409592315474
      ],
      [
        "▁sa",
        -7.244434071501281
      ],
      [
        "▁schedule",
        -8.64038540932323
      ],
      [
        "▁whole",
        -6.270126945865008
      ],
      [
        "pear",
        -6.47487379413309
      ],
      [
        "s",
        -5.850145103808338
      ],
      [
        "doc",
        -8.597775714188025
      ],
      [
        "▁j",
        -8.51712425535688
      ],
      [
        "▁female",
        -8.998725728600236
      ],
      [
        "▁how",
        -3.9468069168529585
      ],
      [
        "is",
        -6.551512324352629
      ],
      [
        "▁balzac",
        -6.776892985365578
      ],
      [
        "hes",
        -13.2536395611446
      ],
      [
        "▁trie",
        -7.719057135202351
      ],
      [
        "▁enjoy",
        -6.958235282635593
      ],
      [
        "▁baby",
        -6.500569538443069
      ],
      [
        "▁preserve",
        -8.929681157232357
      ],
      [
        "▁doughnut",
        -8.960272485267838
      ],
      [
        "▁angel",
        -6.9111024378697525
      ],
      [
        "▁difficult",
        -8.640123998122338
      ],
      [
        "▁6",
        -4.915061083533738
      ],
      [
        "▁ba",
        -8.63554649482305
      ],
      [
        "tel",
        -6.390730603715606
      ],
      [
        "▁+",
        -12.232017845449422
      ],
      [
        "▁regard",
        -7.5181281910160465
      ],
      [
        "o",
        -4.2167080953592855
      ],
      [
        "▁evening",
        -7.092884842754999
      ],
      [
        "▁serve",
        -6.80670337700455
      ],
      [
        "▁blanket",
        -8.536227541970277
      ],
      [
        "▁)",
        -8.967339649659891
      ],
      [
        "▁din",
        -9.103629886181892
      ],
      [
        "f",
        -7.281137016091158
      ],
      [
        "abou",
        -8.011008626944378
      ],
      [
        "▁be",
        -3.5847357895147223
      ],
      [
        "▁local",
        -6.57751425338309
      ],
      [
        "▁short",
        -6.594763792945896
      ],
      [
        "d",
        -6.638356827931881
      ],
      [
        "▁experience",
        -8.330738398453974
      ],
      [
        "ami",
        -6.501920155674308
      ],
      [
        "▁separate",
        -8.89988291275871
      ],
      [
        "▁artwork",
        -9.170000365066286
      ],
      [
        "▁qa",
        -7.083499219665282
      ],
      [
        "{",
        -11.810278406305976
      ],
      [
        "▁commissioner",
        -8.943416559594128
      ],
      [
        "no",
        -6.988244225294419
      ],
      [
        "▁arrive",
        -6.562010512051669
      ],
      [
        "▁warn",
        -9.088006577371866
      ],
      [
        "rank",
        -8.979148090616182
      ],
      [
        "▁un",
        -5.798991763268779
      ],
      [
        "▁result",
        -7.909088133194663
      ],
      [
        "▁stretch",
        -8.470534988847277
      ],
      [
        "▁su",
        -7.568302466784634
      ],
      [
        "▁push",
        -7.134800138392693
      ],
      [
        "▁attache",
        -7.394647312444762
      ],
      [
        "ow",
        -10.59600381348684
      ],
      [
        "▁k",
        -6.5623053975473455
      ],
      [
        "▁no",
        -8.615805374393982
      ],
      [
        "▁dust",
        -8.854501243006428
      ],
      [
        "▁present",
        -7.660713438513456
      ],
      [
        "▁competition",
        -8.66806701648105
      ],
      [
        "▁flavor",
        -8.923226451209459
      ],
      [
        "▁av",
        -6.077044743235184
      ],
      [
        "c",
        -7.9821038333714105
      ],
      [
        "▁percentage",
        -8.071384263197615
      ],
      [
        "▁participa",
        -9.038718271847008
      ],
      [
        "▁mind",
        -8.62897434810612
      ],
      [
        "▁one",
        -6.966178114737579
      ],
      [
        "▁plate",
        -8.488221259044355
      ],
      [
        "▁love",
        -6.439965781634038
      ],
      [
        "▁low",
        -7.220900580056894
      ],
      [
        "▁sleep",
        -8.355890799369575
      ],
      [
        "▁crowd",
        -8.960264387560278
      ],
      [
        "▁wif",
        -7.413257984908348
      ],
      [
        "ition",
        -8.98917662145875
      ],
      [
        "▁percent",
        -8.275786676170393
      ],
      [
        "▁fac",
        -8.919032331187946
      ],
      [
        "vs",
        -12.525459860751756
      ],
      [
        "ful",
        -5.211743761945356
      ],
      [
        "▁ours",
        -11.444714850985516
      ],
      [
        ".com",
        -6.587277844321583
      ],
      [
        "lta",
        -6.9410919169734
      ],
      [
        "▁infrastructure",
        -9.038725017166236
      ],
      [
        "▁rely",
        -9.145980370528957
      ],
      [
        "▁entit",
        -8.853128391993668
      ],
      [
        "dom",
        -9.194902981039345
      ],
      [
        "▁joke",
        -7.754459953938312
      ],
      [
        "▁debt",
        -9.218993946644222
      ],
      [
        "▁appear",
        -7.128079295413724
      ],
      [
        "man",
        -6.614414434088506
      ],
      [
        "▁with",
        -4.952485445949646
      ],
      [
        "▁xm",
        -7.149206549637241
      ],
      [
        "▁ha",
        -4.343238869011367
      ],
      [
        "▁prett",
        -6.0774269011538085
      ],
      [
        "l",
        -7.778878820001796
      ],
      [
        "▁wall",
        -7.812760309924042
      ],
      [
        "▁neighbour",
        -9.216772335824786
      ],
      [
        "▁parent",
        -7.597973588209074
      ],
      [
        "re",
        -8.421918623493923
      ],
      [
        "▁th",
        -6.197413388272319
      ],
      [
        "▁carbon",
        -9.216979986582473
      ],
      [
        "▁produce",
        -7.63749091094875
      ],
      [
        "▁",
        -1.4271932053481233
      ],
      [
        "rash",
        -9.043467120679367
      ],
      [
        "▁village",
        -9.216944207104724
      ],
      [
        "▁us",
        -6.733375629151908
      ],
      [
        "k",
        -12.810278406305976
      ],
      [
        "▁wo",
        -7.25034794109828
      ],
      [
        "▁pe",
        -7.653575341127877
      ],
      [
        "-",
        -5.0561714688933765
      ],
      [
        "▁focus",
        -8.049303936102298
      ],
      [
        "▁b",
        -6.787231881305394
      ],
      [
        "▁fact",
        -6.925250659712235
      ],
      [
        "ty",
        -6.4139229126522626
      ],
      [
        "▁which",
        -6.392990913741314
      ],
      [
        "▁fixed",
        -7.9833664899746974
      ],
      [
        "▁onl",
        -4.832955045729422
      ],
      [
        "▁mess",
        -9.13529534665706
      ],
      [
        "▁traged",
        -9.16932483231328
      ],
      [
        "_",
        -5.201045034743488
      ],
      [
        "▁th",
        -4.4762210506779
      ],
      [
        "ter",
        -7.365013215623208
      ],
      [
        "▁kitt",
        -7.981335639531538
      ],
      [
        "▁reach",
        -7.623129132054625
      ],
      [
        "f",
        -8.905782894141495
      ],
      [
        "later",
        -5.988474399927434
      ],
      [
        "ock",
        -6.949752816097767
      ],
      [
        "▁the",
        -1.5036323933989628
      ],
      [
        "▁collect",
        -7.953103109768134
      ],
      [
        "--------------",
        -9.810432193692524
      ],
      [
        "▁act",
        -8.31177302297877
      ],
      [
        "▁thr",
        -4.171737371864407
      ],
      [
        "▁request",
        -8.086417664276423
      ],
      [
        "▁affair",
        -8.787438095747412
      ],
      [
        "▁touch",
        -7.580939470623513
      ],
      [
        "▁expectation",
        -8.923317100997785
      ],
      [
        "▁de",
        -7.396430300391956
      ],
      [
        "▁help",
        -7.578754029107365
      ],
      [
        "ton",
        -6.705703888198631
      ],
      [
        "▁cop",
        -8.740136652838359
      ],
      [
        "▁pool",
        -8.854340121391436
      ],
      [
        "▁increas",
        -8.53900235210116
      ],
      [
        "▁sold",
        -8.854102639208472
      ],
      [
        "ap",
        -8.545134066423048
      ],
      [
        "sept",
        -8.855690496192993
      ],
      [
        "...............",
        -11.214670331718136
      ],
      [
        "▁scal",
        -8.854262280581608
      ],
      [
        "▁expert",
        -8.18567096301599
      ],
      [
        "▁police",
        -7.852645463891125
      ],
      [
        "▁train",
        -8.089393905948796
      ],
      [
        "▁grass",
        -8.94542382781986
      ],
      [
        "e",
        -2.8147556323144673
      ],
      [
        "in",
        -8.591787719139312
      ],
      [
        "▁match",
        -8.72612906053959
      ],
      [
        "▁hill",
        -9.12476352692493
      ],
      [
        "▁initiate",
        -8.949744924277967
      ],
      [
        "▁bal",
        -5.2300750565320575
      ],
      [
        "▁woke",
        -8.96938748504948
      ],
      [
        "▁old",
        -5.586906487994287
      ],
      [
        "▁eight",
        -5.45617522748721
      ],
      [
        "▁st",
        -7.966507023412857
      ],
      [
        "▁threaten",
        -8.917157554625366
      ],
      [
        "▁thing",
        -5.613395197413895
      ],
      [
        "▁punch",
        -8.91668404709228
      ],
      [
        "▁stoo",
        -7.955751216508731
      ],
      [
        "k",
        -6.427881069140615
      ],
      [
        "▁split",
        -9.212272108411229
      ],
      [
        "▁form",
        -7.229122621167228
      ],
      [
        "▁worth",
        -6.937472774448308
      ],
      [
        "▁difference",
        -7.6080850461007525
      ],
      [
        "▁recall",
        -8.775931441520877
      ],
      [
        "’",
        -5.269098193125767
      ],
      [
        "▁master",
        -8.79278366680871
      ],
      [
        "▁books",
        -8.27199941135079
      ],
      [
        "▁prof",
        -7.238375070861989
      ],
      [
        "▁note",
        -7.834116089145225
      ],
      [
        "▁asset",
        -9.125329721614333
      ],
      [
        "wau",
        -6.330383459265543
      ],
      [
        "e",
        -9.262538749109531
      ],
      [
        "dy",
        -7.034797477489856
      ],
      [
        "▁fish",
        -7.29041536295049
      ],
      [
        "amb",
        -8.749151654427784
      ],
      [
        "▁house",
        -6.352613214970077
      ],
      [
        "▁rain",
        -8.276687297536638
      ],
      [
        "▁ph",
        -9.177900458162007
      ],
      [
        "▁harr",
        -6.233282355421757
      ],
      [
        "▁shop",
        -7.733025084514147
      ],
      [
        "tic",
        -8.8265499572987
      ],
      [
        "▁represent",
        -7.84192061450014
      ],
      [
        "▁default",
        -9.217288104727706
      ],
      [
        "▁mixe",
        -9.18631769402687
      ],
      [
        "▁part",
        -6.0202728201655535
      ],
      [
        "“",
        -6.491662973714449
      ],
      [
        "▁polic",
        -8.78420342838983
      ],
      [
        "▁set",
        -8.024593500316847
      ],
      [
        "ing",
        -7.042262489258168
      ],
      [
        "il",
        -6.496875214286308
      ],
      [
        "port",
        -6.54582352667329
      ],
      [
        "▁won",
        -8.47883821519625
      ],
      [
        "ell",
        -7.1683916806056445
      ],
      [
        "▁cook",
        -9.135021460988003
      ],
      [
        "of",
        -8.026473360529637
      ],
      [
        "/",
        -11.20763530558339
      ],
      [
        "o",
        -6.147997236814882
      ],
      [
        "▁good",
        -8.071050115508168
      ],
      [
        "<",
        -7.228670777278908
      ],
      [
        "▁component",
        -8.613096972182158
      ],
      [
        "▁anthr",
        -8.613108446781391
      ],
      [
        "▁giv",
        -7.768671001064653
      ],
      [
        "▁complet",
        -9.42658221300684
      ],
      [
        "i",
        -4.958782707846554
      ],
      [
        "▁generate",
        -8.75601484485504
      ],
      [
        "▁george",
        -6.776890662826511
      ],
      [
        "▁waste",
        -9.124935399848116
      ],
      [
        "▁investment",
        -8.853029441446814
      ],
      [
        "▁altho",
        -5.525065334463033
      ],
      [
        "▁poor",
        -6.827153171806246
      ],
      [
        "▁snake",
        -8.419739262519148
      ],
      [
        "i",
        -10.976929076213445
      ],
      [
        "▁restriction",
        -8.819697656088554
      ],
      [
        "▁metal",
        -8.46514143867087
      ],
      [
        "en",
        -8.960701284908298
      ],
      [
        "▁right",
        -6.802273882806462
      ],
      [
        "nix",
        -6.4753455168319265
      ],
      [
        "▁screw",
        -9.123869968977653
      ],
      [
        "▁fit",
        -7.675468551801042
      ],
      [
        "▁hang",
        -7.880202537394021
      ],
      [
        "▁vary",
        -9.359706773186014
      ],
      [
        "▁detr",
        -7.365578977525217
      ],
      [
        "▁command",
        -8.992686532161631
      ],
      [
        "zer",
        -8.224015679755048
      ],
      [
        "▁clean",
        -6.800035557967786
      ],
      [
        "▁possibilit",
        -8.819698693404654
      ],
      [
        "▁spirit",
        -8.887578254900154
      ],
      [
        "▁16",
        -5.674082561475753
      ],
      [
        "▁feeling",
        -8.563669727287229
      ],
      [
        "▁break",
        -7.4288678891284174
      ],
      [
        "eat",
        -8.359058933190484
      ],
      [
        "▁stay",
        -6.408508520532209
      ],
      [
        "▁director",
        -8.511749913319608
      ],
      [
        "▁b",
        -8.653977413552017
      ],
      [
        "▁some",
        -6.593686694992894
      ],
      [
        "▁farm",
        -8.66168905096403
      ],
      [
        "▁",
        -2.3835752038720184
      ],
      [
        "der",
        -7.243585232811172
      ],
      [
        "•",
        -12.810278406305976
      ],
      [
        "▁le",
        -6.64111346785152
      ],
      [
        "▁bec",
        -7.4976419712532465
      ],
      [
        "▁promote",
        -8.608173117278714
      ],
      [
        "g",
        -5.086823106981542
      ],
      [
        "▁regulation",
        -8.616781001454438
      ],
      [
        "▁all",
        -8.40291871959889
      ],
      [
        "▁manner",
        -8.69659031270747
      ],
      [
        "ed",
        -2.876766076595114
      ],
      [
        "▁view",
        -7.225935158585302
      ],
      [
        "▁dig",
        -9.15292108372924
      ],
      [
        "they",
        -7.005894765477494
      ],
      [
        "les",
        -6.373733205880214
      ],
      [
        "▁update",
        -9.307863758981759
      ],
      [
        "’",
        -13.8725705263812
      ],
      [
        "▁exact",
        -7.130971277767781
      ],
      [
        "▁eye",
        -6.714121721500758
      ],
      [
        "▁power",
        -7.272494128467484
      ],
      [
        "▁why",
        -4.973704831338078
      ],
      [
        "▁`",
        -11.296918948688285
      ],
      [
        "ng",
        -7.341026937785574
      ],
      [
        "▁cu",
        -9.169193689893886
      ],
      [
        "~",
        -10.976945072972644
      ],
      [
        "▁high",
        -5.9769864595916316
      ],
      [
        "▁enable",
        -8.485653695965325
      ],
      [
        "▁picture",
        -6.931677517984828
      ],
      [
        "t",
        -3.4258600649643967
      ],
      [
        "ance",
        -6.843591265163251
      ],
      [
        "▁again",
        -5.055600915647587
      ],
      [
        "▁explore",
        -8.748329199679617
      ],
      [
        "▁momm",
        -6.828298447791853
      ],
      [
        "----------",
        -11.58057967967328
      ],
      [
        "pover",
        -9.186619763691631
      ],
      [
        "▁blood",
        -8.376891329485353
      ],
      [
        "▁",
        -2.6211102193894833
      ],
      [
        "complete",
        -7.441782075291681
      ],
      [
        "▁barn",
        -8.51471468490503
      ],
      [
        "nt",
        -6.784027279257939
      ],
      [
        "▁execute",
        -8.568324959413838
      ],
      [
        "▁great",
        -5.158725407219528
      ],
      [
        "▁right",
        -5.1005143013985395
      ],
      [
        ".......",
        -12.587104664338755
      ],
      [
        "▁be",
        -6.64066498335085
      ],
      [
        "▁mountain",
        -8.315634794968119
      ],
      [
        "▁e-mail",
        -8.536140217672678
      ],
      [
        "8",
        -4.553569007344787
      ],
      [
        "▁pi",
        -8.875606205518407
      ],
      [
        "▁wel",
        -5.239750120745514
      ],
      [
        "www",
        -6.037551421693644
      ],
      [
        "***",
        -10.264982179695927
      ],
      [
        "▁invite",
        -8.504707143195631
      ],
      [
        "▁f",
        -8.821102863888438
      ],
      [
        "▁twenty",
        -4.8566475189737
      ],
      [
        "▁link",
        -8.421431361608825
      ],
      [
        "▁announce",
        -8.549351832378417
      ],
      [
        "▁scare",
        -9.20458049062011
      ],
      [
        "▁alr",
        -5.228749683775931
      ],
      [
        "ard",
        -7.346491139930018
      ],
      [
        "▁option",
        -7.62054058722151
      ],
      [
        "nea",
        -7.945544065619691
      ],
      [
        "rec",
        -7.563249920027834
      ],
      [
        "▁score",
        -9.174898047653443
      ],
      [
        "▁pencil",
        -8.010625613404239
      ],
      [
        "[CLS]",
        0.0
      ],
      [
        "men",
        -8.575510800501588
      ],
      [
        "▁holiday",
        -8.887512206962189
      ],
      [
        "▁sav",
        -8.80767445096748
      ],
      [
        "▁absolute",
        -7.501200598055169
      ],
      [
        "▁face",
        -8.031543205840347
      ],
      [
        "▁stopover",
        -8.08654176274725
      ],
      [
        "▁close",
        -6.872122316633374
      ],
      [
        "▁leave",
        -5.929274021604734
      ],
      [
        "▁him",
        -5.173822855149899
      ],
      [
        "▁over",
        -9.078225487752855
      ],
      [
        "▁do",
        -3.6858831645663166
      ],
      [
        "▁commitment",
        -9.080391694616416
      ],
      [
        "▁credit",
        -7.967762469353025
      ],
      [
        "▁manager",
        -8.137343087061883
      ],
      [
        "▁expe",
        -7.313414294763917
      ],
      [
        "▁t",
        -6.581326392513221
      ],
      [
        "tial",
        -9.050003660931548
      ],
      [
        "se",
        -5.996840838387731
      ],
      [
        "▁close",
        -7.658641754651466
      ],
      [
        "as",
        -7.194088110937
      ],
      [
        "i",
        -5.226793519697355
      ],
      [
        "ins",
        -12.167094736746972
      ],
      [
        "▁grandmother",
        -8.239252801178928
      ],
      [
        "▁governor",
        -8.999124735900713
      ],
      [
        "▁b",
        -6.17573805327475
      ],
      [
        "▁reduce",
        -8.267613503121149
      ],
      [
        "▁dragg",
        -9.154571963846962
      ],
      [
        "ve",
        -4.657267170543397
      ],
      [
        "▁hit",
        -6.806185863543326
      ],
      [
        "▁finishe",
        -8.079018015374686
      ],
      [
        "ern",
        -6.849387477125365
      ],
      [
        "▁beer",
        -8.73728739810678
      ],
      [
        "▁mosque",
        -9.169410743768513
      ],
      [
        "▁inch",
        -8.93084191236678
      ],
      [
        "▁cold",
        -6.679730130703026
      ],
      [
        "ampa",
        -7.290181793402967
      ],
      [
        "▁centre",
        -8.960702528767762
      ],
      [
        "▁h",
        -7.850127434920213
      ],
      [
        "up",
        -7.969355360081218
      ],
      [
        "▁conflict",
        -8.667901780410334
      ],
      [
        "t",
        -4.573340008156835
      ],
      [
        "ndo",
        -6.446814175920228
      ],
      [
        "▁brain",
        -8.315635872117745
      ],
      [
        "ve",
        -8.736942800002197
      ],
      [
        "▁inter",
        -6.952119591150534
      ],
      [
        "▁fi",
        -8.896282388839595
      ],
      [
        "▁we",
        -5.969460857835287
      ],
      [
        "[",
        -6.162592258851914
      ],
      [
        "▁slid",
        -8.839298793469695
      ],
      [
        "c",
        -11.925660239071421
      ],
      [
        "▁pushe",
        -9.339702222344467
      ],
      [
        "stance",
        -8.735518472573066
      ],
      [
        "▁glass",
        -7.651089530657507
      ],
      [
        "▁defin",
        -9.375465394046818
      ],
      [
        "▁pott",
        -8.226039811563332
      ],
      [
        "▁answer",
        -7.765823468089585
      ],
      [
        "▁summer",
        -7.668168189905595
      ],
      [
        "▁swing",
        -9.217164200865096
      ],
      [
        "▁decision",
        -7.63734364821517
      ],
      [
        "light",
        -8.505484290822253
      ],
      [
        "e",
        -3.6987654616553973
      ],
      [
        "▁eliminate",
        -9.066763360245695
      ],
      [
        "l",
        -3.0945094295258793
      ],
      [
        "your",
        -7.282301018614932
      ],
      [
        "▁fli",
        -8.794802858492993
      ],
      [
        "▁orange",
        -9.080391736416026
      ],
      [
        "▁contribute",
        -8.721181520426633
      ],
      [
        "▁hotel",
        -7.607651031530639
      ],
      [
        "on",
        -8.1917012505937
      ],
      [
        "▁sweep",
        -9.443273260985471
      ],
      [
        "▁editor",
        -9.000117278361182
      ],
      [
        "end",
        -9.343969701357597
      ],
      [
        "▁reserve",
        -9.087036763724031
      ],
      [
        "ha",
        -9.035947903990632
      ],
      [
        ".",
        -12.707635305583393
      ],
      [
        "▁dinner",
        -7.171712369692247
      ],
      [
        "▁marr",
        -8.344179040642356
      ],
      [
        "▁modern",
        -7.2893754413007565
      ],
      [
        "dr.",
        -7.360445003958612
      ],
      [
        "▁king",
        -8.566525061847617
      ],
      [
        "at",
        -8.964835354007597
      ],
      [
        "▁leg",
        -7.482530775623637
      ],
      [
        "▁quick",
        -6.745647669671999
      ],
      [
        "▁park",
        -7.8258503620912805
      ],
      [
        "▁applie",
        -8.02839247144541
      ],
      [
        "▁leadership",
        -9.217985862125818
      ],
      [
        "▁be",
        -4.961294813347506
      ],
      [
        "▁c",
        -8.031073055678037
      ],
      [
        "k",
        -6.601882593626262
      ],
      [
        "▁jose",
        -7.1280497957424025
      ],
      [
        "__________",
        -11.310280138036862
      ],
      [
        "their",
        -8.058235903390358
      ],
      [
        "!!!!!!!!!!!!!!!!",
        -11.398152869348259
      ],
      [
        "▁frighten",
        -9.371537629658254
      ],
      [
        "c",
        -10.270631529841472
      ],
      [
        "▁vet",
        -8.51337779976204
      ],
      [
        "▁renew",
        -9.44365457632963
      ],
      [
        "▁passenger",
        -9.216943580602956
      ],
      [
        "▁follow",
        -6.362041922472536
      ],
      [
        "▁missile",
        -9.169350063020874
      ],
      [
        "▁exist",
        -7.503767107828424
      ],
      [
        "▁recipient",
        -9.080391683828804
      ],
      [
        "a",
        -10.36027840626602
      ],
      [
        "▁finish",
        -7.390927051909596
      ],
      [
        "▁assume",
        -8.180302739335136
      ],
      [
        "▁belt",
        -9.123914738777307
      ],
      [
        "---",
        -10.542734627330933
      ],
      [
        "til",
        -7.784555654766264
      ],
      [
        "ove",
        -8.910776172545935
      ],
      [
        "al",
        -6.7816231592257825
      ],
      [
        "......",
        -13.08817150327664
      ],
      [
        "shoul",
        -8.078104899454067
      ],
      [
        "▁head",
        -6.621197649136684
      ],
      [
        "▁re-",
        -8.721355501734267
      ],
      [
        "▁present",
        -8.207153306155334
      ],
      [
        "-",
        -11.770631529841472
      ],
      [
        "k",
        -7.182195613661991
      ],
      [
        "hi",
        -8.442534427418508
      ],
      [
        "??????",
        -13.834852348222816
      ],
      [
        "▁elect",
        -8.201859762683116
      ],
      [
        "▁tiger",
        -8.640139438657584
      ],
      [
        "▁end",
        -6.789761796146893
      ],
      [
        "▁propose",
        -7.770609407272636
      ],
      [
        "▁fe",
        -8.914030362010491
      ],
      [
        "ly",
        -6.045208521205439
      ],
      [
        "her",
        -5.452626015079912
      ],
      [
        "to",
        -8.826207245373501
      ],
      [
        "▁store",
        -7.082811934762289
      ],
      [
        "▁touch",
        -8.923433775887514
      ],
      [
        "▁item",
        -7.607602143346999
      ],
      [
        "▁c",
        -7.464378526851302
      ],
      [
        "▁star",
        -7.9398788526223925
      ],
      [
        "▁settle",
        -8.543389365197694
      ],
      [
        "▁inspire",
        -8.503818338936204
      ],
      [
        "▁da",
        -7.903378949837745
      ],
      [
        "▁minute",
        -6.846115463037491
      ],
      [
        "▁yours",
        -8.946628168237133
      ],
      [
        "y",
        -7.14930709824996
      ],
      [
        "▁collection",
        -8.696473206431913
      ],
      [
        "them",
        -7.937344547440428
      ],
      [
        "▁fro",
        -3.54910109396684
      ],
      [
        "ves",
        -8.373917024390437
      ],
      [
        "▁sight",
        -8.88751215706042
      ],
      [
        "▁tend",
        -8.614622362102224
      ],
      [
        "n",
        -4.72563031026995
      ],
      [
        "▁light",
        -6.78941206518117
      ],
      [
        "▁recover",
        -9.084213408520743
      ],
      [
        "▁price",
        -6.71495658941383
      ],
      [
        "p",
        -6.3796766842755215
      ],
      [
        "’",
        -10.78153641900687
      ],
      [
        "▁pro",
        -7.211453933737824
      ],
      [
        "e",
        -2.3851922693400907
      ],
      [
        "▁sandwich",
        -8.376719354739883
      ],
      [
        "▁app",
        -9.1360832125772
      ],
      [
        "▁step",
        -7.532545737177429
      ],
      [
        "▁contact",
        -8.56114018444546
      ],
      [
        "▁select",
        -8.188532584885873
      ],
      [
        "ru",
        -7.3777699177564084
      ],
      [
        "▁force",
        -7.61123154497988
      ],
      [
        "ught",
        -8.207422363822905
      ],
      [
        "▁mouth",
        -7.710257644755742
      ],
      [
        "▁shape",
        -9.294041601447182
      ],
      [
        "▁in",
        -5.300291641118423
      ],
      [
        "y",
        -4.5693853521597925
      ],
      [
        "▁thre",
        -8.490099273367072
      ],
      [
        "r",
        -4.205444117082512
      ],
      [
        "▁not",
        -7.200425170962376
      ],
      [
        "log",
        -9.09133382759933
      ],
      [
        "▁decade",
        -8.168497327405545
      ],
      [
        "▁them",
        -5.092080749922367
      ],
      [
        "▁stop",
        -6.638462490604868
      ],
      [
        "▁meet",
        -6.995432217300358
      ],
      [
        "▁edit",
        -9.326390060793624
      ],
      [
        "ever",
        -6.0073375635282105
      ],
      [
        "▁twist",
        -9.28344110355502
      ],
      [
        "▁server",
        -8.820251348788805
      ],
      [
        "'",
        -2.6782468275802227
      ],
      [
        "▁&",
        -7.590436870188816
      ],
      [
        "ing",
        -4.779772680984797
      ],
      [
        "▁neck",
        -8.151479540815174
      ],
      [
        "▁monkey",
        -8.668030493454614
      ],
      [
        "▁notice",
        -7.764069890327629
      ],
      [
        "▁attempt",
        -8.347490172119276
      ],
      [
        "▁excell",
        -6.7968984467651445
      ],
      [
        "▁18",
        -5.485808363114372
      ],
      [
        "—",
        -6.131623132035529
      ],
      [
        "▁establishe",
        -8.806470403235926
      ],
      [
        "ite",
        -7.044615132236147
      ],
      [
        "▁root",
        -8.239340229963744
      ],
      [
        "a",
        -1.784802076090795
      ],
      [
        "▁propos",
        -9.210258085636664
      ],
      [
        "▁louis",
        -7.042205573267505
      ],
      [
        "▁charge",
        -7.853354768533049
      ],
      [
        "you",
        -5.734888952612067
      ],
      [
        "▁back",
        -7.208301882596641
      ],
      [
        "\"",
        -4.22482060981751
      ],
      [
        "▁please",
        -8.564434024630248
      ],
      [
        "▁will",
        -8.465328768871109
      ],
      [
        "▁troop",
        -8.923226469682913
      ],
      [
        "▁succeed",
        -8.81956799339538
      ],
      [
        "▁!!!!!!!!!!!!!",
        -13.199573544020165
      ],
      [
        "▁project",
        -9.443500858672703
      ],
      [
        "▁establish",
        -7.872287748638467
      ],
      [
        "▁college",
        -8.335478059122593
      ],
      [
        "call",
        -6.4707648400225155
      ],
      [
        "▁wednesday",
        -6.714008221289247
      ],
      [
        "y",
        -9.93729819650814
      ],
      [
        "▁per",
        -8.404674377646218
      ],
      [
        "ese",
        -10.064450891872804
      ],
      [
        "ha",
        -8.022827823781132
      ],
      [
        "▁act",
        -8.041418261246278
      ],
      [
        "▁spell",
        -8.438578417452812
      ],
      [
        "st.",
        -6.038947423780039
      ],
      [
        "ot",
        -8.634250207778758
      ],
      [
        "▁air",
        -6.020133625460001
      ],
      [
        "t",
        -2.591311722972385
      ],
      [
        "▁subject",
        -7.99613216460455
      ],
      [
        "▁mumm",
        -7.223584635370784
      ],
      [
        "▁watch",
        -6.422132444968376
      ],
      [
        "▁sweater",
        -9.170830373354129
      ],
      [
        "▁magazine",
        -9.16932449015297
      ],
      [
        "▁north",
        -9.03873347506366
      ],
      [
        "▁play",
        -7.56524513739988
      ],
      [
        "▁benefit",
        -8.68921933497451
      ],
      [
        "-",
        -9.206366238425398
      ],
      [
        "3",
        -10.925660239071423
      ],
      [
        "▁terror",
        -8.463950830336875
      ],
      [
        "▁week",
        -6.45605071409975
      ],
      [
        "f",
        -10.765301919425882
      ],
      [
        "▁brush",
        -9.044226130735694
      ],
      [
        "▁je",
        -8.718464131816196
      ],
      [
        "▁rec",
        -7.0072767537993075
      ],
      [
        "7",
        -4.60064973905525
      ],
      [
        "_",
        -4.735940816345124
      ],
      [
        "▁container",
        -8.613096975124025
      ],
      [
        "▁rule",
        -7.6151996098267976
      ],
      [
        "▁lower",
        -9.36524903874381
      ],
      [
        "▁south",
        -6.831050186369672
      ],
      [
        "▁i",
        -8.414006726853913
      ],
      [
        "▁enj",
        -8.787562149609283
      ],
      [
        "▁occur",
        -8.661361815316441
      ],
      [
        "formation",
        -6.3930203049447325
      ],
      [
        "▁student",
        -7.479573187494293
      ],
      [
        "▁replication",
        -8.819696744168843
      ],
      [
        "ep",
        -8.964188828874324
      ],
      [
        "k",
        -8.62653820904472
      ],
      [
        "▁translation",
        -8.99873334862642
      ],
      [
        "▁ran",
        -7.978711642626029
      ],
      [
        "▁ha",
        -8.56060294069948
      ],
      [
        "▁.......",
        -13.318608259993672
      ],
      [
        "▁shoul",
        -5.182621289545295
      ],
      [
        "▁develop",
        -7.219263868034156
      ],
      [
        "▁imme",
        -7.436168493080066
      ],
      [
        "▁waste",
        -9.038733443818636
      ],
      [
        "p",
        -7.066816683755824
      ],
      [
        "▁al",
        -6.196821287924996
      ],
      [
        "▁clos",
        -8.852234879791947
      ],
      [
        "tha",
        -9.346659201024885
      ],
      [
        "lik",
        -7.407883937870426
      ],
      [
        "▁ground",
        -6.598258737315575
      ],
      [
        "▁mov",
        -7.166072223475297
      ],
      [
        "▁engine",
        -8.751911522732705
      ],
      [
        "▁saturday",
        -7.445814912608575
      ],
      [
        "▁no",
        -6.625414240065368
      ],
      [
        "ch",
        -5.570015910585939
      ],
      [
        "▁–",
        -9.00060687934901
      ],
      [
        "rate",
        -9.42651146824745
      ],
      [
        "▁character",
        -8.115500986336793
      ],
      [
        "▁worth",
        -7.288217349982408
      ],
      [
        "▁w",
        -7.847448350576819
      ],
      [
        "▁drink",
        -7.166090136053161
      ],
      [
        "▁an",
        -3.3571725720660046
      ],
      [
        "▁fan",
        -8.18867338589732
      ],
      [
        "▁stop",
        -7.914255812273738
      ],
      [
        "▁bound",
        -9.29915380952337
      ],
      [
        "b",
        -3.4366148757197568
      ],
      [
        "for",
        -4.020786215354944
      ],
      [
        "▁operat",
        -9.416450268859371
      ],
      [
        "▁s",
        -7.3226938615224135
      ],
      [
        "▁t",
        -13.04700383885649
      ],
      [
        "▁system",
        -6.993077346444125
      ],
      [
        "▁wipe",
        -8.779911817932993
      ],
      [
        "▁progress",
        -8.561140223292318
      ],
      [
        "us",
        -9.889961405511787
      ],
      [
        "▁north",
        -7.0466915970605415
      ],
      [
        "▁mark",
        -8.536560407604076
      ],
      [
        "▁diaper",
        -8.887514306500762
      ],
      [
        "▁arrival",
        -8.887512184428616
      ],
      [
        "▁absorb",
        -9.024768821123665
      ],
      [
        "eeth",
        -8.36355984555763
      ],
      [
        "ous",
        -8.753691967497861
      ],
      [
        "n",
        -8.248483443981259
      ],
      [
        "▁realit",
        -8.757490994768817
      ],
      [
        "▁man",
        -6.271984359750811
      ],
      [
        "▁discover",
        -7.971377119603126
      ],
      [
        "▁hope",
        -6.850381843185085
      ],
      [
        "▁pillow",
        -8.511750185376151
      ],
      [
        "▁universit",
        -8.58728298759465
      ],
      [
        "▁there",
        -4.1506920944455326
      ],
      [
        "▁on",
        -5.361902469050708
      ],
      [
        "▁diffe",
        -5.787677870707446
      ],
      [
        "▁period",
        -7.413159132792199
      ],
      [
        "▁administration",
        -8.29629837316273
      ],
      [
        "▁happ",
        -6.402222187584118
      ],
      [
        "3",
        -8.78716293598233
      ],
      [
        "as",
        -6.594058164000631
      ],
      [
        "▁addiction",
        -9.123870740802033
      ],
      [
        "m",
        -6.7697770087744225
      ],
      [
        "▁election",
        -7.9961323812441565
      ],
      [
        "▁+++++",
        -12.167530999473765
      ],
      [
        "▁see",
        -4.551308700229445
      ],
      [
        "▁has",
        -5.672018519169682
      ],
      [
        "▁hide",
        -8.394334826868617
      ],
      [
        "▁pop",
        -8.31881464626104
      ],
      [
        "▁snitch",
        -9.080391736178457
      ],
      [
        "x",
        -6.8356093943361715
      ],
      [
        "y",
        -4.489015840271201
      ],
      [
        "▁bo",
        -4.512113988419548
      ],
      [
        "▁position",
        -7.58551572668748
      ],
      [
        "ine",
        -8.892046660633094
      ],
      [
        "table",
        -8.106033439616613
      ],
      [
        "▁portion",
        -9.041464865639405
      ],
      [
        "▁you",
        -2.8335956024408713
      ],
      [
        "▁their",
        -5.253175569214527
      ],
      [
        "b",
        -6.825311492901869
      ],
      [
        "n",
        -3.9840298251398396
      ],
      [
        "▁crayon",
        -9.123908582995679
      ],
      [
        "▁capture",
        -9.024939351066113
      ],
      [
        "▁innovation",
        -8.613405951998457
      ],
      [
        "▁atm",
        -8.398147954647918
      ],
      [
        "▁prepare",
        -7.995917764946754
      ],
      [
        "▁no",
        -6.709205954266236
      ],
      [
        "▁reference",
        -9.376456987727982
      ],
      [
        "e",
        -4.069614543994381
      ],
      [
        "w",
        -3.847734666333153
      ],
      [
        "----------------",
        -8.720621540620428
      ],
      [
        "access",
        -7.293715939656362
      ],
      [
        "ac",
        -7.160388903002505
      ],
      [
        "▁become",
        -6.846957219988554
      ],
      [
        "▁identify",
        -8.689334217799146
      ],
      [
        "5",
        -3.9349924025881604
      ],
      [
        ";",
        -5.738552662576513
      ],
      [
        "▁chas",
        -9.420418471900822
      ],
      [
        "▁transport",
        -8.917221765190643
      ],
      [
        "right",
        -7.391738418087057
      ],
      [
        "▁exten",
        -8.960679496633666
      ],
      [
        "▁count",
        -7.906853085517547
      ],
      [
        "▁bread",
        -8.026877142638188
      ],
      [
        "▁carrie",
        -8.115915210446387
      ],
      [
        "▁afford",
        -8.68904551827087
      ],
      [
        "▁proceed",
        -8.649307116413167
      ],
      [
        "▁t",
        -7.45890416965616
      ],
      [
        "▁lunch",
        -7.578816532810315
      ],
      [
        "▁copy",
        -8.533434250249996
      ],
      [
        "▁tomato",
        -9.169339671254274
      ],
      [
        "▁father",
        -6.972878999760344
      ],
      [
        "▁sea",
        -7.316940977426711
      ],
      [
        "▁unit",
        -9.179203765796299
      ],
      [
        "▁event",
        -7.462681841409061
      ],
      [
        "▁support",
        -7.330211589948614
      ],
      [
        "▁sunday",
        -7.439608531210321
      ],
      [
        "▁!!!!!!!!!!",
        -11.835042718013746
      ],
      [
        "▁euro",
        -8.640126199585442
      ],
      [
        "nforcement",
        -8.960943401215788
      ],
      [
        "▁school",
        -6.319918365273971
      ],
      [
        "h",
        -2.3558809577216078
      ],
      [
        "▁famil",
        -6.726079805847224
      ],
      [
        "▁man",
        -4.986646391547884
      ],
      [
        "▁work",
        -5.663812961351836
      ],
      [
        "▁wor",
        -8.534574165976904
      ],
      [
        "▁visitor",
        -8.728060006910264
      ],
      [
        "-------------",
        -10.209257586536697
      ],
      [
        "▁socks",
        -9.213747370597716
      ],
      [
        "deni",
        -9.224125945123491
      ],
      [
        "lack",
        -8.294906127598889
      ],
      [
        "▁mission",
        -8.834349610863262
      ],
      [
        "▁the",
        -11.09220806935517
      ],
      [
        "sumption",
        -8.960145236628982
      ],
      [
        "▁pant",
        -8.438104137289418
      ],
      [
        "inc",
        -7.751841047967409
      ],
      [
        "a",
        -1.8416649220847514
      ],
      [
        "ntl",
        -7.392382711792217
      ],
      [
        "▁review",
        -8.033199575130796
      ],
      [
        "▁data",
        -6.742516554737582
      ],
      [
        "▁new",
        -5.519541181328751
      ],
      [
        "▁through",
        -6.050063511843283
      ],
      [
        "ome",
        -6.109716119437731
      ],
      [
        "ed",
        -8.296107233484799
      ],
      [
        "▁sci",
        -9.072952856580418
      ],
      [
        ",",
        -12.303800120175861
      ],
      [
        "ice",
        -7.482348072578886
      ],
      [
        "ce",
        -6.804445827853673
      ],
      [
        "▁noon",
        -7.405467602068381
      ],
      [
        "▁book",
        -7.527313072312097
      ],
      [
        "▁encourage",
        -8.417000379120314
      ],
      [
        "▁god",
        -7.141342431366642
      ],
      [
        "▁file",
        -9.438616817551106
      ],
      [
        "▁slippe",
        -9.155563785450259
      ],
      [
        "▁lawyer",
        -9.170622383221856
      ],
      [
        "▁square",
        -8.887515958597074
      ],
      [
        "`",
        -11.770631529841472
      ],
      [
        "oul",
        -4.862598188843797
      ],
      [
        "h",
        -4.449069131649335
      ],
      [
        "▁hands",
        -7.84084925320845
      ],
      [
        "▁inform",
        -8.411798429957743
      ],
      [
        "▁content",
        -8.136052123603282
      ],
      [
        "▁of",
        -6.502938737333261
      ],
      [
        "▁make",
        -4.9131648496900775
      ],
      [
        "fo",
        -12.318804377466208
      ],
      [
        "▁request",
        -8.139182503322722
      ],
      [
        "▁bucket",
        -9.217655545489059
      ],
      [
        "▁11",
        -5.487104098601486
      ],
      [
        "▁lot",
        -6.288690508911256
      ],
      [
        "▁goat",
        -8.923842016975591
      ],
      [
        "▁sing",
        -8.947672389427074
      ],
      [
        "am",
        -10.163570533105498
      ],
      [
        "▁witch",
        -8.998933037123026
      ],
      [
        "▁hi",
        -5.3515630451182075
      ],
      [
        "pe",
        -10.887219134304972
      ],
      [
        "▁social",
        -6.614955515202298
      ],
      [
        "▁putt",
        -8.158922509182144
      ],
      [
        "▁adult",
        -8.376719370603144
      ],
      [
        "▁be",
        -5.640815374565241
      ],
      [
        "▁driv",
        -7.581844739198957
      ],
      [
        "▁accept",
        -7.361994743307134
      ],
      [
        "side",
        -6.036964273039711
      ],
      [
        "▁",
        -0.7082085629404791
      ],
      [
        "▁line",
        -9.336035042585555
      ],
      [
        "v",
        -13.477506734468584
      ],
      [
        "▁analys",
        -8.234448528554164
      ],
      [
        "▁vo",
        -8.480415664306676
      ],
      [
        "h",
        -10.741453583244953
      ],
      [
        "ate",
        -6.574916599541596
      ],
      [
        "▁search",
        -8.706829101337929
      ],
      [
        "▁yo",
        -9.274236374866302
      ],
      [
        "▁call",
        -7.3899739535727065
      ],
      [
        "!!!!!",
        -11.849555816551455
      ],
      [
        "▁analyst",
        -8.828343842181374
      ],
      [
        "er",
        -10.542953920852197
      ],
      [
        "d",
        -6.06173743063176
      ],
      [
        "▁surger",
        -9.085279867879681
      ],
      [
        "▁under",
        -8.85328824015376
      ],
      [
        "▁insist",
        -9.443311260613681
      ],
      [
        "▁repair",
        -9.288645750649827
      ],
      [
        "▁owe",
        -9.309170567773855
      ],
      [
        ".",
        -6.938746849327971
      ],
      [
        "▁door",
        -7.058930191112866
      ],
      [
        "▁i",
        -7.352216322514234
      ],
      [
        "▁husband",
        -8.315477941053604
      ],
      [
        "operation",
        -8.758089899944205
      ],
      [
        "morali",
        -9.033316275194254
      ],
      [
        "▁abo",
        -8.974191354937807
      ],
      [
        "▁ex",
        -7.967285712976985
      ],
      [
        "▁best",
        -5.572959491080885
      ],
      [
        "▁seattle",
        -6.803437356597682
      ],
      [
        "eda",
        -7.39119373799779
      ],
      [
        "▁batter",
        -8.960493656070703
      ],
      [
        "▁?!?",
        -13.944841065246216
      ],
      [
        "▁issue",
        -8.748243023434334
      ],
      [
        "▁???",
        -12.710326831142815
      ],
      [
        "▁license",
        -9.164949153563807
      ],
      [
        "wise",
        -7.250263014346251
      ],
      [
        "v",
        -9.394206695612269
      ],
      [
        "ee",
        -5.7134182807115295
      ],
      [
        "▁walk",
        -6.515052717435402
      ],
      [
        "4",
        -12.653795411026692
      ],
      [
        "m",
        -6.820629931865918
      ],
      [
        "▁with",
        -3.805476671507483
      ],
      [
        "▁weapon",
        -8.071495550712495
      ],
      [
        "lotte",
        -6.652468871357017
      ],
      [
        "▁apr",
        -7.080204494422818
      ],
      [
        "▁oct",
        -7.141142473970357
      ],
      [
        "▁believe",
        -6.538158286587613
      ],
      [
        "▁description",
        -8.923226675086234
      ],
      [
        "rent",
        -5.521074983472677
      ],
      [
        "▁a",
        -6.757544970675181
      ],
      [
        "▁out",
        -5.28307788551118
      ],
      [
        "▁anyway",
        -7.149342360070847
      ],
      [
        "▁bowl",
        -7.9974941474846455
      ],
      [
        "▁bug",
        -8.261220481087907
      ],
      [
        "rote",
        -7.59018499466834
      ],
      [
        "h",
        -4.6934243343720325
      ],
      [
        "il",
        -10.821969912483556
      ],
      [
        "▁ga",
        -8.863395213066191
      ],
      [
        "▁seed",
        -9.000251889376289
      ],
      [
        "▁destination",
        -9.040245096768253
      ],
      [
        "▁implement",
        -8.187586598347401
      ],
      [
        "▁seat",
        -7.78622778798273
      ],
      [
        "▁shopp",
        -9.220916901356512
      ],
      [
        "o",
        -1.7235607545640583
      ],
      [
        "▁arm",
        -7.278270355020909
      ],
      [
        "▁si",
        -6.321408593340361
      ],
      [
        "▁claim",
        -8.419830722262825
      ],
      [
        "▁uh",
        -11.519265493247671
      ],
      [
        "▁cloth",
        -8.512111151513707
      ],
      [
        "▁gra",
        -8.822380734139827
      ],
      [
        "▁cle",
        -6.736947481450366
      ],
      [
        "▁co",
        -7.042445747343084
      ],
      [
        "ame",
        -5.336550110322487
      ],
      [
        "▁wave",
        -8.82699765897334
      ],
      [
        "u",
        -6.60459440309763
      ],
      [
        "▁drop",
        -9.04181994981553
      ],
      [
        "▁piece",
        -6.96781455293655
      ],
      [
        "▁proposal",
        -8.070792294359805
      ],
      [
        "▁edge",
        -8.887526414877552
      ],
      [
        "▁music",
        -8.025187445522462
      ],
      [
        "▁real",
        -4.874120198670135
      ],
      [
        "▁earl",
        -6.294145863916422
      ],
      [
        "look",
        -8.924097104575832
      ],
      [
        "▁mo",
        -7.666721555623175
      ],
      [
        "al",
        -4.268364097368864
      ],
      [
        "h",
        -3.294768851479734
      ],
      [
        "▁fi",
        -4.740511853306687
      ],
      [
        "▁suppose",
        -7.33864174470321
      ],
      [
        "▁smil",
        -9.217982295975613
      ],
      [
        "_",
        -4.3303563868877815
      ],
      [
        "▁ca",
        -8.744876320400495
      ],
      [
        "▁appearance",
        -8.859665433628084
      ],
      [
        "r",
        -9.881310152285408
      ],
      [
        "▁give",
        -5.251596077870293
      ],
      [
        "▁increase",
        -7.819773319320149
      ],
      [
        "▁sugar",
        -8.640386033794908
      ],
      [
        "▁ask",
        -5.920381038087149
      ],
      [
        "▁income",
        -8.787455464565479
      ],
      [
        "▁off",
        -9.009500143169456
      ],
      [
        "▁quote",
        -8.970656992345866
      ],
      [
        "▁issue",
        -7.0528776991617015
      ],
      [
        "▁actor",
        -9.084292713292339
      ],
      [
        "a",
        -3.730887411176008
      ],
      [
        "▁negotiation",
        -9.216943538611048
      ],
      [
        "▁message",
        -7.668486863308202
      ],
      [
        "▁boat",
        -7.6099188262353135
      ],
      [
        "▁grow",
        -6.927318966077519
      ],
      [
        "▁road",
        -7.599567740137317
      ],
      [
        "n",
        -2.772310985610549
      ],
      [
        "▁stone",
        -8.85394363141789
      ],
      [
        "▁forward",
        -6.90085416688369
      ],
      [
        "wo",
        -10.600779294355887
      ],
      [
        "▁in",
        -4.970792382408093
      ],
      [
        "▁board",
        -8.016572855282181
      ],
      [
        "e",
        -2.93500591455426
      ],
      [
        "▁session",
        -8.790145808509296
      ],
      [
        "▁tent",
        -8.937311135461075
      ],
      [
        "▁mix",
        -8.5503199672976
      ],
      [
        "▁hav",
        -6.718104064181433
      ],
      [
        "▁take",
        -4.974076290965646
      ],
      [
        "▁suggestion",
        -8.725884969313293
      ],
      [
        "em",
        -13.645521914879932
      ],
      [
        "▁dark",
        -6.90249271216322
      ],
      [
        "▁reason",
        -7.171711951534217
      ],
      [
        "▁u",
        -12.73122369669515
      ],
      [
        "▁room",
        -6.401687799269684
      ],
      [
        "▁shirt",
        -7.814540921048392
      ],
      [
        "▁yoursel",
        -11.298076311955574
      ],
      [
        "▁weekend",
        -8.055425188855452
      ],
      [
        "▁revenue",
        -9.038725017397873
      ],
      [
        "yo",
        -13.477506734468584
      ],
      [
        "▁towel",
        -8.96078834267023
      ],
      [
        "me",
        -7.2795455667260525
      ],
      [
        "▁*",
        -9.783669856556784
      ],
      [
        "▁building",
        -7.928126585424438
      ],
      [
        "way",
        -8.266928592843282
      ],
      [
        "▁blog",
        -9.172052559729341
      ],
      [
        "▁grab",
        -8.865392312630064
      ],
      [
        "▁web",
        -7.874375878046247
      ],
      [
        "m",
        -3.8776171679190643
      ],
      [
        "▁thr",
        -10.763747459831114
      ],
      [
        "ay",
        -4.398672589980726
      ],
      [
        "u",
        -5.646689165622989
      ],
      [
        "▁varie",
        -9.44308354851523
      ],
      [
        "ch",
        -5.743182008517046
      ],
      [
        "▁human",
        -8.534914647556718
      ],
      [
        "cultur",
        -7.255618199138741
      ],
      [
        "▁leave",
        -8.756191816197287
      ],
      [
        "▁'",
        -9.685211806328248
      ],
      [
        "▁got",
        -7.758129679899486
      ],
      [
        "ia",
        -7.981307519787568
      ],
      [
        "▁consumer",
        -8.928115725001415
      ],
      [
        "▁s",
        -8.496574491134888
      ],
      [
        "▁foot",
        -7.82486781085991
      ],
      [
        "▁com",
        -6.276845960926167
      ],
      [
        "▁print",
        -9.00754385471476
      ],
      [
        "ther",
        -5.232010347024702
      ],
      [
        "▁lake",
        -6.691541180030711
      ],
      [
        "oit",
        -7.371655096310108
      ],
      [
        "▁version",
        -8.239352138778676
      ],
      [
        "▁debate",
        -8.667951627681566
      ],
      [
        "▁9",
        -5.844827498647502
      ],
      [
        "▁el",
        -8.913344358678843
      ],
      [
        "▁:",
        -8.560951170374057
      ],
      [
        "o",
        -3.931859826234785
      ],
      [
        "▁draw",
        -6.654847932334819
      ],
      [
        "▁jun",
        -8.180361157364022
      ],
      [
        "·",
        -9.88131015228541
      ],
      [
        "m",
        -9.599321042075394
      ],
      [
        "▁reflect",
        -7.854759970925008
      ],
      [
        "k",
        -4.9696005187939205
      ],
      [
        "▁‘",
        -9.549274777276095
      ],
      [
        "▁hi",
        -8.633197166119894
      ],
      [
        "l",
        -3.3832330531517893
      ],
      [
        "▁attitude",
        -9.123876819431771
      ],
      [
        "▁organize",
        -9.11584890900788
      ],
      [
        "▁try",
        -5.699561699790409
      ],
      [
        "r",
        -5.4322971977959815
      ],
      [
        "▁write",
        -6.549067944212382
      ],
      [
        "st",
        -4.586035877960722
      ],
      [
        "▁out",
        -8.39537814174334
      ],
      [
        "▁garden",
        -8.221071439506012
      ],
      [
        "▁replace",
        -8.29378861232647
      ],
      [
        "aid",
        -8.194850112635836
      ],
      [
        "ly",
        -8.960168132771331
      ],
      [
        "▁fr",
        -8.566696058089889
      ],
      [
        "ag",
        -9.825387720886301
      ],
      [
        "▁object",
        -8.040017712058521
      ],
      [
        "▁wish",
        -7.590511462557424
      ],
      [
        "▁black",
        -8.889279194876657
      ],
      [
        "_",
        -4.773377875289404
      ],
      [
        "▁duck",
        -8.365628947512553
      ],
      [
        "▁attack",
        -7.996132152971002
      ],
      [
        "ddy",
        -5.597179594980002
      ],
      [
        "▁12",
        -5.2458269485953
      ],
      [
        "▁influence",
        -9.142093804611847
      ],
      [
        "▁compar",
        -9.282297036030215
      ],
      [
        "▁loss",
        -8.606601156730287
      ],
      [
        "▁help",
        -5.928976135903623
      ],
      [
        "▁5",
        -4.7241759964630194
      ],
      [
        "o",
        -6.877907499943204
      ],
      [
        "▁half",
        -7.858648881873529
      ],
      [
        "▁media",
        -8.184776128102005
      ],
      [
        "^",
        -12.810278406305976
      ],
      [
        "▁ok",
        -6.793719205581699
      ],
      [
        "▁engineer",
        -9.130106004983062
      ],
      [
        "▁longe",
        -6.970271318305978
      ],
      [
        "▁design",
        -8.26674546974375
      ],
      [
        "▁contin",
        -6.9749752562620015
      ],
      [
        "▁want",
        -4.408770320777204
      ],
      [
        "▁dec",
        -7.3924632428208525
      ],
      [
        "------------",
        -10.609482153313092
      ],
      [
        "▁cycle",
        -8.853030354716765
      ],
      [
        "nition",
        -8.895316967619639
      ],
      [
        "▁crawl",
        -9.283315065899274
      ],
      [
        "▁officer",
        -8.74250288138926
      ],
      [
        "▁flow",
        -8.690843722762539
      ],
      [
        "▁explain",
        -7.175392007103508
      ],
      [
        "er",
        -5.680025428898938
      ],
      [
        "▁bell",
        -8.648763484404036
      ],
      [
        "an",
        -7.782035909451696
      ],
      [
        "m",
        -3.7542502650210796
      ],
      [
        "▁hamster",
        -8.923268485611915
      ],
      [
        "▁spell",
        -9.169341109524526
      ],
      [
        "rose",
        -8.623280558283351
      ],
      [
        "▁elevator",
        -8.88760862379046
      ],
      [
        "over",
        -8.61529201880396
      ],
      [
        "▁francisco",
        -4.790806721901821
      ],
      [
        "▁museum",
        -8.99872512504556
      ],
      [
        "▁reading",
        -9.22078153821079
      ],
      [
        "an",
        -7.70124996348415
      ],
      [
        "▁deserve",
        -9.026390977354469
      ],
      [
        "▁sub",
        -8.41573437559284
      ],
      [
        "▁true",
        -7.013220592988147
      ],
      [
        "▁note",
        -8.02542655364769
      ],
      [
        "▁john",
        -6.43859690850405
      ],
      [
        "▁ag",
        -6.715931851231953
      ],
      [
        "▁expand",
        -8.318777532004205
      ],
      [
        "fro",
        -6.468812278161513
      ],
      [
        "▁clear",
        -7.455924141981425
      ],
      [
        "os",
        -12.71061285681801
      ],
      [
        "▁value",
        -7.271130486973546
      ],
      [
        "h",
        -8.082311726515218
      ],
      [
        "▁list",
        -5.604972914754906
      ],
      [
        "▁dream",
        -8.613097274712779
      ],
      [
        "ent",
        -6.02629273963893
      ],
      [
        "ion",
        -6.180732240892204
      ],
      [
        "▁share",
        -8.668084785943186
      ],
      [
        "▁bel",
        -7.316235749878892
      ],
      [
        "e",
        -2.2184347982162924
      ],
      [
        "de",
        -11.783538262690449
      ],
      [
        "▁mo",
        -6.386859315429376
      ],
      [
        "p",
        -7.377066839702568
      ],
      [
        "▁lo",
        -6.736748336690294
      ],
      [
        "▁figure",
        -8.200549725684937
      ],
      [
        "▁equal",
        -9.44085675564732
      ],
      [
        "he",
        -6.877013255523378
      ],
      [
        "▁men",
        -7.245174553852222
      ],
      [
        "t",
        -4.62181170820774
      ],
      [
        "ww",
        -11.310312733422174
      ],
      [
        "▁style",
        -8.040434908053214
      ],
      [
        "▁morning",
        -6.000120143286302
      ],
      [
        "▁wel",
        -3.673063769073643
      ],
      [
        "▁cartoon",
        -8.85303250082357
      ],
      [
        "▁judgment",
        -9.123869982100748
      ],
      [
        "ten",
        -6.696279519574173
      ],
      [
        "▁so",
        -5.253845430228908
      ],
      [
        "▁",
        -1.2052669954522912
      ],
      [
        "▁decide",
        -7.1256742126874455
      ],
      [
        "▁star",
        -8.608996603887036
      ],
      [
        "▁procedure",
        -8.487940389310216
      ],
      [
        "ff",
        -8.67386596568681
      ],
      [
        "▁occasion",
        -8.998725074701786
      ],
      [
        "▁creation",
        -8.730163473427641
      ],
      [
        "▁assist",
        -8.6107164910709
      ],
      [
        "rself",
        -10.493759088762307
      ],
      [
        "▁impress",
        -9.443579547563832
      ],
      [
        "dle",
        -8.646695640848325
      ],
      [
        "ary",
        -6.493998529129069
      ],
      [
        "ment",
        -6.494612436723121
      ],
      [
        "▁feature",
        -9.064491124353996
      ],
      [
        "▁he",
        -5.355777969941404
      ],
      [
        "▁u",
        -9.051332700543057
      ],
      [
        "wha",
        -11.428549959890994
      ],
      [
        "▁lives",
        -8.02548169330824
      ],
      [
        "▁else",
        -6.193820371878903
      ],
      [
        "▁eas",
        -6.711564089444368
      ],
      [
        "▁surprise",
        -8.428916050822538
      ],
      [
        "▁very",
        -4.371071920638461
      ],
      [
        "▁ladder",
        -9.128784176178105
      ],
      [
        "▁allow",
        -6.980942798830301
      ],
      [
        "▁ruin",
        -9.15065426852602
      ],
      [
        "▁level",
        -7.321140746549115
      ],
      [
        "▁crack",
        -9.443154426765508
      ],
      [
        "ester",
        -7.614889363662998
      ],
      [
        "▁opene",
        -8.749317240528171
      ],
      [
        "▁concern",
        -8.239254382881619
      ],
      [
        "▁thi",
        -5.276488441522115
      ],
      [
        "have",
        -7.697358281809178
      ],
      [
        "▁al",
        -8.703377934073089
      ],
      [
        "▁presen",
        -9.010606025669624
      ],
      [
        "▁court",
        -8.257977252391235
      ],
      [
        "was",
        -6.42545466381976
      ],
      [
        "▁department",
        -8.397995948961373
      ],
      [
        "▁un",
        -9.152759833302571
      ],
      [
        ",000",
        -5.495299463876596
      ],
      [
        "▁example",
        -6.887981254285923
      ],
      [
        "able",
        -4.583743775946479
      ],
      [
        "ept",
        -7.217695514232073
      ],
      [
        "▁beach",
        -8.011133271847363
      ],
      [
        "▁convert",
        -8.916979657935837
      ],
      [
        "ain",
        -7.576259667897785
      ],
      [
        "▁ev",
        -8.168984609430542
      ],
      [
        "▁fellow",
        -9.03872549137705
      ],
      [
        "▁puzzle",
        -9.080392369097337
      ],
      [
        "▁sign",
        -7.9848697491259895
      ],
      [
        "red",
        -7.0567063380842345
      ],
      [
        "way",
        -7.413310175314248
      ],
      [
        "▁floor",
        -7.3433658249617775
      ],
      [
        "▁indicate",
        -8.34885140451932
      ],
      [
        "▁result",
        -7.389348607007523
      ],
      [
        "▁wa",
        -9.240034987883696
      ],
      [
        "▁new",
        -4.7645933626070915
      ],
      [
        "▁population",
        -7.9540082905450475
      ],
      [
        "▁herself",
        -8.8392699528665
      ],
      [
        "▁deal",
        -7.63485871442625
      ],
      [
        "▁nai",
        -7.200946706543448
      ],
      [
        "▁journal",
        -8.997948731912663
      ],
      [
        "▁drop",
        -8.286286269122698
      ],
      [
        "um",
        -7.473447019932895
      ],
      [
        "▁telephone",
        -8.696992992380663
      ],
      [
        "den",
        -7.389034121029413
      ],
      [
        "▁muc",
        -5.922368473306233
      ],
      [
        "▁nail",
        -8.613228145572283
      ],
      [
        "▁mar",
        -8.756154584812446
      ],
      [
        "▁dolphin",
        -9.21694353777859
      ],
      [
        "▁de",
        -12.371289160620995
      ],
      [
        "▁2",
        -4.236268747166906
      ],
      [
        "[UNK]",
        0.0
      ],
      [
        "▁treat",
        -9.12244813113502
      ],
      [
        "▁facilit",
        -8.561140157760299
      ],
      [
        "▁trial",
        -8.756702045717159
      ],
      [
        "▁horse",
        -6.9619067546765585
      ],
      [
        "▁toe",
        -8.966091677453129
      ],
      [
        "g",
        -6.263157292022806
      ],
      [
        "oget",
        -6.134195808425582
      ],
      [
        "▁hard",
        -6.981459197999821
      ],
      [
        "▁keep",
        -6.147582535994962
      ],
      [
        "woul",
        -7.186489786394996
      ],
      [
        "▁close",
        -7.11502240079139
      ],
      [
        "▁dream",
        -8.880148528208505
      ],
      [
        "▁peter",
        -6.731808973412267
      ],
      [
        "▁memor",
        -8.24228189448559
      ],
      [
        "kee",
        -6.30219827073261
      ],
      [
        "▁account",
        -9.360499241317074
      ],
      [
        "x",
        -11.810278406305976
      ],
      [
        "_",
        -5.969535083399892
      ],
      [
        "c",
        -6.144387633440203
      ],
      [
        "▁...",
        -9.238424474979164
      ],
      [
        "s",
        -3.5612652791976185
      ],
      [
        "the",
        -3.8465712775810488
      ],
      [
        "▁any",
        -6.715036310546548
      ],
      [
        "▁policy",
        -7.960275059831719
      ],
      [
        "▁kitchen",
        -8.185669981321245
      ],
      [
        "▁first",
        -4.829267318650501
      ],
      [
        "▁discuss",
        -7.343250401243637
      ],
      [
        "ming",
        -8.557360031403563
      ],
      [
        "▁pu",
        -9.421400638928933
      ],
      [
        "▁girl",
        -6.706055643739547
      ],
      [
        "▁plant",
        -7.857294334963626
      ],
      [
        "=",
        -11.380897020098319
      ],
      [
        "▁region",
        -7.788957528186415
      ],
      [
        "▁burn",
        -8.440427037942076
      ],
      [
        "d",
        -11.061985573933999
      ],
      [
        "ve",
        -7.530189962329173
      ],
      [
        "sel",
        -8.826133072965293
      ],
      [
        "ibl",
        -7.063379830970229
      ],
      [
        "▁some",
        -7.348423636734813
      ],
      [
        "▁elephant",
        -8.756187999539797
      ],
      [
        "▁repeat",
        -8.378574859061423
      ],
      [
        "▁monitor",
        -9.212469515995753
      ],
      [
        "▁shakes",
        -6.503896834214446
      ],
      [
        "▁",
        -1.429224151881007
      ],
      [
        "▁do",
        -4.354884306024818
      ],
      [
        "▁an",
        -9.820616148417278
      ],
      [
        "▁cla",
        -8.892573238075416
      ],
      [
        "▁b/",
        -11.153795423368507
      ],
      [
        "r",
        -4.802076662594015
      ],
      [
        "▁structure",
        -8.086462457065844
      ],
      [
        "c",
        -6.218807370961619
      ],
      [
        "esday",
        -7.247703233504674
      ],
      [
        "▁stick",
        -8.88287745030825
      ],
      [
        "▁length",
        -9.12387115911736
      ],
      [
        "t",
        -4.296542088812356
      ],
      [
        "▁camp",
        -8.355780418229038
      ],
      [
        "wealth",
        -8.923256446532516
      ],
      [
        "▁contribution",
        -8.640123998122538
      ],
      [
        "▁lead",
        -8.918931910255136
      ],
      [
        "ibilit",
        -9.001138243070544
      ],
      [
        "▁explanation",
        -9.080391683847203
      ],
      [
        "▁install",
        -8.573909449201338
      ],
      [
        "▁compare",
        -8.265165019192352
      ],
      [
        "hi",
        -8.444637064165939
      ],
      [
        "▁handl",
        -9.298413936634732
      ],
      [
        "▁sever",
        -6.308517651343796
      ],
      [
        "cula",
        -6.981336390567085
      ],
      [
        "▁involve",
        -7.945953540093921
      ],
      [
        "▁service",
        -6.1586790026811995
      ],
      [
        "▁shar",
        -9.323179623415278
      ],
      [
        "▁camera",
        -8.511750096923526
      ],
      [
        "ood",
        -9.143526128380993
      ],
      [
        "▁toward",
        -7.687252074323171
      ],
      [
        "to",
        -7.662555047320671
      ],
      [
        "▁fl",
        -8.301407257520475
      ],
      [
        "▁exposure",
        -8.725884969735624
      ],
      [
        "son",
        -6.585038971921413
      ],
      [
        "▁contain",
        -7.666122745033119
      ],
      [
        "▁cross",
        -8.458026529841618
      ],
      [
        "▁hearing",
        -8.923226587477386
      ],
      [
        "▁launch",
        -8.712884229565555
      ],
      [
        "▁travel",
        -7.316864703250338
      ],
      [
        "▁al",
        -4.246888182650369
      ],
      [
        "▁en",
        -6.905990043207903
      ],
      [
        "▁throat",
        -9.216943539791693
      ],
      [
        "ian",
        -6.0764278226503095
      ],
      [
        "▁money",
        -6.90253603597577
      ],
      [
        "▁purchas",
        -9.333087003983131
      ],
      [
        "▁up",
        -5.080133948048412
      ],
      [
        "▁ag",
        -6.359684494857314
      ],
      [
        "▁attach",
        -8.472043201166422
      ],
      [
        "▁dis",
        -7.527970165719957
      ],
      [
        "▁have",
        -4.097231545014155
      ],
      [
        "▁defen",
        -8.595791509446329
      ],
      [
        "▁doll",
        -8.370678581328722
      ],
      [
        "me",
        -9.191639290919905
      ],
      [
        "ember",
        -8.060200352206877
      ],
      [
        "▁cra",
        -8.744690332634077
      ],
      [
        "▁bulb",
        -8.998727861188419
      ],
      [
        "▁modify",
        -9.146879595428274
      ],
      [
        "▁box",
        -7.371362901652741
      ],
      [
        "n",
        -2.150777991036591
      ],
      [
        "▁exception",
        -9.217022488961776
      ],
      [
        "▁stand",
        -6.8487066663305365
      ],
      [
        "▁address",
        -8.459391630396816
      ],
      [
        "▁interpret",
        -9.041564964558665
      ],
      [
        "▁top",
        -7.426473898343171
      ],
      [
        "▁hi",
        -7.870383075677771
      ],
      [
        "▁press",
        -8.660236372359865
      ],
      [
        ".",
        -7.015451316975299
      ],
      [
        "▁assert",
        -9.360228417382928
      ],
      [
        "▁away",
        -5.529427344981297
      ],
      [
        "b",
        -6.600494456860562
      ],
      [
        "▁over",
        -8.25197773416436
      ],
      [
        "(",
        -4.690054248533107
      ],
      [
        "due",
        -7.28851969435859
      ],
      [
        "ula",
        -7.009970634005315
      ],
      [
        "side",
        -7.369361114905498
      ],
      [
        "▁knee",
        -8.887543496794647
      ],
      [
        "▁!!!!",
        -9.976697986141936
      ],
      [
        "ive",
        -5.025022787645253
      ],
      [
        "▁colleague",
        -8.923226441787417
      ],
      [
        "▁fun",
        -7.0666474588122075
      ],
      [
        "▁kick",
        -8.610188776671855
      ],
      [
        "▁situation",
        -7.721124396179961
      ],
      [
        "▁four",
        -4.645122731153732
      ],
      [
        "70",
        -9.21694353791038
      ],
      [
        "▁effort",
        -7.637305677985079
      ],
      [
        "▁campaign",
        -8.1348127820024
      ],
      [
        "ware",
        -8.74683629230902
      ],
      [
        "▁fort",
        -6.67782007577805
      ],
      [
        "▁young",
        -6.413958168445247
      ],
      [
        "▁fine",
        -6.622671821318005
      ],
      [
        "p",
        -8.268707774345442
      ],
      [
        "▁mill",
        -5.806332795739784
      ],
      [
        "▁artist",
        -8.789916690104217
      ],
      [
        "▁form",
        -7.096046790120671
      ],
      [
        "▁glo",
        -6.858729859080638
      ],
      [
        "▁now",
        -4.075357952692865
      ],
      [
        "use",
        -7.908039679543822
      ],
      [
        "▁skin",
        -8.445097928105328
      ],
      [
        "time",
        -8.13541454372015
      ],
      [
        "▁public",
        -6.428328946192325
      ],
      [
        "▁",
        -1.4632797141835407
      ],
      [
        "g",
        -4.631809892328854
      ],
      [
        "▁deploy",
        -9.293957825282968
      ],
      [
        "▁of",
        -5.372005060076645
      ],
      [
        "w",
        -10.77059528735586
      ],
      [
        "▁mrs",
        -8.86825412372855
      ],
      [
        "▁hear",
        -6.001775646364138
      ],
      [
        "▁whi",
        -7.824648129212422
      ],
      [
        "ist",
        -7.24282332385988
      ],
      [
        "houston",
        -6.4649917860782455
      ],
      [
        "▁sound",
        -7.578300442165294
      ],
      [
        "▁crie",
        -8.680881358113988
      ],
      [
        "▁re",
        -6.479732183788573
      ],
      [
        "▁sales",
        -8.522653410349296
      ],
      [
        "▁achievement",
        -9.038725017173912
      ],
      [
        "▁stay",
        -9.124370694504206
      ],
      [
        "▁nose",
        -7.6379108327929615
      ],
      [
        "▁water",
        -6.433898318215807
      ],
      [
        "l",
        -6.794751193104145
      ],
      [
        "▁be",
        -8.335218369223364
      ],
      [
        "▁safe",
        -8.102367068433873
      ],
      [
        "▁rain",
        -8.486530141529618
      ],
      [
        "▁zoo",
        -8.888068378153445
      ],
      [
        "▁send",
        -7.010702550415962
      ],
      [
        "se",
        -10.437721176173625
      ],
      [
        "▁so",
        -3.7744192074049634
      ],
      [
        "▁nonstop",
        -7.5234409521077446
      ],
      [
        "▁woman",
        -7.523440864577599
      ],
      [
        "▁attempt",
        -8.276639244496826
      ],
      [
        "▁trail",
        -9.118689561025066
      ],
      [
        "▁**",
        -12.566425383930483
      ],
      [
        "▁penn",
        -8.592861693572672
      ],
      [
        "▁swim",
        -8.318377595961834
      ],
      [
        "▁do",
        -9.172013762299397
      ],
      [
        "us",
        -8.503979686221008
      ],
      [
        "c",
        -5.089017709022673
      ],
      [
        "▁ce",
        -8.811721279934048
      ],
      [
        "ch",
        -7.867358473290685
      ],
      [
        "▁click",
        -8.649000036370897
      ],
      [
        "▁sh",
        -8.27688201579792
      ],
      [
        "▁couch",
        -9.080520989673364
      ],
      [
        "▁read",
        -6.125286429904584
      ],
      [
        "▁toda",
        -6.263055244653625
      ],
      [
        "▁sense",
        -7.803351317846216
      ],
      [
        "ed",
        -4.3347423109077265
      ],
      [
        "▁operation",
        -8.39709750128522
      ],
      [
        "▁airline",
        -7.025502534330493
      ],
      [
        "▁studi",
        -8.067920754521662
      ],
      [
        "un",
        -11.720693959703446
      ],
      [
        "▁bedroom",
        -8.697423365628289
      ],
      [
        "▁child",
        -7.42935127369154
      ],
      [
        "side",
        -8.980075690553763
      ],
      [
        "▁interna",
        -6.979968294030549
      ],
      [
        "▁on",
        -6.294171641857381
      ],
      [
        "▁island",
        -7.57875765328162
      ],
      [
        "▁full",
        -6.361760699344071
      ],
      [
        "************",
        -12.973373201788785
      ],
      [
        "▁fina",
        -6.594469095657319
      ],
      [
        "▁referr",
        -8.883806051214275
      ],
      [
        "▁withdraw",
        -9.283877617981842
      ],
      [
        "▁chew",
        -9.28732838811906
      ],
      [
        "****************",
        -9.642473869126556
      ],
      [
        "▁8",
        -5.378483124250874
      ],
      [
        "▁en",
        -7.426478329342391
      ],
      [
        "▁bri",
        -7.255424553734033
      ],
      [
        "▁may",
        -6.751293367918482
      ],
      [
        "▁staff",
        -7.4458154894044215
      ],
      [
        "▁san",
        -4.549934815287142
      ],
      [
        "♥",
        -12.810278406305976
      ],
      [
        "?!?!",
        -12.176023693039138
      ],
      [
        "▁thir",
        -6.7330901287301295
      ],
      [
        "▁point",
        -6.776556051656632
      ],
      [
        "▁to",
        -4.877779908052065
      ],
      [
        "▁airline",
        -5.684454962162791
      ],
      [
        "ar",
        -9.38103595699485
      ],
      [
        "▁cap",
        -8.92355394024561
      ],
      [
        "▁definit",
        -7.014693227758429
      ],
      [
        "ley",
        -7.0531633561095095
      ],
      [
        "▁hall",
        -8.887806279482069
      ],
      [
        "‘",
        -9.32263420951717
      ],
      [
        "▁los",
        -7.057733230058732
      ],
      [
        "▁cheap",
        -6.93449626107068
      ],
      [
        "??????????????",
        -12.538317500656397
      ],
      [
        "▁prepar",
        -8.757126478595298
      ],
      [
        "f",
        -7.031933244243014
      ],
      [
        "▁a",
        -5.967256489737387
      ],
      [
        "▁amendment",
        -8.376719387373122
      ],
      [
        "▁identifie",
        -8.504044139166487
      ],
      [
        "▁spot",
        -9.193999268676992
      ],
      [
        "whi",
        -12.327535299766522
      ],
      [
        "ca",
        -7.141411780500674
      ],
      [
        "▁th",
        -5.7327508778009
      ],
      [
        "▁quarter",
        -9.052956694032652
      ],
      [
        "le",
        -6.457472216553488
      ],
      [
        "on",
        -6.905645557616413
      ],
      [
        "6",
        -9.216899121533654
      ],
      [
        "▁lip",
        -9.041291573230366
      ],
      [
        "▁condition",
        -7.96776251162614
      ],
      [
        "▁song",
        -7.955950573888411
      ],
      [
        "▁depend",
        -7.769878710648066
      ],
      [
        "ible",
        -7.187702115575742
      ],
      [
        "ext",
        -7.384595250247742
      ],
      [
        "▁recommendation",
        -9.123869944701418
      ],
      [
        "▁hav",
        -4.47068279899715
      ],
      [
        "▁india",
        -6.824040119082205
      ],
      [
        "te",
        -9.340799971988403
      ],
      [
        "the",
        -8.91627304626879
      ],
      [
        "▁murder",
        -8.71929972009357
      ],
      [
        "m",
        -6.009894094785829
      ],
      [
        "▁as",
        -3.75801648861614
      ],
      [
        "▁scientist",
        -8.887514103807998
      ],
      [
        "d",
        -5.9477191613994504
      ],
      [
        "▁members",
        -7.951723226772981
      ],
      [
        "▁bee",
        -8.770994446920016
      ],
      [
        "▁gun",
        -8.2585172541473
      ],
      [
        "▁night",
        -6.460519968200141
      ],
      [
        "▁sent",
        -7.317329916154069
      ],
      [
        "▁grant",
        -8.406788658269399
      ],
      [
        "▁painting",
        -8.517545254412695
      ],
      [
        "▁turn",
        -7.996151635643568
      ],
      [
        "▁california",
        -6.985563614707918
      ],
      [
        "ent",
        -5.270498460199944
      ],
      [
        "▁de",
        -6.0277791678966155
      ],
      [
        "bec",
        -10.574143790540935
      ],
      [
        "!",
        -5.002391128270716
      ],
      [
        "b",
        -4.738268993203795
      ],
      [
        "▁dark",
        -8.923229564487128
      ],
      [
        "l",
        -8.214727387657476
      ],
      [
        "▁raise",
        -7.862368665323697
      ],
      [
        "▁submit",
        -9.415786562877546
      ],
      [
        "…",
        -9.197828780273426
      ],
      [
        "±",
        -11.925660239071421
      ],
      [
        "n",
        -11.31025614719772
      ],
      [
        "n",
        -4.842692419104057
      ],
      [
        "▁investigate",
        -9.19726521086874
      ],
      [
        "▁error",
        -8.51175283318299
      ],
      [
        "what",
        -7.801290938444229
      ],
      [
        "on",
        -5.903321937222155
      ],
      [
        "▁wake",
        -8.394018509598096
      ],
      [
        "▁tip",
        -8.960367179529511
      ],
      [
        "▁dress",
        -8.469099679585577
      ],
      [
        "*",
        -8.693194179626392
      ],
      [
        "▁du",
        -7.062173102212168
      ],
      [
        "▁coat",
        -8.93179522025958
      ],
      [
        "▁care",
        -7.916052306427313
      ],
      [
        "▁k",
        -7.910325609427667
      ],
      [
        "noth",
        -9.805417396928092
      ],
      [
        "-------",
        -13.306664066647068
      ],
      [
        "▁adopt",
        -8.092872173831568
      ],
      [
        "▁a",
        -6.484556626444801
      ],
      [
        "▁monday",
        -7.278818467358425
      ],
      [
        "os",
        -12.781528412373152
      ],
      [
        "▁pai",
        -7.895712621623877
      ],
      [
        "▁pour",
        -8.070754748925946
      ],
      [
        "▁freez",
        -9.373485835187363
      ],
      [
        "shal",
        -10.060319638891782
      ],
      [
        "enti",
        -7.448158532075226
      ],
      [
        "ra",
        -7.674826693567061
      ],
      [
        "sing",
        -8.692224253441063
      ],
      [
        "▁involv",
        -8.65187780475025
      ],
      [
        "▁type",
        -6.993080398677356
      ],
      [
        "f",
        -6.619575894914963
      ],
      [
        "▁link",
        -8.121096130214303
      ],
      [
        "▁disease",
        -8.887706631383795
      ],
      [
        "▁transaction",
        -8.613097129415841
      ],
      [
        "i",
        -3.6573677594667693
      ],
      [
        "u",
        -8.070949385963765
      ],
      [
        "▁agree",
        -7.253405628739583
      ],
      [
        "▁bother",
        -8.347322225484815
      ],
      [
        "▁!!!!!!",
        -11.169643353147766
      ],
      [
        "p",
        -7.867165043582133
      ],
      [
        "▁d",
        -7.835324086530706
      ],
      [
        "s",
        -1.9627050752487971
      ],
      [
        "▁page",
        -7.0265985753286895
      ],
      [
        "▁skip",
        -9.439206609939403
      ],
      [
        "_",
        -4.628726667259624
      ],
      [
        "▁taste",
        -8.03348461793793
      ],
      [
        "▁blink",
        -8.916741760491483
      ],
      [
        "ch",
        -6.965200618973386
      ],
      [
        "y",
        -2.356688656645275
      ],
      [
        "▁development",
        -7.627305677431964
      ],
      [
        "▁pan",
        -8.389795976554957
      ],
      [
        "▁team",
        -7.489339765579031
      ],
      [
        "mike",
        -7.140322264104477
      ],
      [
        "▁selection",
        -9.038725031528884
      ],
      [
        "▁identit",
        -9.050786148158148
      ],
      [
        "▁trans",
        -8.7484308455886
      ],
      [
        "ho",
        -8.554119697639074
      ],
      [
        "x",
        -12.039036616560043
      ],
      [
        "one",
        -6.076324489393661
      ],
      [
        "▁li",
        -9.360770019549522
      ],
      [
        "▁destroy",
        -8.407121557018147
      ],
      [
        "▁filter",
        -8.242819720730548
      ],
      [
        "▁capital",
        -8.086431809773359
      ],
      [
        "▁wors",
        -7.1919873934551335
      ],
      [
        "▁chang",
        -8.008629503993417
      ],
      [
        "▁cause",
        -8.151481569636447
      ],
      [
        "▁hid",
        -8.684293292126576
      ],
      [
        "▁machine",
        -8.23925300745611
      ],
      [
        "were",
        -7.167827169458954
      ],
      [
        "▁death",
        -7.343368173056893
      ],
      [
        "▁worry",
        -8.610892468635155
      ],
      [
        "f",
        -11.770631529841472
      ],
      [
        "▁meal",
        -7.588571484021917
      ],
      [
        "▁speaker",
        -9.123869945045707
      ],
      [
        "▁website",
        -7.812616912668437
      ],
      [
        "ar",
        -7.227971639397844
      ],
      [
        "▁cigarette",
        -9.038725180902146
      ],
      [
        "▁injur",
        -8.960264418577658
      ],
      [
        "p",
        -5.293431670462067
      ],
      [
        "▁am",
        -6.725198085379273
      ],
      [
        "ris",
        -8.662256193367838
      ],
      [
        "it",
        -7.619367739875833
      ],
      [
        "en",
        -6.61927047716217
      ],
      [
        "▁port",
        -8.791426502646008
      ],
      [
        "▁all",
        -7.233537423515028
      ],
      [
        "g",
        -6.7695067074420665
      ],
      [
        "▁location",
        -7.827006929804737
      ],
      [
        "▁degree",
        -8.511832342446453
      ],
      [
        "▁atlant",
        -4.9873793026621245
      ],
      [
        "▁suc",
        -6.023455274139659
      ],
      [
        "▁guy",
        -6.71676782140044
      ],
      [
        "▁salt",
        -6.804731664629929
      ],
      [
        "all",
        -4.386146326760171
      ],
      [
        "on",
        -6.870845246803458
      ],
      [
        "▁stepp",
        -8.664658010126121
      ],
      [
        "▁person",
        -6.833138349476712
      ],
      [
        "▁think",
        -4.867037107920854
      ],
      [
        "▁eat",
        -5.6316209781590745
      ],
      [
        "▁say",
        -5.020055208945686
      ],
      [
        "▁mon",
        -7.089104440324168
      ],
      [
        "ti",
        -5.086986431945127
      ],
      [
        "▁bathroom",
        -8.276823487567986
      ],
      [
        "1",
        -8.640110920790612
      ],
      [
        "▁favorite",
        -9.038734018345819
      ],
      [
        "▁salon",
        -9.124555536515611
      ],
      [
        "▁stomach",
        -9.216943613267615
      ],
      [
        "▁blame",
        -9.251880993408966
      ],
      [
        "c",
        -5.4427826379247595
      ],
      [
        "▁son",
        -7.88314789012954
      ],
      [
        "▁bear",
        -8.442463514443517
      ],
      [
        "▁as",
        -4.879682590360853
      ],
      [
        "ough",
        -11.681371392484522
      ],
      [
        "▁grumble",
        -9.37715068505765
      ],
      [
        "▁birth",
        -8.512832860482522
      ],
      [
        "▁date",
        -9.442067739645166
      ],
      [
        "▁order",
        -7.092900769923852
      ],
      [
        "sday",
        -7.704137092196661
      ],
      [
        "▁moon",
        -8.400073716858397
      ],
      [
        "▁visit",
        -8.5344686408947
      ],
      [
        "abl",
        -5.607246216433183
      ],
      [
        "e",
        -9.487298196508139
      ],
      [
        "▁tw",
        -3.110490919801345
      ],
      [
        "y",
        -4.124785020807785
      ],
      [
        "▁un",
        -6.526291615881251
      ],
      [
        "b",
        -12.153426364471347
      ],
      [
        "▁fri",
        -7.673051705287243
      ],
      [
        "▁down",
        -7.572524168226138
      ],
      [
        "▁translate",
        -8.960122599722936
      ],
      [
        "▁relat",
        -9.299645529150311
      ],
      [
        "▁breast",
        -9.217005135816757
      ],
      [
        "▁notice",
        -8.756197793068267
      ],
      [
        "▁hope",
        -8.404095197514982
      ],
      [
        "▁sevent",
        -6.850670197274426
      ],
      [
        "▁horsie",
        -8.151480814514752
      ],
      [
        "w",
        -6.747238093076362
      ],
      [
        "▁someon",
        -6.931479858311979
      ],
      [
        "do",
        -8.922653752225703
      ],
      [
        "▁kind",
        -6.315144828800624
      ],
      [
        "▁press",
        -8.466229944950783
      ],
      [
        "▁achieve",
        -8.147531663921677
      ],
      [
        "iction",
        -8.944265896315288
      ],
      [
        "z",
        -6.965394004070414
      ],
      [
        "▁conference",
        -8.297386519511708
      ],
      [
        "▁official",
        -8.203213841529262
      ],
      [
        "▁place",
        -5.97552090107049
      ],
      [
        "▁brother",
        -7.9269424963659185
      ],
      [
        "▁opportunit",
        -7.913327564373368
      ],
      [
        "▁every",
        -6.189232902579145
      ],
      [
        "t",
        -4.857854609021998
      ],
      [
        "▁ca",
        -8.524326304687008
      ],
      [
        "▁bird",
        -7.366092448597783
      ],
      [
        "▁’",
        -11.653797199629468
      ],
      [
        "fusion",
        -9.171436463383738
      ],
      [
        "▁melt",
        -9.28704839047327
      ],
      [
        "among",
        -10.114427603570839
      ],
      [
        "ho",
        -11.734257522352875
      ],
      [
        "▁di",
        -5.822008523961464
      ],
      [
        "o",
        -10.13682536586598
      ],
      [
        "▁remain",
        -7.157446223448043
      ],
      [
        "tha",
        -8.930932078915008
      ],
      [
        "▁respect",
        -8.203323532952933
      ],
      [
        "ke",
        -8.411514511320402
      ],
      [
        "▁complaint",
        -9.21694353777194
      ],
      [
        "▁in",
        -5.990964429098376
      ],
      [
        "ten",
        -7.555046472329298
      ],
      [
        "▁christ",
        -7.30092852555713
      ],
      [
        "▁back",
        -4.76794666312063
      ],
      [
        "▁cur",
        -6.97220494149292
      ],
      [
        "long",
        -7.46212460326381
      ],
      [
        "--------",
        -11.127153465961989
      ],
      [
        "cial",
        -6.719047619607358
      ],
      [
        "u",
        -6.253982068141724
      ],
      [
        "▁b",
        -12.241560312219251
      ],
      [
        "▁order",
        -7.583793869267324
      ],
      [
        "air",
        -9.133000384208778
      ],
      [
        "▁o",
        -7.106158376632667
      ],
      [
        "ous",
        -7.400129012987348
      ],
      [
        "under",
        -9.182318398461064
      ],
      [
        "▁course",
        -7.218541794418536
      ],
      [
        "put",
        -9.176596761033803
      ],
      [
        "▁flew",
        -9.36325101694856
      ],
      [
        "▁evolv",
        -9.307357676860246
      ],
      [
        "ea",
        -5.383019325135234
      ],
      [
        "▁marriage",
        -8.296146752465667
      ],
      [
        "v",
        -8.861028352406292
      ],
      [
        "▁technique",
        -8.756187999620044
      ],
      [
        "or",
        -6.34535778142382
      ],
      [
        "▁counterfeit",
        -9.12387052553453
      ],
      [
        "▁tow",
        -8.99433038713105
      ],
      [
        "▁majorit",
        -8.613444370554797
      ],
      [
        "tion",
        -7.539051037622932
      ],
      [
        "▁hour",
        -6.859953636382985
      ],
      [
        "hin",
        -7.547082465230565
      ],
      [
        "▁de",
        -7.133759330193251
      ],
      [
        "▁amid",
        -9.982268227011591
      ],
      [
        "▁taste",
        -9.080392337325485
      ],
      [
        "▁mid",
        -8.839557943166152
      ],
      [
        "red",
        -7.917229904324256
      ],
      [
        "▁prevent",
        -8.187350387670167
      ],
      [
        "▁expresse",
        -9.135886798223652
      ],
      [
        "man",
        -7.72214053945189
      ],
      [
        "▁d",
        -8.66826635577538
      ],
      [
        "▁neighborhood",
        -9.217080965888098
      ],
      [
        "▁track",
        -8.420159885183455
      ],
      [
        "▁robot",
        -8.696473206826564
      ],
      [
        "▁cur",
        -8.932579823331764
      ],
      [
        "p",
        -6.3265717530164025
      ],
      [
        "▁acknowledge",
        -8.931292194758996
      ],
      [
        "▁solution",
        -8.15147945569067
      ],
      [
        "▁rang",
        -8.982017603045382
      ],
      [
        "▁introduc",
        -9.281475121368487
      ],
      [
        "▁fee",
        -7.367416307645309
      ],
      [
        "▁risk",
        -9.094089437034025
      ],
      [
        "▁text",
        -8.043811389400815
      ],
      [
        "s",
        -4.934659831115517
      ],
      [
        "▁cell",
        -8.511821794266265
      ],
      [
        "▁plane",
        -8.011060126255805
      ],
      [
        "▁further",
        -7.053770262695196
      ],
      [
        "w",
        -4.78514370794099
      ],
      [
        "oo",
        -8.60499018695634
      ],
      [
        "▁reduc",
        -9.075227997464417
      ],
      [
        "ar",
        -7.075727222635783
      ],
      [
        "▁hop",
        -9.20339929580699
      ],
      [
        "▁c",
        -7.194865397578264
      ],
      [
        "_",
        -4.6553638775550565
      ],
      [
        "▁living",
        -8.640218886045767
      ],
      [
        "▁outcome",
        -9.169327741677735
      ],
      [
        "▁radio",
        -9.219830350752584
      ],
      [
        "▁connection",
        -7.667928412339712
      ],
      [
        "▁pos",
        -6.272087047022913
      ],
      [
        "▁refer",
        -8.213241469647645
      ],
      [
        "▁h",
        -9.29136992389374
      ],
      [
        "▁union",
        -8.9620343025676
      ],
      [
        "▁critic",
        -8.295871385758812
      ],
      [
        "i",
        -5.516102924902142
      ],
      [
        "[MASK]",
        0.0
      ],
      [
        "▁electrici",
        -8.923226442855446
      ],
      [
        "▁g",
        -7.277611285017578
      ],
      [
        "▁fold",
        -8.89888426895811
      ],
      [
        "▁lift",
        -8.780738111600888
      ],
      [
        "▁ear",
        -8.51380692920621
      ],
      [
        "▁tha",
        -6.431820319444924
      ],
      [
        "▁award",
        -9.145675020118118
      ],
      [
        "t",
        -1.4210259656718716
      ],
      [
        "▁along",
        -7.533964767221531
      ],
      [
        "ence",
        -7.176978326991938
      ],
      [
        "nd",
        -8.129110544840849
      ],
      [
        "ma",
        -6.048419740934698
      ],
      [
        "▁roar",
        -8.86883153585313
      ],
      [
        "▁protection",
        -8.239252803869842
      ],
      [
        "▁producer",
        -9.125157861239522
      ],
      [
        "▁i",
        -7.733415807312335
      ],
      [
        "▁buy",
        -6.587746264825932
      ],
      [
        "▁achiev",
        -8.898995402808437
      ],
      [
        "▁proclaim",
        -9.443748082423184
      ],
      [
        "ar",
        -7.063891730229105
      ],
      [
        "ww",
        -11.770677750629414
      ],
      [
        "▁spot",
        -8.421205824207409
      ],
      [
        "▁sign",
        -7.643620500304603
      ],
      [
        "rit",
        -8.711909599087585
      ],
      [
        "as",
        -11.470631745927642
      ],
      [
        "▁performance",
        -8.315616760243579
      ],
      [
        "▁hum",
        -9.127025916394324
      ],
      [
        "▁wrong",
        -6.889840448844239
      ],
      [
        "ean",
        -6.912683510075581
      ],
      [
        "ha",
        -6.934556625686796
      ],
      [
        "u",
        -6.3640258478089775
      ],
      [
        "▁report",
        -7.651983678207971
      ],
      [
        "house",
        -8.931180413125478
      ],
      [
        "ext",
        -5.948412029126283
      ],
      [
        "▁base",
        -6.930850999991949
      ],
      [
        "re",
        -7.538895177674713
      ],
      [
        "▁shoe",
        -7.413234866447684
      ],
      [
        "▁last",
        -8.168201016046803
      ],
      [
        "▁shel",
        -8.997054439256805
      ],
      [
        "▁ab",
        -9.672168907805968
      ],
      [
        "▁may",
        -5.707054092143263
      ],
      [
        "▁division",
        -8.923227004739918
      ],
      [
        "ath",
        -10.70113426733852
      ],
      [
        "▁guest",
        -8.725903771755222
      ],
      [
        "▁increase",
        -8.820130774719802
      ],
      [
        "st",
        -12.50667684532212
      ],
      [
        "ove",
        -8.770730135638402
      ],
      [
        "▁bean",
        -9.085577157622819
      ],
      [
        "f",
        -7.674786905690743
      ],
      [
        "▁?",
        -7.157961543371248
      ],
      [
        "▁cr",
        -8.980690296263411
      ],
      [
        "▁put",
        -4.963868223581525
      ],
      [
        "▁name",
        -6.173122524404931
      ],
      [
        "cour",
        -7.539159453764968
      ],
      [
        "▁affect",
        -7.947152464864956
      ],
      [
        "▁minister",
        -9.123874585682067
      ],
      [
        "▁go",
        -8.803147197359284
      ],
      [
        "▁whi",
        -8.851405274144836
      ],
      [
        "▁friends",
        -7.159530320313447
      ],
      [
        "▁fo",
        -8.948053582407423
      ],
      [
        "▁motion",
        -9.171786867028842
      ],
      [
        "hey",
        -12.24726347818536
      ],
      [
        "▁di",
        -7.278837625506097
      ],
      [
        "▁flight",
        -4.05477935888929
      ],
      [
        "▁back",
        -8.43778236464935
      ],
      [
        "▁o",
        -5.505108263201317
      ],
      [
        "▁jun",
        -7.250515333933406
      ],
      [
        "▁--",
        -8.092250728111036
      ],
      [
        "▁chapter",
        -8.998945280624355
      ],
      [
        "▁f",
        -6.537668415611798
      ],
      [
        "▁land",
        -8.482368756490764
      ],
      [
        "▁tri",
        -8.25020254601136
      ],
      [
        "▁on",
        -11.41378886164738
      ],
      [
        "▁club",
        -9.216943576577803
      ],
      [
        "▁d",
        -7.837953371148171
      ],
      [
        "▁furni",
        -8.819700415584807
      ],
      [
        "▁ad",
        -8.312796023265218
      ],
      [
        "corn",
        -8.930004510928168
      ],
      [
        "▁re",
        -7.5452357933588035
      ],
      [
        "ax",
        -7.957429546796635
      ],
      [
        "▁measure",
        -8.66078877166251
      ],
      [
        "wh",
        -8.549184731091053
      ],
      [
        "▁to",
        -7.774833365148702
      ],
      [
        "▁adapt",
        -9.145580456118974
      ],
      [
        "▁l",
        -6.916928039762627
      ],
      [
        "▁feel",
        -6.135129679347383
      ],
      [
        "▁attorney",
        -9.21694353779829
      ],
      [
        "i",
        -1.9310834849042582
      ],
      [
        "▁tak",
        -6.7177223722927
      ],
      [
        "▁track",
        -9.041973619179506
      ],
      [
        "▁second",
        -6.165745746144752
      ],
      [
        "▁practice",
        -9.269161214107651
      ],
      [
        "▁publishe",
        -8.041078949278049
      ],
      [
        "r",
        -5.705603667194821
      ],
      [
        "▁more",
        -4.831757204896697
      ],
      [
        "▁’",
        -10.359454805938455
      ],
      [
        "▁bu",
        -8.90277890318454
      ],
      [
        "▁mine",
        -7.3549003857745685
      ],
      [
        "tuck",
        -8.669650365756599
      ],
      [
        "_",
        -4.900921085182438
      ],
      [
        "▁van",
        -8.967280995570809
      ],
      [
        "es",
        -5.867405313705935
      ],
      [
        "▁document",
        -8.81970296046568
      ],
      [
        "▁medicine",
        -8.923226637889027
      ],
      [
        "▁is",
        -3.8415759029393852
      ],
      [
        "an",
        -6.1992261327886515
      ],
      [
        "▁code",
        -7.690881394059523
      ],
      [
        "▁securit",
        -7.617404688247977
      ],
      [
        "▁perform",
        -7.9516644364622575
      ],
      [
        "z",
        -8.709992816899392
      ],
      [
        "▁s",
        -12.226333961823995
      ],
      [
        "▁miss",
        -7.4404016868154
      ],
      [
        "land",
        -8.787627065923703
      ],
      [
        "cinn",
        -7.200700396868386
      ],
      [
        "hin",
        -10.355812176309545
      ],
      [
        "alism",
        -8.92810922664592
      ],
      [
        "▁change",
        -7.11650615464455
      ],
      [
        "r",
        -6.977308910407107
      ],
      [
        "ast",
        -10.037434414241018
      ],
      [
        "!!!!",
        -9.583850804162543
      ],
      [
        "▁departure",
        -9.216943541934365
      ],
      [
        "▁smoke",
        -9.40119212792208
      ],
      [
        "▁export",
        -8.573721919488909
      ],
      [
        ".",
        -5.674697410906373
      ],
      [
        "somethin",
        -8.701948388671699
      ],
      [
        "▁librar",
        -9.21681979529707
      ],
      [
        "th",
        -6.2624395574659975
      ],
      [
        "y",
        -3.633985897988561
      ],
      [
        "▁import",
        -6.248272192306516
      ],
      [
        "▁mis",
        -8.779490857735356
      ],
      [
        "▁momm",
        -9.359677822079155
      ],
      [
        "▁appointment",
        -8.756188041276516
      ],
      [
        "▁listen",
        -7.39626607878537
      ],
      [
        "▁ju",
        -7.014867216967265
      ],
      [
        "thus",
        -7.27974176497364
      ],
      [
        "▁communication",
        -8.587966616284092
      ],
      [
        "▁200",
        -4.117685212654388
      ],
      [
        "▁perceive",
        -9.231072865854188
      ],
      [
        "▁avoid",
        -7.722032801214737
      ],
      [
        "age",
        -7.2273634382216105
      ],
      [
        "j",
        -11.707635305543437
      ],
      [
        "▁teacher",
        -7.92666281920998
      ],
      [
        "▁run",
        -8.669301778733283
      ],
      [
        "???????????????",
        -11.531210826536753
      ],
      [
        "▁cash",
        -8.420087610225682
      ],
      [
        "▁se",
        -8.65281690288646
      ],
      [
        "▁trust",
        -9.216945893426669
      ],
      [
        "▁shopp",
        -9.08431180265642
      ],
      [
        "ide",
        -9.177341108546004
      ],
      [
        "▁spoon",
        -8.92323371423474
      ],
      [
        "see",
        -9.049613460170495
      ],
      [
        "▁nice",
        -5.79534187277514
      ],
      [
        "ever",
        -5.359099294543228
      ],
      [
        "▁gre",
        -8.641113811258577
      ],
      [
        "▁feed",
        -7.955860455662812
      ],
      [
        "▁c",
        -7.115854882496243
      ],
      [
        "ail",
        -8.982246677363793
      ],
      [
        "▁sentence",
        -8.923232579359775
      ],
      [
        "▁char",
        -6.42599318507917
      ],
      [
        "re",
        -6.5270678446587755
      ],
      [
        "▁down",
        -5.192616129128126
      ],
      [
        "onto",
        -6.611941573515393
      ],
      [
        "”",
        -6.5176806785063475
      ],
      [
        "not",
        -11.552459937114449
      ],
      [
        "en",
        -7.180770542726828
      ],
      [
        "▁w/",
        -11.15379541592156
      ],
      [
        "▁gift",
        -8.887512291008537
      ],
      [
        "a",
        -4.730462131174871
      ],
      [
        "orrow",
        -7.122672146595612
      ],
      [
        "▁main",
        -6.743124854223845
      ],
      [
        "ve",
        -6.02777294669952
      ],
      [
        "re",
        -11.340506330349147
      ],
      [
        "▁un",
        -9.036505284817565
      ],
      [
        "will",
        -7.214694535384876
      ],
      [
        "t",
        -10.200270897839118
      ],
      [
        "nder",
        -9.164028849285986
      ],
      [
        "▁dad",
        -6.9723032167585135
      ],
      [
        "thi",
        -6.886019402075815
      ],
      [
        "e",
        -4.756996595538276
      ],
      [
        "und",
        -6.2572005688377095
      ],
      [
        "has",
        -9.011977185158957
      ],
      [
        "a",
        -3.8090227617556476
      ],
      [
        "et",
        -6.968554700762771
      ],
      [
        "▁educat",
        -8.055407797618352
      ],
      [
        "▁201",
        -4.629308400060954
      ],
      [
        "s",
        -2.856836203130575
      ],
      [
        "▁noise",
        -8.151601393382219
      ],
      [
        "y",
        -4.796594636724666
      ],
      [
        "▁den",
        -4.692025004015246
      ],
      [
        "▁min",
        -8.852916290154063
      ],
      [
        "▁email",
        -9.283670887663895
      ],
      [
        "▁lego",
        -8.426974812277754
      ],
      [
        "▁adam",
        -5.987733709603641
      ],
      [
        "▁per",
        -7.269413434404993
      ],
      [
        "▁understanding",
        -8.516439428350697
      ],
      [
        "▁bulldo",
        -8.397997323665685
      ],
      [
        "ard",
        -10.783635794113795
      ],
      [
        "dy",
        -8.039254141798633
      ],
      [
        "whos",
        -11.20766598766508
      ],
      [
        "ur",
        -7.477857332032502
      ],
      [
        "▁receive",
        -7.005589039321805
      ],
      [
        "▁charge",
        -8.49326477627249
      ],
      [
        "less",
        -6.291852799812492
      ],
      [
        "▁parti",
        -6.861010162495646
      ],
      [
        "i",
        -2.9052598758450294
      ],
      [
        "ge",
        -8.390309779020665
      ],
      [
        "▁co",
        -7.3283963749532015
      ],
      [
        "im",
        -8.854489551847179
      ],
      [
        "▁pack",
        -8.142426691225264
      ],
      [
        "li",
        -7.823242699792453
      ],
      [
        "▁nation",
        -8.005637762208256
      ],
      [
        "▁cheek",
        -9.169775389142758
      ],
      [
        "in",
        -6.981579375279514
      ],
      [
        "▁walk",
        -8.355906930324021
      ],
      [
        "▁london",
        -6.999199217919589
      ],
      [
        "are",
        -6.0074420158852755
      ],
      [
        "▁describ",
        -9.139284859075023
      ],
      [
        "▁ma",
        -6.304844418931761
      ],
      [
        "▁theatre",
        -9.038725393975731
      ],
      [
        "▁bet",
        -8.661264295031007
      ],
      [
        "▁commit",
        -9.261825638492802
      ],
      [
        "f",
        -6.192928136779798
      ],
      [
        "▁cupcake",
        -8.923229193394047
      ],
      [
        "▁bit",
        -6.857625465961402
      ],
      [
        "thi",
        -6.816229796495275
      ],
      [
        "rice",
        -8.991501378877212
      ],
      [
        "ice",
        -7.594983220700395
      ],
      [
        "▁ok",
        -3.6625702522183037
      ],
      [
        "▁decline",
        -9.11707460588914
      ],
      [
        "le",
        -7.288360568497718
      ],
      [
        "▁sink",
        -9.14696015504483
      ],
      [
        "▁fax",
        -8.421501157880703
      ],
      [
        "▁associate",
        -8.574150142076096
      ],
      [
        "work",
        -8.921642084877405
      ],
      [
        "▁access",
        -7.562739663223561
      ],
      [
        "so",
        -4.878830597655819
      ],
      [
        "ive",
        -8.374109375573967
      ],
      [
        "▁com",
        -8.165395837160537
      ],
      [
        "▁enhance",
        -9.303382760367844
      ],
      [
        "▁sell",
        -7.902661868973678
      ],
      [
        "▁kiss",
        -8.730430373325518
      ],
      [
        "▁driver",
        -8.571438616704281
      ],
      [
        "ego",
        -6.75241437602735
      ],
      [
        "▁program",
        -7.647282493021374
      ],
      [
        "▁state",
        -6.055091385595465
      ],
      [
        "▁what",
        -4.999866406006407
      ],
      [
        "▁-",
        -7.106383807340567
      ],
      [
        "▁priorit",
        -8.696473209852103
      ],
      [
        "▁element",
        -8.134821157340216
      ],
      [
        "▁second",
        -8.667901781798514
      ],
      [
        "▁conclude",
        -8.698352782806548
      ],
      [
        "▁vote",
        -8.191384363135551
      ],
      [
        "▁band",
        -7.930891841909929
      ],
      [
        "be",
        -8.581302110008355
      ],
      [
        "up",
        -8.050037684726725
      ],
      [
        "at",
        -6.784203456775905
      ],
      [
        "ertain",
        -6.8715652381419625
      ],
      [
        "igh",
        -5.036196688107231
      ],
      [
        "ic",
        -6.031345409737585
      ],
      [
        "▁city",
        -5.7496977402763685
      ],
      [
        "some",
        -9.946535093477788
      ],
      [
        "▁iodi",
        -8.853030213415847
      ],
      [
        "▁ring",
        -8.950678526810764
      ],
      [
        "▁ye",
        -3.803495247716296
      ],
      [
        "▁pizza",
        -8.239267472957323
      ],
      [
        "▁climb",
        -7.986495884101737
      ],
      [
        "day",
        -6.145358451807306
      ],
      [
        ".........",
        -12.385442840267192
      ],
      [
        "ve",
        -6.412359021217132
      ],
      [
        "e",
        -4.182485491868039
      ],
      [
        "▁b",
        -6.612012272435214
      ],
      [
        "▁fail",
        -7.908578032639164
      ],
      [
        "▁pie",
        -8.60970273545404
      ],
      [
        "da",
        -11.222074835862148
      ],
      [
        "▁bridge",
        -8.75647236360784
      ],
      [
        "▁answer",
        -7.948120084470887
      ],
      [
        "▁environment",
        -7.96776193023513
      ],
      [
        "n",
        -4.908729745083299
      ],
      [
        "▁oz",
        -9.169452320591136
      ],
      [
        "▁class",
        -6.435839001181261
      ],
      [
        "▁purpose",
        -8.102291505184763
      ],
      [
        "▁water",
        -8.917076026260121
      ],
      [
        "▁predict",
        -9.147860661032121
      ],
      [
        "m",
        -3.421156060075173
      ],
      [
        "upper",
        -9.000223696652167
      ],
      [
        "**********",
        -11.18260191905142
      ],
      [
        "um",
        -7.368975224421661
      ],
      [
        "ut",
        -9.297866942650675
      ],
      [
        "ilar",
        -7.306926894076488
      ],
      [
        "▁risk",
        -8.221085933683746
      ],
      [
        "▁paper",
        -6.811064970065042
      ],
      [
        "nt",
        -7.926099267872553
      ],
      [
        "▁approval",
        -9.123869944711316
      ],
      [
        "▁forget",
        -7.8047061598920475
      ],
      [
        "▁p",
        -7.0739428297070654
      ],
      [
        "▁ten",
        -8.99943448455471
      ],
      [
        "icide",
        -8.696793154669027
      ],
      [
        "▁rise",
        -9.231808899821043
      ],
      [
        "▁chicken",
        -7.479618094834508
      ],
      [
        "ture",
        -7.81960982533579
      ],
      [
        "▁representative",
        -9.080391683828603
      ],
      [
        "▁term",
        -7.350059746022408
      ],
      [
        "?????",
        -11.017867342887754
      ],
      [
        "▁roll",
        -8.827099005855356
      ],
      [
        "▁scene",
        -8.51176739934912
      ],
      [
        "▁ignore",
        -8.690690195797188
      ],
      [
        "beside",
        -11.715294844028275
      ],
      [
        "▁sector",
        -8.376727164926757
      ],
      [
        "▁parl",
        -7.9174887841752755
      ],
      [
        "▁hers",
        -11.553708895953593
      ],
      [
        "▁abou",
        -5.1502907813187875
      ],
      [
        "▁got",
        -5.199521392430971
      ],
      [
        "▁relationship",
        -8.295977476132588
      ],
      [
        "▁facilitate",
        -9.255807223988535
      ],
      [
        "▁sometime",
        -6.090063230110807
      ],
      [
        "▁stil",
        -5.179362880414711
      ],
      [
        "▁player",
        -8.327969841936287
      ],
      [
        "▁o",
        -12.326071694749007
      ],
      [
        "▁coin",
        -9.174805655911044
      ],
      [
        "a",
        -4.130361687978228
      ],
      [
        "▁yog",
        -8.640146853951949
      ],
      [
        "|",
        -9.71992686283465
      ],
      [
        "▁dis",
        -9.010239066066248
      ],
      [
        "gan",
        -9.10983211249284
      ],
      [
        "town",
        -7.598583364221026
      ],
      [
        "▁suit",
        -9.034212128978872
      ],
      [
        "▁examine",
        -8.958313668623637
      ],
      [
        "▁bee",
        -8.571528797556873
      ],
      [
        "c",
        -5.811834898890697
      ],
      [
        "▁appreciate",
        -8.071396535783002
      ],
      [
        "▁deal",
        -7.6621603068830595
      ],
      [
        "▁resident",
        -9.169324874442342
      ],
      [
        "▁guideline",
        -8.923318864321372
      ],
      [
        "▁place",
        -7.751819224249484
      ],
      [
        "en",
        -7.9438376368086185
      ],
      [
        "▁confirm",
        -8.120681179643658
      ],
      [
        "▁t",
        -7.159435104150309
      ],
      [
        "▁attack",
        -8.166821387077388
      ],
      [
        "▁episode",
        -9.21694357252228
      ],
      [
        "▁w",
        -6.298882848285828
      ],
      [
        "!!!!!!!!!!!!!",
        -12.159030662584136
      ],
      [
        "▁litera",
        -8.853048086727451
      ],
      [
        "oh",
        -5.75281353938016
      ],
      [
        "▁supplie",
        -9.108504337108789
      ],
      [
        "q",
        -8.45857891560698
      ],
      [
        "▁paint",
        -8.410390060706064
      ],
      [
        "▁forgot",
        -7.758661021247899
      ],
      [
        "as",
        -4.369503812218433
      ],
      [
        "▁abilit",
        -8.366522322577062
      ],
      [
        "▁energy",
        -7.710254107816979
      ],
      [
        "▁domain",
        -9.038725487086722
      ],
      [
        "▁way",
        -5.50502050497518
      ],
      [
        "▁alo",
        -13.510182422926066
      ],
      [
        "▁exercise",
        -9.217749554897994
      ],
      [
        "▁sunday",
        -7.388268224229664
      ],
      [
        "ic",
        -7.61690669834341
      ],
      [
        "▁4",
        -4.753496389042687
      ],
      [
        "▁work",
        -6.025187949164228
      ],
      [
        "▁cry",
        -8.092439845207672
      ],
      [
        "el",
        -7.022978776406453
      ],
      [
        "▁phoe",
        -6.470391100104839
      ],
      [
        "head",
        -7.109249811403601
      ],
      [
        "▁pig",
        -8.466027118186767
      ],
      [
        "▁skills",
        -8.674893452609716
      ],
      [
        "▁quartile",
        -9.080391684523477
      ],
      [
        "▁play",
        -5.482863547825015
      ],
      [
        "er",
        -11.883239097720296
      ],
      [
        "▁d",
        -8.804879413247377
      ],
      [
        "▁entr",
        -9.1383560766978
      ],
      [
        "▁reject",
        -9.212291352067611
      ],
      [
        "hat",
        -3.789532303880037
      ],
      [
        "▁30",
        -5.898121181112609
      ],
      [
        "▁mi",
        -6.329246453419491
      ],
      [
        "▁theme",
        -8.998725109543658
      ],
      [
        "th",
        -6.985667254388134
      ],
      [
        "▁bas",
        -8.497951332467174
      ],
      [
        "more",
        -5.727711952200021
      ],
      [
        "▁other",
        -7.476001329729437
      ],
      [
        "▁mor",
        -5.345130170783909
      ],
      [
        "▁lay",
        -9.031733995253749
      ],
      [
        "▁drama",
        -9.169325248910472
      ],
      [
        "▁kid",
        -7.211556190149635
      ],
      [
        "▁egg",
        -7.872640054151843
      ],
      [
        "u",
        -5.226039066423351
      ],
      [
        "c",
        -6.008928337258088
      ],
      [
        "per",
        -8.726136413540846
      ],
      [
        "▁vega",
        -6.635007151032913
      ],
      [
        "▁remark",
        -9.216943561793538
      ],
      [
        "▁south",
        -8.819705341495732
      ],
      [
        "once",
        -6.213434230210199
      ],
      [
        "▁exhibit",
        -8.81969606406947
      ],
      [
        "in",
        -8.465254429914015
      ],
      [
        "▁load",
        -9.006487675009382
      ],
      [
        "book",
        -8.557311059629232
      ],
      [
        "▁ca",
        -4.021459500937557
      ],
      [
        "▁mumm",
        -8.316246375597277
      ],
      [
        "▁contract",
        -8.184076471032185
      ],
      [
        "▁need",
        -4.9754309386742674
      ],
      [
        "▁dog",
        -6.656000729431259
      ],
      [
        "▁set",
        -6.866630984593461
      ],
      [
        "r",
        -6.1491067157679815
      ],
      [
        "o",
        -1.7919375046051371
      ],
      [
        "▁mous",
        -8.641673365966716
      ],
      [
        "▁word",
        -6.806647864047421
      ],
      [
        "▁cow",
        -8.179690089835708
      ],
      [
        "▁sister",
        -8.040302769378005
      ],
      [
        "uff",
        -9.023314099977823
      ],
      [
        "▁hard",
        -6.2698592650442055
      ],
      [
        "▁j",
        -6.0592118436648414
      ],
      [
        "▁earlie",
        -6.343694260173169
      ],
      [
        "▁wh",
        -5.509002581214281
      ],
      [
        "▁qui",
        -6.449378746013751
      ],
      [
        "▁fire",
        -7.560571012724341
      ],
      [
        "▁attention",
        -7.617405484042893
      ],
      [
        "▁us",
        -5.578402828284721
      ],
      [
        "▁uh",
        -4.032163193927326
      ],
      [
        "▁c",
        -6.691884532447161
      ],
      [
        "▁we",
        -7.785271393941958
      ],
      [
        "▁trouble",
        -7.9961402165583415
      ],
      [
        "▁'",
        -9.052455780862363
      ],
      [
        "▁particular",
        -6.879661482062576
      ],
      [
        "▁influence",
        -8.81978442624895
      ],
      [
        "▁update",
        -8.923317144802338
      ],
      [
        "▁basil",
        -8.538931470237134
      ],
      [
        "▁temperature",
        -8.61309738066222
      ],
      [
        "adelphi",
        -5.283336306940196
      ],
      [
        "▁declaration",
        -9.080392191392056
      ],
      [
        "▁==",
        -12.464802984085608
      ],
      [
        "a",
        -7.313902365806134
      ],
      [
        "▁defeat",
        -9.024964534526536
      ],
      [
        "▁suit",
        -9.442799361406374
      ],
      [
        "▁host",
        -9.168810829922517
      ],
      [
        "tic",
        -7.116147008177122
      ],
      [
        "▁candidate",
        -8.853029512456077
      ],
      [
        "▁cheape",
        -6.199647512997842
      ],
      [
        "ou",
        -7.021157929762656
      ],
      [
        "▁>",
        -9.582936923105237
      ],
      [
        "▁document",
        -7.777317582949337
      ],
      [
        "▁agricultur",
        -9.038725017166328
      ],
      [
        "▁draft",
        -8.35588602613353
      ],
      [
        ".",
        -9.0084367062112
      ],
      [
        "▁open",
        -6.446986532387996
      ],
      [
        "▁bus",
        -7.029018912513156
      ],
      [
        "▁support",
        -7.841740516479839
      ],
      [
        "ut",
        -7.9379170790157785
      ],
      [
        "▁big",
        -5.164406598255679
      ],
      [
        "x",
        -11.925660239071421
      ],
      [
        ".",
        -1.4533572890270836
      ],
      [
        "▁response",
        -7.836858238716574
      ],
      [
        "▁guess",
        -7.080943056021663
      ],
      [
        "▁couple",
        -7.514746374831105
      ],
      [
        "▁block",
        -8.33682074244903
      ],
      [
        "▁cat",
        -7.130995090598844
      ],
      [
        "▁sept",
        -6.6044496667328865
      ],
      [
        "▁pl",
        -8.198259039806256
      ],
      [
        "▁life",
        -6.429225869129951
      ],
      [
        "▁somethin",
        -5.952656046882825
      ],
      [
        "▁ok",
        -6.289238687970232
      ],
      [
        "▁article",
        -7.887246847174498
      ],
      [
        "las",
        -4.934397653464572
      ],
      [
        "▁participat",
        -9.424939284286868
      ],
      [
        "_",
        -4.384580076550113
      ],
      [
        "▁on",
        -2.700071180263146
      ],
      [
        "▁w",
        -7.600125098473432
      ],
      [
        "▁insight",
        -9.123869944823143
      ],
      [
        "1",
        -12.810278406305976
      ],
      [
        "▁emerge",
        -9.38954857975813
      ],
      [
        "▁oh",
        -3.2899133699130747
      ],
      [
        "oth",
        -8.842116098097984
      ],
      [
        "x",
        -7.839595997550478
      ],
      [
        "▁most",
        -5.67441530637149
      ],
      [
        "be",
        -6.697446996375136
      ],
      [
        "v",
        -5.575747967194121
      ],
      [
        "in",
        -7.051805178413207
      ],
      [
        "▁front",
        -7.601454435138757
      ],
      [
        ":",
        -5.121007365794226
      ],
      [
        "▁aunt",
        -8.960865426247896
      ],
      [
        "al",
        -5.958726361627539
      ],
      [
        "▁connect",
        -7.758087071008227
      ],
      [
        "▁",
        -3.252429650460364
      ],
      [
        "w",
        -7.411054368279365
      ],
      [
        "▁writ",
        -7.110939147606393
      ],
      [
        "ling",
        -8.656944928295674
      ],
      [
        "▁in",
        -3.2387404176839407
      ],
      [
        "▁winter",
        -8.295871169518074
      ],
      [
        "▁tool",
        -8.37730071642854
      ],
      [
        "here",
        -6.183649337266312
      ],
      [
        "▁nest",
        -9.172291796593397
      ],
      [
        "▁hold",
        -9.043810112066787
      ],
      [
        "▁indiana",
        -6.677476247584471
      ],
      [
        "iness",
        -8.746950893897328
      ],
      [
        "sible",
        -5.963259940662837
      ],
      [
        "▁milita",
        -6.883185739735112
      ],
      [
        "▁experience",
        -7.087068893496163
      ],
      [
        "fe",
        -8.44210562283323
      ],
      [
        "▁search",
        -8.787444009487338
      ],
      [
        "▁objective",
        -8.923805520080826
      ],
      [
        "▁br",
        -9.147238720845868
      ],
      [
        "▁differ",
        -9.364938636273932
      ],
      [
        "▁econom",
        -7.3885931912046985
      ],
      [
        "▁’",
        -8.629992473727398
      ],
      [
        "▁transport",
        -6.604467960840209
      ],
      [
        "▁principle",
        -8.725884969175901
      ],
      [
        "phone",
        -8.728371290137284
      ],
      [
        "europ",
        -6.79352500653621
      ],
      [
        "is",
        -7.10095694405546
      ],
      [
        "s",
        -2.358705181573894
      ],
      [
        "▁pollut",
        -8.998981184762249
      ],
      [
        "▁amount",
        -7.2781239419419075
      ],
      [
        "▁remov",
        -9.423419825005226
      ],
      [
        "▁chic",
        -6.464542883881845
      ],
      [
        "▁speed",
        -8.819700786291069
      ],
      [
        "her",
        -6.563763909055743
      ],
      [
        "▁pain",
        -8.48439456547764
      ],
      [
        "▁grape",
        -9.080648317134184
      ],
      [
        "her",
        -5.970249124020137
      ],
      [
        "ian",
        -8.886281959573067
      ],
      [
        "▁range",
        -8.5386288540977
      ],
      [
        "speci",
        -6.56809779980563
      ],
      [
        "▁construct",
        -9.18317412548558
      ],
      [
        "▁york",
        -5.898067754643051
      ],
      [
        "▁language",
        -6.993077345197551
      ],
      [
        "be",
        -8.086772398805063
      ],
      [
        "f",
        -2.4516511753350763
      ],
      [
        "ro",
        -9.323176805322918
      ],
      [
        "▁cookie",
        -8.505811307028567
      ],
      [
        "ton",
        -8.749021132259394
      ],
      [
        "▁wh",
        -11.28246861509878
      ],
      [
        "▁enem",
        -8.85305883298894
      ],
      [
        "▁speech",
        -8.819696123774193
      ],
      [
        "▁pull",
        -7.056814369868906
      ],
      [
        "y",
        -7.530712123467332
      ],
      [
        "▁phone",
        -7.184235406349587
      ],
      [
        "▁key",
        -7.996897666659144
      ],
      [
        "▁require",
        -7.255971108646589
      ],
      [
        "▁cowboy",
        -8.787438184076839
      ],
      [
        "enti",
        -9.138469515775558
      ],
      [
        "▁theor",
        -7.824664755149863
      ],
      [
        "▁is",
        -5.984605269276846
      ],
      [
        "▁cup",
        -7.551690482998459
      ],
      [
        "▁wear",
        -7.030136924463811
      ],
      [
        "full",
        -6.272233315765131
      ],
      [
        "al",
        -6.561525238534631
      ],
      [
        "own",
        -5.651585842620452
      ],
      [
        "f",
        -6.608821903122248
      ],
      [
        "ville",
        -6.999420822601101
      ],
      [
        "▁extreme",
        -7.084282788287229
      ],
      [
        "▁requirement",
        -8.185669980483093
      ],
      [
        "▁v",
        -10.549009922820543
      ],
      [
        "n",
        -5.486893563346862
      ],
      [
        "▁worker",
        -8.386702114549118
      ],
      [
        "▁ant",
        -8.07381301185632
      ],
      [
        "▁quer",
        -8.438819969914144
      ],
      [
        "g",
        -6.634938445940062
      ],
      [
        "▁throw",
        -7.132923699682043
      ],
      [
        "▁rubb",
        -8.696473294785536
      ],
      [
        "ook",
        -6.641626205827474
      ],
      [
        "▁country",
        -6.907077576185934
      ],
      [
        "▁intern",
        -8.260173015318548
      ],
      [
        "▁stole",
        -9.362240009490458
      ],
      [
        "_",
        -5.0347307007443804
      ],
      [
        "▁co",
        -7.205937425386225
      ],
      [
        "i",
        -5.936780311896299
      ],
      [
        "▁en",
        -8.445995296597175
      ],
      [
        ".",
        -9.207163296872874
      ],
      [
        ".....",
        -11.977458560269762
      ],
      [
        "o",
        -3.511903393270858
      ],
      [
        "▁pl",
        -3.2601159934010724
      ],
      [
        "▁insect",
        -9.217858816956213
      ],
      [
        "▁etc",
        -7.824802520377602
      ],
      [
        "▁statu",
        -8.876990776813212
      ],
      [
        "▁institution",
        -8.35588601986888
      ],
      [
        "▁organization",
        -8.221079316054567
      ],
      [
        "▁product",
        -7.144694182176071
      ],
      [
        "▁bear",
        -7.413292550567692
      ],
      [
        "*************",
        -12.63592864490868
      ],
      [
        "▁row",
        -8.627311835288015
      ],
      [
        "▁legislat",
        -8.819380215675938
      ],
      [
        "get",
        -10.22512405160739
      ],
      [
        "n",
        -5.575385108590867
      ],
      [
        "▁lack",
        -8.703374223642642
      ],
      [
        "▁idea",
        -6.938774514926831
      ],
      [
        "▁maj",
        -6.857447257322732
      ],
      [
        "▁rock",
        -8.055540085774771
      ],
      [
        "▁beginning",
        -8.487940388594948
      ],
      [
        "▁when",
        -4.481408849397259
      ],
      [
        "▁interact",
        -9.212624344128375
      ],
      [
        "▁p",
        -9.237570785962834
      ],
      [
        "▁talk",
        -8.134830892226333
      ],
      [
        "l",
        -4.5492073385446234
      ],
      [
        "’",
        -11.119861525668208
      ],
      [
        "▁introduce",
        -8.200117681523333
      ],
      [
        "someon",
        -9.75135018918097
      ],
      [
        "▁direct",
        -8.924893410825268
      ],
      [
        "▁s",
        -9.732919305058479
      ],
      [
        "▁bill",
        -8.275429721219602
      ],
      [
        "▁la",
        -6.234224018822062
      ],
      [
        "▁wood",
        -8.739854070160543
      ],
      [
        "▁cast",
        -9.323984159509102
      ],
      [
        "ney",
        -7.371820333774097
      ],
      [
        "▁impact",
        -8.355891721003994
      ],
      [
        "t",
        -3.1149023117862136
      ],
      [
        "h",
        -4.22858231472119
      ],
      [
        "▁govern",
        -9.283563698877625
      ],
      [
        "▁love",
        -7.821445912638369
      ],
      [
        "▁project",
        -7.32143208008294
      ],
      [
        "▁it",
        -4.990832559725664
      ],
      [
        "▁disappear",
        -9.025395337929355
      ],
      [
        "▁they",
        -4.1663145534812855
      ],
      [
        "▁roman",
        -6.825919429447128
      ],
      [
        "▁aspect",
        -8.221141738810385
      ],
      [
        "▁test",
        -8.14215972269377
      ],
      [
        "▁survive",
        -8.607826943963541
      ],
      [
        "▁pipe",
        -9.080226385174704
      ],
      [
        "▁home",
        -6.828055413329658
      ],
      [
        "▁cost",
        -7.911166214463438
      ],
      [
        "▁battle",
        -9.080431227822888
      ],
      [
        "▁use",
        -7.267892017966105
      ],
      [
        "▁folk",
        -8.923229581741735
      ],
      [
        "▁cha",
        -8.659152392222111
      ],
      [
        "▁20",
        -4.844886168365915
      ],
      [
        "ha",
        -9.950407672530257
      ],
      [
        "▁boot",
        -8.336177477453067
      ],
      [
        "▁jul",
        -6.9373478999007965
      ],
      [
        "▁start",
        -6.035742676720251
      ],
      [
        "▁gotte",
        -9.31265395207345
      ],
      [
        "▁ris",
        -9.20008949094287
      ],
      [
        "al",
        -7.304549979831503
      ],
      [
        "▁re",
        -7.705712950666447
      ],
      [
        "▁recognize",
        -8.349560514077385
      ],
      [
        "ober",
        -7.368781672293722
      ],
      [
        "ched",
        -9.337331019732819
      ],
      [
        "▁wou",
        -10.722851391669158
      ],
      [
        "▁animal",
        -7.064213837031686
      ],
      [
        "▁kni",
        -8.677404735783163
      ],
      [
        "b",
        -6.1504537306829885
      ],
      [
        "on",
        -11.079524852188499
      ],
      [
        "▁instance",
        -8.728700900309207
      ],
      [
        "▁improv",
        -8.76572397638179
      ],
      [
        "ight",
        -7.544412920616464
      ],
      [
        "▁funn",
        -6.8697663908629885
      ],
      [
        "▁sha",
        -13.234491823502221
      ],
      [
        "▁i",
        -5.301129070997394
      ],
      [
        "▁carry",
        -7.4452905083337955
      ],
      [
        "▁shark",
        -8.78743890752177
      ],
      [
        "▁story",
        -7.486752696585063
      ],
      [
        "▁europe",
        -6.770604656035175
      ],
      [
        "ati",
        -7.3844325867222835
      ],
      [
        "▁other",
        -4.5395040691075765
      ],
      [
        "▁tail",
        -8.29666352688395
      ],
      [
        "sphere",
        -8.276802762934473
      ],
      [
        "▁effect",
        -7.63730569847781
      ],
      [
        "4",
        -4.227577718061922
      ],
      [
        "us",
        -5.9074583295142755
      ],
      [
        "▁spill",
        -8.918939825192812
      ],
      [
        "dia",
        -7.541339966809506
      ],
      [
        "▁17",
        -5.757736140466072
      ],
      [
        "▁definition",
        -8.960263751426002
      ],
      [
        "aw",
        -8.635393372690027
      ],
      [
        "▁shake",
        -8.986524122660615
      ],
      [
        "y",
        -5.527089822828086
      ],
      [
        "▁mail",
        -8.441975209823593
      ],
      [
        "▁democra",
        -8.257771320516436
      ],
      [
        "▁urge",
        -9.411700244063756
      ],
      [
        "n",
        -1.763362936029182
      ],
      [
        "whom",
        -12.043381109938869
      ],
      [
        "▁dec",
        -8.623105624318299
      ],
      [
        "illa",
        -8.639674084766057
      ],
      [
        "g",
        -6.332895806031362
      ],
      [
        "▁author",
        -8.053784648607103
      ],
      [
        "▁hair",
        -6.961946290224792
      ],
      [
        "▁thought",
        -6.440770853893309
      ],
      [
        "▁muscle",
        -8.696473256240786
      ],
      [
        "▁cost",
        -7.25784370814909
      ],
      [
        "▁donkey",
        -8.99872504735843
      ],
      [
        "▁shut",
        -8.40855525823017
      ],
      [
        "▁l2",
        -9.080618184187369
      ],
      [
        "▁spen",
        -7.682695389956869
      ],
      [
        "ent",
        -8.214593509377867
      ],
      [
        "▁mr",
        -7.014939835080129
      ],
      [
        "▁generation",
        -8.377496851346336
      ],
      [
        "▁alon",
        -6.861000914725314
      ],
      [
        "ough",
        -5.854176465378226
      ],
      [
        "▁caus",
        -8.900027625784086
      ],
      [
        "d",
        -10.889404706649984
      ],
      [
        "elf",
        -12.595825789223744
      ],
      [
        "sit",
        -9.383504073805348
      ],
      [
        "at",
        -7.706429681576975
      ],
      [
        "▁thank",
        -6.722052781598699
      ],
      [
        "▁corner",
        -8.119334718825932
      ],
      [
        "▁ski",
        -9.001797112228406
      ],
      [
        "▁earlie",
        -7.181797654149654
      ],
      [
        "▁than",
        -5.888803821775666
      ],
      [
        "canada",
        -7.372545342126392
      ],
      [
        "▁sink",
        -9.17224950914374
      ],
      [
        "▁simple",
        -7.298001257945252
      ],
      [
        "▁age",
        -7.465010556708252
      ],
      [
        "▁end",
        -7.739997475527316
      ],
      [
        "sh",
        -9.209405661343489
      ],
      [
        ")",
        -4.681454226988154
      ],
      [
        "==",
        -11.055194985824043
      ],
      [
        "▁cover",
        -8.443252732364815
      ],
      [
        "▁gather",
        -8.61079917971708
      ],
      [
        "is",
        -7.450562292556078
      ],
      [
        "▁operator",
        -8.696852753789948
      ],
      [
        "▁snow",
        -8.397997250289041
      ],
      [
        "▁",
        -2.345074069766005
      ],
      [
        "▁milk",
        -6.873830041159017
      ],
      [
        "▁to",
        -4.828081713777489
      ],
      [
        "ant",
        -7.805191051445353
      ],
      [
        "▁who",
        -5.033694261489916
      ],
      [
        "▁!!!!!!!",
        -11.846846990791377
      ],
      [
        "u",
        -6.695873815508354
      ],
      [
        "▁self",
        -8.117210543896308
      ],
      [
        "▁ar",
        -3.9459345355302604
      ],
      [
        "▁solve",
        -9.079268602044394
      ],
      [
        "x",
        -6.627227203346111
      ],
      [
        "-",
        -6.902957581157088
      ],
      [
        "▁congratulate",
        -9.360851869981587
      ],
      [
        "ament",
        -7.898664581102432
      ],
      [
        "▁method",
        -7.9537835286735215
      ],
      [
        "▁learn",
        -6.838105611386304
      ],
      [
        "▁cats",
        -8.802696259025517
      ],
      [
        "▁limit",
        -8.544266779409964
      ],
      [
        "▁america",
        -6.805892094766217
      ],
      [
        "▁advance",
        -9.410256147462524
      ],
      [
        "in",
        -5.083038796106619
      ],
      [
        "▁lady",
        -8.623778655961548
      ],
      [
        "be",
        -5.8753117268286665
      ],
      [
        "▁_",
        -8.58743407694508
      ],
      [
        "▁pepper",
        -8.998725359353813
      ],
      [
        "▁chose",
        -8.64906604535041
      ],
      [
        "▁viol",
        -8.99574909449927
      ],
      [
        "▁delete",
        -8.995020198938137
      ],
      [
        "▁ever",
        -6.10819088353339
      ],
      [
        "▁!",
        -6.89487113485091
      ],
      [
        "▁ice",
        -8.277578779557965
      ],
      [
        "ate",
        -8.517381669978011
      ],
      [
        "half",
        -8.969509701511594
      ],
      [
        "▁children",
        -7.048035830856158
      ],
      [
        "▁bec",
        -7.535835746995765
      ],
      [
        "ac",
        -8.033584466117276
      ],
      [
        "ar",
        -7.070180781046311
      ],
      [
        "!?!?",
        -12.27640857922021
      ],
      [
        "▁hold",
        -6.661459958134625
      ],
      [
        "▁intellig",
        -8.511749936789036
      ],
      [
        "▁return",
        -6.980570236197516
      ],
      [
        "▁writer",
        -7.998063626797059
      ],
      [
        "▁shout",
        -9.15195904554747
      ],
      [
        "▁visit",
        -7.170082819623273
      ],
      [
        "▁fare",
        -6.243598581231868
      ],
      [
        "▁whom",
        -8.815811107281924
      ],
      [
        "▁maintain",
        -7.770155367477616
      ],
      [
        "▁seek",
        -7.794721868270505
      ],
      [
        "▁shot",
        -9.34252858618312
      ],
      [
        "/",
        -13.8724705263812
      ],
      [
        "▁firm",
        -8.536144868958694
      ],
      [
        "▁fro",
        -8.847864777376085
      ],
      [
        "▁market",
        -7.237160547891797
      ],
      [
        "▁garage",
        -8.787726275326047
      ],
      [
        "▁friend",
        -7.098054325008396
      ],
      [
        "*****",
        -11.55114666431147
      ],
      [
        "???",
        -11.494198687124818
      ],
      [
        "▁hand",
        -6.527532593615033
      ],
      [
        "▁dropp",
        -8.034717269481467
      ],
      [
        "▁imagine",
        -7.707056211457395
      ],
      [
        "▁argument",
        -8.397995949455344
      ],
      [
        "▁color",
        -8.649343940973306
      ],
      [
        "▁toast",
        -7.981855447091121
      ],
      [
        "'",
        -5.782686409310488
      ],
      [
        "▁mar",
        -7.297696740242504
      ],
      [
        "▁create",
        -6.916483019848426
      ],
      [
        "istan",
        -7.336864754137586
      ],
      [
        "2",
        -3.9783356324857158
      ],
      [
        "▁assure",
        -9.165045670762654
      ],
      [
        "▁government",
        -6.9218414706134155
      ],
      [
        "▁every",
        -8.96049418921693
      ],
      [
        "▁move",
        -8.798921287248344
      ],
      [
        "▁dinosaur",
        -7.9133275646061625
      ],
      [
        "▁news",
        -7.849179933841362
      ],
      [
        "▁communit",
        -7.545179626267756
      ],
      [
        "▁goal",
        -8.0871612786386
      ],
      [
        "▁earn",
        -8.527899775111031
      ],
      [
        "▁grow",
        -7.940441023343274
      ],
      [
        "▁view",
        -8.258169616922892
      ],
      [
        "▁law",
        -7.098797919527961
      ],
      [
        ">",
        -7.243668748634377
      ],
      [
        "▁case",
        -6.819419001734462
      ],
      [
        "▁wh",
        -12.988879350244954
      ],
      [
        "▁show",
        -7.743656537800783
      ],
      [
        "▁bo",
        -8.678440275998891
      ],
      [
        "▁failure",
        -8.787438904233388
      ],
      [
        "▁mosquito",
        -9.038725017162863
      ],
      [
        "h",
        -5.354454608136791
      ],
      [
        "'s",
        -8.603282909460837
      ],
      [
        "▁se",
        -7.331513262247151
      ],
      [
        "▁friendl",
        -6.990607316596084
      ],
      [
        "on",
        -5.130753300564142
      ],
      [
        "kin",
        -9.038414802321533
      ],
      [
        "ado",
        -9.176192457724936
      ],
      [
        "▁bec",
        -3.6135778509392047
      ],
      [
        "▁custom",
        -9.117886138625346
      ],
      [
        "▁ma",
        -8.539376449403814
      ],
      [
        "▁pocket",
        -7.754459659503548
      ],
      [
        "▁honey",
        -7.824669930291182
      ],
      [
        "▁for",
        -3.676327704226436
      ],
      [
        "▁title",
        -8.725911657682675
      ],
      [
        "▁tu",
        -7.1194088931604576
      ],
      [
        "nda",
        -8.985330967418504
      ],
      [
        "ou",
        -10.30332967954138
      ],
      [
        "▁remind",
        -8.351327217733763
      ],
      [
        "▁be",
        -6.418192732652731
      ],
      [
        "▁plen",
        -8.647142468445018
      ],
      [
        "o",
        -4.960517581308591
      ],
      [
        "▁color",
        -7.397563484698041
      ],
      [
        "–",
        -5.905733460450745
      ],
      [
        "▁chocolate",
        -8.335477856596388
      ],
      [
        "▁pet",
        -8.137475773635654
      ],
      [
        "▁'",
        -6.425214222828881
      ],
      [
        "hos",
        -7.461527069413849
      ],
      [
        "▁extend",
        -8.23777162680596
      ],
      [
        "▁plan",
        -8.307157985587114
      ],
      [
        "let",
        -9.138793533962309
      ],
      [
        "▁ap",
        -8.967049891672927
      ],
      [
        "▁truth",
        -8.487940459490225
      ],
      [
        "▁consist",
        -9.283652398662763
      ],
      [
        "▁climate",
        -8.397996040818356
      ],
      [
        "▁right",
        -5.710999127079453
      ],
      [
        "rou",
        -13.078869863422522
      ],
      [
        "******",
        -12.400348347525032
      ],
      [
        "s",
        -3.2318891890768686
      ],
      [
        "▁measure",
        -8.120096173602686
      ],
      [
        "▁build",
        -7.533699094761116
      ],
      [
        "***************",
        -11.823410765088374
      ],
      [
        "▁comparison",
        -9.123870045291513
      ],
      [
        "▁user",
        -7.94686394948986
      ],
      [
        "▁dead",
        -6.792772852962086
      ],
      [
        "▁plast",
        -8.960500173831381
      ],
      [
        "▁state",
        -6.817692271492893
      ],
      [
        "▁section",
        -7.996139061198978
      ],
      [
        "ry",
        -7.477042467158305
      ],
      [
        "yo",
        -12.726913103948085
      ],
      [
        "---------",
        -11.379442948397054
      ],
      [
        "▁suggest",
        -7.269309469923409
      ],
      [
        "▁rat",
        -8.5438792815511
      ],
      [
        "▁tol",
        -6.346755550568246
      ],
      [
        "▁r",
        -7.875906494424209
      ],
      [
        "▁prefer",
        -8.702774858518639
      ],
      [
        "▁butter",
        -8.39899608425373
      ],
      [
        "▁dish",
        -8.4211822727429
      ],
      [
        "▁pitt",
        -5.109957628049475
      ],
      [
        "in",
        -5.972258428642649
      ],
      [
        "re",
        -7.102225890172842
      ],
      [
        "▁estimate",
        -8.098732058245107
      ],
      [
        "▁re",
        -6.688884180512101
      ],
      [
        "▁mommy",
        -5.364345025348642
      ],
      [
        "▁stage",
        -8.698019412692508
      ],
      [
        "▁record",
        -7.590202869594289
      ],
      [
        "▁focuse",
        -9.211524198346563
      ],
      [
        "▁secret",
        -9.08024097720582
      ],
      [
        "done",
        -6.783452192464883
      ],
      [
        "▁video",
        -7.732112971538104
      ],
      [
        "▁direction",
        -8.419735081117501
      ],
      [
        "o'",
        -8.688547346441494
      ],
      [
        "▁exercise",
        -9.331770677504128
      ],
      [
        "▁peanut",
        -8.696493613361936
      ],
      [
        "▁universit",
        -6.8235898416761405
      ],
      [
        "le",
        -6.8729791587189375
      ],
      [
        "▁hel",
        -7.245677028959272
      ],
      [
        "▁iran",
        -6.869489833685237
      ],
      [
        "lock",
        -8.024586378018121
      ],
      [
        "▁rid",
        -8.692506648163228
      ],
      [
        "▁force",
        -8.278667594786835
      ],
      [
        "▁mark",
        -8.602526147128756
      ],
      [
        "▁few",
        -5.7598031210673275
      ],
      [
        "ary",
        -6.2190890523679005
      ],
      [
        "▁mom",
        -6.897876860616451
      ],
      [
        "▁arrangement",
        -8.96026349665036
      ],
      [
        "▁gas",
        -7.89051597573011
      ],
      [
        "▁novel",
        -8.296280055282253
      ],
      [
        "▁mass",
        -8.556257492946397
      ],
      [
        "▁unite",
        -7.293944788822664
      ],
      [
        "▁crime",
        -8.85303165273744
      ],
      [
        "▁remember",
        -6.274852527604202
      ],
      [
        "▁finding",
        -9.16960617209487
      ],
      [
        "am",
        -8.439299181712826
      ],
      [
        "▁point",
        -8.002162580788006
      ],
      [
        "ex",
        -7.917704102461412
      ],
      [
        "1",
        -12.707635305583393
      ],
      [
        "▁arrange",
        -8.659840971283762
      ],
      [
        "▁o",
        -7.903254943525872
      ],
      [
        "i",
        -6.532200686243057
      ],
      [
        "..............",
        -14.171066924010521
      ],
      [
        "▁stillman",
        -7.264076336258403
      ],
      [
        "r",
        -7.556471746184325
      ],
      [
        "▁submitt",
        -9.234876957290208
      ],
      [
        "l",
        -2.7651899767306247
      ],
      [
        "▁apply",
        -7.699492334367162
      ],
      [
        "▁farmer",
        -9.007456608702139
      ],
      [
        "▁gu",
        -9.008634678794186
      ],
      [
        "▁sit",
        -6.330185365203777
      ],
      [
        "▁rest",
        -7.612453355379895
      ],
      [
        "▁assign",
        -8.874152891066661
      ],
      [
        "▁",
        -2.7000107461934846
      ],
      [
        "▁f",
        -11.570644583811621
      ],
      [
        "--",
        -6.649124866636526
      ],
      [
        "▁exchange",
        -9.252106009712
      ],
      [
        "▁orla",
        -6.661679213327274
      ],
      [
        "ve",
        -10.92566035959162
      ],
      [
        "gen",
        -9.024920985422918
      ],
      [
        "▁march",
        -7.222956755173649
      ],
      [
        "▁share",
        -7.958676915142011
      ],
      [
        "▁tea",
        -8.005515618352948
      ],
      [
        "▁speci",
        -8.309994548216958
      ],
      [
        "▁relate",
        -8.875343751627707
      ],
      [
        "▁m",
        -7.860570558349283
      ],
      [
        "▁before",
        -6.6514196137008295
      ],
      [
        "▁like",
        -6.445794770201078
      ],
      [
        "▁return",
        -7.92666092283588
      ],
      [
        "f",
        -2.549806178690007
      ],
      [
        "▁sa",
        -6.480620694170948
      ],
      [
        "es",
        -6.876952332114524
      ],
      [
        "me",
        -6.250742814045079
      ],
      [
        "ologi",
        -7.274968840286015
      ],
      [
        "▁pass",
        -7.307761619104325
      ],
      [
        "s",
        -3.4323096462437865
      ],
      [
        "▁ride",
        -8.524860939973944
      ],
      [
        "▁border",
        -8.586785284063456
      ],
      [
        "▁w",
        -6.776476851865281
      ],
      [
        "▁route",
        -8.787455504387772
      ],
      [
        "▁airplane",
        -8.613242196588832
      ],
      [
        "▁a",
        -6.746763213277558
      ],
      [
        "▁ra",
        -7.264634109176454
      ],
      [
        "▁cut",
        -8.619399010850714
      ],
      [
        "▁natural",
        -6.989556970057124
      ],
      [
        "▁sex",
        -8.726401675517666
      ],
      [
        "▁american",
        -5.9239046532590685
      ],
      [
        "▁target",
        -8.787438022389779
      ],
      [
        "▁town",
        -7.278296875438283
      ],
      [
        "_",
        -5.537490390474223
      ],
      [
        "fore",
        -6.806894281632575
      ],
      [
        "▁balance",
        -8.696548268984998
      ],
      [
        "day",
        -7.523400618805456
      ],
      [
        "hat",
        -8.562382551748577
      ],
      [
        "▁password",
        -9.123884720131798
      ],
      [
        "▁determine",
        -8.031306582582058
      ],
      [
        "▁citizens",
        -8.155322500037236
      ],
      [
        "ual",
        -6.36502189831647
      ],
      [
        "d",
        -1.5741834082059167
      ],
      [
        "▁license",
        -7.767979767270777
      ],
      [
        "e",
        -4.22288634209055
      ],
      [
        "self",
        -5.973973300353701
      ],
      [
        "ere",
        -8.9394830435864
      ],
      [
        "▁mil",
        -6.217874905444641
      ],
      [
        "▁fun",
        -8.108338126141614
      ],
      [
        "▁wan",
        -5.44162962435048
      ],
      [
        "▁dance",
        -9.069633632679107
      ],
      [
        "▁yo",
        -9.375395264527263
      ],
      [
        "▁surprise",
        -8.397995949034483
      ],
      [
        "▁hung",
        -8.973203302111912
      ],
      [
        "▁lead",
        -7.517633113995592
      ],
      [
        "▁hurt",
        -7.0391796372335245
      ],
      [
        "▁yard",
        -9.01493607806211
      ],
      [
        "▁break",
        -8.613115703612863
      ],
      [
        "v",
        -11.925660239071421
      ],
      [
        "▁ar",
        -7.66241252467595
      ],
      [
        "l",
        -4.943432235573655
      ],
      [
        "▁compete",
        -9.235698832012206
      ],
      [
        "▁fight",
        -8.556444104866852
      ],
      [
        "ick",
        -9.001756191552666
      ],
      [
        "▁host",
        -8.873476020623873
      ],
      [
        "ocus",
        -8.960841532056333
      ],
      [
        "▁target",
        -9.02478317640449
      ],
      [
        "thes",
        -8.344899422662623
      ],
      [
        "...",
        -9.194120139503523
      ],
      [
        "ant",
        -5.65993211659834
      ],
      [
        "i",
        -6.571173088739063
      ],
      [
        "g",
        -6.242241902986692
      ],
      [
        "how",
        -6.8343150304575
      ],
      [
        "▁account",
        -7.627305798760164
      ],
      [
        "▁improve",
        -7.9706922204608
      ],
      [
        "th",
        -6.565100117342234
      ],
      [
        "▁train",
        -6.9878188981369185
      ],
      [
        "▁how",
        -5.336934980005224
      ],
      [
        "▁sheet",
        -8.476896875009034
      ],
      [
        "us",
        -3.920615676271253
      ],
      [
        "ou",
        -10.954094405007353
      ],
      [
        "r",
        -4.3481861650490226
      ],
      [
        "▁se",
        -8.094494879163094
      ],
      [
        "▁apartment",
        -8.419735082546314
      ],
      [
        "▁role",
        -7.76589562693948
      ],
      [
        "ce",
        -6.716123088150296
      ],
      [
        "ding",
        -8.718424413211814
      ],
      [
        "▁t",
        -8.001755625623433
      ],
      [
        "▁what",
        -3.8575555843200693
      ],
      [
        "▁revise",
        -9.03800813273054
      ],
      [
        "▁study",
        -7.4287601947056805
      ],
      [
        "▁behavior",
        -8.46468457431364
      ],
      [
        "+",
        -11.925660239071421
      ],
      [
        "▁general",
        -6.982809582124102
      ],
      [
        "v",
        -7.189853336756621
      ],
      [
        "cal",
        -5.9443159686160865
      ],
      [
        "in",
        -6.821546047507693
      ],
      [
        "▁sleep",
        -7.3867615725125875
      ],
      [
        "p",
        -6.1429944473577205
      ],
      [
        "▁file",
        -7.123631378906847
      ],
      [
        "▁offer",
        -8.927079765038958
      ],
      [
        "an",
        -6.580590713007868
      ],
      [
        "nd",
        -12.030856372203957
      ],
      [
        "ation",
        -5.7578209231489765
      ],
      [
        "▁whale",
        -8.613334126188366
      ],
      [
        "ing",
        -4.909233382480111
      ],
      [
        "▁continue",
        -6.897750134033349
      ],
      [
        "her",
        -9.029804971560168
      ],
      [
        "▁catch",
        -7.591525767138456
      ],
      [
        "▁wash",
        -7.504951731329325
      ],
      [
        "der",
        -8.163473377761157
      ],
      [
        "▁call",
        -5.507270510526616
      ],
      [
        "▁independen",
        -8.790922294957042
      ],
      [
        "▁deliver",
        -8.049358438413172
      ],
      [
        "▁",
        -1.879078986922659
      ],
      [
        "▁us",
        -6.5218719918286725
      ],
      [
        "▁..........",
        -12.830818015419348
      ],
      [
        "a",
        -2.8896488760980406
      ],
      [
        "us",
        -7.778989704250542
      ],
      [
        "▁di",
        -8.714196175217431
      ],
      [
        "▁get",
        -7.116919860684064
      ],
      [
        "▁unfortuna",
        -7.549589134851153
      ],
      [
        "▁h",
        -9.88687233925407
      ],
      [
        "ion",
        -7.111931306513912
      ],
      [
        "▁pretend",
        -8.139216432580561
      ],
      [
        "an",
        -13.70487764730738
      ],
      [
        "▁belief",
        -8.488470225120022
      ],
      [
        "▁copyright",
        -9.217000553989449
      ],
      [
        "▁specify",
        -9.283681199074485
      ],
      [
        "▁psycholog",
        -9.216958332728755
      ],
      [
        "▁assum",
        -9.165025065780606
      ],
      [
        "▁feather",
        -9.171252181532425
      ],
      [
        "▁!!!",
        -8.822914129701736
      ],
      [
        "▁thank",
        -6.299459731837786
      ],
      [
        "▁!!!!!",
        -12.942034343401446
      ],
      [
        "▁know",
        -4.428565868834826
      ],
      [
        "▁storm",
        -8.729885739033914
      ],
      [
        "▁late",
        -6.267339765221746
      ],
      [
        "▁pressure",
        -8.787813494265828
      ],
      [
        "▁promise",
        -8.237400325629473
      ],
      [
        "▁whil",
        -4.621993292267832
      ],
      [
        "▁discussion",
        -8.37671935351842
      ],
      [
        "b",
        -9.077941439510095
      ],
      [
        "▁steal",
        -9.2840917300488
      ],
      [
        "v",
        -6.914025817119866
      ],
      [
        "▁da",
        -9.772392388497229
      ],
      [
        "der",
        -10.23364092298107
      ],
      [
        "▁realize",
        -8.060523133677941
      ],
      [
        "6",
        -4.586613867475252
      ],
      [
        "des",
        -8.219792757979947
      ],
      [
        "`",
        -9.585942977269655
      ],
      [
        "▁addition",
        -8.315478175411581
      ],
      [
        "▁fa",
        -8.84211047302638
      ],
      [
        "c",
        -4.327503421637194
      ],
      [
        "▁soup",
        -9.123906814053967
      ],
      [
        "▁form",
        -8.023580180085943
      ],
      [
        "▁cruise",
        -8.419777201115817
      ],
      [
        "▁will",
        -4.287029515795241
      ],
      [
        "▁game",
        -6.67492127272534
      ],
      [
        "g",
        -5.178950778187781
      ],
      [
        "ning",
        -8.758933472931854
      ],
      [
        "▁problem",
        -6.648347422405645
      ],
      [
        "▁doggie",
        -7.647428703439606
      ],
      [
        "▁qualit",
        -7.437607515917092
      ],
      [
        "▁alter",
        -9.364013232035528
      ],
      [
        "▁admit",
        -9.184319919238236
      ],
      [
        "ver",
        -10.086671659406758
      ],
      [
        "!!!!!!!!!!!",
        -12.390566855407181
      ],
      [
        "ever",
        -7.831432693761964
      ],
      [
        "▁b",
        -7.480039276401502
      ],
      [
        "e",
        -6.537752415107047
      ],
      [
        "▁t",
        -8.151778055974345
      ],
      [
        "▁filter",
        -8.221198041400385
      ],
      [
        "h",
        -6.8467432452806625
      ],
      [
        "ia",
        -6.46572768572054
      ],
      [
        "▁initiative",
        -8.853065530383738
      ],
      [
        "▁smell",
        -9.08039181275079
      ],
      [
        "o",
        -5.874656600078543
      ],
      [
        "d",
        -2.637497417406923
      ],
      [
        "▁f",
        -7.008989567983062
      ],
      [
        "▁friday",
        -6.952953189626692
      ],
      [
        "le",
        -8.50795881827378
      ],
      [
        "▁ga",
        -7.345565621664555
      ],
      [
        "▁live",
        -6.4022916255705535
      ],
      [
        "unch",
        -8.727674962482121
      ],
      [
        "▁’",
        -6.974791146606354
      ],
      [
        "▁",
        -3.5515534901066914
      ],
      [
        "▁bump",
        -9.283223577838324
      ],
      [
        "▁tax",
        -7.951376515584673
      ],
      [
        "▁labor",
        -8.669192077985084
      ],
      [
        "▁desire",
        -9.216946150353202
      ],
      [
        "▁distribute",
        -8.56609744035245
      ],
      [
        "▁control",
        -8.942475958787753
      ],
      [
        "▁amaz",
        -7.2975510369699
      ],
      [
        "er",
        -6.115462792319052
      ],
      [
        "which",
        -9.187918605841523
      ],
      [
        "▁tourist",
        -8.39882020912513
      ],
      [
        "a",
        -3.0361378326562036
      ],
      [
        "▁conclusion",
        -8.787540364728878
      ],
      [
        ",",
        -2.0458494590007046
      ],
      [
        "▁other",
        -7.5787548873627975
      ],
      [
        "▁v",
        -8.292371398184915
      ],
      [
        "▁purchase",
        -8.519796011439709
      ],
      [
        "▁detail",
        -7.836859423219972
      ],
      [
        "▁strawberr",
        -9.080391708709893
      ],
      [
        "n",
        -6.489548559025758
      ],
      [
        "our",
        -7.25248867554389
      ],
      [
        "▁respect",
        -9.024946751241243
      ],
      [
        "▁demand",
        -8.376691249688534
      ],
      [
        "▁m",
        -6.931104861536909
      ],
      [
        "▁china",
        -6.612034642802275
      ],
      [
        "▁group",
        -6.604477869223665
      ],
      [
        "▁alway",
        -5.519820572217112
      ],
      [
        "ston",
        -4.585924370011063
      ],
      [
        "ighten",
        -9.43439811874087
      ],
      [
        "▁design",
        -8.117580129951966
      ],
      [
        "▁poet",
        -8.536914196757197
      ],
      [
        "▁spoke",
        -7.662118865388581
      ],
      [
        "▁rinse",
        -9.443591173236342
      ],
      [
        "▁b",
        -7.312066243997636
      ],
      [
        "▁photograph",
        -8.458866092533235
      ],
      [
        "▁lea",
        -6.746900389964052
      ],
      [
        "▁model",
        -7.942408274525652
      ],
      [
        "▁check",
        -7.097397547130876
      ],
      [
        "!!!!!!!",
        -11.238141621059212
      ],
      [
        "▁audience",
        -8.561140524512687
      ],
      [
        "uh",
        -13.441672283788352
      ],
      [
        "▁ha",
        -4.961582746137714
      ],
      [
        "▁trust",
        -8.12134502943936
      ],
      [
        "▁balance",
        -8.631981310546628
      ],
      [
        "idence",
        -8.086516438613055
      ],
      [
        "▁drink",
        -8.040256502061432
      ],
      [
        "abo",
        -12.396353484691211
      ],
      [
        "f",
        -8.590723168736831
      ],
      [
        "▁phil",
        -5.248908426229393
      ],
      [
        "▁b",
        -6.06939314395327
      ],
      [
        "er",
        -7.534039384376678
      ],
      [
        "ial",
        -6.617192983272803
      ],
      [
        "▁obs",
        -9.217082718623141
      ],
      [
        "▁movie",
        -7.421236012705993
      ],
      [
        "▁hire",
        -8.685795281176249
      ],
      [
        "▁ca",
        -13.8725705263812
      ],
      [
        "▁need",
        -7.860002752423309
      ],
      [
        "ar",
        -9.595809148025694
      ],
      [
        "c",
        -11.810278406305967
      ],
      [
        "▁save",
        -7.460705679004733
      ],
      [
        "ka",
        -8.551583514202843
      ],
      [
        "s",
        -7.035194481589116
      ],
      [
        "▁oakl",
        -6.081524326249057
      ],
      [
        "rove",
        -8.69355978323242
      ],
      [
        "th",
        -6.309957278833341
      ],
      [
        "herself",
        -11.97634857643032
      ],
      [
        "one",
        -8.361856041647858
      ],
      [
        "▁simpl",
        -6.887166233920471
      ],
      [
        "▁yell",
        -8.971970784677987
      ],
      [
        "▁discusse",
        -9.424436303222725
      ],
      [
        "p",
        -12.28153641900687
      ],
      [
        "▁here",
        -4.079579998525942
      ],
      [
        "te",
        -7.352798822831
      ],
      [
        "▁bottle",
        -7.83685848104486
      ],
      [
        "▁address",
        -7.874162269279834
      ],
      [
        "ta",
        -7.147772999218849
      ],
      [
        "▁treatment",
        -8.277292309821547
      ],
      [
        "▁care",
        -7.695339058275782
      ],
      [
        "▁calculate",
        -9.310419178133518
      ],
      [
        "▁jew",
        -9.08070588184273
      ],
      [
        "▁window",
        -7.532858349745302
      ],
      [
        "▁her",
        -5.255891180698642
      ],
      [
        "ell",
        -9.376633534543751
      ],
      [
        "▁ab",
        -8.860843904040433
      ],
      [
        "▁thi",
        -3.955288045893009
      ],
      [
        "▁\"",
        -8.960736102532653
      ],
      [
        "▁plann",
        -7.863411079835668
      ],
      [
        "tter",
        -5.970593096106856
      ],
      [
        "▁scream",
        -9.212301766933104
      ],
      [
        "@",
        -7.37363482958904
      ],
      [
        "▁categor",
        -8.787438293266323
      ],
      [
        "▁bottom",
        -8.185669981593628
      ],
      [
        "▁sky",
        -8.1025562247717
      ],
      [
        "▁engl",
        -7.356228967165604
      ],
      [
        "the",
        -7.024914228420359
      ],
      [
        "▁midd",
        -8.34351613913224
      ],
      [
        "▁good",
        -4.598078696122425
      ],
      [
        "king",
        -9.168556985503093
      ],
      [
        "▁cheese",
        -7.837043727004968
      ],
      [
        "’",
        -8.311179329526977
      ],
      [
        "▁reache",
        -8.944570140040254
      ],
      [
        "▁draft",
        -9.083459478640432
      ],
      [
        "▁cage",
        -8.12056574427752
      ],
      [
        "▁suffer",
        -7.928009550386038
      ],
      [
        "▁pin",
        -8.715703490953587
      ],
      [
        "l",
        -5.233182386482137
      ],
      [
        "▁economic",
        -6.772570457784909
      ],
      [
        "▁card",
        -7.589935950633074
      ],
      [
        "▁observe",
        -8.234673799315816
      ],
      [
        "▁sudden",
        -7.4773120002241225
      ],
      [
        "▁head",
        -8.28152344114799
      ],
      [
        "▁conduct",
        -8.47053861262362
      ],
      [
        "more",
        -5.176001385946601
      ],
      [
        "ional",
        -6.668489374221227
      ],
      [
        "-",
        -6.7657225488199115
      ],
      [
        "know",
        -8.628820432861547
      ],
      [
        "▁nov",
        -7.360116161097441
      ],
      [
        "▁texa",
        -6.9008809914060985
      ],
      [
        "▁tag",
        -8.998908137437832
      ],
      [
        "▁slow",
        -7.370680472423794
      ],
      [
        "4",
        -11.925660239071421
      ],
      [
        "▁tree",
        -7.701735158572218
      ],
      [
        "ect",
        -8.250049229689823
      ],
      [
        "▁display",
        -7.855065846435074
      ],
      [
        "id",
        -8.85045198564125
      ],
      [
        "▁roll",
        -8.093633649111608
      ],
      [
        "▁among",
        -7.2254285659457125
      ],
      [
        "▁strateg",
        -8.536140307071953
      ],
      [
        "▁miles",
        -8.581393473223175
      ],
      [
        "▁luck",
        -8.853029404084241
      ],
      [
        "t",
        -2.4878868855370015
      ],
      [
        "▁cake",
        -8.203548630724674
      ],
      [
        "▁settlement",
        -8.536140409133335
      ],
      [
        "w",
        -5.491188161949157
      ],
      [
        "▁obtain",
        -8.438158095999771
      ],
      [
        "▁board",
        -9.283379317465256
      ],
      [
        "▁speak",
        -7.239835423288421
      ],
      [
        "▁use",
        -5.3767126065130055
      ],
      [
        "th",
        -8.014660046279783
      ],
      [
        "▁any",
        -6.200640577973125
      ],
      [
        "▁shoulder",
        -8.69647340710104
      ],
      [
        "▁rug",
        -8.92323814933704
      ],
      [
        "▁commission",
        -7.48348264406183
      ],
      [
        "efficien",
        -9.169437708935291
      ],
      [
        "▁spring",
        -8.671751084428612
      ],
      [
        "▁tho",
        -7.397496751881506
      ],
      [
        "▁thousand",
        -8.39799594897627
      ],
      [
        "▁hell",
        -5.579624852051386
      ],
      [
        "▁paint",
        -8.81800342621576
      ],
      [
        "h",
        -9.530401437393046
      ],
      [
        "▁comment",
        -9.027458153108224
      ],
      [
        "▁heart",
        -7.812614952552662
      ],
      [
        "▁over",
        -5.746199670579694
      ],
      [
        "▁t",
        -6.541443342038364
      ],
      [
        "▁freedom",
        -8.086429968389753
      ],
      [
        "0",
        -3.7401553914094876
      ],
      [
        "▁dollar",
        -7.2304002448944455
      ],
      [
        "▁wheel",
        -8.39799596022531
      ],
      [
        "d",
        -4.701714546391115
      ],
      [
        "▁learn",
        -8.315480642049883
      ],
      [
        "▁oppose",
        -8.689039683321802
      ],
      [
        "d",
        -6.44230447588491
      ],
      [
        "s",
        -10.83641398548844
      ],
      [
        "▁strong",
        -6.705735057937477
      ],
      [
        "▁questions",
        -7.464146785644244
      ],
      [
        "▁culture",
        -7.765854417341588
      ],
      [
        "▁clean",
        -7.614144936595171
      ],
      [
        "▁ira",
        -7.262090301229988
      ],
      [
        "▁el",
        -6.533844654885006
      ],
      [
        "▁out",
        -4.814863351036432
      ],
      [
        "▁voice",
        -7.637528279142687
      ],
      [
        "▁advise",
        -8.642676767136889
      ],
      [
        "▁wed",
        -8.587518253747817
      ],
      [
        "▁red",
        -6.333813204650047
      ],
      [
        "▁underst",
        -9.122260045145696
      ],
      [
        "▁m",
        -7.008065295960894
      ],
      [
        "▁dirt",
        -8.787455502718792
      ],
      [
        "▁lay",
        -7.83455951931724
      ],
      [
        "ce",
        -5.340986048479182
      ],
      [
        "▁recommend",
        -6.895939823875512
      ],
      [
        "▁little",
        -4.980723849944373
      ],
      [
        "▁heat",
        -8.060452690975215
      ],
      [
        "over",
        -9.188771017412943
      ],
      [
        "▁airport",
        -7.597956423971422
      ],
      [
        "▁respond",
        -8.077348590338405
      ],
      [
        "ted",
        -6.377831684507669
      ],
      [
        "rican",
        -6.621653965549827
      ],
      [
        "▁pa",
        -8.437070639283336
      ],
      [
        "▁meaning",
        -8.453463297589357
      ],
      [
        "▁start",
        -8.136081255425534
      ],
      [
        "▁directive",
        -8.102290307189087
      ],
      [
        "▁another",
        -5.70473121673835
      ],
      [
        "ul",
        -10.976443136227793
      ],
      [
        "▁n",
        -6.357557291452977
      ],
      [
        "▁vegetable",
        -8.819704383473985
      ],
      [
        "9",
        -4.443752773287558
      ],
      [
        "▁sustain",
        -9.360408394516764
      ],
      [
        "▁human",
        -6.556366750583185
      ],
      [
        "▁stair",
        -8.999039406325553
      ],
      [
        "'",
        -2.482385910194264
      ],
      [
        "▁household",
        -9.081135028646244
      ],
      [
        "▁its",
        -6.201980132509921
      ],
      [
        "head",
        -9.05129821171414
      ],
      [
        "▁gon",
        -5.350338757148288
      ],
      [
        "▁g",
        -6.747886763049845
      ],
      [
        "▁found",
        -6.336787716580186
      ],
      [
        "▁yellow",
        -6.965176970186363
      ],
      [
        "▁hundred",
        -8.819696064316304
      ],
      [
        "▁float",
        -8.688947204043847
      ],
      [
        "▁…",
        -9.511839873390812
      ],
      [
        "▁express",
        -8.509294847339676
      ],
      [
        "▁bag",
        -7.431370248626756
      ],
      [
        "▁earl",
        -7.23689365952583
      ],
      [
        "▁crop",
        -8.960269655204407
      ],
      [
        "▁apple",
        -8.377477888894493
      ],
      [
        "er",
        -5.41592212726871
      ],
      [
        "▁the",
        -4.368852518839425
      ],
      [
        "▁paul",
        -6.2911579165301434
      ],
      [
        "our",
        -8.602635877523241
      ],
      [
        "▁consequence",
        -8.923226441705136
      ],
      [
        "want",
        -9.323151046085508
      ],
      [
        "ound",
        -5.61124075279864
      ],
      [
        "ho",
        -13.331044045789548
      ],
      [
        "room",
        -8.530008135399292
      ],
      [
        "▁attract",
        -8.538253893795229
      ],
      [
        "▁bunn",
        -8.640832405419772
      ],
      [
        "▁no",
        -3.1231490279289718
      ],
      [
        "▁channel",
        -8.819696156902857
      ],
      [
        "▁bite",
        -7.841128810969074
      ],
      [
        "scope",
        -9.169323849458058
      ],
      [
        "▁gender",
        -8.853335522894143
      ],
      [
        "l",
        -4.932719265569361
      ],
      [
        "ember",
        -6.20100111500425
      ],
      [
        "▁escape",
        -8.36135136895972
      ],
      [
        "▁strengthen",
        -8.731130213921778
      ],
      [
        "n",
        -3.4248351833273194
      ],
      [
        "▁airfare",
        -8.923998950931967
      ],
      [
        "▁interest",
        -6.45681399413694
      ],
      [
        "▁specifi",
        -7.060318245974871
      ],
      [
        "▁matter",
        -8.916816432592363
      ],
      [
        "▁hop",
        -8.4796290412475
      ],
      [
        "▁coast",
        -8.561146812783505
      ],
      [
        "o",
        -3.5173493339713584
      ],
      [
        "▁basket",
        -8.960263834465621
      ],
      [
        "land",
        -6.180929649234821
      ],
      [
        "▁currenc",
        -8.925982449105422
      ],
      [
        "▁invent",
        -9.024819165760555
      ],
      [
        "▁thes",
        -5.533559998489873
      ],
      [
        "..",
        -11.6166454357157
      ],
      [
        "▁invit",
        -9.374430122357591
      ],
      [
        "ver",
        -10.035555650788586
      ],
      [
        "▁intend",
        -7.878414666613796
      ],
      [
        "▁b",
        -7.005897978310936
      ],
      [
        "g",
        -7.307917268225807
      ],
      [
        "▁button",
        -7.657751460610127
      ],
      [
        "h",
        -3.151586959751487
      ],
      [
        "▁7",
        -5.116752489530166
      ],
      [
        "▁de",
        -8.417906198579672
      ],
      [
        "na",
        -7.35964918259743
      ],
      [
        "▁co",
        -10.565588314305248
      ],
      [
        "u",
        -12.810278406305976
      ],
      [
        "rew",
        -8.562748343629995
      ],
      [
        "▁rail",
        -9.080691728937694
      ],
      [
        "▁fai",
        -8.907171450632363
      ],
      [
        "▁test",
        -7.462644608207331
      ],
      [
        "▁spider",
        -8.488004830422666
      ],
      [
        "▁site",
        -7.516176501886119
      ],
      [
        "e",
        -2.362962577693258
      ],
      [
        "▁bus",
        -7.723142778580611
      ],
      [
        "ding",
        -8.078390291009798
      ],
      [
        "▁d",
        -8.724840587039013
      ],
      [
        "washington",
        -5.483334395984938
      ],
      [
        "▁,",
        -8.528595320707595
      ],
      [
        "▁heel",
        -9.123887803495048
      ],
      [
        "▁bye",
        -9.135951588317361
      ],
      [
        "▁potato",
        -9.169326197098348
      ],
      [
        "▁ensur",
        -8.932108183470353
      ],
      [
        "▁ride",
        -7.57088732838403
      ],
      [
        "▁white",
        -6.200269289236962
      ],
      [
        "▁stor",
        -8.001711846913501
      ],
      [
        "`",
        -11.832476852014032
      ],
      [
        "another",
        -8.42639901100924
      ],
      [
        "▁interview",
        -8.977517289680325
      ],
      [
        "▁dut",
        -8.881334110534642
      ],
      [
        "▁small",
        -5.796754880294776
      ],
      [
        "ign",
        -7.2091698257293855
      ],
      [
        "ther",
        -8.47414026107005
      ],
      [
        "▁side",
        -7.051965038694226
      ],
      [
        "▁stream",
        -9.127246834577521
      ],
      [
        "adam",
        -8.801204290585094
      ],
      [
        "▁provid",
        -8.342887990288133
      ],
      [
        "got",
        -9.258822941761718
      ],
      [
        "▁screen",
        -8.464684587137533
      ],
      [
        "▁image",
        -7.75459209629341
      ],
      [
        "▁m",
        -8.808938386214283
      ],
      [
        "▁dirt",
        -7.284134994020468
      ],
      [
        "▁serv",
        -8.487206372820735
      ],
      [
        "▁last",
        -5.387396407587891
      ],
      [
        "▁til",
        -10.08890471521851
      ],
      [
        "}",
        -12.810278406305976
      ],
      [
        "▁truck",
        -7.471911364093881
      ],
      [
        "▁don",
        -7.625149306039239
      ],
      [
        "▁pro",
        -8.176086083262978
      ],
      [
        "▁desk",
        -8.086636777297008
      ],
      [
        "ate",
        -7.545575350373912
      ],
      [
        "less",
        -6.3768290441130455
      ],
      [
        "!!!!!!",
        -10.71985271599892
      ],
      [
        "pm",
        -6.061094385241822
      ],
      [
        "▁d",
        -6.385383206556362
      ],
      [
        "▁sample",
        -8.565606250306264
      ],
      [
        "▁soil",
        -8.889168601922512
      ],
      [
        "▁relax",
        -9.119215601218187
      ],
      [
        "▁disaster",
        -8.56114092810419
      ],
      [
        "▁unit",
        -8.169113657763326
      ],
      [
        "▁engage",
        -9.027959368460433
      ],
      [
        "▁time",
        -5.0334879187466575
      ],
      [
        "ooooo",
        -12.71015855894965
      ],
      [
        "ave",
        -6.872084745117334
      ],
      [
        "ill",
        -8.261672746001006
      ],
      [
        "▁realise",
        -9.285368907153273
      ],
      [
        "mp",
        -8.561430826518587
      ],
      [
        "▁rest",
        -8.780464668951797
      ],
      [
        "▁x",
        -8.282674863649182
      ],
      [
        "▁rush",
        -9.239331250726643
      ],
      [
        "▁argu",
        -9.357744420874603
      ],
      [
        "+",
        -10.834960006133095
      ],
      [
        "▁15",
        -5.4561862377902095
      ],
      [
        "i",
        -11.770631529841472
      ],
      [
        "▁may",
        -8.487805845481695
      ],
      [
        "go",
        -8.652390594870235
      ],
      [
        "▁center",
        -8.337433226566898
      ],
      [
        "▁lesson",
        -8.640130335876776
      ],
      [
        "▁step",
        -8.465616940251993
      ],
      [
        "de",
        -9.88178093873111
      ],
      [
        "lf",
        -10.491965744396772
      ],
      [
        "▁lion",
        -8.731586927554355
      ],
      [
        "▁world",
        -6.304401061820538
      ],
      [
        "▁propert",
        -7.4131640324254855
      ],
      [
        "▁until",
        -5.5638749337406646
      ],
      [
        "position",
        -9.0127388001521
      ],
      [
        "shed",
        -9.252416951702074
      ],
      [
        "▁chair",
        -7.3967621303258415
      ],
      [
        "al",
        -7.346946077370534
      ],
      [
        "ze",
        -8.312436807530913
      ],
      [
        "bal",
        -6.877981207083328
      ],
      [
        "en",
        -7.180907493805097
      ],
      [
        "▁study",
        -7.777318078017562
      ],
      [
        "▁concept",
        -8.195374080475702
      ],
      [
        "▁enron",
        -6.666633476926522
      ],
      [
        "p",
        -12.303800120175861
      ],
      [
        "▁air",
        -6.76560104667951
      ],
      [
        "▁tell",
        -5.587525770223458
      ],
      [
        "we",
        -9.175861871794693
      ],
      [
        "▁bank",
        -8.377275839643652
      ],
      [
        "▁wh",
        -6.667104945947118
      ],
      [
        "▁practice",
        -8.376719353628014
      ],
      [
        "ail",
        -5.888541626445163
      ],
      [
        "▁stick",
        -8.470154685681408
      ],
      [
        "▁street",
        -7.3893489104263965
      ],
      [
        "w",
        -5.189900606426425
      ],
      [
        "i",
        -5.576815622650968
      ],
      [
        "▁cancel",
        -8.969339575900687
      ],
      [
        "▁sun",
        -7.487139292978851
      ],
      [
        "ther",
        -6.293876075097796
      ],
      [
        "▁manage",
        -8.279946590380614
      ],
      [
        "▁president",
        -7.446433186007898
      ],
      [
        "▁researcher",
        -9.117416334669539
      ],
      [
        "▁career",
        -8.303245205045553
      ],
      [
        "▁warm",
        -8.897398393907192
      ],
      [
        "▁du",
        -6.791389539449149
      ],
      [
        "▁west",
        -7.1666257367120805
      ],
      [
        "▁shape",
        -8.613112779310399
      ],
      [
        "b",
        -4.989213884672491
      ],
      [
        "▁council",
        -8.464680849402349
      ],
      [
        "▁travel",
        -8.450296626252157
      ],
      [
        "l",
        -6.2055390445399565
      ],
      [
        "▁sh",
        -6.53497480056053
      ],
      [
        "▁advi",
        -8.535265685975862
      ],
      [
        "line",
        -8.559509135766652
      ],
      [
        "▁drive",
        -7.535443308692442
      ],
      [
        "hi",
        -12.596011167150566
      ],
      [
        "he",
        -7.5492054522716066
      ],
      [
        "▁sp",
        -8.107831717624427
      ],
      [
        "▁statement",
        -8.283199658757818
      ],
      [
        "▁fix",
        -7.571761303624871
      ],
      [
        "▁understand",
        -6.771795786522425
      ],
      [
        "it",
        -6.529377036237729
      ],
      [
        "▁societ",
        -7.60760076739078
      ],
      [
        "▁even",
        -4.814484194664957
      ],
      [
        "▁first",
        -5.646883055112838
      ],
      [
        "▁large",
        -5.780948463543281
      ],
      [
        "u",
        -6.499139571092141
      ],
      [
        "▁application",
        -7.800710161798443
      ],
      [
        "▁get",
        -4.421414040666525
      ],
      [
        "u",
        -3.4498478262533245
      ],
      [
        "ng",
        -8.371015105561044
      ],
      [
        "i",
        -2.7294335593499106
      ],
      [
        "ch",
        -6.898701418822459
      ],
      [
        "▁show",
        -4.68195076631695
      ],
      [
        "▁runn",
        -7.605528184991227
      ],
      [
        "▁beside",
        -8.602917140222484
      ],
      [
        "▁oil",
        -7.6507804575525205
      ],
      [
        "▁payment",
        -8.536595842590732
      ],
      [
        "▁bar",
        -7.855849417329392
      ],
      [
        "▁counterpart",
        -8.667901870700764
      ],
      [
        "▁research",
        -7.669431016892204
      ],
      [
        "▁assess",
        -8.689162915160052
      ],
      [
        "▁inter",
        -8.790763503864412
      ],
      [
        "▁earth",
        -8.119381326187579
      ],
      [
        "▁where",
        -4.295607078995645
      ],
      [
        "ol",
        -6.925431509875882
      ],
      [
        "o",
        -3.6856562933200667
      ],
      [
        "▁find",
        -5.481086058264582
      ],
      [
        "▁check",
        -8.168428947603775
      ],
      [
        "more",
        -7.0924871061843655
      ],
      [
        "[SEP]",
        0.0
      ],
      [
        "msel",
        -8.064757822162456
      ],
      [
        "▁easi",
        -7.509591222627236
      ],
      [
        "yours",
        -12.142066938395672
      ],
      [
        "▁threat",
        -8.355886072813451
      ],
      [
        "▁convince",
        -9.062312165094493
      ],
      [
        "▁bubble",
        -8.960263613129376
      ],
      [
        "▁li",
        -8.905933880865888
      ],
      [
        "▁dal",
        -5.1031312299685965
      ],
      [
        "▁wait",
        -9.120835427364886
      ],
      [
        "▁register",
        -9.083751068424034
      ],
      [
        "▁p",
        -6.583243332153931
      ],
      [
        "▁guarantee",
        -8.611129027755467
      ],
      [
        "▁screw",
        -9.283484327322988
      ],
      [
        "▁salt",
        -8.316899565779925
      ],
      [
        "▁made",
        -5.751019815800901
      ],
      [
        "▁kansa",
        -6.811230330250781
      ],
      [
        "ure",
        -8.118158498829867
      ],
      [
        "o",
        -7.324375830066715
      ],
      [
        "▁sure",
        -5.83860052409209
      ],
      [
        "▁cam",
        -6.278293092448769
      ],
      [
        "▁post",
        -8.180190563541796
      ],
      [
        "▁matter",
        -7.505720524888654
      ],
      [
        "▁dress",
        -7.922935736617031
      ],
      [
        "▁occurr",
        -8.562198231586656
      ],
      [
        "=---",
        -11.804144771854496
      ],
      [
        "▁advantage",
        -8.81969606449028
      ],
      [
        "like",
        -9.262996894325436
      ],
      [
        "▁tom",
        -7.105620614746199
      ],
      [
        "▁ou",
        -13.722228931311994
      ],
      [
        "▁educate",
        -9.404391758100541
      ],
      [
        "tional",
        -6.048598725648832
      ],
      [
        "▁fina",
        -7.557620854095129
      ],
      [
        "▁season",
        -8.359062764414066
      ],
      [
        "eather",
        -8.465370609516151
      ],
      [
        "ile",
        -9.12645591391108
      ],
      [
        "▁turn",
        -6.08920135787137
      ],
      [
        "ike",
        -3.964776749538939
      ],
      [
        "▁wine",
        -7.996364599712911
      ],
      [
        "▁mode",
        -8.233712274669234
      ],
      [
        "▁employ",
        -8.875024277893623
      ],
      [
        "▁process",
        -6.9619146280502155
      ],
      [
        "▁pen",
        -7.9610550382665615
      ],
      [
        "m",
        -6.224220405310532
      ],
      [
        "▁hospital",
        -8.315477856718175
      ],
      [
        "▁mr",
        -7.273031942122844
      ],
      [
        "_",
        -4.472959159980312
      ],
      [
        "4",
        -8.923153861219452
      ],
      [
        "▁where",
        -5.614914026485336
      ],
      [
        "er",
        -5.2157715594066945
      ],
      [
        "▁refuse",
        -8.380345088153414
      ],
      [
        "the",
        -9.636382313932264
      ],
      [
        "alit",
        -8.760430665631885
      ],
      [
        "▁list",
        -7.114475899614571
      ],
      [
        "▁suck",
        -8.73240815058813
      ],
      [
        "▁bak",
        -9.180767045850281
      ],
      [
        "▁prove",
        -8.168219478103088
      ],
      [
        "ect",
        -7.2808766303213615
      ],
      [
        "▁fear",
        -8.536699310275022
      ],
      [
        "▁motor",
        -9.123911414460832
      ],
      [
        "ous",
        -4.87272141173675
      ],
      [
        "▁smile",
        -9.168788834185621
      ],
      [
        "▁squirt",
        -9.288686004311
      ],
      [
        "que",
        -8.90760469344174
      ],
      [
        "▁provide",
        -6.477830836230567
      ],
      [
        "▁run",
        -7.094404592042268
      ],
      [
        "▁transit",
        -9.178403805848987
      ],
      [
        "▁n",
        -6.745757626619826
      ],
      [
        "countries",
        -7.335963384501514
      ],
      [
        "▁programme",
        -7.940340874201702
      ],
      [
        "as",
        -7.54452203721696
      ],
      [
        "ting",
        -8.398526626205726
      ],
      [
        "▁emerg",
        -8.615334838944051
      ],
      [
        "▁rent",
        -8.812025043454252
      ],
      [
        "▁3",
        -4.562374329675668
      ],
      [
        "▁cut",
        -6.988656765585494
      ],
      [
        "---=",
        -11.805652056917825
      ],
      [
        "▁cris",
        -8.758063941140502
      ],
      [
        "▁lik",
        -5.142726697149617
      ],
      [
        "polis",
        -6.346417235986103
      ],
      [
        "p",
        -6.261203873790647
      ],
      [
        "▁improvement",
        -8.887513307970934
      ],
      [
        "▁trip",
        -6.58322999789118
      ],
      [
        "▁publish",
        -8.886603719170564
      ],
      [
        "▁mam",
        -8.621617564024273
      ],
      [
        "out",
        -8.075003317222459
      ],
      [
        "▁vi",
        -9.065046716852741
      ],
      [
        "▁liv",
        -7.570239989097203
      ],
      [
        "▁publication",
        -9.220037488833055
      ],
      [
        "▁ar",
        -6.245121969360562
      ],
      [
        "▁exchange",
        -8.819696765247082
      ],
      [
        "▁number",
        -6.210399829628592
      ],
      [
        "▁roman",
        -6.285402666758411
      ],
      [
        "▁_______",
        -11.336214334389922
      ],
      [
        "ium",
        -9.014128226028207
      ],
      [
        "▁mathematic",
        -8.852888984169859
      ],
      [
        "▁s",
        -5.346467888196824
      ],
      [
        "▁smell",
        -8.186978174367109
      ],
      [
        "▁individual",
        -8.561140155979066
      ],
      [
        "▁worm",
        -8.83306646032122
      ],
      [
        "▁includ",
        -6.833177670588736
      ],
      [
        "▁expect",
        -7.097626935970076
      ],
      [
        "▁mos",
        -6.7054045308103385
      ],
      [
        "▁complain",
        -9.025065023844638
      ],
      [
        "▁agreement",
        -7.523439646606449
      ],
      [
        "uh",
        -5.177654103719441
      ],
      [
        "inst",
        -6.754258181145743
      ],
[...]
