{
  "version": "1.0",
  "truncation": null,
  "padding": null,
  "added_tokens": [
    {
      "id": 1073,
      "content": "[UNK]",
      "single_word": false,
      "lstrip": false,
      "rstrip": false,
      "normalized": false,
      "special": true
    },
    {
      "id": 2533,
      "content": "[PAD]",
      "single_word": false,
      "lstrip": false,
      "rstrip": false,
      "normalized": false,
      "special": true
    },
    {
      "id": 2898,
      "content": "[CLS]",
      "single_word": false,
      "lstrip": false,
      "rstrip": false,
      "normalized": false,
      "special": true
    },
    {
      "id": 3369,
      "content": "[SEP]",
      "single_word": false,
      "lstrip": false,
      "rstrip": false,
      "normalized": false,
      "special": true
    },
    {
      "id": 3831,
      "content": "[MASK]",
      "single_word": false,
      "lstrip": false,
      "rstrip": false,
      "normalized": false,
      "special": true
    }
  ],
  "normalizer": {
    "type": "Sequence",
    "normalizers": [
      {
        "type": "NFD"
      },
      {
        "type": "Lowercase"
      },
      {
        "type": "StripAccents"
      }
    ]
  },
  "pre_tokenizer": {
    "type": "Sequence",
    "pretokenizers": [
      {
        "type": "Metaspace",
        "replacement": "▁",
        "prepend_scheme": "always",
        "split": true
      }
    ]
  },
  "post_processor": {
    "type": "TemplateProcessing",
    "single": [
      {
        "SpecialToken": {
          "id": "[CLS]",
          "type_id": 0
        }
      },
      {
        "Sequence": {
          "id": "A",
          "type_id": 0
        }
      },
      {
        "SpecialToken": {
          "id": "[SEP]",
          "type_id": 0
        }
      }
    ],
    "pair": [
      {
        "SpecialToken": {
          "id": "[CLS]",
          "type_id": 0
        }
      },
      {
        "Sequence": {
          "id": "A",
          "type_id": 0
        }
      },
      {
        "SpecialToken": {
          "id": "[SEP]",
          "type_id": 0
        }
      },
      {
        "Sequence": {
          "id": "B",
          "type_id": 1
        }
      },
      {
        "SpecialToken": {
          "id": "[SEP]",
          "type_id": 1
        }
      }
    ],
    "special_tokens": {
      "[CLS]": {
        "id": "[CLS]",
        "ids": [
          2898
        ],
        "tokens": [
          "[CLS]"
        ]
      },
      "[SEP]": {
        "id": "[SEP]",
        "ids": [
          3369
        ],
        "tokens": [
          "[SEP]"
        ]
      }
    }
  },
  "decoder": {
    "type": "Metaspace",
    "replacement": "▁",
    "prepend_scheme": "always",
    "split": true
  },
  "model": {
    "type": "Unigram",
    "unk_id": 1073,
    "vocab": [
      [
        "▁locate",
        -8.166922333003015
      ],
      [
        "▁economic",
        -6.772570457784909
      ],
      [
        "!!!!!!!!!!!!!!!",
        -11.726744569091506
      ],
      [
        "n",
        -4.5571833613477795
      ],
      [
        "get",
        -10.22512405160739
      ],
      [
        "upper",
        -9.000223696652167
      ],
      [
        "ap",
        -8.545134066423048
      ],
      [
        "▁re-",
        -8.721355501734267
      ],
      [
        "▁good",
        -4.598078696122425
      ],
      [
        "▁command",
        -8.992686532161631
      ],
      [
        "▁room",
        -6.401687799269684
      ],
      [
        "hol",
        -7.396681751776911
      ],
      [
        "r",
        -7.556471746184324
      ],
      [
        "▁period",
        -7.413159132792199
      ],
      [
        "in",
        -6.821546047507693
      ],
      [
        "n",
        -2.150777991036591
      ],
      [
        "▁site",
        -7.516176501886119
      ],
      [
        "▁degree",
        -8.511832342446453
      ],
      [
        "▁improvement",
        -8.887513307970934
      ],
      [
        "▁regard",
        -7.5181281910160465
      ],
      [
        "f",
        -6.608821903122247
      ],
      [
        "▁express",
        -8.509294847339676
      ],
      [
        "▁squeeze",
        -9.058207563184354
      ],
      [
        "▁sa",
        -6.480620694170947
      ],
      [
        "ware",
        -8.746836292309021
      ],
      [
        "▁thr",
        -4.171737371864407
      ],
      [
        "ary",
        -6.493998529129069
      ],
      [
        "v",
        -9.394206695612269
      ],
      [
        "▁lift",
        -8.780738111600888
      ],
      [
        "the",
        -9.636382313932264
      ],
      [
        "▁ar",
        -7.66241252467595
      ],
      [
        "o",
        -3.931859826234785
      ],
      [
        "▁mark",
        -8.602526147128756
      ],
      [
        "▁practice",
        -8.376719353628014
      ],
      [
        "ean",
        -6.912683510075581
      ],
      [
        "in",
        -12.605786362287859
      ],
      [
        "ment",
        -6.494612436723121
      ],
      [
        "▁journal",
        -8.997948731912663
      ],
      [
        "▁promote",
        -8.608173117278714
      ],
      [
        "▁a",
        -6.746763213277558
      ],
      [
        "▁currenc",
        -8.925982449105422
      ],
      [
        "▁cheap",
        -6.93449626107068
      ],
      [
        "p",
        -12.303800120175861
      ],
      [
        "▁quote",
        -8.970656992345866
      ],
      [
        "▁dish",
        -8.4211822727429
      ],
      [
        "▁skip",
        -9.439206609939403
      ],
      [
        "et",
        -7.922763757749793
      ],
      [
        "▁door",
        -7.058930191112867
      ],
      [
        "▁liv",
        -7.570239989097204
      ],
      [
        "▁may",
        -8.487805845481695
      ],
      [
        "▁finance",
        -8.853698989640836
      ],
      [
        "▁seven",
        -5.479252271885461
      ],
      [
        "▁pi",
        -8.875606205518407
      ],
      [
        "▁yellow",
        -6.965176970186363
      ],
      [
        "doc",
        -8.597775714188025
      ],
      [
        "ha",
        -8.022827823781132
      ],
      [
        "▁sector",
        -8.376727164926757
      ],
      [
        "▁help",
        -7.578754029107365
      ],
      [
        "▁bottle",
        -7.83685848104486
      ],
      [
        "▁ex",
        -7.967285712976986
      ],
      [
        "▁conversation",
        -8.203273469637574
      ],
      [
        "▁female",
        -8.998725728600236
      ],
      [
        "rose",
        -8.623280558283351
      ],
      [
        "a",
        -5.205257851429507
      ],
      [
        "r",
        -4.3481861650490226
      ],
      [
        "ect",
        -8.250049229689823
      ],
      [
        "mike",
        -7.140322264104477
      ],
      [
        "o",
        -6.877907499943204
      ],
      [
        "ado",
        -9.176192457724936
      ],
      [
        "▁tip",
        -8.960367179529511
      ],
      [
        "▁location",
        -7.827006929804737
      ],
      [
        "▁husband",
        -8.315477941053604
      ],
      [
        ".com",
        -6.587277844321584
      ],
      [
        ";",
        -10.425660239071421
      ],
      [
        "▁baby",
        -6.500569538443069
      ],
      [
        "s",
        -3.9323488869734184
      ],
      [
        "g",
        -6.769506707442067
      ],
      [
        "▁acknowledge",
        -8.931292194758996
      ],
      [
        "▁stopp",
        -7.540817280693708
      ],
      [
        "▁server",
        -8.820251348788805
      ],
      [
        "▁fixed",
        -7.9833664899746974
      ],
      [
        "▁coast",
        -8.561146812783505
      ],
      [
        "▁mill",
        -5.806332795739784
      ],
      [
        "ental",
        -6.85117598314483
      ],
      [
        "▁engl",
        -7.3562289671656025
      ],
      [
        "▁tourist",
        -8.39882020912513
      ],
      [
        "▁tire",
        -8.998754855652784
      ],
      [
        "▁database",
        -8.511749949255972
      ],
      [
        "do",
        -6.801638483122259
      ],
      [
        "▁am",
        -6.725198085379273
      ],
      [
        "ting",
        -6.1285489463278005
      ],
      [
        "▁surprise",
        -8.428916050822538
      ],
      [
        "▁hi",
        -7.87038307567777
      ],
      [
        "[",
        -6.162592258851914
      ],
      [
        "dom",
        -9.194902981039345
      ],
      [
        "▁council",
        -8.464680849402349
      ],
      [
        "▁children",
        -7.048035830856158
      ],
      [
        "d",
        -6.601197211229196
      ],
      [
        "lf",
        -10.491965744396772
      ],
      [
        "▁master",
        -8.79278366680871
      ],
      [
        "▁flood",
        -8.887517048372679
      ],
      [
        "▁–",
        -9.00060687934901
      ],
      [
        "hav",
        -7.464751966707237
      ],
      [
        "▁united",
        -6.4903492154040405
      ],
      [
        "▁***",
        -11.706988063870577
      ],
      [
        "▁elephant",
        -8.756187999539797
      ],
      [
        "▁assist",
        -8.6107164910709
      ],
      [
        "work",
        -8.921642084877405
      ],
      [
        "▁initiate",
        -8.949744924277967
      ],
      [
        "▁den",
        -4.692025004015244
      ],
      [
        "▁banana",
        -7.8871828307701115
      ],
      [
        "▁attract",
        -8.538253893795229
      ],
      [
        "▁wine",
        -7.996364599712911
      ],
      [
        "▁human",
        -6.556366750583185
      ],
      [
        "▁salad",
        -8.58678531671425
      ],
      [
        "▁engineer",
        -9.130106004983062
      ],
      [
        "▁",
        -2.3835752038720184
      ],
      [
        "▁louis",
        -7.042205573267505
      ],
      [
        "▁market",
        -7.237160547891797
      ],
      [
        "▁interest",
        -6.456813994136939
      ],
      [
        "nt",
        -13.165341887489456
      ],
      [
        "▁plant",
        -7.857294334963626
      ],
      [
        "ng",
        -8.371015105561044
      ],
      [
        "ble",
        -5.978990578455023
      ],
      [
        "y",
        -7.14930709824996
      ],
      [
        "▁?!?",
        -13.944841065246216
      ],
      [
        "b",
        -3.4366148757197568
      ],
      [
        "▁ha",
        -4.961582746137713
      ],
      [
        "▁rec",
        -7.0072767537993075
      ],
      [
        "▁cover",
        -7.530766538554042
      ],
      [
        "▁bab",
        -8.268382899817947
      ],
      [
        "▁snitch",
        -9.080391736178457
      ],
      [
        "▁secret",
        -9.08024097720582
      ],
      [
        "▁cook",
        -9.135021460988003
      ],
      [
        "▁chose",
        -8.64906604535041
      ],
      [
        "▁benefit",
        -8.68921933497451
      ],
      [
        "▁assure",
        -9.165045670762654
      ],
      [
        "▁balzac",
        -6.776892985365578
      ],
      [
        "_",
        -4.3303563868877815
      ],
      [
        "▁reject",
        -9.212291352067611
      ],
      [
        "▁crack",
        -9.443154426765508
      ],
      [
        "▁ran",
        -7.978711642626029
      ],
      [
        "w",
        -4.78514370794099
      ],
      [
        "▁connect",
        -7.758087071008227
      ],
      [
        "▁ride",
        -8.524860939973944
      ],
      [
        "▁low",
        -7.220900580056894
      ],
      [
        "▁ce",
        -8.811721279934048
      ],
      [
        "▁propos",
        -9.210258085636664
      ],
      [
        "house",
        -8.931180413125478
      ],
      [
        "▁compete",
        -9.235698832012206
      ],
      [
        "hin",
        -7.547082465230565
      ],
      [
        "▁divide",
        -9.190883552998816
      ],
      [
        "▁fore",
        -8.923465069221695
      ],
      [
        "▁convert",
        -8.916979657935837
      ],
      [
        "▁feather",
        -9.171252181532425
      ],
      [
        "t",
        -5.31872887030421
      ],
      [
        "y",
        -4.5693853521597925
      ],
      [
        "▁credit",
        -7.967762469353025
      ],
      [
        "▁",
        -2.6211102193894833
      ],
      [
        "ive",
        -8.374109375573967
      ],
      [
        "▁control",
        -7.457310695836761
      ],
      [
        "▁arrange",
        -8.659840971283762
      ],
      [
        "-----------",
        -10.993459808798361
      ],
      [
        "▁alo",
        -13.510182422926066
      ],
      [
        "▁think",
        -4.867037107920854
      ],
      [
        "▁glass",
        -7.651089530657507
      ],
      [
        "▁agreement",
        -7.523439646606449
      ],
      [
        "▁good",
        -8.071050115508168
      ],
      [
        "▁an",
        -9.820616148417278
      ],
      [
        "eaten",
        -9.340308157443427
      ],
      [
        "▁engage",
        -9.027959368460433
      ],
      [
        "ism",
        -7.472621997880677
      ],
      [
        "▁10",
        -4.650404494469818
      ],
      [
        "es",
        -6.876952332114524
      ],
      [
        "▁d",
        -8.804879413247377
      ],
      [
        "▁sentence",
        -8.923232579359775
      ],
      [
        "▁passenger",
        -9.216943580602956
      ],
      [
        "b",
        -6.825311492901869
      ],
      [
        "other",
        -9.529450321587992
      ],
      [
        "▁balloon",
        -8.37673217444738
      ],
      [
        "▁stone",
        -8.85394363141789
      ],
      [
        "▁default",
        -9.217288104727706
      ],
      [
        "▁cry",
        -8.09243984520767
      ],
      [
        "2",
        -3.9783356324857158
      ],
      [
        "▁pro",
        -7.211453933737824
      ],
      [
        "▁researcher",
        -9.117416334669539
      ],
      [
        "▁call",
        -5.507270510526616
      ],
      [
        "▁lower",
        -9.36524903874381
      ],
      [
        "▁thousand",
        -8.39799594897627
      ],
      [
        "il",
        -6.496875214286308
      ],
      [
        "▁commission",
        -7.48348264406183
      ],
      [
        "▁wan",
        -5.44162962435048
      ],
      [
        "▁==",
        -12.464802984085608
      ],
      [
        "▁officer",
        -8.74250288138926
      ],
      [
        "where",
        -6.01525835379799
      ],
      [
        "tho",
        -10.448055372352602
      ],
      [
        "ami",
        -6.501920155674308
      ],
      [
        "▁explanation",
        -9.080391683847203
      ],
      [
        "▁face",
        -7.117703378230014
      ],
      [
        "▁through",
        -6.050063511843283
      ],
      [
        "rove",
        -8.69355978323242
      ],
      [
        "▁easi",
        -7.509591222627236
      ],
      [
        "▁test",
        -8.14215972269377
      ],
      [
        "p",
        -6.261203873790647
      ],
      [
        "▁center",
        -8.337433226566898
      ],
      [
        "▁intern",
        -8.26017301531855
      ],
      [
        "um",
        -7.368975224421662
      ],
      [
        "▁behavior",
        -8.46468457431364
      ],
      [
        "y",
        -9.93729819650814
      ],
      [
        "▁wol",
        -8.488718645100917
      ],
      [
        "gen",
        -9.024920985422918
      ],
      [
        "no",
        -9.062106600164439
      ],
      [
        "▁belt",
        -9.123914738777307
      ],
      [
        "!!!!!!!!!!!!",
        -12.386019684959303
      ],
      [
        "all",
        -9.143859500098722
      ],
      [
        "▁apri",
        -8.581647655106373
      ],
      [
        "▁format",
        -8.296763971128419
      ],
      [
        "▁painting",
        -8.517545254412695
      ],
      [
        "▁librar",
        -9.21681979529707
      ],
      [
        "▁silver",
        -9.080660755062715
      ],
      [
        "▁underst",
        -9.122260045145696
      ],
      [
        "s",
        -3.279426749827511
      ],
      [
        "for",
        -4.020786215354944
      ],
      [
        "▁bet",
        -8.661264295031007
      ],
      [
        "▁estimate",
        -8.098732058245107
      ],
      [
        "e",
        -9.262538749109531
      ],
      [
        "************",
        -12.973373201788785
      ],
      [
        "▁donkey",
        -8.99872504735843
      ],
      [
        "▁din",
        -9.103629886181892
      ],
      [
        "▁green",
        -6.684628782587111
      ],
      [
        "▁photograph",
        -8.458866092533237
      ],
      [
        "what",
        -6.6959009818164335
      ],
      [
        "▁waste",
        -9.038733443818636
      ],
      [
        "▁declaration",
        -9.080392191392056
      ],
      [
        "ant",
        -7.805191051445353
      ],
      [
        "▁ca",
        -13.8725705263812
      ],
      [
        "▁display",
        -7.855065846435074
      ],
      [
        "▁yog",
        -8.640146853951947
      ],
      [
        "▁fli",
        -8.794802858492993
      ],
      [
        "▁class",
        -6.435839001181261
      ],
      [
        "▁operat",
        -9.416450268859371
      ],
      [
        "come",
        -8.67712389334881
      ],
      [
        "▁heart",
        -7.812614952552662
      ],
      [
        "▁he",
        -5.355777969941404
      ],
      [
        "▁kind",
        -6.315144828800624
      ],
      [
        "▁hundred",
        -8.819696064316304
      ],
      [
        "iction",
        -8.944265896315288
      ],
      [
        "day",
        -6.145358451807306
      ],
      [
        "ful",
        -5.211743761945356
      ],
      [
        "-----",
        -11.778022025595234
      ],
      [
        "▁a",
        -6.484556626444801
      ],
      [
        "u",
        -4.005956395885905
      ],
      [
        "▁terrorist",
        -8.924389204432252
      ],
      [
        "▁kansa",
        -6.811230330250781
      ],
      [
        "ning",
        -8.758933472931854
      ],
      [
        "▁uh",
        -4.032163193927326
      ],
      [
        "n",
        -4.842692419104056
      ],
      [
        "8",
        -4.553569007344787
      ],
      [
        "_",
        -4.773377875289404
      ],
      [
        "ho",
        -8.554119697639074
      ],
      [
        "▁theme",
        -8.998725109543658
      ],
      [
        "▁bag",
        -7.431370248626756
      ],
      [
        "▁toast",
        -7.981855447091121
      ],
      [
        "▁post",
        -8.180190563541796
      ],
      [
        "▁on",
        -6.294171641857381
      ],
      [
        "▁writ",
        -7.110939147606393
      ],
      [
        "▁whom",
        -8.815811107281924
      ],
      [
        "▁hill",
        -9.12476352692493
      ],
      [
        "▁exhibit",
        -8.81969606406947
      ],
      [
        "▁of",
        -6.502938737333261
      ],
      [
        "▁cap",
        -8.92355394024561
      ],
      [
        "▁shape",
        -8.613112779310399
      ],
      [
        "▁199",
        -5.317256283957202
      ],
      [
        "▁use",
        -7.267892017966105
      ],
      [
        "▁under",
        -8.85328824015376
      ],
      [
        "▁try",
        -5.699561699790409
      ],
      [
        "▁hospital",
        -8.315477856718175
      ],
      [
        "m",
        -8.111314411788435
      ],
      [
        "▁reserve",
        -9.08039827298765
      ],
      [
        "ent",
        -8.214593509377865
      ],
      [
        "t",
        -6.030829771013778
      ],
      [
        "l",
        -4.943432235573655
      ],
      [
        "▁being",
        -9.097558310234282
      ],
      [
        "▁de",
        -7.219112376193933
      ],
      [
        "▁wh",
        -5.509002581214281
      ],
      [
        "▁airline",
        -5.684454962162791
      ],
      [
        "mine",
        -10.279761504850597
      ],
      [
        "long",
        -7.462124603263808
      ],
      [
        "▁in",
        -5.990964429098376
      ],
      [
        "▁special",
        -6.647498610834503
      ],
      [
        "pe",
        -10.887219134304972
      ],
      [
        "▁request",
        -8.086417664276423
      ],
      [
        "▁description",
        -8.923226675086234
      ],
      [
        "▁enhance",
        -9.303382760367844
      ],
      [
        "▁lie",
        -8.265551593608722
      ],
      [
        "pear",
        -6.47487379413309
      ],
      [
        "▁com",
        -8.165395837160537
      ],
      [
        "▁s",
        -12.226333961823995
      ],
      [
        "▁expression",
        -8.85313211333125
      ],
      [
        "▁fri",
        -7.673051705287245
      ],
      [
        "▁audience",
        -8.561140524512687
      ],
      [
        "▁operate",
        -9.26664418038164
      ],
      [
        "▁vo",
        -8.480415664306676
      ],
      [
        "▁website",
        -7.812616912668437
      ],
      [
        "▁us",
        -6.5218719918286725
      ],
      [
        "▁map",
        -8.564418347291952
      ],
      [
        "▁li",
        -8.905933880865888
      ],
      [
        "▁note",
        -8.02542655364769
      ],
      [
        "▁base",
        -7.837463717445983
      ],
      [
        "▁certificate",
        -9.217967913714173
      ],
      [
        "▁press",
        -8.466229944950781
      ],
      [
        "▁move",
        -6.640303779448729
      ],
      [
        "**",
        -10.999767360300744
      ],
      [
        "i",
        -1.9310834849042582
      ],
      [
        "▁relate",
        -8.875343751627707
      ],
      [
        "i",
        -11.770631529841472
      ],
      [
        "▁aspect",
        -8.221141738810385
      ],
      [
        "g",
        -7.307917268225807
      ],
      [
        "▁arm",
        -7.278270355020909
      ],
      [
        "▁age",
        -7.465010556708252
      ],
      [
        "▁judge",
        -8.853096160210683
      ],
      [
        "▁debt",
        -9.218993946644222
      ],
      [
        "janu",
        -7.244976107624811
      ],
      [
        "tter",
        -6.783327446752775
      ],
      [
        "in",
        -8.591787719139312
      ],
      [
        "▁will",
        -4.287029515795241
      ],
      [
        "ight",
        -7.544412920616464
      ],
      [
        "▁dinosaur",
        -7.9133275646061625
      ],
      [
        "▁depart",
        -7.211735076250526
      ],
      [
        "y",
        -4.489015840271201
      ],
      [
        "hin",
        -10.355812176309545
      ],
      [
        "▁argue",
        -8.347926044747924
      ],
      [
        "ise",
        -8.626926506208594
      ],
      [
        "’",
        -11.119861525668208
      ],
      [
        "ro",
        -6.707930556601703
      ],
      [
        "▁chicken",
        -7.479618094834508
      ],
      [
        "▁destroy",
        -8.407121557018147
      ],
      [
        "▁rang",
        -8.982017603045382
      ],
      [
        "▁gift",
        -8.887512291008537
      ],
      [
        "▁asset",
        -9.125329721614333
      ],
      [
        "▁energy",
        -7.710254107816979
      ],
      [
        "dr.",
        -7.360445003958612
      ],
      [
        "▁directive",
        -8.102290307189087
      ],
      [
        "-",
        -12.303800120175861
      ],
      [
        "idence",
        -8.086516438613055
      ],
      [
        "▁course",
        -7.218541794418536
      ],
      [
        "▁finding",
        -9.16960617209487
      ],
      [
        "ho",
        -11.734257522352875
      ],
      [
        "▁oakl",
        -6.081524326249055
      ],
      [
        "****",
        -11.697598525938803
      ],
      [
        "▁quartile",
        -9.080391684523477
      ],
      [
        "tion",
        -7.539051037622932
      ],
      [
        "h",
        -2.3558809577216078
      ],
      [
        "▁:",
        -8.56095117037406
      ],
      [
        "▁tow",
        -8.99433038713105
      ],
      [
        "h",
        -5.561550694199753
      ],
      [
        "▁euro",
        -8.640126199585442
      ],
      [
        "▁respect",
        -8.203323532952933
      ],
      [
        "▁bed",
        -7.141218186935178
      ],
      [
        "▁labor",
        -8.669192077985084
      ],
      [
        "▁potential",
        -9.123870011242285
      ],
      [
        "▁menu",
        -8.567584267809684
      ],
      [
        "got",
        -10.98607480809809
      ],
      [
        "▁chas",
        -9.420418471900822
      ],
      [
        "▁the",
        -11.09220806935517
      ],
      [
        "▁has",
        -5.672018519169682
      ],
      [
        "▁situation",
        -7.721124396179961
      ],
      [
        "▁form",
        -8.023580180085943
      ],
      [
        "▁mother",
        -6.859878365255122
      ],
      [
        "▁track",
        -8.420159885183455
      ],
      [
        "▁film",
        -8.22144721329392
      ],
      [
        "▁plant",
        -8.843420525445511
      ],
      [
        "i",
        -2.7294335593499106
      ],
      [
        "ee",
        -5.7134182807115295
      ],
      [
        "▁schedule",
        -8.64038540932323
      ],
      [
        "▁threaten",
        -8.917157554625366
      ],
      [
        "ers",
        -7.1030794882651085
      ],
      [
        "t",
        -2.1315584869245665
      ],
      [
        "▁fair",
        -7.1859296782387645
      ],
      [
        "▁200",
        -4.117685212654388
      ],
      [
        "h",
        -4.449069131649335
      ],
      [
        "▁freez",
        -9.373485835187363
      ],
      [
        "▁as",
        -5.1827083301970625
      ],
      [
        "c",
        -11.925660239071421
      ],
      [
        "sible",
        -5.963259940662837
      ],
      [
        "1",
        -12.707635305583393
      ],
      [
        "sburg",
        -4.9979293475784194
      ],
      [
        "ch",
        -6.898701418822459
      ],
      [
        "▁north",
        -7.0466915970605415
      ],
      [
        "ton",
        -8.749021132259394
      ],
      [
        "ivit",
        -9.073363420939694
      ],
      [
        "l",
        -8.214727387657476
      ],
      [
        "▁de",
        -6.027779167896615
      ],
      [
        "▁runn",
        -7.605528184991227
      ],
      [
        "d",
        -11.061985573933999
      ],
      [
        "▁speci",
        -8.30999454821696
      ],
      [
        "air",
        -9.133000384208778
      ],
      [
        "▁difficult",
        -8.640123998122338
      ],
      [
        "▁contact",
        -8.56114018444546
      ],
      [
        "▁lack",
        -8.703374223642642
      ],
      [
        "▁sign",
        -7.643620500304603
      ],
      [
        "ol",
        -8.098156237469563
      ],
      [
        "man",
        -6.6144144340885065
      ],
      [
        "▁wh",
        -11.28246861509878
      ],
      [
        "▁custom",
        -9.117886138625346
      ],
      [
        "▁quick",
        -6.745647669671999
      ],
      [
        "▁d",
        -8.048528589403643
      ],
      [
        "▁excell",
        -6.7968984467651445
      ],
      [
        "▁**",
        -12.566425383930483
      ],
      [
        "▁exten",
        -8.960679496633666
      ],
      [
        "▁translate",
        -8.960122599722936
      ],
      [
        "▁_",
        -8.58743407694508
      ],
      [
        "ooooo",
        -12.71015855894965
      ],
      [
        "▁amaz",
        -7.2975510369699
      ],
      [
        "e",
        -3.6987654616553973
      ],
      [
        "▁side",
        -7.051965038694226
      ],
      [
        "h",
        -10.741453583244953
      ],
      [
        "▁night",
        -6.460519968200141
      ],
      [
        "▁south",
        -8.819705341495732
      ],
      [
        "▁u.s.",
        -7.293928547996556
      ],
      [
        "m",
        -5.207345861107033
      ],
      [
        "!!!!!!!!!!!!!",
        -12.159030662584136
      ],
      [
        "▁\"",
        -8.960736102532653
      ],
      [
        "▁fine",
        -6.622671821318005
      ],
      [
        "icide",
        -8.696793154669027
      ],
      [
        "▁grab",
        -8.865392312630064
      ],
      [
        "▁length",
        -9.12387115911736
      ],
      [
        "▁dance",
        -8.790815007511728
      ],
      [
        "is",
        -7.10095694405546
      ],
      [
        "m",
        -6.009894094785829
      ],
      [
        "_",
        -5.969535083399892
      ],
      [
        "▁oh",
        -3.2899133699130756
      ],
      [
        "ha",
        -9.950407672530257
      ],
      [
        "/",
        -7.238871675863224
      ],
      [
        "▁approval",
        -9.123869944711316
      ],
      [
        "▁cream",
        -8.61376063903139
      ],
      [
        "▁color",
        -8.649343940973306
      ],
      [
        "▁thi",
        -3.955288045893009
      ],
      [
        "per",
        -8.726136413540848
      ],
      [
        "▁wednesday",
        -6.714008221289247
      ],
      [
        "ru",
        -7.3777699177564084
      ],
      [
        "sphere",
        -8.276802762934473
      ],
      [
        "▁applie",
        -8.02839247144541
      ],
      [
        "▁stick",
        -8.88287745030825
      ],
      [
        "▁bro",
        -9.263525512982532
      ],
      [
        "▁hard",
        -6.2698592650442055
      ],
      [
        "p",
        -11.810278406305967
      ],
      [
        "▁damage",
        -8.667902776144157
      ],
      [
        "ound",
        -5.61124075279864
      ],
      [
        "▁yea",
        -3.1381024377751405
      ],
      [
        "▁assum",
        -9.165025065780606
      ],
      [
        "▁fina",
        -7.557620854095129
      ],
      [
        "▁board",
        -8.016572855282181
      ],
      [
        "▁background",
        -8.92346809754456
      ],
      [
        "ough",
        -5.854176465378226
      ],
      [
        "▁slid",
        -8.839298793469695
      ],
      [
        "▁bec",
        -7.535835746995765
      ],
      [
        "aking",
        -9.118354290941348
      ],
      [
        "▁muc",
        -5.922368473306233
      ],
      [
        "my",
        -7.634247853704349
      ],
      [
        "▁off",
        -6.057483206463368
      ],
      [
        "▁woke",
        -8.96938748504948
      ],
      [
        "▁result",
        -7.389348607007523
      ],
      [
        "ia",
        -7.981307519787568
      ],
      [
        "way",
        -8.266928592843282
      ],
      [
        "▁n",
        -6.7457576266198265
      ],
      [
        "thi",
        -6.816229796495275
      ],
      [
        "▁reference",
        -8.511931062686745
      ],
      [
        "▁dig",
        -9.15292108372924
      ],
      [
        "so",
        -4.878830597655819
      ],
      [
        "re",
        -7.102225890172844
      ],
      [
        "----------------",
        -8.720621540620426
      ],
      [
        "▁steal",
        -9.2840917300488
      ],
      [
        "▁percentage",
        -8.071384263197615
      ],
      [
        "▁conference",
        -8.297386519511708
      ],
      [
        "▁go",
        -3.9477519069450997
      ],
      [
        "illa",
        -8.639674084766057
      ],
      [
        "▁decade",
        -8.168497327405545
      ],
      [
        "▁thought",
        -6.440770853893309
      ],
      [
        "▁perform",
        -7.9516644364622575
      ],
      [
        "▁band",
        -7.930891841909928
      ],
      [
        "▁san",
        -4.549934815287142
      ],
      [
        "▁statu",
        -8.876990776813212
      ],
      [
        "▁minute",
        -6.846115463037491
      ],
      [
        "▁discussion",
        -8.37671935351842
      ],
      [
        "▁can",
        -8.416500390356541
      ],
      [
        "▁complete",
        -8.078426580578027
      ],
      [
        "▁island",
        -7.57875765328162
      ],
      [
        "▁withdraw",
        -9.283877617981842
      ],
      [
        "r",
        -5.705603667194821
      ],
      [
        "ne",
        -12.213083490762878
      ],
      [
        "▁de",
        -7.396430300391956
      ],
      [
        "▁rest",
        -7.612453355379895
      ],
      [
        "▁limit",
        -8.544266779409964
      ],
      [
        "right",
        -7.391738418087057
      ],
      [
        "▁match",
        -8.72612906053959
      ],
      [
        "▁someon",
        -6.931479858311979
      ],
      [
        "▁paris",
        -7.236939178226198
      ],
      [
        "!!!!!!!",
        -11.238141621059212
      ],
      [
        "craft",
        -7.606995803735217
      ],
      [
        "th",
        -6.565100117342233
      ],
      [
        "▁nest",
        -9.172291796593397
      ],
      [
        "▁men",
        -7.245174553852222
      ],
      [
        "▁b",
        -6.7872318813053925
      ],
      [
        "▁be",
        -5.041130330655389
      ],
      [
        "▁chang",
        -8.008629503993417
      ],
      [
        "▁drama",
        -9.169325248910472
      ],
      [
        "▁actor",
        -9.084292713292339
      ],
      [
        "▁split",
        -9.212272108411229
      ],
      [
        "▁mixe",
        -9.18631769402687
      ],
      [
        "▁hope",
        -6.850381843185085
      ],
      [
        "s",
        -3.328190644063051
      ],
      [
        "mp",
        -8.561430826518587
      ],
      [
        "pover",
        -9.186619763691631
      ],
      [
        "rice",
        -8.991501378877212
      ],
      [
        "real",
        -7.172033070632411
      ],
      [
        "under",
        -9.182318398461064
      ],
      [
        "ant",
        -5.65993211659834
      ],
      [
        "▁do",
        -3.6858831645663166
      ],
      [
        "▁occurr",
        -8.562198231586656
      ],
      [
        "▁learn",
        -6.838105611386304
      ],
      [
        "▁little",
        -4.980723849944373
      ],
      [
        "▁hu",
        -5.311218427794809
      ],
      [
        "▁import",
        -9.36022865385811
      ],
      [
        "▁earth",
        -8.119381326187579
      ],
      [
        ".",
        -9.0084367062112
      ],
      [
        "??????",
        -13.834852348222816
      ],
      [
        "▁hate",
        -8.40402299196232
      ],
      [
        "▁health",
        -7.667920062814694
      ],
      [
        "▁remain",
        -7.1574462234480425
      ],
      [
        "▁drink",
        -7.166090136053161
      ],
      [
        "▁lego",
        -8.426974812277754
      ],
      [
        "▁treatment",
        -8.277292309821547
      ],
      [
        "▁title",
        -8.725911657682675
      ],
      [
        "▁re",
        -6.688884180512101
      ],
      [
        "hood",
        -8.759441653776195
      ],
      [
        "▁notion",
        -9.218018960954858
      ],
      [
        "ww",
        -11.310312733422174
      ],
      [
        "•",
        -12.810278406305976
      ],
      [
        "▁outcome",
        -9.169327741677735
      ],
      [
        "who",
        -7.943965582357221
      ],
      [
        "▁favorite",
        -9.038734018345819
      ],
      [
        "▁complain",
        -9.025065023844638
      ],
      [
        "ea",
        -5.383019325135234
      ],
      [
        "tha",
        -8.930932078915008
      ],
      [
        "▁ye",
        -7.575686894615634
      ],
      [
        "man",
        -7.72214053945189
      ],
      [
        "▁send",
        -7.010702550415962
      ],
      [
        "▁success",
        -8.46278105745426
      ],
      [
        "▁photo",
        -8.667899914117745
      ],
      [
        "4",
        -11.925660239071421
      ],
      [
        "▁got",
        -5.199521392430971
      ],
      [
        "▁couch",
        -9.080520989673364
      ],
      [
        "▁j",
        -6.0592118436648414
      ],
      [
        "wealth",
        -8.923256446532516
      ],
      [
        "▁risk",
        -9.094089437034025
      ],
      [
        "▁shot",
        -8.853393027899449
      ],
      [
        "des",
        -8.219792757979947
      ],
      [
        "▁indicate",
        -8.34885140451932
      ],
      [
        "▁propose",
        -7.770609407272636
      ],
      [
        "▁winter",
        -8.295871169518074
      ],
      [
        "ail",
        -8.982246677363793
      ],
      [
        "▁deploy",
        -9.293957825282968
      ],
      [
        "▁love",
        -6.439965781634038
      ],
      [
        "▁set",
        -6.866630984593461
      ],
      [
        "▁man",
        -6.27198435975081
      ],
      [
        "u",
        -6.253982068141724
      ],
      [
        "▁?",
        -7.157961543371248
      ],
      [
        "at",
        -8.964835354007597
      ],
      [
        "shoul",
        -8.078104899454067
      ],
      [
        "▁stor",
        -8.001711846913501
      ],
      [
        "▁pushe",
        -9.339702222344467
      ],
      [
        "ca",
        -8.45973781361631
      ],
      [
        "▁herself",
        -8.8392699528665
      ],
      [
        "▁near",
        -6.854433502134984
      ],
      [
        "▁wild",
        -8.939851203304793
      ],
      [
        "f",
        -7.281137016091158
      ],
      [
        "er",
        -11.883239097720296
      ],
      [
        "ve",
        -7.530189962329173
      ],
      [
        "▁magic",
        -8.923077971104512
      ],
      [
        "▁box",
        -7.371362901652741
      ],
      [
        "ent",
        -5.270498460199944
      ],
      [
        "▁wood",
        -8.739854070160543
      ],
      [
        "know",
        -8.628820432861549
      ],
      [
        "▁prepar",
        -8.757126478595298
      ],
      [
        "▁state",
        -6.817692271492893
      ],
      [
        "a",
        -4.730462131174871
      ],
      [
        "&",
        -6.519024570430864
      ],
      [
        "▁again",
        -5.055600915647587
      ],
      [
        "▁clear",
        -7.455924141981425
      ],
      [
        "▁feel",
        -6.135129679347383
      ],
      [
        "▁tickle",
        -8.881831433664225
      ],
      [
        "ted",
        -6.377831684507669
      ],
      [
        "▁list",
        -5.604972914754906
      ],
      [
        "▁ride",
        -7.57088732838403
      ],
      [
        "d",
        -5.9477191613994504
      ],
      [
        "▁",
        -3.252429650460364
      ],
      [
        "abo",
        -12.396353484691211
      ],
      [
        "a",
        -3.8090227617556476
      ],
      [
        "▁street",
        -7.3893489104263965
      ],
      [
        "▁bank",
        -8.377275839643652
      ],
      [
        "▁recipient",
        -9.080391683828804
      ],
      [
        "▁exchange",
        -9.252106009712
      ],
      [
        "▁draw",
        -6.654847932334819
      ],
      [
        "▁min",
        -8.852916290154063
      ],
      [
        "▁cheek",
        -9.169775389142758
      ],
      [
        "▁text",
        -8.043811389400815
      ],
      [
        "f",
        -11.770631529841472
      ],
      [
        "sed",
        -9.034925344918342
      ],
      [
        "▁vlog",
        -9.16964198116683
      ],
      [
        "▁caus",
        -8.900027625784086
      ],
      [
        "men",
        -8.575510800501588
      ],
      [
        "▁paper",
        -6.811064970065042
      ],
      [
        "▁reflect",
        -7.854759970925008
      ],
      [
        "▁talk",
        -5.949477257980686
      ],
      [
        "▁argument",
        -8.397995949455344
      ],
      [
        "▁buy",
        -6.587746264825932
      ],
      [
        "▁writing",
        -8.696480176132543
      ],
      [
        "▁breath",
        -8.923226530042513
      ],
      [
        "▁hamster",
        -8.923268485611915
      ],
      [
        "▁suit",
        -9.034212128978872
      ],
      [
        "f",
        -6.619575894914962
      ],
      [
        "▁god",
        -9.044494760744112
      ],
      [
        "ling",
        -8.21018651045376
      ],
      [
        "dden",
        -9.234145617308972
      ],
      [
        "a",
        -10.36027840626602
      ],
      [
        "▁apartment",
        -8.419735082546314
      ],
      [
        "ry",
        -7.1493904234452375
      ],
      [
        "▁jun",
        -8.180361157364022
      ],
      [
        "▁all",
        -7.233537423515028
      ],
      [
        "▁phone",
        -7.184235406349587
      ],
      [
        "▁hid",
        -8.684293292126576
      ],
      [
        "▁plate",
        -8.488221259044355
      ],
      [
        "ar",
        -9.38103595699485
      ],
      [
        "o",
        -10.13682536586598
      ],
      [
        "▁war",
        -6.948448303733124
      ],
      [
        "way",
        -7.413310175314248
      ],
      [
        "▁one",
        -6.966178114737579
      ],
      [
        "c",
        -6.008928337258088
      ],
      [
        "▁per",
        -7.269413434404993
      ],
      [
        "▁bike",
        -8.315481499947122
      ],
      [
        "▁cartoon",
        -8.85303250082357
      ],
      [
        "▁seem",
        -6.245683384999831
      ],
      [
        "hi",
        -8.442534427418508
      ],
      [
        "h",
        -8.082311726515218
      ],
      [
        "▁opinion",
        -8.276639661359717
      ],
      [
        "▁red",
        -6.333813204650047
      ],
      [
        "▁window",
        -7.532858349745301
      ],
      [
        "▁wh",
        -12.988879350244954
      ],
      [
        "▁kill",
        -7.261076649944989
      ],
      [
        "▁budget",
        -8.56114044043177
      ],
      [
        "▁over",
        -8.25197773416436
      ],
      [
        "▁company",
        -7.159175805174211
      ],
      [
        "▁wif",
        -7.413257984908348
      ],
      [
        "▁general",
        -6.982809582124102
      ],
      [
        "▁breakfast",
        -7.647406688366276
      ],
      [
        "▁amendment",
        -8.376719387373122
      ],
      [
        "▁refus",
        -9.153500385357804
      ],
      [
        "▁g",
        -7.240861415586581
      ],
      [
        "▁manage",
        -8.279946590380614
      ],
      [
        "sept",
        -8.855690496192997
      ],
      [
        "▁fe",
        -8.914030362010493
      ],
      [
        "te",
        -7.352798822831
      ],
      [
        "onto",
        -6.611941573515393
      ],
      [
        "▁cal",
        -9.18794803453925
      ],
      [
        "u",
        -6.3640258478089775
      ],
      [
        "▁bigge",
        -7.0789892227515505
      ],
      [
        "▁float",
        -8.688947204043847
      ],
      [
        "▁welcome",
        -8.867113751641234
      ],
      [
        "houston",
        -6.4649917860782455
      ],
      [
        "rate",
        -9.42651146824745
      ],
      [
        "▁mouth",
        -7.710257644755742
      ],
      [
        "no",
        -6.988244225294419
      ],
      [
        "▁agent",
        -8.419758597200811
      ],
      [
        "▁crop",
        -8.960269655204407
      ],
      [
        "▁air",
        -6.76560104667951
      ],
      [
        "$",
        -11.28153641900687
      ],
      [
        "▁real",
        -6.083406281355136
      ],
      [
        "▁cause",
        -7.574801675711839
      ],
      [
        "over",
        -9.188771017412945
      ],
      [
        "▁expresse",
        -9.135886798223652
      ],
      [
        "shed",
        -9.252416951702074
      ],
      [
        "w",
        -7.411054368279365
      ],
      [
        "▁d",
        -8.180990272888579
      ],
      [
        "de",
        -11.783538262690449
      ],
      [
        "▁reduc",
        -9.075227997464417
      ],
      [
        "rash",
        -9.043467120679367
      ],
      [
        "f",
        -8.905782894141495
      ],
      [
        "▁another",
        -5.70473121673835
      ],
      [
        "you",
        -5.734888952612067
      ],
      [
        "der",
        -8.163473377761157
      ],
      [
        "▁obs",
        -9.217082718623143
      ],
      [
        "▁abandon",
        -9.212464557526882
      ],
      [
        "▁last",
        -5.387396407587891
      ],
      [
        "▁driv",
        -7.581844739198957
      ],
      [
        "▁sleep",
        -8.355890799369575
      ],
      [
        "▁issue",
        -8.748243023434334
      ],
      [
        "▁shar",
        -9.323179623415278
      ],
      [
        "▁clean",
        -7.614144936595171
      ],
      [
        "be",
        -8.581302110008357
      ],
      [
        "_",
        -4.628726667259624
      ],
      [
        "p",
        -12.707635305583393
      ],
      [
        "▁ab",
        -8.860843904040433
      ],
      [
        "▁in",
        -6.281002056505655
      ],
      [
        "▁woman",
        -7.523440864577599
      ],
      [
        "▁export",
        -8.573721919488909
      ],
      [
        "ur",
        -11.938972523959855
      ],
      [
        "▁claim",
        -8.419830722262825
      ],
      [
        "▁offer",
        -6.973364069203792
      ],
      [
        "▁farmer",
        -9.007456608702139
      ],
      [
        "▁fork",
        -8.853353228946016
      ],
      [
        "-",
        -4.310181122036845
      ],
      [
        "in",
        -11.810314756811064
      ],
      [
        "ou",
        -10.954094405007352
      ],
      [
        "▁mom",
        -6.897876860616451
      ],
      [
        "ame",
        -7.426956483309218
      ],
      [
        "▁describ",
        -9.13928485907502
      ],
      [
        "ell",
        -7.1683916806056445
      ],
      [
        "c",
        -8.638626362649182
      ],
      [
        "here",
        -5.7267247990743835
      ],
      [
        "▁share",
        -8.668084785943185
      ],
      [
        "▁adopt",
        -8.092872173831568
      ],
      [
        "▁pocket",
        -7.754459659503548
      ],
      [
        "b",
        -6.600494456860562
      ],
      [
        "▁source",
        -7.55071559283623
      ],
      [
        "▁majorit",
        -8.613444370554797
      ],
      [
        "▁b",
        -6.612012272435214
      ],
      [
        "na",
        -7.359649182597429
      ],
      [
        "▁pu",
        -9.421400638928933
      ],
      [
        "▁why",
        -4.973704831338078
      ],
      [
        "+",
        -10.834960006133098
      ],
      [
        "▁<",
        -9.936691962505732
      ],
      [
        "▁h",
        -9.88687233925407
      ],
      [
        "▁mean",
        -5.666419531351391
      ],
      [
        "▁suit",
        -9.442799361406374
      ],
      [
        "ston",
        -4.585924370011063
      ],
      [
        "▁shopp",
        -9.08431180265642
      ],
      [
        "el",
        -7.022978776406453
      ],
      [
        "▁foot",
        -7.82486781085991
      ],
      [
        "▁see",
        -4.551308700229445
      ],
      [
        "▁explain",
        -7.175392007103508
      ],
      [
        "▁mar",
        -8.756154584812446
      ],
      [
        "and",
        -11.257296211407963
      ],
      [
        "▁toy",
        -8.068826245788582
      ],
      [
        "e",
        -3.866122931705931
      ],
      [
        "up",
        -7.969355360081218
      ],
      [
        "▁loan",
        -8.442527330374492
      ],
      [
        "▁million",
        -8.726548101755789
      ],
      [
        "▁install",
        -8.573909449201338
      ],
      [
        "▁cup",
        -7.551690482998459
      ],
      [
        "▁computer",
        -7.800936317011006
      ],
      [
        "ar",
        -7.227971639397844
      ],
      [
        "▁ones",
        -10.697747661474345
      ],
      [
        "▁small",
        -5.796754880294776
      ],
      [
        "▁reach",
        -7.623129132054624
      ],
      [
        "▁machine",
        -8.23925300745611
      ],
      [
        "▁variet",
        -8.960510686661943
      ],
      [
        "▁wake",
        -8.394018509598096
      ],
      [
        "al",
        -6.7816231592257825
      ],
      [
        "!!",
        -8.56163946564786
      ],
      [
        "a",
        -4.130361687978228
      ],
      [
        "▁.......",
        -13.318608259993672
      ],
      [
        "on",
        -5.903321937222155
      ],
      [
        "▁advance",
        -8.998727169652906
      ],
      [
        "▁bee",
        -8.770994446920016
      ],
      [
        "▁inform",
        -8.411798429957743
      ],
      [
        "▁issue",
        -7.0528776991617015
      ],
      [
        "▁of",
        -5.372005060076645
      ],
      [
        "*",
        -8.693194179626392
      ],
      [
        "▁museum",
        -8.99872512504556
      ],
      [
        "▁run",
        -8.669301778733283
      ],
      [
        "▁tree",
        -7.701735158572218
      ],
      [
        "some",
        -9.946535093477788
      ],
      [
        "▁knock",
        -8.290881246865812
      ],
      [
        "▁punch",
        -8.91668404709228
      ],
      [
        "▁dis",
        -9.010239066066248
      ],
      [
        "▁tend",
        -8.614622362102224
      ],
      [
        "▁moon",
        -8.400073716858397
      ],
      [
        "o",
        -3.5173493339713575
      ],
      [
        "x",
        -11.925660239071421
      ],
      [
        "m",
        -6.2242204053105326
      ],
      [
        "▁story",
        -7.486752696585063
      ],
      [
        "sumption",
        -8.960145236628982
      ],
      [
        "▁thr",
        -10.763747459831114
      ],
      [
        "▁attitude",
        -9.123876819431771
      ],
      [
        "▁encourage",
        -8.417000379120314
      ],
      [
        "▁kni",
        -8.677404735783163
      ],
      [
        "v",
        -8.861028352406292
      ],
      [
        "▁l",
        -8.926943481680604
      ],
      [
        "▁search",
        -8.706829101337929
      ],
      [
        "▁ag",
        -6.359684494857313
      ],
      [
        "▁cracker",
        -9.219869338542086
      ],
      [
        "▁rail",
        -9.080691728937694
      ],
      [
        "▁how",
        -5.336934980005224
      ],
      [
        "▁think",
        -9.16935776696436
      ],
      [
        "▁includ",
        -6.833177670588736
      ],
      [
        "▁serv",
        -8.487206372820735
      ],
      [
        "▁respond",
        -8.077348590338405
      ],
      [
        "▁kitten",
        -8.697743301369814
      ],
      [
        "p",
        -7.377066839702568
      ],
      [
        "▁urs",
        -7.133812843592847
      ],
      [
        "******",
        -12.400348347525032
      ],
      [
        "▁pant",
        -8.438104137289418
      ],
      [
        "▁transport",
        -8.917221765190643
      ],
      [
        "▁s",
        -9.732919305058479
      ],
      [
        "bo",
        -6.774893251226908
      ],
      [
        "▁accident",
        -8.239252801174397
      ],
      [
        "out",
        -8.075003317222459
      ],
      [
        ",",
        -12.303800120175861
      ],
      [
        "_",
        -5.201045034743488
      ],
      [
        "▁tell",
        -5.587525770223458
      ],
      [
        "▁month",
        -6.656775771168834
      ],
      [
        "r",
        -3.544374778346116
      ],
      [
        "▁mo",
        -7.225016705620556
      ],
      [
        "▁communication",
        -8.587966616284092
      ],
      [
        "us",
        -8.503979686221008
      ],
      [
        "inst",
        -6.754258181145743
      ],
      [
        "▁settle",
        -8.543389365197694
      ],
      [
        "▁opene",
        -8.749317240528171
      ],
      [
        "▁midd",
        -8.343516139132237
      ],
      [
        "▁decline",
        -9.11707460588914
      ],
      [
        "▁famil",
        -6.726079805847224
      ],
      [
        "▁with",
        -3.805476671507483
      ],
      [
        "▁sense",
        -7.803351317846216
      ],
      [
        "▁find",
        -5.481086058264582
      ],
      [
        "ition",
        -8.98917662145875
      ],
      [
        "the",
        -3.846571277581048
      ],
      [
        "▁hop",
        -8.4796290412475
      ],
      [
        "▁rid",
        -8.692506648163228
      ],
      [
        "▁garden",
        -8.221071439506012
      ],
      [
        "▁decision",
        -7.63734364821517
      ],
      [
        "▁attach",
        -8.472043201166422
      ],
      [
        "▁doubt",
        -8.923226450372857
      ],
      [
        "f",
        -7.674786905690743
      ],
      [
        "▁restriction",
        -8.819697656088554
      ],
      [
        "ocus",
        -8.960841532056333
      ],
      [
        "r",
        -6.1491067157679815
      ],
      [
        "▁insight",
        -9.123869944823143
      ],
      [
        "▁beg",
        -7.530272615901484
      ],
      [
        "”",
        -6.5176806785063475
      ],
      [
        "id",
        -8.85045198564125
      ],
      [
        "…",
        -9.197828780273426
      ],
      [
        "“",
        -6.491662973714449
      ],
      [
        "▁region",
        -7.788957528186415
      ],
      [
        "▁application",
        -7.800710161798443
      ],
      [
        "▁interview",
        -8.102322380121585
      ],
      [
        "▁provid",
        -8.342887990288133
      ],
      [
        "▁f",
        -11.570644583811621
      ],
      [
        "▁addiction",
        -9.123870740802033
      ],
      [
        "▁type",
        -6.993080398677356
      ],
      [
        "▁explore",
        -8.748329199679617
      ],
      [
        "▁daughter",
        -8.070792421223594
      ],
      [
        "▁provision",
        -8.464684575872088
      ],
      [
        "▁stepp",
        -8.664658010126121
      ],
      [
        "6",
        -4.586613867475252
      ],
      [
        "▁rule",
        -7.6151996098267976
      ],
      [
        "▁path",
        -8.403055722158694
      ],
      [
        "on",
        -6.870845246803458
      ],
      [
        "▁self",
        -8.117210543896308
      ],
      [
        "▁saturday",
        -7.445814912608575
      ],
      [
        "beside",
        -11.715294844028275
      ],
      [
        "go",
        -8.520333324768856
      ],
      [
        "ove",
        -8.910776172545935
      ],
      [
        "▁eye",
        -6.714121721500757
      ],
      [
        "▁copy",
        -8.211734328691522
      ],
      [
        "▁scientist",
        -8.887514103807998
      ],
      [
        "ler",
        -8.88877676002035
      ],
      [
        "▁se",
        -8.094494879163094
      ],
      [
        "wise",
        -7.250263014346251
      ],
      [
        "▁fail",
        -7.908578032639164
      ],
      [
        "▁2",
        -4.236268747166906
      ],
      [
        "up",
        -8.050037684726725
      ],
      [
        "▁lead",
        -7.517633113995592
      ],
      [
        "rec",
        -7.563249920027834
      ],
      [
        "land",
        -6.180929649234821
      ],
      [
        "lack",
        -8.294906127598889
      ],
      [
        "▁stole",
        -9.362240009490458
      ],
      [
        "▁nove",
        -8.8533477689531
      ],
      [
        "▁wor",
        -8.534574165976904
      ],
      [
        "▁request",
        -8.139182503322722
      ],
      [
        "▁measure",
        -8.120096173602686
      ],
      [
        "ta",
        -8.247675919960205
      ],
      [
        "...............",
        -11.214670331718136
      ],
      [
        "ture",
        -7.81960982533579
      ],
      [
        "*****",
        -11.55114666431147
      ],
      [
        "call",
        -6.4707648400225155
      ],
      [
        "▁tummy",
        -8.819696909708828
      ],
      [
        "▁entit",
        -8.853128391993668
      ],
      [
        "se",
        -5.996840838387731
      ],
      [
        "▁fi",
        -4.740511853306687
      ],
      [
        "ding",
        -8.718424413211814
      ],
      [
        "▁generate",
        -8.75601484485504
      ],
      [
        "▁electrici",
        -8.923226442855443
      ],
      [
        "▁body",
        -7.683297788188867
      ],
      [
        "▁departure",
        -9.216943541934365
      ],
      [
        "b",
        -4.738268993203795
      ],
      [
        "▁scene",
        -8.51176739934912
      ],
      [
        "▁m",
        -6.109562226064083
      ],
      [
        "▁count",
        -7.906853085517547
      ],
      [
        "▁puzzle",
        -9.080392369097337
      ],
      [
        "▁o",
        -7.903254943525872
      ],
      [
        "▁comment",
        -9.027458153108224
      ],
      [
        "▁manage",
        -8.423583778435727
      ],
      [
        "▁organize",
        -9.11584890900788
      ],
      [
        "▁separate",
        -8.89988291275871
      ],
      [
        "_",
        -4.6553638775550565
      ],
      [
        "▁arrow",
        -9.124038588751858
      ],
      [
        "▁somethin",
        -5.952656046882825
      ],
      [
        "▁onl",
        -4.832955045729422
      ],
      [
        "▁sunday",
        -7.439608531210321
      ],
      [
        "ar",
        -7.075727222635783
      ],
      [
        "▁river",
        -8.355890003809007
      ],
      [
        "▁knowledge",
        -8.1184193394843
      ],
      [
        "pm",
        -6.061094385241822
      ],
      [
        "us",
        -3.920615676271251
      ],
      [
        "▁generation",
        -8.377496851346336
      ],
      [
        "▁face",
        -8.031543205840347
      ],
      [
        "▁wa",
        -8.825879020264775
      ],
      [
        "▁marriage",
        -8.296146752465667
      ],
      [
        "▁project",
        -9.443500858672703
      ],
      [
        "▁fall",
        -6.9143533266820105
      ],
      [
        "▁main",
        -6.743124854223845
      ],
      [
        "▁’",
        -11.653797199629468
      ],
      [
        "▁choose",
        -7.779741653182732
      ],
      [
        "ta",
        -7.14777299921885
      ],
      [
        "ave",
        -6.872084745117334
      ],
      [
        "▁discover",
        -7.971377119603126
      ],
      [
        "▁will",
        -8.465328768871109
      ],
      [
        "ept",
        -7.217695514232073
      ],
      [
        "▁design",
        -8.117580129951966
      ],
      [
        "▁fight",
        -8.556444104866852
      ],
      [
        "▁young",
        -6.413958168445247
      ],
      [
        "▁identifie",
        -8.504044139166487
      ],
      [
        "▁boat",
        -7.6099188262353135
      ],
      [
        "▁http://www.",
        -6.835725387207396
      ],
      [
        "▁join",
        -7.607559899605136
      ],
      [
        "ext",
        -7.384595250247742
      ],
      [
        "▁negotiation",
        -9.216943538611048
      ],
      [
        "ious",
        -7.178441696046659
      ],
      [
        "▁bel",
        -7.316235749878892
      ],
      [
        "▁gu",
        -9.008634678794186
      ],
      [
        "ar",
        -7.063891730229105
      ],
      [
        "▁remark",
        -9.216943561793538
      ],
      [
        "p",
        -7.867165043582137
      ],
      [
        "ati",
        -7.384432586722283
      ],
      [
        "▁hearing",
        -8.923226587477386
      ],
      [
        "▁leav",
        -5.943353927407217
      ],
      [
        "▁25",
        -5.938692828601146
      ],
      [
        "▁!!!!!!!",
        -11.846846990791377
      ],
      [
        "▁exposure",
        -8.725884969735624
      ],
      [
        "▁air",
        -6.020133625460001
      ],
      [
        "▁balance",
        -8.696548268984998
      ],
      [
        "son",
        -6.585038971921413
      ],
      [
        "port",
        -6.54582352667329
      ],
      [
        "▁light",
        -6.78941206518117
      ],
      [
        "▁string",
        -8.586849946021276
      ],
      [
        "▁build",
        -7.533699094761116
      ],
      [
        "▁spend",
        -7.795473079364302
      ],
      [
        "▁mid",
        -8.839557943166152
      ],
      [
        "▁school",
        -6.319918365273971
      ],
      [
        "▁mark",
        -8.536560407604076
      ],
      [
        "er",
        -5.680025428898938
      ],
      [
        "den",
        -7.389034121029413
      ],
      [
        "th",
        -6.262439557465997
      ],
      [
        "ge",
        -8.390309779020665
      ],
      [
        "▁pos",
        -6.272087047022913
      ],
      [
        "▁understanding",
        -8.516439428350697
      ],
      [
        "ry",
        -5.935161893856904
      ],
      [
        "▁here",
        -4.079579998525942
      ],
      [
        "▁difference",
        -7.6080850461007525
      ],
      [
        "▁bri",
        -7.255424553734033
      ],
      [
        "▁guy",
        -6.71676782140044
      ],
      [
        "▁9",
        -5.844827498647503
      ],
      [
        "▁batter",
        -8.960493656070703
      ],
      [
        "▁mo",
        -7.666721555623175
      ],
      [
        "▁bit",
        -6.857625465961402
      ],
      [
        "▁birth",
        -8.512832860482522
      ],
      [
        "▁conflict",
        -8.667901780410334
      ],
      [
        "▁hi",
        -5.3515630451182075
      ],
      [
        "▁view",
        -8.258169616922892
      ],
      [
        "they",
        -7.005894765477494
      ],
      [
        "▁york",
        -5.898067754643051
      ],
      [
        "day",
        -7.523400618805456
      ],
      [
        "▁books",
        -8.27199941135079
      ],
      [
        "▁neighborhood",
        -9.217080965888098
      ],
      [
        "▁enj",
        -8.787562149609283
      ],
      [
        "oo",
        -8.60499018695634
      ],
      [
        "▁cr",
        -8.980690296263411
      ],
      [
        "▁ok",
        -3.6625702522183037
      ],
      [
        "▁check",
        -8.168428947603775
      ],
      [
        "ed",
        -8.2961072334848
      ],
      [
        "t",
        -3.4258600649643967
      ],
      [
        "s",
        -7.035194481589117
      ],
      [
        "▁weekend",
        -8.055425188855452
      ],
      [
        "▁sheet",
        -8.476896875009034
      ],
      [
        "▁instance",
        -8.728700900309207
      ],
      [
        "fusion",
        -9.171436463383738
      ],
      [
        "▁consist",
        -9.283652398662763
      ],
      [
        "▁programme",
        -7.940340874201702
      ],
      [
        "the",
        -8.91627304626879
      ],
      [
        "▁psycholog",
        -9.216958332728755
      ],
      [
        "▁world",
        -6.304401061820538
      ],
      [
        "read",
        -5.745973914349878
      ],
      [
        "▁un",
        -6.526291615881251
      ],
      [
        "▁pillow",
        -8.511750185376151
      ],
      [
        "▁col",
        -9.076627203047325
      ],
      [
        "▁simple",
        -7.298001257945252
      ],
      [
        "▁he",
        -4.9588869558818445
      ],
      [
        "▁sent",
        -7.317329916154069
      ],
      [
        "▁implement",
        -8.187586598347401
      ],
      [
        "▁w/",
        -11.15379541592156
      ],
      [
        "_",
        -4.900921085182438
      ],
      [
        "▁throat",
        -9.216943539791693
      ],
      [
        "▁admitt",
        -9.049564673083047
      ],
      [
        "▁presiden",
        -6.716120448889351
      ],
      [
        "b",
        -12.153426364471347
      ],
      [
        "▁confirm",
        -8.120681179643658
      ],
      [
        "▁insect",
        -9.217858816956213
      ],
      [
        "▁frighten",
        -9.371537629658254
      ],
      [
        "▁else",
        -6.193820371878903
      ],
      [
        "▁imme",
        -7.436168493080066
      ],
      [
        "▁s",
        -8.496574491134886
      ],
      [
        "▁other",
        -7.476001329729437
      ],
      [
        "▁",
        -1.429224151881007
      ],
      [
        "k",
        -12.28153641900687
      ],
      [
        "c",
        -6.066413695157376
      ],
      [
        "ot",
        -8.634250207778758
      ],
      [
        "▁cookie",
        -8.505811307028567
      ],
      [
        "▁h",
        -9.29136992389374
      ],
      [
        "▁salt",
        -8.316899565779925
      ],
      [
        "▁movement",
        -8.356868242298713
      ],
      [
        "▁mumm",
        -8.316246375597277
      ],
      [
        "▁cheese",
        -7.837043727004968
      ],
      [
        "s",
        -5.850145103808338
      ],
      [
        "▁us",
        -5.578402828284721
      ],
      [
        "▁front",
        -7.601454435138757
      ],
      [
        "▁traffic",
        -8.628386878704273
      ],
      [
        "▁interna",
        -6.979968294030549
      ],
      [
        "▁red",
        -9.117338693211952
      ],
      [
        "▁recall",
        -8.775931441520877
      ],
      [
        "▁thu",
        -7.206479342278372
      ],
      [
        "▁gon",
        -5.350338757148288
      ],
      [
        "▁counterpart",
        -8.667901870700764
      ],
      [
        "▁sold",
        -8.854102639208472
      ],
      [
        "▁'",
        -6.425214222828881
      ],
      [
        "ught",
        -8.207422363822905
      ],
      [
        "▁alter",
        -9.364013232035528
      ],
      [
        "uh",
        -5.177654103719439
      ],
      [
        "ing",
        -2.512639074192263
      ],
      [
        "▁camel",
        -8.276640801306392
      ],
      [
        "▁europe",
        -6.770604656035175
      ],
      [
        "▁f",
        -7.008989567983062
      ],
      [
        "▁protect",
        -7.6478212800122485
      ],
      [
        "▁stair",
        -8.999039406325553
      ],
      [
        "▁distance",
        -8.820178708496165
      ],
      [
        "▁enter",
        -7.664202702451771
      ],
      [
        "▁calculate",
        -9.310419178133518
      ],
      [
        "ce",
        -6.716123088150296
      ],
      [
        "ever",
        -6.0073375635282105
      ],
      [
        "▁texa",
        -6.9008809914060985
      ],
      [
        "was",
        -6.42545466381976
      ],
      [
        "▁paul",
        -6.2911579165301434
      ],
      [
        ".",
        -7.015451316975299
      ],
      [
        "▁strawberr",
        -9.080391708709893
      ],
      [
        "▁wind",
        -8.257774807265097
      ],
      [
        "▁black",
        -6.4204126115163564
      ],
      [
        "▁step",
        -7.532545737177429
      ],
      [
        "e",
        -2.2184347982162924
      ],
      [
        "▁leave",
        -5.929274021604734
      ],
      [
        "f",
        -6.1929281367797975
      ],
      [
        "▁remember",
        -6.274852527604202
      ],
      [
        "▁bring",
        -6.61685591217293
      ],
      [
        "▁to",
        -4.877779908052065
      ],
      [
        "[UNK]",
        0.0
      ],
      [
        "▁child",
        -7.42935127369154
      ],
      [
        "▁spen",
        -7.682695389956869
      ],
      [
        "light",
        -8.505484290822253
      ],
      [
        "▁wander",
        -8.971707719183435
      ],
      [
        "▁first",
        -5.646883055112838
      ],
      [
        "!!!",
        -8.681878390748496
      ],
      [
        "▁determine",
        -8.031306582582058
      ],
      [
        "▁warm",
        -9.092386316359836
      ],
      [
        "al",
        -5.958726361627539
      ],
      [
        "▁nai",
        -7.200946706543447
      ],
      [
        "▁father",
        -6.972878999760344
      ],
      [
        "▁collection",
        -8.696473206431913
      ],
      [
        "▁interest",
        -9.025089984849822
      ],
      [
        "▁appreciate",
        -8.071396535783002
      ],
      [
        "all",
        -4.386146326760171
      ],
      [
        "▁india",
        -6.824040119082205
      ],
      [
        "is",
        -6.944029365249886
      ],
      [
        "▁production",
        -8.652641772090615
      ],
      [
        "▁author",
        -8.053784648607103
      ],
      [
        "▁influence",
        -8.81978442624895
      ],
      [
        "▁park",
        -9.212673940397465
      ],
      [
        "▁common",
        -6.83188665264987
      ],
      [
        "en",
        -7.180907493805097
      ],
      [
        ";",
        -5.738552662576513
      ],
      [
        "igh",
        -5.036196688107231
      ],
      [
        "t",
        -4.573340008156835
      ],
      [
        "▁mrs",
        -8.86825412372855
      ],
      [
        "h",
        -6.846743245280662
      ],
      [
        "▁inter",
        -8.790763503864412
      ],
      [
        "0",
        -3.7401553914094876
      ],
      [
        "▁best",
        -5.572959491080885
      ],
      [
        "▁learn",
        -8.315480642049883
      ],
      [
        "▁tol",
        -6.346755550568246
      ],
      [
        "▁rush",
        -9.239331250726643
      ],
      [
        "▁mail",
        -8.441975209823593
      ],
      [
        "▁con",
        -7.505145151995535
      ],
      [
        "▁call",
        -7.3899739535727065
      ],
      [
        "▁smoke",
        -9.029108372842545
      ],
      [
        "n",
        -5.575385108590866
      ],
      [
        "y",
        -2.356688656645275
      ],
      [
        "▁francisco",
        -4.790806721901821
      ],
      [
        "▁flag",
        -8.640131730526052
      ],
      [
        "▁record",
        -8.25522370849124
      ],
      [
        "m",
        -6.7697770087744225
      ],
      [
        "aid",
        -8.194850112635836
      ],
      [
        "▁long",
        -5.65343326945267
      ],
      [
        "ac",
        -8.033584466117274
      ],
      [
        "▁sugar",
        -8.640386033794908
      ],
      [
        "▁fee",
        -7.367416307645309
      ],
      [
        "u",
        -5.2260390664233505
      ],
      [
        "▁eliminate",
        -9.066763360245695
      ],
      [
        "▁’",
        -10.359454805938455
      ],
      [
        "▁like",
        -4.758550093217762
      ],
      [
        "▁tha",
        -6.431820319444924
      ],
      [
        "▁war",
        -7.268531854627151
      ],
      [
        "▁vi",
        -9.065046716852741
      ],
      [
        "▁sai",
        -5.08691055481988
      ],
      [
        "▁pass",
        -7.307761619104325
      ],
      [
        "ll",
        -7.494378486819104
      ],
      [
        "▁player",
        -8.327969841936287
      ],
      [
        "▁deliver",
        -8.049358438413172
      ],
      [
        "c",
        -6.21880737096162
      ],
      [
        "▁pour",
        -8.070754748925946
      ],
      [
        "▁!!!!!!!!!!!!!",
        -13.199573544020163
      ],
      [
        "f",
        -10.765301919425882
      ],
      [
        "z",
        -8.709992816899392
      ],
      [
        "mber",
        -8.492872498582962
      ],
      [
        "tic",
        -8.8265499572987
      ],
      [
        "o'",
        -8.68854734644149
      ],
      [
        "der",
        -7.243585232811171
      ],
      [
        "ard",
        -10.783635794113795
      ],
      [
        "▁money",
        -6.90253603597577
      ],
      [
        "-",
        -6.765722548819912
      ],
      [
        "▁cancel",
        -8.969339575900687
      ],
      [
        "▁inspire",
        -8.503818338936204
      ],
      [
        "▁rubb",
        -8.696473294785536
      ],
      [
        "▁friday",
        -6.952953189626692
      ],
      [
        "▁sit",
        -6.330185365203776
      ],
      [
        "al",
        -6.561525238534631
      ],
      [
        "al",
        -4.268364097368865
      ],
      [
        ".......",
        -12.587104664338755
      ],
      [
        "amb",
        -8.749151654427784
      ],
      [
        "n",
        -1.763362936029182
      ],
      [
        "▁yoursel",
        -11.298076311955574
      ],
      [
        "▁novel",
        -8.296280055282253
      ],
      [
        "▁wipe",
        -8.779911817932993
      ],
      [
        "▁sometime",
        -6.090063230110807
      ],
      [
        "▁farm",
        -8.66168905096403
      ],
      [
        "▁soup",
        -9.123906814053967
      ],
      [
        "▁feature",
        -9.064491124353996
      ],
      [
        "u",
        -5.982971896799802
      ],
      [
        "able",
        -4.583743775946479
      ],
      [
        "▁vary",
        -9.359706773186014
      ],
      [
        "▁proclaim",
        -9.443748082423184
      ],
      [
        "re",
        -7.538895177674713
      ],
      [
        "▁pack",
        -8.142426691225264
      ],
      [
        "ww",
        -11.770677750629414
      ],
      [
        "▁hand",
        -8.679727894075862
      ],
      [
        "▁cam",
        -6.278293092448769
      ],
      [
        "▁a",
        -6.7575449706751805
      ],
      [
        "▁their",
        -5.253175569214527
      ],
      [
        "▁en",
        -6.905990043207904
      ],
      [
        "thou",
        -5.2755113615352185
      ],
      [
        "ign",
        -7.2091698257293855
      ],
      [
        "▁square",
        -8.887515958597074
      ],
      [
        "abl",
        -5.607246216433183
      ],
      [
        "on",
        -8.1917012505937
      ],
      [
        "▁infrastructure",
        -9.038725017166236
      ],
      [
        "▁license",
        -9.164949153563807
      ],
      [
        "▁spider",
        -8.488004830422666
      ],
      [
        "o",
        -1.7919375046051371
      ],
      [
        "▁t",
        -7.159435104150309
      ],
      [
        "▁um",
        -3.615304440315332
      ],
      [
        "▁missile",
        -9.169350063020874
      ],
      [
        "▁target",
        -8.787438022389779
      ],
      [
        "▁update",
        -8.923317144802338
      ],
      [
        "▁vote",
        -8.191384363135551
      ],
      [
        "▁balance",
        -8.631981310546628
      ],
      [
        "▁11",
        -5.487104098601486
      ],
      [
        "y",
        -4.124785020807785
      ],
      [
        "▁late",
        -7.337866302752305
      ],
      [
        "▁conduct",
        -8.47053861262362
      ],
      [
        "her",
        -5.452626015079912
      ],
      [
        "▁le",
        -6.641113467851519
      ],
      [
        "eat",
        -8.359058933190482
      ],
      [
        "▁defen",
        -8.595791509446329
      ],
      [
        "7",
        -4.60064973905525
      ],
      [
        "▁cost",
        -7.911166214463438
      ],
      [
        "q",
        -8.106977222159466
      ],
      [
        "i",
        -6.532200686243057
      ],
      [
        "▁serve",
        -6.80670337700455
      ],
      [
        "am",
        -8.439299181712826
      ],
      [
        "▁gra",
        -8.822380734139827
      ],
      [
        "▁ou",
        -13.722228931311992
      ],
      [
        "▁produce",
        -7.63749091094875
      ],
      [
        "▁america",
        -6.805892094766217
      ],
      [
        "\"",
        -4.22482060981751
      ],
      [
        "▁screen",
        -8.464684587137533
      ],
      [
        "▁guarantee",
        -8.611129027755467
      ],
      [
        "lik",
        -7.407883937870426
      ],
      [
        "ampa",
        -7.290181793402967
      ],
      [
        "▁open",
        -6.446986532387996
      ],
      [
        "▁truck",
        -7.471911364093881
      ],
      [
        "▁cra",
        -8.744690332634077
      ],
      [
        "ddy",
        -5.597179594980002
      ],
      [
        "▁care",
        -7.916052306427313
      ],
      [
        "▁sales",
        -8.522653410349296
      ],
      [
        "▁propert",
        -7.413164032425489
      ],
      [
        "▁mr",
        -7.014939835080128
      ],
      [
        "▁earl",
        -7.23689365952583
      ],
      [
        "▁increas",
        -8.53900235210116
      ],
      [
        "le",
        -6.457472216553487
      ],
      [
        "_______",
        -12.708394161505037
      ],
      [
        "▁agenc",
        -8.536238558248685
      ],
      [
        "▁even",
        -4.814484194664957
      ],
      [
        "m",
        -6.820629931865919
      ],
      [
        "ay",
        -4.398672589980726
      ],
      [
        "ul",
        -10.976443136227793
      ],
      [
        "▁sample",
        -8.565606250306262
      ],
      [
        "▁john",
        -6.43859690850405
      ],
      [
        "▁elect",
        -8.201859762683116
      ],
      [
        "▁gap",
        -9.1737037149462
      ],
      [
        "▁target",
        -9.02478317640449
      ],
      [
        "▁model",
        -7.942408274525652
      ],
      [
        "▁th",
        -6.197413388272319
      ],
      [
        "▁store",
        -7.082811934762289
      ],
      [
        "▁passe",
        -8.470532806029887
      ],
      [
        "▁when",
        -4.481408849397259
      ],
      [
        "-",
        -5.0561714688933765
      ],
      [
        "ne",
        -7.416934719219765
      ],
      [
        "▁el",
        -8.913344358678842
      ],
      [
        "▁emerg",
        -8.615334838944051
      ],
      [
        "▁want",
        -4.408770320777204
      ],
      [
        "ext",
        -5.948412029126283
      ],
      [
        "▁which",
        -6.392990913741314
      ],
      [
        "▁election",
        -7.9961323812441565
      ],
      [
        "▁battle",
        -9.080431227822888
      ],
      [
        "▁book",
        -6.396482390770306
      ],
      [
        "▁cost",
        -7.25784370814909
      ],
      [
        "▁circle",
        -8.239252803639864
      ],
      [
        "▁every",
        -6.189232902579145
      ],
      [
        "▁post",
        -7.878502570412043
      ],
      [
        "▁tag",
        -8.998908137437832
      ],
      [
        "▁perceive",
        -9.231072865854188
      ],
      [
        "easure",
        -8.95922014463483
      ],
      [
        "▁bump",
        -9.283223577838324
      ],
      [
        "▁play",
        -7.565245137399879
      ],
      [
        "▁give",
        -5.251596077870293
      ],
      [
        "▁sound",
        -7.578300442165294
      ],
      [
        "th",
        -6.985667254388133
      ],
      [
        "▁trans",
        -8.748430845588599
      ],
      [
        "▁inch",
        -8.93084191236678
      ],
      [
        "▁train",
        -8.089393905948796
      ],
      [
        "▁cruise",
        -8.419777201115817
      ],
      [
        "▁rain",
        -8.276687297536638
      ],
      [
        "▁dust",
        -8.854501243006428
      ],
      [
        "▁categor",
        -8.787438293266323
      ],
      [
        "@",
        -8.595300215537408
      ],
      [
        "▁order",
        -7.583793869267324
      ],
      [
        "▁no",
        -3.1231490279289718
      ],
      [
        "▁week",
        -6.45605071409975
      ],
      [
        "▁second",
        -6.165745746144752
      ],
      [
        "u",
        -6.60459440309763
      ],
      [
        "▁what",
        -4.999866406006407
      ],
      [
        "it",
        -6.529377036237729
      ],
      [
        "▁few",
        -5.7598031210673275
      ],
      [
        "▁cow",
        -8.179690089835708
      ],
      [
        "▁prevent",
        -8.187350387670167
      ],
      [
        "▁attempt",
        -8.347490172119276
      ],
      [
        "▁t",
        -7.45890416965616
      ],
      [
        "▁o",
        -7.106158376632667
      ],
      [
        "▁l",
        -6.916928039762628
      ],
      [
        "---------",
        -11.379442948397054
      ],
      [
        "speci",
        -6.56809779980563
      ],
      [
        "t",
        -2.591311722972385
      ],
      [
        "▁plan",
        -8.307157985587114
      ],
      [
        "▁defin",
        -9.375465394046818
      ],
      [
        "▁care",
        -7.695339058275782
      ],
      [
        "▁life",
        -6.429225869129951
      ],
      [
        "▁militar",
        -8.670152628754188
      ],
      [
        "hat",
        -8.562382551748577
      ],
      [
        "r",
        -5.625332128294126
      ],
      [
        "▁speaker",
        -9.123869945045707
      ],
      [
        "▁facilitate",
        -9.255807223988535
      ],
      [
        "re",
        -11.340506330349147
      ],
      [
        "▁ma",
        -6.304844418931761
      ],
      [
        "rican",
        -6.621653965549827
      ],
      [
        "g",
        -6.2422419029866925
      ],
      [
        "▁pupp",
        -8.755176934455605
      ],
      [
        "▁hole",
        -7.9566186601214826
      ],
      [
        "wo",
        -10.600779294355887
      ],
      [
        "▁cloth",
        -8.512111151513707
      ],
      [
        "▁medicine",
        -8.923226637889027
      ],
      [
        "▁un",
        -9.036505284817565
      ],
      [
        "▁revenue",
        -9.038725017397873
      ],
      [
        "▁al",
        -6.196821287924996
      ],
      [
        "▁bedroom",
        -8.697423365628289
      ],
      [
        "▁head",
        -6.621197649136684
      ],
      [
        "▁free",
        -6.3132940497602625
      ],
      [
        "mination",
        -9.08880394244834
      ],
      [
        "m",
        -3.877617167919065
      ],
      [
        "▁exchange",
        -8.819696765247082
      ],
      [
        "▁campaign",
        -8.1348127820024
      ],
      [
        "▁smell",
        -9.08039181275079
      ],
      [
        "▁stretch",
        -8.470534988847277
      ],
      [
        "▁be",
        -3.5847357895147223
      ],
      [
        "▁church",
        -8.315477948920822
      ],
      [
        "▁fac",
        -8.919032331187946
      ],
      [
        "▁change",
        -6.890078977690357
      ],
      [
        "▁basil",
        -8.538931470237134
      ],
      [
        "▁staff",
        -7.4458154894044215
      ],
      [
        "▁other",
        -4.5395040691075765
      ],
      [
        "▁c",
        -6.691884532447162
      ],
      [
        "▁analyst",
        -8.828343842181374
      ],
      [
        "▁name",
        -6.173122524404931
      ],
      [
        "▁up",
        -5.004285843445531
      ],
      [
        "▁day",
        -5.5497980852745314
      ],
      [
        "and",
        -5.572005516136555
      ],
      [
        "k",
        -6.493615516649109
      ],
      [
        "done",
        -6.783452192464883
      ],
      [
        "fo",
        -12.318804377466208
      ],
      [
        "▁snake",
        -8.419739262519148
      ],
      [
        "▁ever",
        -12.15183873490786
      ],
      [
        "▁implement",
        -8.887512159290887
      ],
      [
        "▁high",
        -6.500572263972546
      ],
      [
        "▁magazine",
        -9.16932449015297
      ],
      [
        "▁worth",
        -7.288217349982408
      ],
      [
        "▁bas",
        -8.497951332467174
      ],
      [
        "nex",
        -7.029111693797481
      ],
      [
        "▁our",
        -5.4680531288304906
      ],
      [
        "▁en",
        -7.426478329342391
      ],
      [
        "▁ant",
        -8.07381301185632
      ],
      [
        "▁wh",
        -6.667104945947118
      ],
      [
        "ther",
        -8.47414026107005
      ],
      [
        "▁term",
        -7.350059746022408
      ],
      [
        "side",
        -6.036964273039711
      ],
      [
        "▁belief",
        -8.488470225120022
      ],
      [
        "▁bound",
        -9.29915380952337
      ],
      [
        "▁blink",
        -8.916741760491483
      ],
      [
        "▁shop",
        -7.733025084514147
      ],
      [
        "nd",
        -12.030856372203957
      ],
      [
        "▁obtain",
        -8.438158095999771
      ],
      [
        "▁o",
        -5.5051082632013175
      ],
      [
        "▁1",
        -4.047171860870492
      ],
      [
        "ris",
        -8.662256193367837
      ],
      [
        "f",
        -2.4516511753350763
      ],
      [
        "▁_______",
        -11.336214334389922
      ],
      [
        "▁bulldo",
        -8.397997323665685
      ],
      [
        "▁true",
        -7.013220592988147
      ],
      [
        "▁answer",
        -7.765823468089585
      ],
      [
        "stead",
        -6.393450791899517
      ],
      [
        "w",
        -6.747238093076364
      ],
      [
        "▁allow",
        -6.980942798830301
      ],
      [
        "▁ser",
        -8.25464930958914
      ],
      [
        "±",
        -11.925660239071421
      ],
      [
        "▁distribute",
        -8.56609744035245
      ],
      [
        "ous",
        -7.400129012987348
      ],
      [
        "▁dis",
        -7.527970165719958
      ],
      [
        "hi",
        -8.444637064165939
      ],
      [
        "▁read",
        -6.595874326993178
      ],
      [
        "▁consider",
        -6.853368035562674
      ],
      [
        "▁amount",
        -7.2781239419419075
      ],
      [
        "c",
        -4.327503421637194
      ],
      [
        "▁jew",
        -9.08070588184273
      ],
      [
        "ood",
        -9.143526128380993
      ],
      [
        "▁bean",
        -9.085577157622819
      ],
      [
        "▁further",
        -7.053770262695196
      ],
      [
        "▁fun",
        -7.0666474588122075
      ],
      [
        "▁bee",
        -8.571528797556873
      ],
      [
        "▁jun",
        -7.250515333933406
      ],
      [
        "▁host",
        -8.873476020623873
      ],
      [
        "▁hope",
        -8.404095197514982
      ],
      [
        "▁reco",
        -8.925900762925231
      ],
      [
        "▁wash",
        -7.504951731329325
      ],
      [
        "enth",
        -7.251062652065433
      ],
      [
        "▁transit",
        -9.178403805848987
      ],
      [
        "q",
        -12.653795411026692
      ],
      [
        "▁eggs",
        -8.027339936300349
      ],
      [
        "▁brother",
        -7.9269424963659185
      ],
      [
        "ma",
        -8.023398630505657
      ],
      [
        "▁knee",
        -8.887543496794647
      ],
      [
        "▁article",
        -7.887246847174498
      ],
      [
        "'s",
        -8.603282909460837
      ],
      [
        "▁pivot",
        -8.221071087153097
      ],
      [
        "▁grow",
        -6.927318966077519
      ],
      [
        "▁temperature",
        -8.61309738066222
      ],
      [
        "▁oct",
        -7.141142473970356
      ],
      [
        "_",
        -4.384580076550113
      ],
      [
        "▁holiday",
        -8.88751220696219
      ],
      [
        "▁ocean",
        -8.998726730327286
      ],
      [
        "▁choice",
        -8.118419686609656
      ],
      [
        "▁fall",
        -8.40636749201184
      ],
      [
        "▁diversi",
        -9.0397668880492
      ],
      [
        "y",
        -3.633985897988561
      ],
      [
        "d",
        -6.06173743063176
      ],
      [
        "▁second",
        -8.667901781798514
      ],
      [
        "nature",
        -8.174529554141163
      ],
      [
        "p",
        -6.326571753016402
      ],
      [
        "inc",
        -7.751841047967409
      ],
      [
        "ka",
        -8.551583514202843
      ],
      [
        "▁file",
        -9.438616817551106
      ],
      [
        "▁star",
        -8.608996603887036
      ],
      [
        "▁address",
        -7.874162269279834
      ],
      [
        "▁apple",
        -8.377477888894493
      ],
      [
        "▁assistan",
        -8.442594149042531
      ],
      [
        "▁environment",
        -7.967761930235129
      ],
      [
        "▁select",
        -8.188532584885873
      ],
      [
        "▁momm",
        -9.359677822079155
      ],
      [
        "▁storm",
        -8.729885739033914
      ],
      [
        "ian",
        -6.0764278226503095
      ],
      [
        "ou",
        -7.021157929762656
      ],
      [
        "▁kid",
        -7.211556190149635
      ],
      [
        "**************",
        -12.31917194045622
      ],
      [
        "▁shal",
        -7.0325008928194634
      ],
      [
        "`",
        -9.585942977269655
      ],
      [
        "▁ship",
        -7.8008861890366905
      ],
      [
        "oh",
        -5.752813539380159
      ],
      [
        "adelphi",
        -5.283336306940196
      ],
      [
        "▁jose",
        -7.1280497957424025
      ],
      [
        "line",
        -8.559509135766652
      ],
      [
        "▁function",
        -8.64634731649623
      ],
      [
        "▁worm",
        -8.83306646032122
      ],
      [
        "▁package",
        -9.124345099431405
      ],
      [
        "▁cu",
        -9.169193689893888
      ],
      [
        "▁exercise",
        -9.331770677504128
      ],
      [
        "more",
        -5.727711952200021
      ],
      [
        "m",
        -3.7542502650210796
      ],
      [
        "c",
        -5.44278263792476
      ],
      [
        "enti",
        -9.138469515775558
      ],
      [
        "▁eat",
        -5.6316209781590745
      ],
      [
        "▁de",
        -12.371289160620995
      ],
      [
        "▁american",
        -5.9239046532590685
      ],
      [
        "▁connection",
        -7.667928412339712
      ],
      [
        "▁du",
        -7.062173102212168
      ],
      [
        "??????????????",
        -12.538317500656397
      ],
      [
        "▁diaper",
        -8.887514306500762
      ],
      [
        "▁fo",
        -8.948053582407423
      ],
      [
        "▁dream",
        -8.613097274712779
      ],
      [
        "▁team",
        -7.489339765579031
      ],
      [
        "--------------",
        -9.810432193692524
      ],
      [
        "▁whole",
        -6.270126945865008
      ],
      [
        "ilar",
        -7.306926894076488
      ],
      [
        "▁to",
        -7.774833365148701
      ],
      [
        "▁own",
        -8.023250615119258
      ],
      [
        "▁option",
        -7.62054058722151
      ],
      [
        "w",
        -5.491188161949157
      ],
      [
        "er",
        -7.534039384376677
      ],
      [
        "▁meet",
        -6.995432217300358
      ],
      [
        "▁wo",
        -7.25034794109828
      ],
      [
        "▁nose",
        -7.6379108327929615
      ],
      [
        "▁authorit",
        -8.358083064351424
      ],
      [
        "▁pay",
        -6.894095309609328
      ],
      [
        "▁bell",
        -8.648763484404036
      ],
      [
        "▁dragg",
        -9.154571963846962
      ],
      [
        "ile",
        -9.12645591391108
      ],
      [
        "▁polic",
        -8.78420342838983
      ],
      [
        "▁gym",
        -9.080716098112397
      ],
      [
        "▁toe",
        -8.966091677453129
      ],
      [
        "▁blame",
        -9.251880993408966
      ],
      [
        "her",
        -6.563763909055743
      ],
      [
        "▁vegetable",
        -8.819704383473985
      ],
      [
        "▁pro",
        -8.176086083262977
      ],
      [
        "▁do",
        -9.172013762299397
      ],
      [
        "▁roll",
        -8.827099005855356
      ],
      [
        "{",
        -11.810278406305976
      ],
      [
        "k",
        -12.810278406305976
      ],
      [
        "▁di",
        -7.278837625506097
      ],
      [
        "▁rinse",
        -9.443591173236342
      ],
      [
        "▁altho",
        -5.5250653344630365
      ],
      [
        "▁occur",
        -8.661361815316443
      ],
      [
        "▁park",
        -7.8258503620912805
      ],
      [
        "▁material",
        -8.151479862451207
      ],
      [
        "▁su",
        -7.154235015193979
      ],
      [
        "▁rat",
        -8.5438792815511
      ],
      [
        "▁12",
        -5.2458269485953
      ],
      [
        "▁alway",
        -5.519820572217112
      ],
      [
        "▁spring",
        -8.671751084428612
      ],
      [
        "▁copyright",
        -9.217000553989449
      ],
      [
        "▁effect",
        -7.63730569847781
      ],
      [
        "▁out",
        -4.814863351036432
      ],
      [
        "▁|",
        -9.776609991678535
      ],
      [
        "▁territor",
        -8.66790181955008
      ],
      [
        "▁old",
        -5.586906487994287
      ],
      [
        "▁d",
        -9.912457131010228
      ],
      [
        "age",
        -7.2273634382216105
      ],
      [
        "▁motor",
        -9.123911414460832
      ],
      [
        "keep",
        -9.170125644337698
      ],
      [
        "▁land",
        -7.404660408373981
      ],
      [
        "_",
        -5.0347307007443804
      ],
      [
        "phi",
        -7.032070604541478
      ],
      [
        "▁begin",
        -7.430154484278815
      ],
      [
        "▁stay",
        -6.40850852053221
      ],
      [
        "▁off",
        -9.009500143169456
      ],
      [
        "▁response",
        -7.836858238716574
      ],
      [
        "▁earlie",
        -7.181797654149654
      ],
      [
        "▁scal",
        -8.854262280581608
      ],
      [
        "▁entr",
        -9.1383560766978
      ],
      [
        "▁attack",
        -7.996132152971002
      ],
      [
        "▁studi",
        -8.067920754521662
      ],
      [
        ".",
        -5.674697410906374
      ],
      [
        "x",
        -12.039036616560043
      ],
      [
        "▁tor",
        -6.59432015412254
      ],
      [
        "▁x",
        -8.282674863649182
      ],
      [
        "▁travel",
        -7.316864703250338
      ],
      [
        "▁thes",
        -5.533559998489873
      ],
      [
        "id",
        -9.150834025689742
      ],
      [
        "▁duck",
        -8.365628947512553
      ],
      [
        "▁suc",
        -6.023455274139659
      ],
      [
        "▁thir",
        -6.7330901287301295
      ],
      [
        "ll",
        -5.776077771667074
      ],
      [
        "e",
        -9.487298196508139
      ],
      [
        "▁require",
        -7.255971108646589
      ],
      [
        "sday",
        -7.704137092196661
      ],
      [
        "▁part",
        -6.0202728201655535
      ],
      [
        "▁court",
        -8.257977252391235
      ],
      [
        "rself",
        -10.493759088762307
      ],
      [
        "▁8",
        -5.378483124250874
      ],
      [
        "▁realize",
        -8.060523133677941
      ],
      [
        "▁women",
        -7.4795736776521835
      ],
      [
        "ary",
        -6.2190890523679005
      ],
      [
        "▁socks",
        -9.213747370597716
      ],
      [
        "▁coin",
        -9.174805655911044
      ],
      [
        "▁chair",
        -7.3967621303258415
      ],
      [
        "▁phoe",
        -6.470391100104839
      ],
      [
        "▁jump",
        -7.5777361657240965
      ],
      [
        "us",
        -9.889961405511787
      ],
      [
        "lta",
        -6.941091916973398
      ],
      [
        "▁system",
        -6.993077346444125
      ],
      [
        "▁’",
        -8.629992473727398
      ],
      [
        "s",
        -2.856836203130573
      ],
      [
        "▁mess",
        -9.163694913339114
      ],
      [
        "▁bad",
        -6.056861771555049
      ],
      [
        "▁among",
        -7.2254285659457125
      ],
      [
        "▁afternoon",
        -6.771518582549797
      ],
      [
        "▁factor",
        -8.245975372245494
      ],
      [
        "k",
        -6.427881069140615
      ],
      [
        "▁scream",
        -9.212301766933104
      ],
      [
        "▁manag",
        -9.33288579656999
      ],
      [
        "unch",
        -8.727674962482121
      ],
      [
        "▁proceed",
        -8.649307116413167
      ],
      [
        "ate",
        -8.517381669978011
      ],
      [
        "▁push",
        -7.134800138392693
      ],
      [
        "have",
        -7.697358281809178
      ],
      [
        "▁horse",
        -6.9619067546765585
      ],
      [
        "▁witch",
        -8.998933037123026
      ],
      [
        "ou",
        -10.303329679541383
      ],
      [
        "-",
        -11.770631529841472
      ],
      [
        "▁boom",
        -8.853038175197817
      ],
      [
        "▁compare",
        -8.265165019192352
      ],
      [
        "▁sustain",
        -9.360408394516764
      ],
      [
        "▁ha",
        -4.343238869011367
      ],
      [
        "cula",
        -6.981336390567085
      ],
      [
        "orrow",
        -7.122672146595612
      ],
      [
        "ff",
        -8.67386596568681
      ],
      [
        "▁improv",
        -8.76572397638179
      ],
      [
        "▁dream",
        -8.880148528208505
      ],
      [
        "▁space",
        -7.191348025076549
      ],
      [
        "▁now",
        -4.075357952692865
      ],
      [
        "ol",
        -6.925431509875882
      ],
      [
        "▁weapon",
        -8.071495550712495
      ],
      [
        "▁turn",
        -6.08920135787137
      ],
      [
        "▁point",
        -6.776556051656632
      ],
      [
        "?!?!",
        -12.176023693039138
      ],
      [
        "▁chapter",
        -8.998945280624355
      ],
      [
        "▁grow",
        -7.940441023343274
      ],
      [
        "er",
        -5.41592212726871
      ],
      [
        "▁laura",
        -6.068239547282948
      ],
      [
        "▁be",
        -6.64066498335085
      ],
      [
        "▁metal",
        -8.46514143867087
      ],
      [
        "▁renew",
        -9.44365457632963
      ],
      [
        "l",
        -2.7651899767306247
      ],
      [
        "▁idea",
        -6.938774514926831
      ],
      [
        "ation",
        -5.7578209231489765
      ],
      [
        "n",
        -11.31025614719772
      ],
      [
        "ex",
        -7.917704102461412
      ],
      [
        "▁smil",
        -9.217982295975613
      ],
      [
        "▁video",
        -7.732112971538104
      ],
      [
        "t",
        -3.1149023117862136
      ],
      [
        "d",
        -10.889404706649984
      ],
      [
        "▁pl",
        -8.198259039806254
      ],
      [
        "’",
        -6.26611087511166
      ],
      [
        "▁sudden",
        -7.4773120002241225
      ],
      [
        "▁.",
        -6.602433684213668
      ],
      [
        "▁teacher",
        -7.92666281920998
      ],
      [
        "▁publish",
        -8.886603719170564
      ],
      [
        "▁traged",
        -9.16932483231328
      ],
      [
        "ville",
        -6.999420822601101
      ],
      [
        "ke",
        -8.411514511320403
      ],
      [
        "▁lawyer",
        -9.170622383221856
      ],
      [
        "▁roman",
        -6.825919429447128
      ],
      [
        "▁cast",
        -9.323984159509102
      ],
      [
        "y",
        -7.530712123467335
      ],
      [
        "oursel",
        -8.941083358478036
      ],
      [
        "▁fill",
        -7.5273199551953365
      ],
      [
        "kee",
        -6.30219827073261
      ],
      [
        "▁let",
        -5.266393225607882
      ],
      [
        "a",
        -3.0361378326562036
      ],
      [
        "▁blow",
        -7.619058735936671
      ],
      [
        "n",
        -6.489548559025758
      ],
      [
        "▁content",
        -8.136052123603282
      ],
      [
        "▁white",
        -6.200269289236962
      ],
      [
        "▁candidate",
        -8.853029512456077
      ],
      [
        "▁uni",
        -6.803378237432465
      ],
      [
        "out",
        -6.242361992765793
      ],
      [
        "nforcement",
        -8.960943401215788
      ],
      [
        "▁price",
        -6.71495658941383
      ],
      [
        "one",
        -9.353132765357131
      ],
      [
        "▁detr",
        -7.365578977525218
      ],
      [
        "ent",
        -6.02629273963893
      ],
      [
        "▁notice",
        -7.764069890327629
      ],
      [
        "▁b",
        -7.480039276401502
      ],
      [
        "▁please",
        -8.564434024630248
      ],
      [
        "ur",
        -7.477857332032502
      ],
      [
        "▁respect",
        -9.024946751241243
      ],
      [
        "ten",
        -6.696279519574173
      ],
      [
        "?",
        -3.0869681674060505
      ],
      [
        "▁a",
        -7.227841123730134
      ],
      [
        "▁trust",
        -9.216945893426669
      ],
      [
        "or",
        -6.1111258282432015
      ],
      [
        "▁view",
        -7.225935158585302
      ],
      [
        "▁policy",
        -7.96027505983172
      ],
      [
        "▁airline",
        -7.025502534330493
      ],
      [
        "-",
        -6.902957581157094
      ],
      [
        "▁filter",
        -8.242819720730548
      ],
      [
        "▁leave",
        -8.756191816197287
      ],
      [
        "▁until",
        -5.5638749337406646
      ],
      [
        "▁varie",
        -9.44308354851523
      ],
      [
        "▁close",
        -6.872122316633374
      ],
      [
        "▁write",
        -6.549067944212382
      ],
      [
        "▁sa",
        -7.2444340715012805
      ],
      [
        "over",
        -8.61529201880396
      ],
      [
        "▁floor",
        -7.3433658249617775
      ],
      [
        "▁bother",
        -8.347322225484815
      ],
      [
        "▁beginning",
        -8.487940388594948
      ],
      [
        "here",
        -6.183649337266312
      ],
      [
        "▁switch",
        -9.213013115128833
      ],
      [
        "▁link",
        -8.421431361608825
      ],
      [
        "i",
        -4.958782707846554
      ],
      [
        "had",
        -6.878629606664507
      ],
      [
        "▁error",
        -8.51175283318299
      ],
      [
        "will",
        -7.214694535384876
      ],
      [
        "▁describe",
        -7.5151118278972
      ],
      [
        "i",
        -10.976929076213445
      ],
      [
        "▁ski",
        -9.001797112228406
      ],
      [
        "▁ball",
        -6.965149594291776
      ],
      [
        "▁deal",
        -7.63485871442625
      ],
      [
        "▁fish",
        -7.29041536295049
      ],
      [
        "-",
        -9.206366238425398
      ],
      [
        "es",
        -6.190263414163087
      ],
      [
        "▁democra",
        -8.257771320516436
      ],
      [
        "▁release",
        -8.105118794128881
      ],
      [
        "▁goat",
        -8.923842016975591
      ],
      [
        "▁o",
        -12.326071694749007
      ],
      [
        "▁we",
        -5.969460857835287
      ],
      [
        "▁principle",
        -8.725884969175901
      ],
      [
        "▁earn",
        -8.527899775111031
      ],
      [
        "w",
        -5.189900606426425
      ],
      [
        "i",
        -5.576815622650969
      ],
      [
        "about",
        -5.6244658561614616
      ],
      [
        "▁expert",
        -8.18567096301599
      ],
      [
        "on",
        -11.079524852188499
      ],
      [
        "▁control",
        -8.942475958787753
      ],
      [
        "▁shakes",
        -6.50389683421445
      ],
      [
        "▁be",
        -4.961294813347506
      ],
      [
        "▁vet",
        -8.51337779976204
      ],
      [
        "▁b",
        -6.06939314395327
      ],
      [
        "▁no",
        -6.625414240065368
      ],
      [
        "▁radio",
        -9.219830350752586
      ],
      [
        "▁god",
        -7.141342431366642
      ],
      [
        "▁monkey",
        -8.668030493454614
      ],
      [
        "▁el",
        -6.533844654885006
      ],
      [
        "▁govern",
        -9.283563698877625
      ],
      [
        "▁societ",
        -7.60760076739078
      ],
      [
        "▁advi",
        -8.535265685975862
      ],
      [
        "▁standard",
        -7.874378960239033
      ],
      [
        "▁intellig",
        -8.511749936789036
      ],
      [
        "▁+",
        -12.232017845449422
      ],
      [
        "▁dead",
        -6.792772852962086
      ],
      [
        "▁bottom",
        -8.185669981593628
      ],
      [
        "▁tiger",
        -8.640139438657584
      ],
      [
        "▁!!!!!!!!!!",
        -11.835042718013744
      ],
      [
        "▁wave",
        -8.82699765897334
      ],
      [
        "i",
        -2.905259875845031
      ],
      [
        "▁tank",
        -8.178215990133197
      ],
      [
        "▁pl",
        -3.2601159934010706
      ],
      [
        "▁counterfeit",
        -9.12387052553453
      ],
      [
        "ast",
        -10.037434414241018
      ],
      [
        "1",
        -3.8535279155612745
      ],
      [
        "board",
        -8.347606507677906
      ],
      [
        "▁bench",
        -9.123873400302152
      ],
      [
        "▁episode",
        -9.21694357252228
      ],
      [
        "▁toys",
        -8.159783368775788
      ],
      [
        "▁a",
        -5.967256489737386
      ],
      [
        "`",
        -11.832476852014032
      ],
      [
        "▁participat",
        -9.424939284286868
      ],
      [
        "▁improve",
        -7.9706922204608
      ],
      [
        "▁brain",
        -8.315635872117745
      ],
      [
        "se",
        -10.437721176173627
      ],
      [
        "▁service",
        -6.1586790026811995
      ],
      [
        "▁cheape",
        -6.199647512997842
      ],
      [
        "▁challenge",
        -8.487940388277236
      ],
      [
        "▁agricultur",
        -9.038725017166328
      ],
      [
        "▁form",
        -7.0960467901206705
      ],
      [
        "▁finishe",
        -8.07901801537469
      ],
      [
        "nea",
        -7.945544065619691
      ],
      [
        "www",
        -6.037551421693644
      ],
      [
        "▁task",
        -8.441965495667365
      ],
      [
        "▁ripp",
        -9.016047538058624
      ],
      [
        "▁reference",
        -9.376456987727982
      ],
      [
        "▁stil",
        -5.179362880414711
      ],
      [
        "t",
        -4.62181170820774
      ],
      [
        "▁replace",
        -8.29378861232647
      ],
      [
        "▁show",
        -7.743656537800783
      ],
      [
        "canada",
        -7.372545342126393
      ],
      [
        "▁creation",
        -8.730163473427641
      ],
      [
        "▁glo",
        -6.858729859080639
      ],
      [
        "▁micro",
        -8.276639694658613
      ],
      [
        "▁fire",
        -7.560571012724341
      ],
      [
        "▁talk",
        -8.134830892226333
      ],
      [
        "▁whe",
        -5.420825829967308
      ],
      [
        "▁al",
        -8.703377934073089
      ],
      [
        "▁differ",
        -9.364938636273932
      ],
      [
        "▁w",
        -7.847448350576819
      ],
      [
        "▁far",
        -5.853635313577881
      ],
      [
        "ing",
        -4.909233382480111
      ],
      [
        "g",
        -5.086823106981542
      ],
      [
        "▁fl",
        -9.30286718829165
      ],
      [
        "hos",
        -7.461527069413849
      ],
      [
        "....",
        -10.519573882973248
      ],
      [
        "os",
        -12.71061285681801
      ],
      [
        "▁econom",
        -7.3885931912046985
      ],
      [
        "ough",
        -6.757999109291238
      ],
      [
        "▁national",
        -6.406663850264038
      ],
      [
        "p",
        -7.066816683755824
      ],
      [
        "▁_",
        -6.233767671506925
      ],
      [
        "f",
        -2.549806178690007
      ],
      [
        "▁patient",
        -9.083385951759638
      ],
      [
        "▁minister",
        -9.123874585682067
      ],
      [
        "▁draft",
        -9.083459478640432
      ],
      [
        "▁bill",
        -8.275429721219602
      ],
      [
        "ft",
        -6.965664792887015
      ],
      [
        "▁priorit",
        -8.696473209852103
      ],
      [
        "▁stage",
        -8.698019412692508
      ],
      [
        "▁avoid",
        -7.722032801214737
      ],
      [
        "▁butter",
        -8.39899608425373
      ],
      [
        "▁orla",
        -6.661679213327274
      ],
      [
        "▁w",
        -6.298882848285827
      ],
      [
        "▁tour",
        -8.278112356519683
      ],
      [
        "▁enem",
        -8.85305883298894
      ],
      [
        "▁counter",
        -8.670369497165364
      ],
      [
        "whom",
        -12.043381109938869
      ],
      [
        "among",
        -10.114427603570839
      ],
      [
        "me",
        -9.191639290919905
      ],
      [
        "k",
        -6.601882593626262
      ],
      [
        "▁fi",
        -8.896282388839595
      ],
      [
        "cal",
        -5.9443159686160865
      ],
      [
        "▁trail",
        -9.118689561025066
      ],
      [
        "▁version",
        -8.239352138778676
      ],
      [
        "▁complet",
        -9.42658221300684
      ],
      [
        "▁barn",
        -8.51471468490503
      ],
      [
        "▁achieve",
        -8.147531663921677
      ],
      [
        "▁other",
        -7.5787548873627975
      ],
      [
        "side",
        -7.369361114905498
      ],
      [
        "▁belong",
        -7.909109751690544
      ],
      [
        "head",
        -7.109249811403601
      ],
      [
        "▁dollar",
        -7.2304002448944455
      ],
      [
        "▁17",
        -5.757736140466072
      ],
      [
        "▁smell",
        -8.186978174367109
      ],
      [
        "▁mam",
        -8.62161756402427
      ],
      [
        "▁fr",
        -8.566696058089889
      ],
      [
        "▁interpret",
        -9.041564964558665
      ],
      [
        "ho",
        -13.331044045789548
      ],
      [
        "▁creat",
        -8.00466740362287
      ],
      [
        "▁walk",
        -8.355906930324021
      ],
      [
        "b",
        -6.1504537306829885
      ],
      [
        "▁seattle",
        -6.803437356597682
      ],
      [
        "j",
        -11.770631529841472
      ],
      [
        "▁evening",
        -7.092884842754999
      ],
      [
        "▁critic",
        -8.295871385758812
      ],
      [
        "▁pattern",
        -9.03872503190598
      ],
      [
        "n",
        -3.4248351833273194
      ],
      [
        "▁monitor",
        -9.212469515995753
      ],
      [
        "t",
        -4.296542088812357
      ],
      [
        "b",
        -6.513028744717353
      ],
      [
        "▁lion",
        -8.731586927554355
      ],
      [
        "▁i",
        -8.414006726853913
      ],
      [
        "▁report",
        -7.014096727235549
      ],
      [
        "ion",
        -6.180732240892203
      ],
      [
        "us",
        -5.9074583295142755
      ],
      [
        "▁george",
        -6.776890662826511
      ],
      [
        "▁s",
        -5.346467888196824
      ],
      [
        "▁tomato",
        -9.169339671254274
      ],
      [
        "▁ph",
        -9.177900458162007
      ],
      [
        "▁relat",
        -9.299645529150311
      ],
      [
        "▁nice",
        -5.79534187277514
      ],
      [
        "ntl",
        -7.392382711792216
      ],
      [
        "ath",
        -10.70113426733852
      ],
      [
        "▁mommy",
        -5.364345025348642
      ],
      [
        "▁pilot",
        -8.819697063888725
      ],
      [
        "l",
        -5.233182386482138
      ],
      [
        "▁ours",
        -11.444714850985516
      ],
      [
        "▁swing",
        -9.217164200865096
      ],
      [
        "▁possibilit",
        -8.819698693404654
      ],
      [
        "▁debate",
        -8.667951627681566
      ],
      [
        "▁end",
        -7.739997475527316
      ],
      [
        "h",
        -4.6934243343720325
      ],
      [
        "▁shape",
        -9.294041601447182
      ],
      [
        "▁wait",
        -9.120835427364886
      ],
      [
        "▁concern",
        -8.239254382881619
      ],
      [
        "▁iraq",
        -6.531904846313313
      ],
      [
        "▁safe",
        -8.102367068433873
      ],
      [
        "▁say",
        -5.020055208945686
      ],
      [
        "▁career",
        -8.303245205045553
      ],
      [
        "▁facilit",
        -8.561140157760299
      ],
      [
        "▁garage",
        -8.787726275326047
      ],
      [
        "er",
        -5.215771559406694
      ],
      [
        "book",
        -8.557311059629232
      ],
      [
        "▁pressure",
        -8.787813494265828
      ],
      [
        "▁lab",
        -8.99640587153236
      ],
      [
        "▁regulation",
        -8.616781001454438
      ],
      [
        "less",
        -6.291852799812492
      ],
      [
        "▁w",
        -7.600125098473432
      ],
      [
        "or",
        -10.502977190467442
      ],
      [
        "▁refer",
        -8.213241469647645
      ],
      [
        "▁attend",
        -7.72235016362234
      ],
      [
        "▁edit",
        -9.326390060793624
      ],
      [
        "▁gold",
        -8.960270437893968
      ],
      [
        "▁afford",
        -8.68904551827087
      ],
      [
        "complete",
        -7.441782075291681
      ],
      [
        "▁beside",
        -8.602917140222484
      ],
      [
        "▁!!!!!",
        -12.942034343401446
      ],
      [
        "▁very",
        -4.371071920638461
      ],
      [
        "▁twenty",
        -4.856647518973699
      ],
      [
        "most",
        -5.889693681307584
      ],
      [
        "▁al",
        -4.246888182650369
      ],
      [
        "▁dinner",
        -7.171712369692247
      ],
      [
        "▁b",
        -7.005897978310936
      ],
      [
        "▁contin",
        -6.9749752562620015
      ],
      [
        "▁worker",
        -8.386702114549118
      ],
      [
        "ame",
        -5.336550110322487
      ],
      [
        "v",
        -11.925660239071421
      ],
      [
        "^",
        -12.810278406305976
      ],
      [
        "▁its",
        -6.201980132509921
      ],
      [
        "side",
        -8.980075690553763
      ],
      [
        "▁quarter",
        -9.052956694032652
      ],
      [
        "h",
        -3.294768851479734
      ],
      [
        "▁vacation",
        -8.419736425505278
      ],
      [
        "▁ear",
        -8.51380692920621
      ],
      [
        "▁thought",
        -8.010624944413088
      ],
      [
        "▁smile",
        -9.168788834185621
      ],
      [
        "▁shorts",
        -8.977787828377705
      ],
      [
        "o",
        -5.874656600078543
      ],
      [
        "▁strateg",
        -8.536140307071953
      ],
      [
        "▁revise",
        -9.03800813273054
      ],
      [
        "▁earl",
        -6.294145863916422
      ],
      [
        "morali",
        -9.033316275194254
      ],
      [
        "▁adapt",
        -9.145580456118974
      ],
      [
        "▁flower",
        -8.072579386229501
      ],
      [
        "▁tho",
        -7.397496751881506
      ],
      [
        "h",
        -4.22858231472119
      ],
      [
        "▁establishe",
        -8.806470403235926
      ],
      [
        "▁march",
        -7.222956755173649
      ],
      [
        "▁advise",
        -8.642676767136889
      ],
      [
        "▁desire",
        -9.432100138663028
      ],
      [
        "▁+++++",
        -12.167530999473765
      ],
      [
        "!!!!",
        -9.583850804162543
      ],
      [
        "▁til",
        -10.08890471521851
      ],
      [
        "_",
        -5.537490390474223
      ],
      [
        "▁yo",
        -9.274236374866302
      ],
      [
        "▁observe",
        -8.234673799315816
      ],
      [
        "▁tie",
        -8.806909932474442
      ],
      [
        "=",
        -11.380897020098319
      ],
      [
        "ail",
        -5.888541626445163
      ],
      [
        "▁gather",
        -8.61079917971708
      ],
      [
        "▁de",
        -7.133759330193251
      ],
      [
        "ies",
        -5.048707314614969
      ],
      [
        "v",
        -6.9140258171198665
      ],
      [
        "v",
        -7.189853336756621
      ],
      [
        "▁media",
        -8.184776128102005
      ],
      [
        "3",
        -4.193572430795962
      ],
      [
        ".",
        -1.4533572890270836
      ],
      [
        "e",
        -4.182485491868039
      ],
      [
        "▁treat",
        -7.700576317288588
      ],
      [
        "▁solution",
        -8.15147945569067
      ],
      [
        "▁excuse",
        -9.212314087949528
      ],
      [
        "efficien",
        -9.169437708935291
      ],
      [
        "▁injur",
        -8.960264418577658
      ],
      [
        "▁gotte",
        -9.31265395207345
      ],
      [
        "▁force",
        -7.61123154497988
      ],
      [
        "any",
        -8.672174552810601
      ],
      [
        "▁base",
        -6.93085099999195
      ],
      [
        "thus",
        -7.27974176497364
      ],
      [
        "—",
        -6.131623132035529
      ],
      [
        "▁dec",
        -8.623105624318299
      ],
      [
        "▁sweet",
        -8.819814667969975
      ],
      [
        "▁carbon",
        -9.216979986582473
      ],
      [
        "▁fare",
        -6.243598581231868
      ],
      [
        "▁innovation",
        -8.613405951998457
      ],
      [
        "▁preserve",
        -8.929681157232357
      ],
      [
        "▁becom",
        -9.051990026645438
      ],
      [
        "▁one",
        -5.634758520204922
      ],
      [
        "▁declare",
        -8.58821911898314
      ],
      [
        "▁ag",
        -6.715931851231953
      ],
      [
        "▁award",
        -9.145675020118118
      ],
      [
        "▁whos",
        -8.171894668355208
      ],
      [
        "ession",
        -9.21685874672712
      ],
      [
        "▁lady",
        -8.623778655961548
      ],
      [
        "▁wel",
        -5.239750120745514
      ],
      [
        "▁wear",
        -7.030136924463811
      ],
      [
        "▁decide",
        -7.1256742126874455
      ],
      [
        "▁adjust",
        -8.81943056587951
      ],
      [
        "▁per",
        -8.404674377646222
      ],
      [
        ",000",
        -5.495299463876596
      ],
      [
        "ship",
        -7.965780243568244
      ],
      [
        "▁quote",
        -8.960267051637665
      ],
      [
        ")",
        -4.681454226988154
      ],
      [
        "▁make",
        -4.9131648496900775
      ],
      [
        "countries",
        -7.335963384501514
      ],
      [
        "..",
        -11.6166454357157
      ],
      [
        "▁establish",
        -7.872287748638467
      ],
      [
        "▁publishe",
        -8.041078949278049
      ],
      [
        "▁litera",
        -8.853048086727451
      ],
      [
        "▁setting",
        -8.853650404090555
      ],
      [
        "▁forget",
        -7.8047061598920475
      ],
      [
        "c",
        -5.811834898890697
      ],
      [
        "want",
        -9.323151046085508
      ],
      [
        "▁no",
        -4.9331048382079015
      ],
      [
        "▁dec",
        -7.3924632428208525
      ],
      [
        "▁cla",
        -8.892573238075416
      ],
      [
        "▁bubble",
        -8.960263613129376
      ],
      [
        "▁parent",
        -7.597973588209074
      ],
      [
        "to",
        -8.8262072453735
      ],
      [
        "▁mine",
        -7.3549003857745685
      ],
      [
        "▁college",
        -8.335478059122593
      ],
      [
        "▁resident",
        -9.169324874442342
      ],
      [
        "▁simpl",
        -6.887166233920471
      ],
      [
        "tractor",
        -8.891746071782972
      ],
      [
        "+",
        -11.925660239071421
      ],
      [
        "▁pop",
        -8.31881464626104
      ],
      [
        "▁quin",
        -6.679816597294386
      ],
      [
        "▁man",
        -4.986646391547884
      ],
      [
        "▁onl",
        -6.357181621155046
      ],
      [
        "▁for",
        -3.676327704226436
      ],
      [
        "▁---",
        -13.632274009623934
      ],
      [
        "▁feed",
        -7.955860455662812
      ],
      [
        "▁>",
        -9.582936923105237
      ],
      [
        "▁v",
        -8.292371398184915
      ],
      [
        "▁responsibilit",
        -8.355886019880021
      ],
      [
        "▁towel",
        -8.96078834267023
      ],
      [
        "▁piece",
        -6.96781455293655
      ],
      [
        "▁file",
        -7.123631378906847
      ],
      [
        "▁break",
        -8.613115703612863
      ],
      [
        "ous",
        -8.75369196749786
      ],
      [
        "▁unt",
        -9.905702178190086
      ],
      [
        "▁ten",
        -8.99943448455471
      ],
      [
        "▁matter",
        -8.916816432592363
      ],
      [
        "▁producer",
        -9.125157861239522
      ],
      [
        "▁assess",
        -8.689162915160052
      ],
      [
        "▁monday",
        -7.278818467358425
      ],
      [
        "ester",
        -7.614889363662998
      ],
      [
        "▁pen",
        -7.9610550382665615
      ],
      [
        "▁s",
        -7.2016004436635175
      ],
      [
        "▁soldier",
        -8.613096971445692
      ],
      [
        "g",
        -10.925660239071423
      ],
      [
        "te",
        -9.340799971988403
      ],
      [
        "▁form",
        -7.229122621167228
      ],
      [
        "▁alon",
        -6.861000914725314
      ],
      [
        "▁art",
        -7.5703610267286825
      ],
      [
        "▁whale",
        -8.613334126188366
      ],
      [
        "phone",
        -8.728371290137284
      ],
      [
        "'",
        -2.6782468275802227
      ],
      [
        "***********",
        -13.214685143023583
      ],
      [
        "▁'",
        -9.052455780862363
      ],
      [
        "▁on",
        -11.41378886164738
      ],
      [
        "l",
        -4.932719265569361
      ],
      [
        "▁mosque",
        -9.169410743768513
      ],
      [
        "▁comment",
        -7.822203929235285
      ],
      [
        "▁fro",
        -8.847864777376085
      ],
      [
        "▁committ",
        -9.169860122076315
      ],
      [
        "▁dc",
        -6.315017702654553
      ],
      [
        "▁more",
        -4.831757204896697
      ],
      [
        "st.",
        -6.038947423780039
      ],
      [
        "em",
        -13.645521914879932
      ],
      [
        "▁gender",
        -8.853335522894143
      ],
      [
        "▁fai",
        -8.907171450632363
      ],
      [
        "▁prett",
        -6.0774269011538085
      ],
      [
        "national",
        -7.263849459139401
      ],
      [
        "he",
        -6.877013255523378
      ],
      [
        "▁cigarette",
        -9.038725180902146
      ],
      [
        "▁mu",
        -5.496880053479114
      ],
      [
        "▁column",
        -8.853072240777845
      ],
      [
        "▁snow",
        -8.397997250289041
      ],
      [
        "▁app",
        -9.1360832125772
      ],
      [
        "ma",
        -9.512744794518076
      ],
      [
        "▁mr",
        -7.273031942122844
      ],
      [
        "▁attempt",
        -8.276639244496826
      ],
      [
        "ve",
        -10.92566035959162
      ],
      [
        "▁tu",
        -7.119408893160458
      ],
      [
        "in",
        -6.981579375279513
      ],
      [
        "▁absolute",
        -7.501200598055169
      ],
      [
        "▁bear",
        -8.442463514443517
      ],
      [
        "▁strong",
        -6.705735057937477
      ],
      [
        "▁plane",
        -8.011060126255805
      ],
      [
        "we",
        -9.175861871794693
      ],
      [
        "▁investigate",
        -9.19726521086874
      ],
      [
        "▁wish",
        -7.590511462557424
      ],
      [
        "s",
        -3.1719975266173357
      ],
      [
        "hat",
        -3.789532303880037
      ],
      [
        "▁i",
        -7.352216322514234
      ],
      [
        "▁problem",
        -6.648347422405645
      ],
      [
        "al",
        -7.346946077370534
      ],
      [
        "▁it",
        -4.990832559725664
      ],
      [
        "e",
        -4.069614543994382
      ],
      [
        "▁p",
        -7.0739428297070654
      ],
      [
        "------------",
        -10.609482153313088
      ],
      [
        "at",
        -7.706429681576975
      ],
      [
        "!!!!!!!!!!",
        -11.368032386117479
      ],
      [
        "▁l2",
        -9.080618184187369
      ],
      [
        "▁combine",
        -8.909592838836332
      ],
      [
        ".",
        -9.207163296872874
      ],
      [
        "▁not",
        -7.200425170962376
      ],
      [
        "▁swallow",
        -9.360870468050315
      ],
      [
        "▁aunt",
        -8.960865426247896
      ],
      [
        "▁selection",
        -9.038725031528884
      ],
      [
        "en",
        -7.409934509845575
      ],
      [
        "▁oil",
        -7.6507804575525205
      ],
      [
        "▁meat",
        -8.134994082727193
      ],
      [
        "ac",
        -7.160388903002505
      ],
      [
        "▁t",
        -8.151778055974344
      ],
      [
        "u",
        -12.810278406305976
      ],
      [
        "ch",
        -5.570015910585939
      ],
      [
        "▁develope",
        -9.249352525576292
      ],
      [
        "▁bec",
        -3.613577850939203
      ],
      [
        "▁--",
        -8.092250728111036
      ],
      [
        "▁cowboy",
        -8.787438184076839
      ],
      [
        "me",
        -6.250742814045079
      ],
      [
        "▁moment",
        -7.619365472594727
      ],
      [
        "▁!",
        -6.89487113485091
      ],
      [
        "▁in",
        -5.300291641118423
      ],
      [
        "their",
        -8.058235903390358
      ],
      [
        "▁meaning",
        -8.453463297589357
      ],
      [
        "▁recommend",
        -6.895939823875512
      ],
      [
        "▁public",
        -6.428328946192325
      ],
      [
        "▁mar",
        -7.297696740242504
      ],
      [
        "▁leader",
        -8.143862894022408
      ],
      [
        "▁citizens",
        -8.155322500037236
      ],
      [
        "▁they",
        -4.1663145534812855
      ],
      [
        "▁put",
        -4.963868223581525
      ],
      [
        "·",
        -9.88131015228541
      ],
      [
        "▁&",
        -7.590436870188815
      ],
      [
        "▁collect",
        -7.953103109768134
      ],
      [
        "▁competition",
        -8.66806701648105
      ],
      [
        "▁comparison",
        -9.123870045291513
      ],
      [
        "▁reading",
        -9.22078153821079
      ],
      [
        "▁‘",
        -9.549274777276095
      ],
      [
        "▁travel",
        -8.450296626252157
      ],
      [
        "▁component",
        -8.613096972182158
      ],
      [
        "ove",
        -8.770730135638402
      ],
      [
        "▁visitor",
        -8.728060006910264
      ],
      [
        "n",
        -4.908729745083299
      ],
      [
        "kin",
        -9.038414802321533
      ],
      [
        "▁argu",
        -9.357744420874603
      ],
      [
        "▁prefer",
        -8.702774858518639
      ],
      [
        "▁host",
        -9.168810829922519
      ],
      [
        "▁receiv",
        -8.281500766022912
      ],
      [
        "th",
        -8.014660046279783
      ],
      [
        "▁stomach",
        -9.216943613267615
      ],
      [
        "▁village",
        -9.216944207104724
      ],
      [
        "▁to",
        -4.828081713777489
      ],
      [
        "dle",
        -8.646695640848325
      ],
      [
        "▁return",
        -6.980570236197516
      ],
      [
        "▁print",
        -8.35564676076114
      ],
      [
        ".....",
        -11.977458560269762
      ],
      [
        "▁miss",
        -7.4404016868154
      ],
      [
        "▁defend",
        -9.145912033232495
      ],
      [
        "---",
        -10.542734627330935
      ],
      [
        "▁grass",
        -8.945423827819859
      ],
      [
        "w",
        -11.841782454984505
      ],
      [
        "▁lives",
        -8.02548169330824
      ],
      [
        "d",
        -2.782321843859835
      ],
      [
        "ell",
        -9.37663353454375
      ],
      [
        "▁u",
        -9.051332700543057
      ],
      [
        "▁ice",
        -8.277578779557965
      ],
      [
        "▁construct",
        -9.18317412548558
      ],
      [
        "▁origin",
        -8.977340488016292
      ],
      [
        "▁`",
        -11.296918948688285
      ],
      [
        "▁approve",
        -8.250127600697594
      ],
      [
        "▁concept",
        -8.195374080475702
      ],
      [
        "r",
        -4.205444117082512
      ],
      [
        "▁permit",
        -9.024763626504695
      ],
      [
        "▁password",
        -9.123884720131798
      ],
      [
        "der",
        -10.23364092298107
      ],
      [
        "on",
        -6.905645557616413
      ],
      [
        "w",
        -10.925660239071423
      ],
      [
        "▁rate",
        -7.531611208601072
      ],
      [
        "▁fight",
        -7.564697244157757
      ],
      [
        "▁before",
        -6.6514196137008295
      ],
      [
        "▁qu",
        -8.601907235679407
      ],
      [
        "▁sun",
        -7.487139292978851
      ],
      [
        "ha",
        -13.163230928458333
      ],
      [
        "▁operation",
        -8.39709750128522
      ],
      [
        "▁artwork",
        -9.170000365066286
      ],
      [
        "ten",
        -7.555046472329298
      ],
      [
        "▁capture",
        -9.024939351066113
      ],
      [
        "▁every",
        -8.96049418921693
      ],
      [
        "▁shoe",
        -7.413234866447684
      ],
      [
        "l",
        -6.2055390445399565
      ],
      [
        "▁recognize",
        -8.349560514077385
      ],
      [
        "i",
        -4.785587726083073
      ],
      [
        "▁co",
        -10.565588314305248
      ],
      [
        "▁yours",
        -8.946628168237133
      ],
      [
        "▁date",
        -9.442067739645166
      ],
      [
        "▁death",
        -7.343368173056893
      ],
      [
        "q",
        -8.458578915606978
      ],
      [
        "ar",
        -9.595809148025694
      ],
      [
        "▁news",
        -7.849179933841362
      ],
      [
        "▁kne",
        -7.241416540283397
      ],
      [
        "’",
        -9.207163296872874
      ],
      [
        ".........",
        -12.385442840267194
      ],
      [
        "▁new",
        -5.5195411813287505
      ],
      [
        "os",
        -12.781528412373152
      ],
      [
        "▁....",
        -10.744960055570607
      ],
      [
        "as",
        -11.470631745927642
      ],
      [
        "a",
        -4.91602068502491
      ],
      [
        "our",
        -7.25248867554389
      ],
      [
        "▁visit",
        -8.5344686408947
      ],
      [
        "▁sort",
        -7.713349633957149
      ],
      [
        "-------------",
        -10.209257586536696
      ],
      [
        "▁peanut",
        -8.696493613361936
      ],
      [
        "nition",
        -8.895316967619639
      ],
      [
        "nd",
        -9.236601350363305
      ],
      [
        "▁search",
        -8.787444009487338
      ],
      [
        "▁tear",
        -8.868698589927643
      ],
      [
        "un",
        -11.720693959703446
      ],
      [
        "▁persona",
        -7.163868015445409
      ],
      [
        "▁state",
        -8.068356973088136
      ],
      [
        "▁fellow",
        -9.03872549137705
      ],
      [
        "▁example",
        -6.887981254285923
      ],
      [
        "u",
        -6.499139571092141
      ],
      [
        "▁chic",
        -6.464542883881845
      ],
      [
        "u",
        -3.4498478262533245
      ],
      [
        "▁’",
        -6.974791146606354
      ],
      [
        "▁real",
        -4.874120198670135
      ],
      [
        "▁walk",
        -6.515052717435402
      ],
      [
        "▁purchas",
        -9.333087003983131
      ],
      [
        "▁mis",
        -8.779490857735354
      ],
      [
        "▁flight",
        -4.05477935888929
      ],
      [
        "▁hundred",
        -5.955365271488084
      ],
      [
        "▁drop",
        -9.04181994981553
      ],
      [
        "▁page",
        -7.0265985753286895
      ],
      [
        "▁start",
        -6.035742676720251
      ],
      [
        "▁beat",
        -8.139941333584396
      ],
      [
        "▁br",
        -7.532766402496921
      ],
      [
        "▁sha",
        -13.234491823502221
      ],
      [
        "world",
        -7.278688094485754
      ],
      [
        "▁receive",
        -7.005589039321805
      ],
      [
        "as",
        -7.194088110937001
      ],
      [
        "▁memor",
        -8.24228189448559
      ],
      [
        "▁rock",
        -8.976187670267317
      ],
      [
        "z",
        -6.965394004070416
      ],
      [
        "il",
        -10.821969912483556
      ],
      [
        "▁sunday",
        -7.388268224229664
      ],
      [
        "▁recover",
        -9.084213408520743
      ],
      [
        "▁slow",
        -7.370680472423794
      ],
      [
        "x",
        -7.839595997550478
      ],
      [
        "▁crawl",
        -9.283315065899274
      ],
      [
        "▁mission",
        -8.834349610863262
      ],
      [
        "yo",
        -12.726913103948085
      ],
      [
        "▁pencil",
        -8.010625613404239
      ],
      [
        "▁telephone",
        -8.696992992380663
      ],
      [
        "▁writer",
        -7.998063626797059
      ],
      [
        "▁blood",
        -8.376891329485353
      ],
      [
        "li",
        -7.823242699792453
      ],
      [
        "▁animal",
        -7.064213837031686
      ],
      [
        "▁handle",
        -8.361116241446648
      ],
      [
        "▁feeling",
        -8.563669727287229
      ],
      [
        "▁technique",
        -8.756187999620044
      ],
      [
        "▁ju",
        -7.014867216967266
      ],
      [
        "▁clean",
        -6.800035557967786
      ],
      [
        "▁se",
        -7.331513262247149
      ],
      [
        "▁failure",
        -8.787438904233388
      ],
      [
        "deni",
        -9.224125945123491
      ],
      [
        "ate",
        -7.545575350373912
      ],
      [
        "▁hit",
        -6.806185863543326
      ],
      [
        "▁voice",
        -7.637528279142687
      ],
      [
        "▁feed",
        -8.908070109428966
      ],
      [
        "▁block",
        -8.33682074244903
      ],
      [
        "us",
        -7.778989704250542
      ],
      [
        "time",
        -8.13541454372015
      ],
      [
        "cultur",
        -7.255618199138741
      ],
      [
        "t",
        -4.857854609021998
      ],
      [
        "▁",
        -2.345074069766005
      ],
      [
        "▁van",
        -8.967280995570809
      ],
      [
        "▁a",
        -6.121906244644881
      ],
      [
        "back",
        -9.051409592315476
      ],
      [
        "▁rise",
        -9.218409482139297
      ],
      [
        "▁brush",
        -9.044226130735694
      ],
      [
        "▁t",
        -6.581326392513222
      ],
      [
        "▁use",
        -5.376712606513006
      ],
      [
        "▁y",
        -12.564790908332268
      ],
      [
        "▁capacit",
        -8.257771740324742
      ],
      [
        "▁alr",
        -5.228749683775931
      ],
      [
        "▁at",
        -5.040331045484085
      ],
      [
        "▁client",
        -8.81969664837052
      ],
      [
        "b",
        -9.077941439510095
      ],
      [
        "▁score",
        -9.03872693085847
      ],
      [
        "▁act",
        -8.31177302297877
      ],
      [
        "▁legislat",
        -8.81938021567594
      ],
      [
        "▁complaint",
        -9.21694353777194
      ],
      [
        "▁diffe",
        -5.787677870707446
      ],
      [
        "▁just",
        -3.9535889976245384
      ],
      [
        "▁friends",
        -7.159530320313447
      ],
      [
        "▁west",
        -7.16662573671208
      ],
      [
        "▁morning",
        -6.000120143286302
      ],
      [
        "▁modern",
        -7.2893754413007565
      ],
      [
        "ure",
        -8.118158498829867
      ],
      [
        "▁lose",
        -8.279256091155556
      ],
      [
        "▁letter",
        -7.204077513325634
      ],
      [
        "▁impact",
        -8.355891721003994
      ],
      [
        "▁vs",
        -8.84932320378803
      ],
      [
        "4",
        -8.923153861219452
      ],
      [
        "thin",
        -5.708700200719424
      ],
      [
        "▁run",
        -7.094404592042268
      ],
      [
        "▁catch",
        -7.591525767138456
      ],
      [
        "▁bite",
        -7.841128810969074
      ],
      [
        "!!!!!!!!!!!!!!!!",
        -11.398152869348259
      ],
      [
        "▁pair",
        -8.69740730357752
      ],
      [
        "▁help",
        -5.928976135903623
      ],
      [
        "▁ya",
        -10.057489520944593
      ],
      [
        "▁season",
        -8.359062764414066
      ],
      [
        "in",
        -7.051805178413207
      ],
      [
        "o",
        -3.6856562933200667
      ],
      [
        "▁fin",
        -7.13921038761765
      ],
      [
        "▁tail",
        -8.29666352688395
      ],
      [
        "▁human",
        -8.534914647556718
      ],
      [
        "▁blanket",
        -8.536227541970277
      ],
      [
        "▁exercise",
        -9.217749554897994
      ],
      [
        "▁promise",
        -8.237400325629473
      ],
      [
        "▁great",
        -5.158725407219528
      ],
      [
        "a",
        -7.313902365806134
      ],
      [
        "▁pipe",
        -9.080226385174704
      ],
      [
        "▁terror",
        -8.463950830336875
      ],
      [
        "▁sink",
        -9.14696015504483
      ],
      [
        "▁cage",
        -8.12056574427752
      ],
      [
        "▁noon",
        -7.405467602068381
      ],
      [
        "▁die",
        -8.442731206985325
      ],
      [
        "▁f",
        -6.831058922367424
      ],
      [
        "▁return",
        -7.92666092283588
      ],
      [
        "▁pull",
        -7.056814369868906
      ],
      [
        "▁review",
        -8.033199575130796
      ],
      [
        "▁sand",
        -8.788186726567911
      ],
      [
        "▁reveal",
        -8.538070794943602
      ],
      [
        "]",
        -6.107285657565928
      ],
      [
        "o",
        -7.324375830066715
      ],
      [
        "▁30",
        -5.89812118111261
      ],
      [
        "▁survive",
        -8.607826943963541
      ],
      [
        "like",
        -9.262996894325436
      ],
      [
        "▁parti",
        -6.861010162495646
      ],
      [
        "▁keep",
        -6.147582535994962
      ],
      [
        "ever",
        -5.359099294543228
      ],
      [
        "k",
        -4.9696005187939205
      ],
      [
        "▁power",
        -7.272494128467484
      ],
      [
        "more",
        -5.176001385946601
      ],
      [
        "er",
        -7.476797335921252
      ],
      [
        "i",
        -5.936780311896298
      ],
      [
        "▁place",
        -5.97552090107049
      ],
      [
        "▁ad",
        -8.312796023265218
      ],
      [
        "um",
        -7.473447019932895
      ],
      [
        "▁maj",
        -6.857447257322733
      ],
      [
        "▁government",
        -6.9218414706134155
      ],
      [
        "j",
        -11.707635305543437
      ],
      [
        "▁as",
        -3.75801648861614
      ],
      [
        "▁blog",
        -9.172052559729341
      ],
      [
        "ibilit",
        -9.001138243070544
      ],
      [
        "▁ab",
        -9.672168907805968
      ],
      [
        "du",
        -9.905751175123552
      ],
      [
        "ia",
        -6.46572768572054
      ],
      [
        "▁london",
        -6.999199217919589
      ],
      [
        "▁hard",
        -6.981459197999821
      ],
      [
        "▁value",
        -7.271130486973546
      ],
      [
        "▁tool",
        -8.37730071642854
      ],
      [
        "▁seed",
        -9.000251889376289
      ],
      [
        "▁rely",
        -9.145980370528957
      ],
      [
        "▁spell",
        -8.438578417452812
      ],
      [
        "ual",
        -6.36502189831647
      ],
      [
        "t",
        -1.4210259656718716
      ],
      [
        "▁son",
        -7.88314789012954
      ],
      [
        "our",
        -8.602635877523241
      ],
      [
        "m",
        -3.421156060075173
      ],
      [
        "▁sweater",
        -9.170830373354129
      ],
      [
        "▁document",
        -8.81970296046568
      ],
      [
        "▁cause",
        -8.151481569636447
      ],
      [
        "le",
        -6.8729791587189375
      ],
      [
        "▁bulb",
        -8.998727861188419
      ],
      [
        "▁cat",
        -7.130995090598844
      ],
      [
        "▁web",
        -7.874375878046247
      ],
      [
        "▁how",
        -3.9468069168529585
      ],
      [
        "’",
        -13.8724705263812
      ],
      [
        "▁understand",
        -6.771795786522425
      ],
      [
        "’",
        -8.311179329526977
      ],
      [
        "▁land",
        -8.482368756490763
      ],
      [
        "▁sweep",
        -9.443273260985471
      ],
      [
        "▁mess",
        -9.13529534665706
      ],
      [
        "▁loss",
        -8.606601156730287
      ],
      [
        "ch",
        -5.743182008517046
      ],
      [
        "▁info",
        -8.960330966509218
      ],
      [
        "▁president",
        -7.446433186007898
      ],
      [
        "▁sex",
        -8.726401675517666
      ],
      [
        "▁lik",
        -5.142726697149617
      ],
      [
        "▁head",
        -8.28152344114799
      ],
      [
        "ves",
        -8.373917024390437
      ],
      [
        "▁over",
        -5.746199670579694
      ],
      [
        "▁",
        -2.8219036520832894
      ],
      [
        "ula",
        -7.009970634005315
      ],
      [
        "▁visa",
        -8.613361893919713
      ],
      [
        "one",
        -6.076324489393661
      ],
      [
        "▁thank",
        -6.722052781598699
      ],
      [
        "▁religion",
        -8.787439871338812
      ],
      [
        "▁household",
        -9.081135028646244
      ],
      [
        "▁hel",
        -7.2456770289592685
      ],
      [
        "6",
        -9.216899121533652
      ],
      [
        "▁spot",
        -9.193999268676992
      ],
      [
        "las",
        -4.934397653464572
      ],
      [
        "▁sub",
        -8.41573437559284
      ],
      [
        "▁record",
        -7.590202869594289
      ],
      [
        "▁rest",
        -8.780464668951797
      ],
      [
        "▁line",
        -9.336035042585555
      ],
      [
        "▁nation",
        -8.005637762208256
      ],
      [
        "▁objective",
        -8.923805520080826
      ],
      [
        "▁",
        -1.302891434072171
      ],
      [
        "▁item",
        -7.607602143346999
      ],
      [
        "▁activit",
        -7.6076596541254045
      ],
      [
        "▁demonstrate",
        -8.616039356357
      ],
      [
        "w",
        -10.416994930697198
      ],
      [
        "▁stick",
        -8.470154685681408
      ],
      [
        "▁high",
        -5.9769864595916316
      ],
      [
        "▁shel",
        -8.997054439256805
      ],
      [
        "▁congratulate",
        -9.360851869981587
      ],
      [
        "▁modify",
        -9.146879595428274
      ],
      [
        "▁supplie",
        -9.10850433710879
      ],
      [
        "▁repair",
        -8.464728831185955
      ],
      [
        "n",
        -5.486893563346862
      ],
      [
        "▁believe",
        -6.538158286587613
      ],
      [
        "▁consumer",
        -8.928115725001415
      ],
      [
        "p",
        -8.268707774345442
      ],
      [
        "ze",
        -8.312436807530913
      ],
      [
        "▁discusse",
        -9.424436303222725
      ],
      [
        "▁th",
        -5.732750877800901
      ],
      [
        "▁any",
        -6.715036310546548
      ],
      [
        "an",
        -5.83024036355754
      ],
      [
        "en",
        -8.960701284908298
      ],
      [
        "▁wait",
        -6.4435862654354095
      ],
      [
        "ago",
        -6.457454052720728
      ],
      [
        "▁individual",
        -8.561140155979066
      ],
      [
        "▁look",
        -7.8127469088293395
      ],
      [
        "▁sight",
        -8.88751215706042
      ],
      [
        "x",
        -6.627227203346112
      ],
      [
        "land",
        -8.787627065923703
      ],
      [
        "▁climb",
        -7.986495884101737
      ],
      [
        "ed",
        -6.795748025181248
      ],
      [
        "▁paint",
        -8.81800342621576
      ],
      [
        "rote",
        -7.59018499466834
      ],
      [
        "▁particular",
        -6.879661482062576
      ],
      [
        "▁d",
        -7.835324086530706
      ],
      [
        "ible",
        -7.187702115575742
      ],
      [
        "▁person",
        -6.833138349476712
      ],
      [
        "▁don",
        -7.62514930603924
      ],
      [
        "▁bridge",
        -8.75647236360784
      ],
      [
        "▁su",
        -7.568302466784634
      ],
      [
        "▁percent",
        -8.275786676170393
      ],
      [
        "rew",
        -8.562748343629995
      ],
      [
        "▁pe",
        -7.653575341127877
      ],
      [
        "whi",
        -12.327535299766522
      ],
      [
        "▁half",
        -7.858648881873529
      ],
      [
        "▁plan",
        -7.598651349297334
      ],
      [
        "w",
        -6.333928096726785
      ],
      [
        "nt",
        -6.7840272792579395
      ],
      [
        "to",
        -7.034425037071648
      ],
      [
        "▁payment",
        -8.536595842590732
      ],
      [
        "operation",
        -8.758089899944205
      ],
      [
        "▁close",
        -7.11502240079139
      ],
      [
        "▁drop",
        -8.286286269122698
      ],
      [
        "▁artist",
        -8.789916690104217
      ],
      [
        "▁br",
        -9.147238720845868
      ],
      [
        "night",
        -8.138923327664049
      ],
      [
        "▁on",
        -2.700071180263146
      ],
      [
        "!",
        -5.002391128270716
      ],
      [
        "▁a",
        -9.937741353218946
      ],
      [
        "|",
        -9.719926862834651
      ],
      [
        "..............",
        -14.171066924010521
      ],
      [
        "▁hi",
        -8.633197166119896
      ],
      [
        "▁city",
        -5.7496977402763685
      ],
      [
        "▁kitchen",
        -8.185669981321245
      ],
      [
        "▁as",
        -4.879682590360853
      ],
      [
        "▁card",
        -7.589935950633074
      ],
      [
        "▁publication",
        -9.220037488833055
      ],
      [
        "▁in",
        -4.970792382408093
      ],
      [
        "▁hour",
        -6.859953636382985
      ],
      [
        "▁jul",
        -6.9373478999007965
      ],
      [
        "▁",
        -2.7000107461934846
      ],
      [
        "▁word",
        -6.806647864047421
      ],
      [
        "▁seat",
        -7.78622778798273
      ],
      [
        "▁iran",
        -6.869489833685237
      ],
      [
        "▁weight",
        -8.615898833656862
      ],
      [
        "▁demand",
        -8.376691249688534
      ],
      [
        "▁cell",
        -8.511821794266265
      ],
      [
        "▁new",
        -4.7645933626070915
      ],
      [
        "▁crime",
        -8.85303165273744
      ],
      [
        "lock",
        -8.024586378018121
      ],
      [
        "l",
        -6.758199687090753
      ],
      [
        "▁speak",
        -7.239835423288421
      ],
      [
        "!?!?",
        -12.27640857922021
      ],
      [
        "▁roll",
        -8.093633649111608
      ],
      [
        "▁show",
        -4.68195076631695
      ],
      [
        "▁ca",
        -8.744876320400495
      ],
      [
        "▁ruin",
        -9.15065426852602
      ],
      [
        "▁engine",
        -8.751911522732705
      ],
      [
        "▁support",
        -7.330211589948614
      ],
      [
        "▁remove",
        -7.971838894142864
      ],
      [
        "▁theatre",
        -9.038725393975731
      ],
      [
        "r",
        -9.881310152285408
      ],
      [
        "▁save",
        -7.460705679004733
      ],
      [
        "than",
        -8.760961957451034
      ],
      [
        "▁four",
        -4.645122731153732
      ],
      [
        "▁char",
        -6.425993185079168
      ],
      [
        "▁6",
        -4.915061083533738
      ],
      [
        "let",
        -9.138793533962309
      ],
      [
        "nder",
        -9.164028849285986
      ],
      [
        "▁mon",
        -7.089104440324168
      ],
      [
        "▁other",
        -8.386331254747677
      ],
      [
        "▁king",
        -8.566525061847615
      ],
      [
        "▁profit",
        -9.16933028764747
      ],
      [
        "▁discuss",
        -7.343250401243637
      ],
      [
        "▁imagine",
        -7.707056211457395
      ],
      [
        "tha",
        -5.882854310653147
      ],
      [
        "▁7",
        -5.116752489530166
      ],
      [
        "}",
        -12.810278406305976
      ],
      [
        "t",
        -10.200270897839118
      ],
      [
        "▁inter",
        -6.952119591150534
      ],
      [
        "▁house",
        -6.352613214970077
      ],
      [
        "king",
        -9.168556985503095
      ],
      [
        "▁s",
        -9.316698377377922
      ],
      [
        "toward",
        -10.5930503330447
      ],
      [
        "▁lunch",
        -7.578816532810315
      ],
      [
        "_",
        -4.472959159980312
      ],
      [
        "▁no",
        -8.615805374393982
      ],
      [
        "▁my",
        -4.589203075656636
      ],
      [
        "a",
        -5.858125791097324
      ],
      [
        "the",
        -7.024914228420359
      ],
      [
        "esday",
        -7.247703233504674
      ],
      [
        "ry",
        -7.477042467158304
      ],
      [
        "▁official",
        -8.203213841529262
      ],
      [
        "al",
        -7.304549979831505
      ],
      [
        "......",
        -13.08817150327664
      ],
      [
        "▁bucket",
        -9.217655545489059
      ],
      [
        "▁know",
        -4.428565868834826
      ],
      [
        "▁cook",
        -7.633903245864476
      ],
      [
        "▁touch",
        -7.580939470623513
      ],
      [
        "▁sing",
        -8.947672389427074
      ],
      [
        "_",
        -7.3943777964830595
      ],
      [
        "'",
        -5.782686409310488
      ],
      [
        "▁ladder",
        -9.128784176178105
      ],
      [
        "▁twist",
        -9.28344110355502
      ],
      [
        "▁boot",
        -8.336177477453067
      ],
      [
        "▁throw",
        -7.132923699682042
      ],
      [
        "▁pick",
        -6.856487804306816
      ],
      [
        "▁muscle",
        -8.696473256240786
      ],
      [
        "▁bec",
        -7.4976419712532465
      ],
      [
        "▁import",
        -6.248272192306516
      ],
      [
        "▁mak",
        -6.4717039681631645
      ],
      [
        "▁per",
        -6.408765002859662
      ],
      [
        "▁deal",
        -7.6621603068830595
      ],
      [
        "▁c",
        -8.031073055678037
      ],
      [
        "of",
        -8.026473360529637
      ],
      [
        "▁shake",
        -8.986524122660615
      ],
      [
        "les",
        -6.373733205880214
      ],
      [
        "ver",
        -10.086671659406758
      ],
      [
        "▁structure",
        -8.086462457065844
      ],
      [
        "▁universit",
        -8.58728298759465
      ],
      [
        "ce",
        -7.959106722472015
      ],
      [
        "▁work",
        -5.663812961351836
      ],
      [
        "▁truth",
        -8.487940459490225
      ],
      [
        "▁get",
        -7.116919860684064
      ],
      [
        "▁road",
        -7.599567740137317
      ],
      [
        "▁t",
        -8.51074744854803
      ],
      [
        "▁turn",
        -7.996151635643568
      ],
      [
        "v",
        -8.221020636134378
      ],
      [
        "▁back",
        -8.437782364649347
      ],
      [
        "rface",
        -8.40120130145402
      ],
      [
        "▁equal",
        -9.44085675564732
      ],
      [
        "▁tape",
        -7.992135511469011
      ],
      [
        "▁intend",
        -7.878414666613796
      ],
      [
        "▁grant",
        -8.406788658269399
      ],
      [
        "▁charge",
        -8.49326477627249
      ],
      [
        "▁flew",
        -9.36325101694856
      ],
      [
        "ve",
        -6.027772946699521
      ],
      [
        "▁network",
        -8.56120687954466
      ],
      [
        "da",
        -11.222074835862148
      ],
      [
        "h",
        -9.530401437393046
      ],
      [
        "****************",
        -9.642473869126555
      ],
      [
        "ton",
        -6.705703888198631
      ],
      [
        "▁lea",
        -6.746900389964054
      ],
      [
        "▁user",
        -7.94686394948986
      ],
      [
        "▁",
        -1.4771507384749105
      ],
      [
        "▁mov",
        -7.166072223475296
      ],
      [
        "▁transaction",
        -8.613097129415841
      ],
      [
        "▁soon",
        -6.254854376229238
      ],
      [
        "▁dropp",
        -8.034717269481467
      ],
      [
        "ag",
        -9.825387720886301
      ],
      [
        "▁",
        -1.879078986922659
      ],
      [
        "▁order",
        -7.092900769923852
      ],
      [
        "▁re",
        -7.545235793358803
      ],
      [
        "▁level",
        -7.321140746549115
      ],
      [
        "more",
        -7.0924871061843655
      ],
      [
        "▁d",
        -8.66826635577538
      ],
      [
        "▁doughnut",
        -8.960272485267838
      ],
      [
        "▁kitt",
        -7.981335639531539
      ],
      [
        "position",
        -9.0127388001521
      ],
      [
        "dy",
        -7.034797477489856
      ],
      [
        "[PAD]",
        0.0
      ],
      [
        "aught",
        -7.744287489299082
      ],
      [
        "ill",
        -8.261672746001006
      ],
      [
        "▁stay",
        -9.124370694504206
      ],
      [
        "le",
        -8.50795881827378
      ],
      [
        "▁c",
        -7.464378526851302
      ],
      [
        "ade",
        -9.163853728411702
      ],
      [
        "▁capital",
        -8.086431809773359
      ],
      [
        "▁happen",
        -6.11653004623147
      ],
      [
        "▁law",
        -7.098797919527961
      ],
      [
        "o",
        -2.9644061227609457
      ],
      [
        "----",
        -10.83180367459837
      ],
      [
        "were",
        -7.167827169458954
      ],
      [
        "▁hell",
        -5.579624852051386
      ],
      [
        "▁.........",
        -13.962818968391915
      ],
      [
        "▁roman",
        -6.285402666758411
      ],
      [
        "▁",
        -1.6256745059821878
      ],
      [
        "▁h",
        -7.850127434920213
      ],
      [
        "ighten",
        -9.43439811874087
      ],
      [
        "▁*",
        -9.783669856556786
      ],
      [
        "▁notice",
        -8.756197793068267
      ],
      [
        "ro",
        -9.323176805322918
      ],
      [
        "ca",
        -7.141411780500674
      ],
      [
        "▁expe",
        -7.313414294763917
      ],
      [
        "▁qa",
        -7.083499219665282
      ],
      [
        "▁5",
        -4.7241759964630194
      ],
      [
        "▁worry",
        -8.610892468635155
      ],
      [
        "▁carry",
        -7.4452905083337955
      ],
      [
        "p",
        -5.293431670462067
      ],
      [
        "o",
        -3.5119033932708597
      ],
      [
        "▁hot",
        -6.460844592279476
      ],
      [
        "s",
        -4.934659831115517
      ],
      [
        "▁is",
        -3.8415759029393852
      ],
      [
        "▁dark",
        -6.90249271216322
      ],
      [
        "▁interest",
        -7.3138463008365235
      ],
      [
        "m",
        -4.633343155688267
      ],
      [
        "▁commit",
        -9.261825638492802
      ],
      [
        "▁director",
        -8.511749913319608
      ],
      [
        "▁pai",
        -7.895712621623877
      ],
      [
        "put",
        -9.176596761033803
      ],
      [
        "▁owe",
        -9.309170567773855
      ],
      [
        "rit",
        -8.711909599087585
      ],
      [
        "▁the",
        -4.368852518839425
      ],
      [
        "▁take",
        -4.974076290965646
      ],
      [
        "▁putt",
        -8.158922509182144
      ],
      [
        "▁specify",
        -9.283681199074485
      ],
      [
        "▁character",
        -8.115500986336793
      ],
      [
        "fore",
        -6.806894281632575
      ],
      [
        "▁members",
        -7.951723226772981
      ],
      [
        "▁delete",
        -8.995020198938137
      ],
      [
        "▁interact",
        -9.212624344128375
      ],
      [
        "▁devote",
        -9.360415018845844
      ],
      [
        "b",
        -4.989213884672491
      ],
      [
        "▁nov",
        -7.36011616109744
      ],
      [
        "▁project",
        -7.32143208008294
      ],
      [
        "▁expand",
        -8.318777532004205
      ],
      [
        "▁maintain",
        -7.770155367477616
      ],
      [
        "▁border",
        -8.586785284063456
      ],
      [
        "▁airplane",
        -8.613242196588832
      ],
      [
        "▁act",
        -8.041418261246278
      ],
      [
        "▁",
        -3.5515534901066914
      ],
      [
        "re",
        -6.5270678446587755
      ],
      [
        "g",
        -6.263157292022805
      ],
      [
        "▁sign",
        -7.9848697491259895
      ],
      [
        "whos",
        -11.20766598766508
      ],
      [
        "are",
        -6.0074420158852755
      ],
      [
        "▁listen",
        -7.39626607878537
      ],
      [
        "▁charge",
        -7.853354768533049
      ],
      [
        "▁right",
        -6.802273882806462
      ],
      [
        "ve",
        -6.412359021217133
      ],
      [
        "-------",
        -13.306664066647068
      ],
      [
        "▁dragon",
        -8.725961549724527
      ],
      [
        "▁zoo",
        -8.888068378153445
      ],
      [
        "h",
        -3.151586959751487
      ],
      [
        "▁become",
        -6.846957219988554
      ],
      [
        "e",
        -4.22288634209055
      ],
      [
        "▁threat",
        -8.355886072813451
      ],
      [
        "▁soft",
        -9.169325191605537
      ],
      [
        "▁spot",
        -8.421205824207409
      ],
      [
        "formation",
        -6.3930203049447325
      ],
      [
        "▁securit",
        -7.617404688247977
      ],
      [
        "▁food",
        -6.213060860252179
      ],
      [
        "▁disaster",
        -8.56114092810419
      ],
      [
        "▁scare",
        -9.20458049062011
      ],
      [
        "4",
        -12.653795411026692
      ],
      [
        "▁hers",
        -11.553708895953593
      ],
      [
        "in",
        -5.972258428642649
      ],
      [
        "▁never",
        -5.373709755189779
      ],
      [
        "▁v",
        -10.549009922820545
      ],
      [
        "▁di",
        -5.822008523961465
      ],
      [
        "ze",
        -8.353582342943577
      ],
      [
        "v",
        -5.575747967194122
      ],
      [
        "▁cover",
        -8.443252732364815
      ],
      [
        "▁mathematic",
        -8.852888984169859
      ],
      [
        "er",
        -8.073934204086363
      ],
      [
        "▁d",
        -7.837953371148171
      ],
      [
        "▁specifi",
        -7.060318245974871
      ],
      [
        "led",
        -7.211734321165092
      ],
      [
        "▁sandwich",
        -8.376719354739883
      ],
      [
        "elief",
        -9.094887767904577
      ],
      [
        "▁arrive",
        -6.562010512051669
      ],
      [
        "▁up",
        -8.33697720284549
      ],
      [
        "▁los",
        -7.057733230058732
      ],
      [
        "▁presen",
        -9.010606025669624
      ],
      [
        "▁suspect",
        -8.610884333859165
      ],
      [
        "him",
        -8.090238517203447
      ],
      [
        "▁colleague",
        -8.923226441787417
      ],
      [
        "▁back",
        -7.208301882596641
      ],
      [
        "nt",
        -7.926099267872553
      ],
      [
        "▁something",
        -8.464707426664663
      ],
      [
        "ched",
        -9.337331019732819
      ],
      [
        "▁stoo",
        -7.955751216508731
      ],
      [
        "▁button",
        -7.657751460610127
      ],
      [
        "▁m",
        -8.808938386214283
      ],
      [
        "▁document",
        -7.777317582949337
      ],
      [
        "▁jeff",
        -7.355750548638969
      ],
      [
        "▁extreme",
        -7.084282788287229
      ],
      [
        "tel",
        -6.390730603715606
      ],
      [
        "▁goal",
        -8.0871612786386
      ],
      [
        "g",
        -5.178950778187783
      ],
      [
        "▁bathroom",
        -8.276823487567986
      ],
      [
        "▁identify",
        -8.689334217799146
      ],
      [
        "_",
        -4.8283611448919315
      ],
      [
        "▁relationship",
        -8.295977476132588
      ],
      [
        "▁th",
        -4.476221050677899
      ],
      [
        "▁wo",
        -7.267365822071614
      ],
      [
        "entl",
        -5.672554744168814
      ],
      [
        "▁up",
        -5.080133948048412
      ],
      [
        "ial",
        -6.617192983272803
      ],
      [
        "▁luck",
        -8.853029404084241
      ],
      [
        "ch",
        -7.867358473290685
      ],
      [
        "▁most",
        -5.67441530637149
      ],
      [
        "?????",
        -11.017867342887754
      ],
      [
        "▁ring",
        -8.950678526810764
      ],
      [
        "▁right",
        -5.1005143013985395
      ],
      [
        "▁acquire",
        -9.042177457619601
      ],
      [
        "room",
        -8.530008135399292
      ],
      [
        "***************",
        -11.823410765088374
      ],
      [
        "▁element",
        -8.134821157340216
      ],
      [
        "▁follow",
        -6.362041922472536
      ],
      [
        "▁job",
        -6.805931174749688
      ],
      [
        "ha",
        -9.035947903990632
      ],
      [
        "▁forward",
        -8.407128460924563
      ],
      [
        "▁meeting",
        -7.541541333205604
      ],
      [
        "town",
        -7.598583364221026
      ],
      [
        "ach",
        -8.260175839519409
      ],
      [
        "▁cin",
        -7.151470145212763
      ],
      [
        "▁disease",
        -8.887706631383795
      ],
      [
        "▁19",
        -8.920953055251385
      ],
      [
        "ertain",
        -6.8715652381419625
      ],
      [
        "▁link",
        -8.121096130214303
      ],
      [
        "▁sci",
        -9.072952856580418
      ],
      [
        "▁port",
        -8.791426502646008
      ],
      [
        "el",
        -7.053894490506609
      ],
      [
        "▁drink",
        -8.040256502061432
      ],
      [
        "▁add",
        -6.652315770827376
      ],
      [
        "▁fear",
        -8.536699310275022
      ],
      [
        "▁squirt",
        -9.288686004311
      ],
      [
        "▁income",
        -8.787455464565479
      ],
      [
        "▁spirit",
        -8.887578254900154
      ],
      [
        "▁arrest",
        -9.02482456647259
      ],
      [
        "▁television",
        -8.667901775903628
      ],
      [
        "▁section",
        -7.996139061198978
      ],
      [
        "et",
        -6.968554700762771
      ],
      [
        "er",
        -6.115462792319052
      ],
      [
        "▁wil",
        -10.327329674474207
      ],
      [
        "▁business",
        -6.864580627149187
      ],
      [
        "▁open",
        -6.700602120712368
      ],
      [
        "▁place",
        -7.751819224249484
      ],
      [
        "3",
        -10.925660239071423
      ],
      [
        "▁an",
        -3.357172572066
      ],
      [
        "ark",
        -6.658144165809635
      ],
      [
        "▁live",
        -6.4022916255705535
      ],
      [
        "adam",
        -8.801204290585094
      ],
      [
        "▁social",
        -6.614955515202298
      ],
      [
        "▁process",
        -6.9619146280502155
      ],
      [
        "▁when",
        -3.9318797654183104
      ],
      [
        "▁an",
        -4.119119639414188
      ],
      [
        "▁love",
        -7.821445912638369
      ],
      [
        "▁se",
        -8.65281690288646
      ],
      [
        "▁mistake",
        -8.586869882001947
      ],
      [
        "head",
        -9.05129821171414
      ],
      [
        "’",
        -10.78153641900687
      ],
      [
        "▁group",
        -6.604477869223665
      ],
      [
        "▁bear",
        -7.413292550567692
      ],
      [
        "use",
        -7.908039679543822
      ],
      [
        "▁f",
        -8.821102863888438
      ],
      [
        "▁taste",
        -8.03348461793793
      ],
      [
        "▁settlement",
        -8.536140409133335
      ],
      [
        "▁vote",
        -8.217560882040823
      ],
      [
        "▁evolv",
        -9.307357676860246
      ],
      [
        "equ",
        -7.362634272841502
      ],
      [
        "/",
        -7.232475893671974
      ],
      [
        "u",
        -6.695873815508354
      ],
      [
        "▁stopover",
        -8.08654176274725
      ],
      [
        "▁pig",
        -8.466027118186766
      ],
      [
        "ther",
        -6.293876075097796
      ],
      [
        "▁cha",
        -8.659152392222111
      ],
      [
        "▁range",
        -8.5386288540977
      ],
      [
        "▁bak",
        -9.180767045850283
      ],
      [
        "▁suck",
        -8.73240815058813
      ],
      [
        "▁2000",
        -6.054635009603185
      ],
      [
        "▁performance",
        -8.315616760243579
      ],
      [
        "▁editor",
        -9.000117278361182
      ],
      [
        "▁consequence",
        -8.923226441705136
      ],
      [
        "▁boxe",
        -8.874440659223083
      ],
      [
        "▁crayon",
        -9.123908582995679
      ],
      [
        "▁sink",
        -9.17224950914374
      ],
      [
        "▁bowl",
        -7.9974941474846455
      ],
      [
        "▁friend",
        -7.098054325008396
      ],
      [
        "▁under",
        -6.340505141486626
      ],
      [
        "▁administration",
        -8.29629837316273
      ],
      [
        "▁spoon",
        -8.92323371423474
      ],
      [
        "▁b/",
        -11.153795423368507
      ],
      [
        "▁list",
        -7.114475899614571
      ],
      [
        "▁danc",
        -8.619351382735312
      ],
      [
        "u",
        -5.6466891656229885
      ],
      [
        "▁mor",
        -5.345130170783909
      ],
      [
        "▁noise",
        -8.151601393382219
      ],
      [
        "▁agree",
        -7.253405628739583
      ],
      [
        "▁program",
        -7.6472824930213745
      ],
      [
        "▁cupcake",
        -8.923229193394047
      ],
      [
        "sit",
        -9.383504073805348
      ],
      [
        "▁manager",
        -8.137343087061883
      ],
      [
        "▁addition",
        -8.315478175411581
      ],
      [
        "▁abilit",
        -8.366522322577062
      ],
      [
        "▁country",
        -6.907077576185934
      ],
      [
        "▁suffer",
        -7.928009550386038
      ],
      [
        "▁dog",
        -6.656000729431259
      ],
      [
        "look",
        -8.924097104575832
      ],
      [
        "▁fina",
        -6.594469095657318
      ],
      [
        "▁lo",
        -8.587447642965873
      ],
      [
        "▁examin",
        -9.377013372104653
      ],
      [
        "▁suggestion",
        -8.725884969313293
      ],
      [
        "▁touch",
        -8.923433775887514
      ],
      [
        "▁hotel",
        -7.607651031530639
      ],
      [
        "▁driver",
        -8.571438616704281
      ],
      [
        "ly",
        -6.045208521205439
      ],
      [
        "▁thi",
        -5.276488441522115
      ],
      [
        "▁club",
        -9.216943576577803
      ],
      [
        "roni",
        -9.220291646439286
      ],
      [
        "---=",
        -11.805652056917825
      ],
      [
        "▁quer",
        -8.438819969914144
      ],
      [
        "▁row",
        -8.627311835288015
      ],
      [
        "▁may",
        -5.707054092143263
      ],
      [
        "▁viol",
        -8.99574909449927
      ],
      [
        "▁examine",
        -8.958313668623637
      ],
      [
        "cial",
        -6.719047619607357
      ],
      [
        "an",
        -6.580590713007869
      ],
      [
        "c",
        -11.810278406305967
      ],
      [
        "i",
        -3.6573677594667693
      ],
      [
        "▁large",
        -5.780948463543281
      ],
      [
        "▁educate",
        -9.404391758100541
      ],
      [
        "▁achiev",
        -8.898995402808437
      ],
      [
        "3",
        -8.78716293598233
      ],
      [
        "▁guideline",
        -8.923318864321372
      ],
      [
        "y",
        -4.796594636724666
      ],
      [
        "▁bone",
        -8.35735672345666
      ],
      [
        "ng",
        -7.341026937785574
      ],
      [
        "▁member",
        -7.293888133461845
      ],
      [
        "▁who",
        -5.033694261489916
      ],
      [
        "someon",
        -9.75135018918097
      ],
      [
        "▁acco",
        -7.520476654430368
      ],
      [
        "▁paint",
        -8.410390060706064
      ],
      [
        "▁start",
        -8.136081255425534
      ],
      [
        "▁answer",
        -7.948120084470887
      ],
      [
        "▁av",
        -6.077044743235184
      ],
      [
        "▁pie",
        -8.609702735454038
      ],
      [
        "▁wonder",
        -7.394909470106592
      ],
      [
        "▁practice",
        -9.269161214107651
      ],
      [
        "▁living",
        -8.640218886045767
      ],
      [
        "**********",
        -11.18260191905142
      ],
      [
        "▁was",
        -6.010289631052777
      ],
      [
        "▁centur",
        -7.72125843843493
      ],
      [
        "her",
        -5.970249124020137
      ],
      [
        "l",
        -12.810278406305953
      ],
      [
        "fe",
        -8.44210562283323
      ],
      [
        "▁need",
        -4.9754309386742674
      ],
      [
        "get",
        -8.247055403809407
      ],
      [
        ",",
        -2.0458494590007046
      ],
      [
        "▁building",
        -7.928126585424438
      ],
      [
        "▁ensur",
        -8.932108183470353
      ],
      [
        "▁shark",
        -8.78743890752177
      ],
      [
        "d",
        -7.736282935630404
      ],
      [
        "u",
        -6.759958710825652
      ],
      [
        "▁la",
        -6.2342240188220615
      ],
      [
        "▁fix",
        -7.571761303624872
      ],
      [
        "oth",
        -8.842116098097984
      ],
      [
        "▁predict",
        -9.147860661032121
      ],
      [
        "▁resource",
        -8.295870183493776
      ],
      [
        "▁folk",
        -8.923229581741735
      ],
      [
        "▁condition",
        -7.96776251162614
      ],
      [
        "▁beach",
        -8.011133271847363
      ],
      [
        "!!!!!!!!!!!!!!",
        -12.258495128023615
      ],
      [
        "▁tea",
        -8.005515618352948
      ],
      [
        "▁i",
        -7.733415807312335
      ],
      [
        "▁emerge",
        -9.38954857975813
      ],
      [
        "▁studie",
        -8.538202096197887
      ],
      [
        "▁histor",
        -7.541387607600667
      ],
      [
        "▁culture",
        -7.765854417341588
      ],
      [
        "c",
        -7.9821038333714105
      ],
      [
        "▁account",
        -7.627305798760164
      ],
      [
        "▁seek",
        -7.794721868270505
      ],
      [
        "▁you",
        -2.8335956024408713
      ],
      [
        "▁milita",
        -6.883185739735111
      ],
      [
        "tra",
        -8.956646271249955
      ],
      [
        "▁measure",
        -8.66078877166251
      ],
      [
        "▁ma",
        -6.872057889626475
      ],
      [
        "▁wrong",
        -6.889840448844239
      ],
      [
        "▁companie",
        -8.276659249114067
      ],
      [
        "ou",
        -11.026065425264347
      ],
      [
        "▁ignore",
        -8.690690195797188
      ],
      [
        "▁universit",
        -6.823589841676142
      ],
      [
        "▁eight",
        -5.45617522748721
      ],
      [
        "▁mix",
        -8.5503199672976
      ],
      [
        "▁fro",
        -3.54910109396684
      ],
      [
        "▁carrie",
        -8.115915210446387
      ],
      [
        "th",
        -10.632252390293505
      ],
      [
        "ence",
        -7.176978326991938
      ],
      [
        "▁toda",
        -6.263055244653625
      ],
      [
        "9",
        -4.443752773287558
      ],
      [
        "a",
        -2.8896488760980406
      ],
      [
        "rank",
        -8.979148090616182
      ],
      [
        "▁assume",
        -8.180302739335136
      ],
      [
        "▁experience",
        -8.330738398453974
      ],
      [
        "▁click",
        -8.649000036370897
      ],
      [
        "an",
        -13.70487764730738
      ],
      [
        "▁stuff",
        -7.306659826059991
      ],
      [
        "▁doggie",
        -7.647428703439606
      ],
      [
        "ic",
        -7.61690669834341
      ],
      [
        "▁california",
        -6.985563614707918
      ],
      [
        "▁with",
        -4.952485445949646
      ],
      [
        "▁late",
        -6.267339765221746
      ],
      [
        "ve",
        -8.975014890483797
      ],
      [
        "o",
        -4.960517581308592
      ],
      [
        "▁whi",
        -8.851405274144836
      ],
      [
        "lo",
        -13.605216885803905
      ],
      [
        "▁develop",
        -7.219263868034156
      ],
      [
        "▁product",
        -7.144694182176071
      ],
      [
        "p",
        -6.379676684275523
      ],
      [
        "ney",
        -7.371820333774097
      ],
      [
        "▁owner",
        -7.884099749778288
      ],
      [
        "▁stock",
        -8.492148000007814
      ],
      [
        "▁taste",
        -9.080392337325485
      ],
      [
        "▁potato",
        -9.16932619709835
      ],
      [
        "▁thre",
        -8.490099273367074
      ],
      [
        "▁compar",
        -9.282297036030215
      ],
      [
        "ring",
        -8.252052990872274
      ],
      [
        "▁so",
        -5.253845430228908
      ],
      [
        "▁offer",
        -8.927079765038958
      ],
      [
        "▁hide",
        -8.394334826868617
      ],
      [
        "▁set",
        -8.024593500316847
      ],
      [
        "▁pin",
        -8.715703490953587
      ],
      [
        "abou",
        -8.011008626944378
      ],
      [
        "go",
        -8.652390594870235
      ],
      [
        "pos",
        -9.971496173792502
      ],
      [
        "▁recommendation",
        -9.123869944701418
      ],
      [
        "--------",
        -11.127153465961992
      ],
      [
        "▁roar",
        -8.86883153585313
      ],
      [
        "at",
        -6.784203456775905
      ],
      [
        "▁cent",
        -9.220380689968312
      ],
      [
        "▁shut",
        -8.40855525823017
      ],
      [
        "▁bea",
        -8.239717167025468
      ],
      [
        "▁mi",
        -6.329246453419489
      ],
      [
        "▁l",
        -8.071622223687715
      ],
      [
        "[CLS]",
        0.0
      ],
      [
        "▁research",
        -7.669431016892204
      ],
      [
        "no",
        -9.393120652578665
      ],
      [
        "quino",
        -8.831166503390321
      ],
      [
        "full",
        -6.272233315765132
      ],
      [
        "▁plann",
        -7.863411079835668
      ],
      [
        "/",
        -13.8725705263812
      ],
      [
        "▁oz",
        -9.169452320591136
      ],
      [
        "▁tri",
        -8.25020254601136
      ],
      [
        "▁heat",
        -8.060452690975215
      ],
      [
        "▁hav",
        -6.718104064181433
      ],
      [
        "▁filter",
        -8.221198041400385
      ],
      [
        "▁lean",
        -9.096300030768612
      ],
      [
        "somethin",
        -8.701948388671699
      ],
      [
        "▁north",
        -9.038733475063662
      ],
      [
        "▁fold",
        -8.89888426895811
      ],
      [
        "do",
        -8.922653752225703
      ],
      [
        "▁score",
        -9.174898047653443
      ],
      [
        "▁get",
        -4.421414040666525
      ],
      [
        "tional",
        -6.048598725648832
      ],
      [
        "▁swim",
        -8.318377595961834
      ],
      [
        "▁prepare",
        -7.995917764946754
      ],
      [
        "▁tha",
        -2.389866280899322
      ],
      [
        "le",
        -7.288360568497719
      ],
      [
        "▁license",
        -7.767979767270777
      ],
      [
        "▁station",
        -7.971008628294385
      ],
      [
        "corn",
        -8.930004510928168
      ],
      [
        "▁found",
        -6.336787716580186
      ],
      [
        "▁submit",
        -9.415786562877546
      ],
      [
        "▁town",
        -7.278296875438283
      ],
      [
        "▁…",
        -9.511839873390812
      ],
      [
        "ng",
        -9.119444186113508
      ],
      [
        "ary",
        -8.994954858971788
      ],
      [
        "▁mind",
        -7.397956965639863
      ],
      [
        "00",
        -5.601908175947245
      ],
      [
        "▁game",
        -6.67492127272534
      ],
      [
        "▁questions",
        -7.464146785644244
      ],
      [
        "▁continue",
        -6.897750134033349
      ],
      [
        "ook",
        -6.641626205827474
      ],
      [
        ":",
        -5.121007365794226
      ],
      [
        "▁hung",
        -8.973203302111912
      ],
      [
        "▁over",
        -5.6506729416107095
      ],
      [
        "▁’",
        -9.7081408527352
      ],
      [
        "▁!!!",
        -8.822914129701736
      ],
      [
        "access",
        -7.293715939656362
      ],
      [
        "ow",
        -10.59600381348684
      ],
      [
        "e",
        -2.8147556323144673
      ],
      [
        "▁mode",
        -8.233712274669234
      ],
      [
        "▁..........",
        -12.830818015419348
      ],
      [
        "ego",
        -6.75241437602735
      ],
      [
        "▁coat",
        -8.93179522025958
      ],
      [
        "ar",
        -7.403787687720679
      ],
      [
        "▁lake",
        -6.691541180030711
      ],
      [
        "ve",
        -8.540782673552975
      ],
      [
        "▁toward",
        -7.687252074323171
      ],
      [
        "ou",
        -5.693854455428379
      ],
      [
        "♥",
        -12.810278406305976
      ],
      [
        "▁cut",
        -8.619399010850714
      ],
      [
        "▁wha",
        -8.319820818394579
      ],
      [
        "▁spill",
        -8.918939825192812
      ],
      [
        "▁go",
        -8.803147197359284
      ],
      [
        "▁close",
        -7.658641754651466
      ],
      [
        "▁involve",
        -7.945953540093921
      ],
      [
        "▁bread",
        -8.026877142638188
      ],
      [
        ".",
        -12.707635305583393
      ],
      [
        "▁soil",
        -8.889168601922512
      ],
      [
        "another",
        -8.42639901100924
      ],
      [
        "ous",
        -4.87272141173675
      ],
      [
        "▁ok",
        -6.793719205581697
      ],
      [
        "i",
        -5.516102924902142
      ],
      [
        "▁!!!!!!",
        -11.169643353147766
      ],
      [
        "▁attorney",
        -9.21694353779829
      ],
      [
        "▁replication",
        -8.819696744168843
      ],
      [
        "▁joke",
        -7.754459953938312
      ],
      [
        "ice",
        -7.482348072578886
      ],
      [
        "▁poet",
        -8.536914196757197
      ],
      [
        "e",
        -6.537752415107043
      ],
      [
        "▁visit",
        -7.170082819623273
      ],
      [
        "▁kick",
        -8.610188776671855
      ],
      [
        "tic",
        -7.116147008177121
      ],
      [
        "bal",
        -6.877981207083328
      ],
      [
        "▁enron",
        -6.666633476926522
      ],
      [
        "▁n",
        -6.357557291452977
      ],
      [
        "▁climate",
        -8.397996040818356
      ],
      [
        "ling",
        -8.656944928295674
      ],
      [
        "▁orange",
        -9.080391736416026
      ],
      [
        "▁interview",
        -8.977517289680325
      ],
      [
        "e",
        -2.362962577693258
      ],
      [
        "▁size",
        -8.040279487103879
      ],
      [
        "▁present",
        -7.660713438513456
      ],
      [
        "▁cycle",
        -8.853030354716765
      ],
      [
        "▁doctor",
        -7.66802303774338
      ],
      [
        "▁surprise",
        -8.397995949034483
      ],
      [
        "▁round",
        -6.825245326216084
      ],
      [
        "▁anyway",
        -7.149342360070847
      ],
      [
        "▁dress",
        -7.922935736617031
      ],
      [
        "▁glove",
        -8.960278470228184
      ],
      [
        "▁operator",
        -8.696852753789948
      ],
      [
        "▁root",
        -8.239340229963744
      ],
      [
        "▁watch",
        -6.422132444968376
      ],
      [
        "'",
        -2.482385910194264
      ],
      [
        "▁etc",
        -7.824802520377602
      ],
      [
        "▁male",
        -8.822004581314566
      ],
      [
        "▁blue",
        -6.5873585788894955
      ],
      [
        "ar",
        -7.070180781046311
      ],
      [
        "ine",
        -8.892046660633094
      ],
      [
        "▁method",
        -7.9537835286735215
      ],
      [
        "▁schedule",
        -8.203213840140062
      ],
      [
        "▁hair",
        -6.961946290224792
      ],
      [
        "once",
        -6.213434230210199
      ],
      [
        "▁heel",
        -9.123887803495048
      ],
      [
        "nd",
        -8.129110544840849
      ],
      [
        "▁apr",
        -7.080204494422818
      ],
      [
        "▁chocolate",
        -8.335477856596388
      ],
      [
        "▁is",
        -5.984605269276846
      ],
      [
        "▁firm",
        -8.536144868958694
      ],
      [
        "o",
        -4.757238422636543
      ],
      [
        "log",
        -9.09133382759933
      ],
      [
        "▁some",
        -6.593686694992894
      ],
      [
        "ed",
        -4.3347423109077265
      ],
      [
        "less",
        -6.3768290441130455
      ],
      [
        "▁e-mail",
        -8.536140217672678
      ],
      [
        "▁crowd",
        -8.960264387560278
      ],
      [
        "l",
        -6.794751193104145
      ],
      [
        "▁exact",
        -7.130971277767781
      ],
      [
        "▁e",
        -8.780833583811516
      ],
      [
        "with",
        -6.357203910909967
      ],
      [
        "u",
        -8.070949385963766
      ],
      [
        "▁drug",
        -8.56114018085187
      ],
      [
        "▁print",
        -9.00754385471476
      ],
      [
        "▁dark",
        -8.923229564487128
      ],
      [
        "▁ca",
        -8.524326304687008
      ],
      [
        "t",
        -5.349699802262844
      ],
      [
        "▁abe",
        -6.584971837897432
      ],
      [
        "▁sara",
        -6.686798483911379
      ],
      [
        "▁protection",
        -8.239252803869842
      ],
      [
        "▁your",
        -4.441892259932327
      ],
      [
        "due",
        -7.28851969435859
      ],
      [
        "▁equipment",
        -9.08039316226801
      ],
      [
        "▁focuse",
        -9.211524198346563
      ],
      [
        "▁dial",
        -9.286248255548502
      ],
      [
        "oul",
        -4.862598188843797
      ],
      [
        "▁g",
        -7.277611285017578
      ],
      [
        "▁no",
        -6.709205954266236
      ],
      [
        "▁ga",
        -7.345565621664554
      ],
      [
        "?????????????",
        -12.70099418020655
      ],
      [
        "▁us",
        -7.358446331476809
      ],
      [
        "▁dal",
        -5.1031312299685965
      ],
      [
        "▁contribute",
        -8.721181520426635
      ],
      [
        "▁fact",
        -6.925250659712235
      ],
      [
        "▁burst",
        -9.360641045467792
      ],
      [
        "▁prove",
        -8.168219478103088
      ],
      [
        "▁salon",
        -9.124555536515611
      ],
      [
        "▁execute",
        -8.568324959413838
      ],
      [
        "own",
        -5.6515858426204515
      ],
      [
        "ins",
        -12.167094736746972
      ],
      [
        "▁time",
        -5.0334879187466575
      ],
      [
        "▁exception",
        -9.217022488961776
      ],
      [
        "k",
        -7.1821956136619916
      ],
      [
        "▁g",
        -6.747886763049844
      ],
      [
        "e",
        -4.7569965955382765
      ],
      [
        "▁attache",
        -7.394647312444762
      ],
      [
        "▁insist",
        -9.443311260613681
      ],
      [
        "through",
        -8.833708491403344
      ],
      [
        "▁birthday",
        -7.589134761512645
      ],
      [
        ">",
        -7.243668748634377
      ],
      [
        "i",
        -5.226793519697355
      ],
      [
        "▁fund",
        -7.831147418397853
      ],
      [
        "▁cle",
        -6.736947481450366
      ],
      [
        "▁owl",
        -9.175415697930676
      ],
      [
        "▁deliver",
        -8.613097418887598
      ],
      [
        "▁-",
        -7.106383807340567
      ],
      [
        "▁urge",
        -9.411700244063756
      ],
      [
        "▁south",
        -6.831050186369672
      ],
      [
        "▁du",
        -6.791389539449149
      ],
      [
        "▁than",
        -5.888803821775666
      ],
      [
        "▁copy",
        -8.533434250249996
      ],
      [
        "▁grape",
        -9.080648317134184
      ],
      [
        "s",
        -2.358705181573894
      ],
      [
        "red",
        -7.0567063380842345
      ],
      [
        "ere",
        -8.9394830435864
      ],
      [
        "▁re",
        -7.705712950666446
      ],
      [
        "ing",
        -6.502982686062673
      ],
      [
        "▁representative",
        -9.080391683828603
      ],
      [
        "se",
        -9.378030818966653
      ],
      [
        "▁so",
        -3.7744192074049634
      ],
      [
        "▁participant",
        -8.69647835588712
      ],
      [
        "▁partner",
        -8.819534586194884
      ],
      [
        "▁disappear",
        -9.025395337929355
      ],
      [
        "▁increase",
        -7.819773319320149
      ],
      [
        "▁minne",
        -7.23532669724779
      ],
      [
        "tuck",
        -8.669650365756599
      ],
      [
        "▁ma",
        -8.539376449403816
      ],
      [
        "me",
        -7.2795455667260525
      ],
      [
        "▁honey",
        -7.824669930291182
      ],
      [
        "▁water",
        -6.433898318215807
      ],
      [
        "▁question",
        -6.940774554299401
      ],
      [
        "▁extend",
        -8.23777162680596
      ],
      [
        "▁bird",
        -7.366092448597783
      ],
      [
        "▁qualit",
        -7.437607515917092
      ],
      [
        "cinn",
        -7.200700396868386
      ],
      [
        "que",
        -8.90760469344174
      ],
      [
        "ium",
        -9.014128226028207
      ],
      [
        "▁po",
        -8.808024522037588
      ],
      [
        "▁fl",
        -8.301407257520475
      ],
      [
        "▁down",
        -7.572524168226138
      ],
      [
        "▁b",
        -7.312066243997634
      ],
      [
        "▁local",
        -6.57751425338309
      ],
      [
        "(",
        -4.690054248533107
      ],
      [
        "▁question",
        -8.819725000861384
      ],
      [
        "???",
        -11.494198687124818
      ],
      [
        "dl",
        -7.48629222181447
      ],
      [
        "on",
        -5.130753300564142
      ],
      [
        "▁sever",
        -6.308517651343796
      ],
      [
        "▁mil",
        -6.217874905444641
      ],
      [
        "==",
        -11.055194985824045
      ],
      [
        "ter",
        -7.365013215623208
      ],
      [
        "▁da",
        -9.772392388497229
      ],
      [
        "▁uh",
        -11.519265493247671
      ],
      [
        "▁[",
        -9.009499651994831
      ],
      [
        "▁b",
        -12.241560312219251
      ],
      [
        "▁read",
        -6.125286429904584
      ],
      [
        "▁fo",
        -9.554142235997762
      ],
      [
        "▁deserve",
        -9.026390977354469
      ],
      [
        "ect",
        -7.2808766303213615
      ],
      [
        "▁couple",
        -7.514746374831105
      ],
      [
        "▁occasion",
        -8.998725074701786
      ],
      [
        "ide",
        -11.89009109688605
      ],
      [
        "▁mem",
        -7.00957768529491
      ],
      [
        "▁announce",
        -8.549351832378417
      ],
      [
        "▁union",
        -8.9620343025676
      ],
      [
        "▁incorporate",
        -8.867489578700768
      ],
      [
        "politic",
        -6.515086073278683
      ],
      [
        "me",
        -6.477495628531309
      ],
      [
        "▁remind",
        -8.351327217733763
      ],
      [
        "▁friendl",
        -6.990607316596084
      ],
      [
        "▁harr",
        -6.233282355421759
      ],
      [
        "▁statement",
        -8.283199658757818
      ],
      [
        "▁yell",
        -8.971970784677987
      ],
      [
        "▁shout",
        -9.15195904554747
      ],
      [
        "▁strengthen",
        -8.731130213921778
      ],
      [
        "▁abou",
        -5.1502907813187875
      ],
      [
        "▁proposal",
        -8.070792294359805
      ],
      [
        "7",
        -9.216902069764288
      ],
      [
        "▁field",
        -7.094005265707065
      ],
      [
        "▁phil",
        -5.248908426229394
      ],
      [
        "▁burn",
        -8.440427037942076
      ],
      [
        "▁bus",
        -7.723142778580611
      ],
      [
        "▁watch",
        -8.960381965628686
      ],
      [
        "uh",
        -13.441672283788352
      ],
      [
        "c",
        -10.270631529841472
      ],
      [
        "ce",
        -6.804445827853674
      ],
      [
        "▁t",
        -8.001755625623433
      ],
      [
        "▁direct",
        -8.924893410825268
      ],
      [
        "d",
        -1.5741834082059167
      ],
      [
        "▁wheel",
        -8.39799596022531
      ],
      [
        "▁way",
        -5.50502050497518
      ],
      [
        "▁realise",
        -9.285368907153273
      ],
      [
        "▁pan",
        -8.389795976554957
      ],
      [
        "▁governor",
        -8.999124735900713
      ],
      [
        "▁first",
        -4.829267318650501
      ],
      [
        "how",
        -6.8343150304575
      ],
      [
        "▁pain",
        -8.48439456547764
      ],
      [
        "▁commissioner",
        -8.943416559594128
      ],
      [
        "uff",
        -9.023314099977823
      ],
      [
        "▁clear",
        -9.215699984641848
      ],
      [
        "▁purpose",
        -8.102291505184763
      ],
      [
        "▁department",
        -8.397995948961373
      ],
      [
        "▁tha",
        -7.359273592220826
      ],
      [
        "▁tradition",
        -8.85559007076512
      ],
      [
        "um",
        -11.058978476488804
      ],
      [
        "▁sil",
        -9.205538703859592
      ],
      [
        "▁nonstop",
        -7.5234409521077446
      ],
      [
        "▁affair",
        -8.787438095747412
      ],
      [
        "▁cats",
        -8.802696259025517
      ],
      [
        "▁change",
        -7.11650615464455
      ],
      [
        "▁unfortuna",
        -7.549589134851153
      ],
      [
        "▁unite",
        -7.293944788822664
      ],
      [
        "▁destination",
        -9.040245096768253
      ],
      [
        "thi",
        -6.8860194020758145
      ],
      [
        "▁horsie",
        -8.151480814514752
      ],
      [
        "▁us",
        -6.733375629151908
      ],
      [
        "▁people",
        -5.4138141116230605
      ],
      [
        "self",
        -5.973973300353702
      ],
      [
        "▁fruit",
        -8.78744108935946
      ],
      [
        "▁expectation",
        -8.923317100997785
      ],
      [
        "▁convince",
        -9.062312165094493
      ],
      [
        "▁associate",
        -8.574150142076096
      ],
      [
        "▁design",
        -8.26674546974375
      ],
      [
        "▁suggest",
        -7.269309469923409
      ],
      [
        "▁object",
        -8.040017712058521
      ],
      [
        "▁lo",
        -6.736748336690295
      ],
      [
        "▁subject",
        -7.99613216460455
      ],
      [
        "l",
        -7.778878820001796
      ],
      [
        "ever",
        -7.831432693761964
      ],
      [
        "▁bo",
        -4.512113988419548
      ],
      [
        "▁track",
        -9.041973619179506
      ],
      [
        "▁opportunit",
        -7.913327564373368
      ],
      [
        "▁p",
        -6.583243332153931
      ],
      [
        "▁b",
        -8.653977413552017
      ],
      [
        "▁skills",
        -8.674893452609716
      ],
      [
        "▁color",
        -7.397563484698041
      ],
      [
        "▁sky",
        -8.1025562247717
      ],
      [
        "▁vehicle",
        -8.887512158809358
      ],
      [
        "▁the",
        -6.346201117748008
      ],
      [
        "▁arrival",
        -8.887512184428616
      ],
      [
        "▁clear",
        -6.855258059848384
      ],
      [
        "▁ingredient",
        -9.080391683931541
      ],
      [
        "▁r",
        -7.87590649442421
      ],
      [
        "▁access",
        -7.562739663223561
      ],
      [
        "2",
        -11.770631529841472
      ],
      [
        "stance",
        -8.735518472573066
      ],
      [
        "▁pepper",
        -8.998725359353813
      ],
      [
        "▁channel",
        -8.819696156902857
      ],
      [
        "▁lay",
        -7.83455951931724
      ],
      [
        "▁sh",
        -8.27688201579792
      ],
      [
        "▁reache",
        -8.944570140040254
      ],
      [
        "ly",
        -8.960168132771331
      ],
      [
        "▁was",
        -3.43571718377914
      ],
      [
        "t",
        -4.811365475966639
      ],
      [
        "▁neighbour",
        -9.216772335824786
      ],
      [
        "▁sleep",
        -7.3867615725125875
      ],
      [
        "▁u",
        -12.73122369669515
      ],
      [
        "▁tak",
        -6.7177223722927
      ],
      [
        "__________",
        -11.310280138036862
      ],
      [
        "▁edge",
        -8.887526414877552
      ],
      [
        "▁rug",
        -8.92323814933704
      ],
      [
        "▁shirt",
        -7.814540921048392
      ],
      [
        "hi",
        -12.596011167150566
      ],
      [
        "▁refuse",
        -8.380345088153414
      ],
      [
        "ativ",
        -7.238220533460433
      ],
      [
        "▁provide",
        -6.477830836230567
      ],
      [
        "▁progress",
        -8.561140223292318
      ],
      [
        "▁centre",
        -8.960702528767762
      ],
      [
        "▁customer",
        -7.382587718953526
      ],
      [
        "▁mass",
        -8.556257492946399
      ],
      [
        "▁there",
[...]
