{
  "version": "1.0",
  "truncation": null,
  "padding": null,
  "added_tokens": [
    {
      "id": 744,
      "content": "[SEP]",
      "single_word": false,
      "lstrip": false,
      "rstrip": false,
      "normalized": false,
      "special": true
    },
    {
      "id": 818,
      "content": "[PAD]",
      "single_word": false,
      "lstrip": false,
      "rstrip": false,
      "normalized": false,
      "special": true
    },
    {
      "id": 1014,
      "content": "[CLS]",
      "single_word": false,
      "lstrip": false,
      "rstrip": false,
      "normalized": false,
      "special": true
    },
    {
      "id": 1844,
      "content": "[MASK]",
      "single_word": false,
      "lstrip": false,
      "rstrip": false,
      "normalized": false,
      "special": true
    },
    {
      "id": 3904,
      "content": "[UNK]",
      "single_word": false,
      "lstrip": false,
      "rstrip": false,
      "normalized": false,
      "special": true
    }
  ],
  "normalizer": {
    "type": "Sequence",
    "normalizers": [
      {
        "type": "NFD"
      },
      {
        "type": "Lowercase"
      },
      {
        "type": "StripAccents"
      }
    ]
  },
  "pre_tokenizer": {
    "type": "Sequence",
    "pretokenizers": [
      {
        "type": "Metaspace",
        "replacement": "▁",
        "prepend_scheme": "always",
        "split": true
      }
    ]
  },
  "post_processor": {
    "type": "TemplateProcessing",
    "single": [
      {
        "SpecialToken": {
          "id": "[CLS]",
          "type_id": 0
        }
      },
      {
        "Sequence": {
          "id": "A",
          "type_id": 0
        }
      },
      {
        "SpecialToken": {
          "id": "[SEP]",
          "type_id": 0
        }
      }
    ],
    "pair": [
      {
        "SpecialToken": {
          "id": "[CLS]",
          "type_id": 0
        }
      },
      {
        "Sequence": {
          "id": "A",
          "type_id": 0
        }
      },
      {
        "SpecialToken": {
          "id": "[SEP]",
          "type_id": 0
        }
      },
      {
        "Sequence": {
          "id": "B",
          "type_id": 1
        }
      },
      {
        "SpecialToken": {
          "id": "[SEP]",
          "type_id": 1
        }
      }
    ],
    "special_tokens": {
      "[CLS]": {
        "id": "[CLS]",
        "ids": [
          1014
        ],
        "tokens": [
          "[CLS]"
        ]
      },
      "[SEP]": {
        "id": "[SEP]",
        "ids": [
          744
        ],
        "tokens": [
          "[SEP]"
        ]
      }
    }
  },
  "decoder": {
    "type": "Metaspace",
    "replacement": "▁",
    "prepend_scheme": "always",
    "split": true
  },
  "model": {
    "type": "BPE",
    "dropout": null,
    "unk_token": "[UNK]",
    "continuing_subword_prefix": null,
    "end_of_word_suffix": null,
    "fuse_unk": false,
    "byte_fallback": false,
    "ignore_merges": false,
    "vocab": {
      "–": 0,
      "ective": 1,
      "one": 2,
      "▁!.": 3,
      "++": 4,
      "▁fix": 5,
      "▁ag": 6,
      "▁beg": 7,
      "▁pit": 8,
      "▁bro": 9,
      "▁tas": 10,
      "way": 11,
      "▁astride": 12,
      "▁’ll": 13,
      "iff": 14,
      "ession": 15,
      "▁path": 16,
      "▁sched": 17,
      "▁bottom": 18,
      "▁animals": 19,
      "▁sch": 20,
      "ties": 21,
      "▁companies": 22,
      "▁rights": 23,
      "▁may": 24,
      "▁neighbor": 25,
      "▁miles": 26,
      "▁partic": 27,
      "ients": 28,
      "ligh": 29,
      "▁attention": 30,
      "▁through": 31,
      "▁apar": 32,
      "▁issues": 33,
      "ass": 34,
      "▁[": 35,
      "▁noone": 36,
      "ible": 37,
      "▁compon": 38,
      "ust": 39,
      "▁research": 40,
      "ial": 41,
      "▁season": 42,
      "▁inst": 43,
      "▁time": 44,
      "▁repres": 45,
      "ato": 46,
      "▁ran": 47,
      "▁turning": 48,
      "▁viol": 49,
      "▁************************************************": 50,
      "▁bul": 51,
      "▁lady": 52,
      "▁week": 53,
      "▁body": 54,
      "phone": 55,
      "▁nature": 56,
      "▁tv": 57,
      "nec": 58,
      "▁person": 59,
      "▁corn": 60,
      "▁counterpar": 61,
      "▁camer": 62,
      "▁jud": 63,
      "▁master": 64,
      "▁rice": 65,
      "▁report": 66,
      "ploy": 67,
      "cro": 68,
      "▁cha": 69,
      "edom": 70,
      "▁fear": 71,
      "eeds": 72,
      "▁summer": 73,
      "ug": 74,
      "iew": 75,
      "▁sil": 76,
      "uty": 77,
      "orth": 78,
      "▁conditions": 79,
      "iz": 80,
      "▁bed": 81,
      "▁consequ": 82,
      "tered": 83,
      "acted": 84,
      "▁incl": 85,
      "▁girl": 86,
      "▁mode": 87,
      "ating": 88,
      "ages": 89,
      "▁dragon": 90,
      "▁industry": 91,
      "▁lot": 92,
      "▁sw": 93,
      "▁brought": 94,
      "▁display": 95,
      "oles": 96,
      "olution": 97,
      "▁n": 98,
      "▁'re": 99,
      "^": 100,
      ".d": 101,
      "ς": 102,
      "ap": 103,
      "▁asking": 104,
      "▁bite": 105,
      "▁'": 106,
      "ood": 107,
      "▁from": 108,
      "ergy": 109,
      "▁camel": 110,
      "▁preven": 111,
      "▁cities": 112,
      "▁edit": 113,
      "ife": 114,
      "ill": 115,
      "ling": 116,
      "s": 117,
      "▁notwithstanding": 118,
      "▁loss": 119,
      "▁blow": 120,
      "▁evening": 121,
      "▁.?": 122,
      "▁issue": 123,
      "ians": 124,
      "▁flag": 125,
      "ified": 126,
      "rying": 127,
      "derst": 128,
      "act": 129,
      "<": 130,
      "▁on": 131,
      "ord": 132,
      "▁litt": 133,
      "▁col": 134,
      "▁difficul": 135,
      "▁city": 136,
      "▁swww": 137,
      "▁become": 138,
      "▁open": 139,
      "ule": 140,
      "overed": 141,
      "▁pen": 142,
      "▁gar": 143,
      "jects": 144,
      "out": 145,
      "▁-------------------------------------------------": 146,
      "▁weekend": 147,
      "▁p": 148,
      "▁mili": 149,
      "▁tuesday": 150,
      "▁cr": 151,
      "▁don": 152,
      "o": 153,
      "ote": 154,
      "▁partners": 155,
      "▁over": 156,
      "▁shall": 157,
      "ience": 158,
      "▁citi": 159,
      "▁americ": 160,
      "▁favor": 161,
      "▁product": 162,
      "friend": 163,
      "▁insp": 164,
      "▁miss": 165,
      "ivid": 166,
      "▁system": 167,
      "▁leg": 168,
      "▁fligh": 169,
      "▁dogs": 170,
      "order": 171,
      "▁others": 172,
      "ached": 173,
      "rew": 174,
      "▁pack": 175,
      "▁sto": 176,
      "▁ha": 177,
      "▁resul": 178,
      "‘": 179,
      "▁pu": 180,
      "m": 181,
      "olving": 182,
      "▁pop": 183,
      "▁car": 184,
      "▁ball": 185,
      "▁cage": 186,
      "--------": 187,
      "▁sc": 188,
      "▁group": 189,
      "ulture": 190,
      "▁outside": 191,
      "▁furn": 192,
      "▁game": 193,
      "▁took": 194,
      "▁wants": 195,
      "oard": 196,
      "▁either": 197,
      "▁h": 198,
      "▁many": 199,
      "▁sy": 200,
      "▁tell": 201,
      "▁property": 202,
      "▁content": 203,
      "▁climb": 204,
      "▁cent": 205,
      "isco": 206,
      "▁'s": 207,
      "ans": 208,
      "▁hors": 209,
      "operation": 210,
      "ax": 211,
      "▁him": 212,
      "▁___________": 213,
      "▁noticed": 214,
      "▁bus": 215,
      "oted": 216,
      "▁?!": 217,
      "fe": 218,
      "ma": 219,
      "▁morn": 220,
      "ality": 221,
      "ct": 222,
      "ogn": 223,
      "ook": 224,
      "▁??": 225,
      "▁ref": 226,
      "▁infl": 227,
      "▁good": 228,
      "▁received": 229,
      "▁interview": 230,
      "▁pa": 231,
      "▁dance": 232,
      "ε": 233,
      "▁guess": 234,
      "▁cond": 235,
      "ɛ": 236,
      "▁about": 237,
      "li": 238,
      "▁too": 239,
      "▁scen": 240,
      "lights": 241,
      "▁tent": 242,
      "ort": 243,
      "▁nor": 244,
      "vers": 245,
      "▁pass": 246,
      "▁ships": 247,
      "idden": 248,
      "▁1": 249,
      "▁bomb": 250,
      "▁disp": 251,
      "▁offices": 252,
      "▁-": 253,
      "▁dec": 254,
      "▁changed": 255,
      "▁nonstop": 256,
      "▁staff": 257,
      "▁holiday": 258,
      "osed": 259,
      "enti": 260,
      "▁check": 261,
      "▁sitting": 262,
      "▁catch": 263,
      "are": 264,
      "▁man": 265,
      "▁|--------+----------------": 266,
      "▁dinosaur": 267,
      "min": 268,
      "▁ing": 269,
      "▁memory": 270,
      "▁lab": 271,
      "sel": 272,
      "▁theory": 273,
      "▁menti": 274,
      "▁sales": 275,
      "acket": 276,
      "▁should": 277,
      "▁lips": 278,
      "▁cl": 279,
      "▁respons": 280,
      "▁press": 281,
      "▁reference": 282,
      "▁out": 283,
      "aves": 284,
      "▁accep": 285,
      "day": 286,
      "iron": 287,
      "▁ple": 288,
      "▁types": 289,
      "▁thoughts": 290,
      "▁inf": 291,
      "alu": 292,
      ".doc": 293,
      "▁hundreds": 294,
      "______": 295,
      "u": 296,
      "▁lay": 297,
      "▁bowl": 298,
      "oke": 299,
      "▁responsibility": 300,
      "place": 301,
      "▁anoder": 302,
      "▁jump": 303,
      "▁tw": 304,
      "▁downtown": 305,
      "orts": 306,
      "▁provides": 307,
      "▁mech": 308,
      "ific": 309,
      "▁b/": 310,
      "side": 311,
      "▁old": 312,
      "▁cat": 313,
      "red": 314,
      "▁concern": 315,
      "▁bre": 316,
      "wh": 317,
      "▁der": 318,
      "zer": 319,
      "▁gun": 320,
      "▁so": 321,
      "▁film": 322,
      "▁island": 323,
      "▁menu": 324,
      "▁pret": 325,
      "▁comb": 326,
      "▁!!!?": 327,
      "lection": 328,
      "ational": 329,
      "▁direc": 330,
      "ound": 331,
      "▁levels": 332,
      "▁read": 333,
      "▁mosqu": 334,
      "ecting": 335,
      "▁period": 336,
      "▁going": 337,
      "▁b": 338,
      "▁accept": 339,
      "▁!!!!!!!!!!": 340,
      "▁bel": 341,
      "▁pos": 342,
      "inu": 343,
      "▁begin": 344,
      "▁penc": 345,
      "▁fax": 346,
      "▁pip": 347,
      "▁cig": 348,
      "▁want": 349,
      "▁yourself": 350,
      "ina": 351,
      "▁hang": 352,
      "ix": 353,
      "▁pressure": 354,
      "▁party": 355,
      "iation": 356,
      "ested": 357,
      "▁bu": 358,
      "ay": 359,
      "--------------------------------": 360,
      "epend": 361,
      "rel": 362,
      "▁funds": 363,
      "ummy": 364,
      "▁objec": 365,
      "▁sm": 366,
      "able": 367,
      "▁s’": 368,
      "▁king": 369,
      "▁could": 370,
      "▁published": 371,
      "▁millions": 372,
      "▁concl": 373,
      "▁legisl": 374,
      "▁board": 375,
      "▁amidst": 376,
      "▁ser": 377,
      "5": 378,
      "cent": 379,
      "vailable": 380,
      "▁analys": 381,
      "▁apply": 382,
      "ys": 383,
      "▁indic": 384,
      "▁lots": 385,
      "▁two": 386,
      "lication": 387,
      "▁date": 388,
      "des": 389,
      "ie": 390,
      "▁your": 391,
      "▁except": 392,
      "orrow": 393,
      "▁gre": 394,
      "▁fares": 395,
      "▁coo": 396,
      "igned": 397,
      "▁cost": 398,
      "vest": 399,
      "▁gr": 400,
      "nly": 401,
      "▁power": 402,
      "'t": 403,
      "▁dis": 404,
      "▁thursday": 405,
      "▁meals": 406,
      "▁mentioned": 407,
      "ock": 408,
      "▁continue": 409,
      "▁nap": 410,
      "▁sol": 411,
      "▁st.": 412,
      "▁lion": 413,
      "▁mistake": 414,
      "▁-----------------------------------------------------------------": 415,
      "oph": 416,
      "7": 417,
      "▁doub": 418,
      "▁ground": 419,
      "▁emer": 420,
      "bon": 421,
      "lions": 422,
      "▁mot": 423,
      "▁territ": 424,
      "▁toast": 425,
      "pers": 426,
      "▁gri": 427,
      "▁way": 428,
      "▁truth": 429,
      "ph": 430,
      "▁conclu": 431,
      "www": 432,
      "▁second": 433,
      "▁cartoon": 434,
      "▁d": 435,
      "▁a": 436,
      "▁adop": 437,
      "am": 438,
      "▁was": 439,
      "▁thousands": 440,
      "uk": 441,
      "▁both": 442,
      "▁<": 443,
      "▁jun": 444,
      "▁involved": 445,
      "ithstanding": 446,
      "ious": 447,
      "▁covered": 448,
      "▁cle": 449,
      "ace": 450,
      "▁must": 451,
      "....": 452,
      "▁char": 453,
      "▁eggs": 454,
      "▁connection": 455,
      "▁schol": 456,
      "▁ob": 457,
      "urity": 458,
      "▁toys": 459,
      "ole": 460,
      "▁adv": 461,
      "▁plants": 462,
      "▁accident": 463,
      "▁ro": 464,
      "▁reg": 465,
      "▁bush": 466,
      "▁regarding": 467,
      "ored": 468,
      "▁bos": 469,
      "▁ordered": 470,
      "▁wi": 471,
      "▁ice": 472,
      "j": 473,
      "▁ord": 474,
      "▁bot": 475,
      "▁needed": 476,
      "▁atmosphere": 477,
      "de": 478,
      "x": 479,
      "▁poss": 480,
      "▁hor": 481,
      "▁evidence": 482,
      "▁&am": 483,
      "ming": 484,
      "▁surprise": 485,
      "▁***": 486,
      "▁peace": 487,
      "▁offered": 488,
      "esting": 489,
      "▁starting": 490,
      "▁image": 491,
      "▁go": 492,
      "]": 493,
      "ered": 494,
      "▁not": 495,
      "▁career": 496,
      "reds": 497,
      "lf": 498,
      "▁occ": 499,
      "ues": 500,
      "▁mommy": 501,
      "ground": 502,
      "▁pres": 503,
      "▁“": 504,
      "▁==----": 505,
      "▁bill": 506,
      "ted": 507,
      "▁princ": 508,
      "▁door": 509,
      "▁though": 510,
      "▁ac": 511,
      "olding": 512,
      "tsbur": 513,
      "ith": 514,
      "▁birthday": 515,
      "▁never": 516,
      "▁can": 517,
      "▁its": 518,
      "▁interv": 519,
      "mentation": 520,
      "▁defense": 521,
      "▁toy": 522,
      "▁assu": 523,
      "ension": 524,
      "ounts": 525,
      "tors": 526,
      "urned": 527,
      "▁vehic": 528,
      "ck": 529,
      "co": 530,
      "▁;": 531,
      "▁-----------------": 532,
      "ded": 533,
      "ects": 534,
      "▁dog": 535,
      "▁walked": 536,
      "tly": 537,
      "▁giving": 538,
      "▁,": 539,
      "▁weather": 540,
      "▁moved": 541,
      "▁thou": 542,
      "▁living": 543,
      "▁sure": 544,
      "▁law": 545,
      "▁concer": 546,
      "▁rate": 547,
      "▁them": 548,
      "ised": 549,
      "▁wife": 550,
      "ics": 551,
      "▁conte": 552,
      "ateg": 553,
      "acked": 554,
      "▁document": 555,
      "▁orig": 556,
      "▁wa": 557,
      "▁helped": 558,
      "▁men": 559,
      "▁da": 560,
      "▁bike": 561,
      "▁century": 562,
      "▁achieve": 563,
      "▁known": 564,
      "tw": 565,
      "self": 566,
      "▁writ": 567,
      "▁beside": 568,
      "ah": 569,
      "ron": 570,
      "▁mass": 571,
      "yth": 572,
      "ub": 573,
      "▁shape": 574,
      "▁last": 575,
      "▁id": 576,
      "ω": 577,
      "▁interests": 578,
      "ability": 579,
      "▁hot": 580,
      "▁/": 581,
      "▁fun": 582,
      "▁basil": 583,
      "▁required": 584,
      "▁called": 585,
      "very": 586,
      "▁opportunity": 587,
      "▁ir": 588,
      "z": 589,
      "ye": 590,
      "▁puppy": 591,
      "▁hands": 592,
      "▁swee": 593,
      "▁service": 594,
      "▁student": 595,
      "▁capital": 596,
      "dy": 597,
      "▁crow": 598,
      "▁”": 599,
      "▁innovation": 600,
      "um": 601,
      "▁gives": 602,
      "▁stand": 603,
      "ο": 604,
      "derstand": 605,
      "▁follows": 606,
      "▁laura": 607,
      "yed": 608,
      "face": 609,
      "▁harry": 610,
      "ars": 611,
      "hen": 612,
      "liday": 613,
      "lications": 614,
      "me": 615,
      "▁speaking": 616,
      "▁some": 617,
      "▁independ": 618,
      "-------": 619,
      "it": 620,
      "▁conflict": 621,
      "▁!?": 622,
      "▁art": 623,
      "ived": 624,
      "▁ear": 625,
      "▁appeared": 626,
      "▁tail": 627,
      "essed": 628,
      "▁debate": 629,
      "▁get": 630,
      "▁coup": 631,
      "▁nov": 632,
      "▁bet": 633,
      "▁implementation": 634,
      "▁table": 635,
      "isions": 636,
      "▁step": 637,
      "▁wan": 638,
      "▁exper": 639,
      "▁pub": 640,
      "ybody": 641,
      "ul": 642,
      "hood": 643,
      "▁fut": 644,
      "▁boat": 645,
      "▁dow": 646,
      "▁smo": 647,
      "▁sub": 648,
      "▁pic": 649,
      "▁run": 650,
      "▁bar": 651,
      "▁prov": 652,
      "▁see": 653,
      "esday": 654,
      "▁treatment": 655,
      "▁around": 656,
      "▁approach": 657,
      "▁rest": 658,
      "thers": 659,
      "▁classes": 660,
      "ride": 661,
      "▁----------------------------------------------------------------------": 662,
      "▁'ll": 663,
      "ility": 664,
      "▁against": 665,
      "ses": 666,
      "▁de": 667,
      "▁pil": 668,
      "▁tar": 669,
      "▁data": 670,
      "ien": 671,
      "▁sp": 672,
      "▁aircraft": 673,
      "±": 674,
      "▁–": 675,
      "ouse": 676,
      "▁alread": 677,
      "▁sal": 678,
      "▁tele": 679,
      "▁anyone": 680,
      "▁upd": 681,
      "▁bedroom": 682,
      "iated": 683,
      "ding": 684,
      "▁everybody": 685,
      "▁programme": 686,
      "▁-----------------------------------------------------------------------": 687,
      "▁...": 688,
      "▁f": 689,
      "or": 690,
      "▁cer": 691,
      "▁days": 692,
      "und": 693,
      "▁idea": 694,
      "▁phot": 695,
      "▁suff": 696,
      "▁enab": 697,
      "▁tiger": 698,
      "▁bugs": 699,
      "▁understanding": 700,
      "▁resp": 701,
      "▁..": 702,
      "▁continu": 703,
      "ports": 704,
      "ette": 705,
      "▁contract": 706,
      "▁agre": 707,
      "▁feet": 708,
      ",": 709,
      "ast": 710,
      "unch": 711,
      "▁‘": 712,
      "▁belon": 713,
      "▁map": 714,
      "ributed": 715,
      "▁minus": 716,
      "▁ham": 717,
      "ll": 718,
      "▁countries": 719,
      "▁marriage": 720,
      "dit": 721,
      "▁added": 722,
      "▁respon": 723,
      "▁his": 724,
      "▁born": 725,
      "▁aft": 726,
      "ained": 727,
      "ide": 728,
      "ack": 729,
      "▁relations": 730,
      "▁york": 731,
      "▁record": 732,
      "▁'m": 733,
      "so": 734,
      "ud": 735,
      "▁communication": 736,
      "ashington": 737,
      "▁fit": 738,
      "tics": 739,
      "▁estim": 740,
      "urch": 741,
      "▁raised": 742,
      "▁rul": 743,
      "[SEP]": 744,
      "▁---=": 745,
      "anded": 746,
      "▁amount": 747,
      "ctions": 748,
      "...": 749,
      "▁franc": 750,
      "iod": 751,
      "ec": 752,
      "▁throughout": 753,
      "▁is": 754,
      "▁anybody": 755,
      "▁matter": 756,
      "▁they": 757,
      "­": 758,
      "▁where": 759,
      "▁term": 760,
      "aith": 761,
      "ary": 762,
      "▁includes": 763,
      "▁media": 764,
      "lar": 765,
      ".m": 766,
      "▁wrote": 767,
      "whether": 768,
      "▁mater": 769,
      "uation": 770,
      "▁pool": 771,
      "▁money": 772,
      "8": 773,
      "▁transport": 774,
      "▁veget": 775,
      "▁version": 776,
      "▁tur": 777,
      "ama": 778,
      "aces": 779,
      "ply": 780,
      "ambment": 781,
      "▁basis": 782,
      "ness": 783,
      "▁without": 784,
      "▁works": 785,
      "▁forces": 786,
      "eration": 787,
      "▁care": 788,
      "▁string": 789,
      "▁talking": 790,
      "▁!": 791,
      "▁let": 792,
      "▁another": 793,
      "ired": 794,
      "atis": 795,
      "isd": 796,
      "▁manner": 797,
      "tic": 798,
      "▁row": 799,
      "▁’m": 800,
      "yone": 801,
      "anks": 802,
      "▁cars": 803,
      "▁were": 804,
      "▁disaster": 805,
      "▁:?": 806,
      "▁sleep": 807,
      "▁served": 808,
      "▁requi": 809,
      "▁enjoyed": 810,
      "▁head": 811,
      "▁repe": 812,
      "ation": 813,
      "arl": 814,
      "▁months": 815,
      "▁walking": 816,
      "▁exam": 817,
      "[PAD]": 818,
      "int": 819,
      "▁use": 820,
      "▁noise": 821,
      "hic": 822,
      "▁baltimore": 823,
      "▁range": 824,
      "▁bit": 825,
      "▁pain": 826,
      "ighb": 827,
      "▁hide": 828,
      "▁dirt": 829,
      "▁juice": 830,
      "▁monkey": 831,
      "ies": 832,
      "▁side": 833,
      "▁vis": 834,
      "▁provided": 835,
      "▁threw": 836,
      "▁bott": 837,
      "▁stre": 838,
      "▁guys": 839,
      "▁advant": 840,
      "▁light": 841,
      "▁condition": 842,
      "▁everyone": 843,
      "tity": 844,
      "▁including": 845,
      "ore": 846,
      "llow": 847,
      "▁ke": 848,
      "fact": 849,
      "ping": 850,
      "▁descri": 851,
      "▁parties": 852,
      "▁st": 853,
      "til": 854,
      "asing": 855,
      "portun": 856,
      "▁streets": 857,
      "est": 858,
      "▁work": 859,
      "▁auth": 860,
      "▁technology": 861,
      "▁aspects": 862,
      "▁air": 863,
      "▁nobody": 864,
      "ower": 865,
      "▁cons": 866,
      "plan": 867,
      "▁cry": 868,
      "▁machine": 869,
      "▁am": 870,
      "▁hav": 871,
      "▁opened": 872,
      "▁then": 873,
      "▁big": 874,
      "▁holding": 875,
      "to": 876,
      "▁langu": 877,
      "▁versus": 878,
      "ivers": 879,
      "▁keep": 880,
      "▁vs.": 881,
      "▁ur": 882,
      "▁call": 883,
      "ti": 884,
      "lity": 885,
      "ases": 886,
      "▁pal": 887,
      "osite": 888,
      "▁or": 889,
      "▁repl": 890,
      "▁despite": 891,
      "▁already": 892,
      "▁rates": 893,
      "anted": 894,
      "▁!!!!!!": 895,
      "▁...................": 896,
      "▁maint": 897,
      "▁response": 898,
      "wn": 899,
      "▁end": 900,
      "▁equ": 901,
      "jwww": 902,
      "▁moving": 903,
      "▁reduc": 904,
      "▁becom": 905,
      "▁deal": 906,
      "▁gu": 907,
      "▁vers": 908,
      "▁count": 909,
      "▁ourselves": 910,
      "—": 911,
      ">": 912,
      "▁thir": 913,
      "▁rules": 914,
      "up": 915,
      "▁goods": 916,
      "omp": 917,
      "▁datab": 918,
      "▁webs": 919,
      "agon": 920,
      "ru": 921,
      "ɑ": 922,
      "gency": 923,
      "▁straw": 924,
      "▁cart": 925,
      "▁towards": 926,
      "liament": 927,
      "ech": 928,
      "▁muse": 929,
      "par": 930,
      "▁friends": 931,
      "▁play": 932,
      "▁review": 933,
      "ations": 934,
      "▁scale": 935,
      "▁position": 936,
      "▁loved": 937,
      "*": 938,
      "akes": 939,
      "▁ver": 940,
      "▁ma": 941,
      "▁government": 942,
      "▁died": 943,
      "▁future": 944,
      "▁bottle": 945,
      "aring": 946,
      "▁displ": 947,
      "▁trans": 948,
      "ather": 949,
      "▁wedding": 950,
      "▁stud": 951,
      "▁restaur": 952,
      "▁cover": 953,
      "▁section": 954,
      "et": 955,
      "ton": 956,
      "▁ton": 957,
      "used": 958,
      "▁gi": 959,
      "▁und": 960,
      "▁attem": 961,
      "els": 962,
      "▁spir": 963,
      "mer": 964,
      "▁benef": 965,
      "band": 966,
      "ag": 967,
      "▁voice": 968,
      "▁ab": 969,
      "inus": 970,
      "▁pi": 971,
      "inks": 972,
      "▁br": 973,
      "▁well": 974,
      "app": 975,
      "▁themselves": 976,
      "▁anti": 977,
      "▁appears": 978,
      "▁advice": 979,
      "eted": 980,
      "▁pat": 981,
      "▁ev": 982,
      "ants": 983,
      "cing": 984,
      "ive": 985,
      "▁har": 986,
      "▁reports": 987,
      "▁measures": 988,
      "yond": 989,
      "▁ears": 990,
      "alism": 991,
      "▁?????": 992,
      "▁lat": 993,
      "▁`": 994,
      "▁econom": 995,
      "▁customer": 996,
      "ibilities": 997,
      "▁se": 998,
      "ving": 999,
      "▁z": 1000,
      "▁failed": 1001,
      "cles": 1002,
      "tile": 1003,
      "ur": 1004,
      "uting": 1005,
      "▁hear": 1006,
      "imp": 1007,
      "ins": 1008,
      "▁roo": 1009,
      "▁govern": 1010,
      "ati": 1011,
      "▁add": 1012,
      "▁structure": 1013,
      "[CLS]": 1014,
      "▁services": 1015,
      "ə": 1016,
      "▁kept": 1017,
      "▁poli": 1018,
      "isting": 1019,
      "end": 1020,
      "ym": 1021,
      "▁television": 1022,
      "▁think": 1023,
      "▁duck": 1024,
      "▁ban": 1025,
      "▁apartment": 1026,
      "▁fail": 1027,
      "▁heads": 1028,
      "tie": 1029,
      "▁learn": 1030,
      "▁helps": 1031,
      "rop": 1032,
      "▁?!?": 1033,
      "cally": 1034,
      "▁saturday": 1035,
      "▁peoples": 1036,
      "▁mor": 1037,
      "▁jelly": 1038,
      "▁fe": 1039,
      "per": 1040,
      "▁enj": 1041,
      "cha": 1042,
      "ipped": 1043,
      "head": 1044,
      "▁than": 1045,
      "ew": 1046,
      "▁leading": 1047,
      "▁rat": 1048,
      "rit": 1049,
      "ises": 1050,
      "using": 1051,
      "▁grew": 1052,
      "▁relig": 1053,
      "ke": 1054,
      "ently": 1055,
      "▁imp": 1056,
      "▁hom": 1057,
      "lin": 1058,
      "▁tour": 1059,
      "nel": 1060,
      "▁philadel": 1061,
      "▁block": 1062,
      "izing": 1063,
      "@": 1064,
      "tice": 1065,
      "▁prep": 1066,
      "▁ap": 1067,
      "▁inj": 1068,
      "▁stay": 1069,
      "▁pep": 1070,
      "▁decades": 1071,
      "▁beat": 1072,
      "▁death": 1073,
      "▁arri": 1074,
      "▁breakfast": 1075,
      "▁pri": 1076,
      "▁shown": 1077,
      "ches": 1078,
      "▁prom": 1079,
      "▁pay": 1080,
      "▁news": 1081,
      "▁to": 1082,
      "▁oneself": 1083,
      "▁hers": 1084,
      "▁mention": 1085,
      "▁generation": 1086,
      "▁included": 1087,
      "ain": 1088,
      "▁how": 1089,
      "▁hund": 1090,
      "▁vs": 1091,
      "▁guid": 1092,
      "▁mind": 1093,
      "ger": 1094,
      "▁teeth": 1095,
      "body": 1096,
      "▁behavi": 1097,
      "▁budget": 1098,
      "▁bulldozer": 1099,
      "▁company": 1100,
      "▁listen": 1101,
      "tery": 1102,
      "▁ar": 1103,
      "▁cloth": 1104,
      "▁yesterday": 1105,
      "▁bat": 1106,
      "oss": 1107,
      "mber": 1108,
      "▁cream": 1109,
      "▁": 1110,
      "▁make": 1111,
      "▁wee": 1112,
      ".": 1113,
      "its": 1114,
      "▁magic": 1115,
      "▁mama": 1116,
      "▁value": 1117,
      "ithst": 1118,
      "▁all": 1119,
      "▁plus": 1120,
      "▁pillow": 1121,
      "▁clothing": 1122,
      "gy": 1123,
      "uted": 1124,
      "▁kid": 1125,
      "ake": 1126,
      "ard": 1127,
      "▁fac": 1128,
      "▁sn": 1129,
      "▁banana": 1130,
      "▁mount": 1131,
      "ale": 1132,
      "ump": 1133,
      "ise": 1134,
      "ze": 1135,
      "▁comp": 1136,
      "▁situation": 1137,
      "▁bri": 1138,
      "▁fre": 1139,
      "▁performance": 1140,
      "fl": 1141,
      "▁su": 1142,
      "ows": 1143,
      "▁posted": 1144,
      "elines": 1145,
      "▁independence": 1146,
      "▁confir": 1147,
      "▁des": 1148,
      "▁famili": 1149,
      "▁tea": 1150,
      "ider": 1151,
      "our": 1152,
      "owed": 1153,
      "▁organiz": 1154,
      "▁type": 1155,
      "▁refl": 1156,
      "▁salt": 1157,
      "▁piv": 1158,
      "▁again": 1159,
      "▁******************************************************************": 1160,
      "▁seeing": 1161,
      "▁whale": 1162,
      "▁wheel": 1163,
      "▁broke": 1164,
      "▁doing": 1165,
      "▁guy": 1166,
      "▁sugges": 1167,
      "▁cere": 1168,
      "▁babies": 1169,
      "tions": 1170,
      "▁sandwich": 1171,
      "▁wed": 1172,
      "▁pros": 1173,
      "ful": 1174,
      "▁bac": 1175,
      "tor": 1176,
      "▁appear": 1177,
      "▁lives": 1178,
      "un": 1179,
      "▁aboard": 1180,
      "▁across": 1181,
      "▁hat": 1182,
      "▁je": 1183,
      "jec": 1184,
      "▁minute": 1185,
      "▁enjoy": 1186,
      "▁rabb": 1187,
      "ens": 1188,
      "▁anything": 1189,
      "▁contact": 1190,
      "▁more": 1191,
      "▁church": 1192,
      "umb": 1193,
      "orm": 1194,
      "▁li": 1195,
      "▁just": 1196,
      "▁acc": 1197,
      "▁one": 1198,
      "ult": 1199,
      "▁field": 1200,
      "▁began": 1201,
      "lers": 1202,
      "▁gon": 1203,
      "▁spot": 1204,
      "▁chap": 1205,
      "erv": 1206,
      "ase": 1207,
      "▁since": 1208,
      "▁office": 1209,
      "▁discussion": 1210,
      "▁garden": 1211,
      "f": 1212,
      "igh": 1213,
      "▁photograph": 1214,
      "▁poet": 1215,
      "ying": 1216,
      "▁joined": 1217,
      "aining": 1218,
      "gin": 1219,
      "▁demonstr": 1220,
      "▁coun": 1221,
      "▁that": 1222,
      "ve": 1223,
      "ome": 1224,
      "▁arrang": 1225,
      "▁beginning": 1226,
      "▁it": 1227,
      "▁subject": 1228,
      "ict": 1229,
      "▁size": 1230,
      "▁mix": 1231,
      "▁director": 1232,
      "▁our": 1233,
      "pl": 1234,
      "inated": 1235,
      "▁left": 1236,
      "ei": 1237,
      "▁fire": 1238,
      "▁notw": 1239,
      "ren": 1240,
      "▁thank": 1241,
      "▁fri": 1242,
      "▁result": 1243,
      "▁are": 1244,
      "▁mi": 1245,
      "▁because": 1246,
      "▁arm": 1247,
      "▁missed": 1248,
      "▁spell": 1249,
      "ees": 1250,
      "ʻ": 1251,
      "▁!!!!!!!": 1252,
      "▁goal": 1253,
      "▁whether": 1254,
      "▁eat": 1255,
      "cer": 1256,
      "▁chick": 1257,
      "▁proposed": 1258,
      "▁hour": 1259,
      "▁increased": 1260,
      "▁management": 1261,
      "ch": 1262,
      "▁credit": 1263,
      "▁ste": 1264,
      "ov": 1265,
      "▁sel": 1266,
      "'clock": 1267,
      "▁shoes": 1268,
      "round": 1269,
      "ade": 1270,
      "▁glass": 1271,
      "▁decision": 1272,
      "▁people": 1273,
      "▁purpos": 1274,
      "▁describe": 1275,
      "▁chocol": 1276,
      "lik": 1277,
      "eb": 1278,
      "(": 1279,
      "ily": 1280,
      "ker": 1281,
      "▁picture": 1282,
      "anc": 1283,
      "▁sup": 1284,
      "▁honey": 1285,
      "ills": 1286,
      "▁…": 1287,
      "▁technologies": 1288,
      "l": 1289,
      "▁music": 1290,
      "|": 1291,
      "alt": 1292,
      "ove": 1293,
      "▁push": 1294,
      "▁fixed": 1295,
      "gr": 1296,
      "▁seem": 1297,
      "▁fare": 1298,
      "ment": 1299,
      "........": 1300,
      "augh": 1301,
      "μ": 1302,
      "▁iodine": 1303,
      "▁ta": 1304,
      "▁comments": 1305,
      "ever": 1306,
      "▁prin": 1307,
      "▁available": 1308,
      "▁employ": 1309,
      "ce": 1310,
      "n": 1311,
      "cl": 1312,
      "▁along": 1313,
      "▁website": 1314,
      "▁flying": 1315,
      "▁roll": 1316,
      "!?": 1317,
      "▁license": 1318,
      "ut": 1319,
      "acks": 1320,
      "▁crack": 1321,
      "▁region": 1322,
      "▁considered": 1323,
      "▁adults": 1324,
      "▁depart": 1325,
      "▁bod": 1326,
      "▁e-m": 1327,
      "b": 1328,
      "ry": 1329,
      "▁letters": 1330,
      "▁labor": 1331,
      "ank": 1332,
      "ocks": 1333,
      "▁qu": 1334,
      "iction": 1335,
      "▁arti": 1336,
      "erc": 1337,
      "▁hall": 1338,
      "i": 1339,
      "▁math": 1340,
      "▁include": 1341,
      "▁che": 1342,
      "▁resour": 1343,
      "inc": 1344,
      "ril": 1345,
      "▁military": 1346,
      "▁grass": 1347,
      "ening": 1348,
      "▁laur": 1349,
      "▁lic": 1350,
      "▁civ": 1351,
      "▁observ": 1352,
      "▁.......": 1353,
      "war": 1354,
      "▁imm": 1355,
      "pping": 1356,
      "man": 1357,
      "▁notice": 1358,
      "▁....": 1359,
      "▁using": 1360,
      "▁expl": 1361,
      "oy": 1362,
      "▁dark": 1363,
      "▁baby": 1364,
      "▁even": 1365,
      "▁reas": 1366,
      "irt": 1367,
      "▁plan": 1368,
      "1": 1369,
      "▁ours": 1370,
      "▁traff": 1371,
      "▁exh": 1372,
      "▁fem": 1373,
      "ights": 1374,
      "▁nume": 1375,
      "▁mir": 1376,
      "▁itself": 1377,
      "▁exposure": 1378,
      "▁fing": 1379,
      "ess": 1380,
      "▁cust": 1381,
      "▁arrived": 1382,
      "old": 1383,
      "▁isl": 1384,
      "▁deb": 1385,
      "▁import": 1386,
      "ribution": 1387,
      "▁hum": 1388,
      "▁filter": 1389,
      "▁n't": 1390,
      "ty": 1391,
      "▁diff": 1392,
      "▁---------------------------------------------------------------------": 1393,
      "▁wednesday": 1394,
      "▁cup": 1395,
      "▁techniqu": 1396,
      "▁claim": 1397,
      "▁tom": 1398,
      "▁expect": 1399,
      "▁gave": 1400,
      "▁drinking": 1401,
      "▁role": 1402,
      "▁seas": 1403,
      "▁floor": 1404,
      "▁held": 1405,
      "▁heart": 1406,
      "▁struc": 1407,
      "▁hus": 1408,
      "▁standards": 1409,
      "▁means": 1410,
      "▁seemed": 1411,
      "▁answ": 1412,
      "▁yourselves": 1413,
      "▁ren": 1414,
      "▁inte": 1415,
      "cle": 1416,
      "py": 1417,
      "▁asp": 1418,
      "▁****": 1419,
      "▁,?": 1420,
      "ulated": 1421,
      "ire": 1422,
      "▁seems": 1423,
      "ł": 1424,
      "▁facts": 1425,
      "▁islands": 1426,
      "let": 1427,
      "▁dough": 1428,
      "▁bo": 1429,
      "▁face": 1430,
      "oved": 1431,
      "▁transportation": 1432,
      "'": 1433,
      "▁non": 1434,
      "▁vac": 1435,
      "ic": 1436,
      "ice": 1437,
      "za": 1438,
      "▁connec": 1439,
      "!!!!": 1440,
      "ung": 1441,
      "ams": 1442,
      "▁names": 1443,
      "▁fi": 1444,
      "▁goes": 1445,
      "▁degre": 1446,
      "ression": 1447,
      "▁buil": 1448,
      "▁buildings": 1449,
      "▁production": 1450,
      "▁users": 1451,
      "▁council": 1452,
      "der": 1453,
      "▁adam": 1454,
      "****************": 1455,
      "▁give": 1456,
      "▁constit": 1457,
      "▁level": 1458,
      "▁real": 1459,
      "▁cros": 1460,
      "▁weap": 1461,
      "▁beh": 1462,
      "ged": 1463,
      "▁fol": 1464,
      "▁beneath": 1465,
      ";": 1466,
      "▁in": 1467,
      "ead": 1468,
      "ways": 1469,
      "▁pocket": 1470,
      "▁swim": 1471,
      "▁camera": 1472,
      "aced": 1473,
      "ob": 1474,
      "▁til": 1475,
      "▁movement": 1476,
      "▁unlike": 1477,
      "rec": 1478,
      "▁?": 1479,
      "▁close": 1480,
      "isted": 1481,
      "▁dese": 1482,
      "bers": 1483,
      "bo": 1484,
      "icide": 1485,
      "▁with": 1486,
      "ligence": 1487,
      "ated": 1488,
      "▁context": 1489,
      "▁chan": 1490,
      "kets": 1491,
      "▁before": 1492,
      "▁ter": 1493,
      "▁november": 1494,
      "▁challenges": 1495,
      "▁spring": 1496,
      "▁children": 1497,
      "olved": 1498,
      "▁developing": 1499,
      "▁ph": 1500,
      "educ": 1501,
      "▁repair": 1502,
      "▁stic": 1503,
      "▁drop": 1504,
      "si": 1505,
      "▁husband": 1506,
      "▁expected": 1507,
      "▁front": 1508,
      "β": 1509,
      "▁tu": 1510,
      "▁som": 1511,
      "▁drive": 1512,
      "ories": 1513,
      "▁column": 1514,
      "▁ind": 1515,
      "▁em": 1516,
      "____": 1517,
      "▁coord": 1518,
      "▁meas": 1519,
      "▁pan": 1520,
      "res": 1521,
      "▁sha": 1522,
      "▁me": 1523,
      "oney": 1524,
      "urday": 1525,
      "▁gas": 1526,
      "riage": 1527,
      "▁loan": 1528,
      "ognition": 1529,
      "▁success": 1530,
      "au": 1531,
      "▁freedom": 1532,
      "▁trad": 1533,
      "ades": 1534,
      "▁elements": 1535,
      "ement": 1536,
      "▁pie": 1537,
      "▁likes": 1538,
      "gh": 1539,
      "▁visit": 1540,
      "▁forms": 1541,
      "ides": 1542,
      "ema": 1543,
      "'re": 1544,
      "eas": 1545,
      "▁follow": 1546,
      "????": 1547,
      "'s": 1548,
      "▁doggie": 1549,
      "mos": 1550,
      "▁woud": 1551,
      "aughter": 1552,
      "▁looks": 1553,
      "e": 1554,
      "▁but": 1555,
      "▁however": 1556,
      "+----------------": 1557,
      "▁try": 1558,
      "▁answer": 1559,
      "▁estab": 1560,
      "▁running": 1561,
      "ery": 1562,
      "▁whoever": 1563,
      "▁understand": 1564,
      "▁rail": 1565,
      "▁'d": 1566,
      "ional": 1567,
      "ret": 1568,
      "▁val": 1569,
      "▁sect": 1570,
      "▁june": 1571,
      "▁telling": 1572,
      "▁laun": 1573,
      "ished": 1574,
      "▁less": 1575,
      "ose": 1576,
      "▁boxes": 1577,
      "▁economy": 1578,
      "▁waiting": 1579,
      "▁few": 1580,
      "▁cause": 1581,
      "▁safety": 1582,
      "▁butter": 1583,
      "led": 1584,
      "ament": 1585,
      "▁joke": 1586,
      "æ": 1587,
      "isation": 1588,
      "▁issu": 1589,
      "▁statement": 1590,
      "roduction": 1591,
      "▁refer": 1592,
      "▁com": 1593,
      "▁plane": 1594,
      "9": 1595,
      "eng": 1596,
      "alk": 1597,
      "▁options": 1598,
      "▁oh": 1599,
      "▁cheese": 1600,
      "imb": 1601,
      "▁potty": 1602,
      "qui": 1603,
      "en": 1604,
      "▁dest": 1605,
      "▁depar": 1606,
      "▁based": 1607,
      "????????": 1608,
      "▁ever": 1609,
      "ended": 1610,
      "▁health": 1611,
      "▁design": 1612,
      "▁soldiers": 1613,
      "imore": 1614,
      "ened": 1615,
      "▁other": 1616,
      "▁take": 1617,
      "wor": 1618,
      "an": 1619,
      "▁nt": 1620,
      "▁agreement": 1621,
      "▁growth": 1622,
      "▁father": 1623,
      "▁fore": 1624,
      "erated": 1625,
      "▁pur": 1626,
      "hin": 1627,
      "▁motor": 1628,
      "▁delive": 1629,
      "▁fro": 1630,
      "▁touch": 1631,
      "▁pig": 1632,
      "▁tri": 1633,
      "ig": 1634,
      "▁chee": 1635,
      "mate": 1636,
      "rous": 1637,
      "▁dri": 1638,
      "▁clothes": 1639,
      "▁ought": 1640,
      "▁workers": 1641,
      "gan": 1642,
      "▁sugar": 1643,
      "▁human": 1644,
      "▁times": 1645,
      "▁ones": 1646,
      "▁values": 1647,
      "ably": 1648,
      "▁du": 1649,
      "▁seat": 1650,
      "▁sing": 1651,
      "▁port": 1652,
      "ould": 1653,
      "▁occur": 1654,
      "▁taken": 1655,
      "▁inc": 1656,
      "▁chair": 1657,
      "▁bunch": 1658,
      "▁solution": 1659,
      "▁this": 1660,
      "oh": 1661,
      "▁happening": 1662,
      "ee": 1663,
      "▁community": 1664,
      "▁ov": 1665,
      "ath": 1666,
      "!!!!!!!!": 1667,
      "▁computer": 1668,
      "ames": 1669,
      "▁intended": 1670,
      "boy": 1671,
      "▁’’": 1672,
      "ls": 1673,
      "▁her": 1674,
      "▁sat": 1675,
      "ed": 1676,
      "▁whose": 1677,
      "▁trave": 1678,
      "▁tummy": 1679,
      "▁opportun": 1680,
      "med": 1681,
      "▁rub": 1682,
      "works": 1683,
      "fo": 1684,
      "ks": 1685,
      "bly": 1686,
      "▁.........": 1687,
      "ried": 1688,
      "▁item": 1689,
      "▁love": 1690,
      "mitted": 1691,
      "▁carry": 1692,
      "▁die": 1693,
      "▁temper": 1694,
      "6": 1695,
      "ory": 1696,
      "▁dall": 1697,
      "▁month": 1698,
      "ter": 1699,
      "low": 1700,
      "▁addition": 1701,
      "▁do": 1702,
      "bs": 1703,
      "▁yours": 1704,
      "▁regar": 1705,
      "▁studies": 1706,
      "▁respect": 1707,
      "iting": 1708,
      "▁winter": 1709,
      "▁visa": 1710,
      "▁myself": 1711,
      "▁wind": 1712,
      "struc": 1713,
      "▁any": 1714,
      "▁choo": 1715,
      "▁december": 1716,
      "ify": 1717,
      "▁quinoa": 1718,
      "▁bee": 1719,
      "▁ex": 1720,
      "▁opposite": 1721,
      "▁turn": 1722,
      "▁details": 1723,
      "▁calling": 1724,
      "af": 1725,
      "▁leaving": 1726,
      "w": 1727,
      "▁up": 1728,
      "tern": 1729,
      "▁came": 1730,
      "tering": 1731,
      "▁ed": 1732,
      "▁temperature": 1733,
      "▁c": 1734,
      "▁earth": 1735,
      "▁remain": 1736,
      "▁wit": 1737,
      "▁monday": 1738,
      "▁according": 1739,
      "▁oper": 1740,
      "▁bread": 1741,
      "▁atmos": 1742,
      "ri": 1743,
      "▁wol": 1744,
      "▁us": 1745,
      "▁mess": 1746,
      "▁********************************": 1747,
      "▁inn": 1748,
      "ark": 1749,
      "▁thing": 1750,
      "▁w": 1751,
      "▁wo": 1752,
      "ild": 1753,
      "▁sl": 1754,
      "▁key": 1755,
      "▁throu": 1756,
      "▁prefer": 1757,
      "ich": 1758,
      "▁recommended": 1759,
      "▁cowboy": 1760,
      "▁given": 1761,
      "▁minut": 1762,
      "▁band": 1763,
      "ority": 1764,
      "kin": 1765,
      "▁shut": 1766,
      "▁efforts": 1767,
      "▁every": 1768,
      "▁cases": 1769,
      "tee": 1770,
      "vel": 1771,
      "▁center": 1772,
      "amb": 1773,
      "here": 1774,
      "▁compl": 1775,
      "▁foc": 1776,
      "********************************": 1777,
      "▁applied": 1778,
      "▁conduc": 1779,
      "ket": 1780,
      "▁mummy": 1781,
      "▁ship": 1782,
      "▁scre": 1783,
      "▁maybe": 1784,
      "▁spider": 1785,
      "▁upon": 1786,
      "▁buc": 1787,
      "tride": 1788,
      "▁owners": 1789,
      "▁by": 1790,
      "**********************************": 1791,
      "ums": 1792,
      "work": 1793,
      "oll": 1794,
      "▁told": 1795,
      "▁fiel": 1796,
      "▁cow": 1797,
      "▁located": 1798,
      "▁which": 1799,
      "een": 1800,
      "thing": 1801,
      "▁dev": 1802,
      "▁restaurant": 1803,
      "▁imag": 1804,
      "▁un": 1805,
      "▁self": 1806,
      "▁met": 1807,
      "▁effects": 1808,
      "▁point": 1809,
      "▁perform": 1810,
      "▁storm": 1811,
      "▁>>": 1812,
      "rax": 1813,
      "duc": 1814,
      "▁mrs": 1815,
      "ten": 1816,
      "ick": 1817,
      "re": 1818,
      "aking": 1819,
      "▁numbers": 1820,
      "▁det": 1821,
      "▁net": 1822,
      "tive": 1823,
      "ottable": 1824,
      "▁uncle": 1825,
      "lem": 1826,
      "ats": 1827,
      "▁attacks": 1828,
      "rib": 1829,
      "▁suicide": 1830,
      "▁al": 1831,
      "eck": 1832,
      "▁bud": 1833,
      "▁ways": 1834,
      "ning": 1835,
      "ent": 1836,
      "▁rev": 1837,
      "▁relationship": 1838,
      "ert": 1839,
      "▁sources": 1840,
      "ft": 1841,
      "cause": 1842,
      "iving": 1843,
      "[MASK]": 1844,
      "uter": 1845,
      "uff": 1846,
      "▁organization": 1847,
      "ds": 1848,
      "▁schools": 1849,
      "eries": 1850,
      "▁created": 1851,
      "sing": 1852,
      "▁together": 1853,
      "▁daughter": 1854,
      "lation": 1855,
      "▁house": 1856,
      "▁points": 1857,
      "▁exch": 1858,
      "▁differences": 1859,
      "lic": 1860,
      "▁mag": 1861,
      "▁something": 1862,
      "▁recip": 1863,
      "uments": 1864,
      "▁banan": 1865,
      "▁pers": 1866,
      "▁rele": 1867,
      "▁sme": 1868,
      "onstr": 1869,
      "▁tax": 1870,
      "▁exhib": 1871,
      "erate": 1872,
      "ly": 1873,
      "▁legislation": 1874,
      "▁sports": 1875,
      "▁thru": 1876,
      "▁legos": 1877,
      "▁commission": 1878,
      "ʒ": 1879,
      "vement": 1880,
      "unt": 1881,
      "▁finding": 1882,
      "--": 1883,
      "▁within": 1884,
      "▁tie": 1885,
      "▁)": 1886,
      "▁hous": 1887,
      "▁presence": 1888,
      "ist": 1889,
      "▁year": 1890,
      "lus": 1891,
      "▁iod": 1892,
      "▁es": 1893,
      "▁heat": 1894,
      "▁writer": 1895,
      "▁ride": 1896,
      "▁skills": 1897,
      "=----": 1898,
      "▁trav": 1899,
      "▁dinner": 1900,
      "iti": 1901,
      "▁dece": 1902,
      "ure": 1903,
      "--------+----------------": 1904,
      "▁seen": 1905,
      "▁forwar": 1906,
      "▁o'clock": 1907,
      "king": 1908,
      "▁no": 1909,
      "▁message": 1910,
      "▁apprec": 1911,
      "▁also": 1912,
      "ka": 1913,
      "tle": 1914,
      "▁cash": 1915,
      "▁libr": 1916,
      "tai": 1917,
      "tivity": 1918,
      "tually": 1919,
      "▁''": 1920,
      "▁prices": 1921,
      "▁sug": 1922,
      "ison": 1923,
      "▁ident": 1924,
      "ounds": 1925,
      "▁improve": 1926,
      "▁comed": 1927,
      "▁knowledge": 1928,
      "▁per": 1929,
      "▁bir": 1930,
      "▁cards": 1931,
      "▁sun": 1932,
      "nd": 1933,
      "??": 1934,
      "urs": 1935,
      "▁style": 1936,
      "▁mic": 1937,
      "▁movies": 1938,
      "▁dou": 1939,
      "▁determ": 1940,
      "▁’": 1941,
      "▁and": 1942,
      "ency": 1943,
      "▁cookies": 1944,
      "▁button": 1945,
      "▁etc.": 1946,
      "ester": 1947,
      "v": 1948,
      "~": 1949,
      "▁plays": 1950,
      "▁atlanta": 1951,
      "▁sli": 1952,
      "▁does": 1953,
      "·": 1954,
      "own": 1955,
      "\"": 1956,
      "▁shoe": 1957,
      "▁vide": 1958,
      "▁pictures": 1959,
      "▁war": 1960,
      "▁boo": 1961,
      "▁avo": 1962,
      "▁morning": 1963,
      "▁paul": 1964,
      "▁mathematics": 1965,
      "▁x": 1966,
      "▁’ve": 1967,
      "▁mur": 1968,
      "ʃ": 1969,
      "▁spe": 1970,
      "ance": 1971,
      "idence": 1972,
      "phere": 1973,
      "ved": 1974,
      "▁toward": 1975,
      "▁onto": 1976,
      "▁each": 1977,
      "▁ann": 1978,
      "▁beyond": 1979,
      "ion": 1980,
      "▁copy": 1981,
      "▁inclu": 1982,
      "▁murder": 1983,
      "▁south": 1984,
      "huh": 1985,
      "▁{": 1986,
      "▁lost": 1987,
      "▁proced": 1988,
      "room": 1989,
      "ulate": 1990,
      "▁stop": 1991,
      "▁citizens": 1992,
      "▁deli": 1993,
      "chen": 1994,
      "erences": 1995,
      "▁name": 1996,
      "▁example": 1997,
      "▁recogn": 1998,
      "eti": 1999,
      "▁most": 2000,
      "ually": 2001,
      "oun": 2002,
      "ab": 2003,
      "▁commun": 2004,
      "uth": 2005,
      "ʊ": 2006,
      "▁space": 2007,
      "▁bathroom": 2008,
      "ost": 2009,
      "▁friend": 2010,
      "oint": 2011,
      "▁coming": 2012,
      "ices": 2013,
      "▁file": 2014,
      "ps": 2015,
      "▁items": 2016,
      "lief": 2017,
      "œ": 2018,
      "ays": 2019,
      "port": 2020,
      "▁circ": 2021,
      "hip": 2022,
      "▁airplan": 2023,
      "▁settle": 2024,
      "▁creating": 2025,
      "▁min": 2026,
      "▁e": 2027,
      "▁t": 2028,
      "▁los": 2029,
      "▁hos": 2030,
      "ou": 2031,
      "ican": 2032,
      "▁rabbit": 2033,
      "▁reasons": 2034,
      "ilos": 2035,
      "▁appl": 2036,
      "▁provide": 2037,
      "other": 2038,
      "▁secret": 2039,
      "▁break": 2040,
      "▁flight": 2041,
      "all": 2042,
      "▁3": 2043,
      "▁pre": 2044,
      "ra": 2045,
      "aff": 2046,
      "oon": 2047,
      "ked": 2048,
      "▁grow": 2049,
      "▁box": 2050,
      "q": 2051,
      "▁phone": 2052,
      "ear": 2053,
      "▁class": 2054,
      "▁|": 2055,
      "▁always": 2056,
      "▁gets": 2057,
      "og": 2058,
      "▁trouble": 2059,
      "▁piz": 2060,
      "▁building": 2061,
      "ilities": 2062,
      "▁ate": 2063,
      "▁uhhuh": 2064,
      "▁these": 2065,
      "▁energy": 2066,
      "ocr": 2067,
      "▁got": 2068,
      "oot": 2069,
      "▁letter": 2070,
      "▁opp": 2071,
      "▁arrives": 2072,
      "ol": 2073,
      "▁rule": 2074,
      "▁str": 2075,
      "▁there": 2076,
      "▁lived": 2077,
      "▁world": 2078,
      "▁security": 2079,
      "▁coff": 2080,
      "▁respond": 2081,
      "p;": 2082,
      "▁theirs": 2083,
      "▁keeping": 2084,
      "ong": 2085,
      "▁those": 2086,
      "▁project": 2087,
      "ception": 2088,
      "▁saying": 2089,
      "▁oc": 2090,
      "▁text": 2091,
      "ink": 2092,
      "▁turned": 2093,
      "▁internet": 2094,
      "us": 2095,
      "ught": 2096,
      "▁road": 2097,
      "uh": 2098,
      "▁o": 2099,
      "▁lack": 2100,
      "▁sugg": 2101,
      "▁written": 2102,
      "½": 2103,
      "eet": 2104,
      "▁words": 2105,
      "▁return": 2106,
      "▁yester": 2107,
      "▁growing": 2108,
      "le": 2109,
      "▁showing": 2110,
      "▁develop": 2111,
      "▁between": 2112,
      "▁hal": 2113,
      "▁cake": 2114,
      "▁dropped": 2115,
      "▁best": 2116,
      "▁administration": 2117,
      "▁market": 2118,
      "▁lea": 2119,
      "▁r": 2120,
      "▁environ": 2121,
      "▁choose": 2122,
      "▁certain": 2123,
      "▁conv": 2124,
      "▁campaign": 2125,
      "▁land": 2126,
      "▁ent": 2127,
      "▁actions": 2128,
      "▁coffee": 2129,
      "▁fin": 2130,
      "ame": 2131,
      "▁new": 2132,
      "▁herself": 2133,
      "▁books": 2134,
      "▁activity": 2135,
      "▁like": 2136,
      "ators": 2137,
      "▁closed": 2138,
      "▁imple": 2139,
      "▁kitty": 2140,
      "▁_______": 2141,
      "▁scienti": 2142,
      "▁wake": 2143,
      "%": 2144,
      "tc": 2145,
      "▁know": 2146,
      "▁_____": 2147,
      "▁share": 2148,
      "ulation": 2149,
      "ware": 2150,
      "▁who's": 2151,
      "uring": 2152,
      "▁rad": 2153,
      "if": 2154,
      "▁if": 2155,
      "▁clean": 2156,
      "▁administ": 2157,
      "ords": 2158,
      "▁far": 2159,
      "ests": 2160,
      "▁site": 2161,
      "▁song": 2162,
      "▁interest": 2163,
      "▁sti": 2164,
      "”": 2165,
      "▁departing": 2166,
      "▁model": 2167,
      "ading": 2168,
      "▁ri": 2169,
      "ials": 2170,
      "▁beauty": 2171,
      "▁sour": 2172,
      "▁area": 2173,
      "ots": 2174,
      "ator": 2175,
      "▁sign": 2176,
      "▁climate": 2177,
      "ef": 2178,
      "▁na": 2179,
      "▁hea": 2180,
      "▁san": 2181,
      "▁stated": 2182,
      "anger": 2183,
      "mal": 2184,
      "ad": 2185,
      "▁find": 2186,
      "rated": 2187,
      "▁reality": 2188,
      "lled": 2189,
      "▁act": 2190,
      "σ": 2191,
      "▁dinos": 2192,
      "itt": 2193,
      "▁hair": 2194,
      "ghting": 2195,
      "ont": 2196,
      "▁desk": 2197,
      "▁effort": 2198,
      "▁discuss": 2199,
      "ish": 2200,
      "▁years": 2201,
      "age": 2202,
      "▁suc": 2203,
      "▁arg": 2204,
      "atch": 2205,
      "▁pupp": 2206,
      "ror": 2207,
      "▁lo": 2208,
      "▁???": 2209,
      "▁card": 2210,
      "ater": 2211,
      "▁momma": 2212,
      "▁accepted": 2213,
      "▁speech": 2214,
      "▁'ve": 2215,
      "iate": 2216,
      "’t": 2217,
      "▁daddy": 2218,
      "▁spent": 2219,
      "▁makes": 2220,
      "▁police": 2221,
      "▁attend": 2222,
      "▁ach": 2223,
      "▁i": 2224,
      "▁happens": 2225,
      "▁signed": 2226,
      "▁q": 2227,
      "▁opin": 2228,
      "▁ki": 2229,
      "#": 2230,
      "ms": 2231,
      "▁conversation": 2232,
      "onom": 2233,
      "▁soldi": 2234,
      "▁pot": 2235,
      "▁here": 2236,
      "▁commit": 2237,
      "▁plans": 2238,
      "uck": 2239,
      "▁neither": 2240,
      "▁competition": 2241,
      "▁spend": 2242,
      "▁committee": 2243,
      "▁mathema": 2244,
      "▁ai": 2245,
      "▁co": 2246,
      "▁el": 2247,
      ")": 2248,
      "▁analysis": 2249,
      "????????????????": 2250,
      "------------": 2251,
      "ject": 2252,
      "▁purch": 2253,
      "▁breakf": 2254,
      "formation": 2255,
      "▁view": 2256,
      "▁individ": 2257,
      "----------": 2258,
      "▁park": 2259,
      "▁save": 2260,
      "tit": 2261,
      "▁chance": 2262,
      "’": 2263,
      "ine": 2264,
      "cess": 2265,
      "bb": 2266,
      "▁instance": 2267,
      "▁very": 2268,
      "ley": 2269,
      "ented": 2270,
      "▁third": 2271,
      "av": 2272,
      "▁lines": 2273,
      "▁will": 2274,
      "▁initi": 2275,
      "▁movie": 2276,
      "▁behin": 2277,
      "▁hur": 2278,
      "▁recog": 2279,
      "▁fork": 2280,
      "eg": 2281,
      "▁won": 2282,
      "▁unto": 2283,
      "sul": 2284,
      "ak": 2285,
      "▁doctor": 2286,
      "°": 2287,
      "▁hi": 2288,
      "rou": 2289,
      "key": 2290,
      "ording": 2291,
      "▁conse": 2292,
      "▁iss": 2293,
      "su": 2294,
      "lo": 2295,
      "▁did": 2296,
      "▁ret": 2297,
      "▁problems": 2298,
      "sus": 2299,
      "▁cal": 2300,
      "ble": 2301,
      "▁fact": 2302,
      "▁teach": 2303,
      "▁tape": 2304,
      "aled": 2305,
      "▁hop": 2306,
      "ends": 2307,
      "▁spec": 2308,
      "▁thous": 2309,
      "oo": 2310,
      "ach": 2311,
      "▁would": 2312,
      "▁women": 2313,
      "ha": 2314,
      "▁kit": 2315,
      "▁down": 2316,
      "▁te": 2317,
      "▁characters": 2318,
      "▁via": 2319,
      "berry": 2320,
      "▁bun": 2321,
      "▁school": 2322,
      "▁web": 2323,
      "▁killed": 2324,
      "▁!!!!!!!!!!!!!!!!!!!": 2325,
      "acking": 2326,
      "▁exc": 2327,
      "“": 2328,
      "▁wanted": 2329,
      "ores": 2330,
      "▁character": 2331,
      "▁above": 2332,
      "sure": 2333,
      "▁plenty": 2334,
      "tives": 2335,
      "tiv": 2336,
      "alf": 2337,
      "row": 2338,
      "▁pet": 2339,
      "▁estimated": 2340,
      "▁process": 2341,
      "▁behind": 2342,
      "▁dist": 2343,
      "▁describ": 2344,
      "▁recommend": 2345,
      "▁noon": 2346,
      "▁opinion": 2347,
      "▁store": 2348,
      "▁dam": 2349,
      "▁belong": 2350,
      "▁components": 2351,
      "▁bring": 2352,
      "▁mission": 2353,
      "▁disc": 2354,
      "ro": 2355,
      "▁wor": 2356,
      "ait": 2357,
      "ength": 2358,
      "▁information": 2359,
      "op": 2360,
      "la": 2361,
      "▁impro": 2362,
      "yst": 2363,
      "▁etc": 2364,
      "▁ho": 2365,
      "▁ris": 2366,
      "▁cooperation": 2367,
      "▁apart": 2368,
      "asts": 2369,
      "▁home": 2370,
      "▁dere": 2371,
      "▁l": 2372,
      "ism": 2373,
      "▁kitchen": 2374,
      "ured": 2375,
      "▁discussed": 2376,
      "▁]": 2377,
      "•": 2378,
      "▁search": 2379,
      "▁pred": 2380,
      "▁stat": 2381,
      "ington": 2382,
      "▁reserv": 2383,
      "▁*": 2384,
      "▁dol": 2385,
      "nesday": 2386,
      "▁ti": 2387,
      "▁blanket": 2388,
      "▁planning": 2389,
      "▁author": 2390,
      "on": 2391,
      "aper": 2392,
      "▁actually": 2393,
      "idents": 2394,
      "▁legs": 2395,
      "etition": 2396,
      "▁percentage": 2397,
      "▁ability": 2398,
      "▁insur": 2399,
      "ents": 2400,
      "▁vote": 2401,
      "▁team": 2402,
      "▁payment": 2403,
      "▁sum": 2404,
      "▁thy": 2405,
      "▁>": 2406,
      "rup": 2407,
      "aging": 2408,
      "ause": 2409,
      "be": 2410,
      "ceed": 2411,
      "ium": 2412,
      "▁united": 2413,
      "▁circle": 2414,
      "▁taking": 2415,
      "▁made": 2416,
      "ia": 2417,
      "elt": 2418,
      "▁cri": 2419,
      "cc": 2420,
      "▁said": 2421,
      "spite": 2422,
      "▁visited": 2423,
      "▁round": 2424,
      "▁eye": 2425,
      "▁quar": 2426,
      "▁cheapest": 2427,
      "uding": 2428,
      "for": 2429,
      "stem": 2430,
      "▁skin": 2431,
      "▁writing": 2432,
      "▁who": 2433,
      "▁instruc": 2434,
      "▁august": 2435,
      "▁numerous": 2436,
      "▁=---": 2437,
      "▁dre": 2438,
      "▁really": 2439,
      "▁rep": 2440,
      "▁rememb": 2441,
      "▁identi": 2442,
      "▁......": 2443,
      "▁intelligence": 2444,
      "▁study": 2445,
      "▁obt": 2446,
      "ep": 2447,
      "inate": 2448,
      "lan": 2449,
      "▁list": 2450,
      "▁believed": 2451,
      "ber": 2452,
      "▁making": 2453,
      "▁brain": 2454,
      "wic": 2455,
      "ø": 2456,
      "▁siz": 2457,
      "▁cats": 2458,
      "iture": 2459,
      "▁surp": 2460,
      "▁besides": 2461,
      "se": 2462,
      "▁colle": 2463,
      "▁off": 2464,
      "▁decided": 2465,
      "▁practice": 2466,
      "▁line": 2467,
      "▁corner": 2468,
      "▁broken": 2469,
      "▁markets": 2470,
      "▁members": 2471,
      "ching": 2472,
      "▁ll": 2473,
      "▁bom": 2474,
      "▁categ": 2475,
      "▁represent": 2476,
      "▁trip": 2477,
      "c": 2478,
      "▁mil": 2479,
      "▁squ": 2480,
      "▁laws": 2481,
      "▁medic": 2482,
      "ude": 2483,
      "▁discovered": 2484,
      "▁uses": 2485,
      "▁number": 2486,
      "oices": 2487,
      "sm": 2488,
      "gether": 2489,
      "▁deter": 2490,
      "▁travel": 2491,
      "ails": 2492,
      "▁still": 2493,
      "▁pages": 2494,
      "▁journ": 2495,
      "ands": 2496,
      "▁video": 2497,
      "pos": 2498,
      "ount": 2499,
      "▁airline": 2500,
      "ail": 2501,
      "▁proble": 2502,
      "▁….": 2503,
      "▁scr": 2504,
      "tion": 2505,
      "itled": 2506,
      "amples": 2507,
      "▁imagine": 2508,
      "▁tem": 2509,
      "▁root": 2510,
      "▁trees": 2511,
      "ver": 2512,
      "▁observed": 2513,
      "▁bridge": 2514,
      "▁has": 2515,
      "abb": 2516,
      "▁takes": 2517,
      "▁forget": 2518,
      "aur": 2519,
      "▁present": 2520,
      "▁oakland": 2521,
      "▁none": 2522,
      "▁enter": 2523,
      "owl": 2524,
      "▁fam": 2525,
      "a": 2526,
      "▁custom": 2527,
      "▁barn": 2528,
      "▁business": 2529,
      "▁bub": 2530,
      "▁done": 2531,
      "oin": 2532,
      "▁suggest": 2533,
      "ept": 2534,
      "ence": 2535,
      "▁grandm": 2536,
      "▁wat": 2537,
      "ott": 2538,
      "use": 2539,
      "▁be": 2540,
      "ction": 2541,
      "cr": 2542,
      "ograph": 2543,
      "▁inside": 2544,
      "▁studying": 2545,
      "▁elect": 2546,
      "---": 2547,
      "▁balloon": 2548,
      "like": 2549,
      "neath": 2550,
      "lies": 2551,
      "read": 2552,
      "▁tank": 2553,
      "▁sky": 2554,
      "▁great": 2555,
      "▁attempt": 2556,
      "ony": 2557,
      "ition": 2558,
      "+": 2559,
      "▁---": 2560,
      "▁tonight": 2561,
      "▁bi": 2562,
      "rested": 2563,
      "ections": 2564,
      "▁challen": 2565,
      "▁spoon": 2566,
      "▁dogg": 2567,
      "ements": 2568,
      "▁access": 2569,
      "▁title": 2570,
      "▁code": 2571,
      "wa": 2572,
      "▁jo": 2573,
      "▁questions": 2574,
      "▁format": 2575,
      "iled": 2576,
      "▁kn": 2577,
      ".com": 2578,
      "nding": 2579,
      "==": 2580,
      "▁th": 2581,
      "▁airl": 2582,
      "▁tal": 2583,
      "▁hope": 2584,
      "▁method": 2585,
      "formed": 2586,
      "▁boston": 2587,
      "▁dr": 2588,
      "umn": 2589,
      "▁areas": 2590,
      "▁hotel": 2591,
      "▁sty": 2592,
      "▁stock": 2593,
      "ple": 2594,
      "▁del": 2595,
      "ether": 2596,
      "▁consid": 2597,
      "ges": 2598,
      "▁cam": 2599,
      "▁girls": 2600,
      "▁sec": 2601,
      "▁terror": 2602,
      "▁shows": 2603,
      "▁foods": 2604,
      "▁led": 2605,
      "hether": 2606,
      "▁tow": 2607,
      "imed": 2608,
      "▁moon": 2609,
      "▁quino": 2610,
      "▁salad": 2611,
      "▁enem": 2612,
      "ali": 2613,
      "▁ago": 2614,
      "light": 2615,
      "phia": 2616,
      "▁!!!": 2617,
      "ate": 2618,
      "▁weapons": 2619,
      "▁airport": 2620,
      "▁pour": 2621,
      "over": 2622,
      "bur": 2623,
      "▁mat": 2624,
      "▁couple": 2625,
      "▁shop": 2626,
      "▁paint": 2627,
      "▁wr": 2628,
      "▁mother": 2629,
      "▁mom": 2630,
      "rote": 2631,
      "▁application": 2632,
      "▁job": 2633,
      "▁af": 2634,
      "ture": 2635,
      "▁dress": 2636,
      "▁&amp;": 2637,
      "▁—": 2638,
      "▁kill": 2639,
      "▁cro": 2640,
      "▁organ": 2641,
      "▁parliament": 2642,
      "▁sit": 2643,
      "▁choice": 2644,
      "▁rain": 2645,
      "▁environment": 2646,
      "υ": 2647,
      "▁became": 2648,
      "ant": 2649,
      "lish": 2650,
      "pen": 2651,
      "ration": 2652,
      "arity": 2653,
      "▁results": 2654,
      "▁particip": 2655,
      "usion": 2656,
      "▁luck": 2657,
      "▁aff": 2658,
      "ʁ": 2659,
      "▁num": 2660,
      "[": 2661,
      "▁learning": 2662,
      "▁eating": 2663,
      "▁chocolate": 2664,
      "ot": 2665,
      "▁strength": 2666,
      "el": 2667,
      "▁things": 2668,
      "▁sus": 2669,
      "▁di": 2670,
      "▁passed": 2671,
      "▁thinking": 2672,
      "▁mo": 2673,
      "▁ensure": 2674,
      "▁reviews": 2675,
      "ress": 2676,
      "nut": 2677,
      "▁had": 2678,
      "▁sector": 2679,
      "▁wait": 2680,
      "▁camp": 2681,
      "raph": 2682,
      "g": 2683,
      "gg": 2684,
      "thin": 2685,
      "▁small": 2686,
      "▁mov": 2687,
      "ural": 2688,
      "velop": 2689,
      "▁chicken": 2690,
      "▁somebody": 2691,
      "▁experience": 2692,
      "▁hist": 2693,
      "▁cruise": 2694,
      "oration": 2695,
      "▁bur": 2696,
      "▁jwww": 2697,
      "olog": 2698,
      "con": 2699,
      "cross": 2700,
      "▁she": 2701,
      "▁y": 2702,
      "********": 2703,
      "▁dep": 2704,
      "aster": 2705,
      "▁hospital": 2706,
      "▁stret": 2707,
      "▁s": 2708,
      "▁instead": 2709,
      "▁when": 2710,
      "▁minutes": 2711,
      "r": 2712,
      "▁say": 2713,
      "▁population": 2714,
      "▁snow": 2715,
      "lished": 2716,
      "anced": 2717,
      "▁among": 2718,
      "▁families": 2719,
      "▁working": 2720,
      "▁lar": 2721,
      "erent": 2722,
      "▁!!!!!!!!!!!!!!!": 2723,
      "▁story": 2724,
      "sts": 2725,
      "▁first": 2726,
      "▁anth": 2727,
      "▁invest": 2728,
      "▁exist": 2729,
      "▁wond": 2730,
      "▁continued": 2731,
      "▁beach": 2732,
      "▁soc": 2733,
      "▁top": 2734,
      "▁ou": 2735,
      "ets": 2736,
      "▁cru": 2737,
      "----": 2738,
      "ging": 2739,
      "▁played": 2740,
      "▁univers": 2741,
      "▁worked": 2742,
      "▁option": 2743,
      "oods": 2744,
      "▁emb": 2745,
      "ycle": 2746,
      "▁spr": 2747,
      "▁pati": 2748,
      "▁says": 2749,
      "▁enc": 2750,
      "▁object": 2751,
      "▁weeks": 2752,
      "ers": 2753,
      "▁case": 2754,
      "▁cre": 2755,
      "▁belie": 2756,
      "▁buy": 2757,
      "ond": 2758,
      "▁while": 2759,
      "▁happened": 2760,
      "▁....................": 2761,
      "▁!!!!!!!!!!!!!": 2762,
      "▁wild": 2763,
      "▁lights": 2764,
      "action": 2765,
      "ology": 2766,
      "▁experi": 2767,
      "▁tomorrow": 2768,
      "ush": 2769,
      "▁blood": 2770,
      "ters": 2771,
      "▁pe": 2772,
      "acts": 2773,
      "▁windows": 2774,
      "right": 2775,
      "ided": 2776,
      "os": 2777,
      "iss": 2778,
      "▁convers": 2779,
      "▁plate": 2780,
      "▁july": 2781,
      "▁intel": 2782,
      "▁as": 2783,
      "▁gender": 2784,
      "▁tech": 2785,
      "▁intern": 2786,
      "▁tool": 2787,
      "▁faith": 2788,
      "▁pencil": 2789,
      "▁screen": 2790,
      "▁mach": 2791,
      "▁princip": 2792,
      "ased": 2793,
      "▁par": 2794,
      "▁def": 2795,
      "▁rock": 2796,
      "ature": 2797,
      "▁member": 2798,
      "▁milit": 2799,
      "▁elev": 2800,
      "▁teh": 2801,
      "ode": 2802,
      "▁station": 2803,
      "st": 2804,
      "▁|--------+----------------------->": 2805,
      "ool": 2806,
      "▁replication": 2807,
      "▁gro": 2808,
      "▁impact": 2809,
      "pe": 2810,
      "▁damage": 2811,
      "▁protect": 2812,
      "▁liked": 2813,
      "acter": 2814,
      "hold": 2815,
      "mes": 2816,
      "ited": 2817,
      "▁food": 2818,
      "▁·": 2819,
      "▁piece": 2820,
      "▁drug": 2821,
      "▁sh": 2822,
      "▁pivottable": 2823,
      "t": 2824,
      "▁query": 2825,
      "▁aw": 2826,
      "²": 2827,
      "▁w/": 2828,
      "▁.....": 2829,
      "▁requ": 2830,
      "▁reason": 2831,
      "▁pittsburgh": 2832,
      "▁laugh": 2833,
      "▁exp": 2834,
      "▁price": 2835,
      "▁whom": 2836,
      "▁sort": 2837,
      "▁brother": 2838,
      "▁bl": 2839,
      "zation": 2840,
      "▁function": 2841,
      "▁location": 2842,
      "▁madam": 2843,
      "▁anoth": 2844,
      "memb": 2845,
      "▁_": 2846,
      "ounced": 2847,
      "ork": 2848,
      "▁garage": 2849,
      "▁town": 2850,
      "▁kids": 2851,
      "either": 2852,
      "adel": 2853,
      "ither": 2854,
      "▁ben": 2855,
      "▁bal": 2856,
      "▁adopted": 2857,
      "▁star": 2858,
      "▁rout": 2859,
      "▁---------------------------------": 2860,
      "uss": 2861,
      "inging": 2862,
      "▁life": 2863,
      "▁track": 2864,
      "earance": 2865,
      "▁amb": 2866,
      "▁knew": 2867,
      "sed": 2868,
      "▁typ": 2869,
      "ally": 2870,
      "▁gl": 2871,
      "urn": 2872,
      "rong": 2873,
      "oned": 2874,
      "▁progress": 2875,
      "uly": 2876,
      "▁stage": 2877,
      "ering": 2878,
      "▁fight": 2879,
      "outh": 2880,
      "▁meant": 2881,
      "ric": 2882,
      "▁belief": 2883,
      "++++": 2884,
      "▁water": 2885,
      "▁concept": 2886,
      "oder": 2887,
      "▁**": 2888,
      "▁explain": 2889,
      "▁g": 2890,
      "ne": 2891,
      "▁trade": 2892,
      "ing": 2893,
      "▁email": 2894,
      "▁micro": 2895,
      "▁po": 2896,
      "aign": 2897,
      "▁material": 2898,
      "▁history": 2899,
      "▁mu": 2900,
      "▁.!": 2901,
      "town": 2902,
      "il": 2903,
      "♥": 2904,
      "▁sym": 2905,
      "▁cell": 2906,
      "▁named": 2907,
      "▁place": 2908,
      "▁filled": 2909,
      "orted": 2910,
      "▁resources": 2911,
      "▁amend": 2912,
      "▁parking": 2913,
      "▁events": 2914,
      "▁dom": 2915,
      "’s": 2916,
      "ac": 2917,
      "▁pair": 2918,
      "kers": 2919,
      "sh": 2920,
      "▁attr": 2921,
      "▁half": 2922,
      "▁bea": 2923,
      "ca": 2924,
      "osing": 2925,
      "▁of": 2926,
      "▁sunday": 2927,
      "omet": 2928,
      "ates": 2929,
      "▁ans": 2930,
      "ge": 2931,
      "▁task": 2932,
      "▁reading": 2933,
      "fic": 2934,
      "▁dose": 2935,
      "asure": 2936,
      "ˈ": 2937,
      "▁note": 2938,
      "▁thought": 2939,
      "▁post": 2940,
      "▁chall": 2941,
      "▁everything": 2942,
      "▁standing": 2943,
      "▁amongst": 2944,
      "0s": 2945,
      "▁science": 2946,
      "▁grandmother": 2947,
      "▁under": 2948,
      "▁horsie": 2949,
      "▁forth": 2950,
      "actions": 2951,
      "³": 2952,
      "▁glasses": 2953,
      "▁developed": 2954,
      "eth": 2955,
      "▁hole": 2956,
      "aint": 2957,
      "▁april": 2958,
      "and": 2959,
      "ists": 2960,
      "▁send": 2961,
      "▁word": 2962,
      "ints": 2963,
      "vail": 2964,
      "`": 2965,
      "ball": 2966,
      "▁consider": 2967,
      "ign": 2968,
      "▁obs": 2969,
      "ision": 2970,
      "ces": 2971,
      "▁indust": 2972,
      "▁owner": 2973,
      "▁capacity": 2974,
      "▁need": 2975,
      "▁join": 2976,
      "▁reve": 2977,
      "ense": 2978,
      "▁built": 2979,
      "ention": 2980,
      "▁tr": 2981,
      "ward": 2982,
      "▁regards": 2983,
      "▁candid": 2984,
      "mon": 2985,
      "▁stri": 2986,
      "▁ec": 2987,
      "▁mem": 2988,
      "▁remembered": 2989,
      "▁opening": 2990,
      "▁var": 2991,
      "▁ps": 2992,
      "▁argument": 2993,
      "▁walk": 2994,
      "▁explained": 2995,
      "▁liter": 2996,
      "▁alt": 2997,
      "aged": 2998,
      "▁decl": 2999,
      "▁19": 3000,
      "▁educ": 3001,
      "▁charl": 3002,
      "▁surpr": 3003,
      "▁looked": 3004,
      "▁dro": 3005,
      "▁av": 3006,
      "▁comm": 3007,
      "ner": 3008,
      "▁course": 3009,
      "lu": 3010,
      "▁une": 3011,
      "▁create": 3012,
      "erence": 3013,
      "▁watch": 3014,
      "▁page": 3015,
      "▁quality": 3016,
      "▁maintain": 3017,
      "▁div": 3018,
      "▁jokes": 3019,
      "ities": 3020,
      "▁force": 3021,
      "od": 3022,
      "ission": 3023,
      "▁cap": 3024,
      "▁med": 3025,
      "acters": 3026,
      "▁feels": 3027,
      "▁products": 3028,
      "ident": 3029,
      "▁inv": 3030,
      "ister": 3031,
      "▁res": 3032,
      "▁proposal": 3033,
      "▁lose": 3034,
      "▁psych": 3035,
      "▁child": 3036,
      "ads": 3037,
      "tim": 3038,
      "uled": 3039,
      "ods": 3040,
      "▁truck": 3041,
      "▁conf": 3042,
      "▁learned": 3043,
      "my": 3044,
      "xt": 3045,
      "▁thurs": 3046,
      "ids": 3047,
      "▁sand": 3048,
      "▁furniture": 3049,
      "th": 3050,
      "▁sense": 3051,
      "▁nice": 3052,
      "▁dad": 3053,
      "ption": 3054,
      "▁tre": 3055,
      "tures": 3056,
      "▁implem": 3057,
      "▁ju": 3058,
      "ete": 3059,
      "▁cook": 3060,
      "▁wil": 3061,
      "iety": 3062,
      "▁int": 3063,
      "d": 3064,
      "▁shorts": 3065,
      "▁behavior": 3066,
      "men": 3067,
      "▁throw": 3068,
      "▁decisions": 3069,
      "▁proper": 3070,
      "ons": 3071,
      "▁past": 3072,
      "▁inter": 3073,
      "▁fell": 3074,
      "▁(": 3075,
      "▁democracy": 3076,
      "▁vi": 3077,
      "ize": 3078,
      "fer": 3079,
      "▁command": 3080,
      "ff": 3081,
      "ced": 3082,
      "val": 3083,
      "▁la": 3084,
      "oc": 3085,
      "▁away": 3086,
      "▁looking": 3087,
      "▁costs": 3088,
      "erve": 3089,
      "▁boy": 3090,
      "ir": 3091,
      "▁match": 3092,
      "▁pushed": 3093,
      "inn": 3094,
      "▁little": 3095,
      "▁betw": 3096,
      "▁serves": 3097,
      "aq": 3098,
      "▁address": 3099,
      "ous": 3100,
      "▁wear": 3101,
      "▁ra": 3102,
      "▁airports": 3103,
      "▁player": 3104,
      "p": 3105,
      "▁kind": 3106,
      "stances": 3107,
      "▁night": 3108,
      "▁u": 3109,
      "▁dollars": 3110,
      "▁sens": 3111,
      "▁bulld": 3112,
      "▁their": 3113,
      "▁++++": 3114,
      "▁offici": 3115,
      "▁lead": 3116,
      "jo": 3117,
      "▁court": 3118,
      "▁yet": 3119,
      "▁groups": 3120,
      "▁an": 3121,
      "enting": 3122,
      "▁----": 3123,
      "▁seek": 3124,
      "▁sent": 3125,
      "▁assist": 3126,
      "▁swe": 3127,
      "ely": 3128,
      "ination": 3129,
      "her": 3130,
      "lly": 3131,
      "▁went": 3132,
      "▁supposed": 3133,
      "▁stopover": 3134,
      "▁gall": 3135,
      "▁dust": 3136,
      "▁+": 3137,
      "ι": 3138,
      "▁writers": 3139,
      "▁places": 3140,
      "ther": 3141,
      "▁cour": 3142,
      "ital": 3143,
      "▁married": 3144,
      "▁eng": 3145,
      "selves": 3146,
      "▁train": 3147,
      "▁mouse": 3148,
      "▁est": 3149,
      "▁cab": 3150,
      "▁aug": 3151,
      "▁friday": 3152,
      "▁caught": 3153,
      "-": 3154,
      "▁anthrax": 3155,
      "▁2": 3156,
      "▁...............": 3157,
      "▁chang": 3158,
      "!!!": 3159,
      "▁tree": 3160,
      "mp": 3161,
      "uit": 3162,
      "▁speed": 3163,
      "▁such": 3164,
      "▁pieces": 3165,
      "▁risk": 3166,
      "▁needs": 3167,
      "▁--": 3168,
      "itation": 3169,
      "▁creation": 3170,
      "ler": 3171,
      "00": 3172,
      "▁agree": 3173,
      "orn": 3174,
      "▁rooms": 3175,
      "▁experien": 3176,
      "▁pr": 3177,
      "▁propos": 3178,
      "▁vet": 3179,
      "▁ticket": 3180,
      "resent": 3181,
      "ity": 3182,
      "▁write": 3183,
      "lig": 3184,
      "▁sell": 3185,
      "ined": 3186,
      "ian": 3187,
      "▁problem": 3188,
      "▁phil": 3189,
      "????????????????????????????????": 3190,
      "▁drink": 3191,
      "▁felt": 3192,
      "▁mid": 3193,
      "▁much": 3194,
      "land": 3195,
      "ind": 3196,
      "▁meat": 3197,
      "▁enjambment": 3198,
      "▁sound": 3199,
      "▁watching": 3200,
      "▁ques": 3201,
      "cept": 3202,
      "▁mar": 3203,
      "▁ele": 3204,
      "▁nose": 3205,
      "▁trust": 3206,
      "▁aud": 3207,
      "ines": 3208,
      "book": 3209,
      "uro": 3210,
      "▁ve": 3211,
      "▁fingers": 3212,
      "▁destro": 3213,
      "**": 3214,
      "▁ba": 3215,
      "qu": 3216,
      "▁stood": 3217,
      "▁parents": 3218,
      "▁butt": 3219,
      "▁mouth": 3220,
      "▁released": 3221,
      "▁during": 3222,
      "al": 3223,
      "ozer": 3224,
      "▁driver": 3225,
      "cri": 3226,
      "▁bor": 3227,
      "id": 3228,
      "▁:": 3229,
      "▁dallas": 3230,
      "▁..........": 3231,
      "▁part": 3232,
      "▁e-mail": 3233,
      "▁changes": 3234,
      "▁cla": 3235,
      "kes": 3236,
      "▁started": 3237,
      "▁yo": 3238,
      "▁loc": 3239,
      "ugh": 3240,
      "ury": 3241,
      "▁lad": 3242,
      "▁mis": 3243,
      "ected": 3244,
      "▁pittsbur": 3245,
      "▁surv": 3246,
      "ite": 3247,
      "ange": 3248,
      "ibility": 3249,
      "_": 3250,
      "iding": 3251,
      "▁order": 3252,
      "▁president": 3253,
      "▁language": 3254,
      "uch": 3255,
      "▁underst": 3256,
      "▁rec": 3257,
      "▁playing": 3258,
      "▁den": 3259,
      "apers": 3260,
      "oice": 3261,
      "▁denver": 3262,
      "▁wine": 3263,
      "▁********": 3264,
      "▁trying": 3265,
      "▁m": 3266,
      "▁focus": 3267,
      "▁require": 3268,
      "▁buttons": 3269,
      "▁cand": 3270,
      "▁speak": 3271,
      "▁reported": 3272,
      "alists": 3273,
      "▁wonder": 3274,
      "itions": 3275,
      "plus": 3276,
      "▁saw": 3277,
      "▁thre": 3278,
      "▁link": 3279,
      "φ": 3280,
      "aries": 3281,
      "▁engine": 3282,
      "▁achie": 3283,
      "▁finished": 3284,
      "▁bath": 3285,
      "▁pl": 3286,
      "▁look": 3287,
      "/": 3288,
      "▁foot": 3289,
      "2": 3290,
      "inds": 3291,
      "▁knows": 3292,
      "▁!!": 3293,
      "ences": 3294,
      "▁&": 3295,
      "▁driving": 3296,
      "▁cove": 3297,
      "▁pizza": 3298,
      "▁systems": 3299,
      "▁’re": 3300,
      "ution": 3301,
      "vision": 3302,
      "▁attack": 3303,
      "▁cock": 3304,
      "ances": 3305,
      "▁stopped": 3306,
      "ai": 3307,
      "▁progr": 3308,
      "}": 3309,
      "eep": 3310,
      "▁env": 3311,
      "anding": 3312,
      "▁~": 3313,
      "▁eff": 3314,
      "▁move": 3315,
      "▁washington": 3316,
      "▁v": 3317,
      "▁believe": 3318,
      "ave": 3319,
      "▁birds": 3320,
      "▁at": 3321,
      "▁por": 3322,
      "▁serve": 3323,
      "▁jobs": 3324,
      "▁bank": 3325,
      "zz": 3326,
      "▁employment": 3327,
      "▁init": 3328,
      "▁test": 3329,
      "▁forg": 3330,
      "mb": 3331,
      "▁nation": 3332,
      "▁cont": 3333,
      "▁blan": 3334,
      "ular": 3335,
      "oul": 3336,
      "▁hours": 3337,
      "airs": 3338,
      "elf": 3339,
      "▁hurt": 3340,
      "▁requirements": 3341,
      "▁happ": 3342,
      "ili": 3343,
      "▁bear": 3344,
      "▁s/he": 3345,
      "▁meeting": 3346,
      "temp": 3347,
      "▁territory": 3348,
      "▁din": 3349,
      "▁fly": 3350,
      "om": 3351,
      "▁difference": 3352,
      "fir": 3353,
      "ulations": 3354,
      "▁mean": 3355,
      "▁recomm": 3356,
      "{": 3357,
      "▁support": 3358,
      "▁mine": 3359,
      "▁education": 3360,
      "▁innov": 3361,
      "▁cor": 3362,
      "▁wearing": 3363,
      "▁!!!!!!!!!!!": 3364,
      "board": 3365,
      "rap": 3366,
      "▁pill": 3367,
      "------->": 3368,
      "▁database": 3369,
      "ient": 3370,
      "▁country": 3371,
      "ining": 3372,
      "ρ": 3373,
      "▁counter": 3374,
      "▁room": 3375,
      "▁reven": 3376,
      "__": 3377,
      "ld": 3378,
      "▁ants": 3379,
      "▁nothing": 3380,
      "roduc": 3381,
      "▁afternoon": 3382,
      "▁sex": 3383,
      "▁account": 3384,
      "▁les": 3385,
      "▁same": 3386,
      "ners": 3387,
      "▁arms": 3388,
      "▁mail": 3389,
      "▁dwww": 3390,
      "overn": 3391,
      "mit": 3392,
      "▁admin": 3393,
      "▁appro": 3394,
      "ough": 3395,
      "?": 3396,
      "gu": 3397,
      "▁fill": 3398,
      "▁cheap": 3399,
      "▁question": 3400,
      "im": 3401,
      "▁.": 3402,
      "go": 3403,
      "▁er": 3404,
      "▁manager": 3405,
      "ourn": 3406,
      "▁what": 3407,
      "▁contr": 3408,
      "▁metal": 3409,
      "▁mer": 3410,
      "▁parts": 3411,
      "▁capac": 3412,
      "▁ahead": 3413,
      "avi": 3414,
      "pts": 3415,
      ":": 3416,
      "▁enjo": 3417,
      "▁bas": 3418,
      "▁cris": 3419,
      "▁governments": 3420,
      "gle": 3421,
      "▁befor": 3422,
      "▁sho": 3423,
      "▁activities": 3424,
      "▁effect": 3425,
      "▁arch": 3426,
      "4": 3427,
      "irst": 3428,
      "▁euro": 3429,
      "eel": 3430,
      "ruc": 3431,
      "ɔ": 3432,
      "▁aut": 3433,
      "&": 3434,
      "$": 3435,
      "k": 3436,
      "º": 3437,
      "▁----==": 3438,
      "▁draft": 3439,
      "tt": 3440,
      "▁gener": 3441,
      "▁ne": 3442,
      "ves": 3443,
      "▁fig": 3444,
      "craft": 3445,
      "▁hit": 3446,
      "▁conflic": 3447,
      "▁bird": 3448,
      "ip": 3449,
      "pp": 3450,
      "▁allowed": 3451,
      "▁participants": 3452,
      "▁snake": 3453,
      "0": 3454,
      "▁returned": 3455,
      "▁win": 3456,
      "▁im": 3457,
      "▁wom": 3458,
      "▁cos": 3459,
      "▁you": 3460,
      "▁elected": 3461,
      "▁balt": 3462,
      "▁neighb": 3463,
      "▁purpose": 3464,
      "▁development": 3465,
      "▁help": 3466,
      "▁orders": 3467,
      "▁someone": 3468,
      "▁compan": 3469,
      "omm": 3470,
      "▁ye": 3471,
      "▁alongside": 3472,
      "aps": 3473,
      "ape": 3474,
      "als": 3475,
      "▁app": 3476,
      "▁finger": 3477,
      "he": 3478,
      "▁birth": 3479,
      "▁draw": 3480,
      "ow": 3481,
      "iv": 3482,
      "aw": 3483,
      "eness": 3484,
      "ied": 3485,
      "▁build": 3486,
      "▁leaves": 3487,
      "▁dat": 3488,
      "earch": 3489,
      "▁tic": 3490,
      "▁mos": 3491,
      "ici": 3492,
      "▁saf": 3493,
      "▁dey": 3494,
      "ss": 3495,
      "▁ext": 3496,
      "elly": 3497,
      "▁mon": 3498,
      "▁yog": 3499,
      "br": 3500,
      "ey": 3501,
      "uts": 3502,
      "▁apple": 3503,
      "ere": 3504,
      "▁watched": 3505,
      "▁soil": 3506,
      "▁surface": 3507,
      "▁influ": 3508,
      "otw": 3509,
      "ival": 3510,
      "crib": 3511,
      "ugg": 3512,
      "▁feed": 3513,
      "▁carrying": 3514,
      "▁’s": 3515,
      "▁start": 3516,
      "aft": 3517,
      "▁[...]": 3518,
      "ledge": 3519,
      "eared": 3520,
      "▁pm": 3521,
      "oup": 3522,
      "▁my": 3523,
      "ouch": 3524,
      "utation": 3525,
      "ops": 3526,
      "▁reached": 3527,
      "▁control": 3528,
      "▁artic": 3529,
      "▁consum": 3530,
      "ince": 3531,
      "------": 3532,
      "ards": 3533,
      "▁sheet": 3534,
      "▁colleag": 3535,
      "▁found": 3536,
      "▁ep": 3537,
      "▁fir": 3538,
      "▁boom": 3539,
      "▁wh": 3540,
      "▁ow": 3541,
      "▁moment": 3542,
      "▁peop": 3543,
      "▁offer": 3544,
      "▁d'": 3545,
      "▁appointment": 3546,
      "ww": 3547,
      "▁bag": 3548,
      "▁encour": 3549,
      "▁finish": 3550,
      "▁gir": 3551,
      "▁kitt": 3552,
      "▁dem": 3553,
      "▁pull": 3554,
      "ical": 3555,
      "uc": 3556,
      "▁**********": 3557,
      "▁offic": 3558,
      "▁species": 3559,
      "ety": 3560,
      "te": 3561,
      "outs": 3562,
      "▁prac": 3563,
      "▁`s": 3564,
      "ults": 3565,
      "iver": 3566,
      "▁ce": 3567,
      "▁anim": 3568,
      "▁horse": 3569,
      "itch": 3570,
      "▁rel": 3571,
      "angu": 3572,
      "▁ad": 3573,
      "▁tha": 3574,
      "▁customers": 3575,
      "▁bought": 3576,
      "▁grand": 3577,
      "ght": 3578,
      "ect": 3579,
      "▁proce": 3580,
      "form": 3581,
      "pr": 3582,
      "▁rob": 3583,
      "pite": 3584,
      "▁leave": 3585,
      "▁neck": 3586,
      "▁importance": 3587,
      "▁ya": 3588,
      "ointment": 3589,
      "lling": 3590,
      "yet": 3591,
      "olve": 3592,
      "▁cop": 3593,
      "▁gen": 3594,
      "▁paper": 3595,
      "ures": 3596,
      "▁pean": 3597,
      "ik": 3598,
      "▁hand": 3599,
      "selve": 3600,
      "▁agreed": 3601,
      "▁techn": 3602,
      "▁bec": 3603,
      "▁officials": 3604,
      "▁change": 3605,
      "▁introduc": 3606,
      "▁wou": 3607,
      "▁street": 3608,
      "▁allow": 3609,
      "▁bab": 3610,
      "pped": 3611,
      "▁cur": 3612,
      "ending": 3613,
      "▁cereal": 3614,
      "es": 3615,
      "▁used": 3616,
      "pt": 3617,
      "stop": 3618,
      "▁river": 3619,
      "▁putting": 3620,
      "▁series": 3621,
      "▁projects": 3622,
      "▁establish": 3623,
      "ex": 3624,
      "▁settlement": 3625,
      "derstanding": 3626,
      "▁\"": 3627,
      "▁mist": 3628,
      "▁society": 3629,
      "line": 3630,
      "▁department": 3631,
      "is": 3632,
      "▁ended": 3633,
      "▁stayed": 3634,
      "cakes": 3635,
      "▁contain": 3636,
      "ib": 3637,
      "▁put": 3638,
      "▁'em": 3639,
      "ors": 3640,
      "▁next": 3641,
      "rows": 3642,
      "▁wilt": 3643,
      "uses": 3644,
      "amp": 3645,
      "atives": 3646,
      "▁insurance": 3647,
      "in": 3648,
      "▁philadelphia": 3649,
      "▁schedule": 3650,
      "▁weight": 3651,
      "▁family": 3652,
      "▁con": 3653,
      "▁feel": 3654,
      "▁state": 3655,
      "▁citiz": 3656,
      "▁gard": 3657,
      "▁charge": 3658,
      "as": 3659,
      "▁now": 3660,
      "▁sur": 3661,
      "anges": 3662,
      "=": 3663,
      "▁fr": 3664,
      "▁attached": 3665,
      "▁200": 3666,
      "ders": 3667,
      "erved": 3668,
      "▁curr": 3669,
      "▁ins": 3670,
      "▁counc": 3671,
      "▁fil": 3672,
      "▁treat": 3673,
      "h": 3674,
      "ressed": 3675,
      "▁reach": 3676,
      "▁wall": 3677,
      "ting": 3678,
      "▁show": 3679,
      "▁mad": 3680,
      "▁mountain": 3681,
      "▁cigar": 3682,
      "ought": 3683,
      "▁mod": 3684,
      "▁meth": 3685,
      "▁fan": 3686,
      "▁rece": 3687,
      "▁aside": 3688,
      "▁percent": 3689,
      "!!": 3690,
      "▁abo": 3691,
      "▁paid": 3692,
      "ny": 3693,
      "at": 3694,
      "▁till": 3695,
      "▁leader": 3696,
      "▁arr": 3697,
      "uals": 3698,
      "▁receive": 3699,
      "▁traffic": 3700,
      "eric": 3701,
      "▁whe": 3702,
      "▁army": 3703,
      "▁flights": 3704,
      "▁form": 3705,
      "▁window": 3706,
      "▁comment": 3707,
      "▁newsp": 3708,
      "▁college": 3709,
      "▁near": 3710,
      "▁described": 3711,
      "▁chec": 3712,
      "▁ey": 3713,
      "ticip": 3714,
      "oth": 3715,
      "er": 3716,
      "▁smal": 3717,
      "ries": 3718,
      "▁come": 3719,
      "▁arriving": 3720,
      "▁having": 3721,
      "ta": 3722,
      "▁event": 3723,
      "3": 3724,
      "▁pants": 3725,
      "▁guar": 3726,
      "▁rem": 3727,
      "fication": 3728,
      "▁stories": 3729,
      "▁showed": 3730,
      "▁long": 3731,
      "bably": 3732,
      "▁expos": 3733,
      "▁poc": 3734,
      "den": 3735,
      "▁eleph": 3736,
      "▁amid": 3737,
      "▁prop": 3738,
      "ative": 3739,
      "▁re": 3740,
      "▁animal": 3741,
      "▁leaders": 3742,
      "iqu": 3743,
      "fare": 3744,
      "▁rug": 3745,
      "▁wish": 3746,
      "▁lim": 3747,
      "▁gone": 3748,
      "ender": 3749,
      "▁institutions": 3750,
      "▁cir": 3751,
      "ven": 3752,
      "▁own": 3753,
      "▁‘’": 3754,
      "▁sea": 3755,
      "ication": 3756,
      "▁fund": 3757,
      "▁grab": 3758,
      "▁horses": 3759,
      "▁shower": 3760,
      "force": 3761,
      "ang": 3762,
      "ched": 3763,
      "▁pas": 3764,
      "▁terms": 3765,
      "▁sk": 3766,
      "gre": 3767,
      "-m": 3768,
      "▁lear": 3769,
      "▁treated": 3770,
      "▁activ": 3771,
      "io": 3772,
      ".c": 3773,
      "y": 3774,
      "▁lie": 3775,
      "acy": 3776,
      "ings": 3777,
      "ising": 3778,
      "▁pro": 3779,
      "ything": 3780,
      "▁games": 3781,
      "▁culture": 3782,
      "▁set": 3783,
      "▁pick": 3784,
      "▁getting": 3785,
      "▁att": 3786,
      "▁suit": 3787,
      "▁mr": 3788,
      "▁maj": 3789,
      "▁thanks": 3790,
      "▁after": 3791,
      "▁conc": 3792,
      "****": 3793,
      "▁arrive": 3794,
      "ue": 3795,
      "▁trou": 3796,
      "▁today": 3797,
      "▁followed": 3798,
      "ual": 3799,
      "…": 3800,
      "gation": 3801,
      "▁changing": 3802,
      "..": 3803,
      "▁audience": 3804,
      "nt": 3805,
      "art": 3806,
      "▁circum": 3807,
      "▁j": 3808,
      "▁milk": 3809,
      "ized": 3810,
      "artment": 3811,
      "ts": 3812,
      "▁polic": 3813,
      "▁hel": 3814,
      "orders": 3815,
      "▁himself": 3816,
      "▁meaning": 3817,
      "▁quite": 3818,
      "owers": 3819,
      "▁chees": 3820,
      "▁[...": 3821,
      "ault": 3822,
      "▁super": 3823,
      "▁caused": 3824,
      "▁<<": 3825,
      "▁ide": 3826,
      "▁coll": 3827,
      "▁oak": 3828,
      "▁telephone": 3829,
      "▁ch": 3830,
      "▁user": 3831,
      "▁source": 3832,
      "▁ca": 3833,
      "▁been": 3834,
      "▁fields": 3835,
      "▁training": 3836,
      "▁sounds": 3837,
      "▁program": 3838,
      "▁um": 3839,
      "▁esc": 3840,
      "▁action": 3841,
      "air": 3842,
      "▁employees": 3843,
      "▁underneath": 3844,
      "▁cli": 3845,
      "ile": 3846,
      "ute": 3847,
      "▁he": 3848,
      "utions": 3849,
      "▁manag": 3850,
      "▁into": 3851,
      "ection": 3852,
      "▁meal": 3853,
      "ables": 3854,
      "▁delivery": 3855,
      "▁it's": 3856,
      "▁states": 3857,
      "▁*****": 3858,
      "▁the": 3859,
      "ample": 3860,
      "chie": 3861,
      "▁coast": 3862,
      "amed": 3863,
      "▁why": 3864,
      "▁bug": 3865,
      "▁base": 3866,
      "▁cycle": 3867,
      "▁produc": 3868,
      "isl": 3869,
      "dge": 3870,
      "get": 3871,
      "▁---------------------------------------------------------------------------": 3872,
      "▁forgot": 3873,
      "▁eyes": 3874,
      "oring": 3875,
      "ions": 3876,
      "yp": 3877,
      "---------------": 3878,
      "ope": 3879,
      "▁atop": 3880,
      "▁day": 3881,
      "▁pulled": 3882,
      "enc": 3883,
      "▁back": 3884,
      "▁live": 3885,
      "▁poin": 3886,
      "▁asked": 3887,
      "▁conference": 3888,
      "▁protection": 3889,
      "▁we": 3890,
      "▁@": 3891,
      "▁article": 3892,
      "▁anal": 3893,
      "▁below": 3894,
      "ν": 3895,
      "▁spoke": 3896,
      "▁pup": 3897,
      "▁decide": 3898,
      "ancing": 3899,
      "alist": 3900,
      "ument": 3901,
      "▁age": 3902,
      "▁speci": 3903,
      "[UNK]": 3904,
      "▁francisco": 3905,
      "▁sold": 3906,
      "▁hosp": 3907,
      "▁heard": 3908,
      "▁notic": 3909,
      "▁carried": 3910,
      "▁gold": 3911,
      "▁assistance": 3912,
      "▁woman": 3913,
      "▁happen": 3914,
      "▁discus": 3915,
      "▁airplane": 3916,
      "▁feeling": 3917,
      "duction": 3918,
      "of": 3919,
      "▁ign": 3920,
      "ring": 3921,
      "▁breath": 3922,
      "▁steps": 3923,
      "▁different": 3924,
      "ume": 3925,
      "▁mus": 3926,
      "ains": 3927,
      "▁regard": 3928,
      "ocol": 3929,
      "▁prot": 3930,
      "▁-----": 3931,
      "▁oil": 3932,
      "▁rocks": 3933,
      "▁high": 3934,
      "▁susp": 3935,
      "▁assoc": 3936,
      "eces": 3937,
      "▁fo": 3938,
      "ones": 3939,
      "▁ask": 3940,
      "ea": 3941,
      "▁bunny": 3942,
      "iness": 3943,
      "▁middle": 3944,
      "aste": 3945,
      "ws": 3946,
      "▁cut": 3947,
      "▁critic": 3948,
      "mar": 3949,
      "▁hold": 3950,
      "▁following": 3951,
      "▁detail": 3952,
      "▁sandwic": 3953,
      "ternoon": 3954,
      "alth": 3955,
      "▁someth": 3956,
      "▁restric": 3957,
      "!": 3958,
      "▁pin": 3959,
      "▁whatever": 3960,
      "▁majority": 3961,
      "▁remember": 3962,
      "▁airlines": 3963,
      "▁op": 3964,
      "▁elections": 3965,
      "▁airlin": 3966,
      "ned": 3967,
      "otes": 3968,
      "▁tou": 3969,
      "▁influence": 3970,
      "▁right": 3971,
      "ar": 3972,
      "▁counterparty": 3973,
      "▁fl": 3974,
      "▁haf": 3975,
      "▁n’t": 3976,
      "▁request": 3977,
      "az": 3978,
      "▁=": 3979,
      "▁sept": 3980,
      "▁ass": 3981,
      "dle": 3982,
      "▁wal": 3983,
      "▁comes": 3984,
      "▁serv": 3985,
      "▁!!!!!": 3986,
      "▁en": 3987,
      "▁conn": 3988,
      "▁vol": 3989,
      "tain": 3990,
      "▁being": 3991,
      "▁placed": 3992,
      "▁sci": 3993,
      "▁appearance": 3994,
      "▁tro": 3995,
      "fri": 3996,
      "▁knoc": 3997,
      "▁le": 3998,
      "clock": 3999,
      "▁attemp": 4000,
      "----------------": 4001,
      "▁conce": 4002,
      "rol": 4003,
      "▁rent": 4004,
      "▁views": 4005,
      "▁poll": 4006,
      "▁september": 4007,
      "▁secon": 4008,
      "▁b/c": 4009,
      "▁prof": 4010,
      "case": 4011,
      "▁shirt": 4012,
      "▁color": 4013,
      "▁mechan": 4014,
      "▁emp": 4015,
      "▁lunch": 4016,
      "▁son": 4017,
      "str": 4018,
      "ocracy": 4019,
      "▁electric": 4020,
      "▁argu": 4021,
      "▁threat": 4022,
      "▁talk": 4023,
      "arly": 4024,
      "▁uh": 4025,
      "▁flowers": 4026,
      "▁doll": 4027,
      "▁policy": 4028,
      "▁egg": 4029,
      "▁atlan": 4030,
      "▁teacher": 4031,
      "both": 4032,
      "avor": 4033,
      "▁directive": 4034,
      "▁might": 4035,
      "ared": 4036,
      "atures": 4037,
      "▁only": 4038,
      "▁established": 4039,
      "▁acqui": 4040,
      "▁novel": 4041,
      "▁wash": 4042,
      "icul": 4043,
      "▁fall": 4044,
      "ight": 4045,
      "▁sle": 4046,
      "▁fish": 4047,
      "ashed": 4048,
      "▁k": 4049,
      "ments": 4050,
      "▁))": 4051,
      "▁for": 4052,
      "les": 4053,
      "▁doc": 4054,
      "▁ideas": 4055,
      "ologies": 4056,
      "hes": 4057,
      "▁farm": 4058,
      "time": 4059,
      "ember": 4060,
      "▁supp": 4061,
      "enty": 4062,
      "/he": 4063,
      "▁tried": 4064,
      "▁produce": 4065,
      "encies": 4066,
      "▁exec": 4067,
      "▁!!!!": 4068,
      "▁sa": 4069,
      "▁meet": 4070,
      "▁avoid": 4071,
      "em": 4072,
      "▁have": 4073,
      "▁boys": 4074,
      "ash": 4075,
      "ych": 4076,
      "▁instit": 4077,
      "▁incre": 4078,
      "oor": 4079,
      "orting": 4080,
      "aded": 4081,
      "▁students": 4082,
      "ino": 4083,
      "▁surround": 4084,
      "▁sister": 4085,
      "▁book": 4086,
      "▁until": 4087,
      "alities": 4088,
      "ell": 4089,
      "uzz": 4090,
      "▁vacation": 4091,
      "▁stuff": 4092,
      "`s": 4093,
      "▁’d": 4094,
      "▁languages": 4095
    },
    "merges": [
      [
        "▁da",
        "d"
      ],
      [
        "s",
        "s"
      ],
      [
        "▁num",
        "ber"
      ],
      [
        "▁bun",
        "ny"
      ],
      [
        "▁st",
        "at"
      ],
      [
        "▁a",
        "ud"
      ],
      [
        "▁th",
        "rou"
      ],
      [
        "▁s",
        "ell"
      ],
      [
        "▁p",
        "er"
      ],
      [
        "▁incl",
        "uding"
      ],
      [
        "▁plan",
        "e"
      ],
      [
        "▁nume",
        "rous"
      ],
      [
        "▁imple",
        "mentation"
      ],
      [
        "i",
        "s"
      ],
      [
        "▁kn",
        "ew"
      ],
      [
        "ain",
        "ed"
      ],
      [
        "▁da",
        "t"
      ],
      [
        "▁j",
        "u"
      ],
      [
        "▁dinos",
        "aur"
      ],
      [
        "▁co",
        "o"
      ],
      [
        "at",
        "er"
      ],
      [
        "▁f",
        "ol"
      ],
      [
        "▁c",
        "re"
      ],
      [
        "ac",
        "h"
      ],
      [
        "o",
        "o"
      ],
      [
        "▁l",
        "o"
      ],
      [
        "▁comm",
        "and"
      ],
      [
        "▁p",
        "ort"
      ],
      [
        "ti",
        "me"
      ],
      [
        "▁stre",
        "t"
      ],
      [
        ".",
        "c"
      ],
      [
        "ur",
        "ch"
      ],
      [
        "ad",
        "ed"
      ],
      [
        "▁rep",
        "orts"
      ],
      [
        "▁r",
        "ound"
      ],
      [
        "▁commun",
        "ity"
      ],
      [
        "j",
        "ect"
      ],
      [
        "op",
        "s"
      ],
      [
        "▁fam",
        "ily"
      ],
      [
        "▁c",
        "ash"
      ],
      [
        "▁im",
        "ag"
      ],
      [
        "l",
        "ation"
      ],
      [
        "▁know",
        "n"
      ],
      [
        "r",
        "ong"
      ],
      [
        "oin",
        "t"
      ],
      [
        "▁vide",
        "o"
      ],
      [
        "▁we",
        "ap"
      ],
      [
        "▁me",
        "et"
      ],
      [
        "▁r",
        "ice"
      ],
      [
        "▁:",
        "?"
      ],
      [
        "▁writ",
        "er"
      ],
      [
        "▁",
        "·"
      ],
      [
        "▁t",
        "w"
      ],
      [
        "▁s",
        "om"
      ],
      [
        "ing",
        "ton"
      ],
      [
        "▁wait",
        "ing"
      ],
      [
        "in",
        "ing"
      ],
      [
        "▁c",
        "or"
      ],
      [
        "▁par",
        "tic"
      ],
      [
        "ti",
        "on"
      ],
      [
        "▁an",
        "im"
      ],
      [
        "▁su",
        "ch"
      ],
      [
        "▁re",
        "port"
      ],
      [
        "▁",
        "ice"
      ],
      [
        "ap",
        "s"
      ],
      [
        "▁struc",
        "ture"
      ],
      [
        "▁",
        "ov"
      ],
      [
        "▁typ",
        "e"
      ],
      [
        "form",
        "ation"
      ],
      [
        "▁who",
        "m"
      ],
      [
        "▁w",
        "ol"
      ],
      [
        "▁rep",
        "resent"
      ],
      [
        "pl",
        "y"
      ],
      [
        "▁sp",
        "oke"
      ],
      [
        "▁fe",
        "et"
      ],
      [
        "▁r",
        "ec"
      ],
      [
        "▁per",
        "form"
      ],
      [
        "f",
        "are"
      ],
      [
        "an",
        "ce"
      ],
      [
        "▁airl",
        "ine"
      ],
      [
        "▁anim",
        "als"
      ],
      [
        "▁mech",
        "an"
      ],
      [
        "▁tele",
        "phone"
      ],
      [
        "he",
        "ad"
      ],
      [
        "'",
        "re"
      ],
      [
        "f",
        "f"
      ],
      [
        "c",
        "t"
      ],
      [
        "▁pro",
        "f"
      ],
      [
        "▁down",
        "town"
      ],
      [
        "▁employ",
        "ment"
      ],
      [
        "i",
        "ated"
      ],
      [
        "▁a",
        "t"
      ],
      [
        "▁get",
        "s"
      ],
      [
        "▁m",
        "ount"
      ],
      [
        "ar",
        "s"
      ],
      [
        "ur",
        "es"
      ],
      [
        "▁l",
        "es"
      ],
      [
        "▁avo",
        "id"
      ],
      [
        "▁inc",
        "lu"
      ],
      [
        "▁du",
        "ring"
      ],
      [
        "ear",
        "ed"
      ],
      [
        "or",
        "ts"
      ],
      [
        "rou",
        "nd"
      ],
      [
        "o",
        "se"
      ],
      [
        "ov",
        "e"
      ],
      [
        "x",
        "t"
      ],
      [
        "▁e",
        "very"
      ],
      [
        "▁o",
        "r"
      ],
      [
        "▁un",
        "e"
      ],
      [
        "am",
        "es"
      ],
      [
        "rib",
        "uted"
      ],
      [
        "▁b",
        "us"
      ],
      [
        "▁d",
        "ie"
      ],
      [
        "▁d",
        "ey"
      ],
      [
        "▁wi",
        "l"
      ],
      [
        "▁bi",
        "ke"
      ],
      [
        "ocr",
        "acy"
      ],
      [
        "▁is",
        "land"
      ],
      [
        "▁grand",
        "m"
      ],
      [
        "▁fl",
        "y"
      ],
      [
        "e",
        "th"
      ],
      [
        "ill",
        "s"
      ],
      [
        "▁ve",
        "hic"
      ],
      [
        "▁help",
        "s"
      ],
      [
        "▁m",
        "ili"
      ],
      [
        "ro",
        "w"
      ],
      [
        "re",
        "n"
      ],
      [
        "k",
        "e"
      ],
      [
        "u",
        "l"
      ],
      [
        "▁f",
        "i"
      ],
      [
        "▁th",
        "ings"
      ],
      [
        "ur",
        "s"
      ],
      [
        "▁",
        "ide"
      ],
      [
        "o",
        "s"
      ],
      [
        "tern",
        "oon"
      ],
      [
        "b",
        "on"
      ],
      [
        "▁det",
        "er"
      ],
      [
        "▁fiel",
        "ds"
      ],
      [
        "▁b",
        "lan"
      ],
      [
        "▁car",
        "ry"
      ],
      [
        "▁go",
        "ne"
      ],
      [
        "▁m",
        "ay"
      ],
      [
        "▁ev",
        "ery"
      ],
      [
        "i",
        "ence"
      ],
      [
        "**",
        "**"
      ],
      [
        "▁pas",
        "sed"
      ],
      [
        "▁m",
        "ur"
      ],
      [
        "▁re",
        "ally"
      ],
      [
        "am",
        "s"
      ],
      [
        "▁b",
        "ri"
      ],
      [
        "▁citiz",
        "ens"
      ],
      [
        "▁l",
        "ack"
      ],
      [
        "id",
        "ents"
      ],
      [
        "▁en",
        "v"
      ],
      [
        "▁re",
        "c"
      ],
      [
        "▁c",
        "up"
      ],
      [
        "▁",
        "um"
      ],
      [
        "▁mean",
        "ing"
      ],
      [
        "r",
        "ide"
      ],
      [
        "▁b",
        "an"
      ],
      [
        "▁r",
        "educ"
      ],
      [
        "▁|",
        "--------+----------------"
      ],
      [
        "a",
        "m"
      ],
      [
        "cro",
        "ss"
      ],
      [
        "▁gr",
        "and"
      ],
      [
        "▁ret",
        "urn"
      ],
      [
        "▁pro",
        "ce"
      ],
      [
        "▁s",
        "a"
      ],
      [
        "a",
        "b"
      ],
      [
        "▁mo",
        "st"
      ],
      [
        "▁non",
        "stop"
      ],
      [
        "▁i",
        "s"
      ],
      [
        "▁w",
        "i"
      ],
      [
        "ang",
        "es"
      ],
      [
        "▁ch",
        "anges"
      ],
      [
        "▁",
        "orders"
      ],
      [
        "l",
        "ic"
      ],
      [
        "u",
        "me"
      ],
      [
        "▁c",
        "r"
      ],
      [
        "▁dep",
        "art"
      ],
      [
        "▁polic",
        "y"
      ],
      [
        "▁st",
        "anding"
      ],
      [
        "▁rul",
        "es"
      ],
      [
        "l",
        "a"
      ],
      [
        "▁c",
        "ut"
      ],
      [
        "▁d",
        "e"
      ],
      [
        "▁d",
        "id"
      ],
      [
        "en",
        "ces"
      ],
      [
        "▁pl",
        "aces"
      ],
      [
        "▁wh",
        "y"
      ],
      [
        "▁happen",
        "ed"
      ],
      [
        "▁r",
        "ocks"
      ],
      [
        "▁sp",
        "ider"
      ],
      [
        "end",
        "ing"
      ],
      [
        "our",
        "n"
      ],
      [
        "▁sle",
        "ep"
      ],
      [
        "if",
        "f"
      ],
      [
        "▁sh",
        "are"
      ],
      [
        "▁ca",
        "use"
      ],
      [
        "▁c",
        "ateg"
      ],
      [
        "▁p",
        "ub"
      ],
      [
        "▁ever",
        "ybody"
      ],
      [
        "▁ca",
        "ught"
      ],
      [
        "▁d",
        "irt"
      ],
      [
        "▁.......",
        "........"
      ],
      [
        "▁sh",
        "ut"
      ],
      [
        "▁suc",
        "cess"
      ],
      [
        "▁minut",
        "es"
      ],
      [
        "▁b",
        "est"
      ],
      [
        "▁!",
        "!!"
      ],
      [
        "********",
        "********"
      ],
      [
        "▁dis",
        "p"
      ],
      [
        "a",
        "ir"
      ],
      [
        "o",
        "ard"
      ],
      [
        "▁ro",
        "ad"
      ],
      [
        "u",
        "ts"
      ],
      [
        "ap",
        "ers"
      ],
      [
        "▁air",
        "lin"
      ],
      [
        "▁h",
        "om"
      ],
      [
        "m",
        "e"
      ],
      [
        "▁t",
        "ar"
      ],
      [
        "▁bu",
        "y"
      ],
      [
        "g",
        "h"
      ],
      [
        "um",
        "ents"
      ],
      [
        "us",
        "h"
      ],
      [
        "▁dri",
        "ving"
      ],
      [
        "▁m",
        "os"
      ],
      [
        "▁s",
        "o"
      ],
      [
        "▁?",
        "!"
      ],
      [
        "▁un",
        "d"
      ],
      [
        "os",
        "s"
      ],
      [
        "ce",
        "ed"
      ],
      [
        "▁ap",
        "artment"
      ],
      [
        "▁administ",
        "ration"
      ],
      [
        "▁mis",
        "sed"
      ],
      [
        "▁g",
        "r"
      ],
      [
        "l",
        "o"
      ],
      [
        "al",
        "e"
      ],
      [
        "an",
        "k"
      ],
      [
        "▁num",
        "bers"
      ],
      [
        "ti",
        "c"
      ],
      [
        "▁fi",
        "ll"
      ],
      [
        "▁ma",
        "y"
      ],
      [
        "er",
        "ed"
      ],
      [
        "ak",
        "ing"
      ],
      [
        "▁to",
        "u"
      ],
      [
        "▁cons",
        "um"
      ],
      [
        "▁acc",
        "ident"
      ],
      [
        "▁co",
        "m"
      ],
      [
        "▁c",
        "le"
      ],
      [
        "▁b",
        "ill"
      ],
      [
        "▁s",
        "ent"
      ],
      [
        "▁serv",
        "ice"
      ],
      [
        "▁w",
        "eb"
      ],
      [
        "▁respon",
        "se"
      ],
      [
        "ou",
        "r"
      ],
      [
        "▁s",
        "il"
      ],
      [
        "an",
        "ding"
      ],
      [
        "olog",
        "y"
      ],
      [
        "▁p",
        "ath"
      ],
      [
        "▁per",
        "cent"
      ],
      [
        "pl",
        "ace"
      ],
      [
        "▁ad",
        "min"
      ],
      [
        "▁for",
        "ce"
      ],
      [
        "▁de",
        "spite"
      ],
      [
        "e",
        "ad"
      ],
      [
        "▁c",
        "ha"
      ],
      [
        "▁li",
        "ves"
      ],
      [
        "▁m",
        "ed"
      ],
      [
        "▁",
        "—"
      ],
      [
        "▁di",
        "st"
      ],
      [
        "▁grow",
        "th"
      ],
      [
        "u",
        "led"
      ],
      [
        "▁j",
        "o"
      ],
      [
        "ere",
        "nt"
      ],
      [
        "▁f",
        "eel"
      ],
      [
        "at",
        "ion"
      ],
      [
        "▁th",
        "ou"
      ],
      [
        "▁transport",
        "ation"
      ],
      [
        "*",
        "*"
      ],
      [
        "’",
        "s"
      ],
      [
        "in",
        "ds"
      ],
      [
        "▁f",
        "urn"
      ],
      [
        "▁in",
        "formation"
      ],
      [
        "h",
        "ip"
      ],
      [
        "w",
        "or"
      ],
      [
        "▁dam",
        "age"
      ],
      [
        "▁mess",
        "age"
      ],
      [
        "ol",
        "es"
      ],
      [
        "▁r",
        "ul"
      ],
      [
        "t",
        "a"
      ],
      [
        "▁ha",
        "pp"
      ],
      [
        "re",
        "d"
      ],
      [
        "▁w",
        "atch"
      ],
      [
        "▁airl",
        "ines"
      ],
      [
        "▁develop",
        "ing"
      ],
      [
        "▁",
        "re"
      ],
      [
        "m",
        "al"
      ],
      [
        "▁cle",
        "an"
      ],
      [
        "▁fl",
        "oor"
      ],
      [
        "i",
        "ver"
      ],
      [
        "z",
        "e"
      ],
      [
        "le",
        "d"
      ],
      [
        "▁st",
        "ation"
      ],
      [
        "▁cl",
        "a"
      ],
      [
        "▁f",
        "ire"
      ],
      [
        "▁phot",
        "ograph"
      ],
      [
        "▁no",
        "vel"
      ],
      [
        "re",
        "t"
      ],
      [
        "▁gr",
        "oup"
      ],
      [
        "▁tr",
        "ain"
      ],
      [
        "▁id",
        "ent"
      ],
      [
        "▁continu",
        "ed"
      ],
      [
        "▁de",
        "al"
      ],
      [
        "c",
        "ri"
      ],
      [
        "f",
        "er"
      ],
      [
        "▁disc",
        "uss"
      ],
      [
        "▁m",
        "ake"
      ],
      [
        "▁for",
        "g"
      ],
      [
        "▁",
        "or"
      ],
      [
        "▁st",
        "ep"
      ],
      [
        "▁",
        "1"
      ],
      [
        "▁d",
        "iv"
      ],
      [
        "or",
        "ation"
      ],
      [
        "▁l",
        "ess"
      ],
      [
        "u",
        "h"
      ],
      [
        "▁ord",
        "er"
      ],
      [
        "▁uh",
        "huh"
      ],
      [
        "▁at",
        "mos"
      ],
      [
        "▁view",
        "s"
      ],
      [
        "▁pl",
        "ay"
      ],
      [
        "????????????????",
        "????????????????"
      ],
      [
        "▁ar",
        "ea"
      ],
      [
        "▁e",
        "ither"
      ],
      [
        "r",
        "or"
      ],
      [
        "en",
        "d"
      ],
      [
        "▁a",
        "ll"
      ],
      [
        "▁g",
        "un"
      ],
      [
        "duc",
        "tion"
      ],
      [
        "▁seem",
        "s"
      ],
      [
        "s",
        "e"
      ],
      [
        "▁jo",
        "b"
      ],
      [
        "h",
        "es"
      ],
      [
        "o",
        "te"
      ],
      [
        "▁e",
        "c"
      ],
      [
        "▁langu",
        "ages"
      ],
      [
        "▁har",
        "ry"
      ],
      [
        "i",
        "pped"
      ],
      [
        "▁regard",
        "s"
      ],
      [
        "et",
        "te"
      ],
      [
        "▁hear",
        "t"
      ],
      [
        "▁p",
        "aint"
      ],
      [
        "uc",
        "k"
      ],
      [
        "▁>",
        ">"
      ],
      [
        "▁exp",
        "ected"
      ],
      [
        "▁ac",
        "c"
      ],
      [
        "er",
        "ved"
      ],
      [
        "er",
        "ences"
      ],
      [
        "▁man",
        "ner"
      ],
      [
        "i",
        "e"
      ],
      [
        "▁o",
        "ther"
      ],
      [
        "it",
        "led"
      ],
      [
        "al",
        "t"
      ],
      [
        "r",
        "ax"
      ],
      [
        "sel",
        "f"
      ],
      [
        "ligh",
        "t"
      ],
      [
        "▁jun",
        "e"
      ],
      [
        "ac",
        "es"
      ],
      [
        "▁t",
        "on"
      ],
      [
        "▁stud",
        "ent"
      ],
      [
        "▁one",
        "s"
      ],
      [
        "▁comp",
        "etition"
      ],
      [
        "▁n",
        "ap"
      ],
      [
        "▁fin",
        "ished"
      ],
      [
        "▁bab",
        "y"
      ],
      [
        "▁o",
        "thers"
      ],
      [
        "op",
        "e"
      ],
      [
        "t",
        "ered"
      ],
      [
        "ri",
        "age"
      ],
      [
        "▁ho",
        "le"
      ],
      [
        "▁c",
        "ar"
      ],
      [
        "ul",
        "y"
      ],
      [
        "▁o",
        "ne"
      ],
      [
        "ul",
        "ations"
      ],
      [
        "bo",
        "dy"
      ],
      [
        "▁y",
        "o"
      ],
      [
        "▁tal",
        "k"
      ],
      [
        "ber",
        "ry"
      ],
      [
        "ent",
        "i"
      ],
      [
        "ure",
        "d"
      ],
      [
        "▁regar",
        "d"
      ],
      [
        "▁mu",
        "ch"
      ],
      [
        "▁bro",
        "ke"
      ],
      [
        "r",
        "ew"
      ],
      [
        "▁-",
        "----"
      ],
      [
        "▁g",
        "old"
      ],
      [
        "a",
        "ign"
      ],
      [
        "alt",
        "h"
      ],
      [
        "o",
        "ver"
      ],
      [
        "ap",
        "e"
      ],
      [
        "ir",
        "e"
      ],
      [
        "d",
        "ay"
      ],
      [
        "▁",
        "up"
      ],
      [
        "ec",
        "tions"
      ],
      [
        "g",
        "ency"
      ],
      [
        "iz",
        "ing"
      ],
      [
        "▁neighb",
        "or"
      ],
      [
        "ens",
        "e"
      ],
      [
        "▁langu",
        "age"
      ],
      [
        "▁for",
        "k"
      ],
      [
        "e",
        "i"
      ],
      [
        "▁bir",
        "d"
      ],
      [
        "▁mo",
        "de"
      ],
      [
        "ur",
        "n"
      ],
      [
        "z",
        "z"
      ],
      [
        "o",
        "n"
      ],
      [
        "f",
        "orm"
      ],
      [
        "i",
        "ff"
      ],
      [
        "in",
        "es"
      ],
      [
        "d",
        "y"
      ],
      [
        "▁..",
        "."
      ],
      [
        "a",
        "med"
      ],
      [
        "ar",
        "e"
      ],
      [
        "▁dec",
        "ision"
      ],
      [
        "▁s",
        "ee"
      ],
      [
        "▁h",
        "ands"
      ],
      [
        "▁",
        "f"
      ],
      [
        "▁c",
        "oun"
      ],
      [
        "▁h",
        "our"
      ],
      [
        "▁ti",
        "ger"
      ],
      [
        "▁p",
        "iz"
      ],
      [
        "it",
        "h"
      ],
      [
        "▁s",
        "m"
      ],
      [
        "▁sti",
        "ll"
      ],
      [
        "▁li",
        "m"
      ],
      [
        "r",
        "up"
      ],
      [
        "▁say",
        "ing"
      ],
      [
        "u",
        "ation"
      ],
      [
        "t",
        "s"
      ],
      [
        "▁hors",
        "ie"
      ],
      [
        "en",
        "ti"
      ],
      [
        "▁a",
        "v"
      ],
      [
        "▁ind",
        "epend"
      ],
      [
        "▁lear",
        "n"
      ],
      [
        "o",
        "zer"
      ],
      [
        "▁f",
        "ig"
      ],
      [
        "▁kn",
        "ow"
      ],
      [
        "pp",
        "ing"
      ],
      [
        "▁fail",
        "ed"
      ],
      [
        "▁sec",
        "t"
      ],
      [
        "▁sup",
        "er"
      ],
      [
        "▁g",
        "ar"
      ],
      [
        "▁i",
        "n"
      ],
      [
        "▁im",
        "p"
      ],
      [
        "▁y",
        "our"
      ],
      [
        "▁t",
        "alk"
      ],
      [
        "▁sug",
        "ar"
      ],
      [
        "▁le",
        "t"
      ],
      [
        "a",
        "y"
      ],
      [
        "i",
        "al"
      ],
      [
        "ee",
        "p"
      ],
      [
        "▁put",
        "ting"
      ],
      [
        "oun",
        "ced"
      ],
      [
        "▁h",
        "ot"
      ],
      [
        "w",
        "w"
      ],
      [
        "▁a",
        "p"
      ],
      [
        "▁m",
        "ist"
      ],
      [
        "in",
        "s"
      ],
      [
        "▁mus",
        "ic"
      ],
      [
        "▁e",
        "uro"
      ],
      [
        "um",
        "my"
      ],
      [
        "l",
        "ers"
      ],
      [
        "ur",
        "e"
      ],
      [
        "▁wed",
        "nesday"
      ],
      [
        "▁l",
        "e"
      ],
      [
        "▁med",
        "ia"
      ],
      [
        "▁",
        "ex"
      ],
      [
        "▁g",
        "iving"
      ],
      [
        "ol",
        "ution"
      ],
      [
        "▁ba",
        "ck"
      ],
      [
        "▁penc",
        "il"
      ],
      [
        "▁s",
        "ame"
      ],
      [
        "▁bl",
        "an"
      ],
      [
        "▁expos",
        "ure"
      ],
      [
        "▁mu",
        "s"
      ],
      [
        "▁v",
        "er"
      ],
      [
        "i",
        "z"
      ],
      [
        "am",
        "e"
      ],
      [
        "▁s",
        "el"
      ],
      [
        "▁step",
        "s"
      ],
      [
        "an",
        "ced"
      ],
      [
        "▁b",
        "ring"
      ],
      [
        "s",
        "t"
      ],
      [
        "▁st",
        "o"
      ],
      [
        "▁meas",
        "ures"
      ],
      [
        "▁w",
        "ere"
      ],
      [
        "▁c",
        "l"
      ],
      [
        "▁cr",
        "is"
      ],
      [
        "▁",
        "w"
      ],
      [
        "▁ha",
        "s"
      ],
      [
        "▁f",
        "ac"
      ],
      [
        "▁b",
        "unch"
      ],
      [
        "▁a",
        "ct"
      ],
      [
        "▁them",
        "selves"
      ],
      [
        "g",
        "o"
      ],
      [
        "▁",
        "round"
      ],
      [
        "▁resp",
        "ond"
      ],
      [
        "▁",
        "le"
      ],
      [
        "i",
        "t"
      ],
      [
        "▁att",
        "r"
      ],
      [
        "▁pr",
        "op"
      ],
      [
        "um",
        "b"
      ],
      [
        "for",
        "m"
      ],
      [
        "▁open",
        "ed"
      ],
      [
        "▁d",
        "am"
      ],
      [
        "▁ha",
        "lf"
      ],
      [
        "▁te",
        "eth"
      ],
      [
        ".",
        "m"
      ],
      [
        "▁co",
        "ff"
      ],
      [
        "▁f",
        "re"
      ],
      [
        "▁t",
        "h"
      ],
      [
        "▁requ",
        "est"
      ],
      [
        "in",
        "ated"
      ],
      [
        "▁em",
        "b"
      ],
      [
        "▁v",
        "et"
      ],
      [
        "▁con",
        "se"
      ],
      [
        "▁_____",
        "__"
      ],
      [
        "▁review",
        "s"
      ],
      [
        "▁ne",
        "xt"
      ],
      [
        "▁blan",
        "ket"
      ],
      [
        "▁",
        "\""
      ],
      [
        "▁g",
        "en"
      ],
      [
        "▁in",
        "v"
      ],
      [
        "u",
        "ro"
      ],
      [
        "--------",
        "--"
      ],
      [
        "▁mov",
        "ie"
      ],
      [
        "d",
        "ed"
      ],
      [
        "▁r",
        "un"
      ],
      [
        "it",
        "ation"
      ],
      [
        "▁infl",
        "u"
      ],
      [
        "▁be",
        "g"
      ],
      [
        "c",
        "er"
      ],
      [
        "▁pl",
        "ace"
      ],
      [
        "ac",
        "ter"
      ],
      [
        "▁it",
        "s"
      ],
      [
        "▁b",
        "ub"
      ],
      [
        "▁f",
        "or"
      ],
      [
        "s",
        "ed"
      ],
      [
        "on",
        "y"
      ],
      [
        "▁n",
        "et"
      ],
      [
        "▁",
        "…"
      ],
      [
        "ir",
        "t"
      ],
      [
        "i",
        "od"
      ],
      [
        "▁arg",
        "ument"
      ],
      [
        "▁min",
        "e"
      ],
      [
        "▁arri",
        "ving"
      ],
      [
        "▁us",
        "es"
      ],
      [
        "el",
        "ines"
      ],
      [
        "▁who",
        "ever"
      ],
      [
        "▁!!!!!!!",
        "!!!"
      ],
      [
        "▁d",
        "ri"
      ],
      [
        "▁app",
        "ointment"
      ],
      [
        "▁com",
        "mit"
      ],
      [
        "▁g",
        "l"
      ],
      [
        "g",
        "es"
      ],
      [
        "ur",
        "al"
      ],
      [
        "us",
        "es"
      ],
      [
        "b",
        "o"
      ],
      [
        "▁",
        "g"
      ],
      [
        "▁c",
        "on"
      ],
      [
        "i",
        "ed"
      ],
      [
        "▁",
        "both"
      ],
      [
        "os",
        "e"
      ],
      [
        "▁sched",
        "ule"
      ],
      [
        "▁o",
        "ak"
      ],
      [
        "▁be",
        "neath"
      ],
      [
        "▁w",
        "ash"
      ],
      [
        "ar",
        "t"
      ],
      [
        "▁o",
        "ld"
      ],
      [
        "▁t",
        "u"
      ],
      [
        "▁b",
        "ite"
      ],
      [
        "▁pl",
        "enty"
      ],
      [
        "▁f",
        "ax"
      ],
      [
        "▁produc",
        "ts"
      ],
      [
        "▁play",
        "s"
      ],
      [
        "ou",
        "l"
      ],
      [
        "▁w",
        "or"
      ],
      [
        "▁minut",
        "e"
      ],
      [
        "▁rest",
        "ric"
      ],
      [
        "▁par",
        "ties"
      ],
      [
        "▁activ",
        "ity"
      ],
      [
        "b",
        "ably"
      ],
      [
        "o",
        "d"
      ],
      [
        "▁l",
        "oss"
      ],
      [
        "m",
        "an"
      ],
      [
        "▁ma",
        "g"
      ],
      [
        "i",
        "ve"
      ],
      [
        "▁fi",
        "lled"
      ],
      [
        "▁pr",
        "in"
      ],
      [
        "▁m",
        "ar"
      ],
      [
        "v",
        "ision"
      ],
      [
        "▁'",
        "s"
      ],
      [
        "al",
        "f"
      ],
      [
        "us",
        "s"
      ],
      [
        "▁h",
        "as"
      ],
      [
        "▁be",
        "yond"
      ],
      [
        "▁st",
        "ories"
      ],
      [
        "▁pri",
        "ce"
      ],
      [
        "▁man",
        "y"
      ],
      [
        "ch",
        "ie"
      ],
      [
        "▁serv",
        "ices"
      ],
      [
        "▁b",
        "ath"
      ],
      [
        "mit",
        "ted"
      ],
      [
        "▁hund",
        "reds"
      ],
      [
        "▁d",
        "est"
      ],
      [
        "o",
        "t"
      ],
      [
        "▁piv",
        "ottable"
      ],
      [
        "w",
        "ar"
      ],
      [
        "ke",
        "ts"
      ],
      [
        "▁t",
        "ell"
      ],
      [
        "▁",
        "ord"
      ],
      [
        "▁is",
        "l"
      ],
      [
        "t",
        "i"
      ],
      [
        "▁g",
        "on"
      ],
      [
        "▁re",
        "m"
      ],
      [
        "▁co",
        "operation"
      ],
      [
        "▁fro",
        "m"
      ],
      [
        "ar",
        "ed"
      ],
      [
        "▁m",
        "is"
      ],
      [
        "▁be",
        "ar"
      ],
      [
        "▁ri",
        "ght"
      ],
      [
        "▁ins",
        "ide"
      ],
      [
        "▁e",
        "-m"
      ],
      [
        "▁n",
        "ow"
      ],
      [
        "▁h",
        "el"
      ],
      [
        "▁o",
        "h"
      ],
      [
        "ro",
        "u"
      ],
      [
        "▁prac",
        "tice"
      ],
      [
        "i",
        "red"
      ],
      [
        "▁",
        "plus"
      ],
      [
        "▁.......",
        "..."
      ],
      [
        "igh",
        "ts"
      ],
      [
        "▁consid",
        "ered"
      ],
      [
        "▁re",
        "as"
      ],
      [
        "▁ind",
        "ic"
      ],
      [
        "-",
        "m"
      ],
      [
        "▁bul",
        "ld"
      ],
      [
        "ic",
        "ul"
      ],
      [
        "▁su",
        "icide"
      ],
      [
        "▁cre",
        "ated"
      ],
      [
        "▁st",
        "ated"
      ],
      [
        "▁c",
        "orn"
      ],
      [
        "▁dec",
        "isions"
      ],
      [
        "▁spec",
        "i"
      ],
      [
        "j",
        "o"
      ],
      [
        "▁m",
        "in"
      ],
      [
        "▁t",
        "om"
      ],
      [
        "a",
        "ke"
      ],
      [
        "▁s",
        "elf"
      ],
      [
        "▁sept",
        "ember"
      ],
      [
        "▁aug",
        "ust"
      ],
      [
        "▁eng",
        "ine"
      ],
      [
        "▁",
        "k"
      ],
      [
        "▁f",
        "ut"
      ],
      [
        "-",
        "-"
      ],
      [
        "▁help",
        "ed"
      ],
      [
        "▁st",
        "ood"
      ],
      [
        "▁saf",
        "ety"
      ],
      [
        "▁gu",
        "y"
      ],
      [
        "▁th",
        "ink"
      ],
      [
        "ad",
        "ing"
      ],
      [
        "▁c",
        "li"
      ],
      [
        "▁sour",
        "ces"
      ],
      [
        "▁re",
        "lig"
      ],
      [
        "▁ch",
        "ec"
      ],
      [
        "▁instit",
        "utions"
      ],
      [
        "▁an",
        "oder"
      ],
      [
        "ol",
        "e"
      ],
      [
        "▁dat",
        "a"
      ],
      [
        "▁r",
        "is"
      ],
      [
        "en",
        "ce"
      ],
      [
        "▁sha",
        "ll"
      ],
      [
        "u",
        "es"
      ],
      [
        "▁ho",
        "me"
      ],
      [
        "a",
        "r"
      ],
      [
        "▁m",
        "en"
      ],
      [
        "▁ques",
        "tions"
      ],
      [
        "▁lo",
        "ts"
      ],
      [
        "am",
        "ed"
      ],
      [
        "▁among",
        "st"
      ],
      [
        "▁cond",
        "itions"
      ],
      [
        "is",
        "ting"
      ],
      [
        "▁",
        "~"
      ],
      [
        "▁res",
        "t"
      ],
      [
        "es",
        "ting"
      ],
      [
        "▁q",
        "u"
      ],
      [
        "▁w",
        "r"
      ],
      [
        "▁cont",
        "e"
      ],
      [
        "▁butt",
        "ons"
      ],
      [
        "o",
        "ve"
      ],
      [
        "▁sc",
        "re"
      ],
      [
        "▁repres",
        "ent"
      ],
      [
        "ati",
        "ve"
      ],
      [
        "oo",
        "l"
      ],
      [
        "▁gen",
        "er"
      ],
      [
        "▁c",
        "h"
      ],
      [
        "ov",
        "er"
      ],
      [
        "a",
        "q"
      ],
      [
        "ent",
        "y"
      ],
      [
        "▁doc",
        "ument"
      ],
      [
        "▁he",
        "at"
      ],
      [
        "▁h",
        "und"
      ],
      [
        "▁",
        "if"
      ],
      [
        "os",
        "t"
      ],
      [
        "▁innov",
        "ation"
      ],
      [
        "▁enjoy",
        "ed"
      ],
      [
        "em",
        "a"
      ],
      [
        "▁be",
        "en"
      ],
      [
        "▁mos",
        "qu"
      ],
      [
        "t",
        "ie"
      ],
      [
        "ti",
        "m"
      ],
      [
        "▁deb",
        "ate"
      ],
      [
        "u",
        "s"
      ],
      [
        "▁cust",
        "om"
      ],
      [
        "▁",
        ":"
      ],
      [
        "▁s",
        "ay"
      ],
      [
        "res",
        "ent"
      ],
      [
        "as",
        "ure"
      ],
      [
        "▁m",
        "at"
      ],
      [
        "ac",
        "ked"
      ],
      [
        "n",
        "y"
      ],
      [
        "▁de",
        "v"
      ],
      [
        "e",
        "y"
      ],
      [
        "▁s",
        "ur"
      ],
      [
        "k",
        "er"
      ],
      [
        "v",
        "ement"
      ],
      [
        "▁t",
        "ro"
      ],
      [
        "▁build",
        "ings"
      ],
      [
        "▁'",
        "em"
      ],
      [
        "▁)",
        ")"
      ],
      [
        "▁di",
        "s"
      ],
      [
        "or",
        "m"
      ],
      [
        "m",
        "p"
      ],
      [
        "▁us",
        "ers"
      ],
      [
        "r",
        "et"
      ],
      [
        "▁egg",
        "s"
      ],
      [
        "▁c",
        "iti"
      ],
      [
        "it",
        "ch"
      ],
      [
        "h",
        "e"
      ],
      [
        "▁spr",
        "ing"
      ],
      [
        "▁mis",
        "s"
      ],
      [
        "ot",
        "ed"
      ],
      [
        "▁e",
        "mer"
      ],
      [
        "ott",
        "able"
      ],
      [
        "▁s",
        "al"
      ],
      [
        "▁",
        "very"
      ],
      [
        "og",
        "n"
      ],
      [
        "y",
        "et"
      ],
      [
        "▁de",
        "p"
      ],
      [
        "▁poin",
        "ts"
      ],
      [
        "▁pro",
        "pos"
      ],
      [
        "i",
        "an"
      ],
      [
        "▁wh",
        "at"
      ],
      [
        "▁sci",
        "enti"
      ],
      [
        "▁",
        "im"
      ],
      [
        "▁’",
        "re"
      ],
      [
        "l",
        "ish"
      ],
      [
        "▁be",
        "at"
      ],
      [
        "▁bl",
        "ock"
      ],
      [
        "▁j",
        "uly"
      ],
      [
        "in",
        "n"
      ],
      [
        "▁y",
        "ester"
      ],
      [
        "c",
        "ing"
      ],
      [
        "’",
        "t"
      ],
      [
        "ac",
        "e"
      ],
      [
        "▁t",
        "own"
      ],
      [
        "▁",
        "it"
      ],
      [
        "ail",
        "s"
      ],
      [
        "▁butt",
        "on"
      ],
      [
        "▁a",
        "ss"
      ],
      [
        "▁beside",
        "s"
      ],
      [
        "▁",
        "whether"
      ],
      [
        "▁char",
        "acter"
      ],
      [
        "▁read",
        "ing"
      ],
      [
        "ei",
        "ther"
      ],
      [
        "k",
        "et"
      ],
      [
        "▁tr",
        "ou"
      ],
      [
        "i",
        "ll"
      ],
      [
        "ab",
        "les"
      ],
      [
        "▁sal",
        "es"
      ],
      [
        "▁hi",
        "gh"
      ],
      [
        "▁j",
        "ud"
      ],
      [
        "▁ch",
        "ange"
      ],
      [
        "t",
        "e"
      ],
      [
        "▁gu",
        "ys"
      ],
      [
        "▁d",
        "er"
      ],
      [
        "▁fiel",
        "d"
      ],
      [
        "▁wh",
        "ile"
      ],
      [
        "b",
        "b"
      ],
      [
        "▁",
        "ou"
      ],
      [
        "▁pl",
        "ants"
      ],
      [
        "eti",
        "tion"
      ],
      [
        "▁respons",
        "ibility"
      ],
      [
        "▁r",
        "ule"
      ],
      [
        "▁",
        "="
      ],
      [
        "bo",
        "ard"
      ],
      [
        "▁bel",
        "ie"
      ],
      [
        "ol",
        "d"
      ],
      [
        "r",
        "it"
      ],
      [
        "▁for",
        "war"
      ],
      [
        "▁g",
        "ames"
      ],
      [
        "▁ref",
        "l"
      ],
      [
        "ec",
        "ting"
      ],
      [
        "▁s",
        "t"
      ],
      [
        "▁ass",
        "oc"
      ],
      [
        "▁c",
        "ell"
      ],
      [
        "b",
        "ers"
      ],
      [
        "▁op",
        "ening"
      ],
      [
        "▁in",
        "st"
      ],
      [
        "w",
        "ork"
      ],
      [
        "▁off",
        "ered"
      ],
      [
        "ess",
        "ion"
      ],
      [
        "in",
        "e"
      ],
      [
        "r",
        "ou"
      ],
      [
        "▁fing",
        "ers"
      ],
      [
        "▁gar",
        "age"
      ],
      [
        "▁",
        "'s"
      ],
      [
        "▁",
        "'"
      ],
      [
        "e",
        "re"
      ],
      [
        "m",
        "er"
      ],
      [
        "a",
        "g"
      ],
      [
        "▁s",
        "af"
      ],
      [
        "▁t",
        "o"
      ],
      [
        "▁wa",
        "it"
      ],
      [
        "▁me",
        "m"
      ],
      [
        "it",
        "s"
      ],
      [
        "▁co",
        "mp"
      ],
      [
        "▁p",
        "i"
      ],
      [
        "ali",
        "sm"
      ],
      [
        "▁wan",
        "t"
      ],
      [
        "▁san",
        "d"
      ],
      [
        "es",
        "day"
      ],
      [
        "▁n",
        "eck"
      ],
      [
        "▁d",
        "et"
      ],
      [
        "▁den",
        "ver"
      ],
      [
        "o",
        "mp"
      ],
      [
        "▁e",
        "m"
      ],
      [
        "at",
        "ional"
      ],
      [
        "▁sc",
        "r"
      ],
      [
        "▁give",
        "n"
      ],
      [
        "▁bl",
        "ow"
      ],
      [
        "at",
        "ive"
      ],
      [
        "▁o",
        "bs"
      ],
      [
        "ul",
        "ar"
      ],
      [
        "▁me",
        "as"
      ],
      [
        "▁c",
        "om"
      ],
      [
        "▁st",
        "ates"
      ],
      [
        "o",
        "f"
      ],
      [
        "▁n",
        "ature"
      ],
      [
        "▁en",
        "sure"
      ],
      [
        "ist",
        "s"
      ],
      [
        "▁ou",
        "r"
      ],
      [
        "▁fix",
        "ed"
      ],
      [
        "▁t",
        "ent"
      ],
      [
        "▁e",
        "ars"
      ],
      [
        "▁con",
        "n"
      ],
      [
        "▁t",
        "il"
      ],
      [
        "▁jo",
        "ke"
      ],
      [
        "▁level",
        "s"
      ],
      [
        "▁s",
        "end"
      ],
      [
        "▁rem",
        "ain"
      ],
      [
        "om",
        "p"
      ],
      [
        "c",
        "les"
      ],
      [
        "▁po",
        "et"
      ],
      [
        "▁need",
        "s"
      ],
      [
        "▁ex",
        "pl"
      ],
      [
        "l",
        "ed"
      ],
      [
        "i",
        "v"
      ],
      [
        "i",
        "x"
      ],
      [
        "▁la",
        "b"
      ],
      [
        "▁me",
        "als"
      ],
      [
        "▁i",
        "f"
      ],
      [
        "▁in",
        "to"
      ],
      [
        "▁co",
        "ll"
      ],
      [
        "▁airplan",
        "e"
      ],
      [
        "▁sa",
        "y"
      ],
      [
        "▁news",
        "p"
      ],
      [
        "▁h",
        "ur"
      ],
      [
        "▁w",
        "ord"
      ],
      [
        "▁t",
        "our"
      ],
      [
        "▁m",
        "ight"
      ],
      [
        "▁wal",
        "k"
      ],
      [
        "▁",
        "|"
      ],
      [
        "▁par",
        "k"
      ],
      [
        "▁organiz",
        "ation"
      ],
      [
        "▁ad",
        "v"
      ],
      [
        "▁resp",
        "ect"
      ],
      [
        "i",
        "p"
      ],
      [
        "▁min",
        "us"
      ],
      [
        "▁expl",
        "ain"
      ],
      [
        "▁acc",
        "ount"
      ],
      [
        "c",
        "ause"
      ],
      [
        "▁ad",
        "op"
      ],
      [
        "▁sur",
        "pr"
      ],
      [
        "▁wor",
        "ks"
      ],
      [
        "ord",
        "ers"
      ],
      [
        "▁dep",
        "artment"
      ],
      [
        "▁mil",
        "lions"
      ],
      [
        "▁hop",
        "e"
      ],
      [
        "▁with",
        "in"
      ],
      [
        "▁regar",
        "ding"
      ],
      [
        "▁re",
        "nt"
      ],
      [
        "h",
        "ether"
      ],
      [
        "▁cop",
        "y"
      ],
      [
        "▁ex",
        "ec"
      ],
      [
        "on",
        "g"
      ],
      [
        "▁sh",
        "ows"
      ],
      [
        "h",
        "ere"
      ],
      [
        "ac",
        "t"
      ],
      [
        "▁c",
        "ro"
      ],
      [
        "▁m",
        "aster"
      ],
      [
        "▁n",
        "otw"
      ],
      [
        "▁ev",
        "ent"
      ],
      [
        "p",
        "le"
      ],
      [
        "▁sci",
        "ence"
      ],
      [
        "▁p",
        "ie"
      ],
      [
        "▁w",
        "ar"
      ],
      [
        "▁d",
        "ow"
      ],
      [
        "▁dep",
        "ar"
      ],
      [
        "▁sel",
        "f"
      ],
      [
        "▁call",
        "ing"
      ],
      [
        "▁expl",
        "ained"
      ],
      [
        "▁cost",
        "s"
      ],
      [
        "▁a",
        "head"
      ],
      [
        "w",
        "h"
      ],
      [
        "in",
        "d"
      ],
      [
        "▁",
        "li"
      ],
      [
        "▁st",
        "e"
      ],
      [
        "▁",
        "oc"
      ],
      [
        "ap",
        "p"
      ],
      [
        "▁",
        "use"
      ],
      [
        "▁manag",
        "er"
      ],
      [
        "▁stat",
        "es"
      ],
      [
        "▁us",
        "e"
      ],
      [
        "▁h",
        "ead"
      ],
      [
        "ag",
        "es"
      ],
      [
        "▁li",
        "ke"
      ],
      [
        "ter",
        "s"
      ],
      [
        "▁...................",
        "."
      ],
      [
        "▁soc",
        "iety"
      ],
      [
        "▁writ",
        "ten"
      ],
      [
        "▁be",
        "h"
      ],
      [
        "g",
        "e"
      ],
      [
        "▁he",
        "alth"
      ],
      [
        "us",
        "e"
      ],
      [
        "eng",
        "th"
      ],
      [
        "k",
        "ing"
      ],
      [
        "an",
        "ger"
      ],
      [
        "▁cent",
        "er"
      ],
      [
        "e",
        "r"
      ],
      [
        "▁rec",
        "ip"
      ],
      [
        "il",
        "os"
      ],
      [
        "▁h",
        "os"
      ],
      [
        "ell",
        "y"
      ],
      [
        "d",
        "en"
      ],
      [
        "b",
        "oth"
      ],
      [
        "▁pro",
        "ble"
      ],
      [
        "▁my",
        "self"
      ],
      [
        "▁a",
        "pp"
      ],
      [
        "▁own",
        "er"
      ],
      [
        "▁h",
        "ope"
      ],
      [
        "▁an",
        "oth"
      ],
      [
        "▁poli",
        "ce"
      ],
      [
        "n",
        "ut"
      ],
      [
        "▁prov",
        "ided"
      ],
      [
        "▁exper",
        "ien"
      ],
      [
        "en",
        "tion"
      ],
      [
        "▁s",
        "and"
      ],
      [
        "▁ver",
        "sus"
      ],
      [
        "▁",
        "ton"
      ],
      [
        "un",
        "ch"
      ],
      [
        "▁hel",
        "d"
      ],
      [
        "▁rece",
        "ived"
      ],
      [
        "▁ha",
        "d"
      ],
      [
        "▁g",
        "ro"
      ],
      [
        "▁math",
        "ema"
      ],
      [
        "▁ro",
        "le"
      ],
      [
        "o",
        "ck"
      ],
      [
        "ee",
        "ds"
      ],
      [
        "▁pe",
        "op"
      ],
      [
        "▁let",
        "ter"
      ],
      [
        "l",
        "and"
      ],
      [
        "▁ho",
        "liday"
      ],
      [
        "i",
        "en"
      ],
      [
        "▁li",
        "ved"
      ],
      [
        "▁our",
        "selves"
      ],
      [
        "▁opp",
        "osite"
      ],
      [
        "li",
        "ty"
      ],
      [
        "▁citi",
        "z"
      ],
      [
        "▁med",
        "ic"
      ],
      [
        "▁b",
        "all"
      ],
      [
        "▁see",
        "ing"
      ],
      [
        "▁inclu",
        "ded"
      ],
      [
        "▁",
        "**"
      ],
      [
        "▁s",
        "ea"
      ],
      [
        "ment",
        "ation"
      ],
      [
        "▁cl",
        "imb"
      ],
      [
        "eth",
        "er"
      ],
      [
        "▁ha",
        "t"
      ],
      [
        "▁co",
        "p"
      ],
      [
        "at",
        "eg"
      ],
      [
        "▁f",
        "it"
      ],
      [
        "▁pe",
        "p"
      ],
      [
        "o",
        "p"
      ],
      [
        "re",
        "ss"
      ],
      [
        "▁h",
        "igh"
      ],
      [
        "▁c",
        "o"
      ],
      [
        "▁",
        "c"
      ],
      [
        "▁w",
        "ater"
      ],
      [
        "w",
        "hether"
      ],
      [
        "▁resp",
        "ons"
      ],
      [
        "▁r",
        "iver"
      ],
      [
        "▁en",
        "ded"
      ],
      [
        "▁st",
        "ud"
      ],
      [
        "▁to",
        "y"
      ],
      [
        "▁sp",
        "oon"
      ],
      [
        "il",
        "ed"
      ],
      [
        "▁wh",
        "ose"
      ],
      [
        "▁en",
        "em"
      ],
      [
        "▁contr",
        "act"
      ],
      [
        "a",
        "l"
      ],
      [
        "am",
        "p"
      ],
      [
        "ri",
        "c"
      ],
      [
        "ap",
        "er"
      ],
      [
        "▁progr",
        "ess"
      ],
      [
        "▁cli",
        "mate"
      ],
      [
        "▁th",
        "ir"
      ],
      [
        "▁cow",
        "boy"
      ],
      [
        "ct",
        "ion"
      ],
      [
        "▁",
        "u"
      ],
      [
        "▁dem",
        "ocracy"
      ],
      [
        "e",
        "w"
      ],
      [
        "▁tr",
        "aining"
      ],
      [
        "▁con",
        "d"
      ],
      [
        "▁",
        "here"
      ],
      [
        "▁te",
        "am"
      ],
      [
        "▁...",
        ".."
      ],
      [
        "ul",
        "ts"
      ],
      [
        "▁b",
        "oo"
      ],
      [
        "▁b",
        "ase"
      ],
      [
        "▁cons",
        "tit"
      ],
      [
        "▁c",
        "ent"
      ],
      [
        "m",
        "ing"
      ],
      [
        "ad",
        "es"
      ],
      [
        "▁notic",
        "e"
      ],
      [
        "▁ch",
        "urch"
      ],
      [
        "ear",
        "ch"
      ],
      [
        "▁char",
        "ge"
      ],
      [
        "▁bo",
        "x"
      ],
      [
        "▁wor",
        "ld"
      ],
      [
        "r",
        "u"
      ],
      [
        "a",
        "lly"
      ],
      [
        "▁cre",
        "dit"
      ],
      [
        "▁class",
        "es"
      ],
      [
        "▁…",
        "."
      ],
      [
        "▁a",
        "nd"
      ],
      [
        "t",
        "ain"
      ],
      [
        "▁w",
        "ou"
      ],
      [
        "▁id",
        "ea"
      ],
      [
        "en",
        "ing"
      ],
      [
        "▁le",
        "vel"
      ],
      [
        "▁t",
        "as"
      ],
      [
        "a",
        "me"
      ],
      [
        "▁op",
        "in"
      ],
      [
        "▁chec",
        "k"
      ],
      [
        "▁g",
        "o"
      ],
      [
        "ain",
        "s"
      ],
      [
        "u",
        "e"
      ],
      [
        "▁c",
        "our"
      ],
      [
        "▁'",
        "d"
      ],
      [
        "row",
        "s"
      ],
      [
        "▁count",
        "ries"
      ],
      [
        "▁con",
        "duc"
      ],
      [
        "▁",
        "ident"
      ],
      [
        "▁chees",
        "e"
      ],
      [
        "▁resp",
        "on"
      ],
      [
        "▁de",
        "ath"
      ],
      [
        "p",
        "er"
      ],
      [
        "t",
        "ors"
      ],
      [
        "▁m",
        "ore"
      ],
      [
        "▁res",
        "p"
      ],
      [
        "▁ha",
        "ve"
      ],
      [
        "▁wom",
        "an"
      ],
      [
        "is",
        "ions"
      ],
      [
        "▁con",
        "cer"
      ],
      [
        "ti",
        "t"
      ],
      [
        "th",
        "er"
      ],
      [
        "b",
        "ur"
      ],
      [
        "▁op",
        "en"
      ],
      [
        "▁",
        "`"
      ],
      [
        "her",
        "e"
      ],
      [
        "▁",
        "{"
      ],
      [
        "▁resul",
        "ts"
      ],
      [
        "port",
        "un"
      ],
      [
        "e",
        "g"
      ],
      [
        "▁circ",
        "um"
      ],
      [
        "▁a",
        "ch"
      ],
      [
        "▁b",
        "ug"
      ],
      [
        "▁proble",
        "ms"
      ],
      [
        "▁mo",
        "d"
      ],
      [
        "us",
        "t"
      ],
      [
        "▁bod",
        "y"
      ],
      [
        "▁w",
        "on"
      ],
      [
        "▁form",
        "at"
      ],
      [
        "a",
        "ts"
      ],
      [
        "▁whe",
        "re"
      ],
      [
        "▁bulld",
        "ozer"
      ],
      [
        "++",
        "++"
      ],
      [
        "or",
        "t"
      ],
      [
        "r",
        "ation"
      ],
      [
        "▁displ",
        "ay"
      ],
      [
        "ve",
        "st"
      ],
      [
        "▁fun",
        "ds"
      ],
      [
        "▁w",
        "ork"
      ],
      [
        "▁opin",
        "ion"
      ],
      [
        "▁as",
        "s"
      ],
      [
        "oo",
        "ds"
      ],
      [
        "▁aud",
        "ience"
      ],
      [
        "g",
        "ether"
      ],
      [
        "er",
        "ic"
      ],
      [
        "▁h",
        "and"
      ],
      [
        "▁cl",
        "ass"
      ],
      [
        "ath",
        "er"
      ],
      [
        "▁l",
        "angu"
      ],
      [
        "▁b",
        "owl"
      ],
      [
        "u",
        "ff"
      ],
      [
        "▁diff",
        "icul"
      ],
      [
        "▁gu",
        "ar"
      ],
      [
        "▁c",
        "over"
      ],
      [
        "▁",
        "/"
      ],
      [
        "▁!!!!!!!!!!!",
        "!!!!!!!!"
      ],
      [
        "▁to",
        "ys"
      ],
      [
        "▁e",
        "gg"
      ],
      [
        "▁t",
        "ool"
      ],
      [
        "c",
        "tions"
      ],
      [
        "▁m",
        "ouse"
      ],
      [
        "▁pro",
        "m"
      ],
      [
        "▁impro",
        "ve"
      ],
      [
        "▁kit",
        "t"
      ],
      [
        "i",
        "st"
      ],
      [
        "▁s",
        "old"
      ],
      [
        "▁e",
        "y"
      ],
      [
        "▁h",
        "ea"
      ],
      [
        "▁open",
        "ing"
      ],
      [
        "▁m",
        "ic"
      ],
      [
        "▁le",
        "ss"
      ],
      [
        "us",
        "ed"
      ],
      [
        "▁pr",
        "o"
      ],
      [
        "▁do",
        "ne"
      ],
      [
        "▁!!!",
        "?"
      ],
      [
        "▁|--------+----------------",
        "------->"
      ],
      [
        "▁fri",
        "ends"
      ],
      [
        "-------",
        ">"
      ],
      [
        "▁m",
        "a"
      ],
      [
        "▁inst",
        "ead"
      ],
      [
        "or",
        "ed"
      ],
      [
        "in",
        "us"
      ],
      [
        "▁piz",
        "za"
      ],
      [
        "ang",
        "er"
      ],
      [
        "u",
        "al"
      ],
      [
        "▁exp",
        "l"
      ],
      [
        "▁jo",
        "in"
      ],
      [
        "▁con",
        "nec"
      ],
      [
        "▁f",
        "oc"
      ],
      [
        "▁ar",
        "ch"
      ],
      [
        "ow",
        "l"
      ],
      [
        "▁em",
        "ploy"
      ],
      [
        "w",
        "ic"
      ],
      [
        "▁la",
        "ur"
      ],
      [
        "ol",
        "ving"
      ],
      [
        "ect",
        "ive"
      ],
      [
        "▁w",
        "alk"
      ],
      [
        "it",
        "e"
      ],
      [
        "▁pur",
        "pos"
      ],
      [
        "m",
        "ber"
      ],
      [
        "▁",
        ".."
      ],
      [
        "▁'",
        "ve"
      ],
      [
        "▁as",
        "tride"
      ],
      [
        "▁a",
        "s"
      ],
      [
        "e",
        "ar"
      ],
      [
        "▁sandwic",
        "h"
      ],
      [
        "▁",
        "th"
      ],
      [
        "ir",
        "st"
      ],
      [
        "▁you",
        "r"
      ],
      [
        "s",
        "ing"
      ],
      [
        "▁pa",
        "id"
      ],
      [
        "al",
        "ity"
      ],
      [
        "▁s",
        "ect"
      ],
      [
        "▁s",
        "p"
      ],
      [
        "▁b",
        "i"
      ],
      [
        "f",
        "ir"
      ],
      [
        "▁dece",
        "mber"
      ],
      [
        "▁",
        "&"
      ],
      [
        "a",
        "li"
      ],
      [
        "▁adv",
        "ice"
      ],
      [
        "a",
        "use"
      ],
      [
        "▁cr",
        "ack"
      ],
      [
        "▁incre",
        "ased"
      ],
      [
        "▁in",
        "vest"
      ],
      [
        "▁r",
        "a"
      ],
      [
        "▁pr",
        "es"
      ],
      [
        "▁th",
        "ought"
      ],
      [
        "i",
        "ss"
      ],
      [
        "▁bo",
        "at"
      ],
      [
        "ac",
        "king"
      ],
      [
        "ll",
        "ow"
      ],
      [
        "▁inter",
        "ests"
      ],
      [
        "▁at",
        "temp"
      ],
      [
        "▁su",
        "it"
      ],
      [
        "▁v",
        "ol"
      ],
      [
        "p",
        "tion"
      ],
      [
        "c",
        "ase"
      ],
      [
        "--------",
        "----"
      ],
      [
        "▁h",
        "ist"
      ],
      [
        "▁",
        "3"
      ],
      [
        "▁mo",
        "re"
      ],
      [
        "▁go",
        "al"
      ],
      [
        "u",
        "t"
      ],
      [
        "▁m",
        "o"
      ],
      [
        "▁ph",
        "il"
      ],
      [
        "▁ac",
        "t"
      ],
      [
        "▁dec",
        "ided"
      ],
      [
        "▁take",
        "n"
      ],
      [
        "▁l",
        "unch"
      ],
      [
        "▁fr",
        "i"
      ],
      [
        "▁quino",
        "a"
      ],
      [
        "y",
        "th"
      ],
      [
        "a",
        "h"
      ],
      [
        "▁happen",
        "s"
      ],
      [
        "▁ha",
        "f"
      ],
      [
        "e",
        "ther"
      ],
      [
        "▁tr",
        "ust"
      ],
      [
        "▁p",
        "re"
      ],
      [
        "▁l",
        "ine"
      ],
      [
        "▁be",
        "tw"
      ],
      [
        "▁s",
        "uit"
      ],
      [
        "▁en",
        "j"
      ],
      [
        "▁spe",
        "ech"
      ],
      [
        "▁",
        "bo"
      ],
      [
        "▁g",
        "ard"
      ],
      [
        "▁w",
        "h"
      ],
      [
        "▁for",
        "m"
      ],
      [
        "▁co",
        "st"
      ],
      [
        "▁ch",
        "ar"
      ],
      [
        "ter",
        "n"
      ],
      [
        "▁wh",
        "o"
      ],
      [
        "▁n",
        "t"
      ],
      [
        "▁a",
        "cross"
      ],
      [
        "men",
        "ts"
      ],
      [
        "▁p",
        "ages"
      ],
      [
        "o",
        "st"
      ],
      [
        "ant",
        "ed"
      ],
      [
        "▁inter",
        "v"
      ],
      [
        "i",
        "ety"
      ],
      [
        "▁st",
        "and"
      ],
      [
        "a",
        "tive"
      ],
      [
        "▁sho",
        "es"
      ],
      [
        "▁s",
        "pr"
      ],
      [
        "▁tou",
        "ch"
      ],
      [
        "▁trav",
        "el"
      ],
      [
        "▁keep",
        "ing"
      ],
      [
        "▁",
        "“"
      ],
      [
        "▁bre",
        "ath"
      ],
      [
        "▁p",
        "or"
      ],
      [
        "▁po",
        "lic"
      ],
      [
        "▁conc",
        "lu"
      ],
      [
        "▁r",
        "o"
      ],
      [
        "▁p",
        "ain"
      ],
      [
        "ar",
        "ing"
      ],
      [
        "▁b",
        "uc"
      ],
      [
        "▁m",
        "enti"
      ],
      [
        "▁go",
        "t"
      ],
      [
        "it",
        "al"
      ],
      [
        "in",
        "ce"
      ],
      [
        "ul",
        "ation"
      ],
      [
        "l",
        "in"
      ],
      [
        "▁territ",
        "ory"
      ],
      [
        "at",
        "ed"
      ],
      [
        "▁a",
        "ug"
      ],
      [
        "▁treat",
        "ment"
      ],
      [
        "▁in",
        "s"
      ],
      [
        "▁ph",
        "ot"
      ],
      [
        "▁sat",
        "urday"
      ],
      [
        "▁accep",
        "t"
      ],
      [
        "a",
        "u"
      ],
      [
        "▁other",
        "s"
      ],
      [
        "▁d",
        "ate"
      ],
      [
        "er",
        "s"
      ],
      [
        "▁custom",
        "ers"
      ],
      [
        "▁con",
        "f"
      ],
      [
        "▁th",
        "y"
      ],
      [
        "▁fl",
        "ying"
      ],
      [
        "▁mar",
        "ket"
      ],
      [
        "p",
        "ite"
      ],
      [
        "▁beg",
        "in"
      ],
      [
        "▁ye",
        "ar"
      ],
      [
        "ll",
        "ing"
      ],
      [
        "▁r",
        "ent"
      ],
      [
        "▁h",
        "old"
      ],
      [
        "st",
        "r"
      ],
      [
        "▁f",
        "ell"
      ],
      [
        "o",
        "pe"
      ],
      [
        "▁ser",
        "ies"
      ],
      [
        "ur",
        "ing"
      ],
      [
        "▁",
        "ent"
      ],
      [
        "▁go",
        "od"
      ],
      [
        "ol",
        "ding"
      ],
      [
        "▁hous",
        "e"
      ],
      [
        "o",
        "ss"
      ],
      [
        "▁p",
        "age"
      ],
      [
        "m",
        "ate"
      ],
      [
        "▁o",
        "ver"
      ],
      [
        "▁sal",
        "t"
      ],
      [
        "▁wor",
        "ds"
      ],
      [
        "▁th",
        "ank"
      ],
      [
        "it",
        "t"
      ],
      [
        "▁st",
        "ri"
      ],
      [
        "▁s",
        "at"
      ],
      [
        "▁h",
        "op"
      ],
      [
        "b",
        "and"
      ],
      [
        "▁press",
        "ure"
      ],
      [
        "ic",
        "h"
      ],
      [
        "▁e",
        "tc"
      ],
      [
        "▁oc",
        "c"
      ],
      [
        "▁stat",
        "e"
      ],
      [
        "▁u",
        "m"
      ],
      [
        "r",
        "il"
      ],
      [
        "ag",
        "e"
      ],
      [
        "▁w",
        "ell"
      ],
      [
        "▁g",
        "ame"
      ],
      [
        "▁arri",
        "ved"
      ],
      [
        "▁",
        "our"
      ],
      [
        "▁t",
        "ur"
      ],
      [
        "▁ma",
        "il"
      ],
      [
        "g",
        "an"
      ],
      [
        "▁und",
        "er"
      ],
      [
        "▁bott",
        "le"
      ],
      [
        "▁ris",
        "k"
      ],
      [
        "m",
        "ents"
      ],
      [
        "ta",
        "in"
      ],
      [
        "▁leg",
        "isl"
      ],
      [
        "er",
        "ated"
      ],
      [
        "▁h",
        "ar"
      ],
      [
        "▁p",
        "up"
      ],
      [
        "▁prot",
        "ection"
      ],
      [
        "▁pos",
        "ted"
      ],
      [
        "▁1",
        "9"
      ],
      [
        "▁d",
        "ark"
      ],
      [
        "▁en",
        "d"
      ],
      [
        "▁ar",
        "eas"
      ],
      [
        "▁part",
        "ners"
      ],
      [
        "h",
        "er"
      ],
      [
        "al",
        "th"
      ],
      [
        "▁allow",
        "ed"
      ],
      [
        "▁re",
        "v"
      ],
      [
        "▁mag",
        "ic"
      ],
      [
        "▁con",
        "ce"
      ],
      [
        "▁d",
        "ust"
      ],
      [
        "▁...............",
        "...."
      ],
      [
        "o",
        "ught"
      ],
      [
        "▁compan",
        "y"
      ],
      [
        "▁a",
        "i"
      ],
      [
        "▁or",
        "ig"
      ],
      [
        "an",
        "ted"
      ],
      [
        "▁tre",
        "at"
      ],
      [
        "▁li",
        "on"
      ],
      [
        "▁se",
        "con"
      ],
      [
        "i",
        "ght"
      ],
      [
        "▁ey",
        "es"
      ],
      [
        "▁air",
        "port"
      ],
      [
        "▁sur",
        "round"
      ],
      [
        "▁ca",
        "ll"
      ],
      [
        "▁ban",
        "an"
      ],
      [
        "▁p",
        "ut"
      ],
      [
        "it",
        "ed"
      ],
      [
        "▁star",
        "ting"
      ],
      [
        "▁h",
        "is"
      ],
      [
        "▁w",
        "om"
      ],
      [
        "▁lead",
        "ers"
      ],
      [
        "▁tr",
        "uth"
      ],
      [
        "▁rep",
        "orted"
      ],
      [
        "▁re",
        "p"
      ],
      [
        "▁lab",
        "or"
      ],
      [
        "ar",
        "ity"
      ],
      [
        "▁t",
        "ank"
      ],
      [
        "os",
        "ite"
      ],
      [
        "▁fr",
        "e"
      ],
      [
        "▁w",
        "/"
      ],
      [
        "▁",
        "over"
      ],
      [
        "ot",
        "h"
      ],
      [
        "▁in",
        "ter"
      ],
      [
        "▁ch",
        "ance"
      ],
      [
        "er",
        "ence"
      ],
      [
        "t",
        "er"
      ],
      [
        "▁like",
        "s"
      ],
      [
        "os",
        "ing"
      ],
      [
        "▁car",
        "e"
      ],
      [
        "▁fir",
        "st"
      ],
      [
        "i",
        "de"
      ],
      [
        "▁may",
        "be"
      ],
      [
        "oth",
        "er"
      ],
      [
        "air",
        "s"
      ],
      [
        "▁pain",
        "t"
      ],
      [
        "▁a",
        "te"
      ],
      [
        "▁d",
        "all"
      ],
      [
        "▁rec",
        "e"
      ],
      [
        "ec",
        "k"
      ],
      [
        "ard",
        "s"
      ],
      [
        "..",
        "."
      ],
      [
        "r",
        "ol"
      ],
      [
        "▁dr",
        "ug"
      ],
      [
        "▁mention",
        "ed"
      ],
      [
        "▁dro",
        "pped"
      ],
      [
        "▁list",
        "en"
      ],
      [
        "▁as",
        "ked"
      ],
      [
        "▁bir",
        "th"
      ],
      [
        "▁b",
        "ought"
      ],
      [
        "in",
        "k"
      ],
      [
        "▁st",
        "ill"
      ],
      [
        "ur",
        "ity"
      ],
      [
        "▁tri",
        "p"
      ],
      [
        "a",
        "ds"
      ],
      [
        "l",
        "ine"
      ],
      [
        "u",
        "mp"
      ],
      [
        "ad",
        "e"
      ],
      [
        "▁pers",
        "on"
      ],
      [
        "▁!!!!!!!!!!!",
        "!!"
      ],
      [
        "▁poc",
        "ket"
      ],
      [
        "▁o",
        "ff"
      ],
      [
        "▁n",
        "oon"
      ],
      [
        "ic",
        "ation"
      ],
      [
        "av",
        "es"
      ],
      [
        "▁sa",
        "l"
      ],
      [
        "▁de",
        "se"
      ],
      [
        "re",
        "ad"
      ],
      [
        "▁m",
        "em"
      ],
      [
        "▁resour",
        "ces"
      ],
      [
        "▁d",
        "uck"
      ],
      [
        "▁o",
        "wn"
      ],
      [
        "▁",
        "jo"
      ],
      [
        "ti",
        "v"
      ],
      [
        "▁e",
        "duc"
      ],
      [
        "▁p",
        "le"
      ],
      [
        "▁s",
        "ub"
      ],
      [
        "▁pr",
        "ess"
      ],
      [
        "▁st",
        "op"
      ],
      [
        "▁d",
        "ad"
      ],
      [
        "▁l",
        "ines"
      ],
      [
        "▁produc",
        "e"
      ],
      [
        "▁fe",
        "w"
      ],
      [
        "▁s",
        "ched"
      ],
      [
        "▁pre",
        "fer"
      ],
      [
        "▁wh",
        "ale"
      ],
      [
        "on",
        "om"
      ],
      [
        "fri",
        "end"
      ],
      [
        "▁p",
        "ast"
      ],
      [
        "▁adop",
        "ted"
      ],
      [
        "▁qu",
        "ality"
      ],
      [
        "▁techn",
        "iqu"
      ],
      [
        "▁system",
        "s"
      ],
      [
        "▁c",
        "ount"
      ],
      [
        "en",
        "ty"
      ],
      [
        "▁but",
        "t"
      ],
      [
        "▁mo",
        "ving"
      ],
      [
        "▁siz",
        "e"
      ],
      [
        "▁le",
        "ft"
      ],
      [
        "▁h",
        "at"
      ],
      [
        "▁forg",
        "et"
      ],
      [
        "▁res",
        "erv"
      ],
      [
        "as",
        "ts"
      ],
      [
        "▁thre",
        "at"
      ],
      [
        "▁a",
        "n"
      ],
      [
        "li",
        "day"
      ],
      [
        "▁g",
        "rew"
      ],
      [
        "q",
        "u"
      ],
      [
        "▁res",
        "ult"
      ],
      [
        "su",
        "l"
      ],
      [
        "▁n",
        "ice"
      ],
      [
        "▁m",
        "eth"
      ],
      [
        "▁n",
        "ov"
      ],
      [
        "▁s",
        "ing"
      ],
      [
        "▁",
        "m"
      ],
      [
        "▁",
        "art"
      ],
      [
        "▁g",
        "ender"
      ],
      [
        "▁",
        ","
      ],
      [
        "a",
        "bly"
      ],
      [
        "▁eff",
        "ort"
      ],
      [
        "l",
        "ight"
      ],
      [
        "▁g",
        "overn"
      ],
      [
        "▁pro",
        "gr"
      ],
      [
        "▁",
        "b"
      ],
      [
        "▁s",
        "he"
      ],
      [
        "▁propos",
        "al"
      ],
      [
        "▁b",
        "y"
      ],
      [
        "▁in",
        "te"
      ],
      [
        "▁ab",
        "ility"
      ],
      [
        "▁who",
        "se"
      ],
      [
        "▁an",
        "ybody"
      ],
      [
        "i",
        "ents"
      ],
      [
        "▁progr",
        "am"
      ],
      [
        "l",
        "ing"
      ],
      [
        "▁h",
        "ear"
      ],
      [
        "▁---------------------------------",
        "----------------"
      ],
      [
        "ri",
        "b"
      ],
      [
        "▁whe",
        "ther"
      ],
      [
        "st",
        "ances"
      ],
      [
        "▁",
        "as"
      ],
      [
        "▁analys",
        "is"
      ],
      [
        "ay",
        "s"
      ],
      [
        "▁d",
        "ol"
      ],
      [
        "▁m",
        "ess"
      ],
      [
        "▁t",
        "ake"
      ],
      [
        "▁b",
        "ig"
      ],
      [
        "str",
        "uc"
      ],
      [
        "▁ke",
        "pt"
      ],
      [
        "▁h",
        "olding"
      ],
      [
        "▁cont",
        "rol"
      ],
      [
        "▁along",
        "side"
      ],
      [
        "▁so",
        "il"
      ],
      [
        "▁c",
        "ur"
      ],
      [
        "▁car",
        "d"
      ],
      [
        "e",
        "ither"
      ],
      [
        "▁par",
        "ty"
      ],
      [
        "▁hur",
        "t"
      ],
      [
        "i",
        "ch"
      ],
      [
        "is",
        "co"
      ],
      [
        "▁p",
        "ick"
      ],
      [
        "▁require",
        "ments"
      ],
      [
        "un",
        "d"
      ],
      [
        "▁‘",
        "’"
      ],
      [
        "y",
        "m"
      ],
      [
        "▁y",
        "ear"
      ],
      [
        "▁star",
        "ted"
      ],
      [
        "e",
        "c"
      ],
      [
        "▁r",
        "el"
      ],
      [
        "▁sto",
        "pped"
      ],
      [
        "f",
        "ul"
      ],
      [
        "▁f",
        "il"
      ],
      [
        "▁w",
        "o"
      ],
      [
        "▁milit",
        "ary"
      ],
      [
        "▁",
        "ir"
      ],
      [
        "▁s",
        "uch"
      ],
      [
        "ec",
        "tion"
      ],
      [
        "▁",
        "el"
      ],
      [
        "d",
        "es"
      ],
      [
        "▁play",
        "er"
      ],
      [
        "el",
        "f"
      ],
      [
        "is",
        "ion"
      ],
      [
        "▁experien",
        "ce"
      ],
      [
        "if",
        "y"
      ],
      [
        "▁pop",
        "ulation"
      ],
      [
        "▁b",
        "ab"
      ],
      [
        "▁us",
        "er"
      ],
      [
        "end",
        "er"
      ],
      [
        "▁t",
        "ape"
      ],
      [
        "▁[...",
        "]"
      ],
      [
        "▁m",
        "oney"
      ],
      [
        "f",
        "or"
      ],
      [
        "ain",
        "t"
      ],
      [
        "a",
        "il"
      ],
      [
        "▁rest",
        "aur"
      ],
      [
        "▁n",
        "ote"
      ],
      [
        "▁f",
        "ather"
      ],
      [
        "▁app",
        "le"
      ],
      [
        "▁e",
        "x"
      ],
      [
        "▁franc",
        "isco"
      ],
      [
        "▁want",
        "s"
      ],
      [
        "▁tr",
        "ave"
      ],
      [
        "▁ach",
        "ie"
      ],
      [
        "▁n",
        "um"
      ],
      [
        "i",
        "tions"
      ],
      [
        "▁f",
        "elt"
      ],
      [
        "▁in",
        "n"
      ],
      [
        "▁up",
        "on"
      ],
      [
        "▁b",
        "ac"
      ],
      [
        "▁w",
        "ent"
      ],
      [
        "▁m",
        "ention"
      ],
      [
        "▁p",
        "ants"
      ],
      [
        "▁w",
        "il"
      ],
      [
        "▁ro",
        "om"
      ],
      [
        "▁plan",
        "ning"
      ],
      [
        "▁dec",
        "ember"
      ],
      [
        "u",
        "ck"
      ],
      [
        "▁your",
        "self"
      ],
      [
        "ti",
        "ons"
      ],
      [
        "▁bas",
        "il"
      ],
      [
        "▁",
        "’s"
      ],
      [
        "e",
        "pt"
      ],
      [
        "▁s",
        "erv"
      ],
      [
        "▁in",
        "tern"
      ],
      [
        "▁",
        "light"
      ],
      [
        "d",
        "s"
      ],
      [
        "▁le",
        "ad"
      ],
      [
        "▁som",
        "eth"
      ],
      [
        "▁b",
        "re"
      ],
      [
        "▁wat",
        "ch"
      ],
      [
        "ut",
        "ion"
      ],
      [
        "le",
        "ction"
      ],
      [
        "▁b",
        "ul"
      ],
      [
        "ou",
        "nt"
      ],
      [
        "o",
        "nd"
      ],
      [
        "▁produc",
        "t"
      ],
      [
        "▁ab",
        "ove"
      ],
      [
        "▁th",
        "ru"
      ],
      [
        "▁abo",
        "ard"
      ],
      [
        "▁e",
        "ar"
      ],
      [
        "▁ob",
        "s"
      ],
      [
        "ph",
        "ere"
      ],
      [
        "▁ch",
        "air"
      ],
      [
        "o",
        "th"
      ],
      [
        "▁c",
        "os"
      ],
      [
        "▁vis",
        "a"
      ],
      [
        "as",
        "h"
      ],
      [
        "u",
        "p"
      ],
      [
        "▁un",
        "til"
      ],
      [
        "▁t",
        "ea"
      ],
      [
        "▁ever",
        "ything"
      ],
      [
        "▁no",
        "w"
      ],
      [
        "▁happ",
        "en"
      ],
      [
        "▁d",
        "i"
      ],
      [
        "▁ca",
        "l"
      ],
      [
        "▁commit",
        "tee"
      ],
      [
        "▁so",
        "uth"
      ],
      [
        "▁wit",
        "h"
      ],
      [
        "t",
        "her"
      ],
      [
        "▁st",
        "ock"
      ],
      [
        "▁r",
        "ates"
      ],
      [
        "ul",
        "ated"
      ],
      [
        "▁",
        "und"
      ],
      [
        "▁imag",
        "ine"
      ],
      [
        "▁b",
        "or"
      ],
      [
        "iver",
        "s"
      ],
      [
        "▁chick",
        "en"
      ],
      [
        "a",
        "s"
      ],
      [
        "▁coun",
        "c"
      ],
      [
        "t",
        "ing"
      ],
      [
        "▁ow",
        "n"
      ],
      [
        "▁imp",
        "le"
      ],
      [
        "▁jo",
        "bs"
      ],
      [
        "▁vac",
        "ation"
      ],
      [
        "▁in",
        "j"
      ],
      [
        "▁re",
        "st"
      ],
      [
        "0",
        "s"
      ],
      [
        "▁environ",
        "ment"
      ],
      [
        "▁?",
        "????"
      ],
      [
        "▁bac",
        "k"
      ],
      [
        "er",
        "e"
      ],
      [
        "▁s",
        "www"
      ],
      [
        "▁set",
        "tle"
      ],
      [
        "ke",
        "t"
      ],
      [
        "▁fing",
        "er"
      ],
      [
        "f",
        "ace"
      ],
      [
        "▁ac",
        "tiv"
      ],
      [
        "▁fl",
        "owers"
      ],
      [
        "▁r",
        "ights"
      ],
      [
        "i",
        "qu"
      ],
      [
        "▁dr",
        "aw"
      ],
      [
        "▁sho",
        "e"
      ],
      [
        "▁bom",
        "b"
      ],
      [
        "▁ti",
        "c"
      ],
      [
        "▁e-m",
        "ail"
      ],
      [
        "▁show",
        "ed"
      ],
      [
        "▁c",
        "ulture"
      ],
      [
        "▁ca",
        "me"
      ],
      [
        "▁ever",
        "yone"
      ],
      [
        "▁a",
        "d"
      ],
      [
        "▁p",
        "et"
      ],
      [
        "▁week",
        "end"
      ],
      [
        "▁---",
        "="
      ],
      [
        "▁mem",
        "bers"
      ],
      [
        "▁capac",
        "ity"
      ],
      [
        "▁consid",
        "er"
      ],
      [
        "igh",
        "t"
      ],
      [
        "▁m",
        "e"
      ],
      [
        "▁m",
        "id"
      ],
      [
        "▁bu",
        "ild"
      ],
      [
        "▁underst",
        "anding"
      ],
      [
        "▁ev",
        "ening"
      ],
      [
        "▁at",
        "t"
      ],
      [
        "▁",
        "order"
      ],
      [
        "▁op",
        "tions"
      ],
      [
        "and",
        "ed"
      ],
      [
        "▁webs",
        "ite"
      ],
      [
        "▁f",
        "ood"
      ],
      [
        "at",
        "ures"
      ],
      [
        "▁bre",
        "ad"
      ],
      [
        "`",
        "s"
      ],
      [
        "▁tech",
        "n"
      ],
      [
        "▁m",
        "ach"
      ],
      [
        "ib",
        "ility"
      ],
      [
        "▁form",
        "s"
      ],
      [
        "▁_",
        "____"
      ],
      [
        "▁j",
        "www"
      ],
      [
        "▁v",
        "ac"
      ],
      [
        "▁wh",
        "e"
      ],
      [
        "▁gre",
        "at"
      ],
      [
        "▁pos",
        "ition"
      ],
      [
        "▁al",
        "ong"
      ],
      [
        "▁rece",
        "ive"
      ],
      [
        "me",
        "mb"
      ],
      [
        "▁wr",
        "it"
      ],
      [
        "▁h",
        "air"
      ],
      [
        "▁c",
        "ake"
      ],
      [
        "▁requ",
        "ire"
      ],
      [
        "▁e",
        "l"
      ],
      [
        "▁-----------------------------------------------------------------",
        "----------"
      ],
      [
        "▁continu",
        "e"
      ],
      [
        "▁p",
        "it"
      ],
      [
        "▁mod",
        "e"
      ],
      [
        "ed",
        "uc"
      ],
      [
        "▁me",
        "at"
      ],
      [
        "y",
        "one"
      ],
      [
        "ig",
        "ned"
      ],
      [
        "i",
        "ans"
      ],
      [
        "▁inst",
        "ance"
      ],
      [
        "d",
        "ge"
      ],
      [
        "▁girl",
        "s"
      ],
      [
        "'",
        "clock"
      ],
      [
        "lik",
        "e"
      ],
      [
        "an",
        "g"
      ],
      [
        "▁e",
        "at"
      ],
      [
        "▁b",
        "r"
      ],
      [
        "lan",
        "d"
      ],
      [
        "ig",
        "h"
      ],
      [
        "i",
        "gh"
      ],
      [
        "way",
        "s"
      ],
      [
        "d",
        "ers"
      ],
      [
        "▁pit",
        "tsbur"
      ],
      [
        "▁sit",
        "ting"
      ],
      [
        "▁b",
        "ut"
      ],
      [
        "??",
        "??"
      ],
      [
        "▁an",
        "ts"
      ],
      [
        "▁fl",
        "ag"
      ],
      [
        "▁se",
        "pt"
      ],
      [
        "▁l",
        "uck"
      ],
      [
        "▁cre",
        "ating"
      ],
      [
        "▁in",
        "d"
      ],
      [
        "▁",
        "ign"
      ],
      [
        "w",
        "ay"
      ],
      [
        "▁comp",
        "l"
      ],
      [
        "▁ar",
        "t"
      ],
      [
        "▁l",
        "ad"
      ],
      [
        "a",
        "ge"
      ],
      [
        "▁ear",
        "th"
      ],
      [
        "ot",
        "es"
      ],
      [
        "▁gr",
        "ass"
      ],
      [
        "▁n",
        "or"
      ],
      [
        "▁t",
        "old"
      ],
      [
        "▁enjo",
        "y"
      ],
      [
        "▁do",
        "es"
      ],
      [
        "▁w",
        "ee"
      ],
      [
        "▁",
        "educ"
      ],
      [
        "amp",
        "les"
      ],
      [
        "▁mar",
        "riage"
      ],
      [
        "▁ey",
        "e"
      ],
      [
        "▁c",
        "and"
      ],
      [
        "u",
        "zz"
      ],
      [
        "▁th",
        "is"
      ],
      [
        "▁hor",
        "se"
      ],
      [
        "▁sh",
        "ape"
      ],
      [
        "▁poin",
        "t"
      ],
      [
        "▁in",
        "t"
      ],
      [
        "▁th",
        "ough"
      ],
      [
        "ow",
        "s"
      ],
      [
        "▁educ",
        "ation"
      ],
      [
        "▁play",
        "ing"
      ],
      [
        "▁t",
        "v"
      ],
      [
        "▁f",
        "ir"
      ],
      [
        "▁fun",
        "d"
      ],
      [
        "▁cond",
        "ition"
      ],
      [
        "▁fin",
        "ish"
      ],
      [
        "▁our",
        "s"
      ],
      [
        "er",
        "t"
      ],
      [
        "▁t",
        "op"
      ],
      [
        "▁m",
        "ag"
      ],
      [
        "oo",
        "d"
      ],
      [
        "i",
        "ous"
      ],
      [
        "▁reg",
        "ard"
      ],
      [
        "▁w",
        "as"
      ],
      [
        "▁their",
        "s"
      ],
      [
        "s",
        "i"
      ],
      [
        "▁us",
        "ing"
      ],
      [
        "▁famili",
        "es"
      ],
      [
        "▁r",
        "ange"
      ],
      [
        "▁to",
        "ward"
      ],
      [
        "g",
        "ing"
      ],
      [
        "▁hus",
        "band"
      ],
      [
        "us",
        "ing"
      ],
      [
        "▁val",
        "ues"
      ],
      [
        "▁be",
        "lief"
      ],
      [
        "▁tr",
        "y"
      ],
      [
        "ib",
        "ilities"
      ],
      [
        "or",
        "ing"
      ],
      [
        "▁d",
        "ec"
      ],
      [
        "▁feel",
        "s"
      ],
      [
        "▁m",
        "other"
      ],
      [
        "▁camp",
        "aign"
      ],
      [
        "▁r",
        "abb"
      ],
      [
        "▁cam",
        "er"
      ],
      [
        "▁",
        "y"
      ],
      [
        "▁imp",
        "ort"
      ],
      [
        "oo",
        "t"
      ],
      [
        "▁ch",
        "a"
      ],
      [
        "▁rele",
        "ased"
      ],
      [
        "▁k",
        "id"
      ],
      [
        "▁n",
        "ew"
      ],
      [
        "o",
        "ol"
      ],
      [
        "▁comp",
        "on"
      ],
      [
        "▁",
        "_"
      ],
      [
        "▁th",
        "en"
      ],
      [
        "▁ar",
        "ti"
      ],
      [
        "▁s",
        "ch"
      ],
      [
        "▁wor",
        "ked"
      ],
      [
        "▁ques",
        "tion"
      ],
      [
        "▁off",
        "er"
      ],
      [
        "▁app",
        "l"
      ],
      [
        "en",
        "ting"
      ],
      [
        "▁hal",
        "f"
      ],
      [
        "▁op",
        "portun"
      ],
      [
        ".c",
        "om"
      ],
      [
        "r",
        "y"
      ],
      [
        "▁str",
        "ength"
      ],
      [
        "av",
        "e"
      ],
      [
        "▁cere",
        "al"
      ],
      [
        "est",
        "ed"
      ],
      [
        "▁as",
        "su"
      ],
      [
        "▁ap",
        "p"
      ],
      [
        "▁bu",
        "d"
      ],
      [
        "▁ex",
        "c"
      ],
      [
        "▁be",
        "cause"
      ],
      [
        "▁im",
        "age"
      ],
      [
        "▁",
        "["
      ],
      [
        "▁g",
        "row"
      ],
      [
        "▁s",
        "alt"
      ],
      [
        "▁f",
        "und"
      ],
      [
        "▁conc",
        "er"
      ],
      [
        "▁m",
        "od"
      ],
      [
        "▁inclu",
        "ding"
      ],
      [
        "u",
        "st"
      ],
      [
        "id",
        "ent"
      ],
      [
        "li",
        "g"
      ],
      [
        "er",
        "ve"
      ],
      [
        "▁con",
        "c"
      ],
      [
        "▁th",
        "at"
      ],
      [
        "▁conf",
        "ir"
      ],
      [
        "▁acc",
        "ep"
      ],
      [
        "▁bo",
        "ard"
      ],
      [
        "▁u",
        "r"
      ],
      [
        "▁make",
        "s"
      ],
      [
        "res",
        "sed"
      ],
      [
        "▁on",
        "ly"
      ],
      [
        "▁f",
        "ound"
      ],
      [
        "▁p",
        "oc"
      ],
      [
        "▁",
        "–"
      ],
      [
        "ve",
        "n"
      ],
      [
        "▁o",
        "per"
      ],
      [
        "l",
        "es"
      ],
      [
        "▁ter",
        "rit"
      ],
      [
        "▁be",
        "hin"
      ],
      [
        "▁h",
        "ouse"
      ],
      [
        "------",
        "-"
      ],
      [
        "▁choo",
        "se"
      ],
      [
        "▁inc",
        "re"
      ],
      [
        "▁r",
        "oll"
      ],
      [
        "▁sc",
        "ale"
      ],
      [
        "▁at",
        "lan"
      ],
      [
        "▁g",
        "ri"
      ],
      [
        "!!",
        "!"
      ],
      [
        "y",
        "ond"
      ],
      [
        "er",
        "ies"
      ],
      [
        "▁as",
        "king"
      ],
      [
        "▁l",
        "i"
      ],
      [
        "▁h",
        "a"
      ],
      [
        "▁a",
        "f"
      ],
      [
        "▁fr",
        "ont"
      ],
      [
        "▁m",
        "ail"
      ],
      [
        "u",
        "ss"
      ],
      [
        "▁tre",
        "es"
      ],
      [
        "▁m",
        "ade"
      ],
      [
        "i",
        "n"
      ],
      [
        "▁a",
        "ut"
      ],
      [
        ".d",
        "oc"
      ],
      [
        "▁o",
        "p"
      ],
      [
        "ow",
        "ers"
      ],
      [
        "▁iss",
        "ue"
      ],
      [
        "▁inclu",
        "des"
      ],
      [
        "▁",
        "ed"
      ],
      [
        "um",
        "ent"
      ],
      [
        "l",
        "s"
      ],
      [
        "an",
        "ks"
      ],
      [
        "in",
        "ate"
      ],
      [
        "▁c",
        "oup"
      ],
      [
        "▁fi",
        "x"
      ],
      [
        "▁id",
        "enti"
      ],
      [
        "at",
        "h"
      ],
      [
        "▁rep",
        "e"
      ],
      [
        "▁s",
        "qu"
      ],
      [
        "le",
        "y"
      ],
      [
        "▁y",
        "a"
      ],
      [
        "▁day",
        "s"
      ],
      [
        "▁isl",
        "ands"
      ],
      [
        "om",
        "e"
      ],
      [
        "ere",
        "d"
      ],
      [
        "▁anim",
        "al"
      ],
      [
        "▁w",
        "ild"
      ],
      [
        "▁fr",
        "anc"
      ],
      [
        "▁!!!",
        "!"
      ],
      [
        "▁hear",
        "d"
      ],
      [
        "▁prot",
        "ect"
      ],
      [
        "▁oak",
        "land"
      ],
      [
        "d",
        "e"
      ],
      [
        "▁m",
        "ind"
      ],
      [
        "▁ex",
        "pos"
      ],
      [
        "r",
        "ed"
      ],
      [
        "▁b",
        "ased"
      ],
      [
        "▁is",
        "su"
      ],
      [
        "▁d",
        "ere"
      ],
      [
        "id",
        "den"
      ],
      [
        "▁br",
        "ain"
      ],
      [
        "oul",
        "d"
      ],
      [
        "▁ev",
        "en"
      ],
      [
        "m",
        "y"
      ],
      [
        "▁c",
        "ould"
      ],
      [
        "y",
        "ed"
      ],
      [
        "▁st",
        "ore"
      ],
      [
        "▁go",
        "ing"
      ],
      [
        "▁re",
        "ached"
      ],
      [
        "▁n",
        "'t"
      ],
      [
        "▁st",
        "uff"
      ],
      [
        "▁convers",
        "ation"
      ],
      [
        "▁’",
        "m"
      ],
      [
        "▁bec",
        "ome"
      ],
      [
        "▁h",
        "o"
      ],
      [
        "▁c",
        "op"
      ],
      [
        "▁anal",
        "ys"
      ],
      [
        "fic",
        "ation"
      ],
      [
        "▁p",
        "u"
      ],
      [
        "▁ro",
        "b"
      ],
      [
        "▁bud",
        "get"
      ],
      [
        "▁sk",
        "ills"
      ],
      [
        "▁wal",
        "ked"
      ],
      [
        "▁dro",
        "p"
      ],
      [
        "pl",
        "an"
      ],
      [
        "▁out",
        "side"
      ],
      [
        "ro",
        "l"
      ],
      [
        "▁ac",
        "tually"
      ],
      [
        "▁m",
        "ass"
      ],
      [
        "▁a",
        "w"
      ],
      [
        "ac",
        "tions"
      ],
      [
        "en",
        "ted"
      ],
      [
        "▁mil",
        "es"
      ],
      [
        "um",
        "s"
      ],
      [
        "▁wor",
        "d"
      ],
      [
        "c",
        "le"
      ],
      [
        "▁a",
        "round"
      ],
      [
        "▁ass",
        "ist"
      ],
      [
        "▁sh",
        "op"
      ],
      [
        "▁cir",
        "cle"
      ],
      [
        "▁ele",
        "ph"
      ],
      [
        "▁ar",
        "ri"
      ],
      [
        "▁s",
        "ug"
      ],
      [
        "▁as",
        "p"
      ],
      [
        "▁hav",
        "ing"
      ],
      [
        "▁ar",
        "gu"
      ],
      [
        "▁co",
        "ver"
      ],
      [
        "▁in",
        "f"
      ],
      [
        "it",
        "her"
      ],
      [
        "c",
        "ha"
      ],
      [
        "▁deli",
        "very"
      ],
      [
        "▁m",
        "us"
      ],
      [
        "▁",
        "ke"
      ],
      [
        "an",
        "ts"
      ],
      [
        "f",
        "l"
      ],
      [
        "▁d",
        "re"
      ],
      [
        "it",
        "ing"
      ],
      [
        "▁b",
        "et"
      ],
      [
        "▁co",
        "n"
      ],
      [
        "▁proble",
        "m"
      ],
      [
        "s",
        "ide"
      ],
      [
        "ult",
        "ure"
      ],
      [
        "▁ag",
        "ain"
      ],
      [
        "or",
        "ds"
      ],
      [
        "▁how",
        "ever"
      ],
      [
        "▁mar",
        "kets"
      ],
      [
        "▁tre",
        "ated"
      ],
      [
        "----------------",
        "----------------"
      ],
      [
        "e",
        "m"
      ],
      [
        "▁broke",
        "n"
      ],
      [
        "a",
        "ff"
      ],
      [
        "e",
        "b"
      ],
      [
        "▁",
        "r"
      ],
      [
        "▁li",
        "ter"
      ],
      [
        "▁est",
        "ab"
      ],
      [
        "▁",
        "and"
      ],
      [
        "▁mar",
        "ried"
      ],
      [
        "▁l",
        "aw"
      ],
      [
        "▁l",
        "ong"
      ],
      [
        "v",
        "ers"
      ],
      [
        "ist",
        "ing"
      ],
      [
        "▁gu",
        "ess"
      ],
      [
        "▁at",
        "op"
      ],
      [
        "e",
        "as"
      ],
      [
        "au",
        "se"
      ],
      [
        "enc",
        "ies"
      ],
      [
        "▁lad",
        "y"
      ],
      [
        "▁mur",
        "der"
      ],
      [
        "a",
        "ur"
      ],
      [
        "▁!!!",
        "!!!!"
      ],
      [
        "▁ref",
        "erence"
      ],
      [
        "▁",
        "*"
      ],
      [
        "▁sy",
        "m"
      ],
      [
        "ul",
        "t"
      ],
      [
        "i",
        "um"
      ],
      [
        "▁d",
        "og"
      ],
      [
        "▁cre",
        "ate"
      ],
      [
        "▁stud",
        "ying"
      ],
      [
        "▁m",
        "an"
      ],
      [
        "▁w",
        "ay"
      ],
      [
        "▁",
        "q"
      ],
      [
        "+",
        "+"
      ],
      [
        "▁l",
        "itt"
      ],
      [
        "▁de",
        "re"
      ],
      [
        "▁pi",
        "eces"
      ],
      [
        "▁agre",
        "ement"
      ],
      [
        "▁lear",
        "ning"
      ],
      [
        "▁import",
        "ance"
      ],
      [
        "lic",
        "ations"
      ],
      [
        "▁govern",
        "ment"
      ],
      [
        "▁com",
        "m"
      ],
      [
        "▁v",
        "ar"
      ],
      [
        "v",
        "el"
      ],
      [
        "ou",
        "p"
      ],
      [
        "▁b",
        "it"
      ],
      [
        "o",
        "ice"
      ],
      [
        "▁re",
        "ality"
      ],
      [
        "n",
        "el"
      ],
      [
        "e",
        "el"
      ],
      [
        "▁com",
        "b"
      ],
      [
        "▁st",
        "ory"
      ],
      [
        "▁ch",
        "ee"
      ],
      [
        "u",
        "ght"
      ],
      [
        "▁to",
        "o"
      ],
      [
        "▁inf",
        "l"
      ],
      [
        "▁ship",
        "s"
      ],
      [
        "ne",
        "ath"
      ],
      [
        "j",
        "www"
      ],
      [
        "i",
        "d"
      ],
      [
        "▁cent",
        "ury"
      ],
      [
        "▁k",
        "ind"
      ],
      [
        "a",
        "z"
      ],
      [
        "▁imp",
        "lem"
      ],
      [
        "▁ob",
        "t"
      ],
      [
        "▁sand",
        "wic"
      ],
      [
        "0",
        "0"
      ],
      [
        "▁resul",
        "t"
      ],
      [
        "▁es",
        "c"
      ],
      [
        "▁re",
        "s"
      ],
      [
        "▁sk",
        "in"
      ],
      [
        "▁v",
        "is"
      ],
      [
        "▁v",
        "ia"
      ],
      [
        "▁ind",
        "ivid"
      ],
      [
        "c",
        "akes"
      ],
      [
        "l",
        "i"
      ],
      [
        "▁seas",
        "on"
      ],
      [
        "▁f",
        "act"
      ],
      [
        "▁t",
        "he"
      ],
      [
        "▁ad",
        "d"
      ],
      [
        "▁lea",
        "ve"
      ],
      [
        "▁ben",
        "ef"
      ],
      [
        "▁sw",
        "im"
      ],
      [
        "lin",
        "e"
      ],
      [
        "▁techn",
        "ology"
      ],
      [
        "▁",
        "like"
      ],
      [
        "▁appl",
        "y"
      ],
      [
        "▁fo",
        "c"
      ],
      [
        "a",
        "t"
      ],
      [
        "▁c",
        "at"
      ],
      [
        "▁a",
        "way"
      ],
      [
        "▁th",
        "ose"
      ],
      [
        "t",
        "ai"
      ],
      [
        "▁b",
        "ook"
      ],
      [
        "▁occ",
        "ur"
      ],
      [
        "▁re",
        "qu"
      ],
      [
        "▁c",
        "ock"
      ],
      [
        "********************************",
        "**"
      ],
      [
        "▁ho",
        "p"
      ],
      [
        "▁independ",
        "ence"
      ],
      [
        "▁p",
        "ush"
      ],
      [
        "▁w",
        "ond"
      ],
      [
        "▁r",
        "out"
      ],
      [
        "▁",
        "ll"
      ],
      [
        "is",
        "m"
      ],
      [
        "▁know",
        "ledge"
      ],
      [
        "▁gro",
        "up"
      ],
      [
        "▁",
        "********"
      ],
      [
        "▁forg",
        "ot"
      ],
      [
        "▁dog",
        "g"
      ],
      [
        "ter",
        "ing"
      ],
      [
        "▁d",
        "aughter"
      ],
      [
        "--------",
        "--------"
      ],
      [
        "▁re",
        "memb"
      ],
      [
        "c",
        "k"
      ],
      [
        "er",
        "v"
      ],
      [
        "ot",
        "e"
      ],
      [
        "▁stre",
        "et"
      ],
      [
        "▁",
        "********************************"
      ],
      [
        "▁d",
        "r"
      ],
      [
        "ar",
        "d"
      ],
      [
        "ti",
        "es"
      ],
      [
        "▁",
        "un"
      ],
      [
        "▁un",
        "like"
      ],
      [
        "▁t",
        "hen"
      ],
      [
        "▁m",
        "ap"
      ],
      [
        "y",
        "body"
      ],
      [
        "▁un",
        "ivers"
      ],
      [
        "li",
        "ef"
      ],
      [
        "▁care",
        "er"
      ],
      [
        "ic",
        "al"
      ],
      [
        "▁tu",
        "esday"
      ],
      [
        "▁s",
        "uc"
      ],
      [
        "▁surp",
        "r"
      ],
      [
        "or",
        "es"
      ],
      [
        "an",
        "c"
      ],
      [
        "▁stand",
        "ards"
      ],
      [
        "▁agre",
        "ed"
      ],
      [
        "ag",
        "ing"
      ],
      [
        "▁airlin",
        "es"
      ],
      [
        "▁mr",
        "s"
      ],
      [
        "ough",
        "t"
      ],
      [
        "?",
        "?"
      ],
      [
        "▁am",
        "b"
      ],
      [
        "▁sl",
        "eep"
      ],
      [
        "i",
        "ti"
      ],
      [
        "▁kn",
        "oc"
      ],
      [
        "▁int",
        "el"
      ],
      [
        "▁wou",
        "d"
      ],
      [
        "▁w",
        "ed"
      ],
      [
        "▁rep",
        "lication"
      ],
      [
        "em",
        "ber"
      ],
      [
        "▁st",
        "aff"
      ],
      [
        "au",
        "gh"
      ],
      [
        "▁int",
        "roduc"
      ],
      [
        "u",
        "nd"
      ],
      [
        "▁de",
        "f"
      ],
      [
        "▁produc",
        "tion"
      ],
      [
        "ab",
        "ility"
      ],
      [
        "▁se",
        "as"
      ],
      [
        "▁m",
        "ech"
      ],
      [
        "▁lead",
        "er"
      ],
      [
        "▁count",
        "ry"
      ],
      [
        "i",
        "re"
      ],
      [
        "▁s",
        "n"
      ],
      [
        "▁some",
        "body"
      ],
      [
        "ur",
        "day"
      ],
      [
        "on",
        "t"
      ],
      [
        "or",
        "s"
      ],
      [
        "re",
        "w"
      ],
      [
        "p",
        "y"
      ],
      [
        "▁li",
        "ked"
      ],
      [
        "ur",
        "y"
      ],
      [
        "ic",
        "t"
      ],
      [
        "t",
        "ive"
      ],
      [
        "o",
        "y"
      ],
      [
        "▁dis",
        "c"
      ],
      [
        "▁f",
        "ace"
      ],
      [
        "▁b",
        "orn"
      ],
      [
        "▁c",
        "ats"
      ],
      [
        "▁ev",
        "idence"
      ],
      [
        "▁govern",
        "ments"
      ],
      [
        "at",
        "o"
      ],
      [
        "et",
        "y"
      ],
      [
        "nd",
        "ing"
      ],
      [
        "▁d",
        "iff"
      ],
      [
        "▁",
        "op"
      ],
      [
        "u",
        "ch"
      ],
      [
        "▁st",
        "."
      ],
      [
        "▁thurs",
        "day"
      ],
      [
        "at",
        "ch"
      ],
      [
        "▁ac",
        "cess"
      ],
      [
        "▁w",
        "ake"
      ],
      [
        "▁app",
        "ro"
      ],
      [
        "▁be",
        "low"
      ],
      [
        "il",
        "i"
      ],
      [
        "▁wee",
        "k"
      ],
      [
        "▁surpr",
        "ise"
      ],
      [
        "▁p",
        "il"
      ],
      [
        "iv",
        "ers"
      ],
      [
        "▁room",
        "s"
      ],
      [
        "p",
        "ly"
      ],
      [
        "▁lea",
        "ving"
      ],
      [
        "▁ch",
        "ild"
      ],
      [
        "▁inclu",
        "de"
      ],
      [
        "▁",
        "ar"
      ],
      [
        "▁s",
        "e"
      ],
      [
        "▁pres",
        "ident"
      ],
      [
        "▁li",
        "e"
      ],
      [
        "▁f",
        "r"
      ],
      [
        "ain",
        "ing"
      ],
      [
        "▁ke",
        "y"
      ],
      [
        "b",
        "s"
      ],
      [
        "▁h",
        "alf"
      ],
      [
        "▁w",
        "ind"
      ],
      [
        "b",
        "oy"
      ],
      [
        "▁n",
        "on"
      ],
      [
        "▁island",
        "s"
      ],
      [
        "uc",
        "h"
      ],
      [
        "ou",
        "ts"
      ],
      [
        "l",
        "e"
      ],
      [
        "▁disc",
        "us"
      ],
      [
        "▁l",
        "ab"
      ],
      [
        "▁de",
        "ce"
      ],
      [
        "c",
        "tion"
      ],
      [
        "ith",
        "er"
      ],
      [
        "▁m",
        "er"
      ],
      [
        "▁-----------------------------------------------------------------",
        "------"
      ],
      [
        "▁it",
        "em"
      ],
      [
        "p",
        "os"
      ],
      [
        "u",
        "tions"
      ],
      [
        "▁ac",
        "tions"
      ],
      [
        "▁p",
        "our"
      ],
      [
        "at",
        "es"
      ],
      [
        "▁show",
        "ing"
      ],
      [
        "i",
        "ew"
      ],
      [
        "▁",
        "is"
      ],
      [
        "ot",
        "t"
      ],
      [
        "▁!!!",
        "!!"
      ],
      [
        "▁inter",
        "n"
      ],
      [
        "▁gard",
        "en"
      ],
      [
        "=",
        "----"
      ],
      [
        "▁c",
        "he"
      ],
      [
        "ar",
        "ies"
      ],
      [
        "▁th",
        "a"
      ],
      [
        "▁am",
        "ong"
      ],
      [
        "▁wor",
        "king"
      ],
      [
        "s",
        "us"
      ],
      [
        "▁c",
        "ycle"
      ],
      [
        "li",
        "c"
      ],
      [
        "▁",
        "cha"
      ],
      [
        "▁fac",
        "ts"
      ],
      [
        "▁k",
        "ill"
      ],
      [
        "▁co",
        "ve"
      ],
      [
        "▁ed",
        "uc"
      ],
      [
        "▁mad",
        "am"
      ],
      [
        "▁sup",
        "port"
      ],
      [
        "▁tre",
        "e"
      ],
      [
        "▁ch",
        "e"
      ],
      [
        "▁in",
        "struc"
      ],
      [
        "▁********************************",
        "****************"
      ],
      [
        "o",
        "re"
      ],
      [
        "▁h",
        "oney"
      ],
      [
        "▁p",
        "ot"
      ],
      [
        "▁ne",
        "w"
      ],
      [
        "▁sc",
        "ience"
      ],
      [
        "▁te",
        "ach"
      ],
      [
        "▁j",
        "e"
      ],
      [
        "▁",
        "in"
      ],
      [
        "ow",
        "ed"
      ],
      [
        "at",
        "s"
      ],
      [
        "▁s",
        "ide"
      ],
      [
        "▁",
        "ne"
      ],
      [
        "ro",
        "om"
      ],
      [
        "▁maint",
        "ain"
      ],
      [
        "▁r",
        "en"
      ],
      [
        "▁b",
        "u"
      ],
      [
        "ou",
        "ld"
      ],
      [
        "▁ad",
        "am"
      ],
      [
        "▁su",
        "re"
      ],
      [
        "▁go",
        "es"
      ],
      [
        "▁with",
        "out"
      ],
      [
        "▁m",
        "inus"
      ],
      [
        "a",
        "mp"
      ],
      [
        "▁rev",
        "iew"
      ],
      [
        "▁din",
        "ner"
      ],
      [
        "▁lo",
        "st"
      ],
      [
        "o",
        "or"
      ],
      [
        "en",
        "g"
      ],
      [
        "▁",
        "en"
      ],
      [
        "▁acc",
        "ess"
      ],
      [
        "▁s",
        "um"
      ],
      [
        "▁conn",
        "ection"
      ],
      [
        "i",
        "f"
      ],
      [
        "gh",
        "t"
      ],
      [
        "▁trave",
        "l"
      ],
      [
        "▁spe",
        "aking"
      ],
      [
        "▁in",
        "it"
      ],
      [
        "▁ap",
        "ril"
      ],
      [
        "▁sect",
        "or"
      ],
      [
        "▁.",
        "?"
      ],
      [
        "em",
        "ents"
      ],
      [
        "▁comm",
        "ission"
      ],
      [
        "▁whe",
        "el"
      ],
      [
        "▁dest",
        "ro"
      ],
      [
        "▁mov",
        "ement"
      ],
      [
        "r",
        "en"
      ],
      [
        "▁t",
        "a"
      ],
      [
        "▁",
        "l"
      ],
      [
        "▁see",
        "k"
      ],
      [
        "▁ref",
        "er"
      ],
      [
        "n",
        "ly"
      ],
      [
        "e",
        "ly"
      ],
      [
        "▁dem",
        "onstr"
      ],
      [
        "▁tem",
        "per"
      ],
      [
        "▁r",
        "at"
      ],
      [
        "▁drink",
        "ing"
      ],
      [
        "▁---",
        "-"
      ],
      [
        "▁r",
        "ock"
      ],
      [
        "▁f",
        "un"
      ],
      [
        "▁",
        "at"
      ],
      [
        "a",
        "ll"
      ],
      [
        "▁",
        "@"
      ],
      [
        "/",
        "he"
      ],
      [
        "res",
        "s"
      ],
      [
        "▁menti",
        "on"
      ],
      [
        "l",
        "d"
      ],
      [
        "▁str",
        "ing"
      ],
      [
        "▁sa",
        "id"
      ],
      [
        "▁fam",
        "ili"
      ],
      [
        "▁ch",
        "oice"
      ],
      [
        "▁run",
        "ning"
      ],
      [
        "▁re",
        "n"
      ],
      [
        "ry",
        "ing"
      ],
      [
        "anc",
        "ed"
      ],
      [
        "▁pittsbur",
        "gh"
      ],
      [
        "ali",
        "st"
      ],
      [
        "▁cos",
        "ts"
      ],
      [
        "▁rev",
        "en"
      ],
      [
        "m",
        "ar"
      ],
      [
        "▁supp",
        "osed"
      ],
      [
        "a",
        "king"
      ],
      [
        "▁pre",
        "ven"
      ],
      [
        "▁laur",
        "a"
      ],
      [
        "▁h",
        "e"
      ],
      [
        "il",
        "e"
      ],
      [
        "▁wh",
        "ich"
      ],
      [
        "▁am",
        "ount"
      ],
      [
        "▁b",
        "om"
      ],
      [
        "▁influ",
        "ence"
      ],
      [
        "▁o",
        "pp"
      ],
      [
        "▁u",
        "h"
      ],
      [
        "▁w",
        "rote"
      ],
      [
        "▁happen",
        "ing"
      ],
      [
        "▁restaur",
        "ant"
      ],
      [
        "i",
        "ce"
      ],
      [
        "▁one",
        "self"
      ],
      [
        "ash",
        "ed"
      ],
      [
        "i",
        "le"
      ],
      [
        "▁sec",
        "ret"
      ],
      [
        "ent",
        "ed"
      ],
      [
        "▁b",
        "/"
      ],
      [
        "ion",
        "s"
      ],
      [
        "▁eff",
        "ects"
      ],
      [
        "▁fi",
        "ght"
      ],
      [
        "t",
        "ure"
      ],
      [
        "▁cro",
        "s"
      ],
      [
        "▁lead",
        "ing"
      ],
      [
        "▁",
        "on"
      ],
      [
        "▁y",
        "e"
      ],
      [
        "▁ps",
        "ych"
      ],
      [
        "▁p",
        "art"
      ],
      [
        "▁p",
        "m"
      ],
      [
        "▁we",
        "ather"
      ],
      [
        "▁cour",
        "t"
      ],
      [
        "▁chang",
        "ed"
      ],
      [
        "o",
        "ices"
      ],
      [
        "▁",
        "+"
      ],
      [
        "p",
        "r"
      ],
      [
        "ith",
        "st"
      ],
      [
        "▁al",
        "l"
      ],
      [
        "v",
        "ed"
      ],
      [
        "al",
        "k"
      ],
      [
        "u",
        "gh"
      ],
      [
        "is",
        "ted"
      ],
      [
        "n",
        "ed"
      ],
      [
        "u",
        "ter"
      ],
      [
        "o",
        "r"
      ],
      [
        "ithst",
        "anding"
      ],
      [
        "▁b/",
        "c"
      ],
      [
        "es",
        "ted"
      ],
      [
        "▁bec",
        "ause"
      ],
      [
        "f",
        "ic"
      ],
      [
        "▁sal",
        "ad"
      ],
      [
        "????",
        "????"
      ],
      [
        "▁deter",
        "m"
      ],
      [
        "o",
        "ut"
      ],
      [
        "▁f",
        "irst"
      ],
      [
        "▁comm",
        "ents"
      ],
      [
        "iv",
        "e"
      ],
      [
        "iv",
        "id"
      ],
      [
        "r",
        "on"
      ],
      [
        "▁far",
        "m"
      ],
      [
        "▁p",
        "as"
      ],
      [
        "▁n",
        "amed"
      ],
      [
        "ce",
        "ss"
      ],
      [
        "▁pe",
        "an"
      ],
      [
        "i",
        "ving"
      ],
      [
        "id",
        "ed"
      ],
      [
        "▁ne",
        "ar"
      ],
      [
        ".",
        "d"
      ],
      [
        "▁su",
        "r"
      ],
      [
        "▁po",
        "in"
      ],
      [
        "er",
        "ing"
      ],
      [
        "▁s",
        "ti"
      ],
      [
        "!",
        "?"
      ],
      [
        "▁turn",
        "ing"
      ],
      [
        "▁be",
        "st"
      ],
      [
        "▁re",
        "ach"
      ],
      [
        "▁w",
        "ill"
      ],
      [
        "▁h",
        "ide"
      ],
      [
        "ro",
        "duction"
      ],
      [
        "▁i",
        "r"
      ],
      [
        "▁coun",
        "t"
      ],
      [
        "c",
        "ally"
      ],
      [
        "▁der",
        "e"
      ],
      [
        "a",
        "v"
      ],
      [
        "a",
        "x"
      ],
      [
        "a",
        "ck"
      ],
      [
        "▁hour",
        "s"
      ],
      [
        "c",
        "c"
      ],
      [
        "▁f",
        "ar"
      ],
      [
        "le",
        "dge"
      ],
      [
        "▁pres",
        "ent"
      ],
      [
        "▁li",
        "ve"
      ],
      [
        "▁employ",
        "ees"
      ],
      [
        "▁writ",
        "ers"
      ],
      [
        "▁b",
        "ush"
      ],
      [
        "▁com",
        "ed"
      ],
      [
        "▁app",
        "rec"
      ],
      [
        "as",
        "t"
      ],
      [
        "****************",
        "****************"
      ],
      [
        "▁sec",
        "urity"
[...]
