{
  "version": "1.0",
  "truncation": null,
  "padding": null,
  "added_tokens": [
    {
      "id": 1487,
      "content": "[MASK]",
      "single_word": false,
      "lstrip": false,
      "rstrip": false,
      "normalized": false,
      "special": true
    },
    {
      "id": 2909,
      "content": "[CLS]",
      "single_word": false,
      "lstrip": false,
      "rstrip": false,
      "normalized": false,
      "special": true
    },
    {
      "id": 2977,
      "content": "[PAD]",
      "single_word": false,
      "lstrip": false,
      "rstrip": false,
      "normalized": false,
      "special": true
    },
    {
      "id": 3511,
      "content": "[SEP]",
      "single_word": false,
      "lstrip": false,
      "rstrip": false,
      "normalized": false,
      "special": true
    },
    {
      "id": 3747,
      "content": "[UNK]",
      "single_word": false,
      "lstrip": false,
      "rstrip": false,
      "normalized": false,
      "special": true
    }
  ],
  "normalizer": {
    "type": "Sequence",
    "normalizers": [
      {
        "type": "NFD"
      },
      {
        "type": "Lowercase"
      },
      {
        "type": "StripAccents"
      }
    ]
  },
  "pre_tokenizer": {
    "type": "Sequence",
    "pretokenizers": [
      {
        "type": "Metaspace",
        "replacement": "▁",
        "prepend_scheme": "always",
        "split": true
      }
    ]
  },
  "post_processor": {
    "type": "TemplateProcessing",
    "single": [
      {
        "SpecialToken": {
          "id": "[CLS]",
          "type_id": 0
        }
      },
      {
        "Sequence": {
          "id": "A",
          "type_id": 0
        }
      },
      {
        "SpecialToken": {
          "id": "[SEP]",
          "type_id": 0
        }
      }
    ],
    "pair": [
      {
        "SpecialToken": {
          "id": "[CLS]",
          "type_id": 0
        }
      },
      {
        "Sequence": {
          "id": "A",
          "type_id": 0
        }
      },
      {
        "SpecialToken": {
          "id": "[SEP]",
          "type_id": 0
        }
      },
      {
        "Sequence": {
          "id": "B",
          "type_id": 1
        }
      },
      {
        "SpecialToken": {
          "id": "[SEP]",
          "type_id": 1
        }
      }
    ],
    "special_tokens": {
      "[CLS]": {
        "id": "[CLS]",
        "ids": [
          2909
        ],
        "tokens": [
          "[CLS]"
        ]
      },
      "[SEP]": {
        "id": "[SEP]",
        "ids": [
          3511
        ],
        "tokens": [
          "[SEP]"
        ]
      }
    }
  },
  "decoder": {
    "type": "Metaspace",
    "replacement": "▁",
    "prepend_scheme": "always",
    "split": true
  },
  "model": {
    "type": "Unigram",
    "unk_id": 3747,
    "vocab": [
      [
        "▁flight",
        -4.05477935888929
      ],
      [
        "▁never",
        -5.373709755189779
      ],
      [
        "▁distribute",
        -8.56609744035245
      ],
      [
        "▁eight",
        -5.45617522748721
      ],
      [
        "▁blame",
        -9.251880993408966
      ],
      [
        "▁incorporate",
        -8.867489578700768
      ],
      [
        "▁look",
        -7.8127469088293395
      ],
      [
        "r",
        -5.4322971977959815
      ],
      [
        "ry",
        -7.149390423445237
      ],
      [
        "▁few",
        -5.7598031210673275
      ],
      [
        "ted",
        -6.377831684507669
      ],
      [
        "▁quick",
        -6.745647669671999
      ],
      [
        "▁toast",
        -7.981855447091121
      ],
      [
        "▁over",
        -5.6506729416107095
      ],
      [
        "▁than",
        -5.888803821775666
      ],
      [
        "▁hop",
        -8.4796290412475
      ],
      [
        "▁name",
        -7.643043092503144
      ],
      [
        "@",
        -7.373634829589041
      ],
      [
        "▁can",
        -8.416500390356541
      ],
      [
        "▁stand",
        -6.8487066663305365
      ],
      [
        "▁shake",
        -8.986524122660615
      ],
      [
        "▁man",
        -6.271984359750811
      ],
      [
        "▁coin",
        -9.17480565591104
      ],
      [
        "▁breast",
        -9.217005135816757
      ],
      [
        "ight",
        -7.544412920616464
      ],
      [
        "abou",
        -8.011008626944378
      ],
      [
        "▁atm",
        -8.398147954647921
      ],
      [
        "▁past",
        -8.048516230934672
      ],
      [
        "▁value",
        -7.271130486973546
      ],
      [
        "▁p",
        -9.237570785962834
      ],
      [
        "alit",
        -8.760430665631885
      ],
      [
        "▁threat",
        -8.355886072813451
      ],
      [
        "▁board",
        -9.283379317465256
      ],
      [
        "▁limit",
        -8.544266779409964
      ],
      [
        "▁participa",
        -9.038718271847005
      ],
      [
        "▁photograph",
        -8.458866092533237
      ],
      [
        "lo",
        -13.605216885803905
      ],
      [
        "▁effect",
        -7.63730569847781
      ],
      [
        "▁talk",
        -8.134830892226333
      ],
      [
        "▁server",
        -8.820251348788805
      ],
      [
        "shoul",
        -8.078104899454067
      ],
      [
        "en",
        -7.409934509845575
      ],
      [
        "▁e-mail",
        -8.536140217672678
      ],
      [
        "▁relax",
        -9.119215601218187
      ],
      [
        "in",
        -7.051805178413207
      ],
      [
        "▁suc",
        -6.023455274139659
      ],
      [
        "▁shal",
        -7.0325008928194634
      ],
      [
        "▁propose",
        -7.770609407272636
      ],
      [
        "x",
        -12.039036616560043
      ],
      [
        "▁eas",
        -6.711564089444368
      ],
      [
        "▁high",
        -6.500572263972546
      ],
      [
        "▁hi",
        -7.870383075677771
      ],
      [
        "▁doll",
        -8.370678581328722
      ],
      [
        "▁ass",
        -8.863973836113304
      ],
      [
        "▁commissioner",
        -8.943416559594128
      ],
      [
        "ut",
        -7.937917079015779
      ],
      [
        "kin",
        -9.038414802321533
      ],
      [
        "!!!!!!!!!!!!!!!!",
        -11.398152869348259
      ],
      [
        "▁do",
        -9.172013762299397
      ],
      [
        "▁qu",
        -8.601907235679407
      ],
      [
        "▁concept",
        -8.195374080475702
      ],
      [
        "▁disappear",
        -9.025395337929355
      ],
      [
        "▁sent",
        -7.317329916154069
      ],
      [
        "▁customer",
        -7.382587718953526
      ],
      [
        "▁monday",
        -7.278818467358424
      ],
      [
        "▁band",
        -7.930891841909929
      ],
      [
        "▁bottom",
        -8.185669981593628
      ],
      [
        "▁cat",
        -7.130995090598845
      ],
      [
        "▁tri",
        -8.25020254601136
      ],
      [
        "▁wan",
        -5.44162962435048
      ],
      [
        "▁attempt",
        -8.347490172119276
      ],
      [
        "lack",
        -8.294906127598889
      ],
      [
        "▁afford",
        -8.68904551827087
      ],
      [
        "nd",
        -9.236601350363305
      ],
      [
        "▁light",
        -6.78941206518117
      ],
      [
        "▁cup",
        -7.551690482998459
      ],
      [
        ".........",
        -12.385442840267194
      ],
      [
        "ing",
        -7.042262489258168
      ],
      [
        "▁pin",
        -8.715703490953587
      ],
      [
        "▁imagine",
        -7.707056211457395
      ],
      [
        "▁reference",
        -9.376456987727982
      ],
      [
        "▁tw",
        -3.110490919801345
      ],
      [
        "or",
        -6.1111258282432015
      ],
      [
        "▁",
        -2.345074069766005
      ],
      [
        "ou",
        -10.303329679541383
      ],
      [
        "ence",
        -7.176978326991938
      ],
      [
        "▁d",
        -6.385383206556363
      ],
      [
        "▁iraq",
        -6.531904846313313
      ],
      [
        "▁develop",
        -7.219263868034157
      ],
      [
        "▁implement",
        -8.887512159290885
      ],
      [
        "▁man",
        -4.986646391547884
      ],
      [
        "▁husband",
        -8.315477941053604
      ],
      [
        "▁feeling",
        -8.563669727287229
      ],
      [
        "▁whi",
        -8.851405274144836
      ],
      [
        "******",
        -12.400348347525032
      ],
      [
        "'",
        -10.925660239071423
      ],
      [
        "▁solution",
        -8.15147945569067
      ],
      [
        "ark",
        -6.658144165809635
      ],
      [
        "▁swing",
        -9.217164200865096
      ],
      [
        "▁range",
        -8.5386288540977
      ],
      [
        "▁mar",
        -7.297696740242505
      ],
      [
        "▁quin",
        -6.679816597294388
      ],
      [
        "▁forgot",
        -7.758661021247899
      ],
      [
        "▁nai",
        -7.200946706543447
      ],
      [
        ",",
        -2.0458494590007046
      ],
      [
        "▁more",
        -4.831757204896697
      ],
      [
        "▁pocket",
        -7.754459659503548
      ],
      [
        "▁at",
        -5.040331045484085
      ],
      [
        "▁discussion",
        -8.37671935351842
      ],
      [
        "▁source",
        -7.55071559283623
      ],
      [
        "i",
        -4.958782707846554
      ],
      [
        "ve",
        -8.736942800002197
      ],
      [
        "ell",
        -9.37663353454375
      ],
      [
        "call",
        -6.4707648400225155
      ],
      [
        "▁turn",
        -7.996151635643568
      ],
      [
        "▁plan",
        -7.598651349297334
      ],
      [
        "_",
        -4.6553638775550565
      ],
      [
        "▁sept",
        -6.604449666732887
      ],
      [
        "▁tho",
        -7.397496751881506
      ],
      [
        "▁taste",
        -9.080392337325485
      ],
      [
        "ell",
        -7.1683916806056445
      ],
      [
        "▁health",
        -7.667920062814694
      ],
      [
        "re",
        -11.340506330349145
      ],
      [
        "▁help",
        -5.928976135903623
      ],
      [
        "▁ph",
        -9.177900458162007
      ],
      [
        "▁ca",
        -4.021459500937557
      ],
      [
        "an",
        -5.83024036355754
      ],
      [
        "▁as",
        -5.1827083301970625
      ],
      [
        "▁sub",
        -8.41573437559284
      ],
      [
        "▁f",
        -7.008989567983062
      ],
      [
        "bec",
        -10.574143790540935
      ],
      [
        "▁clos",
        -8.852234879791947
      ],
      [
        "▁study",
        -7.4287601947056805
      ],
      [
        "f",
        -10.765301919425882
      ],
      [
        "▁nation",
        -8.005637762208256
      ],
      [
        "▁shoul",
        -5.182621289545295
      ],
      [
        "▁se",
        -8.652816902886462
      ],
      [
        "easure",
        -8.95922014463483
      ],
      [
        "▁ha",
        -8.56060294069948
      ],
      [
        "▁religion",
        -8.787439871338812
      ],
      [
        "▁a",
        -6.484556626444801
      ],
      [
        "en",
        -8.960701284908302
      ],
      [
        "he",
        -6.877013255523378
      ],
      [
        "o",
        -5.874656600078543
      ],
      [
        "▁reason",
        -7.171711951534217
      ],
      [
        "▁beach",
        -8.011133271847363
      ],
      [
        "▁meaning",
        -8.453463297589357
      ],
      [
        "th",
        -6.309957278833341
      ],
      [
        "▁change",
        -6.890078977690357
      ],
      [
        "▁children",
        -7.048035830856158
      ],
      [
        "p",
        -5.293431670462068
      ],
      [
        "▁intend",
        -7.878414666613796
      ],
      [
        "▁warm",
        -9.092386316359836
      ],
      [
        "▁drink",
        -8.040256502061432
      ],
      [
        "▁court",
        -8.257977252391235
      ],
      [
        "▁near",
        -6.854433502134984
      ],
      [
        "▁progress",
        -8.561140223292318
      ],
      [
        "▁thre",
        -8.490099273367074
      ],
      [
        "▁express",
        -8.509294847339676
      ],
      [
        "▁made",
        -5.751019815800901
      ],
      [
        "l",
        -4.932719265569361
      ],
      [
        "▁solve",
        -9.079268602044394
      ],
      [
        "▁mumm",
        -8.316246375597277
      ],
      [
        "el",
        -7.5636873367490205
      ],
      [
        "▁shopp",
        -9.08431180265642
      ],
      [
        "▁son",
        -7.88314789012954
      ],
      [
        "▁happen",
        -6.11653004623147
      ],
      [
        "▁calculate",
        -9.310419178133518
      ],
      [
        "▁so",
        -3.7744192074049634
      ],
      [
        "oul",
        -4.862598188843797
      ],
      [
        "ial",
        -6.617192983272803
      ],
      [
        "▁y",
        -12.564790908332268
      ],
      [
        "ee",
        -5.7134182807115295
      ],
      [
        "▁tha",
        -2.389866280899322
      ],
      [
        "▁park",
        -9.212673940397465
      ],
      [
        "t",
        -5.349699802262843
      ],
      [
        "ibl",
        -7.063379830970229
      ],
      [
        "!!!!",
        -9.583850804162543
      ],
      [
        "▁website",
        -7.812616912668437
      ],
      [
        "ke",
        -8.411514511320402
      ],
      [
        "▁sorr",
        -6.765052041130429
      ],
      [
        "▁allow",
        -6.980942798830301
      ],
      [
        "▁associate",
        -8.574150142076096
      ],
      [
        "complete",
        -7.441782075291681
      ],
      [
        "head",
        -7.109249811403601
      ],
      [
        "uch",
        -7.227515523436938
      ],
      [
        "▁thousand",
        -8.39799594897627
      ],
      [
        "▁council",
        -8.464680849402349
      ],
      [
        "er",
        -5.680025428898938
      ],
      [
        "ard",
        -7.346491139930018
      ],
      [
        "*****",
        -11.55114666431147
      ],
      [
        "▁bulldo",
        -8.397997323665685
      ],
      [
        "▁behavior",
        -8.46468457431364
      ],
      [
        "▁polic",
        -8.784203428389834
      ],
      [
        "▁household",
        -9.081135028646244
      ],
      [
        "n",
        -2.772310985610549
      ],
      [
        "▁17",
        -5.757736140466072
      ],
      [
        "w",
        -3.847734666333153
      ],
      [
        "}",
        -12.810278406305976
      ],
      [
        "▁judgment",
        -9.123869982100748
      ],
      [
        "▁pl",
        -3.2601159934010724
      ],
      [
        "▁monitor",
        -9.212469515995753
      ],
      [
        "they",
        -7.005894765477494
      ],
      [
        "▁offer",
        -8.927079765038958
      ],
      [
        "▁spill",
        -8.918939825192812
      ],
      [
        "▁unfortuna",
        -7.549589134851153
      ],
      [
        "▁cere",
        -8.697255610129162
      ],
      [
        "k",
        -6.493615516649109
      ],
      [
        "go",
        -8.52033332476886
      ],
      [
        "▁cur",
        -7.133100595910537
      ],
      [
        "▁model",
        -7.942408274525652
      ],
      [
        "▁adjust",
        -8.81943056587951
      ],
      [
        "rec",
        -7.563249920027834
      ],
      [
        "▁episode",
        -9.21694357252228
      ],
      [
        "p",
        -12.28153641900687
      ],
      [
        "ca",
        -8.45973781361631
      ],
      [
        "▁metal",
        -8.46514143867087
      ],
      [
        "▁what",
        -4.999866406006407
      ],
      [
        "▁barn",
        -8.51471468490503
      ],
      [
        "▁officer",
        -8.74250288138926
      ],
      [
        "y",
        -3.633985897988561
      ],
      [
        "▁smil",
        -9.217982295975613
      ],
      [
        "▁goal",
        -8.0871612786386
      ],
      [
        "th",
        -8.014660046279783
      ],
      [
        "countries",
        -7.335963384501514
      ],
      [
        "▁science",
        -8.2269697739805
      ],
      [
        "ex",
        -7.917704102461412
      ],
      [
        "▁set",
        -6.866630984593461
      ],
      [
        "r",
        -4.802076662594015
      ],
      [
        "lf",
        -10.491965744396772
      ],
      [
        "▁th",
        -4.476221050677899
      ],
      [
        "shal",
        -10.060319638891782
      ],
      [
        "orrow",
        -7.122672146595612
      ],
      [
        "▁on",
        -2.700071180263146
      ],
      [
        "▁hel",
        -7.245677028959272
      ],
      [
        "▁deal",
        -7.6621603068830595
      ],
      [
        "a",
        -4.91602068502491
      ],
      [
        "▁system",
        -6.993077346444125
      ],
      [
        "▁",
        -1.302891434072171
      ],
      [
        "▁cause",
        -7.574801675711839
      ],
      [
        "▁reaction",
        -9.216945876331481
      ],
      [
        "i",
        -5.226793519697355
      ],
      [
        "▁be",
        -6.640664983350851
      ],
      [
        "▁objective",
        -8.923805520080826
      ],
      [
        "▁strength",
        -8.819696064223113
      ],
      [
        "oursel",
        -8.941083358478036
      ],
      [
        "......",
        -13.08817150327664
      ],
      [
        "s",
        -3.2318891890768686
      ],
      [
        "one",
        -6.076324489393661
      ],
      [
        "fe",
        -8.44210562283323
      ],
      [
        "▁new",
        -4.7645933626070915
      ],
      [
        "▁strong",
        -6.705735057937477
      ],
      [
        "▁b",
        -7.480039276401502
      ],
      [
        "▁raise",
        -7.862368665323697
      ],
      [
        "▁authorit",
        -8.358083064351424
      ],
      [
        "▁face",
        -8.031543205840347
      ],
      [
        "r",
        -7.556471746184325
      ],
      [
        "phone",
        -8.728371290137284
      ],
      [
        "▁strawberr",
        -9.080391708709893
      ],
      [
        "▁camp",
        -8.355780418229038
      ],
      [
        "them",
        -7.937344547440428
      ],
      [
        "▁suffer",
        -7.928009550386038
      ],
      [
        "▁re",
        -6.479732183788573
      ],
      [
        "▁on",
        -5.373374977856899
      ],
      [
        "▁terrorist",
        -8.924389204432252
      ],
      [
        "▁benefit",
        -8.68921933497451
      ],
      [
        "ive",
        -5.025022787645253
      ],
      [
        "▁camel",
        -8.276640801306392
      ],
      [
        "▁village",
        -9.216944207104724
      ],
      [
        "te",
        -7.352798822831
      ],
      [
        "▁heat",
        -8.060452690975215
      ],
      [
        "▁tak",
        -6.717722372292698
      ],
      [
        "▁process",
        -6.9619146280502155
      ],
      [
        "▁dragg",
        -9.154571963846962
      ],
      [
        "im",
        -8.854489551847179
      ],
      [
        "▁life",
        -6.429225869129951
      ],
      [
        "!!!!!!!!!!!!!!",
        -12.258495128023615
      ],
      [
        "▁care",
        -7.916052306427313
      ],
      [
        "ado",
        -9.176192457724936
      ],
      [
        "▁museum",
        -8.99872512504556
      ],
      [
        "ove",
        -8.910776172545935
      ],
      [
        "▁stillman",
        -7.264076336258403
      ],
      [
        "▁publishe",
        -8.041078949278049
      ],
      [
        "y",
        -4.796594636724666
      ],
      [
        "▁o",
        -7.903254943525872
      ],
      [
        "ough",
        -5.854176465378226
      ],
      [
        "▁determine",
        -8.031306582582058
      ],
      [
        "▁comparison",
        -9.123870045291513
      ],
      [
        "▁manage",
        -8.279946590380614
      ],
      [
        "▁open",
        -6.446986532387996
      ],
      [
        "▁",
        -2.7000107461934846
      ],
      [
        "▁description",
        -8.923226675086234
      ],
      [
        "▁lock",
        -8.433810179311402
      ],
      [
        "▁horsie",
        -8.151480814514752
      ],
      [
        "tional",
        -6.048598725648832
      ],
      [
        "da",
        -11.222074835862148
      ],
      [
        "red",
        -7.917229904324255
      ],
      [
        "▁tent",
        -8.937311135461075
      ],
      [
        "▁blink",
        -8.916741760491483
      ],
      [
        "▁nose",
        -7.6379108327929615
      ],
      [
        "ft",
        -6.965664792887015
      ],
      [
        "▁!!",
        -8.596936672797925
      ],
      [
        "c",
        -4.327503421637194
      ],
      [
        "▁currenc",
        -8.925982449105422
      ],
      [
        "▁potential",
        -9.123870011242285
      ],
      [
        "▁consist",
        -9.283652398662763
      ],
      [
        "▁thi",
        -5.276488441522115
      ],
      [
        "▁committee",
        -8.168428601374131
      ],
      [
        "able",
        -4.583743775946479
      ],
      [
        "▁cash",
        -8.420087610225682
      ],
      [
        "▁bubble",
        -8.960263613129376
      ],
      [
        "▁ma",
        -6.304844418931761
      ],
      [
        "▁vs",
        -8.84932320378803
      ],
      [
        "hat",
        -3.789532303880037
      ],
      [
        "▁reject",
        -9.212291352067611
      ],
      [
        "w",
        -7.411054368279364
      ],
      [
        "us",
        -7.413537036870659
      ],
      [
        "a",
        -7.313902365806135
      ],
      [
        "▁crop",
        -8.960269655204407
      ],
      [
        "▁an",
        -3.3571725720660046
      ],
      [
        "▁3",
        -4.562374329675668
      ],
      [
        "▁find",
        -5.481086058264582
      ],
      [
        "in",
        -5.083038796106619
      ],
      [
        "▁queries",
        -9.18332801795523
      ],
      [
        "▁choose",
        -7.779741653182732
      ],
      [
        "▁collection",
        -8.696473206431913
      ],
      [
        "‘",
        -9.32263420951717
      ],
      [
        ".",
        -6.938746849327971
      ],
      [
        "▁produce",
        -7.63749091094875
      ],
      [
        "▁fo",
        -9.554142235997762
      ],
      [
        "aw",
        -8.635393372690029
      ],
      [
        "▁da",
        -5.318556300210714
      ],
      [
        "▁toe",
        -8.966091677453129
      ],
      [
        "ession",
        -9.21685874672712
      ],
      [
        "▁affair",
        -8.787438095747412
      ],
      [
        "▁product",
        -7.144694182176071
      ],
      [
        "▁body",
        -7.683297788188867
      ],
      [
        "▁structure",
        -8.086462457065844
      ],
      [
        "ver",
        -10.035555650788586
      ],
      [
        "ball",
        -8.210648347070492
      ],
      [
        "▁atlant",
        -4.9873793026621245
      ],
      [
        "▁shot",
        -8.853393027899449
      ],
      [
        "_",
        -4.472959159980312
      ],
      [
        "▁license",
        -9.164949153563807
      ],
      [
        "▁season",
        -8.359062764414066
      ],
      [
        "▁i",
        -7.733415807312335
      ],
      [
        "▁hit",
        -6.806185863543326
      ],
      [
        "▁adapt",
        -9.145580456118974
      ],
      [
        "▁longe",
        -6.970271318305978
      ],
      [
        "for",
        -5.767560284088035
      ],
      [
        "▁file",
        -9.438616817551106
      ],
      [
        "▁sense",
        -7.803351317846216
      ],
      [
        "▁recommend",
        -6.895939823875512
      ],
      [
        "s",
        -3.4323096462437865
      ],
      [
        "▁fill",
        -7.5273199551953365
      ],
      [
        "▁impact",
        -8.355891721003994
      ],
      [
        "d",
        -1.5741834082059167
      ],
      [
        "▁say",
        -5.020055208945685
      ],
      [
        "▁song",
        -7.955950573888411
      ],
      [
        "▁earl",
        -7.23689365952583
      ],
      [
        "to",
        -7.662555047320671
      ],
      [
        "▁analyst",
        -8.828343842181374
      ],
      [
        "▁soon",
        -6.254854376229238
      ],
      [
        "r",
        -4.3481861650490226
      ],
      [
        "cinn",
        -7.200700396868386
      ],
      [
        "▁we",
        -7.785271393941958
      ],
      [
        "▁h",
        -9.88687233925407
      ],
      [
        "▁hav",
        -6.718104064181433
      ],
      [
        "▁project",
        -7.321432080082939
      ],
      [
        "morali",
        -9.03331627519425
      ],
      [
        "der",
        -8.163473377761157
      ],
      [
        "▁200",
        -4.117685212654387
      ],
      [
        "▁urs",
        -7.133812843592847
      ],
      [
        "!!",
        -8.56163946564786
      ],
      [
        "▁division",
        -8.923227004739918
      ],
      [
        "▁finger",
        -7.627397620049585
      ],
      [
        "▁12",
        -5.2458269485953
      ],
      [
        "c",
        -5.44278263792476
      ],
      [
        "▁coat",
        -8.93179522025958
      ],
      [
        "▁suit",
        -9.442799361406374
      ],
      [
        "▁ab",
        -8.860843904040433
      ],
      [
        "one",
        -8.361856041647856
      ],
      [
        "1",
        -3.8535279155612745
      ],
      [
        "▁diaper",
        -8.887514306500762
      ],
      [
        "▁ok",
        -6.289238687970232
      ],
      [
        "▁report",
        -7.651983678207971
      ],
      [
        "▁use",
        -5.376712606513006
      ],
      [
        "▁performance",
        -8.315616760243579
      ],
      [
        "▁guarantee",
        -8.611129027755467
      ],
      [
        "▁power",
        -7.272494128467484
      ],
      [
        "▁gender",
        -8.853335522894143
      ],
      [
        "▁simpl",
        -6.887166233920471
      ],
      [
        "▁earlie",
        -6.343694260173169
      ],
      [
        "▁gold",
        -8.960270437893968
      ],
      [
        "▁black",
        -6.4204126115163564
      ],
      [
        "ch",
        -7.867358473290685
      ],
      [
        "▁improve",
        -7.9706922204608
      ],
      [
        "▁thank",
        -6.722052781598699
      ],
      [
        "yo",
        -13.477506734468584
      ],
      [
        "▁bar",
        -7.855849417329391
      ],
      [
        "▁oil",
        -7.6507804575525205
      ],
      [
        "▁rest",
        -7.612453355379895
      ],
      [
        "thi",
        -6.8860194020758145
      ],
      [
        "▁mor",
        -5.345130170783909
      ],
      [
        "thi",
        -6.816229796495275
      ],
      [
        "ing",
        -4.779772680984797
      ],
      [
        "▁d",
        -9.912457131010228
      ],
      [
        "▁agenc",
        -8.536238558248684
      ],
      [
        "▁dut",
        -8.881334110534642
      ],
      [
        "!!!!!!!!!!!!!!!",
        -11.726744569091506
      ],
      [
        "▁he",
        -5.355777969941404
      ],
      [
        "▁emergenc",
        -8.887512155990327
      ],
      [
        "▁copyright",
        -9.217000553989449
      ],
      [
        "▁half",
        -7.858648881873529
      ],
      [
        "▁discuss",
        -7.343250401243637
      ],
      [
        "▁pilot",
        -8.819697063888725
      ],
      [
        "o",
        -6.147997236814882
      ],
      [
        "▁one",
        -5.634758520204922
      ],
      [
        "▁wheel",
        -8.39799596022531
      ],
      [
        "▁patient",
        -9.083385951759638
      ],
      [
        "▁cream",
        -8.61376063903139
      ],
      [
        "▁newspaper",
        -8.511803875423658
      ],
      [
        "▁natural",
        -6.989556970057124
      ],
      [
        "▁parti",
        -6.861010162495646
      ],
      [
        "▁yo",
        -9.274236374866302
      ],
      [
        "▁was",
        -3.43571718377914
      ],
      [
        "▁thought",
        -8.010624944413088
      ],
      [
        "a",
        -3.4556010159853194
      ],
      [
        "▁burn",
        -8.440427037942076
      ],
      [
        "any",
        -8.672174552810601
      ],
      [
        "▁group",
        -6.604477869223665
      ],
      [
        "onto",
        -6.611941573515393
      ],
      [
        "▁f",
        -6.537668415611798
      ],
      [
        "▁restriction",
        -8.819697656088554
      ],
      [
        "▁matter",
        -7.505720524888654
      ],
      [
        "▁b",
        -6.787231881305394
      ],
      [
        "▁don",
        -7.625149306039237
      ],
      [
        "▁",
        -1.879078986922659
      ],
      [
        "▁break",
        -7.428867889128417
      ],
      [
        "f",
        -6.608821903122247
      ],
      [
        "▁focuse",
        -9.211524198346563
      ],
      [
        "▁fun",
        -7.0666474588122075
      ],
      [
        "▁men",
        -7.245174553852222
      ],
      [
        "▁hands",
        -7.84084925320845
      ],
      [
        "day",
        -7.523400618805456
      ],
      [
        "ate",
        -7.545575350373912
      ],
      [
        "▁stretch",
        -8.470534988847277
      ],
      [
        "nix",
        -6.475345516831926
      ],
      [
        "▁pie",
        -8.60970273545404
      ],
      [
        "▁off",
        -9.009500143169456
      ],
      [
        "▁1",
        -4.047171860870492
      ],
      [
        "full",
        -6.272233315765132
      ],
      [
        "un",
        -11.720693959703446
      ],
      [
        "wealth",
        -8.923256446532516
      ],
      [
        "over",
        -9.188771017412945
      ],
      [
        "▁salt",
        -6.804731664629929
      ],
      [
        "▁bu",
        -8.90277890318454
      ],
      [
        "▁pack",
        -8.142426691225264
      ],
      [
        "▁late",
        -7.337866302752305
      ],
      [
        "a",
        -1.8416649220847514
      ],
      [
        "air",
        -9.133000384208776
      ],
      [
        "▁conduct",
        -8.47053861262362
      ],
      [
        "▁hope",
        -6.850381843185085
      ],
      [
        "▁mess",
        -9.13529534665706
      ],
      [
        "dden",
        -9.234145617308972
      ],
      [
        "▁rubb",
        -8.696473294785536
      ],
      [
        "dy",
        -7.034797477489856
      ],
      [
        "▁coast",
        -8.561146812783505
      ],
      [
        "▁jew",
        -9.08070588184273
      ],
      [
        "in",
        -5.972258428642649
      ],
      [
        "mp",
        -8.561430826518587
      ],
      [
        "▁speak",
        -7.239835423288421
      ],
      [
        "▁field",
        -7.0940052657070645
      ],
      [
        "▁exposure",
        -8.725884969735624
      ],
      [
        "▁creation",
        -8.730163473427641
      ],
      [
        "ch",
        -6.965200618973387
      ],
      [
        "▁call",
        -5.507270510526616
      ],
      [
        "p",
        -12.303800120175861
      ],
      [
        "▁force",
        -7.611231544979881
      ],
      [
        "’",
        -8.311179329526977
      ],
      [
        "▁bear",
        -7.413292550567692
      ],
      [
        "▁animal",
        -7.064213837031686
      ],
      [
        "rou",
        -13.078869863422522
      ],
      [
        "h",
        -2.3558809577216078
      ],
      [
        "▁unt",
        -9.905702178190086
      ],
      [
        "▁tha",
        -7.359273592220826
      ],
      [
        "▁qualit",
        -7.437607515917092
      ],
      [
        "-----------",
        -10.993459808798361
      ],
      [
        "▁ski",
        -9.001797112228406
      ],
      [
        "▁bus",
        -5.9896243171846635
      ],
      [
        "▁human",
        -6.556366750583185
      ],
      [
        "h",
        -5.561550694199753
      ],
      [
        "▁bo",
        -8.678440275998891
      ],
      [
        "▁people",
        -5.4138141116230605
      ],
      [
        "rew",
        -8.562748343629996
      ],
      [
        "▁alr",
        -5.228749683775931
      ],
      [
        "man",
        -6.614414434088506
      ],
      [
        "ide",
        -9.177341108546004
      ],
      [
        "▁interest",
        -6.45681399413694
      ],
      [
        "st.",
        -6.038947423780039
      ],
      [
        "▁church",
        -8.315477948920822
      ],
      [
        "▁age",
        -7.465010556708252
      ],
      [
        "▁quarter",
        -9.052956694032652
      ],
      [
        "mike",
        -7.140322264104477
      ],
      [
        "▁ca",
        -8.744876320400493
      ],
      [
        "▁remember",
        -6.274852527604202
      ],
      [
        "▁law",
        -7.098797919527961
      ],
      [
        "▁relationship",
        -8.295977476132588
      ],
      [
        "4",
        -4.227577718061922
      ],
      [
        "▁mi",
        -6.329246453419491
      ],
      [
        "▁register",
        -9.083751068424034
      ],
      [
        "▁london",
        -6.999199217919589
      ],
      [
        "▁meal",
        -7.588571484021918
      ],
      [
        "▁toda",
        -6.263055244653625
      ],
      [
        "▁",
        -3.5515534901066914
      ],
      [
        "▁pi",
        -8.875606205518407
      ],
      [
        "read",
        -5.745973914349878
      ],
      [
        "d",
        -2.637497417406923
      ],
      [
        "▁amount",
        -7.2781239419419075
      ],
      [
        "▁saturday",
        -7.445814912608575
      ],
      [
        "************",
        -12.973373201788785
      ],
      [
        "▁print",
        -9.00754385471476
      ],
      [
        "▁thing",
        -5.613395197413895
      ],
      [
        "▁interview",
        -8.102322380121585
      ],
      [
        "▁modern",
        -7.2893754413007565
      ],
      [
        "▁manage",
        -8.423583778435727
      ],
      [
        "▁aunt",
        -8.960865426247896
      ],
      [
        "▁chance",
        -7.926723705839864
      ],
      [
        "▁out",
        -5.28307788551118
      ],
      [
        "n",
        -4.5571833613477795
      ],
      [
        "▁tip",
        -8.960367179529511
      ],
      [
        "+",
        -11.925660239071421
      ],
      [
        "▁decision",
        -7.63734364821517
      ],
      [
        "▁balance",
        -8.696548268984998
      ],
      [
        "ame",
        -5.336550110322487
      ],
      [
        "▁some",
        -7.348423636734813
      ],
      [
        "nature",
        -8.174529554141163
      ],
      [
        "n",
        -2.150777991036591
      ],
      [
        "▁include",
        -7.061085876825674
      ],
      [
        "h",
        -10.741453583244953
      ],
      [
        "▁freez",
        -9.373485835187363
      ],
      [
        "▁ma",
        -6.872057889626475
      ],
      [
        "▁crime",
        -8.85303165273744
      ],
      [
        "▁very",
        -4.371071920638461
      ],
      [
        "▁uncle",
        -8.6130988394805
      ],
      [
        "▁contact",
        -8.56114018444546
      ],
      [
        "king",
        -9.168556985503095
      ],
      [
        "enti",
        -7.448158532075225
      ],
      [
        "▁leave",
        -8.756191816197287
      ],
      [
        "▁infrastructure",
        -9.038725017166236
      ],
      [
        "▁other",
        -7.476001329729437
      ],
      [
        "▁social",
        -6.614955515202298
      ],
      [
        "ou",
        -10.954094405007353
      ],
      [
        "▁recognize",
        -8.349560514077385
      ],
      [
        "a",
        -5.858125791097325
      ],
      [
        "▁alon",
        -6.861000914725314
      ],
      [
        "*",
        -8.693194179626392
      ],
      [
        "o",
        -7.324375830066715
      ],
      [
        "▁shut",
        -8.40855525823017
      ],
      [
        "▁gas",
        -7.89051597573011
      ],
      [
        "▁mak",
        -6.4717039681631645
      ],
      [
        "▁wave",
        -8.82699765897334
      ],
      [
        "▁study",
        -7.777318078017562
      ],
      [
        "▁surprise",
        -8.397995949034483
      ],
      [
        "▁n",
        -6.357557291452977
      ],
      [
        "▁character",
        -8.115500986336793
      ],
      [
        "_",
        -4.8283611448919315
      ],
      [
        "▁expect",
        -7.097626935970076
      ],
      [
        "▁m",
        -7.860570558349283
      ],
      [
        "▁t",
        -8.001755625623431
      ],
      [
        "▁sha",
        -13.234491823502221
      ],
      [
        "▁money",
        -6.90253603597577
      ],
      [
        "▁euro",
        -8.640126199585442
      ],
      [
        "▁competition",
        -8.66806701648105
      ],
      [
        "▁month",
        -6.656775771168834
      ],
      [
        "▁gain",
        -8.357524823784749
      ],
      [
        "▁inter",
        -8.790763503864413
      ],
      [
        "▁waste",
        -9.124935399848116
      ],
      [
        "ativ",
        -7.238220533460433
      ],
      [
        "▁vary",
        -9.359706773186014
      ],
      [
        "▁mean",
        -5.666419531351391
      ],
      [
        "▁decade",
        -8.168497327405545
      ],
      [
        "▁ours",
        -11.444714850985516
      ],
      [
        "▁tor",
        -6.594320154122541
      ],
      [
        "▁book",
        -7.527313072312097
      ],
      [
        "ast",
        -10.037434414241018
      ],
      [
        "▁lesson",
        -8.640130335876776
      ],
      [
        "▁j",
        -6.0592118436648414
      ],
      [
        "u",
        -6.759958710825652
      ],
      [
        "had",
        -6.878629606664507
      ],
      [
        "▁dragon",
        -8.725961549724527
      ],
      [
        "▁pro",
        -7.211453933737824
      ],
      [
        "▁god",
        -9.044494760744112
      ],
      [
        "▁realise",
        -9.285368907153273
      ],
      [
        "▁factor",
        -8.245975372245494
      ],
      [
        "▁hamster",
        -8.923268485611915
      ],
      [
        "▁commitment",
        -9.080391694616416
      ],
      [
        "▁under",
        -6.340505141486626
      ],
      [
        "▁baby",
        -6.500569538443069
      ],
      [
        "▁surround",
        -8.139335840369649
      ],
      [
        "nforcement",
        -8.960943401215788
      ],
      [
        "▁wo",
        -7.267365822071614
      ],
      [
        "ologi",
        -7.274968840286015
      ],
      [
        "▁goin",
        -8.29161818956212
      ],
      [
        "ur",
        -7.477857332032502
      ],
      [
        "h",
        -4.6934243343720325
      ],
      [
        "whi",
        -12.327535299766522
      ],
      [
        "den",
        -7.389034121029414
      ],
      [
        "politic",
        -6.515086073278683
      ],
      [
        "▁recall",
        -8.775931441520877
      ],
      [
        "than",
        -8.760961957451034
      ],
      [
        "▁kansa",
        -6.811230330250781
      ],
      [
        "someon",
        -9.75135018918097
      ],
      [
        "ntl",
        -7.392382711792217
      ],
      [
        "▁pant",
        -8.438104137289418
      ],
      [
        "▁park",
        -7.8258503620912805
      ],
      [
        "▁increase",
        -8.820130774719802
      ],
      [
        "s",
        -7.035194481589116
      ],
      [
        "▁which",
        -6.392990913741314
      ],
      [
        "▁vega",
        -6.635007151032915
      ],
      [
        "esday",
        -7.247703233504674
      ],
      [
        "i",
        -4.785587726083073
      ],
      [
        "▁members",
        -7.951723226772981
      ],
      [
        "▁witch",
        -8.998933037123026
      ],
      [
        "national",
        -7.263849459139401
      ],
      [
        "▁gather",
        -8.61079917971708
      ],
      [
        "▁sheet",
        -8.476896875009034
      ],
      [
        "bal",
        -6.877981207083328
      ],
      [
        "operation",
        -8.758089899944205
      ],
      [
        "▁search",
        -8.706829101337929
      ],
      [
        "▁direct",
        -8.924893410825268
      ],
      [
        "ance",
        -6.8435912651632504
      ],
      [
        "▁national",
        -6.406663850264038
      ],
      [
        "▁style",
        -8.040434908053214
      ],
      [
        "re",
        -7.102225890172844
      ],
      [
        "▁adopt",
        -8.092872173831568
      ],
      [
        "ie",
        -7.494042399448487
      ],
      [
        "_",
        -7.394377796483056
      ],
      [
        "▁an",
        -8.896794612141756
      ],
      [
        "▁desire",
        -9.432100138663028
      ],
      [
        "ther",
        -5.232010347024702
      ],
      [
        "▁note",
        -7.834116089145225
      ],
      [
        "l",
        -6.758199687090753
      ],
      [
        "p",
        -6.261203873790647
      ],
      [
        "an",
        -6.580590713007868
      ],
      [
        "▁variet",
        -8.960510686661943
      ],
      [
        "▁smell",
        -9.08039181275079
      ],
      [
        "▁rabbit",
        -8.397995949098288
      ],
      [
        "h",
        -3.294768851479734
      ],
      [
        "▁mov",
        -7.166072223475298
      ],
      [
        "▁chicken",
        -7.479618094834508
      ],
      [
        "▁die",
        -8.442731206985325
      ],
      [
        "▁claim",
        -8.419830722262825
      ],
      [
        "e",
        -2.645353623077794
      ],
      [
        "▁grant",
        -8.406788658269399
      ],
      [
        "t",
        -2.4878868855370015
      ],
      [
        "▁other",
        -8.386331254747677
      ],
      [
        "in",
        -6.821546047507693
      ],
      [
        "▁chose",
        -8.64906604535041
      ],
      [
        "▁participate",
        -8.830257973207264
      ],
      [
        "▁ok",
        -6.793719205581699
      ],
      [
        "want",
        -9.323151046085512
      ],
      [
        "▁carry",
        -7.445290508333796
      ],
      [
        "an",
        -13.70487764730738
      ],
      [
        "stead",
        -6.393450791899517
      ],
      [
        "▁travel",
        -7.316864703250338
      ],
      [
        "▁opinion",
        -8.276639661359717
      ],
      [
        "side",
        -7.369361114905498
      ],
      [
        "al",
        -7.346946077370534
      ],
      [
        "de",
        -11.783538262690449
      ],
      [
        "▁the",
        -4.368852518839425
      ],
      [
        "▁become",
        -6.846957219988554
      ],
      [
        "▁movement",
        -8.356868242298713
      ],
      [
        "▁space",
        -7.191348025076549
      ],
      [
        "il",
        -8.027275832760731
      ],
      [
        "ped",
        -8.244818001486966
      ],
      [
        "▁switch",
        -9.213013115128833
      ],
      [
        "▁tea",
        -8.005515618352948
      ],
      [
        "▁form",
        -7.096046790120671
      ],
      [
        "▁t",
        -8.151778055974344
      ],
      [
        "▁demand",
        -8.376691249688534
      ],
      [
        "▁o",
        -7.106158376632667
      ],
      [
        "▁answer",
        -7.765823468089585
      ],
      [
        "▁di",
        -8.714196175217431
      ],
      [
        "▁whom",
        -8.815811107281924
      ],
      [
        "▁bee",
        -8.770994446920016
      ],
      [
        "▁go",
        -8.803147197359284
      ],
      [
        "le",
        -6.457472216553488
      ],
      [
        "upper",
        -9.000223696652167
      ],
      [
        "d",
        -4.701714546391115
      ],
      [
        "▁bread",
        -8.026877142638188
      ],
      [
        "d",
        -6.44230447588491
      ],
      [
        "y",
        -7.530712123467332
      ],
      [
        "ick",
        -9.001756191552666
      ],
      [
        "tion",
        -7.539051037622932
      ],
      [
        "▁argu",
        -9.357744420874603
      ],
      [
        "▁percent",
        -8.275786676170393
      ],
      [
        "+",
        -10.834960006133098
      ],
      [
        "tial",
        -9.050003660931548
      ],
      [
        "k",
        -6.601882593626262
      ],
      [
        "$",
        -11.28153641900687
      ],
      [
        "▁propert",
        -7.413164032425489
      ],
      [
        "▁critic",
        -8.295871385758812
      ],
      [
        "tic",
        -8.8265499572987
      ],
      [
        "▁re",
        -7.5452357933588035
      ],
      [
        "▁play",
        -5.482863547825016
      ],
      [
        "▁dis",
        -9.010239066066248
      ],
      [
        "▁i",
        -8.414006726853913
      ],
      [
        "▁far",
        -5.853635313577881
      ],
      [
        "▁earlie",
        -7.181797654149654
      ],
      [
        "▁procedure",
        -8.487940389310216
      ],
      [
        "▁re-",
        -8.721355501734267
      ],
      [
        "▁cover",
        -7.530766538554042
      ],
      [
        "got",
        -9.258822941761718
      ],
      [
        "▁apartment",
        -8.419735082546314
      ],
      [
        "▁meat",
        -8.134994082727193
      ],
      [
        "some",
        -9.94653509347779
      ],
      [
        "s",
        -10.83641398548844
      ],
      [
        "▁feature",
        -8.853030808034571
      ],
      [
        "▁password",
        -9.123884720131798
      ],
      [
        "▁job",
        -6.805931174749688
      ],
      [
        "▁detail",
        -7.8368594232199715
      ],
      [
        "▁treat",
        -9.12244813113502
      ],
      [
        "▁19",
        -5.4772626976529235
      ],
      [
        "cour",
        -7.539159453764968
      ],
      [
        "▁lift",
        -8.780738111600888
      ],
      [
        "or",
        -6.34535778142382
      ],
      [
        "▁represent",
        -7.84192061450014
      ],
      [
        "▁be",
        -5.640815374565242
      ],
      [
        "▁close",
        -7.11502240079139
      ],
      [
        "▁real",
        -6.083406281355136
      ],
      [
        "▁mean",
        -8.018083086506497
      ],
      [
        "n",
        -11.31025614719772
      ],
      [
        "n",
        -4.842692419104057
      ],
      [
        "▁wash",
        -7.504951731329325
      ],
      [
        "▁pollut",
        -8.998981184762247
      ],
      [
        "▁california",
        -6.985563614707918
      ],
      [
        "▁stop",
        -6.638462490604868
      ],
      [
        "tha",
        -9.346659201024885
      ],
      [
        "▁serve",
        -6.80670337700455
      ],
      [
        "later",
        -5.988474399927434
      ],
      [
        "toward",
        -10.5930503330447
      ],
      [
        "▁horse",
        -6.9619067546765585
      ],
      [
        "tho",
        -10.448055372352602
      ],
      [
        "▁direction",
        -8.419735081117501
      ],
      [
        "eaten",
        -9.340308157443427
      ],
      [
        "▁situation",
        -7.721124396179961
      ],
      [
        "▁tend",
        -8.614622362102224
      ],
      [
        "▁them",
        -5.092080749922367
      ],
      [
        "e",
        -2.9350059145542584
      ],
      [
        "▁addition",
        -8.315478175411581
      ],
      [
        "ddy",
        -5.597179594980002
      ],
      [
        "***********",
        -13.214685143023583
      ],
      [
        "side",
        -8.980075690553763
      ],
      [
        "que",
        -8.90760469344174
      ],
      [
        "i",
        -5.936780311896299
      ],
      [
        "▁brain",
        -8.315635872117745
      ],
      [
        "▁g",
        -6.747886763049845
      ],
      [
        "▁fruit",
        -8.78744108935946
      ],
      [
        "▁milita",
        -6.883185739735111
      ],
      [
        "l",
        -4.549207338544624
      ],
      [
        "land",
        -8.787627065923703
      ],
      [
        "▁expectation",
        -8.923317100997785
      ],
      [
        "x",
        -7.839595997550478
      ],
      [
        "▁translate",
        -8.960122599722936
      ],
      [
        "▁definit",
        -7.014693227758429
      ],
      [
        "▁rush",
        -9.239331250726643
      ],
      [
        "▁standard",
        -7.874378960239033
      ],
      [
        "▁balance",
        -8.631981310546628
      ],
      [
        "▁<",
        -9.936691962505732
      ],
      [
        "whom",
        -12.043381109938869
      ],
      [
        "▁main",
        -6.743124854223845
      ],
      [
        "ming",
        -8.557360031403563
      ],
      [
        "▁stream",
        -9.127246834577521
      ],
      [
        "▁over",
        -5.746199670579694
      ],
      [
        "let",
        -9.13879353396231
      ],
      [
        "▁pepper",
        -8.998725359353813
      ],
      [
        "▁bag",
        -7.431370248626755
      ],
      [
        "▁transport",
        -6.604467960840209
      ],
      [
        "▁all",
        -7.233537423515028
      ],
      [
        "?????????????",
        -12.70099418020655
      ],
      [
        "b",
        -6.1504537306829885
      ],
      [
        "▁engl",
        -7.3562289671656025
      ],
      [
        "▁**",
        -12.566425383930483
      ],
      [
        "g",
        -7.307917268225807
      ],
      [
        "ooooo",
        -12.71015855894965
      ],
      [
        "▁leg",
        -7.482530775623637
      ],
      [
        "▁act",
        -8.041418261246278
      ],
      [
        "▁draft",
        -8.35588602613353
      ],
      [
        "▁lick",
        -8.629187638831143
      ],
      [
        "▁’",
        -9.7081408527352
      ],
      [
        "▁regulation",
        -8.616781001454438
      ],
      [
        "▁contribute",
        -8.721181520426633
      ],
      [
        "u",
        -4.005956395885905
      ],
      [
        "▁devote",
        -9.360415018845844
      ],
      [
        "▁approve",
        -8.250127600697594
      ],
      [
        "nea",
        -7.945544065619691
      ],
      [
        "us",
        -3.920615676271251
      ],
      [
        "▁date",
        -9.442067739645164
      ],
      [
        "▁move",
        -6.640303779448729
      ],
      [
        "b",
        -6.513028744717353
      ],
      [
        "▁draw",
        -6.654847932334819
      ],
      [
        "▁crayon",
        -9.123908582995679
      ],
      [
        "▁reveal",
        -8.538070794943602
      ],
      [
        "f",
        -2.549806178690007
      ],
      [
        "h",
        -8.082311726515218
      ],
      [
        "▁mosquito",
        -9.038725017162863
      ],
      [
        "▁please",
        -8.564434024630248
      ],
      [
        "▁when",
        -4.481408849397259
      ],
      [
        "tra",
        -8.956646271249955
      ],
      [
        "w",
        -10.77059528735586
      ],
      [
        "herself",
        -11.97634857643032
      ],
      [
        "▁analys",
        -8.234448528554164
      ],
      [
        "ous",
        -8.753691967497861
      ],
      [
        "▁caus",
        -8.900027625784086
      ],
      [
        "ce",
        -6.716123088150296
      ],
      [
        "▁lean",
        -9.096300030768612
      ],
      [
        "ia",
        -6.46572768572054
      ],
      [
        "▁tomato",
        -9.169339671254274
      ],
      [
        "▁damage",
        -8.667902776144157
      ],
      [
        "▁south",
        -8.819705341495732
      ],
      [
        "▁chang",
        -8.008629503993417
      ],
      [
        "▁there",
        -4.1506920944455326
      ],
      [
        "▁cake",
        -8.203548630724674
      ],
      [
        "▁-",
        -7.106383807340567
      ],
      [
        "▁save",
        -7.460705679004733
      ],
      [
        "me",
        -7.2795455667260525
      ],
      [
        "ual",
        -6.36502189831647
      ],
      [
        "▁terror",
        -8.463950830336875
      ],
      [
        "on",
        -6.870845246803458
      ],
      [
        "▁where",
        -4.295607078995645
      ],
      [
        "her",
        -6.563763909055743
      ],
      [
        "▁purchase",
        -8.519796011439709
      ],
      [
        "▁old",
        -5.586906487994287
      ],
      [
        "y",
        -5.527089822828086
      ],
      [
        "her",
        -5.970249124020137
      ],
      [
        "▁leaders",
        -8.367335737972816
      ],
      [
        "▁export",
        -8.573721919488909
      ],
      [
        "▁preserve",
        -8.929681157232357
      ],
      [
        "▁slow",
        -7.370680472423794
      ],
      [
        "▁nonstop",
        -7.5234409521077446
      ],
      [
        "6",
        -9.216899121533654
      ],
      [
        "o",
        -2.9644061227609466
      ],
      [
        "▁war",
        -6.948448303733125
      ],
      [
        "▁heart",
        -7.812614952552662
      ],
      [
        "▁a",
        -6.12190624464488
      ],
      [
        "▁lay",
        -7.83455951931724
      ],
      [
        "▁c",
        -6.691884532447162
      ],
      [
        "▁fine",
        -6.622671821318005
      ],
      [
        "of",
        -8.026473360529637
      ],
      [
        "▁unit",
        -8.169113657763326
      ],
      [
        "▁appreciate",
        -8.071396535783002
      ],
      [
        "tter",
        -6.783327446752775
      ],
      [
        "▁add",
        -6.652315770827376
      ],
      [
        "id",
        -8.85045198564125
      ],
      [
        "▁lead",
        -8.918931910255136
      ],
      [
        "▁head",
        -8.281523441147987
      ],
      [
        "▁somethin",
        -5.952656046882825
      ],
      [
        "▁carbon",
        -9.216979986582473
      ],
      [
        "▁drink",
        -7.16609013605316
      ],
      [
        "▁board",
        -8.016572855282181
      ],
      [
        "at",
        -12.527794121947867
      ],
      [
        "▁news",
        -7.849179933841362
      ],
      [
        "▁feel",
        -6.135129679347383
      ],
      [
        "nition",
        -8.895316967619639
      ],
      [
        "▁transform",
        -8.774449849456001
      ],
      [
        "▁per",
        -7.269413434404993
      ],
      [
        "▁sky",
        -8.1025562247717
      ],
      [
        "ught",
        -8.207422363822904
      ],
      [
        "▁distance",
        -8.820178708496165
      ],
      [
        "▁great",
        -5.158725407219528
      ],
      [
        "ook",
        -6.641626205827474
      ],
      [
        "▁host",
        -8.873476020623873
      ],
      [
        "▁hard",
        -6.981459197999821
      ],
      [
        "▁engage",
        -9.027959368460433
      ],
      [
        "▁putt",
        -8.158922509182146
      ],
      [
        "▁ruin",
        -9.15065426852602
      ],
      [
        "▁attempt",
        -8.276639244496826
      ],
      [
        "▁t",
        -6.581326392513222
      ],
      [
        "▁hav",
        -4.47068279899715
      ],
      [
        "`",
        -9.585942977269655
      ],
      [
        "▁ride",
        -8.524860939973944
      ],
      [
        "▁exhibit",
        -8.81969606406947
      ],
      [
        "▁su",
        -7.154235015193979
      ],
      [
        "ww",
        -11.310312733422174
      ],
      [
        "▁enron",
        -6.666633476926522
      ],
      [
        "▁arrive",
        -6.562010512051669
      ],
      [
        "▁mo",
        -6.386859315429376
      ],
      [
        "***",
        -10.264982179695927
      ],
      [
        "▁tag",
        -8.998908137437832
      ],
      [
        "ath",
        -10.70113426733852
      ],
      [
        "nt",
        -6.7840272792579395
      ],
      [
        "▁an",
        -9.820616148417278
      ],
      [
        "v",
        -9.394206695612269
      ],
      [
        "▁where",
        -5.614914026485336
      ],
      [
        "▁clothes",
        -7.876537458663101
      ],
      [
        "ch",
        -6.898701418822459
      ],
      [
        "p",
        -11.810278406305967
      ],
      [
        "▁communication",
        -8.587966616284092
      ],
      [
        "▁vi",
        -9.065046716852741
      ],
      [
        "▁depend",
        -7.769878710648066
      ],
      [
        "▁crowd",
        -8.960264387560278
      ],
      [
        "▁door",
        -7.058930191112866
      ],
      [
        "▁f",
        -8.821102863888438
      ],
      [
        "---",
        -10.542734627330933
      ],
      [
        "▁link",
        -8.421431361608825
      ],
      [
        "no",
        -9.393120652578665
      ],
      [
        "00",
        -5.601908175947245
      ],
      [
        "▁function",
        -8.64634731649623
      ],
      [
        "▁repair",
        -9.288645750649827
      ],
      [
        "abl",
        -5.607246216433183
      ],
      [
        "▁ye",
        -3.803495247716296
      ],
      [
        "▁store",
        -7.082811934762289
      ],
      [
        "??????",
        -13.834852348222816
      ],
      [
        "hi",
        -8.442534427418508
      ],
      [
        "ive",
        -8.374109375573967
      ],
      [
        "▁2000",
        -6.054635009603185
      ],
      [
        "ve",
        -7.530189962329173
      ],
      [
        "▁provision",
        -8.464684575872088
      ],
      [
        "▁owl",
        -9.175415697930676
      ],
      [
        "▁novel",
        -8.296280055282253
      ],
      [
        "▁tol",
        -6.346755550568246
      ],
      [
        "▁i",
        -7.352216322514234
      ],
      [
        "▁uh",
        -11.519265493247671
      ],
      [
        "▁floor",
        -7.3433658249617775
      ],
      [
        "▁universit",
        -8.58728298759465
      ],
      [
        ".....",
        -11.977458560269762
      ],
      [
        "▁rest",
        -8.780464668951797
      ],
      [
        "▁accept",
        -7.361994743307134
      ],
      [
        "▁cost",
        -7.911166214463438
      ],
      [
        "▁client",
        -8.81969664837052
      ],
      [
        "▁point",
        -6.776556051656632
      ],
      [
        "polis",
        -6.346417235986103
      ],
      [
        "c",
        -5.811834898890697
      ],
      [
        "▁market",
        -7.237160547891797
      ],
      [
        "▁display",
        -7.855065846435074
      ],
      [
        "▁drug",
        -8.56114018085187
      ],
      [
        "▁woke",
        -8.96938748504948
      ],
      [
        "all",
        -4.386146326760172
      ],
      [
        "▁back",
        -4.76794666312063
      ],
      [
        "zer",
        -8.224015679755048
      ],
      [
        "▁bomb",
        -8.664939839333261
      ],
      [
        "▁initiative",
        -8.853065530383738
      ],
      [
        "▁result",
        -7.909088133194663
      ],
      [
        "▁aspect",
        -8.221141738810385
      ],
      [
        "he",
        -7.549205452271606
      ],
      [
        "ed",
        -6.795748025181247
      ],
      [
        "▁advantage",
        -8.81969606449028
      ],
      [
        "▁record",
        -7.590202869594288
      ],
      [
        "▁de",
        -7.396430300391956
      ],
      [
        "▁demonstrate",
        -8.616039356357
      ],
      [
        "▁tell",
        -5.587525770223458
      ],
      [
        "▁cut",
        -8.619399010850714
      ],
      [
        "▁mine",
        -7.3549003857745685
      ],
      [
        "▁file",
        -7.123631378906847
      ],
      [
        "▁k",
        -7.910325609427668
      ],
      [
        "night",
        -8.138923327664049
      ],
      [
        "▁creat",
        -8.00466740362287
      ],
      [
        "▁candidate",
        -8.853029512456077
      ],
      [
        "▁control",
        -8.942475958787753
      ],
      [
        "▁revenue",
        -9.038725017397873
      ],
      [
        "pe",
        -10.887219134304972
      ],
      [
        "▁leadership",
        -9.217985862125818
      ],
      [
        "▁mountain",
        -8.315634794968119
      ],
      [
        "unch",
        -8.727674962482121
      ],
      [
        "▁click",
        -8.649000036370897
      ],
      [
        "▁speech",
        -8.819696123774193
      ],
      [
        "▁purpose",
        -8.102291505184763
      ],
      [
        "no",
        -9.062106600164439
      ],
      [
        "▁america",
        -6.805892094766217
      ],
      [
        "▁swallow",
        -9.360870468050315
      ],
      [
        "▁self",
        -8.117210543896308
      ],
      [
        "▁work",
        -6.025187949164228
      ],
      [
        "▁ar",
        -3.9459345355302604
      ],
      [
        "▁table",
        -7.183063846806957
      ],
      [
        "▁midd",
        -8.343516139132237
      ],
      [
        "ant",
        -7.8051910514453535
      ],
      [
        "▁content",
        -8.136052123603282
      ],
      [
        "!!!!!!!!!!!",
        -12.39056685540718
      ],
      [
        "▁trust",
        -8.12134502943936
      ],
      [
        "y",
        -4.983554208410508
      ],
      [
        "▁waste",
        -9.038733443818636
      ],
      [
        "c",
        -8.638626362649184
      ],
      [
        "▁punch",
        -8.91668404709228
      ],
      [
        "▁muscle",
        -8.696473256240786
      ],
      [
        "▁cost",
        -7.25784370814909
      ],
      [
        "▁success",
        -8.46278105745426
      ],
      [
        "▁governor",
        -8.999124735900713
      ],
      [
        "▁directive",
        -8.102290307189087
      ],
      [
        "▁in",
        -5.300291641118423
      ],
      [
        "▁a",
        -9.937741353218946
      ],
      [
        "▁further",
        -7.053770262695196
      ],
      [
        "▁mass",
        -8.556257492946397
      ],
      [
        "▁replication",
        -8.819696744168843
      ],
      [
        "▁matter",
        -8.916816432592363
      ],
      [
        "▁elevator",
        -8.88760862379046
      ],
      [
        "ami",
        -6.501920155674309
      ],
      [
        "▁contin",
        -6.9749752562620015
      ],
      [
        "ly",
        -7.767757140854561
      ],
      [
        "▁staff",
        -7.4458154894044215
      ],
      [
        "▁cross",
        -8.458026529841618
      ],
      [
        "▁match",
        -8.72612906053959
      ],
      [
        "▁under",
        -8.853288240153757
      ],
      [
        "7",
        -9.216902069764288
      ],
      [
        "▁hu",
        -5.311218427794809
      ],
      [
        "▁level",
        -7.321140746549115
      ],
      [
        "adam",
        -8.801204290585094
      ],
      [
        "▁thes",
        -5.533559998489873
      ],
      [
        "ness",
        -6.8247538409090795
      ],
      [
        "▁over",
        -9.078225487752855
      ],
      [
        "more",
        -5.176001385946601
      ],
      [
        "▁boxe",
        -8.874440659223083
      ],
      [
        "▁journal",
        -8.997948731912663
      ],
      [
        "9",
        -4.443752773287558
      ],
      [
        "ary",
        -6.2190890523679005
      ],
      [
        "a",
        -5.205257851429507
      ],
      [
        "▁see",
        -4.551308700229445
      ],
      [
        "▁bigge",
        -7.0789892227515505
      ],
      [
        "▁along",
        -7.533964767221531
      ],
      [
        "▁airline",
        -5.684454962162794
      ],
      [
        "▁hi",
        -5.3515630451182075
      ],
      [
        "▁walk",
        -6.515052717435402
      ],
      [
        "▁boy",
        -7.019460252455515
      ],
      [
        "▁dropp",
        -8.034717269481467
      ],
      [
        "▁conversation",
        -8.203273469637574
      ],
      [
        "▁payment",
        -8.536595842590732
      ],
      [
        "▁trip",
        -6.58322999789118
      ],
      [
        "▁banana",
        -7.8871828307701115
      ],
      [
        "▁request",
        -8.086417664276423
      ],
      [
        "▁work",
        -5.663812961351837
      ],
      [
        "book",
        -8.557311059629232
      ],
      [
        "▁kitten",
        -8.697743301369814
      ],
      [
        "▁love",
        -6.439965781634038
      ],
      [
        "▁bother",
        -8.347322225484815
      ],
      [
        "▁paris",
        -7.236939178226198
      ],
      [
        "x",
        -6.627227203346111
      ],
      [
        "ver",
        -4.643486516394232
      ],
      [
        "y",
        -3.3126902011208665
      ],
      [
        "▁worry",
        -8.610892468635155
      ],
      [
        "▁easi",
        -7.509591222627236
      ],
      [
        "nd",
        -8.129110544840849
      ],
      [
        "ect",
        -7.2808766303213615
      ],
      [
        "▁art",
        -7.5703610267286825
      ],
      [
        "▁blanket",
        -8.536227541970277
      ],
      [
        "▁sustain",
        -9.360408394516764
      ],
      [
        "were",
        -7.167827169458954
      ],
      [
        "▁learn",
        -6.838105611386304
      ],
      [
        "▁requir",
        -9.106318260961466
      ],
      [
        "▁glo",
        -6.858729859080639
      ],
      [
        "▁gre",
        -8.641113811258577
      ],
      [
        "▁bank",
        -8.377275839643652
      ],
      [
        "amb",
        -8.749151654427783
      ],
      [
        "▁requirement",
        -8.185669980483093
      ],
      [
        "▁ran",
        -7.978711642626029
      ],
      [
        "ver",
        -8.129848097289846
      ],
      [
        "▁present",
        -8.207153306155334
      ],
      [
        "▁societ",
        -7.60760076739078
      ],
      [
        "f",
        -11.770631529841472
      ],
      [
        "▁fight",
        -7.564697244157758
      ],
      [
        "o",
        -1.7235607545640583
      ],
      [
        "▁dolphin",
        -9.21694353777859
      ],
      [
        "enti",
        -9.138469515775562
      ],
      [
        "▁difficult",
        -8.640123998122338
      ],
      [
        "▁screw",
        -9.283484327322988
      ],
      [
        "l",
        -12.810278406305953
      ],
      [
        "▁replace",
        -8.29378861232647
      ],
      [
        "▁oh",
        -3.2899133699130747
      ],
      [
        "here",
        -6.183649337266312
      ],
      [
        "f",
        -6.619575894914962
      ],
      [
        "▁get",
        -7.116919860684064
      ],
      [
        "▁like",
        -4.758550093217762
      ],
      [
        "▁police",
        -7.852645463891125
      ],
      [
        "▁doctor",
        -7.66802303774338
      ],
      [
        "▁marr",
        -8.344179040642356
      ],
      [
        "one",
        -9.35313276535713
      ],
      [
        "dom",
        -9.194902981039345
      ],
      [
        "▁sp",
        -8.107831717624427
      ],
      [
        "ea",
        -5.383019325135234
      ],
      [
        "▁ha",
        -4.961582746137713
      ],
      [
        "th",
        -10.632252390293505
      ],
      [
        "▁what",
        -3.8575555843200693
      ],
      [
        "▁painting",
        -8.517545254412695
      ],
      [
        "▁head",
        -6.621197649136684
      ],
      [
        "▁research",
        -7.669431016892204
      ],
      [
        "▁back",
        -8.43778236464935
      ],
      [
        "ure",
        -8.118158498829867
      ],
      [
        "al",
        -5.958726361627539
      ],
      [
        "▁true",
        -7.013220592988147
      ],
      [
        "▁music",
        -8.025187445522462
      ],
      [
        "▁facilit",
        -8.561140157760299
      ],
      [
        "▁a",
        -6.7575449706751805
      ],
      [
        "*************",
        -12.63592864490868
      ],
      [
        "▁carrie",
        -8.115915210446387
      ],
      [
        "▁o",
        -12.326071694749007
      ],
      [
        "!!!!!",
        -11.849555816551455
      ],
      [
        "▁participat",
        -9.424939284286868
      ],
      [
        "▁presiden",
        -6.716120448889351
      ],
      [
        "▁establishe",
        -8.806470403235926
      ],
      [
        "▁al",
        -8.703377934073089
      ],
      [
        "▁rail",
        -9.080691728937694
      ],
      [
        "▁hand",
        -6.527532593615033
      ],
      [
        "▁skip",
        -9.439206609939403
      ],
      [
        "▁menu",
        -8.567584267809684
      ],
      [
        "▁wel",
        -3.673063769073643
      ],
      [
        "▁cruise",
        -8.419777201115817
      ],
      [
        "▁implement",
        -8.187586598347401
      ],
      [
        "▁gotte",
        -9.31265395207345
      ],
      [
        "▁reflect",
        -7.854759970925008
      ],
      [
        "g",
        -10.925660239071423
      ],
      [
        "▁ant",
        -8.07381301185632
      ],
      [
        "=---",
        -11.804144771854496
      ],
      [
        "▁site",
        -7.516176501886119
      ],
      [
        "▁prepare",
        -7.995917764946754
      ],
      [
        "▁loss",
        -8.606601156730287
      ],
      [
        "s",
        -3.9323488869734176
      ],
      [
        "▁hi",
        -8.633197166119896
      ],
      [
        "▁murder",
        -8.71929972009357
      ],
      [
        "▁whil",
        -4.621993292267832
      ],
      [
        "▁minister",
        -9.123874585682067
      ],
      [
        "▁be",
        -6.418192732652731
      ],
      [
        "▁govern",
        -9.283563698877625
      ],
      [
        "▁challenge",
        -8.487940388277236
      ],
      [
        "▁adam",
        -5.987733709603641
      ],
      [
        "4",
        -11.925660239071421
      ],
      [
        "▁lion",
        -8.731586927554355
      ],
      [
        "▁budget",
        -8.56114044043177
      ],
      [
        "▁bound",
        -9.299153809523368
      ],
      [
        "▁)",
        -8.967339649659891
      ],
      [
        "▁pe",
        -7.653575341127877
      ],
      [
        "doc",
        -8.597775714188025
      ],
      [
        "▁fin",
        -7.13921038761765
      ],
      [
        "▁ship",
        -7.80088618903669
      ],
      [
        "iness",
        -8.746950893897328
      ],
      [
        "ail",
        -5.888541626445163
      ],
      [
        "r",
        -3.544374778346116
      ],
      [
        "ten",
        -6.696279519574173
      ],
      [
        "’",
        -6.26611087511166
      ],
      [
        "--------------",
        -9.810432193692524
      ],
      [
        "▁threaten",
        -8.917157554625366
      ],
      [
        "▁star",
        -7.9398788526223925
      ],
      [
        "▁connect",
        -7.758087071008227
      ],
      [
        "ar",
        -9.38103595699485
      ],
      [
        "▁assist",
        -8.6107164910709
      ],
      [
        "est",
        -5.834993291504394
      ],
      [
        "▁reache",
        -8.944570140040254
      ],
      [
        "et",
        -6.9685547007627715
      ],
      [
        "▁toys",
        -8.159783368775788
      ],
      [
        "u",
        -6.253982068141724
      ],
      [
        "▁throw",
        -7.132923699682043
      ],
      [
        "▁stay",
        -6.408508520532208
      ],
      [
        "▁4",
        -4.753496389042687
      ],
      [
        "▁withdraw",
        -9.283877617981842
      ],
      [
        "▁shar",
        -9.323179623415278
      ],
      [
        "r",
        -6.1491067157679815
      ],
      [
        "al",
        -6.561525238534631
      ],
      [
        "▁boot",
        -8.336177477453067
      ],
      [
        "ver",
        -10.086671659406763
      ],
      [
        "▁hour",
        -6.859953636382985
      ],
      [
        "▁session",
        -8.790145808509296
      ],
      [
        "▁lunch",
        -7.578816532810314
      ],
      [
        "▁ira",
        -7.262090301229988
      ],
      [
        "re",
        -8.421918623493923
      ],
      [
        "nt",
        -7.926099267872553
      ],
      [
        "w",
        -4.78514370794099
      ],
      [
        "▁land",
        -8.482368756490764
      ],
      [
        "know",
        -8.628820432861549
      ],
      [
        "▁comment",
        -9.027458153108224
      ],
      [
        "gan",
        -9.10983211249284
      ],
      [
        "o",
        -3.931859826234785
      ],
      [
        "p",
        -12.707635305583393
      ],
      [
        "sible",
        -5.963259940662837
      ],
      [
        "▁wil",
        -10.327329674474207
      ],
      [
        "▁being",
        -9.097558310234282
      ],
      [
        "▁camera",
        -8.511750096923526
      ],
      [
        "▁sometime",
        -6.090063230110807
      ],
      [
        "▁company",
        -7.159175805174211
      ],
      [
        "▁shop",
        -7.733025084514147
      ],
      [
        "▁:",
        -8.56095117037406
      ],
      [
        "`",
        -11.832476852014032
      ],
      [
        "▁investment",
        -8.853029441446814
      ],
      [
        "▁north",
        -9.03873347506366
      ],
      [
        "▁wait",
        -9.120835427364886
      ],
      [
        "▁invite",
        -8.504707143195631
      ],
      [
        "▁motor",
        -9.123911414460832
      ],
      [
        "▁worth",
        -6.937472774448308
      ],
      [
        "▁t",
        -7.159435104150309
      ],
      [
        "▁building",
        -7.928126585424438
      ],
      [
        "▁size",
        -8.040279487103879
      ],
      [
        "▁issue",
        -8.748243023434334
      ],
      [
        "▁fl",
        -9.30286718829165
      ],
      [
        "▁glass",
        -7.651089530657507
      ],
      [
        "▁phone",
        -7.184235406349587
      ],
      [
        "▁brother",
        -7.9269424963659185
      ],
      [
        "▁got",
        -7.758129679899486
      ],
      [
        "▁expand",
        -8.318777532004205
      ],
      [
        "▁exercise",
        -9.331770677504128
      ],
      [
        "▁construct",
        -9.18317412548558
      ],
      [
        "▁book",
        -6.396482390770306
      ],
      [
        "um",
        -7.4734470199328955
      ],
      [
        "▁truth",
        -8.487940459490225
      ],
      [
        "s",
        -3.279426749827511
      ],
      [
        "le",
        -7.288360568497718
      ],
      [
        "▁certificate",
        -9.217967913714173
      ],
      [
        "▁support",
        -7.330211589948614
      ],
      [
        "igator",
        -8.96026744878542
      ],
      [
        "as",
        -7.54452203721696
      ],
      [
        "ru",
        -7.3777699177564084
      ],
      [
        "?????",
        -11.017867342887754
      ],
      [
        "eda",
        -7.391193737997791
      ],
      [
        "ental",
        -6.85117598314483
      ],
      [
        "▁insist",
        -9.443311260613681
      ],
      [
        "▁la",
        -6.234224018822062
      ],
      [
        "▁sugar",
        -8.640386033794908
      ],
      [
        "lta",
        -6.9410919169734
      ],
      [
        "▁shoot",
        -8.514553830619484
      ],
      [
        "▁van",
        -8.967280995570809
      ],
      [
        "ion",
        -7.111931306513912
      ],
      [
        "hey",
        -12.24726347818536
      ],
      [
        "▁prevent",
        -8.187350387670168
      ],
      [
        "▁letter",
        -7.204077513325634
      ],
      [
        "▁plast",
        -8.960500173831381
      ],
      [
        "▁noise",
        -8.151601393382219
      ],
      [
        "▁arrangement",
        -8.96026349665036
      ],
      [
        "▁view",
        -8.258169616922892
      ],
      [
        "▁worker",
        -8.386702114549118
      ],
      [
        "▁force",
        -8.278667594786835
      ],
      [
        "▁tail",
        -8.29666352688395
      ],
      [
        "to",
        -8.8262072453735
      ],
      [
        "70",
        -9.21694353791038
      ],
      [
        "along",
        -10.452772586670008
      ],
      [
        "▁sunday",
        -7.388268224229664
      ],
      [
        "▁!!!!",
        -9.976697986141936
      ],
      [
        "▁highlight",
        -8.969748489235473
      ],
      [
        "quino",
        -8.831166503390318
      ],
      [
        "▁practice",
        -8.376719353628014
      ],
      [
        "ist",
        -7.24282332385988
      ],
      [
        "m",
        -4.633343155688267
      ],
      [
        "access",
        -7.293715939656362
      ],
      [
        "▁image",
        -7.75459209629341
      ],
      [
        "▁drop",
        -9.04181994981553
      ],
      [
        "▁step",
        -7.532545737177429
      ],
      [
        "▁red",
        -6.333813204650047
      ],
      [
        ">",
        -7.243668748634377
      ],
      [
        "▁ones",
        -10.697747661474345
      ],
      [
        "–",
        -5.905733460450745
      ],
      [
        "s",
        -2.358705181573896
      ],
      [
        "k",
        -4.9696005187939205
      ],
      [
        "▁'",
        -9.685211806328248
      ],
      [
        "▁j",
        -8.517124255356881
      ],
      [
        "u",
        -6.3640258478089775
      ],
      [
        "ful",
        -5.211743761945356
      ],
      [
        "▁campaign",
        -8.1348127820024
      ],
      [
        "▁describe",
        -7.5151118278972
      ],
      [
        "h",
        -6.846743245280662
      ],
      [
        "kee",
        -6.30219827073261
      ],
      [
        "▁breath",
        -8.923226530042513
      ],
      [
        "▁consequence",
        -8.923226441705136
      ],
      [
        "▁base",
        -7.837463717445983
      ],
      [
        "▁couple",
        -7.514746374831105
      ],
      [
        "▁north",
        -7.0466915970605415
      ],
      [
        "▁elect",
        -8.201859762683116
      ],
      [
        "▁hill",
        -9.12476352692493
      ],
      [
        "er",
        -11.883239097720296
      ],
      [
        "▁issue",
        -7.0528776991617015
      ],
      [
        "▁separate",
        -8.89988291275871
      ],
      [
        "▁librar",
        -9.21681979529707
      ],
      [
        "ar",
        -7.227971639397844
      ],
      [
        "▁hundred",
        -8.819696064316304
      ],
      [
        "▁?",
        -7.157961543371248
      ],
      [
        "ur",
        -11.938972523959853
      ],
      [
        "ice",
        -7.482348072578886
      ],
      [
        "▁brush",
        -9.044226130735694
      ],
      [
        "▁qa",
        -7.083499219665282
      ],
      [
        "▁manag",
        -9.33288579656999
      ],
      [
        "▁run",
        -8.669301778733283
      ],
      [
        "tic",
        -7.116147008177121
      ],
      [
        "▁sci",
        -9.072952856580418
      ],
      [
        "▁bas",
        -8.497951332467174
      ],
      [
        "f",
        -7.674786905690743
      ],
      [
        "▁cheap",
        -6.93449626107068
      ],
      [
        "▁breakfast",
        -7.647406688366276
      ],
      [
        "es",
        -5.867405313705935
      ],
      [
        "r",
        -3.522172518100259
      ],
      [
        "▁6",
        -4.915061083533738
      ],
      [
        "▁attitude",
        -9.123876819431771
      ],
      [
        "▁psycholog",
        -9.216958332728755
      ],
      [
        "pear",
        -6.47487379413309
      ],
      [
        "_",
        -4.456929594736267
      ],
      [
        "▁sell",
        -7.902661868973678
      ],
      [
        "come",
        -8.677123893348814
      ],
      [
        "▁th",
        -5.467207919803628
      ],
      [
        "▁figure",
        -8.200549725684937
      ],
      [
        "▁institution",
        -8.35588601986888
      ],
      [
        "▁arriv",
        -6.450778941158019
      ],
      [
        "▁vacation",
        -8.419736425505278
      ],
      [
        "▁finishe",
        -8.07901801537469
      ],
      [
        "▁stick",
        -8.470154685681408
      ],
      [
        "more",
        -7.0924871061843655
      ],
      [
        "less",
        -6.291852799812492
      ],
      [
        "▁object",
        -8.040017712058521
      ],
      [
        "b",
        -10.475491467591677
      ],
      [
        "▁bee",
        -8.571528797556873
      ],
      [
        "▁unit",
        -9.179203765796299
      ],
      [
        "▁chas",
        -9.420418471900824
      ],
      [
        "▁out",
        -4.814863351036432
      ],
      [
        "n",
        -4.908729745083298
      ],
      [
        "rice",
        -8.991501378877212
      ],
      [
        "▁representative",
        -9.080391683828603
      ],
      [
        "!?!?",
        -12.27640857922021
      ],
      [
        "▁socks",
        -9.213747370597716
      ],
      [
        "▁relat",
        -9.299645529150311
      ],
      [
        "▁general",
        -6.982809582124102
      ],
      [
        "▁mail",
        -8.441975209823593
      ],
      [
        "▁voice",
        -7.637528279142687
      ],
      [
        "▁lay",
        -9.031733995253749
      ],
      [
        "▁simple",
        -7.298001257945252
      ],
      [
        "▁stopover",
        -8.08654176274725
      ],
      [
        "▁199",
        -5.317256283957202
      ],
      [
        "▁estimate",
        -8.098732058245107
      ],
      [
        "bo",
        -6.774893251226908
      ],
      [
        "▁pour",
        -8.070754748925946
      ],
      [
        "▁counterpart",
        -8.667901870700762
      ],
      [
        "▁income",
        -8.787455464565479
      ],
      [
        "▁priorit",
        -8.696473209852103
      ],
      [
        "▁new",
        -5.519541181328751
      ],
      [
        "et",
        -7.922763757749793
      ],
      [
        "▁join",
        -7.607559899605136
      ],
      [
        "▁sport",
        -8.613737138579312
      ],
      [
        "▁ris",
        -9.20008949094287
      ],
      [
        "fore",
        -6.806894281632575
      ],
      [
        "▁compete",
        -9.235698832012206
      ],
      [
        "▁to",
        -4.828081713777489
      ],
      [
        "▁occurr",
        -8.562198231586656
      ],
      [
        "'",
        -2.6782468275802227
      ],
      [
        "▁how",
        -5.336934980005224
      ],
      [
        "ling",
        -8.21018651045376
      ],
      [
        "e",
        -2.8147556323144673
      ],
      [
        "▁rise",
        -9.231808899821043
      ],
      [
        "ere",
        -8.9394830435864
      ],
      [
        "▁contract",
        -8.184076471032185
      ],
      [
        "ma",
        -6.048419740934698
      ],
      [
        "▁before",
        -6.6514196137008295
      ],
      [
        "their",
        -8.058235903390358
      ],
      [
        "▁close",
        -6.872122316633374
      ],
      [
        "▁expression",
        -8.85313211333125
      ],
      [
        "▁interna",
        -6.979968294030549
      ],
      [
        "k",
        -12.28153641900687
      ],
      [
        "▁return",
        -7.92666092283588
      ],
      [
        "▁insur",
        -8.854232753615449
      ],
      [
        "ll",
        -7.494378486819104
      ],
      [
        "m",
        -6.234681282410025
      ],
      [
        "▁fl",
        -8.301407257520474
      ],
      [
        "▁media",
        -8.184776128102005
      ],
      [
        "keep",
        -9.170125644337697
      ],
      [
        "▁d",
        -7.835324086530706
      ],
      [
        "▁close",
        -7.658641754651466
      ],
      [
        "▁noon",
        -7.405467602068381
      ],
      [
        "abilit",
        -8.282837751407035
      ],
      [
        "v",
        -11.925660239071421
      ],
      [
        "e",
        -9.262538749109531
      ],
      [
        "▁hope",
        -8.404095197514982
      ],
      [
        "▁topic",
        -8.963786597324674
      ],
      [
        "▁f",
        -11.570644583811621
      ],
      [
        "▁the",
        -6.346201117748008
      ],
      [
        "▁theatre",
        -9.038725393975731
      ],
      [
        "ley",
        -7.0531633561095095
      ],
      [
        "▁deliver",
        -8.613097418887598
      ],
      [
        "▁notice",
        -7.764069890327629
      ],
      [
        "▁boom",
        -8.853038175197817
      ],
      [
        "▁jun",
        -8.180361157364022
      ],
      [
        "▁fold",
        -8.89888426895811
      ],
      [
        "▁refus",
        -9.153500385357804
      ],
      [
        "in",
        -11.810314756811064
      ],
      [
        "rash",
        -9.043467120679367
      ],
      [
        "▁in",
        -4.970792382408093
      ],
      [
        "▁.....",
        -12.537509853927435
      ],
      [
        "▁per",
        -6.408765002859662
      ],
      [
        "her",
        -9.029804971560168
      ],
      [
        "tractor",
        -8.891746071782972
      ],
      [
        "▁grow",
        -6.92731896607752
      ],
      [
        "▁leave",
        -5.929274021604734
      ],
      [
        "▁build",
        -7.533699094761117
      ],
      [
        "▁rate",
        -7.531611208601072
      ],
      [
        "ther",
        -8.47414026107005
      ],
      [
        "▁smoke",
        -9.029108372842545
      ],
      [
        "▁mous",
        -8.641673365966716
      ],
      [
        "▁stor",
        -8.001711846913501
      ],
      [
        "▁sh",
        -6.53497480056053
      ],
      [
        "▁vlog",
        -9.16964198116683
      ],
      [
        "▁shape",
        -9.294041601447182
      ],
      [
        "▁policy",
        -7.96027505983172
      ],
      [
        "v",
        -7.189853336756621
      ],
      [
        "▁flavor",
        -8.923226451209459
      ],
      [
        "▁department",
        -8.397995948961373
      ],
      [
        "▁writing",
        -8.696480176132543
      ],
      [
        "▁beg",
        -7.530272615901482
      ],
      [
        "o",
        -4.757238422636543
      ],
      [
        "▁full",
        -6.361760699344071
      ],
      [
        "!!!!!!!",
        -11.238141621059212
      ],
      [
        "▁project",
        -9.443500858672703
      ],
      [
        "▁schedule",
        -8.64038540932323
      ],
      [
        "▁freedom",
        -8.086429968389753
      ],
      [
        "▁capacit",
        -8.257771740324742
      ],
      [
        "▁refer",
        -8.213241469647645
      ],
      [
        "2",
        -3.9783356324857158
      ],
      [
        "sh",
        -9.209405661343489
      ],
      [
        "▁furni",
        -8.819700415584807
      ],
      [
        "fusion",
        -9.171436463383738
      ],
      [
        "ar",
        -7.075727222635783
      ],
      [
        "▁speci",
        -8.309994548216958
      ],
      [
        "cial",
        -6.719047619607357
      ],
      [
        "▁post",
        -7.878502570412043
      ],
      [
        "vs",
        -12.525459860751756
      ],
      [
        "▁wif",
        -7.413257984908348
      ],
      [
        "▁garage",
        -8.787726275326047
      ],
      [
        "▁shorts",
        -8.977787828377705
      ],
      [
        "▁exten",
        -8.960679496633666
      ],
      [
        "▁provide",
        -6.477830836230567
      ],
      [
        "▁categor",
        -8.787438293266323
      ],
      [
        "the",
        -7.024914228420359
      ],
      [
        "▁down",
        -7.572524168226138
      ],
      [
        "speci",
        -6.56809779980563
      ],
      [
        "▁inch",
        -8.93084191236678
      ],
      [
        "shed",
        -9.252416951702074
      ],
      [
        "ers",
        -7.1030794882651085
      ],
      [
        "▁pre",
        -7.769928746563558
      ],
      [
        "ding",
        -8.0783902910098
      ],
      [
        "▁dec",
        -8.623105624318299
      ],
      [
        "l",
        -5.233182386482138
      ],
      [
        "t",
        -5.31872887030421
      ],
      [
        "as",
        -6.594058164000631
      ],
      [
        "▁intellig",
        -8.511749936789036
      ],
      [
        "▁attention",
        -7.617405484042893
      ],
      [
        "ff",
        -8.67386596568681
      ],
      [
        "▁th",
        -11.03572952159127
      ],
      [
        "▁bench",
        -9.123873400302152
      ],
      [
        "▁realize",
        -8.060523133677941
      ],
      [
        "▁float",
        -8.688947204043847
      ],
      [
        "▁pu",
        -9.421400638928933
      ],
      [
        "p",
        -6.142994447357721
      ],
      [
        "▁prof",
        -7.238375070861989
      ],
      [
        "ar",
        -7.063891730229105
      ],
      [
        "▁flew",
        -9.36325101694856
      ],
      [
        "▁alo",
        -13.510182422926066
      ],
      [
        "▁location",
        -7.827006929804737
      ],
      [
        "▁experience",
        -8.330738398453974
      ],
      [
        "scope",
        -9.16932384945806
      ],
      [
        "▁cit",
        -6.63495181490747
      ],
      [
        "us",
        -9.889961405511787
      ],
      [
        "▁adult",
        -8.376719370603144
      ],
      [
        "▁sav",
        -8.80767445096748
      ],
      [
        "▁sure",
        -5.83860052409209
      ],
      [
        "▁cap",
        -8.92355394024561
      ],
      [
        "once",
        -6.213434230210199
      ],
      [
        "over",
        -8.61529201880396
      ],
      [
        "▁fear",
        -8.536699310275022
      ],
      [
        "f",
        -6.192928136779798
      ],
      [
        "oo",
        -8.60499018695634
      ],
      [
        "▁mrs",
        -8.86825412372855
      ],
      [
        "what",
        -6.6959009818164335
      ],
      [
        "for",
        -4.020786215354944
      ],
      [
        "▁arrange",
        -8.659840971283762
      ],
      [
        "▁they",
        -4.1663145534812855
      ],
      [
        "▁poet",
        -8.536914196757197
      ],
      [
        "z",
        -6.965394004070415
      ],
      [
        "no",
        -6.988244225294419
      ],
      [
        "▁excell",
        -6.7968984467651445
      ],
      [
        "d",
        -6.601197211229196
      ],
      [
        "▁electrici",
        -8.923226442855446
      ],
      [
        "house",
        -8.931180413125478
      ],
      [
        "▁hear",
        -6.001775646364138
      ],
      [
        "ertain",
        -6.8715652381419625
      ],
      [
        "▁send",
        -7.010702550415962
      ],
      [
        "▁dec",
        -7.3924632428208525
      ],
      [
        "▁lower",
        -9.36524903874381
      ],
      [
        "▁fa",
        -8.84211047302638
      ],
      [
        "ou",
        -11.026065425264347
      ],
      [
        "▁read",
        -6.125286429904584
      ],
      [
        "▁note",
        -8.02542655364769
      ],
      [
        "▁achievement",
        -9.038725017173912
      ],
      [
        "▁bean",
        -9.085577157622819
      ],
      [
        "▁port",
        -8.791426502646008
      ],
      [
        "▁type",
        -6.993080398677356
      ],
      [
        "▁di",
        -6.385736502600605
      ],
      [
        "▁drop",
        -8.286286269122698
      ],
      [
        "▁cage",
        -8.12056574427752
      ],
      [
        "oget",
        -6.134195808425582
      ],
      [
        "[MASK]",
        0.0
      ],
      [
        "▁strateg",
        -8.536140307071953
      ],
      [
        "ww",
        -11.770677750629414
      ],
      [
        "▁w",
        -6.298882848285827
      ],
      [
        "▁improvement",
        -8.887513307970934
      ],
      [
        "▁cal",
        -9.18794803453925
      ],
      [
        "re",
        -6.527067844658775
      ],
      [
        "▁\"",
        -8.960736102532653
      ],
      [
        "▁s",
        -9.316698377377922
      ],
      [
        "▁subject",
        -7.99613216460455
      ],
      [
        "▁pillow",
        -8.511750185376151
      ],
      [
        "s",
        -3.328190644063051
      ],
      [
        "▁vo",
        -8.480415664306676
      ],
      [
        "▁forget",
        -7.8047061598920475
      ],
      [
        "▁mix",
        -8.5503199672976
      ],
      [
        "▁get",
        -4.421414040666525
      ],
      [
        "e",
        -3.698765461655398
      ],
      [
        "l",
        -7.778878820001796
      ],
      [
        "▁recipient",
        -9.080391683828804
      ],
      [
        "▁attach",
        -8.472043201166422
      ],
      [
        "▁cer",
        -6.993604117416121
      ],
      [
        "rote",
        -7.59018499466834
      ],
      [
        "▁argument",
        -8.397995949455344
      ],
      [
        "uh",
        -5.17765410371944
      ],
      [
        "▁israel",
        -7.042396580929527
      ],
      [
        "▁interest",
        -9.025089984849822
      ],
      [
        "▁ce",
        -8.811721279934048
      ],
      [
        "▁grammar",
        -8.960263484107442
      ],
      [
        "▁wednesday",
        -6.714008221289247
      ],
      [
        "▁slippe",
        -9.155563785450259
      ],
      [
        "▁announce",
        -8.549351832378417
      ],
      [
        "t",
        -6.030829771013778
      ],
      [
        "more",
        -5.727711952200021
      ],
      [
        "▁kitchen",
        -8.185669981321245
      ],
      [
        "▁decline",
        -9.11707460588914
      ],
      [
        "▁’",
        -11.653797199629468
      ],
      [
        "▁assert",
        -9.360228417382928
      ],
      [
        "▁suggest",
        -7.269309469923409
      ],
      [
        "▁escape",
        -8.36135136895972
      ],
      [
        "▁task",
        -8.441965495667365
      ],
      [
        "▁sales",
        -8.522653410349296
      ],
      [
        "▁cam",
        -6.278293092448769
      ],
      [
        "ove",
        -8.770730135638402
      ],
      [
        "▁tool",
        -8.37730071642854
      ],
      [
        "▁long",
        -5.9475030239275535
      ],
      [
        "▁mid",
        -8.839557943166152
      ],
      [
        "▁admitt",
        -9.049564673083047
      ],
      [
        "▁part",
        -6.0202728201655535
      ],
      [
        "▁squirt",
        -9.288686004311
      ],
      [
        "▁ok",
        -3.6625702522183037
      ],
      [
        "a",
        -4.730462131174871
      ],
      [
        "▁own",
        -8.023250615119258
      ],
      [
        "▁mumm",
        -7.223584635370784
      ],
      [
        "▁found",
        -6.336787716580186
      ],
      [
        "▁public",
        -6.428328946192325
      ],
      [
        "▁exist",
        -7.503767107828423
      ],
      [
        "i",
        -5.516102924902142
      ],
      [
        "▁home",
        -6.828055413329657
      ],
      [
        "▁re",
        -6.688884180512101
      ],
      [
        "a",
        -3.8090227617556476
      ],
      [
        "real",
        -7.17203307063241
      ],
      [
        "ney",
        -7.371820333774097
      ],
      [
        "▁street",
        -7.3893489104263965
      ],
      [
        "??????????????",
        -12.538317500656397
      ],
      [
        "enth",
        -7.251062652065433
      ],
      [
        "▁question",
        -6.940774554299401
      ],
      [
        "▁cold",
        -6.679730130703026
      ],
      [
        "▁wood",
        -8.739854070160543
      ],
      [
        "▁way",
        -5.50502050497518
      ],
      [
        "▁dad",
        -6.9723032167585135
      ],
      [
        "ng",
        -8.371015105561044
      ],
      [
        "a",
        -10.36027840626602
      ],
      [
        "not",
        -11.552459937114449
      ],
      [
        "▁conference",
        -8.297386519511708
      ],
      [
        "▁th",
        -6.197413388272319
      ],
      [
        "▁has",
        -5.672018519169682
      ],
      [
        "▁import",
        -6.248272192306516
      ],
      [
        "▁place",
        -5.97552090107049
      ],
      [
        "▁us",
        -5.578402828284722
      ],
      [
        "sphere",
        -8.276802762934473
      ],
      [
        "▁app",
        -9.1360832125772
      ],
      [
        "▁treatment",
        -8.277292309821547
      ],
      [
        "▁propos",
        -9.210258085636664
      ],
      [
        "r",
        -5.625332128294126
      ],
      [
        "back",
        -9.051409592315474
      ],
      [
        "▁plant",
        -7.857294334963626
      ],
      [
        "▁make",
        -4.9131648496900775
      ],
      [
        "▁rain",
        -8.486530141529618
      ],
      [
        "▁draft",
        -9.083459478640432
      ],
      [
        "▁even",
        -4.814484194664957
      ],
      [
        "ever",
        -6.0073375635282105
      ],
      [
        "▁25",
        -5.938692828601146
      ],
      [
        "▁red",
        -9.117338693211952
      ],
      [
        "▁grow",
        -7.940441023343274
      ],
      [
        "ou",
        -5.693854455428379
      ],
      [
        "self",
        -5.973973300353701
      ],
      [
        "▁learn",
        -8.315480642049883
      ],
      [
        "▁cut",
        -6.988656765585494
      ],
      [
        "▁survive",
        -8.607826943963538
      ],
      [
        "▁d",
        -7.837953371148171
      ],
      [
        "ve",
        -6.412359021217133
      ],
      [
        "men",
        -8.575510800501588
      ],
      [
        "▁right",
        -5.710999127079453
      ],
      [
        "▁",
        -1.2052669954522912
      ],
      [
        "▁apply",
        -7.699492334367162
      ],
      [
        "u",
        -5.226039066423351
      ],
      [
        "▁wed",
        -8.587518253747817
      ],
      [
        "e",
        -4.756996595538275
      ],
      [
        "▁pet",
        -8.137475773635654
      ],
      [
        "▁destination",
        -9.040245096768253
      ],
      [
        "▁fail",
        -7.908578032639164
      ],
      [
        "▁wou",
        -10.722851391669158
      ],
      [
        "be",
        -6.697446996375136
      ],
      [
        "▁director",
        -8.511749913319608
      ],
      [
        "▁request",
        -8.139182503322722
      ],
      [
        "b",
        -4.989213884672491
      ],
      [
        "▁robot",
        -8.696473206826564
      ],
      [
        "▁idea",
        -6.938774514926831
      ],
      [
        "ough",
        -6.757999109291238
      ],
      [
        "▁invest",
        -8.92347630255485
      ],
      [
        "i",
        -1.9310834849042582
      ],
      [
        "▁on",
        -5.361902469050708
      ],
      [
        "t",
        -2.1315584869245665
      ],
      [
        "▁du",
        -7.062173102212168
      ],
      [
        "▁'",
        -8.111149863688397
      ],
      [
        "s",
        -3.1719975266173357
      ],
      [
        "▁invit",
        -9.374430122357591
      ],
      [
        "i",
        -11.770631529841472
      ],
      [
        "ten",
        -7.555046472329298
      ],
      [
        "ma",
        -8.023398630505657
      ],
      [
        "▁seven",
        -5.479252271885461
      ],
      [
        "▁v",
        -8.292371398184915
      ],
      [
        "▁pupp",
        -8.755176934455605
      ],
      [
        "o",
        -4.2167080953592855
      ],
      [
        "hi",
        -8.444637064165939
      ],
      [
        "▁",
        -2.8219036520832894
      ],
      [
        "▁",
        -2.5121035408022987
      ],
      [
        "▁bro",
        -9.263525512982529
      ],
      [
        "▁hel",
        -7.620303600731841
      ],
      [
        "▁persona",
        -7.163868015445408
      ],
      [
        "▁technolog",
        -7.913327574475932
      ],
      [
        "ish",
        -6.666207458055392
      ],
      [
        "el",
        -7.022978776406453
      ],
      [
        "▁world",
        -6.304401061820538
      ],
      [
        "▁_______",
        -11.336214334389922
      ],
      [
        "▁.........",
        -13.962818968391915
      ],
      [
        "▁cry",
        -8.092439845207672
      ],
      [
        "▁gu",
        -9.008634678794186
      ],
      [
        "]",
        -6.107285657565928
      ],
      [
        "▁organize",
        -9.11584890900788
      ],
      [
        "on",
        -11.079524852188499
      ],
      [
        "▁committ",
        -9.169860122076315
      ],
      [
        "▁assign",
        -8.874152891066661
      ],
      [
        "▁studi",
        -8.067920754521662
      ],
      [
        "▁tow",
        -8.99433038713105
      ],
      [
        "▁wha",
        -8.319820818394579
      ],
      [
        "▁bo",
        -4.5121139884195465
      ],
      [
        ".",
        -9.0084367062112
      ],
      [
        "▁nail",
        -8.613228145572283
      ],
      [
        "▁business",
        -6.864580627149187
      ],
      [
        "▁girl",
        -6.706055643739547
      ],
      [
        "▁sound",
        -8.056004596801618
      ],
      [
        "▁doubt",
        -8.923226450372857
      ],
      [
        "▁cla",
        -8.892573238075416
      ],
      [
        "▁sign",
        -7.643620500304603
      ],
      [
        "an",
        -6.937153073438732
      ],
      [
        "▁engineer",
        -9.130106004983062
      ],
      [
        "a",
        -1.784802076090795
      ],
      [
        "▁18",
        -5.485808363114372
      ],
      [
        "▁avoid",
        -7.722032801214737
      ],
      [
        "▁defen",
        -8.595791509446327
      ],
      [
        "▁da",
        -7.903378949837745
      ],
      [
        "▁jul",
        -6.937347899900796
      ],
      [
        "il",
        -6.496875214286308
      ],
      [
        "▁dog",
        -6.656000729431259
      ],
      [
        "tha",
        -8.930932078915008
      ],
      [
        "be",
        -8.086772398805063
      ],
      [
        "▁god",
        -7.141342431366642
      ],
      [
        "m",
        -8.111314411788435
      ],
      [
        "n",
        -1.763362936029182
      ],
      [
        "▁mind",
        -8.62897434810612
      ],
      [
        "▁deserve",
        -9.026390977354469
      ],
      [
        "▁identit",
        -9.050786148158148
      ],
      [
        "▁down",
        -5.192616129128126
      ],
      [
        "he",
        -6.048336889101976
      ],
      [
        "▁develope",
        -9.249352525576292
      ],
      [
        "’",
        -9.207163296872874
      ],
      [
        "▁interest",
        -7.3138463008365235
      ],
      [
        "houston",
        -6.4649917860782455
      ],
      [
        "ampa",
        -7.290181793402967
      ],
      [
        "—",
        -6.131623132035529
      ],
      [
        "li",
        -7.823242699792453
      ],
      [
        "▁!!!!!!",
        -11.169643353147766
      ],
      [
        "i",
        -2.7294335593499106
      ],
      [
        "▁photo",
        -8.667899914117747
      ],
      [
        "▁setting",
        -8.853650404090555
      ],
      [
        "▁vote",
        -8.217560882040823
      ],
      [
        "▁asset",
        -9.125329721614333
      ],
      [
        "▁democra",
        -8.257771320516436
      ],
      [
        "e",
        -2.3851922693400898
      ],
      [
        "▁ever",
        -6.10819088353339
      ],
      [
        "▁refuse",
        -8.380345088153414
      ],
      [
        "ins",
        -12.167094736746972
      ],
      [
        "▁squeeze",
        -9.058207563184354
      ],
      [
        "somethin",
        -8.701948388671699
      ],
      [
        "▁think",
        -4.867037107920854
      ],
      [
        "▁books",
        -8.27199941135079
      ],
      [
        "ly",
        -6.04520852120544
      ],
      [
        "▁college",
        -8.335478059122593
      ],
      [
        "ry",
        -5.935161893856904
      ],
      [
        "▁climate",
        -8.397996040818356
      ],
      [
        "▁majorit",
        -8.613444370554797
      ],
      [
        "▁writer",
        -7.998063626797059
      ],
      [
        "▁’",
        -10.359454805938455
      ],
      [
        "a",
        -4.130361687978228
      ],
      [
        "z",
        -8.709992816899392
      ],
      [
        "▁square",
        -8.887515958597074
      ],
      [
        "▁mosque",
        -9.169410743768513
      ],
      [
        "▁recommendation",
        -9.123869944701418
      ],
      [
        "▁lack",
        -8.703374223642642
      ],
      [
        "▁care",
        -7.695339058275783
      ],
      [
        "▁judge",
        -8.853096160210683
      ],
      [
        "▁wait",
        -6.4435862654354095
      ],
      [
        "▁equipment",
        -9.08039316226801
      ],
      [
        "▁motion",
        -9.171786867028842
      ],
      [
        "▁confirm",
        -8.120681179643658
      ],
      [
        "▁submit",
        -9.415786562877546
      ],
      [
        "▁buil",
        -7.856162297499796
      ],
      [
        "▁will",
        -8.465328768871109
      ],
      [
        "▁rock",
        -8.976187670267317
      ],
      [
        "▁wind",
        -8.257774807265097
      ],
      [
        "janu",
        -7.244976107624808
      ],
      [
        "▁border",
        -8.586785284063456
      ],
      [
        "▁declaration",
        -9.080392191392056
      ],
      [
        "ard",
        -10.783635794113795
      ],
      [
        "▁histor",
        -7.541387607600667
      ],
      [
        "ous",
        -7.400129012987348
      ],
      [
        "▁5",
        -4.7241759964630194
      ],
      [
        "d",
        -11.061985573933999
      ],
      [
        "---=",
        -11.805652056917825
      ],
      [
        "▁unite",
        -7.293944788822664
      ],
      [
        "▁share",
        -8.668084785943185
      ],
      [
        "which",
        -9.187918605841523
      ],
      [
        "▁male",
        -8.822004581314566
      ],
      [
        "▁attache",
        -7.394647312444762
      ],
      [
        "▁who",
        -5.033694261489916
      ],
      [
        "▁fort",
        -6.67782007577805
      ],
      [
        "dr.",
        -7.36044500395861
      ],
      [
        "▁mark",
        -8.536560407604076
      ],
      [
        "▁dance",
        -9.069633632679107
      ],
      [
        "▁quartile",
        -9.080391684523477
      ],
      [
        "▁manner",
        -8.69659031270747
      ],
      [
        "▁elephant",
        -8.756187999539797
      ],
      [
        ";",
        -10.425660239071421
      ],
      [
        "▁want",
        -4.408770320777204
      ],
      [
        "g",
        -6.263157292022805
      ],
      [
        "the",
        -9.636382313932264
      ],
      [
        "▁shakes",
        -6.50389683421445
      ],
      [
        "▁soldier",
        -8.613096971445692
      ],
      [
        "▁grab",
        -8.865392312630064
      ],
      [
        "o",
        -10.13682536586598
      ],
      [
        "▁tom",
        -7.105620614746199
      ],
      [
        "sburg",
        -4.9979293475784194
      ],
      [
        "--",
        -6.649124866636526
      ],
      [
        "▁remain",
        -7.157446223448043
      ],
      [
        "▁bit",
        -6.857625465961402
      ],
      [
        "▁share",
        -7.958676915142011
      ],
      [
        "▁rang",
        -8.982017603045382
      ],
      [
        "g",
        -6.2422419029866925
      ],
      [
        "age",
        -7.2273634382216105
      ],
      [
        "adelphi",
        -5.283336306940196
      ],
      [
        "▁9",
        -5.844827498647503
      ],
      [
        "os",
        -12.71061285681801
      ],
      [
        "▁conclusion",
        -8.787540364728878
      ],
      [
        "▁evolv",
        -9.307357676860246
      ],
      [
        "▁talk",
        -5.949477257980686
      ],
      [
        "▁maintain",
        -7.770155367477616
      ],
      [
        "▁modify",
        -9.146879595428274
      ],
      [
        "f",
        -2.4516511753350763
      ],
      [
        "▁march",
        -7.222956755173649
      ],
      [
        "mber",
        -8.492872498582964
      ],
      [
        "▁silver",
        -9.080660755062715
      ],
      [
        "us",
        -5.907458329514275
      ],
      [
        "▁act",
        -8.31177302297877
      ],
      [
        "---------------",
        -9.361054628922306
      ],
      [
        "▁lie",
        -8.265551593608722
      ],
      [
        "▁black",
        -8.889279194876657
      ],
      [
        "▁fore",
        -8.923465069221695
      ],
      [
        "▁demand",
        -9.080397181484157
      ],
      [
        "▁moon",
        -8.400073716858397
      ],
      [
        "▁sea",
        -7.316940977426712
      ],
      [
        "▁class",
        -6.435839001181261
      ],
      [
        "l",
        -3.0945094295258793
      ],
      [
        "▁region",
        -7.788957528186415
      ],
      [
        "▁computer",
        -7.800936317011006
      ],
      [
        "k",
        -12.810278406305976
      ],
      [
        "▁good",
        -4.598078696122425
      ],
      [
        "▁frighten",
        -9.371537629658254
      ],
      [
        "▁ensure",
        -7.629783506026658
      ],
      [
        "▁common",
        -6.83188665264987
      ],
      [
        "▁ya",
        -10.057489520944593
      ],
      [
        "▁congratulate",
        -9.360851869981587
      ],
      [
        "▁agreement",
        -7.523439646606449
      ],
      [
        "▁lo",
        -8.587447642965873
      ],
      [
        "▁fina",
        -6.594469095657319
      ],
      [
        "▁farm",
        -8.66168905096403
      ],
      [
        "▁phoe",
        -6.470391100104839
      ],
      [
        "▁individual",
        -8.561140155979066
      ],
      [
        "▁initiate",
        -8.949744924277967
      ],
      [
        "y",
        -7.14930709824996
      ],
      [
        "▁post",
        -8.180190563541796
      ],
      [
        "▁un",
        -9.477616961067127
      ],
      [
        "▁hard",
        -6.2698592650442055
      ],
      [
        "g",
        -5.178950778187783
      ],
      [
        "c",
        -11.810278406305967
      ],
      [
        "▁plan",
        -8.307157985587114
      ],
      [
        "u",
        -6.60459440309763
      ],
      [
        "▁twist",
        -9.28344110355502
      ],
      [
        "▁up",
        -5.004285843445531
      ],
      [
        "▁argue",
        -8.347926044747924
      ],
      [
        "der",
        -10.23364092298107
      ],
      [
        "▁loan",
        -8.442527330374492
      ],
      [
        "▁abou",
        -5.1502907813187875
      ],
      [
        "▁feed",
        -7.955860455662812
      ],
      [
        "m",
        -5.207345861107033
      ],
      [
        "▁surprise",
        -8.428916050822538
      ],
      [
        "▁je",
        -8.718464131816196
      ],
      [
        "at",
        -8.964835354007597
      ],
      [
        "▁plant",
        -8.843420525445511
      ],
      [
        "▁list",
        -5.604972914754906
      ],
      [
        "▁balloon",
        -8.37673217444738
      ],
      [
        "▁depart",
        -7.211735076250525
      ],
      [
        "▁button",
        -7.657751460610127
      ],
      [
        "▁...",
        -9.238424474979164
      ],
      [
        "▁si",
        -6.321408593340361
      ],
      [
        "▁indiana",
        -6.677476247584471
      ],
      [
        "▁member",
        -7.293888133461845
      ],
      [
        "▁",
        -1.4771507384749105
      ],
      [
        "▁every",
        -6.189232902579145
      ],
      [
        "▁require",
        -7.255971108646588
      ],
      [
        "▁pig",
        -8.466027118186767
      ],
      [
        "got",
        -10.98607480809809
      ],
      [
        "▁fac",
        -8.919032331187946
      ],
      [
        "▁enable",
        -8.485653695965325
      ],
      [
        "▁particular",
        -6.879661482062576
      ],
      [
        "▁us",
        -7.3584463314768165
      ],
      [
        "▁up",
        -5.080133948048412
      ],
      [
        "▁bunn",
        -8.640832405419772
      ],
      [
        "▁name",
        -6.173122524404931
      ],
      [
        "k",
        -6.427881069140615
      ],
      [
        "▁young",
        -6.413958168445246
      ],
      [
        "p",
        -6.326571753016402
      ],
      [
        "c",
        -7.9821038333714105
      ],
      [
        "▁ignore",
        -8.690690195797188
      ],
      [
        "▁local",
        -6.57751425338309
      ],
      [
        "ha",
        -9.035947903990635
      ],
      [
        "▁fi",
        -4.740511853306687
      ],
      [
        "▁view",
        -7.225935158585302
      ],
      [
        "▁concern",
        -8.239254382881619
      ],
      [
        "▁",
        -1.6256745059821878
      ],
      [
        "▁b",
        -7.005897978310937
      ],
      [
        "/",
        -11.20763530558339
      ],
      [
        "rface",
        -8.40120130145402
      ],
      [
        "▁apr",
        -7.08020449442282
      ],
      [
        "▁cover",
        -8.443252732364815
      ],
      [
        "y",
        -9.93729819650814
      ],
      [
        "▁negotiation",
        -9.216943538611048
      ],
      [
        "▁ar",
        -6.245121969360562
      ],
      [
        "ock",
        -6.949752816097767
      ],
      [
        "▁filter",
        -8.221198041400385
      ],
      [
        "s",
        -1.962705075248799
      ],
      [
        "▁copy",
        -8.211734328691522
      ],
      [
        "▁handl",
        -9.298413936634732
      ],
      [
        "e",
        -3.866122931705931
      ],
      [
        "▁boat",
        -7.6099188262353135
      ],
      [
        "▁specifi",
        -7.060318245974871
      ],
      [
        "▁hers",
        -11.553708895953593
      ],
      [
        "▁b",
        -12.241560312219251
      ],
      [
        "eeth",
        -8.36355984555763
      ],
      [
        "▁pass",
        -7.307761619104325
      ],
      [
        "put",
        -9.176596761033803
      ],
      [
        "▁favorite",
        -9.038734018345819
      ],
      [
        "so",
        -4.878830597655819
      ],
      [
        "▁award",
        -9.145675020118118
      ],
      [
        "be",
        -5.8753117268286665
      ],
      [
        "▁peanut",
        -8.696493613361936
      ],
      [
        "▁tree",
        -7.701735158572218
      ],
      [
        "▁open",
        -6.700602120712368
      ],
      [
        "▁execute",
        -8.568324959413838
      ],
      [
        "▁proceed",
        -8.649307116413167
      ],
      [
        "ent",
        -8.214593509377865
      ],
      [
        "▁message",
        -7.668486863308202
      ],
      [
        "▁over",
        -8.25197773416436
      ],
      [
        "nex",
        -7.029111693797481
      ],
      [
        "▁touch",
        -7.5809394706235125
      ],
      [
        "▁student",
        -7.479573187494293
      ],
      [
        "▁mem",
        -7.00957768529491
      ],
      [
        "▁ser",
        -8.25464930958914
      ],
      [
        "ember",
        -8.060200352206877
      ],
      [
        "wh",
        -8.549184731091053
      ],
      [
        "▁short",
        -6.594763792945896
      ],
      [
        "▁instruction",
        -8.889123347279588
      ],
      [
        "▁exception",
        -9.217022488961776
      ],
      [
        "▁page",
        -7.0265985753286895
      ],
      [
        "▁regard",
        -7.888147346547675
      ],
      [
        "▁til",
        -10.08890471521851
      ],
      [
        "se",
        -9.378030818966653
      ],
      [
        "thes",
        -8.344899422662623
      ],
      [
        "le",
        -6.872979158718937
      ],
      [
        "▁nest",
        -9.172291796593397
      ],
      [
        "▁toward",
        -7.687252074323171
      ],
      [
        "inst",
        -6.754258181145743
      ],
      [
        "▁cause",
        -8.151481569636447
      ],
      [
        "▁cle",
        -6.736947481450366
      ],
      [
        "▁engine",
        -8.751911522732705
      ],
      [
        "▁energy",
        -7.710254107816979
      ],
      [
        "use",
        -7.908039679543824
      ],
      [
        "▁francisco",
        -4.790806721901821
      ],
      [
        "▁lot",
        -6.288690508911256
      ],
      [
        "▁europe",
        -6.770604656035175
      ],
      [
        "▁industr",
        -7.953873036340948
      ],
      [
        "▁shoulder",
        -8.69647340710104
      ],
      [
        "▁intern",
        -8.26017301531855
      ],
      [
        "▁liv",
        -7.570239989097205
      ],
      [
        "▁slid",
        -8.839298793469695
      ],
      [
        "ed",
        -2.876766076595114
      ],
      [
        "d",
        -5.9477191613994504
      ],
      [
        "▁collect",
        -7.953103109768134
      ],
      [
        "▁ev",
        -8.168984609430542
      ],
      [
        "▁absolute",
        -7.501200598055169
      ],
      [
        "▁friday",
        -6.952953189626692
      ],
      [
        "▁finding",
        -9.16960617209487
      ],
      [
        "ta",
        -8.247675919960205
      ],
      [
        "a",
        -3.730887411176009
      ],
      [
        "▁email",
        -9.283670887663895
      ],
      [
        "▁sat",
        -7.888505393270265
      ],
      [
        "▁debt",
        -9.218993946644222
      ],
      [
        "▁li",
        -8.905933880865886
      ],
      [
        "equ",
        -7.362634272841502
      ],
      [
        "▁b",
        -8.653977413552017
      ],
      [
        "aught",
        -7.744287489299082
      ],
      [
        "phi",
        -7.032070604541478
      ],
      [
        "▁compare",
        -8.265165019192352
      ],
      [
        "▁welcome",
        -8.867113751641234
      ],
      [
        "▁turn",
        -6.08920135787137
      ],
      [
        "▁woman",
        -7.523440864577599
      ],
      [
        "en",
        -7.180770542726828
      ],
      [
        "sday",
        -7.704137092196661
      ],
      [
        "▁el",
        -6.533844654885006
      ],
      [
        "▁bowl",
        -7.9974941474846455
      ],
      [
        "▁activit",
        -7.6076596541254045
      ],
      [
        "b",
        -6.825311492901869
      ],
      [
        "sit",
        -9.383504073805348
      ],
      [
        "▁cloth",
        -8.512111151513707
      ],
      [
        "▁ga",
        -8.863395213066191
      ],
      [
        "▁election",
        -7.9961323812441565
      ],
      [
        "▁defeat",
        -9.024964534526536
      ],
      [
        "▁india",
        -6.824040119082205
      ],
      [
        "y",
        -4.489015840271201
      ],
      [
        "▁safe",
        -8.102367068433873
      ],
      [
        "▁departure",
        -9.216943541934365
      ],
      [
        "▁blue",
        -6.5873585788894955
      ],
      [
        "▁forward",
        -8.407128460924563
      ],
      [
        "s",
        -5.850145103808338
      ],
      [
        "d",
        -6.638356827931881
      ],
      [
        "▁hide",
        -8.394334826868617
      ],
      [
        "▁l",
        -8.926943481680604
      ],
      [
        "▁garden",
        -8.221071439506012
      ],
      [
        "▁outcome",
        -9.169327741677735
      ],
      [
        "▁search",
        -8.787444009487338
      ],
      [
        "▁>",
        -9.582936923105237
      ],
      [
        "▁crie",
        -8.680881358113988
      ],
      [
        "▁women",
        -7.4795736776521835
      ],
      [
        "▁promise",
        -8.237400325629473
      ],
      [
        "man",
        -7.72214053945189
      ],
      [
        "look",
        -8.924097104575836
      ],
      [
        "▁exercise",
        -9.217749554897994
      ],
      [
        "▁m",
        -6.109562226064084
      ],
      [
        "▁obtain",
        -8.438158095999771
      ],
      [
        "▁studie",
        -8.538202096197887
      ],
      [
        "and",
        -11.257296211407963
      ],
      [
        "▁earth",
        -8.119381326187579
      ],
      [
        "▁co",
        -7.042445747343084
      ],
      [
        "·",
        -9.88131015228541
      ],
      [
        "v",
        -8.221020636134378
      ],
      [
        "▁attribut",
        -9.360514952474078
      ],
      [
        "▁option",
        -7.62054058722151
      ],
      [
        "▁air",
        -6.76560104667951
      ],
      [
        "▁title",
        -8.725911657682675
      ],
      [
        "▁strengthen",
        -8.731130213921778
      ],
      [
        "▁walk",
        -8.355906930324021
      ],
      [
        "▁day",
        -5.5497980852745314
      ],
      [
        "p",
        -6.379676684275522
      ],
      [
        "▁present",
        -7.660713438513456
      ],
      [
        "▁operation",
        -8.39709750128522
      ],
      [
        "▁the",
        -1.5036323933989628
      ],
      [
        "▁knowledge",
        -8.1184193394843
      ],
      [
        "▁review",
        -8.033199575130796
      ],
      [
        "▁miss",
        -7.4404016868154
      ],
      [
        "▁bet",
        -8.661264295031007
      ],
      [
        "▁penn",
        -8.592861693572672
      ],
      [
        "▁suspect",
        -8.610884333859165
      ],
      [
        "about",
        -5.6244658561614616
      ],
      [
        "▁un",
        -5.798991763268779
      ],
      [
        "▁phil",
        -5.248908426229393
      ],
      [
        "▁understanding",
        -8.516439428350697
      ],
      [
        "▁friendl",
        -6.990607316596084
      ],
      [
        "▁trial",
        -8.756702045717159
      ],
      [
        "▁master",
        -8.79278366680871
      ],
      [
        "h",
        -4.22858231472119
      ],
      [
        "▁listen",
        -7.39626607878537
      ],
      [
        "▁wear",
        -7.030136924463811
      ],
      [
        "▁hair",
        -6.961946290224792
      ],
      [
        "▁temperature",
        -8.61309738066222
      ],
      [
        "▁basil",
        -8.538931470237134
      ],
      [
        "▁first",
        -4.829267318650501
      ],
      [
        "▁future",
        -7.789037103628768
      ],
      [
        "__________",
        -11.310280138036862
      ],
      [
        "▁conflict",
        -8.667901780410334
      ],
      [
        "▁c",
        -8.031073055678037
      ],
      [
        "▁moment",
        -7.619365472594727
      ],
      [
        "▁feed",
        -8.908070109428966
      ],
      [
        "▁b",
        -6.17573805327475
      ],
      [
        "▁co",
        -7.2059374253862245
      ],
      [
        "▁wake",
        -8.394018509598096
      ],
      [
        "▁eye",
        -6.7141217215007565
      ],
      [
        "▁target",
        -8.787438022389779
      ],
      [
        "▁prefer",
        -8.702774858518639
      ],
      [
        "▁",
        -1.4271932053481233
      ],
      [
        "ious",
        -7.178441696046659
      ],
      [
        "er",
        -7.534039384376678
      ],
      [
        "▁statu",
        -8.876990776813212
      ],
      [
        "▁t",
        -6.541443342038365
      ],
      [
        "▁hospital",
        -8.315477856718175
      ],
      [
        "▁update",
        -9.307863758981759
      ],
      [
        "▁skills",
        -8.674893452609716
      ],
      [
        "▁applie",
        -8.02839247144541
      ],
      [
        "er",
        -6.115462792319051
      ],
      [
        "k",
        -7.1821956136619916
      ],
      [
        "▁root",
        -8.239340229963744
      ],
      [
        "on",
        -5.903321937222156
      ],
      [
        "▁wish",
        -7.590511462557425
      ],
      [
        "▁be",
        -5.041130330655389
      ],
      [
        "▁low",
        -7.220900580056894
      ],
      [
        "▁percentage",
        -8.071384263197615
      ],
      [
        "▁protect",
        -7.6478212800122485
      ],
      [
        "ep",
        -8.964188828874324
      ],
      [
        "us",
        -8.503979686221008
      ],
      [
        "ol",
        -6.925431509875882
      ],
      [
        "▁dream",
        -8.613097274712779
      ],
      [
        "on",
        -6.905645557616413
      ],
      [
        "▁reduc",
        -9.075227997464417
      ],
      [
        "▁xm",
        -7.149206549637241
      ],
      [
        "ect",
        -8.250049229689823
      ],
      [
        "▁dish",
        -8.421182272742898
      ],
      [
        "▁um",
        -3.615304440315332
      ],
      [
        "▁lady",
        -8.623778655961548
      ],
      [
        "▁mo",
        -7.666721555623175
      ],
      [
        "▁tha",
        -6.391787174921178
      ],
      [
        "▁as",
        -3.75801648861614
      ],
      [
        "’",
        -13.8725705263812
      ],
      [
        "***************",
        -11.823410765088374
      ],
      [
        "ave",
        -6.872084745117333
      ],
      [
        "▁advance",
        -9.410256147462524
      ],
      [
        "----------",
        -11.580579679673278
      ],
      [
        "dy",
        -8.039254141798633
      ],
      [
        "▁gift",
        -8.887512291008537
      ],
      [
        "▁cupcake",
        -8.923229193394047
      ],
      [
        "ag",
        -9.825387720886301
      ],
      [
        "▁try",
        -5.699561699790407
      ],
      [
        "▁suggestion",
        -8.725884969313293
      ],
      [
        "▁c",
        -7.464378526851302
      ],
      [
        "▁de",
        -7.219112376193933
      ],
      [
        "▁order",
        -7.092900769923852
      ],
      [
        "le",
        -8.50795881827378
      ],
      [
        "ment",
        -6.494612436723121
      ],
      [
        "▁clear",
        -6.855258059848384
      ],
      [
        "▁mos",
        -6.7054045308103385
      ],
      [
        "dl",
        -7.48629222181447
      ],
      [
        "▁count",
        -7.906853085517547
      ],
      [
        "▁muc",
        -5.922368473306233
      ],
      [
        "ul",
        -10.976443136227793
      ],
      [
        "▁command",
        -8.992686532161631
      ],
      [
        "wo",
        -10.600779294355887
      ],
      [
        "▁fear",
        -9.030068234004945
      ],
      [
        "▁of",
        -6.502938737333261
      ],
      [
        "x",
        -6.8356093943361715
      ],
      [
        "son",
        -6.585038971921412
      ],
      [
        "▁sweet",
        -8.819814667969975
      ],
      [
        "▁sil",
        -9.205538703859592
      ],
      [
        "ble",
        -5.978990578455024
      ],
      [
        "▁thi",
        -3.955288045893009
      ],
      [
        "▁have",
        -4.097231545014155
      ],
      [
        "▁desire",
        -9.216946150353202
      ],
      [
        "ought",
        -6.8320619203240085
      ],
      [
        "▁bridge",
        -8.75647236360784
      ],
      [
        "▁’",
        -8.629992473727398
      ],
      [
        "▁earn",
        -8.527899775111031
      ],
      [
        "▁m",
        -6.93110486153691
      ],
      [
        "▁citizens",
        -8.155322500037236
      ],
      [
        "▁nice",
        -5.79534187277514
      ],
      [
        "es",
        -6.876952332114524
      ],
      [
        "▁fellow",
        -9.03872549137705
      ],
      [
        "▁inform",
        -8.411798429957743
      ],
      [
        "▁facilitate",
        -9.255807223988535
      ],
      [
        "▁transport",
        -8.917221765190643
      ],
      [
        "▁s",
        -5.346467888196825
      ],
      [
        "dia",
        -7.541339966809506
      ],
      [
        "----------------",
        -8.720621540620426
      ],
      [
        "os",
        -12.781528412373152
      ],
      [
        "▁not",
        -7.200425170962376
      ],
      [
        "▁point",
        -8.002162580788006
      ],
      [
        "▁change",
        -7.11650615464455
      ],
      [
        "der",
        -7.243585232811172
      ],
      [
        "▁may",
        -6.751293367918482
      ],
      [
        "▁stopp",
        -7.540817280693708
      ],
      [
        "▁per",
        -8.404674377646222
      ],
      [
        "▁help",
        -7.578754029107365
      ],
      [
        "▁crawl",
        -9.283315065899274
      ],
      [
        "▁???",
        -12.710326831142815
      ],
      [
        "▁order",
        -7.583793869267324
      ],
      [
        "en",
        -7.9438376368086185
      ],
      [
        "▁ring",
        -8.950678526810764
      ],
      [
        "▁examine",
        -8.958313668623637
      ],
      [
        ".",
        -7.015451316975299
      ],
      [
        "▁de",
        -6.0277791678966155
      ],
      [
        "▁thank",
        -6.299459731837786
      ],
      [
        "▁package",
        -9.124345099431405
      ],
      [
        "e",
        -2.2184347982162924
      ],
      [
        "ar",
        -7.403787687720678
      ],
      [
        "▁destroy",
        -8.407121557018147
      ],
      [
        "...............",
        -11.214670331718136
      ],
      [
        "▁tourist",
        -8.39882020912513
      ],
      [
        "▁salt",
        -8.316899565779925
      ],
      [
        "up",
        -7.969355360081218
      ],
      [
        "▁owner",
        -7.884099749778288
      ],
      [
        "▁missile",
        -9.169350063020874
      ],
      [
        "▁form",
        -8.023580180085943
      ],
      [
        "▁rise",
        -9.218409482139297
      ],
      [
        "▁labor",
        -8.669192077985084
      ],
      [
        "▁memor",
        -8.24228189448559
      ],
      [
        "▁pos",
        -6.272087047022914
      ],
      [
        "h",
        -5.354454608136792
      ],
      [
        "ar",
        -7.070180781046311
      ],
      [
        "um",
        -11.058978476488804
      ],
      [
        "▁answer",
        -7.948120084470887
      ],
      [
        "▁mouth",
        -7.710257644755742
      ],
      [
        "▁din",
        -9.103629886181892
      ],
      [
        "▁dream",
        -8.880148528208505
      ],
      [
        "v",
        -5.575747967194121
      ],
      [
        "m",
        -6.2242204053105326
      ],
      [
        "ese",
        -10.064450891872804
      ],
      [
        "1",
        -8.640110920790612
      ],
      [
        "▁father",
        -6.972878999760344
      ],
      [
        "▁got",
        -5.199521392430971
      ],
      [
        "t",
        -1.4210259656718716
      ],
      [
        "▁hell",
        -5.579624852051386
      ],
      [
        "ine",
        -8.892046660633094
      ],
      [
        "na",
        -7.35964918259743
      ],
      [
        "▁government",
        -6.9218414706134155
      ],
      [
        "▁fact",
        -6.925250659712235
      ],
      [
        "▁acquire",
        -9.042177457619601
      ],
      [
        "▁n",
        -6.7457576266198265
      ],
      [
        "p",
        -7.066816683755824
      ],
      [
        "▁license",
        -7.767979767270777
      ],
      [
        "▁material",
        -8.151479862451207
      ],
      [
        "▁reduce",
        -8.26761350312115
      ],
      [
        "▁data",
        -6.742516554737583
      ],
      [
        "▁30",
        -5.898121181112609
      ],
      [
        "▁ad",
        -8.312796023265218
      ],
      [
        "▁bedroom",
        -8.697423365628289
      ],
      [
        "▁trail",
        -9.118689561025066
      ],
      [
        "▁steal",
        -9.2840917300488
      ],
      [
        "▁",
        -2.3835752038720184
      ],
      [
        "“",
        -6.491662973714449
      ],
      [
        "c",
        -10.270631529841472
      ],
      [
        "where",
        -6.01525835379799
      ],
      [
        "ent",
        -5.270498460199944
      ],
      [
        "▁sweep",
        -9.443273260985467
      ],
      [
        "ac",
        -8.033584466117274
      ],
      [
        ":",
        -5.121007365794226
      ],
      [
        "▁as",
        -4.879682590360853
      ],
      [
        "▁component",
        -8.613096972182158
      ],
      [
        "▁line",
        -6.69490420323131
      ],
      [
        "▁george",
        -6.776890662826511
      ],
      [
        "th",
        -6.985667254388133
      ],
      [
        "▁g",
        -7.277611285017578
      ],
      [
        "er",
        -5.41592212726871
      ],
      [
        "▁offer",
        -6.973364069203792
      ],
      [
        "_",
        -4.3303563868877815
      ],
      [
        "fro",
        -6.468812278161513
      ],
      [
        "▁late",
        -6.267339765221746
      ],
      [
        "6",
        -4.586613867475252
      ],
      [
        "****************",
        -9.642473869126556
      ],
      [
        "▁indicate",
        -8.34885140451932
      ],
      [
        "▁no",
        -3.1231490279289718
      ],
      [
        "▁centre",
        -8.960702528767762
      ],
      [
        "▁real",
        -4.874120198670135
      ],
      [
        "g",
        -5.086823106981542
      ],
      [
        "aid",
        -8.194850112635837
      ],
      [
        "▁length",
        -9.12387115911736
      ],
      [
        "▁fund",
        -7.831147418397853
      ],
      [
        "▁stop",
        -7.914255812273738
      ],
      [
        "▁response",
        -7.836858238716574
      ],
      [
        "t",
        -3.4258600649643967
      ],
      [
        "▁seattle",
        -6.803437356597682
      ],
      [
        "▁second",
        -6.165745746144752
      ],
      [
        "▁–",
        -9.00060687934901
      ],
      [
        "ro",
        -9.323176805322918
      ],
      [
        "▁difference",
        -7.6080850461007525
      ],
      [
        "▁cin",
        -7.1514701452127625
      ],
      [
        "▁rinse",
        -9.443591173236342
      ],
      [
        "ober",
        -7.368781672293722
      ],
      [
        "▁remind",
        -8.351327217733763
      ],
      [
        "▁ma",
        -8.539376449403816
      ],
      [
        "▁domain",
        -9.038725487086722
      ],
      [
        "▁pen",
        -7.9610550382665615
      ],
      [
        "▁",
        -2.6211102193894833
      ],
      [
        "▁prob",
        -5.886808177766353
      ],
      [
        "▁bill",
        -8.275429721219604
      ],
      [
        "▁balzac",
        -6.776892985365578
      ],
      [
        "▁drama",
        -9.169325248910472
      ],
      [
        "y",
        -3.318207956350367
      ],
      [
        "k",
        -8.62653820904472
      ],
      [
        "▁mil",
        -6.217874905444641
      ],
      [
        "▁course",
        -7.218541794418536
      ],
      [
        "j",
        -11.770631529841472
      ],
      [
        "▁b",
        -6.612012272435213
      ],
      [
        "hos",
        -7.461527069413849
      ],
      [
        "▁comment",
        -7.822203929235285
      ],
      [
        "▁speaker",
        -9.123869945045707
      ],
      [
        "o",
        -1.7919375046051371
      ],
      [
        "▁lo",
        -6.736748336690295
      ],
      [
        "ca",
        -7.141411780500674
      ],
      [
        "▁method",
        -7.9537835286735215
      ],
      [
        "▁absorb",
        -9.024768821123665
      ],
      [
        "▁sai",
        -5.08691055481988
      ],
      [
        "rove",
        -8.69355978323242
      ],
      [
        "▁risk",
        -9.094089437034025
      ],
      [
        "▁agree",
        -7.253405628739583
      ],
      [
        ",",
        -12.303800120175861
      ],
      [
        "ax",
        -7.957429546796635
      ],
      [
        "▁momm",
        -6.828298447791853
      ],
      [
        "▁basi",
        -8.241400965249298
      ],
      [
        "▁passenger",
        -9.216943580602956
      ],
      [
        "▁lawyer",
        -9.170622383221856
      ],
      [
        "▁beginning",
        -8.487940388594948
      ],
      [
        "▁on",
        -6.294171641857381
      ],
      [
        "▁cow",
        -8.179690089835708
      ],
      [
        "ego",
        -6.75241437602735
      ],
      [
        "▁assume",
        -8.180302739335136
      ],
      [
        "▁sa",
        -6.480620694170948
      ],
      [
        "▁dig",
        -9.15292108372924
      ],
      [
        "▁teach",
        -8.290834019702363
      ],
      [
        "il",
        -10.821969912483556
      ],
      [
        "▁perceive",
        -9.231072865854188
      ],
      [
        "wha",
        -11.428549959890994
      ],
      [
        "▁air",
        -6.020133625460001
      ],
      [
        "▁belong",
        -7.909109751690545
      ],
      [
        "▁player",
        -8.327969841936287
      ],
      [
        "▁ensur",
        -8.932108183470353
      ],
      [
        "▁sector",
        -8.376727164926757
      ],
      [
        "▁fri",
        -7.673051705287243
      ],
      [
        "up",
        -8.050037684726725
      ],
      [
        "▁fina",
        -7.557620854095129
      ],
      [
        "ian",
        -8.886281959573068
      ],
      [
        "▁condition",
        -7.96776251162614
      ],
      [
        "▁involve",
        -7.945953540093921
      ],
      [
        "▁relate",
        -8.875343751627707
      ],
      [
        "▁dust",
        -8.854501243006428
      ],
      [
        "▁orla",
        -6.661679213327273
      ],
      [
        "▁belief",
        -8.488470225120022
      ],
      [
        "ho",
        -8.554119697639074
      ],
      [
        "▁angel",
        -6.911102437869754
      ],
      [
        "’",
        -10.78153641900687
      ],
      [
        "▁goat",
        -8.923842016975591
      ],
      [
        "**************",
        -12.31917194045622
      ],
      [
        "ce",
        -7.959106722472015
      ],
      [
        "▁friends",
        -7.159530320313447
      ],
      [
        "▁screw",
        -9.123869968977653
      ],
      [
        "”",
        -6.5176806785063475
      ],
      [
        "▁fli",
        -8.794802858492993
      ],
      [
        "_",
        -4.773377875289404
      ],
      [
        "r",
        -6.977308910407106
      ],
      [
        "eat",
        -8.359058933190484
      ],
      [
        "▁attack",
        -8.166821387077388
      ],
      [
        "▁chocolate",
        -8.335477856596388
      ],
      [
        "▁v",
        -10.549009922820545
      ],
      [
        "ting",
        -8.398526626205724
      ],
      [
        "▁alway",
        -5.519820572217112
      ],
      [
        "-----",
        -11.778022025595233
      ],
      [
        "t",
        -4.573340008156835
      ],
      [
        "▁it",
        -4.990832559725664
      ],
      [
        "▁bring",
        -6.616855912172929
      ],
      [
        "own",
        -5.651585842620452
      ],
      [
        "▁lead",
        -7.517633113995592
      ],
      [
        "▁miles",
        -8.581393473223175
      ],
      [
        "▁think",
        -9.16935776696436
      ],
      [
        "▁feature",
        -9.064491124353996
      ],
      [
        "my",
        -7.634247853704349
      ],
      [
        "▁!!!!!",
        -12.942034343401446
      ],
      [
        "▁publication",
        -9.220037488833055
      ],
      [
        "▁choice",
        -8.118419686609656
      ],
      [
        "l",
        -3.3832330531517893
      ],
      [
        "▁weapon",
        -8.071495550712495
      ],
      [
        "▁go",
        -3.9477519069450997
      ],
      [
        "▁traffic",
        -8.628386878704273
      ],
      [
        "▁notice",
        -8.756197793068267
      ],
      [
        "▁interpret",
        -9.041564964558665
      ],
      [
        "ivit",
        -9.073363420939694
      ],
      [
        "idence",
        -8.086516438613055
      ],
      [
        "r",
        -5.705603667194819
      ],
      [
        "▁guideline",
        -8.923318864321372
      ],
      [
        "▁regard",
        -7.5181281910160465
      ],
      [
        "▁beat",
        -8.139941333584396
      ],
      [
        "▁winter",
        -8.295871169518074
      ],
      [
        "istan",
        -7.336864754137586
      ],
      [
        "▁price",
        -6.71495658941383
      ],
      [
        "ern",
        -6.849387477125366
      ],
      [
        "ve",
        -10.92566035959162
      ],
      [
        "▁settle",
        -8.543389365197694
      ],
      [
        "▁divide",
        -9.190883552998816
      ],
      [
        "▁when",
        -3.9318797654183104
      ],
      [
        "n",
        -3.4248351833273194
      ],
      [
        "▁bak",
        -9.180767045850283
      ],
      [
        "▁paul",
        -6.2911579165301434
      ],
      [
        "▁identify",
        -8.689334217799146
      ],
      [
        "ice",
        -7.594983220700395
      ],
      [
        "▁train",
        -6.9878188981369185
      ],
      [
        "▁default",
        -9.217288104727706
      ],
      [
        "▁proclaim",
        -9.443748082423184
      ],
      [
        "▁de",
        -7.133759330193251
      ],
      [
        "▁mill",
        -5.806332795739784
      ],
      [
        "▁profit",
        -9.16933028764747
      ],
      [
        "uh",
        -13.441672283788352
      ],
      [
        "▁population",
        -7.9540082905450475
      ],
      [
        "▁trouble",
        -7.9961402165583415
      ],
      [
        "ti",
        -5.0869864319451255
      ],
      [
        "▁eliminate",
        -9.066763360245695
      ],
      [
        "▁bab",
        -8.268382899817949
      ],
      [
        "▁sleep",
        -7.3867615725125875
      ],
      [
        "▁visa",
        -8.613361893919713
      ],
      [
        "ate",
        -6.574916599541596
      ],
      [
        "▁disaster",
        -8.56114092810419
      ],
      [
        "▁respect",
        -9.024946751241243
      ],
      [
        "▁underst",
        -9.122260045145696
      ],
      [
        "▁west",
        -7.16662573671208
      ],
      [
        "****",
        -11.697598525938803
      ],
      [
        "table",
        -8.106033439616613
      ],
      [
        "▁rule",
        -7.6151996098267976
      ],
      [
        "▁hotel",
        -7.607651031530639
      ],
      [
        "▁abo",
        -8.974191354937807
      ],
      [
        "▁hi",
        -8.97664959386464
      ],
      [
        "▁protection",
        -8.239252803869842
      ],
      [
        "▁why",
        -4.973704831338078
      ],
      [
        "▁pan",
        -8.389795976554957
      ],
      [
        "▁enj",
        -8.787562149609283
      ],
      [
        "▁bottle",
        -7.83685848104486
      ],
      [
        "'",
        -2.482385910194264
      ],
      [
        "▁roll",
        -8.827099005855356
      ],
      [
        "▁sever",
        -6.308517651343796
      ],
      [
        "▁president",
        -7.446433186007898
      ],
      [
        "▁circum",
        -8.887957862928076
      ],
      [
        "▁water",
        -8.91707602626012
      ],
      [
        "other",
        -9.529450321587992
      ],
      [
        "▁sara",
        -6.686798483911379
      ],
      [
        "▁with",
        -4.952485445949646
      ],
      [
        "▁second",
        -8.667901781798514
      ],
      [
        "▁again",
        -5.055600915647587
      ],
      [
        "▁char",
        -6.425993185079168
      ],
      [
        "▁gra",
        -8.822380734139827
      ],
      [
        "ho",
        -11.734257522352875
      ],
      [
        "ide",
        -11.89009109688605
      ],
      [
        "▁e",
        -8.780833583811523
      ],
      [
        "▁dance",
        -8.790815007511728
      ],
      [
        "▁referr",
        -8.883806051214275
      ],
      [
        "▁connection",
        -7.667928412339712
      ],
      [
        "▁bus",
        -7.723142778580611
      ],
      [
        "▁supplie",
        -9.108504337108789
      ],
      [
        "led",
        -7.211734321165092
      ],
      [
        "▁consumer",
        -8.928115725001415
      ],
      [
        "▁author",
        -8.053784648607103
      ],
      [
        "r",
        -4.205444117082512
      ],
      [
        "▁l",
        -6.916928039762629
      ],
      [
        "▁step",
        -8.465616940251993
      ],
      [
        "▁hot",
        -6.460844592279476
      ],
      [
        "▁visit",
        -7.170082819623273
      ],
      [
        "ional",
        -6.668489374221226
      ],
      [
        "▁service",
        -6.1586790026811995
      ],
      [
        "f",
        -8.590723168736831
      ],
      [
        "ware",
        -8.746836292309021
      ],
      [
        "has",
        -9.01197718515896
      ],
      [
        "▁wors",
        -7.1919873934551335
      ],
      [
        "▁us",
        -6.521871991828671
      ],
      [
        "nda",
        -8.985330967418504
      ],
      [
        "▁score",
        -9.03872693085847
      ],
      [
        "▁delete",
        -8.995020198938137
      ],
      [
        "▁i",
        -5.301129070997394
      ],
      [
        "▁se",
        -7.33151326224715
      ],
      [
        "8",
        -4.553569007344787
      ],
      [
        "ler",
        -8.88877676002035
      ],
      [
        "b",
        -4.560883194902893
      ],
      [
        "▁peace",
        -7.657818625275035
      ],
      [
        "▁gon",
        -5.350338757148288
      ],
      [
        "o",
        -3.511903393270858
      ],
      [
        "se",
        -5.996840838387731
      ],
      [
        "▁dc",
        -6.315017702654553
      ],
      [
        "ol",
        -8.098156237469562
      ],
      [
        "er",
        -5.2157715594066945
      ],
      [
        "s",
        -2.856836203130574
      ],
      [
        "▁screen",
        -8.464684587137533
      ],
      [
        "▁throat",
        -9.216943539791693
      ],
      [
        "▁any",
        -6.715036310546548
      ],
      [
        "▁earl",
        -6.294145863916422
      ],
      [
        "w",
        -5.491188161949157
      ],
      [
        "▁battle",
        -9.080431227822888
      ],
      [
        "▁christ",
        -7.300928525557131
      ],
      [
        "▁paint",
        -8.81800342621576
      ],
      [
        "▁11",
        -5.487104098601486
      ],
      [
        "▁little",
        -4.980723849944373
      ],
      [
        "▁mr",
        -7.273031942122844
      ],
      [
        "▁pain",
        -8.48439456547764
      ],
      [
        "ilar",
        -7.306926894076488
      ],
      [
        "▁failure",
        -8.787438904233388
      ],
      [
        "▁official",
        -8.203213841529262
      ],
      [
        "it",
        -7.619367739875833
      ],
      [
        "ary",
        -8.994954858971788
      ],
      [
        "▁minute",
        -6.846115463037491
      ],
      [
        "▁tummy",
        -8.819696909708828
      ],
      [
        "sumption",
        -8.960145236628982
      ],
      [
        "▁report",
        -7.014096727235549
      ],
      [
        "▁free",
        -6.313294049760262
      ],
      [
        "▁account",
        -7.627305798760164
      ],
      [
        "▁butter",
        -8.39899608425373
      ],
      [
        "▁ha",
        -4.343238869011367
      ],
      [
        "i",
        -6.532200686243057
      ],
      [
        "out",
        -8.075003317222459
      ],
      [
        "▁holiday",
        -8.887512206962189
      ],
      [
        "as",
        -7.194088110937
      ],
      [
        "▁may",
        -5.707054092143263
      ],
      [
        "_",
        -5.969535083399892
      ],
      [
        "an",
        -6.1992261327886515
      ],
      [
        "▁respect",
        -8.203323532952933
      ],
      [
        "-",
        -6.9029575811570885
      ],
      [
        "▁transaction",
        -8.613097129415841
      ],
      [
        "▁agent",
        -8.419758597200811
      ],
      [
        "▁seed",
        -9.000251889376289
      ],
      [
        "▁measure",
        -8.66078877166251
      ],
      [
        "▁reach",
        -7.623129132054624
      ],
      [
        "=",
        -11.380897020098319
      ],
      [
        "▁mirror",
        -9.216943538611503
      ],
      [
        "▁professor",
        -9.216943618646361
      ],
      [
        "•",
        -12.810278406305976
      ],
      [
        "▁small",
        -5.796754880294776
      ],
      [
        "f",
        -7.281137016091157
      ],
      [
        "▁locate",
        -8.166922333003015
      ],
      [
        "▁complaint",
        -9.21694353777194
      ],
      [
        "▁_",
        -8.58743407694508
      ],
      [
        "▁technique",
        -8.756187999620044
      ],
      [
        "▁dal",
        -5.1031312299685965
      ],
      [
        "b",
        -9.077941439510097
      ],
      [
        "▁year",
        -5.479954968956782
      ],
      [
        "t",
        -2.591311722972385
      ],
      [
        "▁scream",
        -9.212301766933104
      ],
      [
        "me",
        -9.191639290919905
      ],
      [
        "▁ag",
        -6.359684494857313
      ],
      [
        "line",
        -8.559509135766652
      ],
      [
        "▁king",
        -8.566525061847617
      ],
      [
        "me",
        -6.250742814045079
      ],
      [
        "▁sweater",
        -9.170830373354129
      ],
      [
        "o",
        -6.877907499943205
      ],
      [
        "▁design",
        -8.26674546974375
      ],
      [
        "▁case",
        -6.819419001734462
      ],
      [
        "…",
        -9.197828780273426
      ],
      [
        "ting",
        -6.128548946327799
      ],
      [
        "▁theme",
        -8.998725109543658
      ],
      [
        "less",
        -6.3768290441130455
      ],
      [
        "▁potato",
        -9.169326197098348
      ],
      [
        "▁opportunit",
        -7.913327564373368
      ],
      [
        "▁parent",
        -7.597973588209074
      ],
      [
        "thin",
        -5.708700200719424
      ],
      [
        "▁realit",
        -8.757490994768817
      ],
      [
        "▁bucket",
        -9.217655545489059
      ],
      [
        "3",
        -4.193572430795963
      ],
      [
        "b",
        -6.600494456860562
      ],
      [
        "▁him",
        -5.173822855149899
      ],
      [
        "▁trie",
        -7.719057135202351
      ],
      [
        "▁cent",
        -9.22038068996831
      ],
      [
        "▁k",
        -6.562305397547345
      ],
      [
        "i",
        -6.571173088739064
      ],
      [
        "▁wa",
        -9.240034987883696
      ],
      [
        "▁background",
        -8.92346809754456
      ],
      [
        "▁female",
        -8.998725728600236
      ],
      [
        "auti",
        -6.786796365666034
      ],
      [
        "▁tha",
        -6.431820319444924
      ],
      [
        "▁!",
        -6.89487113485091
      ],
      [
        "▁?!?",
        -13.944841065246216
      ],
      [
        "▁high",
        -5.9769864595916316
      ],
      [
        "ture",
        -7.819609825335791
      ],
      [
        "▁another",
        -5.70473121673835
      ],
      [
        "/",
        -7.238871675863212
      ],
      [
        "▁ask",
        -5.920381038087149
      ],
      [
        "▁until",
        -5.5638749337406646
      ],
      [
        "▁city",
        -5.7496977402763685
      ],
      [
        "▁p",
        -7.0739428297070654
      ],
      [
        "whos",
        -11.20766598766508
      ],
      [
        "▁ga",
        -7.345565621664555
      ],
      [
        "ch",
        -5.570015910585939
      ],
      [
        "▁iran",
        -6.869489833685237
      ],
      [
        "▁t",
        -8.51074744854803
      ],
      [
        "▁8",
        -5.378483124250874
      ],
      [
        "▁mention",
        -7.452521818109263
      ],
      [
        "▁entit",
        -8.853128391993668
      ],
      [
        "tel",
        -6.390730603715606
      ],
      [
        "▁researcher",
        -9.117416334669539
      ],
      [
        "▁edge",
        -8.887526414877552
      ],
      [
        "---------",
        -11.379442948397053
      ],
      [
        "▁hid",
        -8.684293292126576
      ],
      [
        "▁exchange",
        -9.252106009712
      ],
      [
        "▁support",
        -7.841740516479839
      ],
      [
        "▁stair",
        -8.999039406325553
      ],
      [
        "gen",
        -9.02492098542292
      ],
      [
        "▁warn",
        -9.088006577371866
      ],
      [
        "▁united",
        -6.4903492154040405
      ],
      [
        "▁watch",
        -6.422132444968376
      ],
      [
        "▁pick",
        -6.856487804306816
      ],
      [
        "go",
        -8.652390594870235
      ],
      [
        "▁pitt",
        -5.109957628049472
      ],
      [
        "head",
        -9.05129821171414
      ],
      [
        "▁risk",
        -8.221085933683746
      ],
      [
        "▁plate",
        -8.488221259044355
      ],
      [
        "▁chic",
        -6.464542883881845
      ],
      [
        "▁bug",
        -8.261220481087907
      ],
      [
        "las",
        -4.934397653464572
      ],
      [
        "and",
        -5.572005516136555
      ],
      [
        "room",
        -8.530008135399292
      ],
      [
        "▁.......",
        -13.318608259993672
      ],
      [
        "▁traged",
        -9.16932483231328
      ],
      [
        "▁thir",
        -6.7330901287301295
      ],
      [
        "▁state",
        -6.817692271492893
      ],
      [
        "▁test",
        -7.462644608207331
      ],
      [
        "▁hand",
        -8.679727894075862
      ],
      [
        "se",
        -5.848595306507166
      ],
      [
        "time",
        -8.13541454372015
      ],
      [
        "▁reco",
        -8.925900762925233
      ],
      [
        "▁couch",
        -9.080520989673364
      ],
      [
        "▁operate",
        -9.26664418038164
      ],
      [
        "ing",
        -4.909233382480111
      ],
      [
        "ton",
        -8.749021132259392
      ],
      [
        "x",
        -11.810278406305976
      ],
      [
        "inc",
        -7.751841047967409
      ],
      [
        "ail",
        -8.982246677363793
      ],
      [
        "▁mu",
        -5.496880053479114
      ],
      [
        "st",
        -12.50667684532212
      ],
      [
        "▁travel",
        -8.450296626252157
      ],
      [
        "▁circle",
        -8.239252803639864
      ],
      [
        "▁the",
        -11.09220806935517
      ],
      [
        "u",
        -12.810278406305976
      ],
      [
        "▁thr",
        -4.171737371864407
      ],
      [
        "▁drive",
        -7.535443308692442
      ],
      [
        "▁independen",
        -8.790922294957042
      ],
      [
        "▁set",
        -8.024593500316847
      ],
      [
        "▁principle",
        -8.725884969175901
      ],
      [
        "▁kni",
        -8.677404735783163
      ],
      [
        "▁storm",
        -8.729885739033914
      ],
      [
        "▁in",
        -3.2387404176839407
      ],
      [
        "▁bec",
        -7.535835746995765
      ],
      [
        "we",
        -9.175861871794693
      ],
      [
        "▁statement",
        -8.283199658757818
      ],
      [
        "▁island",
        -7.57875765328162
      ],
      [
        "▁consider",
        -6.853368035562674
      ],
      [
        "ze",
        -8.312436807530913
      ],
      [
        "p",
        -7.377066839702568
      ],
      [
        "▁augu",
        -7.777317604258952
      ],
      [
        "long",
        -7.46212460326381
      ],
      [
        "▁among",
        -7.2254285659457125
      ],
      [
        "▁neighborhood",
        -9.217080965888098
      ],
      [
        "ar",
        -9.595809148025694
      ],
      [
        "▁soil",
        -8.889168601922512
      ],
      [
        "▁addiction",
        -9.123870740802033
      ],
      [
        "±",
        -11.925660239071421
      ],
      [
        "▁crack",
        -9.443154426765508
      ],
      [
        "▁other",
        -7.578754887362799
      ],
      [
        ".",
        -5.674697410906374
      ],
      [
        "▁use",
        -7.267892017966105
      ],
      [
        "▁br",
        -9.147238720845868
      ],
      [
        "▁smile",
        -9.168788834185621
      ],
      [
        "▁cop",
        -8.740136652838359
      ],
      [
        "▁of",
        -5.372005060076645
      ],
      [
        "▁database",
        -8.511749949255972
      ],
      [
        "|",
        -9.719926862834651
      ],
      [
        "▁speed",
        -8.819700786291069
      ],
      [
        "▁finance",
        -8.853698989640836
      ],
      [
        "e",
        -9.487298196508139
      ],
      [
        "des",
        -8.219792757979947
      ],
      [
        "world",
        -7.278688094485754
      ],
      [
        "▁!!!!!!!",
        -11.846846990791377
      ],
      [
        "▁to",
        -6.830250348082918
      ],
      [
        "be",
        -8.581302110008357
      ],
      [
        "▁lip",
        -9.041291573230366
      ],
      [
        "▁blog",
        -9.172052559729341
      ],
      [
        "o'",
        -8.68854734644149
      ],
      [
        "▁human",
        -8.534914647556718
      ],
      [
        "▁on",
        -11.41378886164738
      ],
      [
        "▁believe",
        -6.538158286587613
      ],
      [
        "m",
        -6.820629931865918
      ],
      [
        "▁st",
        -7.966507023412857
      ],
      [
        "yours",
        -12.142066938395672
      ],
      [
        "▁proposal",
        -8.070792294359805
      ],
      [
        "w",
        -5.189900606426425
      ],
      [
        "▁address",
        -8.459391630396816
      ],
      [
        "▁advi",
        -8.535265685975862
      ],
      [
        "▁tiger",
        -8.640139438657584
      ],
      [
        "▁salon",
        -9.124555536515611
      ],
      [
        "▁wh",
        -5.509002581214282
      ],
      [
        "▁recover",
        -9.084213408520743
      ],
      [
        "▁return",
        -6.980570236197514
      ],
      [
        "▁s",
        -8.496574491134888
      ],
      [
        "▁whole",
        -6.270126945865008
      ],
      [
        "▁bone",
        -8.35735672345666
      ],
      [
        "▁legislat",
        -8.819380215675938
      ],
      [
        "▁ice",
        -8.277578779557965
      ],
      [
        "▁examin",
        -9.377013372104653
      ],
      [
        "▁t",
        -7.491726534268921
      ],
      [
        "/",
        -13.8724705263812
      ],
      [
        "l",
        -6.794751193104145
      ],
      [
        "▁establish",
        -7.872287748638467
      ],
      [
        "▁sand",
        -8.788186726567911
      ],
      [
        "▁war",
        -7.268531854627152
      ],
      [
        "▁differ",
        -9.364938636273932
      ],
      [
        "position",
        -9.0127388001521
      ],
      [
        "▁hate",
        -8.40402299196232
      ],
      [
        "re",
        -7.538895177674713
      ],
      [
        "▁eggs",
        -8.027339936300349
      ],
      [
        "icide",
        -8.696793154669027
      ],
      [
        "▁fee",
        -7.367416307645309
      ],
      [
        "hem",
        -13.98800345435682
      ],
      [
        "b",
        -4.738268993203795
      ],
      [
        "▁permit",
        -9.024763626504695
      ],
      [
        "???",
        -11.494198687124818
      ],
      [
        "▁ride",
        -7.57088732838403
      ],
      [
        "▁201",
        -4.629308400060954
      ],
      [
        "▁enem",
        -8.85305883298894
      ],
      [
        "▁imme",
        -7.436168493080066
      ],
      [
        "▁+++++",
        -12.167530999473765
      ],
      [
        "▁long",
        -5.65343326945267
      ],
      [
        "▁selection",
        -9.038725031528884
      ],
      [
        "▁artist",
        -8.789916690104217
      ],
      [
        "▁cancel",
        -8.969339575900687
      ],
      [
        "▁evening",
        -7.092884842754999
      ],
      [
        "▁joke",
        -7.754459953938312
      ],
      [
        "h",
        -9.530401437393046
      ],
      [
        "ne",
        -7.416934719219764
      ],
      [
        "▁beside",
        -8.602917140222484
      ],
      [
        "▁",
        -0.7082085629404791
      ],
      [
        "ot",
        -8.63425020777876
      ],
      [
        "hol",
        -7.396681751776911
      ],
      [
        "▁yea",
        -3.1381024377751405
      ],
      [
        "▁box",
        -7.371362901652741
      ],
      [
        "its",
        -9.144228443891327
      ],
      [
        "▁receiv",
        -8.281500766022912
      ],
      [
        "u",
        -6.499139571092141
      ],
      [
        "!!!!!!!!!!",
        -11.368032386117479
      ],
      [
        "▁colleague",
        -8.923226441787417
      ],
      [
        "▁roar",
        -8.86883153585313
      ],
      [
        "u",
        -3.4498478262533245
      ],
      [
        "▁bye",
        -9.135951588317361
      ],
      [
        "▁improv",
        -8.76572397638179
      ],
      [
        "▁every",
        -8.96049418921693
      ],
      [
        "▁buy",
        -6.587746264825932
      ],
      [
        ";",
        -5.738552662576513
      ],
      [
        "▁en",
        -6.905990043207904
      ],
      [
        "▁gun",
        -8.2585172541473
      ],
      [
        "▁through",
        -6.050063511843283
      ],
      [
        "d",
        -6.06173743063176
      ],
      [
        "▁responsibilit",
        -8.355886019880021
      ],
      [
        "▁watch",
        -8.960381965628686
      ],
      [
        "▁investigate",
        -9.19726521086874
      ],
      [
        "www",
        -6.037551421693644
      ],
      [
        "ap",
        -8.545134066423048
      ],
      [
        "▁lake",
        -6.691541180030711
      ],
      [
        "▁spoon",
        -8.92323371423474
      ],
      [
        "▁resident",
        -9.169324874442342
      ],
      [
        "m",
        -3.8776171679190643
      ],
      [
        "▁pressure",
        -8.787813494265828
      ],
      [
        "▁fi",
        -8.896282388839595
      ],
      [
        "y",
        -2.356688656645275
      ],
      [
        "ike",
        -3.964776749538939
      ],
      [
        "▁influence",
        -9.142093804611847
      ],
      [
        "board",
        -8.347606507677906
      ],
      [
        "▁secret",
        -9.08024097720582
      ],
      [
        "v",
        -6.9140258171198665
      ],
      [
        "▁econom",
        -7.3885931912046985
      ],
      [
        "▁trans",
        -8.748430845588599
      ],
      [
        "▁enhance",
        -9.303382760367844
      ],
      [
        "▁pai",
        -7.895712621623877
      ],
      [
        "▁load",
        -9.006487675009382
      ],
      [
        "▁15",
        -5.4561862377902095
      ],
      [
        "▁assess",
        -8.689162915160052
      ],
      [
        "▁agricultur",
        -9.038725017166328
      ],
      [
        "l",
        -8.214727387657476
      ],
      [
        "▁call",
        -7.3899739535727065
      ],
      [
        "▁stage",
        -8.698019412692508
      ],
      [
        "▁do",
        -4.354884306024818
      ],
      [
        "_",
        -4.628726667259624
      ],
      [
        "r",
        -9.881310152285408
      ],
      [
        "▁notion",
        -9.218018960954858
      ],
      [
        "▁sentence",
        -8.923232579359775
      ],
      [
        "▁mistake",
        -8.586869882001947
      ],
      [
        "▁maj",
        -6.857447257322733
      ],
      [
        "▁cheese",
        -7.837043727004968
      ],
      [
        "▁l",
        -8.071622223687715
      ],
      [
        "nt",
        -13.165341887489456
      ],
      [
        "▁driv",
        -7.581844739198957
      ],
      [
        "▁fo",
        -8.948053582407423
      ],
      [
        "▁f",
        -6.831058922367424
      ],
      [
        "▁element",
        -8.134821157340216
      ],
      [
        "▁info",
        -8.960330966509218
      ],
      [
        "cultur",
        -7.255618199138741
      ],
      [
        "most",
        -5.889693681307584
      ],
      [
        "▁convince",
        -9.062312165094493
      ],
      [
        "▁el",
        -8.913344358678843
      ],
      [
        "▁scare",
        -9.20458049062011
      ],
      [
        "▁split",
        -9.212272108411229
      ],
      [
        "ka",
        -8.551583514202843
      ],
      [
        "▁http://www.",
        -6.835725387207395
      ],
      [
        "▁acco",
        -7.520476654430368
      ],
      [
        "▁copy",
        -8.533434250249996
      ],
      [
        "pover",
        -9.186619763691631
      ],
      [
        "ic",
        -6.031345409737585
      ],
      [
        "▁lab",
        -8.99640587153236
      ],
      [
        "▁th",
        -5.7327508778009
      ],
      [
        "▁break",
        -8.613115703612863
      ],
      [
        "▁giv",
        -7.7686710010646545
      ],
      [
        "▁mar",
        -8.75615458481245
      ],
      [
        "▁desk",
        -8.086636777297008
      ],
      [
        "the",
        -8.916273046268788
      ],
      [
        "▁universit",
        -6.8235898416761405
      ],
      [
        "is",
        -6.551512324352629
      ],
      [
        "▁promote",
        -8.608173117278714
      ],
      [
        "▁wor",
        -8.534574165976904
      ],
      [
        "▁color",
        -8.649343940973306
      ],
      [
        "▁remov",
        -9.423419825005226
      ],
      [
        "id",
        -9.150834025689743
      ],
      [
        "▁`",
        -11.296918948688285
      ],
      [
        "?",
        -3.0869681674060505
      ],
      [
        "▁sold",
        -8.854102639208472
      ],
      [
        "h",
        -3.151586959751487
      ],
      [
        "▁vehicle",
        -8.887512158809358
      ],
      [
        "▁administration",
        -8.29629837316273
      ],
      [
        "▁airplane",
        -8.613242196588832
      ],
      [
        "▁format",
        -8.296763971128419
      ],
      [
        "ism",
        -7.472621997880676
      ],
      [
        "▁16",
        -5.674082561475753
      ],
      [
        "1",
        -12.810278406305976
      ],
      [
        "y",
        -4.124785020807785
      ],
      [
        "t",
        -3.1149023117862136
      ],
      [
        "▁ye",
        -7.575686894615634
      ],
      [
        "ther",
        -6.293876075097796
      ],
      [
        "▁string",
        -8.586849946021276
      ],
      [
        "▁wh",
        -11.28246861509878
      ],
      [
        "your",
        -7.282301018614932
      ],
      [
        "▁w",
        -7.847448350576819
      ],
      [
        ".com",
        -6.587277844321583
      ],
      [
        "▁map",
        -8.564418347291952
      ],
      [
        "p",
        -8.268707774345442
      ],
      [
        "m",
        -3.7542502650210796
      ],
      [
        "▁spider",
        -8.488004830422666
      ],
      [
        "▁duck",
        -8.365628947512553
      ],
      [
        "▁apple",
        -8.377477888894493
      ],
      [
        "▁glove",
        -8.960278470228184
      ],
      [
        "▁hop",
        -9.20339929580699
      ],
      [
        "▁her",
        -5.255891180698642
      ],
      [
        "ever",
        -5.359099294543228
      ],
      [
        "▁bus",
        -7.029018912513156
      ],
      [
        "▁specify",
        -9.283681199074485
      ],
      [
        "▁wine",
        -7.996364599712911
      ],
      [
        "▁death",
        -7.343368173056893
      ],
      [
        "▁error",
        -8.51175283318299
      ],
      [
        "▁person",
        -6.833138349476712
      ],
      [
        "▁belt",
        -9.123914738777307
      ],
      [
        "▁qui",
        -6.449378746013751
      ],
      [
        "ch",
        -5.743182008517046
      ],
      [
        "c",
        -6.066413695157375
      ],
      [
        "sing",
        -8.692224253441063
      ],
      [
        "▁snake",
        -8.419739262519148
      ],
      [
        "▁folk",
        -8.923229581741735
      ],
      [
        "▁achiev",
        -8.898995402808437
      ],
      [
        "▁any",
        -6.200640577973125
      ],
      [
        "▁cracker",
        -9.219869338542086
      ],
      [
        "▁commission",
        -7.48348264406183
      ],
      [
        "ian",
        -6.0764278226503095
      ],
      [
        "▁how",
        -3.9468069168529585
      ],
      [
        "▁entr",
        -9.1383560766978
      ],
      [
        "efficien",
        -9.169437708935295
      ],
      [
        "▁color",
        -7.397563484698041
      ],
      [
        "▁funn",
        -6.8697663908629885
      ],
      [
        "▁be",
        -3.5847357895147223
      ],
      [
        "▁snow",
        -8.397997250289041
      ],
      [
        "ic",
        -7.616906698343411
      ],
      [
        "▁definition",
        -8.960263751426002
      ],
      [
        "th",
        -6.565100117342233
      ],
      [
        "_",
        -5.201045034743488
      ],
      [
        "▁skin",
        -8.445097928105328
      ],
      [
        "▁d",
        -8.66826635577538
      ],
      [
        "sept",
        -8.855690496192997
      ],
      [
        "▁pop",
        -8.318814646261039
      ],
      [
        "▁detr",
        -7.365578977525217
      ],
      [
        "\"",
        -4.22482060981751
      ],
      [
        "ve",
        -6.027772946699521
      ],
      [
        "▁key",
        -7.996897666659143
      ],
      [
        "▁peter",
        -6.731808973412266
      ],
      [
        "▁receive",
        -7.005589039321805
      ],
      [
        "..........",
        -12.04219046270542
      ],
      [
        "▁position",
        -7.58551572668748
      ],
      [
        "▁w",
        -7.600125098473433
      ],
      [
        "ester",
        -7.614889363662998
      ],
      [
        "noth",
        -9.805417396928092
      ],
      [
        "mine",
        -10.279761504850597
      ],
      [
        "▁vote",
        -8.191384363135551
      ],
      [
        "???????????????",
        -11.531210826536753
      ],
      [
        "▁blow",
        -7.619058735936671
      ],
      [
        "▁a",
        -7.227841123730135
      ],
      [
        "▁militar",
        -8.670152628754188
      ],
      [
        "▁li",
        -9.360770019549522
      ],
      [
        "▁dollar",
        -7.2304002448944455
      ],
      [
        "ze",
        -8.353582342943577
      ],
      [
        "woul",
        -7.186489786394996
      ],
      [
        "▁economic",
        -6.772570457784909
      ],
      [
        "▁just",
        -3.9535889976245384
      ],
      [
        "▁else",
        -6.193820371878903
      ],
      [
        "ng",
        -7.341026937785574
      ],
      [
        "▁expert",
        -8.18567096301599
      ],
      [
        "who",
        -7.94396558235722
      ],
      [
        "▁we",
        -5.969460857835287
      ],
      [
        "▁ou",
        -13.722228931311994
      ],
      [
        "▁kill",
        -7.261076649944989
      ],
      [
        "▁mis",
        -8.779490857735354
      ],
      [
        "▁bea",
        -8.239717167025468
      ],
      [
        "▁paint",
        -8.410390060706064
      ],
      [
        "▁cell",
        -8.511821794266265
      ],
      [
        "▁visit",
        -8.5344686408947
      ],
      [
        "▁roman",
        -6.825919429447128
      ],
      [
        "▁base",
        -6.930850999991949
      ],
      [
        "▁eat",
        -5.6316209781590745
      ],
      [
        "..............",
        -14.171066924010521
      ],
      [
        "▁address",
        -7.874162269279834
      ],
      [
        "▁shoe",
        -7.413234866447684
      ],
      [
        "ept",
        -7.217695514232073
      ],
      [
        "n",
        -5.575385108590868
      ],
      [
        "▁fai",
        -8.907171450632363
      ],
      [
        "▁en",
        -7.426478329342391
      ],
      [
        "▁guest",
        -8.725903771755222
      ],
      [
        "▁u",
        -12.73122369669515
      ],
      [
        "du",
        -9.905751175123552
      ],
      [
        "c",
        -6.144387633440203
      ],
      [
        "d",
        -10.889404706649984
      ],
      [
        "▁leav",
        -5.943353927407215
      ],
      [
        "ade",
        -9.163853728411702
      ],
      [
        "ed",
        -4.334742310907727
      ],
      [
        "ite",
        -7.044615132236147
      ],
      [
        "▁pl",
        -8.198259039806256
      ],
      [
        "▁version",
        -8.239352138778676
      ],
      [
        "▁l2",
        -9.080618184187369
      ],
      [
        "▁7",
        -5.116752489530166
      ],
      [
        "▁succeed",
        -8.81956799339538
      ],
      [
        "▁movie",
        -7.421236012705993
      ],
      [
        "▁document",
        -8.81970296046568
      ],
      [
        "▁cr",
        -8.980690296263411
      ],
      [
        "n",
        -5.486893563346862
      ],
      [
        "▁a",
        -5.967256489737387
      ],
      [
        "▁language",
        -6.993077345197551
      ],
      [
        "▁mon",
        -7.089104440324168
      ],
      [
        "▁..........",
        -12.830818015419348
      ],
      [
        "am",
        -8.439299181712826
      ],
      [
        "▁grape",
        -9.080648317134184
      ],
      [
        "▁column",
        -8.853072240777845
      ],
      [
        "▁prett",
        -6.0774269011538085
      ],
      [
        "!!!!!!!!!!!!",
        -12.386019684959303
      ],
      [
        "▁danc",
        -8.619351382735312
      ],
      [
        "ve",
        -4.657267170543397
      ],
      [
        "▁repeat",
        -8.378574859061423
      ],
      [
        "<",
        -7.228670777278908
      ],
      [
        "--------",
        -11.127153465961992
      ],
      [
        "tri",
        -9.101197223960183
      ],
      [
        "▁to",
        -4.877779908052067
      ],
      [
        "▁user",
        -7.94686394948986
      ],
      [
        "▁appear",
        -7.128079295413724
      ],
      [
        "c",
        -6.218807370961619
      ],
      [
        "▁hat",
        -7.723964943177416
      ],
      [
        "▁finish",
        -7.390927051909597
      ],
      [
        "▁debate",
        -8.667951627681566
      ],
      [
        "▁no",
        -4.9331048382079015
      ],
      [
        "▁d",
        -8.724840587039013
      ],
      [
        "▁mode",
        -8.233712274669234
      ],
      [
        "all",
        -9.143859500098722
      ],
      [
        "▁declare",
        -8.58821911898314
      ],
      [
        "rank",
        -8.979148090616182
      ],
      [
        "▁host",
        -9.168810829922519
      ],
      [
        "msel",
        -8.064757822162456
      ],
      [
        "▁explanation",
        -9.080391683847203
      ],
      [
        "▁opene",
        -8.749317240528171
      ],
      [
        "▁toy",
        -8.068826245788582
      ],
      [
        "▁question",
        -8.819725000861384
      ],
      [
        "er",
        -7.476797335921252
      ],
      [
        "▁pizza",
        -8.239267472957323
      ],
      [
        "g",
        -6.332895806031361
      ],
      [
        "▁generation",
        -8.377496851346336
      ],
      [
        "til",
        -7.784555654766264
      ],
      [
        "hap",
        -6.538456397502309
      ],
      [
        "▁neighbour",
        -9.216772335824786
      ],
      [
        "'",
        -6.653744791431815
      ],
      [
        "▁fro",
        -8.847864777376085
      ],
      [
        "here",
        -5.7267247990743835
      ],
      [
        "▁need",
        -4.9754309386742674
      ],
      [
        "▁territor",
        -8.66790181955008
      ],
      [
        "▁tear",
        -8.868698589927643
      ],
      [
        "▁mixe",
        -9.18631769402687
      ],
      [
        "▁identifie",
        -8.504044139166487
      ],
      [
        "▁anyway",
        -7.149342360070847
      ],
      [
        "i",
        -10.976929076213445
      ],
      [
        "▁press",
        -8.660236372359865
      ],
      [
        "[CLS]",
        0.0
      ],
      [
        "▁mr",
        -7.014939835080129
      ],
      [
        "▁resource",
        -8.295870183493776
      ],
      [
        "▁design",
        -8.117580129951966
      ],
      [
        "▁treat",
        -7.700576317288588
      ],
      [
        "corn",
        -8.930004510928168
      ],
      [
        "▁varie",
        -9.44308354851523
      ],
      [
        "▁cheape",
        -6.199647512997842
      ],
      [
        "▁counter",
        -8.670369497165364
      ],
      [
        "▁spring",
        -8.671751084428612
      ],
      [
        "▁amendment",
        -8.376719387373122
      ],
      [
        "i",
        -5.576815622650969
      ],
      [
        "▁possibilit",
        -8.819698693404654
      ],
      [
        "▁worth",
        -7.288217349982408
      ],
      [
        "▁generate",
        -8.75601484485504
      ],
      [
        "t",
        -4.62181170820774
      ],
      [
        "▁their",
        -5.253175569214527
      ],
      [
        "▁ocean",
        -8.998726730327286
      ],
      [
        "ndo",
        -6.446814175920227
      ],
      [
        "▁dinner",
        -7.171712369692247
      ],
      [
        "▁jeff",
        -7.355750548638969
      ],
      [
        "▁co",
        -7.3283963749532015
      ],
      [
        "▁yoursel",
        -11.298076311955574
      ],
      [
        "▁lose",
        -8.279256091155556
      ],
      [
        "▁remark",
        -9.216943561793538
      ],
      [
        "▁hurt",
        -7.0391796372335245
      ],
      [
        "▁emerg",
        -8.615334838944051
      ],
      [
        "▁hung",
        -8.973203302111912
      ],
      [
        "hav",
        -7.464751966707237
      ],
      [
        "▁pivot",
        -8.221071087153097
      ],
      [
        "te",
        -9.340799971988403
      ],
      [
        "▁bump",
        -9.283223577838324
      ],
      [
        "▁wrong",
        -6.889840448844239
      ],
      [
        "▁regime",
        -9.038725512274777
      ],
      [
        "log",
        -9.09133382759933
      ],
      [
        "how",
        -6.8343150304575
      ],
      [
        "p",
        -7.867165043582133
      ],
      [
        "-",
        -6.765722548819912
      ],
      [
        "▁grandmother",
        -8.239252801178928
      ],
      [
        "ce",
        -6.804445827853674
      ],
      [
        "_______",
        -12.708394161505037
      ],
      [
        "▁cook",
        -7.633903245864477
      ],
      [
        "▁sound",
        -7.578300442165294
      ],
      [
        "▁uni",
        -6.803378237432464
      ],
      [
        "▁bell",
        -8.648763484404036
      ],
      [
        "▁cartoon",
        -8.85303250082357
      ],
      [
        "▁shirt",
        -7.814540921048392
      ],
      [
        "i",
        -2.905259875845031
      ],
      [
        "▁car",
        -5.944484843548301
      ],
      [
        "▁access",
        -7.562739663223561
      ],
      [
        "▁dinosaur",
        -7.9133275646061625
      ],
      [
        "u",
        -5.9829718967998025
      ],
      [
        "▁our",
        -5.4680531288304906
      ],
      [
        "▁excuse",
        -9.212314087949528
      ],
      [
        "side",
        -6.036964273039711
      ],
      [
        "▁large",
        -5.780948463543281
      ],
      [
        "▁centur",
        -7.72125843843493
      ],
      [
        "▁theor",
        -7.824664755149863
      ],
      [
        "ean",
        -6.912683510075581
      ],
      [
        ".",
        -1.4533572890270836
      ],
      [
        "e",
        -4.182485491868039
      ],
      [
        "abo",
        -12.396353484691211
      ],
      [
        "▁prove",
        -8.168219478103088
      ],
      [
        "▁reference",
        -8.511931062686745
      ],
      [
        "en",
        -6.61927047716217
      ],
      [
        "▁admit",
        -9.184319919238236
      ],
      [
        "▁visitor",
        -8.728060006910264
      ],
      [
        "▁handle",
        -8.361116241446648
      ],
      [
        "[PAD]",
        0.0
      ],
      [
        "to",
        -7.034425037071648
      ],
      [
        "ng",
        -9.119444186113508
      ],
      [
        "▁com",
        -8.165395837160537
      ],
      [
        "through",
        -8.833708491403344
      ],
      [
        "▁away",
        -5.529427344981297
      ],
      [
        "▁extreme",
        -7.084282788287229
      ],
      [
        "▁=",
        -10.684975132019087
      ],
      [
        "▁jose",
        -7.128049795742402
      ],
      [
        "▁remove",
        -7.971838894142863
      ],
      [
        "▁context",
        -8.511867129123324
      ],
      [
        "▁to",
        -4.677054644818611
      ],
      [
        "▁grass",
        -8.94542382781986
      ],
      [
        "▁show",
        -7.743656537800783
      ],
      [
        "▁un",
        -9.152759833302571
      ],
      [
        "▁etc",
        -7.824802520377602
      ],
      [
        "▁mam",
        -8.621617564024271
      ],
      [
        "▁water",
        -6.433898318215807
      ],
      [
        "town",
        -7.598583364221026
      ],
      [
        "`",
        -11.770631529841472
      ],
      [
        "▁million",
        -8.726548101755789
      ],
      [
        "▁col",
        -9.076627203047327
      ],
      [
        "▁educat",
        -8.055407797618354
      ],
      [
        "▁pott",
        -8.226039811563332
      ],
      [
        ")",
        -4.681454226988154
      ],
      [
        "▁ingredient",
        -9.080391683931541
      ],
      [
        "s",
        -3.5612652791976194
      ],
      [
        "▁tax",
        -7.951376515584673
      ],
      [
        "▁here",
        -4.079579998525942
      ],
      [
        "_",
        -4.900921085182438
      ],
      [
        "▁troop",
        -8.923226469682913
      ],
      [
        "▁yog",
        -8.640146853951947
      ],
      [
        "▁star",
        -8.608996603887036
      ],
      [
        "▁sink",
        -9.14696015504483
      ],
      [
        "▁ticket",
        -7.5882770451074295
      ],
      [
        "▁u",
        -9.051332700543057
      ],
      [
        "▁video",
        -7.732112971538104
      ],
      [
        "▁egg",
        -7.872640054151842
      ],
      [
        "▁spen",
        -7.682695389956868
      ],
      [
        "▁laura",
        -6.068239547282948
      ],
      [
        "▁web",
        -7.874375878046247
      ],
      [
        "▁spoke",
        -7.662118865388581
      ],
      [
        "▁organization",
        -8.221079316054567
      ],
      [
        "▁bite",
        -7.841128810969074
      ],
      [
        "w",
        -11.841782454984505
      ],
      [
        "▁wh",
        -12.988879350244954
      ],
      [
        "ium",
        -9.014128226028207
      ],
      [
        "▁inspire",
        -8.503818338936204
      ],
      [
        "ship",
        -7.965780243568244
      ],
      [
        "rose",
        -8.623280558283353
      ],
      [
        "ring",
        -8.252052990872272
      ],
      [
        "▁urge",
        -9.411700244063756
      ],
      [
        "▁occur",
        -8.661361815316441
      ],
      [
        "▁suck",
        -8.73240815058813
      ],
      [
        "▁impress",
        -9.443579547563832
      ],
      [
        "▁donkey",
        -8.99872504735843
      ],
      [
        "▁amid",
        -9.982268227011591
      ],
      [
        "w",
        -10.925660239071423
      ],
      [
        "▁",
        -1.429224151881007
      ],
      [
        "▁fr",
        -8.56669605808989
      ],
      [
        "▁suit",
        -9.034212128978872
      ],
      [
        "-",
        -5.0561714688933765
      ],
      [
        "▁vet",
        -8.51337779976204
      ],
      [
        "▁look",
        -4.774514457323838
      ],
      [
        "▁plen",
        -8.647142468445018
      ],
      [
        "u",
        -5.646689165622992
      ],
      [
        "lock",
        -8.024586378018121
      ],
      [
        "t",
        -4.296542088812356
      ],
      [
        "washington",
        -5.483334395984937
      ],
      [
        "▁tie",
        -8.806909932474442
      ],
      [
        "ach",
        -8.260175839519409
      ],
      [
        "ll",
        -5.776077771667074
      ],
      [
        "▁with",
        -3.805476671507483
      ],
      [
        "europ",
        -6.79352500653621
      ],
      [
        "▁famil",
        -6.726079805847223
      ],
      [
        "uff",
        -9.023314099977823
      ],
      [
        "ighten",
        -9.43439811874087
      ],
      [
        "▁dress",
        -7.922935736617031
      ],
      [
        "7",
        -4.60064973905525
      ],
      [
        "c",
        -5.089017709022672
      ],
      [
        "▁bathroom",
        -8.276823487567986
      ],
      [
        "▁appointment",
        -8.756188041276516
      ],
      [
        "ition",
        -8.98917662145875
      ],
      [
        "▁attorney",
        -9.21694353779829
      ],
      [
        "▁club",
        -9.216943576577803
      ],
      [
        "2",
        -11.770631529841472
      ],
      [
        "..",
        -11.6166454357157
      ],
      [
        "▁coffee",
        -7.849203950634448
      ],
      [
        "iction",
        -8.944265896315288
      ],
      [
        "wau",
        -6.330383459265543
      ],
      [
        "▁wipe",
        -8.779911817932993
      ],
      [
        "an",
        -7.782035909451696
      ],
      [
        "▁b",
        -7.312066243997636
      ],
      [
        "▁cats",
        -8.802696259025518
      ],
      [
        "▁article",
        -7.887246847174499
      ],
      [
        "▁doggie",
        -7.647428703439606
      ],
      [
        "an",
        -7.70124996348415
      ],
      [
        "▁score",
        -9.174898047653443
      ],
      [
        "ty",
        -6.4139229126522626
      ],
      [
        "▁kind",
        -6.315144828800624
      ],
      [
        "or",
        -10.502977190467442
      ],
      [
        "ia",
        -7.981307519787568
      ],
      [
        "▁b",
        -6.06939314395327
      ],
      [
        "e",
        -4.069614543994382
      ],
      [
        "what",
        -7.801290938444229
      ],
      [
        "▁import",
        -8.725898698859437
      ],
      [
        ".",
        -9.207163296872874
      ],
      [
        "▁achieve",
        -8.147531663921677
      ],
      [
        "like",
        -9.26299689432544
      ],
      [
        "▁rec",
        -7.0072767537993075
      ],
      [
        "ac",
        -7.160388903002505
      ],
      [
        "▁win",
        -8.000208710302205
      ],
      [
        "v",
        -8.86102835240629
      ],
      [
        "▁access",
        -9.360592997055347
      ],
      [
        "▁pushe",
        -9.339702222344467
      ],
      [
        "canada",
        -7.372545342126393
      ],
      [
        "▁cycle",
        -8.853030354716765
      ],
      [
        "on",
        -5.130753300564142
      ],
      [
        "▁affect",
        -7.947152464864956
      ],
      [
        "▁land",
        -7.4046604083739815
      ],
      [
        "▁fixed",
        -7.9833664899746974
      ],
      [
        "▁wel",
        -5.239750120745514
      ],
      [
        "▁quote",
        -8.960267051637665
      ],
      [
        "q",
        -8.106977222159466
      ],
      [
        "▁up",
        -8.33697720284549
      ],
      [
        "▁hire",
        -8.685795281176249
      ],
      [
        "▁hundred",
        -5.955365271488084
      ],
      [
        "▁cheek",
        -9.169775389142758
      ],
      [
        "▁accident",
        -8.239252801174397
      ],
      [
        "l",
        -6.205539044539956
      ],
      [
        "▁telephone",
        -8.696992992380663
      ],
      [
        "▁orange",
        -9.080391736416026
      ],
      [
        "▁clean",
        -7.614144936595172
      ],
      [
        "elf",
        -12.595825789223744
      ],
      [
        "ocus",
        -8.960841532056333
      ],
      [
        "▁give",
        -5.251596077870293
      ],
      [
        "▁poor",
        -6.827153171806246
      ],
      [
        "▁flood",
        -8.887517048372679
      ],
      [
        "▁channel",
        -8.819696156902857
      ],
      [
        "▁---",
        -13.632274009623941
      ],
      [
        "▁emerge",
        -9.389548579758129
      ],
      [
        "▁observe",
        -8.234673799315816
      ],
      [
        "▁",
        -1.4632797141835407
      ],
      [
        "und",
        -6.2572005688377095
      ],
      [
        "▁forward",
        -6.90085416688369
      ],
      [
        "m",
        -6.009894094785829
      ],
      [
        "▁house",
        -6.352613214970077
      ],
      [
        "▁test",
        -8.14215972269377
      ],
      [
        "▁bri",
        -7.255424553734033
      ],
      [
        "ow",
        -10.59600381348684
      ],
      [
        "y",
        -4.5693853521597925
      ],
      [
        "▁paper",
        -6.811064970065042
      ],
      [
        "▁ball",
        -6.965149594291776
      ],
      [
        "▁abe",
        -6.584971837897432
      ],
      [
        "▁understand",
        -6.771795786522425
      ],
      [
        "hood",
        -8.759441653776195
      ],
      [
        "▁&",
        -7.590436870188816
      ],
      [
        "▁love",
        -7.821445912638369
      ],
      [
        "'",
        -5.782686409310488
      ],
      [
        "▁kick",
        -8.610188776671855
      ],
      [
        "rate",
        -9.426511468247451
      ],
      [
        "▁invent",
        -9.024819165760555
      ],
      [
        "4",
        -12.653795411026692
      ],
      [
        "▁number",
        -6.210399829628592
      ],
      [
        "▁mommy",
        -5.364345025348642
      ],
      [
        "st",
        -4.586035877960723
      ],
      [
        "▁fish",
        -7.29041536295049
      ],
      [
        "^",
        -12.810278406305976
      ],
      [
        "g",
        -4.631809892328854
      ],
      [
        "▁ap",
        -8.967049891672929
      ],
      [
        "▁good",
        -8.07105011550817
      ],
      [
        "▁writ",
        -7.110939147606392
      ],
      [
        "▁operator",
        -8.696852753789948
      ],
      [
        "o",
        -3.5173493339713584
      ],
      [
        "t",
        -4.811365475966638
      ],
      [
        "▁operat",
        -9.416450268859371
      ],
      [
        "▁pretend",
        -8.139216432580561
      ],
      [
        "▁special",
        -6.647498610834503
      ],
      [
        "▁decide",
        -7.1256742126874455
      ],
      [
        "▁stil",
        -5.179362880414711
      ],
      [
        "▁move",
        -8.798921287248344
      ],
      [
        "ent",
        -6.02629273963893
      ],
      [
        "ve",
        -8.975014890483797
      ],
      [
        "▁corner",
        -8.119334718825932
      ],
      [
        "▁guess",
        -7.080943056021663
      ],
      [
        "▁broke",
        -7.022868058615649
      ],
      [
        "▁occasion",
        -8.998725074701786
      ],
      [
        "▁fun",
        -8.108338126141614
      ],
      [
        "▁basket",
        -8.960263834465621
      ],
      [
        "ton",
        -6.705703888198631
      ],
      [
        "▁be",
        -4.961294813347506
      ],
      [
        "▁beer",
        -8.73728739810678
      ],
      [
        "▁exchange",
        -8.819696765247082
      ],
      [
        "▁c",
        -7.194865397578264
      ],
      [
        "▁thought",
        -6.440770853893309
      ],
      [
        "ry",
        -7.477042467158304
      ],
      [
        "▁kitt",
        -7.981335639531538
      ],
      [
        "▁milk",
        -6.873830041159017
      ],
      [
        "▁shel",
        -8.997054439256805
      ],
      [
        "▁stole",
        -9.362240009490458
      ],
      [
        "▁time",
        -5.0334879187466575
      ],
      [
        "▁mother",
        -6.859878365255122
      ],
      [
        "▁monkey",
        -8.668030493454614
      ],
      [
        "ing",
        -2.512639074192263
      ],
      [
        "▁mo",
        -7.225016705620557
      ],
      [
        "get",
        -8.247055403809409
      ],
      [
        "▁sort",
        -7.713349633957149
      ],
      [
        "▁my",
        -4.589203075656636
      ],
      [
        "hin",
        -7.547082465230565
      ],
      [
        "▁fan",
        -8.18867338589732
      ],
      [
        "th",
        -6.2624395574659975
      ],
      [
        "▁de",
        -12.371289160620995
      ],
      [
        "1",
        -12.707635305583393
      ],
      [
        "▁fork",
        -8.853353228946016
      ],
      [
        "▁is",
        -3.8415759029393852
      ],
      [
        "▁week",
        -6.45605071409975
      ],
      [
        "▁know",
        -4.428565868834826
      ],
      [
        "▁po",
        -8.808024522037588
      ],
      [
        "▁station",
        -7.971008628294385
      ],
      [
        "▁pro",
        -8.176086083262977
      ],
      [
        "▁state",
        -6.055091385595466
      ],
      [
        "▁2",
        -4.236268747166906
      ],
      [
        "at",
        -7.706429681576975
      ],
      [
        "▁participant",
        -8.69647835588712
      ],
      [
        "ie",
        -6.594805163020693
      ],
      [
        "▁…",
        -9.511839873390812
      ],
      [
        "▁swing",
        -8.734704912712491
      ],
      [
        "▁document",
        -7.777317582949337
      ],
      [
        "▁block",
        -8.33682074244903
      ],
      [
        "en",
        -7.180907493805097
      ],
      [
        "'",
        -6.595685338835673
      ],
      [
        "▁measure",
        -8.120096173602686
      ],
      [
        "▁result",
        -7.389348607007524
      ],
      [
        "▁d",
        -8.804879413247377
      ],
      [
        "▁for",
        -3.676327704226436
      ],
      [
        "▁texa",
        -6.900880991406102
      ],
      [
        "▁bec",
        -7.4976419712532465
      ],
      [
        "▁introduc",
        -9.281475121368487
      ],
      [
        "▁enter",
        -7.664202702451771
      ],
      [
        "▁dial",
        -9.286248255548502
      ],
      [
        "**********",
        -11.18260191905142
      ],
      [
        "▁questions",
        -7.464146785644244
      ],
      [
        "um",
        -7.368975224421662
      ],
      [
        "b",
        -3.4366148757197568
      ],
      [
        "_",
        -4.735940816345124
      ],
      [
        "▁+",
        -12.232017845449422
      ],
      [
        "▁reserve",
        -9.08039827298765
      ],
      [
        "▁rain",
        -8.276687297536638
      ],
      [
        "▁altho",
        -5.5250653344630365
      ],
      [
        "▁front",
        -7.601454435138757
      ],
      [
        "▁deploy",
        -9.293957825282968
      ],
      [
        "▁w/",
        -11.15379541592156
      ],
      [
        "▁respond",
        -8.077348590338405
      ],
      [
        "er",
        -8.073934204086363
      ],
      [
        "▁guy",
        -6.71676782140044
      ],
      [
        "▁manager",
        -8.137343087061883
      ],
      [
        "ne",
        -12.213083490762878
      ],
      [
        "ill",
        -8.261672746001006
      ],
      [
        "▁action",
[...]
