{
  "version": "1.0",
  "truncation": null,
  "padding": null,
  "added_tokens": [
    {
      "id": 1318,
      "content": "[SEP]",
      "single_word": false,
      "lstrip": false,
      "rstrip": false,
      "normalized": false,
      "special": true
    },
    {
      "id": 2152,
      "content": "[MASK]",
      "single_word": false,
      "lstrip": false,
      "rstrip": false,
      "normalized": false,
      "special": true
    },
    {
      "id": 3197,
      "content": "[UNK]",
      "single_word": false,
      "lstrip": false,
      "rstrip": false,
      "normalized": false,
      "special": true
    },
    {
      "id": 4422,
      "content": "[PAD]",
      "single_word": false,
      "lstrip": false,
      "rstrip": false,
      "normalized": false,
      "special": true
    },
    {
      "id": 5170,
      "content": "[CLS]",
      "single_word": false,
      "lstrip": false,
      "rstrip": false,
      "normalized": false,
      "special": true
    }
  ],
  "normalizer": {
    "type": "Sequence",
    "normalizers": [
      {
        "type": "NFD"
      },
      {
        "type": "Lowercase"
      },
      {
        "type": "StripAccents"
      }
    ]
  },
  "pre_tokenizer": {
    "type": "Sequence",
    "pretokenizers": [
      {
        "type": "Metaspace",
        "replacement": "▁",
        "prepend_scheme": "always",
        "split": true
      }
    ]
  },
  "post_processor": {
    "type": "TemplateProcessing",
    "single": [
      {
        "SpecialToken": {
          "id": "[CLS]",
          "type_id": 0
        }
      },
      {
        "Sequence": {
          "id": "A",
          "type_id": 0
        }
      },
      {
        "SpecialToken": {
          "id": "[SEP]",
          "type_id": 0
        }
      }
    ],
    "pair": [
      {
        "SpecialToken": {
          "id": "[CLS]",
          "type_id": 0
        }
      },
      {
        "Sequence": {
          "id": "A",
          "type_id": 0
        }
      },
      {
        "SpecialToken": {
          "id": "[SEP]",
          "type_id": 0
        }
      },
      {
        "Sequence": {
          "id": "B",
          "type_id": 1
        }
      },
      {
        "SpecialToken": {
          "id": "[SEP]",
          "type_id": 1
        }
      }
    ],
    "special_tokens": {
      "[CLS]": {
        "id": "[CLS]",
        "ids": [
          5170
        ],
        "tokens": [
          "[CLS]"
        ]
      },
      "[SEP]": {
        "id": "[SEP]",
        "ids": [
          1318
        ],
        "tokens": [
          "[SEP]"
        ]
      }
    }
  },
  "decoder": {
    "type": "Metaspace",
    "replacement": "▁",
    "prepend_scheme": "always",
    "split": true
  },
  "model": {
    "type": "BPE",
    "dropout": null,
    "unk_token": "[UNK]",
    "continuing_subword_prefix": null,
    "end_of_word_suffix": null,
    "fuse_unk": false,
    "byte_fallback": false,
    "ignore_merges": false,
    "vocab": {
      "▁prefer": 0,
      "▁benef": 1,
      "▁dish": 2,
      "▁moved": 3,
      "▁grapes": 4,
      "▁particles": 5,
      "▁agreement": 6,
      "ding": 7,
      "son": 8,
      "▁winds": 9,
      "jwww": 10,
      "▁abilities": 11,
      "▁spears": 12,
      "▁california": 13,
      "lim": 14,
      "▁introduce": 15,
      "▁violation": 16,
      "▁hav": 17,
      "▁telling": 18,
      "▁dinos": 19,
      "▁afford": 20,
      "▁stol": 21,
      "▁bec": 22,
      "▁knoc": 23,
      "▁printed": 24,
      "▁p.m.": 25,
      "▁camp": 26,
      "▁ext": 27,
      "▁roman": 28,
      "▁sometime": 29,
      "▁horsie": 30,
      "▁wildlife": 31,
      "▁spl": 32,
      "▁suppl": 33,
      "▁everybody": 34,
      "▁abandoned": 35,
      "is": 36,
      "ks": 37,
      "▁penc": 38,
      "g": 39,
      "▁aim": 40,
      "alth": 41,
      "▁headquarters": 42,
      "aganda": 43,
      "ment": 44,
      "▁relig": 45,
      "▁structures": 46,
      "▁author": 47,
      "oe": 48,
      "▁raised": 49,
      "wi": 50,
      "▁acted": 51,
      "▁happens": 52,
      "▁plaster": 53,
      "▁elephant": 54,
      "▁francisco": 55,
      "▁cultural": 56,
      "▁walk": 57,
      "▁report": 58,
      "▁saving": 59,
      "▁unc": 60,
      "▁secret": 61,
      "▁apartment": 62,
      "▁fash": 63,
      "ages": 64,
      "vers": 65,
      "▁types": 66,
      "▁seal": 67,
      "▁di": 68,
      "▁filled": 69,
      "▁manuf": 70,
      "▁cruise": 71,
      "▁trip": 72,
      "▁pun": 73,
      "▁entity": 74,
      "▁updates": 75,
      "▁bearing": 76,
      "aining": 77,
      "tingu": 78,
      "▁paper": 79,
      "▁fungi": 80,
      "aying": 81,
      "mission": 82,
      "ught": 83,
      "▁fill": 84,
      "▁socks": 85,
      "▁arrested": 86,
      "▁nashville": 87,
      "ifying": 88,
      "stances": 89,
      "▁populations": 90,
      "▁search": 91,
      "▁soap": 92,
      "▁lim": 93,
      "▁chips": 94,
      "▁repe": 95,
      "▁vot": 96,
      "om": 97,
      "▁mess": 98,
      "▁indicated": 99,
      "▁this": 100,
      "▁injury": 101,
      "▁lan": 102,
      "▁anywhere": 103,
      "arked": 104,
      "▁explo": 105,
      "▁elements": 106,
      "▁formed": 107,
      "▁leash": 108,
      "tit": 109,
      "▁driver": 110,
      "▁update": 111,
      "atched": 112,
      "▁e": 113,
      "di": 114,
      "▁attempting": 115,
      "▁adopted": 116,
      "▁&amp;": 117,
      "lies": 118,
      "ver": 119,
      "▁intercon": 120,
      "▁buildings": 121,
      "▁americ": 122,
      "▁fly": 123,
      "▁york": 124,
      "▁sl": 125,
      "▁candle": 126,
      "ok": 127,
      "▁trading": 128,
      "erved": 129,
      "▁sle": 130,
      "▁call": 131,
      "ological": 132,
      "▁tragedy": 133,
      "ints": 134,
      "ago": 135,
      "▁apart": 136,
      "▁united": 137,
      "▁tampa": 138,
      "▁head": 139,
      "ilize": 140,
      "▁wom": 141,
      "log": 142,
      "▁writing": 143,
      "▁seed": 144,
      "ington": 145,
      "▁beneath": 146,
      "▁treatment": 147,
      "▁peoples": 148,
      "▁incident": 149,
      "ssible": 150,
      "▁around": 151,
      "▁limited": 152,
      "fication": 153,
      "▁dro": 154,
      "▁monaster": 155,
      "▁accord": 156,
      "erve": 157,
      "▁licensor": 158,
      "▁opposed": 159,
      "▁habit": 160,
      "atic": 161,
      "ither": 162,
      "gation": 163,
      "ounce": 164,
      "alism": 165,
      "uate": 166,
      "▁listing": 167,
      "▁den": 168,
      "ce": 169,
      "▁pud": 170,
      "ions": 171,
      "▁discip": 172,
      "liament": 173,
      "▁outside": 174,
      "▁added": 175,
      "vail": 176,
      "ws": 177,
      "▁regulations": 178,
      "▁experts": 179,
      "▁counterfe": 180,
      "▁started": 181,
      "▁then": 182,
      "▁beard": 183,
      "▁notic": 184,
      "▁islands": 185,
      "▁ep": 186,
      "▁bother": 187,
      "▁library": 188,
      "ulars": 189,
      "▁marry": 190,
      "▁describing": 191,
      "cr": 192,
      "▁infrastruc": 193,
      "00": 194,
      "▁|--------+----------------": 195,
      "▁connecting": 196,
      "▁existence": 197,
      "▁way": 198,
      "▁breath": 199,
      "▁nations": 200,
      "▁troops": 201,
      "▁keeping": 202,
      "day": 203,
      "▁walked": 204,
      "issed": 205,
      "▁swa": 206,
      "ific": 207,
      "▁skin": 208,
      "▁requires": 209,
      "umb": 210,
      "ashington": 211,
      "▁ens": 212,
      "▁unit": 213,
      "zer": 214,
      "▁black": 215,
      "▁sty": 216,
      "ointment": 217,
      "▁challenges": 218,
      "//": 219,
      "▁aw": 220,
      "▁tank": 221,
      "▁acknowled": 222,
      "wood": 223,
      "▁especially": 224,
      "▁bath": 225,
      "▁elev": 226,
      "▁holiday": 227,
      "um": 228,
      "ture": 229,
      "▁captain": 230,
      "▁contains": 231,
      "▁adds": 232,
      "▁slipped": 233,
      "uration": 234,
      "▁arrive": 235,
      "▁purchase": 236,
      "▁non": 237,
      "▁shut": 238,
      "se": 239,
      "icular": 240,
      "aws": 241,
      "▁investigation": 242,
      "▁duties": 243,
      "hibited": 244,
      "aced": 245,
      "alu": 246,
      "▁girls": 247,
      "tt": 248,
      "▁junk": 249,
      "ε": 250,
      "▁rum": 251,
      "uropean": 252,
      "ape": 253,
      "▁anybody": 254,
      "▁!!!!!!!!!!!": 255,
      "arians": 256,
      "▁coord": 257,
      "▁requi": 258,
      "▁shel": 259,
      "▁bottle": 260,
      "ν": 261,
      "▁ic": 262,
      "▁garbage": 263,
      "▁state": 264,
      "c": 265,
      "ds": 266,
      "▁spaces": 267,
      "▁building": 268,
      "▁rolling": 269,
      "▁scr": 270,
      "▁guarant": 271,
      "▁under": 272,
      "ition": 273,
      "▁police": 274,
      "▁bars": 275,
      "▁submitted": 276,
      "▁lik": 277,
      "▁thanks": 278,
      "▁saturday": 279,
      "liance": 280,
      "action": 281,
      "▁generations": 282,
      "▁ba": 283,
      "▁difficul": 284,
      "-p": 285,
      "▁stood": 286,
      "▁flavor": 287,
      "▁adv": 288,
      "8": 289,
      "acks": 290,
      "▁cer": 291,
      "▁mor": 292,
      "ured": 293,
      "▁peanut": 294,
      "▁exploration": 295,
      "▁improved": 296,
      "ht": 297,
      "▁bits": 298,
      "orrow": 299,
      "▁contin": 300,
      "▁goals": 301,
      "▁customer": 302,
      "imore": 303,
      "▁hearts": 304,
      "▁monitor": 305,
      "ortant": 306,
      "▁six": 307,
      "▁demonstrated": 308,
      "very": 309,
      "▁leaders": 310,
      "▁achieve": 311,
      "▁grammar": 312,
      "line": 313,
      "▁hi": 314,
      "operation": 315,
      "over": 316,
      "5": 317,
      "▁exchang": 318,
      "iveness": 319,
      "▁riding": 320,
      "▁bi": 321,
      "▁manner": 322,
      "here": 323,
      "▁sad": 324,
      "▁cabbage": 325,
      "▁bed": 326,
      "▁advance": 327,
      "▁mixture": 328,
      "▁happ": 329,
      "ocated": 330,
      "▁corp": 331,
      "▁like": 332,
      "▁u.s.": 333,
      "▁referred": 334,
      "play": 335,
      "▁muscle": 336,
      "ators": 337,
      "▁laugh": 338,
      "▁lo": 339,
      "▁fle": 340,
      ".com": 341,
      "▁ess": 342,
      "▁tast": 343,
      "ually": 344,
      "▁'": 345,
      "▁los": 346,
      "▁frame": 347,
      "ots": 348,
      "▁cabin": 349,
      "▁syn": 350,
      "▁farmer": 351,
      "▁en": 352,
      "▁passengers": 353,
      "▁pot": 354,
      "▁street": 355,
      "▁staff": 356,
      "▁topic": 357,
      "▁quoted": 358,
      "=----": 359,
      "▁prov": 360,
      ":": 361,
      "▁meth": 362,
      "ribb": 363,
      "▁miam": 364,
      "▁fault": 365,
      "▁return": 366,
      "▁underneath": 367,
      "▁capital": 368,
      "▁analys": 369,
      "▁appreciated": 370,
      "isation": 371,
      "▁figured": 372,
      "▁fishing": 373,
      "▁sp": 374,
      "tered": 375,
      "▁arab": 376,
      "▁seven": 377,
      "▁comment": 378,
      "▁satellite": 379,
      "▁see": 380,
      "▁images": 381,
      "nd": 382,
      "ory": 383,
      "appy": 384,
      "▁lil": 385,
      "ycle": 386,
      "store": 387,
      "▁tickle": 388,
      "!": 389,
      "▁suggesting": 390,
      "▁predators": 391,
      "▁passage": 392,
      "▁pay": 393,
      "aft": 394,
      "…": 395,
      "▁uti": 396,
      "▁sym": 397,
      "not": 398,
      "acket": 399,
      "ums": 400,
      "▁certificate": 401,
      "▁contributions": 402,
      "▁excuse": 403,
      "▁inside": 404,
      "olving": 405,
      "ub": 406,
      "▁whole": 407,
      "▁coffee": 408,
      "ances": 409,
      "▁declaration": 410,
      "hea": 411,
      "rop": 412,
      "eric": 413,
      "▁provide": 414,
      "▁times": 415,
      "▁bur": 416,
      "▁levels": 417,
      "▁crowd": 418,
      "▁drew": 419,
      "▁promoting": 420,
      "▁tem": 421,
      "▁oak": 422,
      "▁dr.": 423,
      "rew": 424,
      "anks": 425,
      "▁piano": 426,
      "ields": 427,
      "uss": 428,
      "+": 429,
      "▁diet": 430,
      "---------------": 431,
      "▁ro": 432,
      "▁snitch": 433,
      "▁wealth": 434,
      "▁practices": 435,
      "▁airlines": 436,
      "▁fem": 437,
      "erts": 438,
      "▁dose": 439,
      "zed": 440,
      "▁falling": 441,
      "▁pa": 442,
      "▁energy": 443,
      "▁copyright": 444,
      "▁early": 445,
      "▁pref": 446,
      "▁maintaining": 447,
      "▁inflation": 448,
      "▁bow": 449,
      "▁quickly": 450,
      "▁cafe": 451,
      "▁etc": 452,
      "▁filed": 453,
      "▁actress": 454,
      "▁quan": 455,
      "duction": 456,
      "▁attached": 457,
      "itations": 458,
      "nec": 459,
      "▁lines": 460,
      "▁hell": 461,
      "▁chang": 462,
      "▁fixed": 463,
      "▁or": 464,
      "ensus": 465,
      "uro": 466,
      "at": 467,
      "▁began": 468,
      "aroni": 469,
      "▁wondering": 470,
      "▁principles": 471,
      "▁dealt": 472,
      "ric": 473,
      "edness": 474,
      "▁stayed": 475,
      "▁meal": 476,
      "isture": 477,
      "▁total": 478,
      "▁kid": 479,
      "▁switched": 480,
      "▁inqu": 481,
      "▁young": 482,
      "▁recogn": 483,
      "▁cognition": 484,
      "▁options": 485,
      "▁definition": 486,
      "erving": 487,
      "nect": 488,
      "icted": 489,
      "▁watching": 490,
      "▁atlanta": 491,
      "▁initial": 492,
      "▁fung": 493,
      "▁restaur": 494,
      "▁electric": 495,
      "▁fallen": 496,
      "▁notebook": 497,
      "▁theater": 498,
      "etro": 499,
      "illas": 500,
      "sing": 501,
      "in": 502,
      "▁belie": 503,
      "▁claiming": 504,
      "red": 505,
      "▁amendments": 506,
      "ime": 507,
      "▁appearance": 508,
      "ilities": 509,
      "▁initiatives": 510,
      "▁pivottable": 511,
      "▁rope": 512,
      "▁interconnect": 513,
      "ounds": 514,
      "@": 515,
      "oration": 516,
      "▁underm": 517,
      "▁las": 518,
      "▁airports": 519,
      "▁shorts": 520,
      "▁driven": 521,
      "▁engine": 522,
      "▁seattle": 523,
      "▁spot": 524,
      "▁nav": 525,
      "enc": 526,
      "ancing": 527,
      "▁smell": 528,
      "▁removed": 529,
      "▁green": 530,
      "▁truck": 531,
      "▁wiggle": 532,
      "pers": 533,
      "keep": 534,
      "▁witn": 535,
      "▁copied": 536,
      "▁foreigners": 537,
      "▁best": 538,
      "▁adop": 539,
      "▁rais": 540,
      "ists": 541,
      "ativity": 542,
      "▁sold": 543,
      "+----------------": 544,
      "▁sou": 545,
      "▁plans": 546,
      "▁threat": 547,
      "▁w/": 548,
      "▁facilitate": 549,
      "▁refriger": 550,
      "▁mechanics": 551,
      "▁needs": 552,
      "asts": 553,
      "▁asylum": 554,
      "▁ti": 555,
      "▁link": 556,
      "lium": 557,
      "▁arrangement": 558,
      "ing": 559,
      "▁lord": 560,
      "6": 561,
      "▁influenced": 562,
      "▁somewhere": 563,
      "▁pit": 564,
      "▁budget": 565,
      "acking": 566,
      "▁crossed": 567,
      "▁before": 568,
      "▁interested": 569,
      "mped": 570,
      "▁l2": 571,
      "▁dance": 572,
      "▁sector": 573,
      "▁recipe": 574,
      "▁ducks": 575,
      "▁rags": 576,
      "▁hair": 577,
      "▁apar": 578,
      "▁planning": 579,
      "▁arguments": 580,
      "▁politicians": 581,
      "▁causing": 582,
      "▁must": 583,
      "▁capture": 584,
      "▁control": 585,
      "on": 586,
      "▁language": 587,
      "▁airlin": 588,
      "man": 589,
      "▁example": 590,
      "▁cultures": 591,
      "▁descri": 592,
      "umble": 593,
      "▁collaboration": 594,
      "ss": 595,
      "▁alt.": 596,
      "▁walls": 597,
      "tis": 598,
      "▁imprisoned": 599,
      "▁scam": 600,
      "ik": 601,
      "▁esc": 602,
      "eal": 603,
      "▁d'": 604,
      "▁donkey": 605,
      "▁values": 606,
      "▁dr": 607,
      "▁solution": 608,
      "id": 609,
      "▁any": 610,
      "▁effort": 611,
      "▁welf": 612,
      "▁giraffe": 613,
      "▁interview": 614,
      "▁deficiency": 615,
      "ve": 616,
      "▁worn": 617,
      "ivers": 618,
      "raph": 619,
      "aded": 620,
      "▁inj": 621,
      "▁jus": 622,
      "▁attributed": 623,
      "▁ar": 624,
      "▁economic": 625,
      "▁pil": 626,
      "▁temp": 627,
      "▁asked": 628,
      "▁provision": 629,
      "▁ought": 630,
      "▁matter": 631,
      "ictions": 632,
      "▁throwing": 633,
      "mm": 634,
      "▁contract": 635,
      "▁light": 636,
      "▁died": 637,
      "▁movement": 638,
      "▁subscri": 639,
      "▁mean": 640,
      "▁ec": 641,
      "▁educ": 642,
      "icking": 643,
      "anced": 644,
      "▁currently": 645,
      "▁starts": 646,
      "ous": 647,
      "▁declare": 648,
      "aph": 649,
      "▁fr": 650,
      "▁win": 651,
      "ano": 652,
      "ements": 653,
      "▁cups": 654,
      "▁houston": 655,
      "ali": 656,
      "▁woman": 657,
      "▁(": 658,
      "qu": 659,
      "▁doll": 660,
      "▁sti": 661,
      "▁disappeared": 662,
      "way": 663,
      "ness": 664,
      "▁watched": 665,
      "▁oven": 666,
      "▁harmonisation": 667,
      "inity": 668,
      "▁hot": 669,
      "▁dry": 670,
      "ital": 671,
      "▁victory": 672,
      "[": 673,
      "▁doc": 674,
      "▁trends": 675,
      "▁succeed": 676,
      "▁he": 677,
      "▁inviting": 678,
      "itting": 679,
      "▁sa": 680,
      "▁occur": 681,
      "▁lick": 682,
      "▁horror": 683,
      "▁sss": 684,
      "▁category": 685,
      "ented": 686,
      "▁end": 687,
      "▁doctors": 688,
      "▁gives": 689,
      "▁wizard": 690,
      "▁booked": 691,
      "▁sharing": 692,
      "▁continues": 693,
      "▁laun": 694,
      "aser": 695,
      "ʒ": 696,
      "▁congrat": 697,
      "▁behin": 698,
      "▁industries": 699,
      "▁effects": 700,
      "▁garb": 701,
      "▁prin": 702,
      "▁spirit": 703,
      "▁vehicle": 704,
      "▁ensuring": 705,
      "asses": 706,
      "tery": 707,
      "or": 708,
      "#": 709,
      "ters": 710,
      "▁wind": 711,
      "udes": 712,
      "▁stand": 713,
      "▁photo": 714,
      "▁stepped": 715,
      "▁personality": 716,
      "▁soy": 717,
      "sent": 718,
      "▁stir": 719,
      "▁date": 720,
      "▁headed": 721,
      "▁examining": 722,
      "ati": 723,
      "▁tuesday": 724,
      "▁mutation": 725,
      "▁is": 726,
      "▁extre": 727,
      "ative": 728,
      "▁rain": 729,
      "▁inquiry": 730,
      "ump": 731,
      "▁alt": 732,
      "▁reduction": 733,
      "▁offers": 734,
      "atory": 735,
      "iciency": 736,
      "▁...................": 737,
      "ple": 738,
      "illed": 739,
      "▁wel": 740,
      "▁separ": 741,
      "▁200": 742,
      "▁yellow": 743,
      "▁consider": 744,
      "▁year": 745,
      "▁toys": 746,
      "▁diaper": 747,
      "▁laur": 748,
      "▁disease": 749,
      "▁rush": 750,
      "▁colleagues": 751,
      "▁qu": 752,
      "▁accomplish": 753,
      "▁kids": 754,
      ">": 755,
      "▁info": 756,
      "]": 757,
      "▁phenomen": 758,
      "▁strong": 759,
      "ocracy": 760,
      "▁o'clock": 761,
      "ighb": 762,
      "▁finding": 763,
      "▁flying": 764,
      "ated": 765,
      "cake": 766,
      "▁image": 767,
      "▁distingu": 768,
      "▁dinosaur": 769,
      "jected": 770,
      "▁acts": 771,
      "▁ants": 772,
      "▁traveling": 773,
      "▁,?": 774,
      "▁something": 775,
      "▁drop": 776,
      "▁turns": 777,
      "▁sectors": 778,
      "▁perhaps": 779,
      "▁ta": 780,
      "▁mist": 781,
      "▁shame": 782,
      "▁youn": 783,
      "ains": 784,
      "▁locom": 785,
      "▁=": 786,
      "▁puts": 787,
      "▁his": 788,
      "▁sticks": 789,
      "▁r": 790,
      "a": 791,
      "▁sugar": 792,
      "▁shirt": 793,
      "▁garage": 794,
      "▁sunsh": 795,
      "▁fa": 796,
      "▁means": 797,
      "▁authority": 798,
      "▁marsh": 799,
      "atures": 800,
      "▁breakf": 801,
      "▁hammer": 802,
      "ayed": 803,
      "▁broken": 804,
      "▁penalty": 805,
      "!?": 806,
      "▁background": 807,
      "▁launch": 808,
      "▁toast": 809,
      "▁boats": 810,
      "▁viol": 811,
      "▁national": 812,
      "▁will": 813,
      "▁rank": 814,
      "▁distribution": 815,
      "▁capac": 816,
      "▁advis": 817,
      "▁suggested": 818,
      "ague": 819,
      "head": 820,
      "▁versus": 821,
      "▁independ": 822,
      "▁response": 823,
      "▁read": 824,
      "▁fact": 825,
      "▁soul": 826,
      "▁facil": 827,
      "mitted": 828,
      "▁share": 829,
      "▁moment": 830,
      "ch": 831,
      "▁lose": 832,
      "▁licen": 833,
      "▁bandaid": 834,
      "▁towards": 835,
      "▁lunch": 836,
      "▁blame": 837,
      "unte": 838,
      "__": 839,
      "engers": 840,
      "ports": 841,
      "▁undertake": 842,
      "▁establishment": 843,
      "▁asking": 844,
      "egr": 845,
      "▁crackers": 846,
      "▁nove": 847,
      "▁dol": 848,
      "▁believe": 849,
      "▁represents": 850,
      "ache": 851,
      "▁concern": 852,
      "itional": 853,
      "▁given": 854,
      "▁pub": 855,
      "▁lip": 856,
      "apes": 857,
      "▁difficulties": 858,
      "▁mummy": 859,
      "▁liquid": 860,
      "▁showed": 861,
      "▁suffered": 862,
      "▁intervening": 863,
      "▁christ": 864,
      "▁many": 865,
      "arian": 866,
      "▁gift": 867,
      "▁boots": 868,
      "▁gum": 869,
      "▁basketball": 870,
      "▁hidden": 871,
      "ployment": 872,
      ".m": 873,
      "▁incl": 874,
      "▁laundry": 875,
      "▁provisions": 876,
      "▁rin": 877,
      "▁vehicles": 878,
      "▁=---": 879,
      "ugh": 880,
      "▁death": 881,
      "es": 882,
      "▁canc": 883,
      "▁airplane": 884,
      "ical": 885,
      "▁-----------------------------------------------------------------": 886,
      "▁contro": 887,
      "duc": 888,
      "▁resources": 889,
      "▁noted": 890,
      "▁soft": 891,
      "▁majority": 892,
      "▁packed": 893,
      "ission": 894,
      "▁whil": 895,
      "▁fu": 896,
      "owled": 897,
      "--------": 898,
      "▁stret": 899,
      "▁identi": 900,
      "ll": 901,
      "ron": 902,
      "▁poli": 903,
      "▁abs": 904,
      "▁frid": 905,
      "▁folio": 906,
      "▁company": 907,
      "▁hiking": 908,
      "pp": 909,
      "▁processes": 910,
      "bur": 911,
      "amb": 912,
      "▁supporters": 913,
      "▁curves": 914,
      "▁supporting": 915,
      "inking": 916,
      "ap": 917,
      "▁aboard": 918,
      "ech": 919,
      "ork": 920,
      "ength": 921,
      "▁scribb": 922,
      "▁expected": 923,
      "▁assume": 924,
      "▁monster": 925,
      "▁tradition": 926,
      "▁belon": 927,
      "ional": 928,
      "▁november": 929,
      "iv": 930,
      "▁now": 931,
      "▁cri": 932,
      "▁guidance": 933,
      "▁critic": 934,
      "▁trunk": 935,
      "tics": 936,
      "ess": 937,
      "▁bunny": 938,
      "iency": 939,
      "▁withdraw": 940,
      "▁ensure": 941,
      "mented": 942,
      "▁returning": 943,
      "▁according": 944,
      "▁surrounded": 945,
      "▁prev": 946,
      "▁affect": 947,
      "▁system": 948,
      "▁production": 949,
      "▁split": 950,
      "▁tort": 951,
      "ris": 952,
      "▁’": 953,
      "alized": 954,
      "▁wheels": 955,
      "▁disapp": 956,
      "▁anim": 957,
      "▁negotiations": 958,
      "▁plate": 959,
      "▁twenty": 960,
      "▁adam": 961,
      "outs": 962,
      "▁---=": 963,
      "▁tools": 964,
      "▁purch": 965,
      "▁increasing": 966,
      "▁indianapolis": 967,
      "iders": 968,
      "pped": 969,
      "▁barrel": 970,
      "▁august": 971,
      "▁airport": 972,
      "▁wik": 973,
      "lik": 974,
      "ography": 975,
      "▁dog": 976,
      "astic": 977,
      "▁bicycle": 978,
      "▁although": 979,
      "▁war": 980,
      "nets": 981,
      "_": 982,
      "cles": 983,
      "▁attend": 984,
      "▁systems": 985,
      "tured": 986,
      "▁cir": 987,
      "▁discount": 988,
      "▁provin": 989,
      "▁duel": 990,
      "igned": 991,
      "▁administrator": 992,
      "▁description": 993,
      "▁described": 994,
      "▁operation": 995,
      "▁knees": 996,
      "▁herself": 997,
      "▁!": 998,
      "▁agents": 999,
      "▁define": 1000,
      "▁dating": 1001,
      "▁prosperity": 1002,
      "▁chasing": 1003,
      "tician": 1004,
      "▁only": 1005,
      "▁beauty": 1006,
      "roph": 1007,
      "▁tooth": 1008,
      "▁benefit": 1009,
      "▁customers": 1010,
      "▁understood": 1011,
      "▁ignorance": 1012,
      "▁dreamed": 1013,
      "▁manager": 1014,
      "x": 1015,
      "▁adjust": 1016,
      "▁names": 1017,
      "▁que": 1018,
      "▁october": 1019,
      "▁instance": 1020,
      "▁fri": 1021,
      "v": 1022,
      "▁pancakes": 1023,
      "▁parliament": 1024,
      "▁played": 1025,
      "▁database": 1026,
      "▁west": 1027,
      "▁politics": 1028,
      "▁chess": 1029,
      "▁me": 1030,
      "▁down": 1031,
      "ues": 1032,
      "▁structure": 1033,
      "▁closed": 1034,
      "▁click": 1035,
      "ghting": 1036,
      "▁tube": 1037,
      "▁remaining": 1038,
      "life": 1039,
      "inoc": 1040,
      "▁drill": 1041,
      "cent": 1042,
      "yone": 1043,
      "▁cust": 1044,
      "▁flir": 1045,
      "▁schem": 1046,
      "▁radiation": 1047,
      "▁delta": 1048,
      "▁cart": 1049,
      "book": 1050,
      "ves": 1051,
      "▁sound": 1052,
      "▁traged": 1053,
      "▁release": 1054,
      "▁bub": 1055,
      "iful": 1056,
      "ea": 1057,
      "most": 1058,
      "▁grandma": 1059,
      "aming": 1060,
      "▁broad": 1061,
      "▁whom": 1062,
      "▁resist": 1063,
      "▁reaction": 1064,
      "▁electricity": 1065,
      "▁shelf": 1066,
      "▁boyfriend": 1067,
      "▁pyr": 1068,
      "▁heard": 1069,
      "▁mind": 1070,
      "▁strike": 1071,
      "▁valley": 1072,
      "▁surprise": 1073,
      "▁maybe": 1074,
      "▁texas": 1075,
      "▁commissioner": 1076,
      "▁cloth": 1077,
      "▁yelling": 1078,
      "enings": 1079,
      "▁responsibility": 1080,
      "▁discussions": 1081,
      "earch": 1082,
      "os": 1083,
      "▁done": 1084,
      "▁ver": 1085,
      "oved": 1086,
      "▁fan": 1087,
      "▁mids": 1088,
      "▁student": 1089,
      "▁someone": 1090,
      "▁|": 1091,
      "▁init": 1092,
      "▁avo": 1093,
      "▁sav": 1094,
      "ight": 1095,
      "▁supper": 1096,
      "▁reported": 1097,
      "ada": 1098,
      "▁current": 1099,
      "ed": 1100,
      "▁chart": 1101,
      "1": 1102,
      "▁significance": 1103,
      "▁recr": 1104,
      "▁rebuil": 1105,
      "▁eyes": 1106,
      "oring": 1107,
      "▁reflect": 1108,
      "ont": 1109,
      "▁fli": 1110,
      "▁nut": 1111,
      "▁counter": 1112,
      "▁sup": 1113,
      "▁mechan": 1114,
      "▁toward": 1115,
      "erful": 1116,
      "▁workforce": 1117,
      "▁communic": 1118,
      "▁ann": 1119,
      "▁road": 1120,
      "sex": 1121,
      "▁examined": 1122,
      "asion": 1123,
      "▁am": 1124,
      "▁defined": 1125,
      "▁imag": 1126,
      "aled": 1127,
      "side": 1128,
      "inds": 1129,
      "▁when": 1130,
      "▁investig": 1131,
      "▁bott": 1132,
      "▁apol": 1133,
      "▁microphone": 1134,
      "isf": 1135,
      "▁handled": 1136,
      "▁ye": 1137,
      "own": 1138,
      "▁cereal": 1139,
      "▁fin": 1140,
      "▁mum": 1141,
      "▁but": 1142,
      "▁cle": 1143,
      "▁sides": 1144,
      "▁asp": 1145,
      "gue": 1146,
      "▁streets": 1147,
      "▁appointment": 1148,
      "ɑ": 1149,
      "▁cake": 1150,
      "▁organization": 1151,
      "▁copy": 1152,
      "urt": 1153,
      "pful": 1154,
      "▁hams": 1155,
      "▁neither": 1156,
      "▁~": 1157,
      "eck": 1158,
      "ologies": 1159,
      "▁revers": 1160,
      "iness": 1161,
      "▁manuscri": 1162,
      "amp": 1163,
      "ticians": 1164,
      "▁message": 1165,
      "▁ey": 1166,
      "ever": 1167,
      "▁challenge": 1168,
      "icate": 1169,
      "ority": 1170,
      "▁notw": 1171,
      "ute": 1172,
      "owed": 1173,
      "▁contacted": 1174,
      "▁keeps": 1175,
      "▁governments": 1176,
      "ares": 1177,
      "▁paintings": 1178,
      "tc": 1179,
      "▁ingred": 1180,
      "outh": 1181,
      "ien": 1182,
      "▁fing": 1183,
      "▁.........": 1184,
      "▁chall": 1185,
      "▁evolved": 1186,
      "▁brass": 1187,
      "▁bugs": 1188,
      "▁allows": 1189,
      "esthe": 1190,
      "▁seem": 1191,
      "ging": 1192,
      "lus": 1193,
      "▁++++": 1194,
      "▁hip": 1195,
      "▁horse": 1196,
      "▁waves": 1197,
      "ter": 1198,
      "een": 1199,
      "▁july": 1200,
      "ling": 1201,
      "▁magaz": 1202,
      "▁recover": 1203,
      "▁yo": 1204,
      "▁staying": 1205,
      "▁reduc": 1206,
      "▁indust": 1207,
      "▁root": 1208,
      "▁neck": 1209,
      "ipped": 1210,
      "²": 1211,
      "▁cage": 1212,
      "▁chapter": 1213,
      "▁celebr": 1214,
      "▁uh": 1215,
      "▁priority": 1216,
      "▁tele": 1217,
      "▁jews": 1218,
      "---": 1219,
      "▁tre": 1220,
      "▁centre": 1221,
      "▁avail": 1222,
      "▁giant": 1223,
      "▁vodka": 1224,
      "▁cent": 1225,
      "▁lamb": 1226,
      "▁construction": 1227,
      "▁rent": 1228,
      "▁storage": 1229,
      "▁cy": 1230,
      "▁sink": 1231,
      "ious": 1232,
      "▁well": 1233,
      "esting": 1234,
      "▁gard": 1235,
      "▁quote": 1236,
      "▁journey": 1237,
      "coon": 1238,
      "▁hop": 1239,
      "▁po": 1240,
      "▁modified": 1241,
      "▁&": 1242,
      "▁realize": 1243,
      "▁hal": 1244,
      "abb": 1245,
      "▁adj": 1246,
      "rs": 1247,
      "▁oatme": 1248,
      "▁if": 1249,
      "▁******************************************************************": 1250,
      "ending": 1251,
      "▁enough": 1252,
      "▁display": 1253,
      "▁finished": 1254,
      "▁steam": 1255,
      "▁b/": 1256,
      "isms": 1257,
      "ointed": 1258,
      "▁discre": 1259,
      "chie": 1260,
      "▁jud": 1261,
      "▁water": 1262,
      "ision": 1263,
      "ml": 1264,
      "onds": 1265,
      "▁rates": 1266,
      "▁weight": 1267,
      "▁sev": 1268,
      "board": 1269,
      "▁mur": 1270,
      "ives": 1271,
      "▁plaintiff": 1272,
      "▁center": 1273,
      "▁....": 1274,
      "tivity": 1275,
      "▁uv": 1276,
      "▁aud": 1277,
      "▁bread": 1278,
      "▁ign": 1279,
      "oard": 1280,
      "ne": 1281,
      "▁wrest": 1282,
      "ices": 1283,
      "ri": 1284,
      "▁disl": 1285,
      "▁htt": 1286,
      "erating": 1287,
      "▁artists": 1288,
      "▁achie": 1289,
      "itation": 1290,
      "▁chat": 1291,
      "▁man": 1292,
      "▁innov": 1293,
      "ull": 1294,
      "ru": 1295,
      "▁acqui": 1296,
      "▁interact": 1297,
      "▁dese": 1298,
      "▁properties": 1299,
      "ort": 1300,
      "▁restrictions": 1301,
      "pping": 1302,
      "▁favor": 1303,
      "▁clin": 1304,
      "400": 1305,
      "▁bell": 1306,
      "▁entering": 1307,
      "zation": 1308,
      "▁rel": 1309,
      "▁dreams": 1310,
      "▁initiative": 1311,
      "▁aband": 1312,
      "teries": 1313,
      "ward": 1314,
      "▁rate": 1315,
      "▁except": 1316,
      "▁hobby": 1317,
      "[SEP]": 1318,
      "▁row": 1319,
      "▁besides": 1320,
      "▁mail": 1321,
      "▁seating": 1322,
      "anim": 1323,
      "▁gallon": 1324,
      "tiff": 1325,
      "▁fab": 1326,
      "▁dal": 1327,
      "chup": 1328,
      "▁drugs": 1329,
      "▁characteristics": 1330,
      "▁syrup": 1331,
      "▁actors": 1332,
      "iti": 1333,
      "ternoon": 1334,
      "arch": 1335,
      "ault": 1336,
      "ner": 1337,
      "▁meet": 1338,
      "izing": 1339,
      "encies": 1340,
      "▁certific": 1341,
      "▁writer": 1342,
      "▁promised": 1343,
      "aring": 1344,
      "▁weake": 1345,
      "▁pieces": 1346,
      "enience": 1347,
      "▁auth": 1348,
      "▁sc": 1349,
      "▁concerns": 1350,
      "▁somebody": 1351,
      "▁stage": 1352,
      "▁attr": 1353,
      "▁exa": 1354,
      "▁q": 1355,
      "ope": 1356,
      "▁visits": 1357,
      "▁vod": 1358,
      "▁declined": 1359,
      "▁charl": 1360,
      "▁communication": 1361,
      "▁pho": 1362,
      "▁ahead": 1363,
      "▁health": 1364,
      "ame": 1365,
      "▁beet": 1366,
      "phone": 1367,
      "uits": 1368,
      "▁lie": 1369,
      "▁___________": 1370,
      "▁distinction": 1371,
      "▁ourselves": 1372,
      "▁pocket": 1373,
      "▁detroit": 1374,
      "▁answered": 1375,
      "▁muscles": 1376,
      ")": 1377,
      "▁application": 1378,
      "▁administ": 1379,
      "▁pod": 1380,
      "oder": 1381,
      "▁rac": 1382,
      "pri": 1383,
      "oud": 1384,
      "▁exam": 1385,
      "▁representation": 1386,
      "▁founder": 1387,
      "▁won": 1388,
      "ici": 1389,
      "▁balls": 1390,
      "zen": 1391,
      "▁weekday": 1392,
      "▁work": 1393,
      "▁cheese": 1394,
      "▁beside": 1395,
      "▁should": 1396,
      "ill": 1397,
      "▁del": 1398,
      "istence": 1399,
      "▁darkness": 1400,
      "▁1970s": 1401,
      "▁answers": 1402,
      "▁using": 1403,
      "▁impacts": 1404,
      "▁too": 1405,
      "▁stop": 1406,
      "▁ursula": 1407,
      "▁weekend": 1408,
      "ulate": 1409,
      "▁o": 1410,
      "▁receives": 1411,
      "uit": 1412,
      "....": 1413,
      "▁cycle": 1414,
      "▁°": 1415,
      "▁prem": 1416,
      "▁introduction": 1417,
      "warded": 1418,
      "▁job": 1419,
      "▁proved": 1420,
      "berry": 1421,
      "▁shoes": 1422,
      "▁cupcakes": 1423,
      "riendly": 1424,
      "▁environments": 1425,
      "▁pony": 1426,
      "▁rob": 1427,
      "▁hasid": 1428,
      "▁supp": 1429,
      "▁ag": 1430,
      "▁instr": 1431,
      "no": 1432,
      "cross": 1433,
      "▁val": 1434,
      "▁containers": 1435,
      "▁timing": 1436,
      "▁subst": 1437,
      "ig": 1438,
      "▁jurisd": 1439,
      "▁encourage": 1440,
      "▁filtering": 1441,
      "enture": 1442,
      "▁isda": 1443,
      "▁persp": 1444,
      "ply": 1445,
      "▁leaves": 1446,
      "▁stretched": 1447,
      "▁spill": 1448,
      "de": 1449,
      "owing": 1450,
      "▁fligh": 1451,
      "▁safety": 1452,
      "▁substance": 1453,
      "▁attachment": 1454,
      "▁judge": 1455,
      "▁chem": 1456,
      "▁museum": 1457,
      "ributing": 1458,
      "▁age": 1459,
      "▁back": 1460,
      "iation": 1461,
      "▁required": 1462,
      "▁fantasy": 1463,
      "▁kind": 1464,
      "▁principle": 1465,
      "ecess": 1466,
      "▁mechanism": 1467,
      "▁breaking": 1468,
      "▁passing": 1469,
      "▁restric": 1470,
      "▁expl": 1471,
      "▁rice": 1472,
      "▁form": 1473,
      "000": 1474,
      "ely": 1475,
      "▁ears": 1476,
      "▁incorporated": 1477,
      "▁sol": 1478,
      "eas": 1479,
      "▁ties": 1480,
      "sive": 1481,
      "illa": 1482,
      "▁yourselves": 1483,
      "▁leaving": 1484,
      "▁mov": 1485,
      "▁sections": 1486,
      "▁shape": 1487,
      "▁establish": 1488,
      "▁ri": 1489,
      "aked": 1490,
      "ack": 1491,
      "▁spread": 1492,
      "▁sci": 1493,
      "▁determine": 1494,
      "▁case": 1495,
      "▁lives": 1496,
      "iff": 1497,
      "top": 1498,
      "/": 1499,
      "ashing": 1500,
      "▁cooked": 1501,
      "½": 1502,
      "▁identified": 1503,
      "▁libr": 1504,
      "aling": 1505,
      "▁scar": 1506,
      "umin": 1507,
      "▁rec": 1508,
      "▁practice": 1509,
      "▁frozen": 1510,
      "▁half": 1511,
      "▁astride": 1512,
      "▁individ": 1513,
      "▁develop": 1514,
      "ocks": 1515,
      "arily": 1516,
      "ue": 1517,
      "▁mel": 1518,
      "▁cages": 1519,
      "▁ind": 1520,
      "▁conse": 1521,
      "▁gd": 1522,
      "▁uses": 1523,
      "▁imple": 1524,
      "▁distric": 1525,
      "▁arrival": 1526,
      "▁audit": 1527,
      "▁advised": 1528,
      "▁india": 1529,
      "▁terror": 1530,
      "▁knife": 1531,
      "ses": 1532,
      "▁designed": 1533,
      "otted": 1534,
      "▁cl": 1535,
      "▁lettuce": 1536,
      "▁exists": 1537,
      "▁hus": 1538,
      "▁addiction": 1539,
      "/he": 1540,
      "▁emergency": 1541,
      "▁forehead": 1542,
      "▁recommend": 1543,
      "▁managed": 1544,
      "ately": 1545,
      "▁honey": 1546,
      "▁gap": 1547,
      "tise": 1548,
      "xts": 1549,
      "▁add": 1550,
      "tainly": 1551,
      "ival": 1552,
      "loyed": 1553,
      "ouse": 1554,
      "▁teeth": 1555,
      "▁motorcycle": 1556,
      "▁stuff": 1557,
      "▁dessert": 1558,
      "ades": 1559,
      "▁newark": 1560,
      "▁launched": 1561,
      "ians": 1562,
      "ules": 1563,
      "works": 1564,
      "ane": 1565,
      "ept": 1566,
      "œ": 1567,
      "!!": 1568,
      "▁quinoa": 1569,
      "▁citizen": 1570,
      "▁decisions": 1571,
      "▁household": 1572,
      "▁oct": 1573,
      "▁steak": 1574,
      "▁shipped": 1575,
      "▁bab": 1576,
      "▁experiences": 1577,
      "kets": 1578,
      "▁flew": 1579,
      "▁telephone": 1580,
      "▁handle": 1581,
      "▁amid": 1582,
      "▁sha": 1583,
      "▁characteris": 1584,
      "▁mir": 1585,
      "▁effect": 1586,
      "▁orlando": 1587,
      "▁opening": 1588,
      "▁opin": 1589,
      "▁comedy": 1590,
      "eria": 1591,
      "▁spos": 1592,
      "▁crack": 1593,
      "▁screen": 1594,
      "▁terr": 1595,
      "▁all": 1596,
      "▁editor": 1597,
      "▁temper": 1598,
      "▁waiting": 1599,
      "tification": 1600,
      "▁buying": 1601,
      "▁sought": 1602,
      "▁between": 1603,
      "ong": 1604,
      "yl": 1605,
      "▁aug": 1606,
      "▁continue": 1607,
      "nam": 1608,
      "▁recognize": 1609,
      "ash": 1610,
      "▁playing": 1611,
      "ot": 1612,
      "gry": 1613,
      "ours": 1614,
      "▁shirts": 1615,
      "▁direction": 1616,
      "▁target": 1617,
      "nia": 1618,
      "▁noone": 1619,
      "▁consumers": 1620,
      "▁quarter": 1621,
      "▁jihad": 1622,
      "ibility": 1623,
      "tor": 1624,
      "rib": 1625,
      "▁gets": 1626,
      "▁shock": 1627,
      "atch": 1628,
      "old": 1629,
      "▁defeated": 1630,
      "▁pep": 1631,
      "rax": 1632,
      "ung": 1633,
      "▁designer": 1634,
      "▁ball": 1635,
      "ptions": 1636,
      "▁sisters": 1637,
      "▁tell": 1638,
      "▁pennies": 1639,
      "▁video": 1640,
      "▁threatened": 1641,
      "▁fellow": 1642,
      "▁’re": 1643,
      "▁monit": 1644,
      "▁observation": 1645,
      "▁reconciliation": 1646,
      "▁offic": 1647,
      "▁emerged": 1648,
      "▁obtained": 1649,
      "▁concentration": 1650,
      "▁accordance": 1651,
      "▁supplies": 1652,
      "▁dark": 1653,
      "▁?": 1654,
      "▁remains": 1655,
      "ration": 1656,
      "iqu": 1657,
      "▁convers": 1658,
      "▁cradle": 1659,
      "erate": 1660,
      "icing": 1661,
      "▁vit": 1662,
      "eeze": 1663,
      "fe": 1664,
      "gan": 1665,
      "▁19": 1666,
      "▁legend": 1667,
      "▁dallas": 1668,
      "▁momm": 1669,
      "ties": 1670,
      "▁functions": 1671,
      "▁lights": 1672,
      "▁history": 1673,
      "▁rooms": 1674,
      "▁throw": 1675,
      "▁imagine": 1676,
      "▁keys": 1677,
      "▁avoid": 1678,
      "▁stability": 1679,
      "▁dow": 1680,
      "ials": 1681,
      "▁uhh": 1682,
      "▁reads": 1683,
      "▁transition": 1684,
      "ye": 1685,
      "▁manufactur": 1686,
      "ius": 1687,
      "▁petroleum": 1688,
      "▁salt": 1689,
      "iously": 1690,
      "▁af": 1691,
      "boy": 1692,
      "▁tennis": 1693,
      "▁basil": 1694,
      "▁clothes": 1695,
      "▁centuries": 1696,
      "▁books": 1697,
      "▁existed": 1698,
      "▁consult": 1699,
      "▁”": 1700,
      "▁moun": 1701,
      "▁ld2d-": 1702,
      "▁countries": 1703,
      "▁trouble": 1704,
      "wise": 1705,
      "ental": 1706,
      "▁alth": 1707,
      "▁actions": 1708,
      "▁tex": 1709,
      "tern": 1710,
      "▁curr": 1711,
      "▁custom": 1712,
      "ucks": 1713,
      "ement": 1714,
      "iction": 1715,
      "rim": 1716,
      "▁term": 1717,
      "▁butter": 1718,
      "▁train": 1719,
      "▁hotel": 1720,
      "▁mm": 1721,
      "▁machines": 1722,
      "arr": 1723,
      "▁rather": 1724,
      "▁mig": 1725,
      "3": 1726,
      "▁conte": 1727,
      "er": 1728,
      "▁saved": 1729,
      "▁coordination": 1730,
      "▁ice": 1731,
      "▁economies": 1732,
      "▁tro": 1733,
      "nesses": 1734,
      "▁techn": 1735,
      "ca": 1736,
      "▁themselves": 1737,
      "▁warming": 1738,
      "▁tal": 1739,
      "▁president": 1740,
      "▁'ve": 1741,
      "▁duty": 1742,
      "▁ready": 1743,
      "scrib": 1744,
      "▁contrast": 1745,
      "▁alone": 1746,
      "▁handed": 1747,
      "ole": 1748,
      "▁remembered": 1749,
      "▁ignor": 1750,
      "▁muse": 1751,
      "▁altern": 1752,
      "rition": 1753,
      "▁volume": 1754,
      "▁profile": 1755,
      "erm": 1756,
      "vel": 1757,
      "▁um": 1758,
      "und": 1759,
      "▁coast": 1760,
      "▁ski": 1761,
      "▁faced": 1762,
      "▁imm": 1763,
      "▁task": 1764,
      "▁innovations": 1765,
      "▁exchange": 1766,
      "▁saf": 1767,
      "ined": 1768,
      "▁military": 1769,
      "▁getting": 1770,
      "“": 1771,
      "ify": 1772,
      "olog": 1773,
      "ngth": 1774,
      "▁depending": 1775,
      "utions": 1776,
      "▁dollars": 1777,
      "▁cour": 1778,
      "----------------": 1779,
      "▁owned": 1780,
      "▁examination": 1781,
      "▁wipe": 1782,
      "ł": 1783,
      "▁bright": 1784,
      "▁associate": 1785,
      "▁sand": 1786,
      "▁say": 1787,
      "▁bands": 1788,
      "▁heels": 1789,
      "ck": 1790,
      ".c": 1791,
      "urch": 1792,
      "ification": 1793,
      "▁fulf": 1794,
      "▁approached": 1795,
      "▁relations": 1796,
      "▁elephants": 1797,
      "thing": 1798,
      "▁ships": 1799,
      "lished": 1800,
      "▁meals": 1801,
      "▁9": 1802,
      "▁supports": 1803,
      "▁fork": 1804,
      "▁targ": 1805,
      "▁moral": 1806,
      "▁therefore": 1807,
      "lling": 1808,
      "▁e-mail": 1809,
      "▁agric": 1810,
      "▁appreciation": 1811,
      "▁it's": 1812,
      "acts": 1813,
      "▁ground": 1814,
      "▁nt": 1815,
      "▁covered": 1816,
      "▁receive": 1817,
      "▁resolution": 1818,
      "▁over": 1819,
      "▁emerging": 1820,
      "▁reality": 1821,
      "▁bridge": 1822,
      "▁phone": 1823,
      "▁science": 1824,
      "▁celeb": 1825,
      "▁committed": 1826,
      "▁shop": 1827,
      "▁phoenix": 1828,
      "▁capt": 1829,
      "▁stone": 1830,
      "▁dough": 1831,
      "▁municip": 1832,
      "ns": 1833,
      "▁traveled": 1834,
      "▁entry": 1835,
      "▁kitt": 1836,
      "▁everything": 1837,
      "▁fund": 1838,
      "▁method": 1839,
      "▁ra": 1840,
      "▁engineering": 1841,
      "ails": 1842,
      "'clock": 1843,
      "▁ex": 1844,
      "eav": 1845,
      "▁reconc": 1846,
      "▁dilem": 1847,
      "▁fre": 1848,
      "orth": 1849,
      "▁prep": 1850,
      "▁apprec": 1851,
      "▁adap": 1852,
      "▁owl": 1853,
      "oy": 1854,
      "▁true": 1855,
      "▁including": 1856,
      "▁hero": 1857,
      "▁memories": 1858,
      "▁mic": 1859,
      "▁middle": 1860,
      "▁orange": 1861,
      "neath": 1862,
      "tuce": 1863,
      "▁travelling": 1864,
      "▁pres": 1865,
      "aid": 1866,
      "eys": 1867,
      "▁cooperation": 1868,
      "▁love": 1869,
      "▁attach": 1870,
      "▁eaten": 1871,
      "▁busy": 1872,
      "▁evidence": 1873,
      "▁white": 1874,
      "▁agency": 1875,
      "▁uvb": 1876,
      "▁expressed": 1877,
      "▁males": 1878,
      "erv": 1879,
      "▁identify": 1880,
      "▁cow": 1881,
      "▁wednesdays": 1882,
      "oking": 1883,
      "friend": 1884,
      "▁racket": 1885,
      "▁compli": 1886,
      "bow": 1887,
      "▁seconds": 1888,
      "▁tam": 1889,
      "▁quack": 1890,
      "▁pride": 1891,
      "▁specify": 1892,
      "▁offering": 1893,
      "▁doing": 1894,
      "▁driving": 1895,
      "▁limous": 1896,
      "▁spre": 1897,
      "▁sit": 1898,
      "▁quest": 1899,
      "▁7": 1900,
      "chen": 1901,
      "attle": 1902,
      "alization": 1903,
      "▁cred": 1904,
      "▁climbing": 1905,
      "▁nap": 1906,
      "uations": 1907,
      "▁voices": 1908,
      "uum": 1909,
      "▁importance": 1910,
      "rif": 1911,
      "▁proble": 1912,
      "▁dri": 1913,
      "▁voted": 1914,
      "▁posted": 1915,
      "▁applies": 1916,
      "▁appreciate": 1917,
      "▁sale": 1918,
      "ership": 1919,
      "elly": 1920,
      "ified": 1921,
      "▁'re": 1922,
      "eline": 1923,
      "▁regar": 1924,
      "▁knowledge": 1925,
      "▁moves": 1926,
      "▁miles": 1927,
      "▁diseases": 1928,
      "▁represented": 1929,
      "▁kittens": 1930,
      "▁probably": 1931,
      "▁adopt": 1932,
      "▁personal": 1933,
      "▁emer": 1934,
      "▁num": 1935,
      "mar": 1936,
      "▁deal": 1937,
      "▁fail": 1938,
      "▁conde": 1939,
      "▁tourism": 1940,
      "▁flood": 1941,
      "load": 1942,
      "▁records": 1943,
      "~": 1944,
      "▁lots": 1945,
      "▁belly": 1946,
      "▁corpor": 1947,
      "goti": 1948,
      "tity": 1949,
      "▁missing": 1950,
      "▁pressure": 1951,
      "▁4": 1952,
      "▁calls": 1953,
      "▁identifies": 1954,
      "****": 1955,
      "▁entered": 1956,
      "▁fair": 1957,
      "▁attacks": 1958,
      "▁satel": 1959,
      "▁admin": 1960,
      "▁first": 1961,
      "▁notwithstanding": 1962,
      "▁sel": 1963,
      "▁dried": 1964,
      "ana": 1965,
      "▁represent": 1966,
      "▁citizens": 1967,
      "cularly": 1968,
      "makers": 1969,
      "orities": 1970,
      "▁ship": 1971,
      "tsbur": 1972,
      "ery": 1973,
      "els": 1974,
      "▁departing": 1975,
      "▁jo": 1976,
      "unct": 1977,
      "▁comple": 1978,
      "▁looked": 1979,
      "▁humanity": 1980,
      "▁gath": 1981,
      "▁suck": 1982,
      "▁pipeline": 1983,
      "▁theat": 1984,
      "ctions": 1985,
      "▁interviewed": 1986,
      "adel": 1987,
      "▁mayonna": 1988,
      "▁operations": 1989,
      "▁were": 1990,
      "▁coincidence": 1991,
      "ger": 1992,
      "▁class": 1993,
      "crib": 1994,
      "▁cabinet": 1995,
      "▁:": 1996,
      "issions": 1997,
      "unction": 1998,
      "▁sto": 1999,
      "▁avoiding": 2000,
      "▁about": 2001,
      "▁election": 2002,
      "▁beaches": 2003,
      "ros": 2004,
      "<": 2005,
      "ost": 2006,
      "ew": 2007,
      "▁gon": 2008,
      "▁range": 2009,
      "▁signature": 2010,
      "▁proced": 2011,
      "▁pix": 2012,
      "▁went": 2013,
      "▁langu": 2014,
      "▁potential": 2015,
      "????": 2016,
      "tors": 2017,
      "▁fruit": 2018,
      "▁months": 2019,
      "▁fer": 2020,
      "▁occasions": 2021,
      "▁-----": 2022,
      "▁soon": 2023,
      "rops": 2024,
      "▁explan": 2025,
      "▁stress": 2026,
      "▁slept": 2027,
      "▁paris": 2028,
      "▁landed": 2029,
      "▁patients": 2030,
      "▁feels": 2031,
      "agraph": 2032,
      "▁kidding": 2033,
      "▁requirement": 2034,
      "lan": 2035,
      "▁rescue": 2036,
      "▁silver": 2037,
      "▁places": 2038,
      "ously": 2039,
      "▁staring": 2040,
      "arks": 2041,
      "▁hoc": 2042,
      "▁nothing": 2043,
      "▁constit": 2044,
      "placement": 2045,
      "▁wednesday": 2046,
      "ema": 2047,
      "▁yoy": 2048,
      "▁behind": 2049,
      "▁fish": 2050,
      "▁tax": 2051,
      "▁ide": 2052,
      "med": 2053,
      "▁factory": 2054,
      "▁ones": 2055,
      "ights": 2056,
      "▁era": 2057,
      "▁families": 2058,
      "▁allocated": 2059,
      "▁restri": 2060,
      "gery": 2061,
      "▁build": 2062,
      "▁consc": 2063,
      "▁smile": 2064,
      "▁dav": 2065,
      "vailable": 2066,
      "▁concre": 2067,
      "▁regarded": 2068,
      "▁drank": 2069,
      "▁lips": 2070,
      "▁turkey": 2071,
      "eness": 2072,
      "▁cali": 2073,
      "acted": 2074,
      "ended": 2075,
      "▁revealed": 2076,
      "▁assuming": 2077,
      "▁falls": 2078,
      "▁librarians": 2079,
      "▁tug": 2080,
      "▁developer": 2081,
      "▁court": 2082,
      "▁sett": 2083,
      "▁involving": 2084,
      "ish": 2085,
      "ograph": 2086,
      "▁struggle": 2087,
      "ld": 2088,
      "ency": 2089,
      "isl": 2090,
      "*": 2091,
      "gging": 2092,
      "▁face": 2093,
      "▁finish": 2094,
      "▁upd": 2095,
      "▁no": 2096,
      "▁stair": 2097,
      ".s": 2098,
      "hood": 2099,
      "▁sust": 2100,
      "▁talking": 2101,
      "ors": 2102,
      "▁mention": 2103,
      "▁been": 2104,
      "▁&am": 2105,
      "▁mul": 2106,
      "▁mode": 2107,
      "ex": 2108,
      "▁earthqu": 2109,
      "▁waste": 2110,
      "▁dep": 2111,
      "▁income": 2112,
      "▁tr": 2113,
      "laim": 2114,
      "▁performing": 2115,
      "▁stones": 2116,
      "▁kick": 2117,
      "▁confirmed": 2118,
      "▁washed": 2119,
      "▁oper": 2120,
      "▁puzzle": 2121,
      "uled": 2122,
      "▁wave": 2123,
      "▁told": 2124,
      "▁pizza": 2125,
      "▁opportun": 2126,
      "▁situations": 2127,
      "▁caused": 2128,
      "▁underst": 2129,
      "▁philosophy": 2130,
      "itt": 2131,
      "▁arriving": 2132,
      "▁farrier": 2133,
      "▁dinner": 2134,
      "▁artworks": 2135,
      "band": 2136,
      "ober": 2137,
      "▁summ": 2138,
      "▁two": 2139,
      "▁puppy": 2140,
      "▁i": 2141,
      "pite": 2142,
      "▁incen": 2143,
      "aly": 2144,
      "inating": 2145,
      "ave": 2146,
      "iac": 2147,
      "▁trav": 2148,
      "▁suggestions": 2149,
      "▁extent": 2150,
      "rors": 2151,
      "[MASK]": 2152,
      "▁finger": 2153,
      "▁tel": 2154,
      "▁plastic": 2155,
      "▁qaeda": 2156,
      "0s": 2157,
      "▁milk": 2158,
      "▁doubt": 2159,
      "▁poems": 2160,
      "▁studio": 2161,
      "▁says": 2162,
      "ruption": 2163,
      "▁cold": 2164,
      "ousness": 2165,
      "▁teachers": 2166,
      "ilar": 2167,
      "▁rise": 2168,
      "▁confidentiality": 2169,
      "ity": 2170,
      "▁derived": 2171,
      "thers": 2172,
      "▁shops": 2173,
      "ication": 2174,
      "▁medicine": 2175,
      "▁gang": 2176,
      "▁tou": 2177,
      "eeds": 2178,
      "▁tolerate": 2179,
      "eng": 2180,
      "uis": 2181,
      "inter": 2182,
      "cre": 2183,
      "ization": 2184,
      "▁overcome": 2185,
      "cl": 2186,
      "▁oatmeal": 2187,
      "▁menu": 2188,
      "oods": 2189,
      "▁sky": 2190,
      "▁good": 2191,
      "zac": 2192,
      "▁daughter": 2193,
      "▁anthrax": 2194,
      "▁sweater": 2195,
      "-1.doc": 2196,
      "▁roared": 2197,
      "ress": 2198,
      "▁cost": 2199,
      "vements": 2200,
      "▁[...]": 2201,
      "ilosoph": 2202,
      "omination": 2203,
      "▁bulb": 2204,
      "itch": 2205,
      "▁forest": 2206,
      "ield": 2207,
      "▁count": 2208,
      "▁play+": 2209,
      "ful": 2210,
      "▁follow": 2211,
      "▁doggie": 2212,
      "▁makes": 2213,
      "bs": 2214,
      "▁eff": 2215,
      "lication": 2216,
      "lled": 2217,
      "▁guil": 2218,
      "▁drawer": 2219,
      "▁mass": 2220,
      "ney": 2221,
      "ecks": 2222,
      "▁miami": 2223,
      "▁alligator": 2224,
      "faction": 2225,
      "▁it": 2226,
      "▁game": 2227,
      "▁ben": 2228,
      "whether": 2229,
      "▁invite": 2230,
      "▁du": 2231,
      "▁cash": 2232,
      "▁requiring": 2233,
      "▁nat": 2234,
      "tile": 2235,
      "▁scen": 2236,
      "ieties": 2237,
      "ta": 2238,
      "▁furn": 2239,
      "able": 2240,
      "bol": 2241,
      "-d": 2242,
      "iel": 2243,
      "▁resul": 2244,
      "▁package": 2245,
      "▁hanging": 2246,
      "▁classroom": 2247,
      "▁increase": 2248,
      "▁quick": 2249,
      "ia": 2250,
      "ance": 2251,
      "▁cigar": 2252,
      "me": 2253,
      "inging": 2254,
      "▁acquis": 2255,
      "iron": 2256,
      "▁mom": 2257,
      "▁floor": 2258,
      "▁pool": 2259,
      "itled": 2260,
      "▁spear": 2261,
      "▁priorities": 2262,
      "▁sour": 2263,
      "▁inh": 2264,
      "▁context": 2265,
      "▁prote": 2266,
      "eet": 2267,
      "▁prop": 2268,
      "op": 2269,
      "▁identifying": 2270,
      "asp": 2271,
      "▁sentence": 2272,
      "▁extend": 2273,
      "ertainly": 2274,
      "ings": 2275,
      "▁cat": 2276,
      "▁’d": 2277,
      "ix": 2278,
      "▁speech": 2279,
      "rows": 2280,
      "▁regions": 2281,
      "▁achieving": 2282,
      "▁bumble": 2283,
      "owl": 2284,
      "▁ate": 2285,
      "yn": 2286,
      "▁permission": 2287,
      "▁coupons": 2288,
      "▁gcp": 2289,
      "oxide": 2290,
      "veland": 2291,
      "▁jam": 2292,
      "hus": 2293,
      "rup": 2294,
      "▁com": 2295,
      "▁mornings": 2296,
      "▁regarding": 2297,
      "▁fighting": 2298,
      "▁defense": 2299,
      "▁mines": 2300,
      "rou": 2301,
      "▁pretend": 2302,
      "▁submit": 2303,
      "▁mark": 2304,
      "right": 2305,
      "▁liked": 2306,
      "▁friendship": 2307,
      "▁impl": 2308,
      "▁discussed": 2309,
      "▁introduc": 2310,
      "▁weather": 2311,
      "▁sun": 2312,
      "▁ju": 2313,
      "usion": 2314,
      "sul": 2315,
      "▁guid": 2316,
      "▁bang": 2317,
      "▁move": 2318,
      "▁dealing": 2319,
      "-": 2320,
      "▁never": 2321,
      "▁arrives": 2322,
      "ina": 2323,
      "▁watch": 2324,
      "▁quite": 2325,
      "phis": 2326,
      "▁tv": 2327,
      "▁hey": 2328,
      "ww": 2329,
      "▁administr": 2330,
      "▁beings": 2331,
      "▁ru": 2332,
      "▁chec": 2333,
      "▁forwarded": 2334,
      "cend": 2335,
      "▁collection": 2336,
      "▁jih": 2337,
      "ur": 2338,
      "▁le": 2339,
      "▁everyone": 2340,
      "▁deny": 2341,
      "eared": 2342,
      "▁our": 2343,
      "▁awarded": 2344,
      "▁install": 2345,
      "▁recommended": 2346,
      "▁infr": 2347,
      "▁leadership": 2348,
      "▁foreign": 2349,
      "▁present": 2350,
      "▁20": 2351,
      "▁appro": 2352,
      "▁coat": 2353,
      "▁movements": 2354,
      "▁citi": 2355,
      "ens": 2356,
      "ef": 2357,
      "ingly": 2358,
      "ock": 2359,
      "▁political": 2360,
      "▁hun": 2361,
      "▁signing": 2362,
      "low": 2363,
      "▁complaint": 2364,
      "▁champ": 2365,
      "▁worksh": 2366,
      "▁waiver": 2367,
      "'": 2368,
      "▁flu": 2369,
      "▁dollar": 2370,
      "ressing": 2371,
      "▁stars": 2372,
      "vely": 2373,
      "▁": 2374,
      "▁macaroni": 2375,
      "▁buttons": 2376,
      "▁jwww": 2377,
      "▁ang": 2378,
      "▁interviews": 2379,
      "▁argue": 2380,
      "▁rubber": 2381,
      "inated": 2382,
      "▁tonight": 2383,
      "▁leave": 2384,
      "one": 2385,
      "▁step": 2386,
      "ffic": 2387,
      "▁theories": 2388,
      "▁permitted": 2389,
      "▁iss": 2390,
      "▁swimming": 2391,
      "▁microscope": 2392,
      "▁side": 2393,
      "▁allig": 2394,
      "▁behalf": 2395,
      "▁wondered": 2396,
      "▁refri": 2397,
      "ian": 2398,
      "▁bite": 2399,
      "▁selected": 2400,
      "▁cleaned": 2401,
      "oul": 2402,
      "▁hole": 2403,
      "▁evenings": 2404,
      "▁hire": 2405,
      "▁affairs": 2406,
      "nce": 2407,
      "▁bench": 2408,
      "▁cal": 2409,
      "▁relationship": 2410,
      "ican": 2411,
      "▁guessed": 2412,
      "▁ab": 2413,
      "▁mas": 2414,
      "▁audience": 2415,
      "avery": 2416,
      "▁cop": 2417,
      "▁extr": 2418,
      "▁c": 2419,
      "▁exp": 2420,
      "▁cookie": 2421,
      "▁tur": 2422,
      "▁responded": 2423,
      "uc": 2424,
      "▁returned": 2425,
      "ister": 2426,
      "▁guar": 2427,
      "▁dall": 2428,
      "he": 2429,
      "▁speaking": 2430,
      "▁gel": 2431,
      "▁provided": 2432,
      "worms": 2433,
      "uality": 2434,
      "▁birth": 2435,
      "▁taught": 2436,
      "▁manip": 2437,
      "imum": 2438,
      "▁welcome": 2439,
      "▁shark": 2440,
      "▁downtown": 2441,
      "▁zone": 2442,
      "utation": 2443,
      "▁ins": 2444,
      "▁welfare": 2445,
      "▁extremely": 2446,
      "▁what": 2447,
      "▁av": 2448,
      "▁noise": 2449,
      "▁window": 2450,
      "▁experim": 2451,
      "▁becom": 2452,
      "ansas": 2453,
      "ak": 2454,
      "▁nation": 2455,
      "▁met": 2456,
      "▁camel": 2457,
      "▁eating": 2458,
      "????????????????": 2459,
      "inction": 2460,
      "▁begin": 2461,
      "▁m": 2462,
      "▁glo": 2463,
      "▁failed": 2464,
      "ict": 2465,
      "▁friendly": 2466,
      "▁tens": 2467,
      "▁thinks": 2468,
      "▁crash": 2469,
      "▁measures": 2470,
      "▁ports": 2471,
      "ods": 2472,
      "▁lantern": 2473,
      "ption": 2474,
      "▁theirs": 2475,
      "▁201": 2476,
      "▁novel": 2477,
      "au": 2478,
      "▁int": 2479,
      "▁magic": 2480,
      "▁alongside": 2481,
      "▁pled": 2482,
      "ili": 2483,
      "▁funny": 2484,
      "▁becoming": 2485,
      "▁week": 2486,
      "▁mystery": 2487,
      "▁agent": 2488,
      "▁loans": 2489,
      "▁blink": 2490,
      "▁browser": 2491,
      "▁parents": 2492,
      "ception": 2493,
      "▁por": 2494,
      "where": 2495,
      "▁blanket": 2496,
      "▁battle": 2497,
      "▁atop": 2498,
      "▁realized": 2499,
      "▁bone": 2500,
      "▁artwork": 2501,
      "▁third": 2502,
      "▁gains": 2503,
      "▁perhap": 2504,
      "▁eye": 2505,
      "▁mosquito": 2506,
      "ship": 2507,
      "▁strip": 2508,
      "hib": 2509,
      "▁individuals": 2510,
      "▁st": 2511,
      "▁invented": 2512,
      "▁serve": 2513,
      "▁include": 2514,
      "▁jelly": 2515,
      "▁indian": 2516,
      "▁vend": 2517,
      "▁es": 2518,
      "▁pulled": 2519,
      "▁researchers": 2520,
      "▁discovery": 2521,
      "▁experiment": 2522,
      "ø": 2523,
      "▁recognition": 2524,
      "ore": 2525,
      "▁presence": 2526,
      "▁depos": 2527,
      "irst": 2528,
      "**": 2529,
      "▁during": 2530,
      "vening": 2531,
      "▁dentist": 2532,
      "bb": 2533,
      "tives": 2534,
      "▁screw": 2535,
      "▁anoth": 2536,
      "▁rapporte": 2537,
      "▁guarantee": 2538,
      "▁steps": 2539,
      "▁salon": 2540,
      "-1": 2541,
      "▁change": 2542,
      "earance": 2543,
      "▁banan": 2544,
      "▁kissed": 2545,
      "▁cros": 2546,
      "gg": 2547,
      "▁cand": 2548,
      "▁shakespeare": 2549,
      "lar": 2550,
      "▁vote": 2551,
      "kin": 2552,
      "▁space": 2553,
      "▁ob": 2554,
      "ade": 2555,
      "▁preserved": 2556,
      "sually": 2557,
      "▁w": 2558,
      "irl": 2559,
      "▁trial": 2560,
      "▁circum": 2561,
      "▁shoo": 2562,
      "▁·": 2563,
      "▁duck": 2564,
      "bit": 2565,
      "▁defend": 2566,
      "▁own": 2567,
      "▁supported": 2568,
      "▁ability": 2569,
      "▁advise": 2570,
      "spite": 2571,
      "ching": 2572,
      "▁.?": 2573,
      "▁emp": 2574,
      "▁stick": 2575,
      "▁scored": 2576,
      "▁der": 2577,
      "▁others": 2578,
      "▁'s": 2579,
      "▁depend": 2580,
      "º": 2581,
      "▁outcome": 2582,
      "▁army": 2583,
      "▁prepare": 2584,
      "▁registered": 2585,
      "▁fiction": 2586,
      "▁---------------------------------------------------------------------": 2587,
      "▁further": 2588,
      "sh": 2589,
      "ym": 2590,
      "ult": 2591,
      "▁received": 2592,
      ";": 2593,
      "▁prison": 2594,
      "agement": 2595,
      "▁de": 2596,
      "▁failure": 2597,
      "quis": 2598,
      "ultural": 2599,
      "▁pops": 2600,
      "▁fant": 2601,
      "aff": 2602,
      "▁supermar": 2603,
      "oving": 2604,
      "▁indic": 2605,
      "▁argument": 2606,
      "▁accept": 2607,
      "▁advantage": 2608,
      "▁ring": 2609,
      "▁foc": 2610,
      "▁snake": 2611,
      "▁18": 2612,
      "▁dail": 2613,
      "▁coinc": 2614,
      "ass": 2615,
      "------": 2616,
      "==": 2617,
      "▁found": 2618,
      "▁tells": 2619,
      "▁rene": 2620,
      "▁by": 2621,
      "ied": 2622,
      "▁collect": 2623,
      "▁welc": 2624,
      "tles": 2625,
      "▁scribble": 2626,
      "▁schema": 2627,
      "▁robo": 2628,
      "▁tunnel": 2629,
      "▁trees": 2630,
      "▁stic": 2631,
      "▁continu": 2632,
      "▁suffering": 2633,
      "▁medium": 2634,
      "▁family": 2635,
      "uzz": 2636,
      "▁yog": 2637,
      "▁sandwic": 2638,
      "▁tested": 2639,
      "▁upside": 2640,
      "▁pe": 2641,
      "▁arrange": 2642,
      "▁amer": 2643,
      "▁birthday": 2644,
      "▁belongs": 2645,
      "anded": 2646,
      "▁priest": 2647,
      "▁rest": 2648,
      "▁cats": 2649,
      "unc": 2650,
      "▁locked": 2651,
      "▁there": 2652,
      "bo": 2653,
      "▁kit": 2654,
      "ient": 2655,
      "▁shad": 2656,
      "wn": 2657,
      "▁comp": 2658,
      "▁hes": 2659,
      "▁demon": 2660,
      "ination": 2661,
      "s.": 2662,
      "▁strain": 2663,
      "asa": 2664,
      "ract": 2665,
      "▁grand": 2666,
      "ted": 2667,
      "▁endeav": 2668,
      "▁---": 2669,
      "rog": 2670,
      "▁one": 2671,
      "▁bad": 2672,
      "▁rot": 2673,
      "▁bic": 2674,
      "▁interpreted": 2675,
      "▁temperatures": 2676,
      "ɛ": 2677,
      "▁sur": 2678,
      "▁implement": 2679,
      "▁witch": 2680,
      "▁_____": 2681,
      "▁computer": 2682,
      "ro": 2683,
      "▁preven": 2684,
      "oked": 2685,
      "inks": 2686,
      "▁season": 2687,
      "▁london": 2688,
      "▁rad": 2689,
      "p": 2690,
      "▁consu": 2691,
      "▁fuel": 2692,
      "▁rental": 2693,
      "ude": 2694,
      "▁emb": 2695,
      "▁conclude": 2696,
      "▁pointed": 2697,
      "▁economy": 2698,
      "▁’s": 2699,
      "▁traders": 2700,
      "▁combination": 2701,
      "▁marketing": 2702,
      "▁worry": 2703,
      "▁buck": 2704,
      "▁poster": 2705,
      "▁deployed": 2706,
      "▁candidate": 2707,
      "▁evac": 2708,
      "▁banj": 2709,
      "▁implemented": 2710,
      "▁e-m": 2711,
      "▁themes": 2712,
      "ville": 2713,
      "▁bunch": 2714,
      "▁cup": 2715,
      "ulf": 2716,
      "▁strawberry": 2717,
      "▁adver": 2718,
      "▁recording": 2719,
      "▁percent": 2720,
      "▁recomm": 2721,
      "▁chair": 2722,
      "▁agencies": 2723,
      "▁mid-": 2724,
      "▁hill": 2725,
      "▁eng": 2726,
      "▁mike": 2727,
      "▁seized": 2728,
      "eting": 2729,
      "▁loo": 2730,
      "▁traditions": 2731,
      "▁warning": 2732,
      "▁vendors": 2733,
      "▁vehic": 2734,
      "▁table": 2735,
      "▁require": 2736,
      "▁evaluation": 2737,
      "▁particip": 2738,
      "▁results": 2739,
      "▁resulted": 2740,
      "▁beyond": 2741,
      "▁origin": 2742,
      "▁level": 2743,
      "▁birds": 2744,
      "▁performances": 2745,
      "▁psychology": 2746,
      "▁wat": 2747,
      "▁post": 2748,
      "▁version": 2749,
      "▁episode": 2750,
      "▁clock": 2751,
      "▁star": 2752,
      "▁tours": 2753,
      "▁concluded": 2754,
      "▁soup": 2755,
      "90s": 2756,
      "▁cutting": 2757,
      "▁former": 2758,
      "▁petersburg": 2759,
      "▁tape": 2760,
      "▁gi": 2761,
      "▁mer": 2762,
      "▁operate": 2763,
      "ections": 2764,
      "▁documents": 2765,
      "▁poor": 2766,
      "ite": 2767,
      "▁fit": 2768,
      "▁ask": 2769,
      "▁users": 2770,
      "ince": 2771,
      "▁encour": 2772,
      "▁hon": 2773,
      "▁murders": 2774,
      "▁master": 2775,
      "▁statements": 2776,
      "ils": 2777,
      "▁id": 2778,
      "▁..": 2779,
      "nels": 2780,
      "▁along": 2781,
      "▁passion": 2782,
      "▁card": 2783,
      "onna": 2784,
      "eep": 2785,
      "enty": 2786,
      "▁guard": 2787,
      "na": 2788,
      "▁charm": 2789,
      "emb": 2790,
      "pt": 2791,
      "▁instructions": 2792,
      "▁attitudes": 2793,
      "▁procedure": 2794,
      "▁arr": 2795,
      "▁strategy": 2796,
      "ential": 2797,
      "struc": 2798,
      "▁doughnut": 2799,
      "fl": 2800,
      "▁pledged": 2801,
      "▁monarch": 2802,
      "▁goes": 2803,
      "▁intelligence": 2804,
      "▁plane": 2805,
      "▁lifted": 2806,
      "▁mirror": 2807,
      "▁through": 2808,
      "▁suff": 2809,
      "▁hope": 2810,
      "▁banks": 2811,
      "▁chick": 2812,
      "ceed": 2813,
      "▁reducing": 2814,
      "▁cream": 2815,
      "▁shares": 2816,
      "▁lun": 2817,
      "▁tow": 2818,
      "ceptions": 2819,
      "nis": 2820,
      "▁washing": 2821,
      "▁magazine": 2822,
      "▁though": 2823,
      "gr": 2824,
      "▁truth": 2825,
      "▁acquired": 2826,
      "enda": 2827,
      "▁managers": 2828,
      "▁nine": 2829,
      "▁programmes": 2830,
      "▁prove": 2831,
      "elf": 2832,
      "▁towns": 2833,
      "▁dragged": 2834,
      "▁guys": 2835,
      "com": 2836,
      "▁lea": 2837,
      "acle": 2838,
      "▁females": 2839,
      "▁analysts": 2840,
      "lando": 2841,
      "both": 2842,
      "▁sugges": 2843,
      "▁bottom": 2844,
      "▁crime": 2845,
      "-w": 2846,
      "▁knee": 2847,
      "▁law": 2848,
      "▁record": 2849,
      "▁prayer": 2850,
      "▁ml": 2851,
      "▁counterpar": 2852,
      "ued": 2853,
      "▁intervention": 2854,
      "▁approve": 2855,
      "▁arts": 2856,
      "▁station": 2857,
      "▁status": 2858,
      "aur": 2859,
      "▁risk": 2860,
      "▁enemy": 2861,
      "▁taxes": 2862,
      "une": 2863,
      "▁running": 2864,
      "▁assured": 2865,
      "▁tab": 2866,
      "issors": 2867,
      "vement": 2868,
      "▁agreed": 2869,
      "▁weapon": 2870,
      "▁fo": 2871,
      "▁assault": 2872,
      "▁sales": 2873,
      "▁greetings": 2874,
      "▁island": 2875,
      "▁assoc": 2876,
      "if": 2877,
      "kn": 2878,
      "use": 2879,
      "▁narr": 2880,
      "erences": 2881,
      "/200": 2882,
      "dle": 2883,
      "▁equip": 2884,
      "▁catch": 2885,
      "▁univers": 2886,
      "to": 2887,
      "ury": 2888,
      "atisfaction": 2889,
      "ords": 2890,
      "▁trag": 2891,
      "▁selling": 2892,
      "ligence": 2893,
      "▁enjoying": 2894,
      "▁dun": 2895,
      "▁information": 2896,
      "▁vision": 2897,
      "▁verse": 2898,
      "▁equ": 2899,
      "▁directive": 2900,
      "ickness": 2901,
      "▁temples": 2902,
      "0's": 2903,
      "enef": 2904,
      "▁hurts": 2905,
      "do": 2906,
      "▁reas": 2907,
      "uring": 2908,
      "▁artic": 2909,
      "sm": 2910,
      "▁hay": 2911,
      "▁philadelphia": 2912,
      "ience": 2913,
      "▁europe": 2914,
      "▁someth": 2915,
      "▁common": 2916,
      "▁carbon": 2917,
      "▁a": 2918,
      "▁bat": 2919,
      "▁depends": 2920,
      "▁stories": 2921,
      "igh": 2922,
      "▁investment": 2923,
      "▁break": 2924,
      "ph": 2925,
      "▁tool": 2926,
      "▁crawl": 2927,
      "▁ev": 2928,
      "▁currency": 2929,
      "▁set": 2930,
      "orm": 2931,
      "▁shakes": 2932,
      "▁directed": 2933,
      "▁attracted": 2934,
      "▁messages": 2935,
      "▁sounded": 2936,
      "▁lasted": 2937,
      "abit": 2938,
      "▁]": 2939,
      "▁perceived": 2940,
      "▁grav": 2941,
      "▁every": 2942,
      "▁trash": 2943,
      "▁aunt": 2944,
      "▁particular": 2945,
      "iece": 2946,
      "hered": 2947,
      "▁loan": 2948,
      "ike": 2949,
      "▁explain": 2950,
      "▁incom": 2951,
      "owers": 2952,
      "▁diapers": 2953,
      "▁payments": 2954,
      "▁made": 2955,
      "▁belt": 2956,
      "keys": 2957,
      "▁lobby": 2958,
      "▁soldiers": 2959,
      "▁right": 2960,
      "onom": 2961,
      "▁quality": 2962,
      "▁music": 2963,
      "▁magn": 2964,
      "▁alar": 2965,
      "▁forgotten": 2966,
      "▁send": 2967,
      "▁slope": 2968,
      "▁markets": 2969,
      "▁trans": 2970,
      "|": 2971,
      "▁fate": 2972,
      "▁memoir": 2973,
      "▁mou": 2974,
      "▁suicide": 2975,
      "ploy": 2976,
      "▁kansas": 2977,
      "actions": 2978,
      "▁lion": 2979,
      "▁school": 2980,
      "▁wiki": 2981,
      "▁highl": 2982,
      "ior": 2983,
      "tride": 2984,
      "▁setup": 2985,
      "▁'em": 2986,
      "▁mult": 2987,
      "asters": 2988,
      "▁qa": 2989,
      "▁did": 2990,
      "irc": 2991,
      "ount": 2992,
      "ided": 2993,
      "▁officials": 2994,
      "ations": 2995,
      "▁linked": 2996,
      "▁ever": 2997,
      "fort": 2998,
      "▁horses": 2999,
      "▁chan": 3000,
      "▁nor": 3001,
      "▁technology": 3002,
      "▁propaganda": 3003,
      "▁profit": 3004,
      "epend": 3005,
      "ov": 3006,
      "umes": 3007,
      "fir": 3008,
      "▁planet": 3009,
      "▁fire": 3010,
      "▁waited": 3011,
      "are": 3012,
      "▁things": 3013,
      "▁farm": 3014,
      "▁signed": 3015,
      "▁accomp": 3016,
      "▁walking": 3017,
      "▁hearing": 3018,
      "▁ad": 3019,
      "▁harry": 3020,
      "▁george": 3021,
      "▁.": 3022,
      "▁friday": 3023,
      "xim": 3024,
      "▁paragraph": 3025,
      "▁management": 3026,
      "▁generators": 3027,
      "li": 3028,
      "▁necess": 3029,
      "▁stopped": 3030,
      "▁compete": 3031,
      "▁attention": 3032,
      "▁decided": 3033,
      "▁actor": 3034,
      "rely": 3035,
      "▁shower": 3036,
      "namon": 3037,
      "9": 3038,
      "▁offici": 3039,
      "▁holds": 3040,
      "anted": 3041,
      "▁sew": 3042,
      "yr": 3043,
      "▁struc": 3044,
      "▁boo": 3045,
      "▁pair": 3046,
      "▁wilt": 3047,
      "▁searching": 3048,
      "dered": 3049,
      "▁yesterday": 3050,
      "▁pretending": 3051,
      "▁bom": 3052,
      "▁treat": 3053,
      "▁doors": 3054,
      "▁collecting": 3055,
      "st": 3056,
      "lights": 3057,
      "▁litt": 3058,
      "osed": 3059,
      "▁games": 3060,
      "▁rom": 3061,
      "▁confid": 3062,
      "▁changed": 3063,
      "▁lady": 3064,
      "▁line": 3065,
      "▁flow": 3066,
      "▁evening": 3067,
      "▁courses": 3068,
      "ook": 3069,
      "▁cracker": 3070,
      "▁repres": 3071,
      "▁colle": 3072,
      "▁retired": 3073,
      "▁rece": 3074,
      "▁violence": 3075,
      "▁code": 3076,
      "▁claim": 3077,
      "▁cous": 3078,
      "▁soldier": 3079,
      "▁charged": 3080,
      "▁understanding": 3081,
      "▁store": 3082,
      "▁gender": 3083,
      "▁sk": 3084,
      "▁crush": 3085,
      "▁less": 3086,
      "▁location": 3087,
      "▁teasp": 3088,
      "▁wou": 3089,
      "▁pasta": 3090,
      "af": 3091,
      "▁refers": 3092,
      "▁micro": 3093,
      "▁tot": 3094,
      "▁ou": 3095,
      "▁consideration": 3096,
      "ret": 3097,
      "▁suppose": 3098,
      "▁ginger": 3099,
      "▁girl": 3100,
      "▁wolves": 3101,
      "▁bee": 3102,
      "..": 3103,
      "lu": 3104,
      "raction": 3105,
      "▁bring": 3106,
      "▁standards": 3107,
      "▁pract": 3108,
      "otte": 3109,
      "▁daddy": 3110,
      "▁bron": 3111,
      "▁reading": 3112,
      "%": 3113,
      "▁obt": 3114,
      "▁idea": 3115,
      "▁illust": 3116,
      "▁attacked": 3117,
      "ito": 3118,
      "▁motiv": 3119,
      "▁want": 3120,
      "▁factor": 3121,
      "▁particularly": 3122,
      "▁introduced": 3123,
      "▁transform": 3124,
      "cle": 3125,
      "▁shit": 3126,
      "lities": 3127,
      "▁four": 3128,
      "ax": 3129,
      "▁parties": 3130,
      "▁displayed": 3131,
      "▁lived": 3132,
      "pr": 3133,
      "▁k": 3134,
      "hip": 3135,
      "▁aft": 3136,
      "ends": 3137,
      "ars": 3138,
      "▁dad": 3139,
      "ocado": 3140,
      "ybody": 3141,
      "ants": 3142,
      "▁expertise": 3143,
      "▁religion": 3144,
      "ancers": 3145,
      "▁co": 3146,
      "w": 3147,
      "▁founded": 3148,
      "▁skip": 3149,
      "ɔ": 3150,
      "▁wear": 3151,
      "▁assessment": 3152,
      "idence": 3153,
      "▁shar": 3154,
      "▁pas": 3155,
      "▁prices": 3156,
      "▁phot": 3157,
      "▁damage": 3158,
      "fts": 3159,
      "▁soccer": 3160,
      "▁rev": 3161,
      "▁night": 3162,
      "▁hr": 3163,
      "▁respect": 3164,
      "te": 3165,
      "▁daily": 3166,
      "▁ren": 3167,
      "▁reproduc": 3168,
      "auc": 3169,
      "▁experien": 3170,
      "▁responses": 3171,
      "▁ble": 3172,
      "▁bac": 3173,
      "▁offer": 3174,
      "▁str": 3175,
      "▁purposes": 3176,
      "ool": 3177,
      "acy": 3178,
      "▁autumn": 3179,
      "=": 3180,
      "▁philosoph": 3181,
      "▁def": 3182,
      "be": 3183,
      "▁al": 3184,
      "▁conclusion": 3185,
      "▁weekends": 3186,
      "▁full": 3187,
      "orti": 3188,
      "▁gained": 3189,
      "▁hung": 3190,
      "▁coming": 3191,
      "▁motion": 3192,
      "▁earliest": 3193,
      "orts": 3194,
      "▁seam": 3195,
      "▁cele": 3196,
      "[UNK]": 3197,
      "▁being": 3198,
      "her": 3199,
      "hold": 3200,
      "▁teach": 3201,
      "▁ozone": 3202,
      "ern": 3203,
      "▁happened": 3204,
      "▁continuing": 3205,
      "▁hate": 3206,
      "▁major": 3207,
      "▁elevator": 3208,
      "▁incorp": 3209,
      "▁complex": 3210,
      "▁reviewed": 3211,
      "▁sus": 3212,
      "▁areas": 3213,
      "▁assist": 3214,
      "▁numerous": 3215,
      "▁texts": 3216,
      "r.": 3217,
      "▁else": 3218,
      "▁presents": 3219,
      "tainty": 3220,
      "ibilities": 3221,
      "inal": 3222,
      "▁trying": 3223,
      "mate": 3224,
      "▁shot": 3225,
      "cape": 3226,
      "▁weeks": 3227,
      "off": 3228,
      "▁height": 3229,
      "hap": 3230,
      "▁10": 3231,
      "ensity": 3232,
      "▁'d": 3233,
      "ily": 3234,
      "▁1": 3235,
      "▁consumption": 3236,
      "plan": 3237,
      "▁showing": 3238,
      "olis": 3239,
      "▁served": 3240,
      "▁trader": 3241,
      "eces": 3242,
      "▁closing": 3243,
      "▁high": 3244,
      "▁ki": 3245,
      "gu": 3246,
      "▁pursue": 3247,
      "lity": 3248,
      "▁till": 3249,
      "▁appe": 3250,
      "▁inhabit": 3251,
      "▁lifesty": 3252,
      "▁resistance": 3253,
      "▁arti": 3254,
      "▁transf": 3255,
      "▁***": 3256,
      "▁trade": 3257,
      "▁facing": 3258,
      "eros": 3259,
      "▁putting": 3260,
      "vest": 3261,
      "▁visited": 3262,
      "mal": 3263,
      "▁wheat": 3264,
      "ick": 3265,
      "ping": 3266,
      "fications": 3267,
      "▁just": 3268,
      "▁pockets": 3269,
      "▁femur": 3270,
      "oney": 3271,
      "▁foot": 3272,
      "▁seesaw": 3273,
      "ellow": 3274,
      "▁past": 3275,
      "▁tickets": 3276,
      "▁hedge": 3277,
      "▁tic": 3278,
      "▁cray": 3279,
      "▁occas": 3280,
      "▁stud": 3281,
      "iew": 3282,
      "▁)": 3283,
      "ufact": 3284,
      "▁retail": 3285,
      "mpl": 3286,
      "▁instruc": 3287,
      "`": 3288,
      "b": 3289,
      "▁modify": 3290,
      "▁attem": 3291,
      "▁une": 3292,
      "▁office": 3293,
      "▁struck": 3294,
      "▁woud": 3295,
      "iration": 3296,
      "▁breathe": 3297,
      "▁reminder": 3298,
      "ouch": 3299,
      "▁forget": 3300,
      "▁memory": 3301,
      "▁disability": 3302,
      "▁fell": 3303,
      "ad": 3304,
      "▁rabbit": 3305,
      "▁exhib": 3306,
      "▁conn": 3307,
      "▁promotion": 3308,
      "▁sonnets": 3309,
      "▁intrigu": 3310,
      "ession": 3311,
      "▁america": 3312,
      "▁towel": 3313,
      "other": 3314,
      "▁however": 3315,
      "▁test": 3316,
      "▁settings": 3317,
      "ateg": 3318,
      "ip": 3319,
      "▁tastes": 3320,
      "▁off": 3321,
      "▁!!!!": 3322,
      "▁silk": 3323,
      "ped": 3324,
      "▁sort": 3325,
      "pletely": 3326,
      "▁sitting": 3327,
      "▁dy": 3328,
      "▁geomet": 3329,
      "▁accep": 3330,
      "▁soda": 3331,
      "▁dancing": 3332,
      "uts": 3333,
      "▁mr.": 3334,
      "▁hosting": 3335,
      "▁defic": 3336,
      "▁harmon": 3337,
      "▁homes": 3338,
      "++++": 3339,
      "▁affected": 3340,
      "▁airl": 3341,
      "▁sch": 3342,
      "icked": 3343,
      "▁anal": 3344,
      "per": 3345,
      "▁insp": 3346,
      "▁view": 3347,
      "ida": 3348,
      "▁breast": 3349,
      "▁scul": 3350,
      "oned": 3351,
      "▁dire": 3352,
      "▁finds": 3353,
      "▁ent": 3354,
      "▁cocktail": 3355,
      "!!!!!!!!": 3356,
      "▁different": 3357,
      "ease": 3358,
      "▁officers": 3359,
      "ble": 3360,
      "▁analysis": 3361,
      "▁shared": 3362,
      "13": 3363,
      "▁reflects": 3364,
      "for": 3365,
      "▁pron": 3366,
      "▁partners": 3367,
      "▁vint": 3368,
      "▁refl": 3369,
      "uries": 3370,
      "inus": 3371,
      "▁audio": 3372,
      "▁negot": 3373,
      "▁uncertainty": 3374,
      "▁opportunity": 3375,
      "▁rh": 3376,
      "▁chicago": 3377,
      "la": 3378,
      "fted": 3379,
      "▁cuck": 3380,
      "▁wall": 3381,
      "ton": 3382,
      "▁investigate": 3383,
      "arl": 3384,
      "▁your": 3385,
      "▁wa": 3386,
      "▁university": 3387,
      "atme": 3388,
      "▁goo": 3389,
      "oli": 3390,
      "▁professor": 3391,
      "▁execute": 3392,
      "▁defe": 3393,
      "izes": 3394,
      "▁produc": 3395,
      "▁sent": 3396,
      "▁gotten": 3397,
      "▁mac": 3398,
      "▁soci": 3399,
      "▁********************************": 3400,
      "▁sorry": 3401,
      "▁obl": 3402,
      "ker": 3403,
      "▁laund": 3404,
      "▁!!": 3405,
      "▁the": 3406,
      "▁screwdriver": 3407,
      "bal": 3408,
      "ities": 3409,
      "utes": 3410,
      "ients": 3411,
      "▁policies": 3412,
      "▁than": 3413,
      ".doc": 3414,
      "▁km": 3415,
      "▁efficiency": 3416,
      "▁visitors": 3417,
      "ample": 3418,
      "▁photos": 3419,
      "pd": 3420,
      "▁************************************************": 3421,
      "▁scan": 3422,
      "▁whoever": 3423,
      "▁govern": 3424,
      "us": 3425,
      "ede": 3426,
      "▁either": 3427,
      "▁iran": 3428,
      "80s": 3429,
      "ases": 3430,
      "read": 3431,
      "▁powers": 3432,
      "raw": 3433,
      "▁chemicals": 3434,
      "▁sizes": 3435,
      "▁trips": 3436,
      "▁econom": 3437,
      "▁--": 3438,
      "▁tray": 3439,
      "▁living": 3440,
      "▁opinions": 3441,
      "▁bombs": 3442,
      "oma": 3443,
      "kes": 3444,
      "▁clou": 3445,
      "imp": 3446,
      "▁cincinn": 3447,
      "ears": 3448,
      "▁days": 3449,
      "▁decade": 3450,
      "▁concrete": 3451,
      "▁penny": 3452,
      "▁spider": 3453,
      "▁recru": 3454,
      "--": 3455,
      "▁beds": 3456,
      "▁dc": 3457,
      "▁developed": 3458,
      "▁counterfeiting": 3459,
      "ays": 3460,
      "▁married": 3461,
      "▁city": 3462,
      "ott": 3463,
      "▁heads": 3464,
      "ect": 3465,
      "▁financial": 3466,
      "▁pain": 3467,
      "esaw": 3468,
      "▁plat": 3469,
      "agon": 3470,
      "ge": 3471,
      "▁routine": 3472,
      "erc": 3473,
      "▁islamists": 3474,
      "▁funeral": 3475,
      "teen": 3476,
      "air": 3477,
      "ou": 3478,
      "▁?!?": 3479,
      "▁stro": 3480,
      "▁aspect": 3481,
      "▁fun": 3482,
      "▁feet": 3483,
      "▁pat": 3484,
      "▁pollution": 3485,
      "aped": 3486,
      "▁neighborhood": 3487,
      "▁loc": 3488,
      "▁wee": 3489,
      "▁na": 3490,
      "▁unless": 3491,
      "▁directions": 3492,
      "▁connec": 3493,
      "arters": 3494,
      "▁route": 3495,
      "▁produce": 3496,
      "▁achievement": 3497,
      "▁facul": 3498,
      "▁award": 3499,
      "▁wedding": 3500,
      "forcement": 3501,
      "▁authorities": 3502,
      "▁apolog": 3503,
      "▁freezer": 3504,
      "rael": 3505,
      "idding": 3506,
      "▁pi": 3507,
      "▁phenomenon": 3508,
      "▁going": 3509,
      "alsa": 3510,
      "cro": 3511,
      "▁students": 3512,
      "▁chairs": 3513,
      "▁beginning": 3514,
      "▁))": 3515,
      "▁dou": 3516,
      "▁laser": 3517,
      "anges": 3518,
      "▁jun": 3519,
      "▁into": 3520,
      "▁elections": 3521,
      "▁guidelines": 3522,
      "uffs": 3523,
      "▁focus": 3524,
      "▁stores": 3525,
      "▁husband": 3526,
      "▁participate": 3527,
      "▁origins": 3528,
      "▁butt": 3529,
      "▁cher": 3530,
      "▁nose": 3531,
      "iture": 3532,
      "▁earth": 3533,
      "▁forb": 3534,
      "▁forwar": 3535,
      "▁take": 3536,
      "▁vs.": 3537,
      "▁songs": 3538,
      "▁fashion": 3539,
      "▁uhhuh": 3540,
      "il": 3541,
      "▁owners": 3542,
      "▁refin": 3543,
      "py": 3544,
      "▁up": 3545,
      "▁article": 3546,
      "▁bulldozer": 3547,
      "▁wife": 3548,
      "istan": 3549,
      "▁changes": 3550,
      "ection": 3551,
      "▁coc": 3552,
      "▁dw": 3553,
      "▁fam": 3554,
      "eries": 3555,
      "igg": 3556,
      "▁division": 3557,
      "▁peop": 3558,
      "▁seas": 3559,
      "▁thru": 3560,
      "▁glasses": 3561,
      "▁affects": 3562,
      "▁conserv": 3563,
      "▁ai": 3564,
      "▁three": 3565,
      "urop": 3566,
      "hen": 3567,
      "▁producers": 3568,
      "▁eat": 3569,
      "ributed": 3570,
      "ete": 3571,
      "▁criteria": 3572,
      "▁men": 3573,
      "▁.....": 3574,
      "▁upon": 3575,
      "▁debt": 3576,
      "▁nights": 3577,
      "▁device": 3578,
      "▁fir": 3579,
      "le": 3580,
      "get": 3581,
      "fin": 3582,
      "▁reply": 3583,
      "▁hug": 3584,
      "phia": 3585,
      "▁ste": 3586,
      "▁bug": 3587,
      "▁sheep": 3588,
      "▁non-": 3589,
      "erated": 3590,
      "▁ride": 3591,
      "ette": 3592,
      "▁oneself": 3593,
      "▁posts": 3594,
      "▁gave": 3595,
      "▁ch": 3596,
      "▁insight": 3597,
      "▁can": 3598,
      "ree": 3599,
      "▁climbed": 3600,
      "rating": 3601,
      "▁industry": 3602,
      "ved": 3603,
      "▁displ": 3604,
      "______": 3605,
      "▁meant": 3606,
      "▁garden": 3607,
      "▁dress": 3608,
      "▁paint": 3609,
      "▁antiqu": 3610,
      "even": 3611,
      "▁crops": 3612,
      "▁mys": 3613,
      "riage": 3614,
      "▁tomatoes": 3615,
      "▁tables": 3616,
      "▁lack": 3617,
      "led": 3618,
      "▁bran": 3619,
      "▁hoof": 3620,
      "kle": 3621,
      "erted": 3622,
      "▁soil": 3623,
      "▁yea": 3624,
      "▁carol": 3625,
      "▁mod": 3626,
      "ath": 3627,
      "▁title": 3628,
      "▁distribute": 3629,
      "▁internet": 3630,
      "▁bears": 3631,
      "▁farmers": 3632,
      "ected": 3633,
      "▁market": 3634,
      "www": 3635,
      "▁-----------------": 3636,
      "▁accepted": 3637,
      "light": 3638,
      "▁ans": 3639,
      "▁territ": 3640,
      "▁trains": 3641,
      "▁drawn": 3642,
      "▁lead": 3643,
      "▁pol": 3644,
      "▁negotiated": 3645,
      "▁mil": 3646,
      "▁bedroom": 3647,
      "olves": 3648,
      "▁sub": 3649,
      "▁tie": 3650,
      "str": 3651,
      "▁spring": 3652,
      "▁long": 3653,
      "▁holes": 3654,
      "▁poss": 3655,
      "▁lacking": 3656,
      "▁repeat": 3657,
      "▁produces": 3658,
      "enders": 3659,
      "▁surp": 3660,
      "▁swinging": 3661,
      "▁next": 3662,
      "▁surve": 3663,
      "▁datab": 3664,
      "▁tomato": 3665,
      "cinn": 3666,
      "fo": 3667,
      "▁expanding": 3668,
      ".ht": 3669,
      "▁burst": 3670,
      "▁vice": 3671,
      "▁networks": 3672,
      "▁activity": 3673,
      "▁counterfeit": 3674,
      "▁engage": 3675,
      "-b": 3676,
      "▁spending": 3677,
      "ilos": 3678,
      "▁cigarette": 3679,
      "▁salad": 3680,
      "▁genius": 3681,
      "▁vess": 3682,
      "▁profits": 3683,
      "▁imp": 3684,
      "aughters": 3685,
      "▁mine": 3686,
      "▁orig": 3687,
      "erent": 3688,
      "▁creation": 3689,
      "▁repeated": 3690,
      "▁lying": 3691,
      "▁swung": 3692,
      "▁‘’": 3693,
      "▁opp": 3694,
      "▁paying": 3695,
      "▁cited": 3696,
      "▁frag": 3697,
      "▁vis": 3698,
      "ive": 3699,
      "▁signific": 3700,
      "▁introducing": 3701,
      "▁civili": 3702,
      "▁conflic": 3703,
      "▁carro": 3704,
      "elt": 3705,
      "▁seats": 3706,
      "ic": 3707,
      "▁had": 3708,
      "▁runs": 3709,
      "▁cock": 3710,
      "▁mountain": 3711,
      "–": 3712,
      "▁tiny": 3713,
      "▁reform": 3714,
      "orded": 3715,
      "ooks": 3716,
      "▁mus": 3717,
      "let": 3718,
      "ace": 3719,
      "▁exec": 3720,
      "▁manual": 3721,
      "▁criticism": 3722,
      "▁dest": 3723,
      "▁onto": 3724,
      "ests": 3725,
      "▁usually": 3726,
      "▁distur": 3727,
      "▁mix": 3728,
      "isters": 3729,
      "▁outfit": 3730,
      "▁millions": 3731,
      "▁balloon": 3732,
      "asis": 3733,
      "▁sign": 3734,
      "▁cfl": 3735,
      "▁fever": 3736,
      "▁abuse": 3737,
      "▁lawy": 3738,
      "▁??": 3739,
      "▁letters": 3740,
      "▁lego": 3741,
      "▁thought": 3742,
      "▁listening": 3743,
      "▁hur": 3744,
      "▁worth": 3745,
      "nch": 3746,
      "▁extrem": 3747,
      "▁brings": 3748,
      "▁eats": 3749,
      "▁time": 3750,
      "▁summary": 3751,
      "▁equipment": 3752,
      "▁inspection": 3753,
      "▁band": 3754,
      "▁brooms": 3755,
      "▁http": 3756,
      "tiveness": 3757,
      "▁persu": 3758,
      "sets": 3759,
      "▁milit": 3760,
      "derstanding": 3761,
      "▁cha": 3762,
      "▁li": 3763,
      "ado": 3764,
      "▁interface": 3765,
      "▁parti": 3766,
      "▁big": 3767,
      "▁moments": 3768,
      "▁tear": 3769,
      "▁crying": 3770,
      "ambment": 3771,
      "▁rub": 3772,
      "▁condem": 3773,
      "ind": 3774,
      "ʻ": 3775,
      "▁turn": 3776,
      "▁followed": 3777,
      "oting": 3778,
      "▁pet": 3779,
      "▁eigh": 3780,
      "▁forg": 3781,
      "▁drive": 3782,
      "▁!!!?": 3783,
      "▁tha": 3784,
      "▁entertain": 3785,
      "▁himself": 3786,
      "▁routes": 3787,
      "aurs": 3788,
      "▁conduc": 3789,
      "▁toy": 3790,
      "▁pillow": 3791,
      "▁pie": 3792,
      "ych": 3793,
      "▁perf": 3794,
      "cer": 3795,
      "▁happen": 3796,
      "▁destroyed": 3797,
      "▁cleveland": 3798,
      "▁recorded": 3799,
      "ice": 3800,
      "▁advertis": 3801,
      "orp": 3802,
      "▁glove": 3803,
      "▁planned": 3804,
      "opath": 3805,
      "▁lab": 3806,
      "▁passes": 3807,
      "$": 3808,
      "▁tech": 3809,
      "▁contained": 3810,
      "▁arranged": 3811,
      "▁tracks": 3812,
      "ced": 3813,
      "▁bent": 3814,
      "▁earli": 3815,
      "▁song": 3816,
      "▁cartoons": 3817,
      "amole": 3818,
      "int": 3819,
      "▁taking": 3820,
      "▁respon": 3821,
      "▁book": 3822,
      "loy": 3823,
      "'s": 3824,
      "ann": 3825,
      "▁mar": 3826,
      "▁detail": 3827,
      "aks": 3828,
      "▁mi": 3829,
      "ero": 3830,
      "▁tail": 3831,
      "▁inform": 3832,
      "▁vi": 3833,
      "▁whether": 3834,
      "▁materials": 3835,
      "▁legal": 3836,
      "▁surrounding": 3837,
      "ald": 3838,
      "▁foll": 3839,
      "▁extension": 3840,
      "▁compos": 3841,
      "▁boston": 3842,
      "ec": 3843,
      "▁merc": 3844,
      "▁rap": 3845,
      "▁languages": 3846,
      "----": 3847,
      "▁clown": 3848,
      "orated": 3849,
      "oss": 3850,
      "▁ingredients": 3851,
      "▁seems": 3852,
      "#693": 3853,
      "▁bel": 3854,
      "▁boy": 3855,
      "adas": 3856,
      "▁news": 3857,
      "r": 3858,
      "ion": 3859,
      "▁pretty": 3860,
      "▁fix": 3861,
      "▁constituency": 3862,
      "▁power": 3863,
      "▁funded": 3864,
      "▁receip": 3865,
      "bility": 3866,
      "uggle": 3867,
      "▁money": 3868,
      "▁missed": 3869,
      "▁bringing": 3870,
      "▁bottles": 3871,
      "▁inv": 3872,
      "▁remain": 3873,
      "▁experience": 3874,
      "▁rolled": 3875,
      "▁circle": 3876,
      "▁backs": 3877,
      "ange": 3878,
      "mer": 3879,
      "▁bit": 3880,
      "▁transaction": 3881,
      "ooth": 3882,
      "▁b/c": 3883,
      "▁accounts": 3884,
      "▁har": 3885,
      "▁jar": 3886,
      "▁expense": 3887,
      "▁wolf": 3888,
      "▁luck": 3889,
      "▁housing": 3890,
      "▁spr": 3891,
      "▁country": 3892,
      "▁loves": 3893,
      "▁january": 3894,
      "▁try": 3895,
      "▁faces": 3896,
      "▁diversity": 3897,
      "▁operating": 3898,
      "acter": 3899,
      "▁agriculture": 3900,
      "▁contrib": 3901,
      "▁biting": 3902,
      "▁snakes": 3903,
      "▁moth": 3904,
      "▁dignity": 3905,
      "▁remove": 3906,
      "apping": 3907,
      "▁punch": 3908,
      "▁on": 3909,
      "mely": 3910,
      "▁twist": 3911,
      "als": 3912,
      "▁yes": 3913,
      "▁chief": 3914,
      "tices": 3915,
      "▁thous": 3916,
      "▁thurs": 3917,
      "▁river": 3918,
      "▁orient": 3919,
      "▁earned": 3920,
      "▁installing": 3921,
      "▁grain": 3922,
      "▁save": 3923,
      "▁resource": 3924,
      "▁nest": 3925,
      "▁suit": 3926,
      "▁whe": 3927,
      "▁document": 3928,
      "▁grounds": 3929,
      "φ": 3930,
      "▁sep": 3931,
      "▁survival": 3932,
      "▁obtain": 3933,
      "▁“": 3934,
      "▁an": 3935,
      "nel": 3936,
      "▁owner": 3937,
      "eda": 3938,
      "’t": 3939,
      "▁stairs": 3940,
      "▁films": 3941,
      "▁jul": 3942,
      "app": 3943,
      "ularity": 3944,
      "▁findings": 3945,
      "oin": 3946,
      "▁!!!!!!": 3947,
      "ons": 3948,
      "▁harm": 3949,
      "gle": 3950,
      "▁denti": 3951,
      "▁wal": 3952,
      "▁turb": 3953,
      ",": 3954,
      "ift": 3955,
      "▁bet": 3956,
      "▁carriage": 3957,
      "illing": 3958,
      "▁liber": 3959,
      "▁promoted": 3960,
      "▁remember": 3961,
      "ribute": 3962,
      "hol": 3963,
      "oodle": 3964,
      "▁gar": 3965,
      "▁carrying": 3966,
      "▁mathematician": 3967,
      "ush": 3968,
      "▁generate": 3969,
      "▁policeman": 3970,
      "▁decision": 3971,
      "▁envelop": 3972,
      "rong": 3973,
      "▁years": 3974,
      "▁argued": 3975,
      "▁datash": 3976,
      "▁detective": 3977,
      "▁focused": 3978,
      "omed": 3979,
      "eak": 3980,
      "▁male": 3981,
      "▁managing": 3982,
      "▁mut": 3983,
      "▁confirm": 3984,
      "▁round": 3985,
      "▁und": 3986,
      "▁whose": 3987,
      "▁amendment": 3988,
      "▁divers": 3989,
      "▁helped": 3990,
      "ational": 3991,
      "▁be": 3992,
      "▁percentiles": 3993,
      "▁insur": 3994,
      "▁trail": 3995,
      "▁deliver": 3996,
      "ς": 3997,
      "▁capacity": 3998,
      "enn": 3999,
      "▁joh": 4000,
      "▁dying": 4001,
      "▁section": 4002,
      "▁sleep": 4003,
      "time": 4004,
      "▁tric": 4005,
      "olve": 4006,
      "▁room": 4007,
      "▁text": 4008,
      "▁lamp": 4009,
      "▁considered": 4010,
      "▁question": 4011,
      "an": 4012,
      "▁without": 4013,
      "▁sw": 4014,
      "▁n": 4015,
      "onally": 4016,
      "nuts": 4017,
      "anda": 4018,
      "▁released": 4019,
      "ft": 4020,
      "▁among": 4021,
      "ote": 4022,
      "♥": 4023,
      "rates": 4024,
      "▁projected": 4025,
      "▁cry": 4026,
      "▁agre": 4027,
      "▁trust": 4028,
      "▁notion": 4029,
      "▁players": 4030,
      "▁passport": 4031,
      "orting": 4032,
      "▁learning": 4033,
      "▁killed": 4034,
      "▁joined": 4035,
      "▁bush": 4036,
      "▁stillman": 4037,
      "fro": 4038,
      "▁anyone": 4039,
      "------->": 4040,
      "▁april": 4041,
      "sus": 4042,
      "antly": 4043,
      "▁spend": 4044,
      "▁event": 4045,
      "▁framework": 4046,
      "ans": 4047,
      "▁em": 4048,
      "▁desire": 4049,
      "▁initiated": 4050,
      "inded": 4051,
      "▁purchasing": 4052,
      "▁shoot": 4053,
      "acles": 4054,
      "uses": 4055,
      "°": 4056,
      "▁imagined": 4057,
      "dge": 4058,
      "ales": 4059,
      "----------": 4060,
      "mo": 4061,
      "▁enjo": 4062,
      "▁gover": 4063,
      "▁occurred": 4064,
      "▁asc": 4065,
      "▁sandwiches": 4066,
      "▁looking": 4067,
      "▁tw": 4068,
      "ategy": 4069,
      "▁base": 4070,
      "ean": 4071,
      "orn": 4072,
      "men": 4073,
      "▁comb": 4074,
      "▁defin": 4075,
      "▁demonstrate": 4076,
      "▁neighb": 4077,
      "▁cont": 4078,
      "▁throughout": 4079,
      "▁possibility": 4080,
      "et": 4081,
      "tially": 4082,
      "▁accused": 4083,
      "▁edit": 4084,
      "▁satisf": 4085,
      "icide": 4086,
      "▁ruin": 4087,
      "▁session": 4088,
      "▁color": 4089,
      "gether": 4090,
      "▁jan": 4091,
      "▁cartoon": 4092,
      "anger": 4093,
      "▁mosqu": 4094,
      "▁ac": 4095,
      "tim": 4096,
      "affle": 4097,
      "▁bus": 4098,
      "▁union": 4099,
      "ould": 4100,
      "▁blood": 4101,
      "ills": 4102,
      "zations": 4103,
      "oices": 4104,
      "▁conferences": 4105,
      "▁units": 4106,
      "▁intended": 4107,
      "▁latest": 4108,
      "▁program": 4109,
      "iles": 4110,
      "▁swee": 4111,
      "▁strugg": 4112,
      "▁whale": 4113,
      "res": 4114,
      "aries": 4115,
      "tually": 4116,
      "▁serves": 4117,
      "▁identity": 4118,
      "▁territory": 4119,
      "▁spoken": 4120,
      "▁wines": 4121,
      "structed": 4122,
      "▁haf": 4123,
      "▁grill": 4124,
      "▁swing": 4125,
      "mon": 4126,
      "ulture": 4127,
      "▁reached": 4128,
      "▁reviewing": 4129,
      "qui": 4130,
      "▁;": 4131,
      "▁often": 4132,
      "▁assassination": 4133,
      "▁wr": 4134,
      "▁vide": 4135,
      "▁wood": 4136,
      "▁dates": 4137,
      "▁grass": 4138,
      "ighter": 4139,
      "round": 4140,
      "ly": 4141,
      "ving": 4142,
      "▁flash": 4143,
      "ais": 4144,
      "▁techniques": 4145,
      "▁grad": 4146,
      "▁novelist": 4147,
      "u": 4148,
      "▁minds": 4149,
      "▁teacher": 4150,
      "▁already": 4151,
      "▁gold": 4152,
      "ergy": 4153,
      "▁declar": 4154,
      "▁was": 4155,
      "▁least": 4156,
      "how": 4157,
      "▁child": 4158,
      "▁grow": 4159,
      "ang": 4160,
      "▁blocks": 4161,
      "4": 4162,
      "mit": 4163,
      "▁remind": 4164,
      "▁pig": 4165,
      "▁offered": 4166,
      "▁tragedies": 4167,
      "erence": 4168,
      "derstand": 4169,
      "▁phrase": 4170,
      "▁exc": 4171,
      "▁poles": 4172,
      "▁clo": 4173,
      "▁scheduled": 4174,
      "aos": 4175,
      "▁philadel": 4176,
      "▁meeting": 4177,
      "▁flo": 4178,
      ".pdf": 4179,
      "▁weap": 4180,
      "▁glass": 4181,
      "▁looks": 4182,
      "▁raining": 4183,
      "▁palace": 4184,
      "actor": 4185,
      "▁legos": 4186,
      "formation": 4187,
      "▁regret": 4188,
      "▁examples": 4189,
      "▁tar": 4190,
      "▁fac": 4191,
      "real": 4192,
      "▁tourist": 4193,
      "ologists": 4194,
      "ially": 4195,
      "▁issue": 4196,
      "▁hamster": 4197,
      "▁fur": 4198,
      "▁desert": 4199,
      "▁possibilities": 4200,
      "▁nephew": 4201,
      "ps": 4202,
      "▁problems": 4203,
      "▁destruction": 4204,
      "”": 4205,
      "room": 4206,
      "▁accomm": 4207,
      "▁chances": 4208,
      "tle": 4209,
      "ticks": 4210,
      "▁‘": 4211,
      "▁promise": 4212,
      "▁nurs": 4213,
      "▁bun": 4214,
      "▁press": 4215,
      "▁revision": 4216,
      "ribution": 4217,
      "▁solve": 4218,
      "▁gri": 4219,
      "pop": 4220,
      "▁situation": 4221,
      "ome": 4222,
      "▁meas": 4223,
      "▁banjo": 4224,
      "▁clar": 4225,
      "▁vessel": 4226,
      "▁features": 4227,
      "ural": 4228,
      "iod": 4229,
      "lite": 4230,
      "ifies": 4231,
      "equ": 4232,
      "▁explained": 4233,
      "▁commission": 4234,
      "▁hyp": 4235,
      "▁lemon": 4236,
      "astruc": 4237,
      "ler": 4238,
      "▁subjects": 4239,
      "▁problem": 4240,
      "▁---------------------------------------------------------------------------": 4241,
      "▁she": 4242,
      "▁environment": 4243,
      "▁moon": 4244,
      "▁gun": 4245,
      "▁s’": 4246,
      "▁consum": 4247,
      "driver": 4248,
      "▁sched": 4249,
      "ening": 4250,
      "▁picture": 4251,
      "▁concept": 4252,
      "all": 4253,
      "unt": 4254,
      "▁cord": 4255,
      "▁spokes": 4256,
      "▁cowboy": 4257,
      "▁combined": 4258,
      "minated": 4259,
      "▁wing": 4260,
      "▁dump": 4261,
      "▁tol": 4262,
      "▁veget": 4263,
      "▁web": 4264,
      "vert": 4265,
      "ino": 4266,
      "▁escape": 4267,
      "▁progr": 4268,
      "▁art": 4269,
      "▁''": 4270,
      "▁costs": 4271,
      "ust": 4272,
      "▁per": 4273,
      "▁trave": 4274,
      "edly": 4275,
      "▁south": 4276,
      "▁purpose": 4277,
      "▁discussion": 4278,
      "▁peters": 4279,
      "▁visit": 4280,
      "▁categories": 4281,
      "lect": 4282,
      "▁uk": 4283,
      "▁joke": 4284,
      "▁positions": 4285,
      "▁balances": 4286,
      "▁settled": 4287,
      "▁baking": 4288,
      "▁compared": 4289,
      "▁campus": 4290,
      "▁container": 4291,
      "▁etc.": 4292,
      "▁place": 4293,
      "▁arms": 4294,
      "▁puzz": 4295,
      "▁taste": 4296,
      "▁surgery": 4297,
      "▁char": 4298,
      "set": 4299,
      "▁atmosphere": 4300,
      "▁colour": 4301,
      "▁scholars": 4302,
      "▁fighter": 4303,
      "▁ladies": 4304,
      "▁solutions": 4305,
      "?": 4306,
      "isted": 4307,
      "▁polic": 4308,
      "tw": 4309,
      "▁position": 4310,
      "▁spin": 4311,
      "▁holidays": 4312,
      "▁another": 4313,
      "nding": 4314,
      "▁votes": 4315,
      "▁expect": 4316,
      "▁gym": 4317,
      "▁conversation": 4318,
      "▁g": 4319,
      "▁activ": 4320,
      "▁prot": 4321,
      "▁boot": 4322,
      "isco": 4323,
      "azed": 4324,
      "▁attempt": 4325,
      "▁letter": 4326,
      "▁concent": 4327,
      "▁my": 4328,
      "▁listed": 4329,
      "▁lou": 4330,
      "lish": 4331,
      "▁reservation": 4332,
      "▁flav": 4333,
      "▁groups": 4334,
      "▁column": 4335,
      "itement": 4336,
      "▁goose": 4337,
      "uling": 4338,
      "▁partner": 4339,
      "▁eleph": 4340,
      "▁http://": 4341,
      "uting": 4342,
      "▁opportunities": 4343,
      "▁plays": 4344,
      "▁observ": 4345,
      "ugged": 4346,
      "▁chap": 4347,
      "▁pictures": 4348,
      "▁errors": 4349,
      "▁napkin": 4350,
      "▁unles": 4351,
      "▁workers": 4352,
      "▁!!!!!!!!!!!!!!!": 4353,
      "▁commitments": 4354,
      "μ": 4355,
      "resent": 4356,
      "stit": 4357,
      "▁create": 4358,
      "▁snack": 4359,
      "aper": 4360,
      "▁improvement": 4361,
      "▁became": 4362,
      "ber": 4363,
      "▁att": 4364,
      "▁clinics": 4365,
      "eg": 4366,
      "▁f": 4367,
      "▁smal": 4368,
      "▁gentle": 4369,
      "▁resume": 4370,
      "▁mosques": 4371,
      "place": 4372,
      "▁survey": 4373,
      "▁vegas": 4374,
      "▁licensed": 4375,
      "▁barn": 4376,
      "▁residents": 4377,
      "▁note": 4378,
      "▁creating": 4379,
      "▁hed": 4380,
      "▁service": 4381,
      "▁recorder": 4382,
      "riend": 4383,
      "▁absence": 4384,
      "ocation": 4385,
      "ards": 4386,
      "▁ribbon": 4387,
      "▁project": 4388,
      "▁even": 4389,
      "▁lat": 4390,
      "▁roc": 4391,
      "▁toronto": 4392,
      "▁known": 4393,
      "▁ga": 4394,
      "▁counterparty": 4395,
      "t": 4396,
      "▁versions": 4397,
      "▁rocks": 4398,
      "ension": 4399,
      "▁organizations": 4400,
      "▁gamb": 4401,
      "west": 4402,
      "▁blew": 4403,
      "▁fig": 4404,
      "▁br": 4405,
      "▁5": 4406,
      "▁rode": 4407,
      "orized": 4408,
      "▁security": 4409,
      "▁switch": 4410,
      "▁uncle": 4411,
      "▁viewed": 4412,
      "▁platform": 4413,
      "▁lessons": 4414,
      "house": 4415,
      "uty": 4416,
      "▁soli": 4417,
      "▁proceed": 4418,
      "▁mountains": 4419,
      "▁lined": 4420,
      "ers": 4421,
      "[PAD]": 4422,
      "▁furniture": 4423,
      "▁thro": 4424,
      "▁tasks": 4425,
      "▁mount": 4426,
      "▁restaurant": 4427,
      "▁connections": 4428,
      "ink": 4429,
      "▁homeopath": 4430,
      "▁smo": 4431,
      "▁amb": 4432,
      "ording": 4433,
      "▁explanations": 4434,
      "▁requests": 4435,
      "▁refuse": 4436,
      "▁research": 4437,
      "▁renew": 4438,
      "▁estim": 4439,
      "en": 4440,
      "▁declared": 4441,
      "▁wore": 4442,
      "sters": 4443,
      "inate": 4444,
      "▁causes": 4445,
      "ire": 4446,
      "uff": 4447,
      "urned": 4448,
      "▁achieved": 4449,
      "▁abbre": 4450,
      "▁companies": 4451,
      "▁individual": 4452,
      "▁cells": 4453,
      "▁product": 4454,
      "▁out": 4455,
      "▁savings": 4456,
      "▁branch": 4457,
      "▁backed": 4458,
      "▁dec": 4459,
      "▁reef": 4460,
      "▁nature": 4461,
      "▁economists": 4462,
      "▁discover": 4463,
      "▁...............": 4464,
      "ained": 4465,
      "’s": 4466,
      "▁hos": 4467,
      "▁fortune": 4468,
      "▁stock": 4469,
      "ild": 4470,
      "▁enron": 4471,
      "▁accident": 4472,
      "▁doubts": 4473,
      "auce": 4474,
      "▁as": 4475,
      "▁prosec": 4476,
      "▁’’": 4477,
      "▁exposed": 4478,
      "art": 4479,
      "▁bacon": 4480,
      "▁cos": 4481,
      "▁devoted": 4482,
      "ha": 4483,
      "▁les": 4484,
      "▁spent": 4485,
      "orld": 4486,
      "▁manag": 4487,
      "iled": 4488,
      "▁litter": 4489,
      "▁would": 4490,
      "▁senators": 4491,
      "ips": 4492,
      "▁nail": 4493,
      "▁transfer": 4494,
      "▁reach": 4495,
      "okes": 4496,
      "night": 4497,
      "olved": 4498,
      "▁wol": 4499,
      "▁unem": 4500,
      "▁perio": 4501,
      "▁dist": 4502,
      "▁pleasure": 4503,
      "▁topics": 4504,
      "▁conver": 4505,
      "▁log": 4506,
      "▁rule": 4507,
      "▁available": 4508,
      "▁could": 4509,
      "avor": 4510,
      "icals": 4511,
      "irts": 4512,
      "▁wil": 4513,
      "▁fees": 4514,
      "▁life": 4515,
      "▁st.": 4516,
      "▁quartile": 4517,
      "▁oc": 4518,
      "▁conduct": 4519,
      "▁cult": 4520,
      "▁literature": 4521,
      "▁liqu": 4522,
      "▁nur": 4523,
      "▁slide": 4524,
      "▁aqu": 4525,
      "▁beliefs": 4526,
      "▁progress": 4527,
      "▁productivity": 4528,
      "ligh": 4529,
      "umbled": 4530,
      "▁maps": 4531,
      "▁sentences": 4532,
      "▁cas": 4533,
      "▁destruc": 4534,
      "ev": 4535,
      "▁speak": 4536,
      "▁sell": 4537,
      "▁conference": 4538,
      "▁restaurants": 4539,
      "po": 4540,
      "▁guacamole": 4541,
      "▁rat": 4542,
      "▁ways": 4543,
      "▁buses": 4544,
      "▁influence": 4545,
      "▁brand": 4546,
      "▁dem": 4547,
      "▁11": 4548,
      "ackers": 4549,
      "ager": 4550,
      "▁dolph": 4551,
      "face": 4552,
      "▁tons": 4553,
      "▁hambur": 4554,
      "▁epis": 4555,
      "▁chest": 4556,
      "▁xml": 4557,
      "▁destin": 4558,
      "▁stirrup": 4559,
      "▁{": 4560,
      "▁mosque": 4561,
      "▁samples": 4562,
      "ich": 4563,
      "▁toilet": 4564,
      "▁waitress": 4565,
      "overy": 4566,
      "▁peanuts": 4567,
      "rec": 4568,
      "▁wrap": 4569,
      "▁check": 4570,
      "▁sovereignty": 4571,
      "▁terrorists": 4572,
      "▁deals": 4573,
      "▁counc": 4574,
      "▁critics": 4575,
      "▁lawyer": 4576,
      "▁enter": 4577,
      "▁design": 4578,
      "▁simply": 4579,
      "imb": 4580,
      "aping": 4581,
      "▁helicop": 4582,
      "▁jeans": 4583,
      "▁club": 4584,
      "▁cro": 4585,
      "▁pittsburgh": 4586,
      "▁tip": 4587,
      "▁ris": 4588,
      "▁maintenance": 4589,
      "▁n’t": 4590,
      "’": 4591,
      "▁enjoyed": 4592,
      "▁subscrib": 4593,
      "▁gas": 4594,
      "▁character": 4595,
      "▁diego": 4596,
      "▁natural": 4597,
      "▁urs": 4598,
      "▁involve": 4599,
      "▁media": 4600,
      "▁bor": 4601,
      "▁mich": 4602,
      "▁pan": 4603,
      "▁....................": 4604,
      "▁give": 4605,
      "▁number": 4606,
      "d": 4607,
      "▁mile": 4608,
      "▁squirrel": 4609,
      "▁ne": 4610,
      "▁marshmall": 4611,
      "▁procedures": 4612,
      "▁vac": 4613,
      "▁limousine": 4614,
      "▁adventure": 4615,
      "▁mycelium": 4616,
      "▁decline": 4617,
      "▁advant": 4618,
      "▁nearly": 4619,
      "▁sn": 4620,
      "iring": 4621,
      "▁track": 4622,
      "▁correc": 4623,
      "▁angel": 4624,
      "▁loved": 4625,
      "▁bil": 4626,
      "▁cows": 4627,
      "word": 4628,
      "▁came": 4629,
      "▁subject": 4630,
      "▁interests": 4631,
      "▁piz": 4632,
      "▁continental": 4633,
      "▁shoe": 4634,
      "▁conce": 4635,
      "▁growth": 4636,
      "▁play": 4637,
      "▁eggs": 4638,
      "inger": 4639,
      "▁bod": 4640,
      "▁gen": 4641,
      "▁children": 4642,
      "▁changing": 4643,
      "▁believes": 4644,
      "▁im": 4645,
      "'t": 4646,
      "▁sake": 4647,
      "ully": 4648,
      "▁phil": 4649,
      "▁overalls": 4650,
      "▁sussex": 4651,
      "▁stream": 4652,
      "▁concer": 4653,
      "▁poet": 4654,
      "▁mu": 4655,
      "titude": 4656,
      "▁ket": 4657,
      "▁took": 4658,
      "▁categ": 4659,
      "▁milwaukee": 4660,
      "elines": 4661,
      "▁digging": 4662,
      "▁****": 4663,
      "▁veter": 4664,
      "▁expression": 4665,
      "▁surv": 4666,
      "▁sometimes": 4667,
      "▁galleries": 4668,
      "▁inn": 4669,
      "▁resear": 4670,
      "ail": 4671,
      "▁cave": 4672,
      "▁alt.animals.": 4673,
      "▁iod": 4674,
      "eets": 4675,
      "▁pros": 4676,
      "▁freedoms": 4677,
      "▁amounts": 4678,
      "▁hurt": 4679,
      "▁bear": 4680,
      "▁rag": 4681,
      "▁sail": 4682,
      "▁who": 4683,
      "▁both": 4684,
      "▁donations": 4685,
      "▁seeking": 4686,
      "▁heel": 4687,
      "rons": 4688,
      "▁pages": 4689,
      "come": 4690,
      "▁rock": 4691,
      "▁det": 4692,
      "▁cohes": 4693,
      "▁rose": 4694,
      "▁dogs": 4695,
      "▁tack": 4696,
      "▁stat": 4697,
      "▁bl": 4698,
      "▁valu": 4699,
      "▁cousin": 4700,
      "▁cincinnati": 4701,
      "▁board": 4702,
      "▁discus": 4703,
      "▁cast": 4704,
      "▁really": 4705,
      "ading": 4706,
      "▁attemp": 4707,
      "▁nursies": 4708,
      "▁other": 4709,
      "▁funding": 4710,
      "▁approved": 4711,
      "▁ends": 4712,
      "▁----": 4713,
      "▁alco": 4714,
      "lo": 4715,
      "▁english": 4716,
      "▁newsp": 4717,
      "▁huh": 4718,
      "ain": 4719,
      "▁pencil": 4720,
      "▁england": 4721,
      "inally": 4722,
      "▁math": 4723,
      "▁hat": 4724,
      "▁|--------+----------------------->": 4725,
      "▁join": 4726,
      "▁tap": 4727,
      "▁bul": 4728,
      "▁winning": 4729,
      "den": 4730,
      "ife": 4731,
      "▁certainly": 4732,
      "▁terms": 4733,
      "▁fold": 4734,
      "cently": 4735,
      "▁adults": 4736,
      "▁buy": 4737,
      "▁yoga": 4738,
      "▁waiter": 4739,
      "▁vill": 4740,
      "▁craw": 4741,
      "▁percenti": 4742,
      "▁expand": 4743,
      "▁toes": 4744,
      "erry": 4745,
      "ozer": 4746,
      "▁aesthe": 4747,
      "▁trials": 4748,
      "▁mrs": 4749,
      "▁business": 4750,
      "▁approach": 4751,
      "athers": 4752,
      "-------": 4753,
      "▁compar": 4754,
      "enting": 4755,
      "lly": 4756,
      "▁thy": 4757,
      "▁israel": 4758,
      "▁tension": 4759,
      "▁states": 4760,
      "▁pin": 4761,
      "alities": 4762,
      "▁exclu": 4763,
      "▁dom": 4764,
      "▁expos": 4765,
      "▁whis": 4766,
      "▁bowl": 4767,
      "▁important": 4768,
      "▁des": 4769,
      "▁tun": 4770,
      "▁munic": 4771,
      "rested": 4772,
      "▁motorc": 4773,
      "▁destination": 4774,
      "▁string": 4775,
      "▁’m": 4776,
      "▁decre": 4777,
      "▁hearings": 4778,
      "▁walks": 4779,
      "▁burn": 4780,
      "▁ocean": 4781,
      "▁prevent": 4782,
      "▁travel": 4783,
      "▁field": 4784,
      "▁laughter": 4785,
      "ale": 4786,
      "▁circ": 4787,
      "▁comm": 4788,
      "▁sheet": 4789,
      "▁last": 4790,
      "▁tas": 4791,
      "ent": 4792,
      "▁panel": 4793,
      "▁such": 4794,
      "▁bye": 4795,
      "onto": 4796,
      "▁sending": 4797,
      "▁shift": 4798,
      "▁belong": 4799,
      "▁tour": 4800,
      "ents": 4801,
      "ium": 4802,
      "▁technologies": 4803,
      "▁recog": 4804,
      "pre": 4805,
      "▁outs": 4806,
      "▁organized": 4807,
      "▁installed": 4808,
      "▁regards": 4809,
      "▁anticip": 4810,
      "▁escaped": 4811,
      "body": 4812,
      "▁seeing": 4813,
      "uce": 4814,
      "▁vacc": 4815,
      "▁together": 4816,
      "▁sex": 4817,
      "jec": 4818,
      "▁recruit": 4819,
      "▁password": 4820,
      "▁sant": 4821,
      "artment": 4822,
      "▁participation": 4823,
      "▁self": 4824,
      "igrants": 4825,
      "▁congr": 4826,
      "▁basis": 4827,
      "▁port": 4828,
      "▁refused": 4829,
      "books": 4830,
      "ios": 4831,
      "▁cancer": 4832,
      "ops": 4833,
      "▁expert": 4834,
      "▁kinds": 4835,
      "▁journal": 4836,
      "sed": 4837,
      "▁comed": 4838,
      "▁coup": 4839,
      "▁squ": 4840,
      "▁mice": 4841,
      "ulations": 4842,
      "selve": 4843,
      "▁youth": 4844,
      "▁get": 4845,
      "gers": 4846,
      "▁patience": 4847,
      "am": 4848,
      "ying": 4849,
      "▁rail": 4850,
      "▁improving": 4851,
      "▁pick": 4852,
      "▁women": 4853,
      "otes": 4854,
      "▁laughing": 4855,
      "▁survive": 4856,
      "ove": 4857,
      "▁reasons": 4858,
      "▁expecting": 4859,
      "▁yester": 4860,
      "oup": 4861,
      "▁who's": 4862,
      "▁throu": 4863,
      "▁based": 4864,
      "aps": 4865,
      "ven": 4866,
      "amples": 4867,
      "▁floating": 4868,
      "der": 4869,
      "▁membership": 4870,
      "▁prof": 4871,
      "▁forces": 4872,
      "▁ordered": 4873,
      "▁doub": 4874,
      "▁crimes": 4875,
      "▁hers": 4876,
      "ell": 4877,
      "▁innovation": 4878,
      "▁ignore": 4879,
      "animals": 4880,
      "▁itself": 4881,
      "y": 4882,
      "▁pip": 4883,
      "io": 4884,
      "▁shadows": 4885,
      "▁candidates": 4886,
      "▁allow": 4887,
      "▁slice": 4888,
      "▁poverty": 4889,
      "▁helps": 4890,
      "▁style": 4891,
      "▁199": 4892,
      "▁gener": 4893,
      "▁fries": 4894,
      "▁blue": 4895,
      "▁alle": 4896,
      "▁sec": 4897,
      "ake": 4898,
      "▁carried": 4899,
      "usted": 4900,
      "▁gate": 4901,
      "▁vari": 4902,
      "▁compan": 4903,
      "▁happiness": 4904,
      "heet": 4905,
      "____": 4906,
      "▁ago": 4907,
      "▁fee": 4908,
      "▁sauce": 4909,
      "overn": 4910,
      "▁squirt": 4911,
      "ments": 4912,
      "▁[...": 4913,
      "▁kept": 4914,
      "▁madam": 4915,
      "oc": 4916,
      "▁content": 4917,
      "▁express": 4918,
      "▁those": 4919,
      "▁siz": 4920,
      "▁mold": 4921,
      "▁pra": 4922,
      "▁mid": 4923,
      "▁pets": 4924,
      "▁its": 4925,
      "con": 4926,
      "▁edition": 4927,
      "self": 4928,
      "▁grandm": 4929,
      "▁cargo": 4930,
      "▁sim": 4931,
      "▁public": 4932,
      "▁ass": 4933,
      "▁recon": 4934,
      "▁rul": 4935,
      "▁te": 4936,
      "▁begun": 4937,
      "ual": 4938,
      "pol": 4939,
      "▁exception": 4940,
      "▁squeeze": 4941,
      "▁departure": 4942,
      "▁happy": 4943,
      "back": 4944,
      "▁fi": 4945,
      "▁spons": 4946,
      "▁neph": 4947,
      "gest": 4948,
      "▁jose": 4949,
      "▁shed": 4950,
      "illion": 4951,
      "▁how": 4952,
      ".xls": 4953,
      "▁select": 4954,
      "oted": 4955,
      "▁–": 4956,
      "▁franc": 4957,
      "▁festival": 4958,
      "▁popularity": 4959,
      "▁from": 4960,
      "▁sal": 4961,
      "▁writes": 4962,
      "ab": 4963,
      "▁access": 4964,
      "▁yeah": 4965,
      "▁connection": 4966,
      "▁impression": 4967,
      "uth": 4968,
      "▁average": 4969,
      "▁vol": 4970,
      "el": 4971,
      "ges": 4972,
      "▁counsel": 4973,
      "▁8": 4974,
      "▁`s": 4975,
      "lines": 4976,
      "▁consul": 4977,
      "▁s/he": 4978,
      "▁\"": 4979,
      "▁participating": 4980,
      "▁hous": 4981,
      "▁vacation": 4982,
      "▁universities": 4983,
      "▁burden": 4984,
      "▁phr": 4985,
      "▁enc": 4986,
      "▁sear": 4987,
      "br": 4988,
      "▁consumer": 4989,
      "j": 4990,
      "▁guests": 4991,
      "▁fright": 4992,
      "l": 4993,
      "▁soldi": 4994,
      "eland": 4995,
      "▁amidst": 4996,
      "▁contr": 4997,
      "▁eval": 4998,
      "▁spokesman": 4999,
      "▁deteri": 5000,
      "▁bills": 5001,
      "ector": 5002,
      "▁oppos": 5003,
      "ry": 5004,
      "▁wanting": 5005,
      "▁continued": 5006,
      "▁sense": 5007,
      "▁lesson": 5008,
      "▁regime": 5009,
      "rated": 5010,
      "oint": 5011,
      "▁item": 5012,
      "▁menti": 5013,
      "▁ret": 5014,
      "adle": 5015,
      "▁kitty": 5016,
      "▁with": 5017,
      "▁built": 5018,
      "akes": 5019,
      "▁learn": 5020,
      "isd": 5021,
      "▁saying": 5022,
      "▁rib": 5023,
      "▁beach": 5024,
      "ting": 5025,
      "work": 5026,
      "▁translation": 5027,
      "▁justice": 5028,
      "▁danger": 5029,
      "▁parakeet": 5030,
      "ssi": 5031,
      "oll": 5032,
      "go": 5033,
      "▁calend": 5034,
      "▁claimed": 5035,
      "▁start": 5036,
      "▁sar": 5037,
      "▁evolution": 5038,
      "▁gol": 5039,
      "▁weapons": 5040,
      "▁polar": 5041,
      "▁sang": 5042,
      "▁hiding": 5043,
      "▁helic": 5044,
      "▁bill": 5045,
      "▁page": 5046,
      "▁cabb": 5047,
      "▁**********": 5048,
      "▁welcomed": 5049,
      "▁sons": 5050,
      "▁epm": 5051,
      "▁short": 5052,
      "▁gro": 5053,
      "lets": 5054,
      "▁j": 5055,
      "▁batteries": 5056,
      "▁gall": 5057,
      "otw": 5058,
      "▁dre": 5059,
      "▁minister": 5060,
      "▁construc": 5061,
      "▁dev": 5062,
      "tering": 5063,
      "ounded": 5064,
      "▁withd": 5065,
      "▁reg": 5066,
      "▁suite": 5067,
      "▁cross": 5068,
      "ically": 5069,
      "▁guerrillas": 5070,
      "▁integr": 5071,
      "▁recommendations": 5072,
      "▁choose": 5073,
      "▁investi": 5074,
      "▁of": 5075,
      "ai": 5076,
      "lem": 5077,
      "port": 5078,
      "▁cam": 5079,
      "--------+----------------": 5080,
      "order": 5081,
      "arg": 5082,
      "▁nonstop": 5083,
      "force": 5084,
      "▁marked": 5085,
      "▁minut": 5086,
      "quarters": 5087,
      "▁mech": 5088,
      "▁globe": 5089,
      "▁sli": 5090,
      "orter": 5091,
      "ard": 5092,
      "▁claims": 5093,
      "▁drama": 5094,
      "▁distinguish": 5095,
      "▁qui": 5096,
      "▁lif": 5097,
      "▁spea": 5098,
      "▁isl": 5099,
      "▁cod": 5100,
      "sel": 5101,
      "lined": 5102,
      "▁contest": 5103,
      "▁objects": 5104,
      "▁cleaning": 5105,
      "bir": 5106,
      "▁teh": 5107,
      "▁dig": 5108,
      "▁sees": 5109,
      "▁branches": 5110,
      "m": 5111,
      "▁models": 5112,
      "▁exercise": 5113,
      "irt": 5114,
      "▁mater": 5115,
      "▁econ": 5116,
      "q": 5117,
      "▁after": 5118,
      "▁success": 5119,
      "jection": 5120,
      "▁slip": 5121,
      "▁l": 5122,
      "▁mathema": 5123,
      "▁zoo": 5124,
      "▁agenda": 5125,
      "▁map": 5126,
      "▁conditions": 5127,
      "ith": 5128,
      "▁support": 5129,
      "▁,": 5130,
      "ere": 5131,
      "▁neighbour": 5132,
      "ads": 5133,
      "▁skills": 5134,
      "uated": 5135,
      "▁coordin": 5136,
      "▁leaf": 5137,
      "▁jail": 5138,
      "▁bos": 5139,
      "clo": 5140,
      "▁opens": 5141,
      "▁works": 5142,
      "▁killing": 5143,
      "n": 5144,
      "▁ph": 5145,
      "▁wig": 5146,
      "uil": 5147,
      "▁cookies": 5148,
      "▁concepts": 5149,
      "educ": 5150,
      "liday": 5151,
      "chang": 5152,
      "▁always": 5153,
      "▁dies": 5154,
      "▁ques": 5155,
      "fting": 5156,
      "▁roar": 5157,
      "▁reason": 5158,
      "▁rules": 5159,
      "ence": 5160,
      "▁beer": 5161,
      "▁accommod": 5162,
      "▁shell": 5163,
      "▁convinced": 5164,
      "ularly": 5165,
      "yp": 5166,
      "▁balance": 5167,
      "▁cere": 5168,
      "▁special": 5169,
      "[CLS]": 5170,
      "▁disaster": 5171,
      "ror": 5172,
      "▁lake": 5173,
      "▁sect": 5174,
      "▁webs": 5175,
      "β": 5176,
      "▁grandmother": 5177,
      "▁<<": 5178,
      "fare": 5179,
      "▁ple": 5180,
      "▁arguing": 5181,
      "▁chef": 5182,
      "uding": 5183,
      "▁t": 5184,
      "▁airfare": 5185,
      "▁bought": 5186,
      "▁player": 5187,
      "▁alliance": 5188,
      "▁highligh": 5189,
      "▁partic": 5190,
      "▁block": 5191,
      "▁charge": 5192,
      "▁confusion": 5193,
      "iate": 5194,
      "▁wake": 5195,
      "▁rays": 5196,
      "▁forgot": 5197,
      "p;": 5198,
      "tims": 5199,
      "▁which": 5200,
      "▁judgments": 5201,
      "inu": 5202,
      "▁so": 5203,
      "▁freedom": 5204,
      "▁pred": 5205,
      "▁word": 5206,
      "▁dirt": 5207,
      "▁yet": 5208,
      "asure": 5209,
      "ered": 5210,
      "▁scenes": 5211,
      "ames": 5212,
      "▁dna": 5213,
      "▁tags": 5214,
      "▁assass": 5215,
      "▁mach": 5216,
      "▁study": 5217,
      "porte": 5218,
      "▁smoke": 5219,
      "▁ear": 5220,
      "▁http://www": 5221,
      "▁rights": 5222,
      "ms": 5223,
      "▁labor": 5224,
      "▁cur": 5225,
      "▁fame": 5226,
      "▁existing": 5227,
      "▁sandwich": 5228,
      "▁rememb": 5229,
      "▁robot": 5230,
      "▁exh": 5231,
      "▁th": 5232,
      "▁readers": 5233,
      "▁tutor": 5234,
      "▁mat": 5235,
      "▁services": 5236,
      "▁sea": 5237,
      "▁theme": 5238,
      "▁initi": 5239,
      "▁frequ": 5240,
      "▁caps": 5241,
      "▁dam": 5242,
      "▁tummy": 5243,
      "▁_": 5244,
      "▁possible": 5245,
      "▁captured": 5246,
      "▁fol": 5247,
      "▁interesting": 5248,
      "▁stopover": 5249,
      "aker": 5250,
      "ledge": 5251,
      "uch": 5252,
      "▁conflict": 5253,
      "▁diff": 5254,
      "ality": 5255,
      "▁ya": 5256,
      "▁notice": 5257,
      "asm": 5258,
      "▁evolving": 5259,
      "▁ld2d-#693": 5260,
      "▁applied": 5261,
      "▁behavi": 5262,
      "▁firm": 5263,
      "▁lap": 5264,
      "▁priv": 5265,
      "▁neuro": 5266,
      "▁compens": 5267,
      "▁consequences": 5268,
      "▁reaching": 5269,
      "ything": 5270,
      "pse": 5271,
      "ride": 5272,
      "ids": 5273,
      "▁die": 5274,
      "▁jew": 5275,
      "▁estimate": 5276,
      "▁reinfor": 5277,
      "▁implem": 5278,
      "7": 5279,
      "omp": 5280,
      "▁bull": 5281,
      "▁deter": 5282,
      "▁late": 5283,
      "▁department": 5284,
      "▁following": 5285,
      "▁liter": 5286,
      "▁protect": 5287,
      "▁european": 5288,
      "▁documented": 5289,
      "hin": 5290,
      "eted": 5291,
      "▁contributed": 5292,
      "▁phenom": 5293,
      "▁er": 5294,
      "▁words": 5295,
      "my": 5296,
      "aint": 5297,
      "▁con": 5298,
      "▁prepar": 5299,
      "ank": 5300,
      "▁pup": 5301,
      "▁laying": 5302,
      "▁ow": 5303,
      "▁wine": 5304,
      "▁air": 5305,
      "▁mo": 5306,
      "▁wond": 5307,
      "orders": 5308,
      "▁dining": 5309,
      "-m": 5310,
      "uments": 5311,
      "▁foods": 5312,
      "ket": 5313,
      "▁lear": 5314,
      "▁signs": 5315,
      "itely": 5316,
      "▁acc": 5317,
      "▁re-": 5318,
      "▁vict": 5319,
      "▁sing": 5320,
      "iding": 5321,
      "▁inte": 5322,
      "▁experienced": 5323,
      "▁_______": 5324,
      "ulating": 5325,
      "▁once": 5326,
      "▁degree": 5327,
      "▁house": 5328,
      "▁opinion": 5329,
      "leum": 5330,
      "▁worked": 5331,
      "▁….": 5332,
      "▁pushed": 5333,
      "ring": 5334,
      "itated": 5335,
      "▁takes": 5336,
      "▁pull": 5337,
      "▁conducted": 5338,
      "▁mont": 5339,
      "▁complete": 5340,
      "apolis": 5341,
      "ounced": 5342,
      "▁chocol": 5343,
      "▁pupp": 5344,
      "▁benefits": 5345,
      "▁houses": 5346,
      "▁traffic": 5347,
      "2d-": 5348,
      "▁uni": 5349,
      "▁assessing": 5350,
      "▁attorn": 5351,
      "▁depth": 5352,
      "▁tor": 5353,
      "ched": 5354,
      "ey": 5355,
      "▁kn": 5356,
      "▁beh": 5357,
      "▁rabb": 5358,
      "▁...": 5359,
      "▁choice": 5360,
      "▁for": 5361,
      "▁pants": 5362,
      "tice": 5363,
      "▁act": 5364,
      "▁occasion": 5365,
      "▁fought": 5366,
      "▁windows": 5367,
      "▁gn": 5368,
      "▁several": 5369,
      "lf": 5370,
      "▁connect": 5371,
      "▁suspected": 5372,
      "uf": 5373,
      "rote": 5374,
      "our": 5375,
      "▁spell": 5376,
      "▁plan": 5377,
      "▁component": 5378,
      "ried": 5379,
      "▁supposed": 5380,
      "▁boom": 5381,
      "▁region": 5382,
      "▁agreements": 5383,
      "using": 5384,
      "fer": 5385,
      "▁ending": 5386,
      "▁theory": 5387,
      "ners": 5388,
      "▁director": 5389,
      "▁cause": 5390,
      "▁approval": 5391,
      "▁swallow": 5392,
      "▁revised": 5393,
      "▁scienti": 5394,
      "▁prec": 5395,
      "▁jur": 5396,
      "▁pers": 5397,
      "▁chim": 5398,
      "▁pur": 5399,
      "▁implications": 5400,
      "icult": 5401,
      "▁compare": 5402,
      "▁sum": 5403,
      "▁bathroom": 5404,
      "▁below": 5405,
      "▁ladder": 5406,
      "▁poetry": 5407,
      "▁purse": 5408,
      "ustration": 5409,
      "▁integration": 5410,
      "rectly": 5411,
      "▁waters": 5412,
      "▁bike": 5413,
      "ar": 5414,
      "▁marriage": 5415,
      "▁fed": 5416,
      "▁talent": 5417,
      "▁jellyfish": 5418,
      "▁forth": 5419,
      "▁writers": 5420,
      "esh": 5421,
      "alf": 5422,
      "▁concerning": 5423,
      "▁couple": 5424,
      "▁maintain": 5425,
      "▁explore": 5426,
      "▁apple": 5427,
      "put": 5428,
      "▁write": 5429,
      "▁speed": 5430,
      "laimed": 5431,
      "▁instead": 5432,
      "o": 5433,
      "▁cut": 5434,
      "▁software": 5435,
      "ability": 5436,
      "▁let": 5437,
      "oil": 5438,
      "??": 5439,
      "▁cover": 5440,
      "▁grape": 5441,
      "▁feat": 5442,
      "▁mot": 5443,
      "▁cheek": 5444,
      "ticip": 5445,
      "dy": 5446,
      "▁material": 5447,
      "▁knows": 5448,
      "▁thing": 5449,
      "▁proper": 5450,
      "▁laid": 5451,
      "▁bodies": 5452,
      "timate": 5453,
      "istic": 5454,
      "▁goat": 5455,
      "▁compl": 5456,
      "▁’ll": 5457,
      "▁tub": 5458,
      "▁sac": 5459,
      "▁awareness": 5460,
      "▁assumed": 5461,
      "▁census": 5462,
      "▁mouse": 5463,
      "ering": 5464,
      "urs": 5465,
      "▁expansion": 5466,
      "lief": 5467,
      "▁calling": 5468,
      "▁rich": 5469,
      "oice": 5470,
      "▁bulld": 5471,
      "▁wo": 5472,
      "}": 5473,
      "▁multipl": 5474,
      "ctly": 5475,
      "▁establishing": 5476,
      "aze": 5477,
      "▁coll": 5478,
      "▁:?": 5479,
      "▁translated": 5480,
      "▁dioxide": 5481,
      "▁pre": 5482,
      "▁hours": 5483,
      "ety": 5484,
      "ocol": 5485,
      "bing": 5486,
      "aches": 5487,
      "▁thri": 5488,
      "▁friends": 5489,
      "▁race": 5490,
      "oph": 5491,
      "orted": 5492,
      "usions": 5493,
      "▁********": 5494,
      "▁flex": 5495,
      "▁considering": 5496,
      "▁agree": 5497,
      "▁conv": 5498,
      "▁enjambment": 5499,
      "▁contribution": 5500,
      "reat": 5501,
      "▁coo": 5502,
      "▁pepper": 5503,
      "▁official": 5504,
      "waukee": 5505,
      "▁businesses": 5506,
      "-s": 5507,
      "▁attempted": 5508,
      "▁locations": 5509,
      "▁debate": 5510,
      "▁inequ": 5511,
      "▁scre": 5512,
      "ism": 5513,
      "▁la": 5514,
      "essed": 5515,
      "▁button": 5516,
      "▁yours": 5517,
      "▁boss": 5518,
      "▁hippop": 5519,
      "uation": 5520,
      "▁mem": 5521,
      "&": 5522,
      "`s": 5523,
      "▁enforcement": 5524,
      "ay": 5525,
      "▁almost": 5526,
      "▁morning": 5527,
      "▁arm": 5528,
      "▁chocolate": 5529,
      "as": 5530,
      "▁oppose": 5531,
      "ator": 5532,
      "ode": 5533,
      "estiv": 5534,
      "▁rever": 5535,
      "▁projects": 5536,
      "▁few": 5537,
      "ir": 5538,
      "▁12": 5539,
      "▁mentioned": 5540,
      "▁chalk": 5541,
      "▁deb": 5542,
      "cally": 5543,
      "▁divid": 5544,
      "gin": 5545,
      "▁jumped": 5546,
      "▁diseas": 5547,
      "▁hist": 5548,
      "▁rocket": 5549,
      "93": 5550,
      "▁trad": 5551,
      "▁relationships": 5552,
      "▁recommendation": 5553,
      "±": 5554,
      "▁close": 5555,
      "▁!!!!!!!!!!!!!": 5556,
      "▁apr": 5557,
      "▁silence": 5558,
      "▁efforts": 5559,
      "pond": 5560,
      "th": 5561,
      "iated": 5562,
      "▁washington": 5563,
      "▁allowed": 5564,
      "▁settle": 5565,
      "▁explos": 5566,
      "▁discovered": 5567,
      "▁rele": 5568,
      "▁@": 5569,
      "▁cupboard": 5570,
      "▁excellent": 5571,
      "▁monkey": 5572,
      "ood": 5573,
      "▁operator": 5574,
      "asi": 5575,
      "▁hands": 5576,
      "rous": 5577,
      "▁coun": 5578,
      "▁flies": 5579,
      "sp": 5580,
      "e": 5581,
      "▁suffer": 5582,
      "ie": 5583,
      "▁heart": 5584,
      "▁seat": 5585,
      "▁fort": 5586,
      "▁dere": 5587,
      "tion": 5588,
      "▁plus": 5589,
      "▁cases": 5590,
      "▁camera": 5591,
      "ired": 5592,
      "▁cott": 5593,
      "▁portr": 5594,
      "▁property": 5595,
      "▁interf": 5596,
      "▁finance": 5597,
      "▁sme": 5598,
      "▁democracy": 5599,
      "▁persons": 5600,
      "▁-----------------------------------------------------------------------": 5601,
      "down": 5602,
      "▁consequ": 5603,
      "ides": 5604,
      "▁trou": 5605,
      "▁lover": 5606,
      "▁contain": 5607,
      "cp": 5608,
      "▁gl": 5609,
      "▁said": 5610,
      "▁broom": 5611,
      "▁facilities": 5612,
      "▁civ": 5613,
      "▁command": 5614,
      "▁brush": 5615,
      "▁recently": 5616,
      "▁mon": 5617,
      "▁cr": 5618,
      "▁far": 5619,
      "form": 5620,
      "▁fence": 5621,
      "either": 5622,
      "▁invited": 5623,
      "ways": 5624,
      "▁listen": 5625,
      "▁novels": 5626,
      "ody": 5627,
      "▁implementation": 5628,
      "uary": 5629,
      "oun": 5630,
      "ut": 5631,
      "▁beautiful": 5632,
      "▁pri": 5633,
      "▁dated": 5634,
      "▁princ": 5635,
      "▁alread": 5636,
      "▁trained": 5637,
      "pe": 5638,
      "▁customs": 5639,
      "▁skill": 5640,
      "▁balzac": 5641,
      "uma": 5642,
      "ght": 5643,
      "cked": 5644,
      "▁hang": 5645,
      "▁option": 5646,
      "▁decades": 5647,
      "▁encouraged": 5648,
      "▁guide": 5649,
      "▁unemployment": 5650,
      "▁boxes": 5651,
      "h": 5652,
      "uh": 5653,
      "ishment": 5654,
      "▁dey": 5655,
      "▁fil": 5656,
      "tions": 5657,
      "▁cris": 5658,
      "▁teaching": 5659,
      "▁bananas": 5660,
      "▁candy": 5661,
      "▁draw": 5662,
      "idents": 5663,
      "▁wi": 5664,
      "▁called": 5665,
      "▁parent": 5666,
      "ama": 5667,
      "▁feel": 5668,
      "▁bric": 5669,
      "▁local": 5670,
      "▁hy": 5671,
      "▁consciousness": 5672,
      "▁parad": 5673,
      "▁missile": 5674,
      "enth": 5675,
      "oon": 5676,
      "▁incre": 5677,
      "▁peace": 5678,
      "▁little": 5679,
      "▁palm": 5680,
      "sts": 5681,
      "▁paul": 5682,
      "▁min": 5683,
      "▁dess": 5684,
      "▁un": 5685,
      "▁relation": 5686,
      "▁monday": 5687,
      "▁specialist": 5688,
      "▁applying": 5689,
      "onents": 5690,
      "▁actually": 5691,
      "▁supermarket": 5692,
      "▁interp": 5693,
      "ailed": 5694,
      "▁mechanic": 5695,
      "▁issues": 5696,
      "...": 5697,
      "▁sister": 5698,
      "▁orders": 5699,
      "▁estab": 5700,
      "▁polaro": 5701,
      "ause": 5702,
      "thin": 5703,
      "▁fear": 5704,
      "▁brain": 5705,
      "▁throat": 5706,
      "lions": 5707,
      "▁desk": 5708,
      "▁pos": 5709,
      "▁box": 5710,
      "option": 5711,
      "ested": 5712,
      "▁isd": 5713,
      "▁ce": 5714,
      "▁community": 5715,
      "▁treatments": 5716,
      "aus": 5717,
      "▁regard": 5718,
      "▁stamp": 5719,
      "▁ideas": 5720,
      "▁saw": 5721,
      "▁minimum": 5722,
      "▁adoption": 5723,
      "▁iodised": 5724,
      "▁find": 5725,
      "▁symbol": 5726,
      "rance": 5727,
      "ables": 5728,
      "▁temperature": 5729,
      "▁surface": 5730,
      "▁fears": 5731,
      "nesday": 5732,
      "▁wan": 5733,
      "▁roll": 5734,
      "▁influ": 5735,
      "▁recip": 5736,
      "▁van": 5737,
      "▁singing": 5738,
      "derst": 5739,
      "▁organize": 5740,
      "▁pitch": 5741,
      "eel": 5742,
      "▁chew": 5743,
      "ably": 5744,
      "ablish": 5745,
      "oh": 5746,
      "▁memphis": 5747,
      "▁associated": 5748,
      "▁gallery": 5749,
      "▁wars": 5750,
      "▁basket": 5751,
      "▁trib": 5752,
      "▁casual": 5753,
      "▁restriction": 5754,
      "▁ing": 5755,
      "▁john": 5756,
      "▁addressing": 5757,
      "▁referen": 5758,
      "▁sover": 5759,
      "tive": 5760,
      "ware": 5761,
      "care": 5762,
      "▁equality": 5763,
      "▁standing": 5764,
      "▁asks": 5765,
      "▁employ": 5766,
      "▁undert": 5767,
      "row": 5768,
      "erest": 5769,
      "▁drinks": 5770,
      "▁discussing": 5771,
      "que": 5772,
      "uter": 5773,
      "▁describes": 5774,
      "vision": 5775,
      "▁theatre": 5776,
      "ough": 5777,
      "▁flag": 5778,
      "cope": 5779,
      "▁filtered": 5780,
      "▁sights": 5781,
      "oses": 5782,
      "▁vet": 5783,
      "▁codes": 5784,
      "▁shopping": 5785,
      "▁tire": 5786,
      "▁http://www.": 5787,
      "▁refuge": 5788,
      "▁guit": 5789,
      "airs": 5790,
      "▁doctor": 5791,
      "▁movies": 5792,
      "▁mos": 5793,
      "▁small": 5794,
      "▁+": 5795,
      "▁caught": 5796,
      "▁chee": 5797,
      "iting": 5798,
      "ivid": 5799,
      "▁faith": 5800,
      "ather": 5801,
      "▁make": 5802,
      "cery": 5803,
      "corn": 5804,
      "▁participants": 5805,
      "▁ven": 5806,
      "://": 5807,
      "edom": 5808,
      "▁russ": 5809,
      "▁sem": 5810,
      "▁respond": 5811,
      "▁links": 5812,
      "▁bro": 5813,
      "▁proof": 5814,
      "▁'m": 5815,
      "ə": 5816,
      "▁paused": 5817,
      "onal": 5818,
      "▁?!": 5819,
      "ference": 5820,
      "▁congratulate": 5821,
      "ρ": 5822,
      "ats": 5823,
      "▁thank": 5824,
      "essing": 5825,
      "▁sug": 5826,
      "▁hopes": 5827,
      "ics": 5828,
      "kers": 5829,
      "▁proposal": 5830,
      "pl": 5831,
      "▁ill": 5832,
      "▁crimin": 5833,
      "▁vacuum": 5834,
      "▁crew": 5835,
      "▁programme": 5836,
      "▁license": 5837,
      "icke": 5838,
      "▁newspaper": 5839,
      "▁movie": 5840,
      "ible": 5841,
      "roleum": 5842,
      "▁later": 5843,
      "▁global": 5844,
      "▁because": 5845,
      "▁arch": 5846,
      "icians": 5847,
      "ored": 5848,
      "▁roof": 5849,
      "▁dolly": 5850,
      "ation": 5851,
      "▁clos": 5852,
      "▁???": 5853,
      "▁arrow": 5854,
      "▁vine": 5855,
      "aged": 5856,
      "▁tos": 5857,
      "lit": 5858,
      "▁!!!": 5859,
      "▁stepping": 5860,
      "ox": 5861,
      "▁guns": 5862,
      "▁member": 5863,
      "▁better": 5864,
      "▁developing": 5865,
      "▁aims": 5866,
      "burg": 5867,
      "areness": 5868,
      "▁hel": 5869,
      "▁ber": 5870,
      "▁has": 5871,
      "tling": 5872,
      "tr": 5873,
      "▁cor": 5874,
      "enom": 5875,
      "▁disp": 5876,
      "ises": 5877,
      "ounts": 5878,
      "▁schools": 5879,
      "▁powder": 5880,
      "▁!!!!!!!!!!": 5881,
      "▁chose": 5882,
      "▁cried": 5883,
      "olding": 5884,
      "les": 5885,
      "hes": 5886,
      "▁arrang": 5887,
      "otion": 5888,
      "▁scientist": 5889,
      "ground": 5890,
      "▁fingers": 5891,
      "▁popcorn": 5892,
      "▁swe": 5893,
      "alty": 5894,
      "ty": 5895,
      "▁adm": 5896,
      "ee": 5897,
      "iver": 5898,
      "▁swww": 5899,
      "river": 5900,
      "▁squir": 5901,
      "▁fox": 5902,
      "▁si": 5903,
      "▁laughed": 5904,
      "▁east": 5905,
      "▁cre": 5906,
      "▁transformation": 5907,
      "▁highly": 5908,
      "▁gis": 5909,
      "▁bubbles": 5910,
      "▁jumping": 5911,
      "▁realised": 5912,
      "▁source": 5913,
      "▁miss": 5914,
      "▁sm": 5915,
      "▁representatives": 5916,
      "▁absor": 5917,
      "▁main": 5918,
      "▁king": 5919,
      "▁variety": 5920,
      "▁delive": 5921,
      "▁hea": 5922,
      "▁elim": 5923,
      "▁mis": 5924,
      "▁smiling": 5925,
      "▁computers": 5926,
      "▁shoulder": 5927,
      "▁obs": 5928,
      "unic": 5929,
      "▁spec": 5930,
      "▁shown": 5931,
      "▁drug": 5932,
      "▁talks": 5933,
      "ulation": 5934,
      "▁pounds": 5935,
      "▁prom": 5936,
      "▁lean": 5937,
      "▁some": 5938,
      "ourse": 5939,
      "▁hold": 5940,
      "▁amount": 5941,
      "▁kil": 5942,
      "tled": 5943,
      "▁easy": 5944,
      "z": 5945,
      "▁plain": 5946,
      "▁revolution": 5947,
      "▁today": 5948,
      "▁reveal": 5949,
      "▁stopping": 5950,
      "▁beans": 5951,
      "▁horn": 5952,
      "▁party": 5953,
      "▁export": 5954,
      "▁blan": 5955,
      "▁ceo": 5956,
      "▁sod": 5957,
      "▁taken": 5958,
      "▁selection": 5959,
      "▁piece": 5960,
      "▁choo": 5961,
      "▁correspond": 5962,
      "▁feature": 5963,
      "rit": 5964,
      "acting": 5965,
      "ael": 5966,
      "▁crow": 5967,
      "▁animal": 5968,
      "▁answer": 5969,
      "▁differences": 5970,
      "▁pret": 5971,
      "bly": 5972,
      "bout": 5973,
      "▁perform": 5974,
      "ul": 5975,
      "υ": 5976,
      "▁fl": 5977,
      "▁---------------------------------": 5978,
      "▁user": 5979,
      "uk": 5980,
      "entiality": 5981,
      "ten": 5982,
      "ima": 5983,
      "mans": 5984,
      "▁gal": 5985,
      "▁these": 5986,
      "▁mother": 5987,
      "▁appear": 5988,
      "▁acting": 5989,
      "▁describ": 5990,
      "▁hum": 5991,
      "▁impris": 5992,
      "▁delete": 5993,
      "ʁ": 5994,
      "▁pl": 5995,
      "▁p": 5996,
      "▁statement": 5997,
      "▁scenar": 5998,
      "▁quantity": 5999,
      "▁listened": 6000,
      "▁til": 6001,
      "isions": 6002,
      "ideration": 6003,
      "enance": 6004,
      "▁bre": 6005,
      "▁videos": 6006,
      "▁flat": 6007,
      "▁aspects": 6008,
      "▁smelled": 6009,
      "so": 6010,
      "▁coach": 6011,
      "em": 6012,
      "▁surf": 6013,
      "▁reserve": 6014,
      "▁16": 6015,
      "▁choices": 6016,
      "augh": 6017,
      "omic": 6018,
      "met": 6019,
      "elling": 6020,
      "▁completed": 6021,
      "▁cell": 6022,
      "▁nasa": 6023,
      "▁dragon": 6024,
      "▁pushing": 6025,
      "▁north": 6026,
      "igning": 6027,
      "▁earlier": 6028,
      "enix": 6029,
      "▁talked": 6030,
      "▁disc": 6031,
      "▁obsf": 6032,
      "--------------------------------": 6033,
      "▁conform": 6034,
      "▁drove": 6035,
      "▁dolphin": 6036,
      "▁env": 6037,
      "▁**": 6038,
      "▁ah": 6039,
      "▁cooking": 6040,
      "▁continent": 6041,
      "▁load": 6042,
      "▁dividends": 6043,
      "apse": 6044,
      "▁ban": 6045,
      "▁pricing": 6046,
      "▁think": 6047,
      "▁jeff": 6048,
      "▁replace": 6049,
      "▁kiss": 6050,
      "osing": 6051,
      "▁wrote": 6052,
      "▁tac": 6053,
      "▁front": 6054,
      "▁lad": 6055,
      "ider": 6056,
      "umn": 6057,
      "portun": 6058,
      "▁astr": 6059,
      "▁serving": 6060,
      "▁tribe": 6061,
      "▁interpre": 6062,
      "▁enthus": 6063,
      "▁cupcake": 6064,
      "▁thoughts": 6065,
      "vol": 6066,
      "▁executed": 6067,
      "▁bird": 6068,
      "ires": 6069,
      "lent": 6070,
      "▁landscape": 6071,
      "mes": 6072,
      "▁se": 6073,
      "▁unto": 6074,
      "▁intend": 6075,
      "ley": 6076,
      "▁frost": 6077,
      "▁publication": 6078,
      "▁painting": 6079,
      "▁father": 6080,
      "▁reminded": 6081,
      "▁instructor": 6082,
      "ny": 6083,
      "▁ours": 6084,
      "eli": 6085,
      "▁contracts": 6086,
      "▁show": 6087,
      "▁terrorist": 6088,
      "▁employed": 6089,
      "▁behavior": 6090,
      "▁greet": 6091,
      "▁poin": 6092,
      "▁indicate": 6093,
      "▁dis": 6094,
      "▁rang": 6095,
      "▁dat": 6096,
      "▁schedule": 6097,
      "▁applications": 6098,
      "ʊ": 6099,
      "▁proposals": 6100,
      "ren": 6101,
      "▁statute": 6102,
      "▁process": 6103,
      "wa": 6104,
      "▁moving": 6105,
      "▁jobs": 6106,
      "ond": 6107,
      "▁vs": 6108,
      "iss": 6109,
      "ster": 6110,
      "▁meow": 6111,
      "▁reb": 6112,
      "▁ambul": 6113,
      "▁fall": 6114,
      "ant": 6115,
      "▁secure": 6116,
      "▁dipl": 6117,
      "▁plot": 6118,
      "▁----------------------------------------------------------------------": 6119,
      "▁lock": 6120,
      "▁co-": 6121,
      "oo": 6122,
      "▁congress": 6123,
      "inder": 6124,
      "▁son": 6125,
      "nt": 6126,
      "roduction": 6127,
      "ob": 6128,
      "▁fruits": 6129,
      "cri": 6130,
      "overed": 6131,
      "rel": 6132,
      "▁collap": 6133,
      "▁felt": 6134,
      "▁real": 6135,
      "perity": 6136,
      "al": 6137,
      "▁at": 6138,
      "▁jacket": 6139,
      "/2": 6140,
      "▁comput": 6141,
      "▁atlan": 6142,
      "▁3": 6143,
      "▁account": 6144,
      "yth": 6145,
      "ib": 6146,
      "▁ll": 6147,
      "▁fat": 6148,
      "▁photograph": 6149,
      "▁vic": 6150,
      "asy": 6151,
      "▁thrown": 6152,
      "▁paperwork": 6153,
      "▁noon": 6154,
      "▁century": 6155,
      "▁nov": 6156,
      "▁babies": 6157,
      "▁great": 6158,
      "▁factors": 6159,
      "▁hitting": 6160,
      "enti": 6161,
      "▁result": 6162,
      "cess": 6163,
      "rigu": 6164,
      "bably": 6165,
      "av": 6166,
      "▁!!!!!!!": 6167,
      "▁dinosaurs": 6168,
      "▁maintained": 6169,
      "ocity": 6170,
      "▁==----": 6171,
      "▁hit": 6172,
      "▁delivery": 6173,
      "▁they": 6174,
      "▁midnight": 6175,
      "▁cap": 6176,
      "$$": 6177,
      "▁volley": 6178,
      "inn": 6179,
      "▁camer": 6180,
      "▁thursday": 6181,
      "▁settlers": 6182,
      "▁neg": 6183,
      "dly": 6184,
      "▁transl": 6185,
      "▁gu": 6186,
      "▁santorum": 6187,
      "▁views": 6188,
      "lie": 6189,
      "▁refrigerator": 6190,
      "▁artist": 6191,
      "ortion": 6192,
      "▁observed": 6193,
      "ked": 6194,
      "▁iron": 6195,
      "▁length": 6196,
      "▁regulation": 6197,
      "▁scale": 6198,
      "▁patterns": 6199,
      "ries": 6200,
      "ands": 6201,
      "ders": 6202,
      "▁phones": 6203,
      "alist": 6204,
      "▁written": 6205,
      "bon": 6206,
      "ize": 6207,
      "▁cler": 6208,
      "▁shoulders": 6209,
      "ater": 6210,
      "▁brought": 6211,
      "▁chic": 6212,
      "▁credit": 6213,
      "▁chosen": 6214,
      "▁government": 6215,
      "▁depar": 6216,
      "▁cla": 6217,
      "▁bones": 6218,
      "▁transp": 6219,
      "▁dropped": 6220,
      "▁protected": 6221,
      "▁passed": 6222,
      "ies": 6223,
      "▁describe": 6224,
      "▁arrangements": 6225,
      "▁touch": 6226,
      "▁lost": 6227,
      "▁tend": 6228,
      "osite": 6229,
      "▁drink": 6230,
      "▁pill": 6231,
      "▁adapt": 6232,
      "▁licens": 6233,
      "▁flower": 6234,
      "▁stated": 6235,
      "▁mama": 6236,
      "▁training": 6237,
      "▁site": 6238,
      "▁achievements": 6239,
      "oni": 6240,
      "▁surge": 6241,
      "▁reve": 6242,
      "▁dresses": 6243,
      "▁mailings": 6244,
      "▁woke": 6245,
      "▁bags": 6246,
      "▁ran": 6247,
      "▁partnership": 6248,
      "▁questioned": 6249,
      "▁become": 6250,
      "▁governor": 6251,
      "▁practicing": 6252,
      "▁sock": 6253,
      "lor": 6254,
      "▁amend": 6255,
      "▁knocked": 6256,
      "▁accum": 6257,
      "orum": 6258,
      "ω": 6259,
      "▁legs": 6260,
      "▁patient": 6261,
      "▁sweetie": 6262,
      "▁ha": 6263,
      "▁div": 6264,
      "roduc": 6265,
      "▁contact": 6266,
      "less": 6267,
      "▁boil": 6268,
      "igr": 6269,
      "▁noticed": 6270,
      "▁inches": 6271,
      "▁published": 6272,
      "angu": 6273,
      "acked": 6274,
      "▁limitations": 6275,
      "it": 6276,
      "▁propos": 6277,
      "▁flowers": 6278,
      "▁spray": 6279,
      "▁medic": 6280,
      "▁intel": 6281,
      "▁figures": 6282,
      "▁tra": 6283,
      "▁prosp": 6284,
      "▁fight": 6285,
      "▁stands": 6286,
      "uted": 6287,
      "▁run": 6288,
      "▁bon": 6289,
      "tie": 6290,
      "ores": 6291,
      "▁pati": 6292,
      "▁tourists": 6293,
      "▁affair": 6294,
      "▁dialog": 6295,
      "▁parking": 6296,
      "vation": 6297,
      "▁website": 6298,
      "▁institutions": 6299,
      "▁hors": 6300,
      "amus": 6301,
      "▁bubble": 6302,
      "wh": 6303,
      "▁recognized": 6304,
      "▁activities": 6305,
      "itical": 6306,
      "▁bronze": 6307,
      "▁delivered": 6308,
      "hing": 6309,
      "▁still": 6310,
      "rest": 6311,
      "llow": 6312,
      "▁format": 6313,
      "▁hospital": 6314,
      "▁please": 6315,
      "▁schol": 6316,
      "▁explanation": 6317,
      "▁sen": 6318,
      "gement": 6319,
      "▁vanilla": 6320,
      "▁contents": 6321,
      "▁gre": 6322,
      "▁finally": 6323,
      "▁journals": 6324,
      "eds": 6325,
      "ug": 6326,
      "▁reduces": 6327,
      "▁san": 6328,
      "▁push": 6329,
      "▁constitution": 6330,
      "▁wanted": 6331,
      "▁fired": 6332,
      ".com/": 6333,
      "▁lic": 6334,
      "▁slee": 6335,
      "▁produced": 6336,
      "▁adapted": 6337,
      "▁address": 6338,
      "icul": 6339,
      "▁argu": 6340,
      "▁preferred": 6341,
      "▁insurance": 6342,
      "▁`": 6343,
      "▁resc": 6344,
      "▁mistakes": 6345,
      "▁charges": 6346,
      "▁suggest": 6347,
      "▁period": 6348,
      ",000": 6349,
      "▁je": 6350,
      "ows": 6351,
      "▁speaker": 6352,
      "▁alleged": 6353,
      "▁gathered": 6354,
      "arly": 6355,
      "▁having": 6356,
      "▁execution": 6357,
      "▁cheapest": 6358,
      "▁che": 6359,
      "wic": 6360,
      "▁regre": 6361,
      "des": 6362,
      "▁dead": 6363,
      "▁food": 6364,
      "▁denver": 6365,
      "▁tree": 6366,
      "▁nobody": 6367,
      "**********************************": 6368,
      "tee": 6369,
      "▁insects": 6370,
      "▁journ": 6371,
      "▁zero": 6372,
      "▁commun": 6373,
      "peare": 6374,
      "▁divided": 6375,
      "▁technique": 6376,
      "ier": 6377,
      "ocr": 6378,
      "▁rug": 6379,
      "▁reflected": 6380,
      "▁definitely": 6381,
      "▁toile": 6382,
      "▁playw": 6383,
      "▁[": 6384,
      "▁apply": 6385,
      "uly": 6386,
      "▁vlog": 6387,
      "(": 6388,
      "▁feed": 6389,
      "omach": 6390,
      "▁anyth": 6391,
      "anding": 6392,
      "▁straw": 6393,
      "f": 6394,
      "▁archit": 6395,
      "▁portion": 6396,
      "▁tent": 6397,
      "oor": 6398,
      "oot": 6399,
      "▁data": 6400,
      "eapolis": 6401,
      "▁holding": 6402,
      "▁comes": 6403,
      "alt": 6404,
      "ded": 6405,
      "▁ach": 6406,
      "ase": 6407,
      "ogn": 6408,
      "▁hotels": 6409,
      "▁su": 6410,
      "case": 6411,
      "▁china": 6412,
      "▁held": 6413,
      "▁tried": 6414,
      "▁rolls": 6415,
      "▁occ": 6416,
      "▁u.": 6417,
      "▁flight": 6418,
      "▁handling": 6419,
      "ukee": 6420,
      "▁ord": 6421,
      "▁poc": 6422,
      "til": 6423,
      "acters": 6424,
      "▁forced": 6425,
      "▁none": 6426,
      "▁lin": 6427,
      "▁tests": 6428,
      "▁statistics": 6429,
      "▁reviews": 6430,
      "▁soc": 6431,
      "▁hand": 6432,
      "▁feeling": 6433,
      "▁traveler": 6434,
      "▁preparing": 6435,
      "▁smoking": 6436,
      "qual": 6437,
      "▁council": 6438,
      "▁ref": 6439,
      "▁grant": 6440,
      "▁fits": 6441,
      "▁foundation": 6442,
      "▁turned": 6443,
      "▁determined": 6444,
      "ady": 6445,
      "▁potatoes": 6446,
      "pts": 6447,
      "▁rif": 6448,
      "est": 6449,
      "xt": 6450,
      "▁cove": 6451,
      "▁avoided": 6452,
      "▁wearing": 6453,
      "▁heading": 6454,
      "▁pack": 6455,
      "▁assemb": 6456,
      "ird": 6457,
      "▁debated": 6458,
      "▁sword": 6459,
      "▁net": 6460,
      "▁relating": 6461,
      "▁reputation": 6462,
      "▁refer": 6463,
      "imed": 6464,
      "▁items": 6465,
      "▁aimed": 6466,
      "▁appl": 6467,
      "▁beetle": 6468,
      "▁offices": 6469,
      "▁appears": 6470,
      "▁degrees": 6471,
      "▁tips": 6472,
      "▁scenario": 6473,
      "▁checking": 6474,
      "stop": 6475,
      "▁guinea": 6476,
      "▁standard": 6477,
      "▁diplom": 6478,
      "eth": 6479,
      "▁regist": 6480,
      "▁recent": 6481,
      "▁believed": 6482,
      "▁v": 6483,
      "fore": 6484,
      "ato": 6485,
      "▁risks": 6486,
      "▁minn": 6487,
      "▁scientists": 6488,
      "▁naima": 6489,
      "ester": 6490,
      "▁international": 6491,
      "▁knew": 6492,
      "▁ther": 6493,
      "▁element": 6494,
      "ose": 6495,
      "ashed": 6496,
      "▁ol": 6497,
      "▁ele": 6498,
      "and": 6499,
      "▁conclusions": 6500,
      "▁subs": 6501,
      "▁unity": 6502,
      "gage": 6503,
      "▁cancel": 6504,
      "▁december": 6505,
      "▁attempts": 6506,
      "▁vegetables": 6507,
      "▁inspired": 6508,
      "▁q1": 6509,
      "▁paid": 6510,
      "▁adult": 6511,
      "▁request": 6512,
      "gs": 6513,
      "▁wh": 6514,
      "ognition": 6515,
      "▁pal": 6516,
      "tick": 6517,
      "▁wait": 6518,
      "▁betw": 6519,
      "cha": 6520,
      "ral": 6521,
      "▁sho": 6522,
      "gy": 6523,
      "overs": 6524,
      "▁containing": 6525,
      "idden": 6526,
      "▁ed": 6527,
      "▁email": 6528,
      "iny": 6529,
      "▁infl": 6530,
      "inist": 6531,
      "▁tick": 6532,
      "▁cinnamon": 6533,
      "amed": 6534,
      "▁..........": 6535,
      "ertain": 6536,
      "▁glow": 6537,
      "boat": 6538,
      "▁shadow": 6539,
      "▁car": 6540,
      "orate": 6541,
      "▁revenue": 6542,
      "aste": 6543,
      "▁quar": 6544,
      "gl": 6545,
      "ember": 6546,
      "▁rapporteur": 6547,
      "ide": 6548,
      "▁papers": 6549,
      "▁promp": 6550,
      "▁replacement": 6551,
      "▁gifts": 6552,
      "ament": 6553,
      "▁destroy": 6554,
      "▁stay": 6555,
      "formed": 6556,
      "▁spoon": 6557,
      "▁warned": 6558,
      "▁filters": 6559,
      "▁bucket": 6560,
      "▁answ": 6561,
      "▁stre": 6562,
      "▁absorb": 6563,
      "▁crayons": 6564,
      "▁jungle": 6565,
      "▁blow": 6566,
      "aith": 6567,
      "▁duckie": 6568,
      "▁median": 6569,
      "▁faculty": 6570,
      "▁crap": 6571,
      "▁anoder": 6572,
      "itive": 6573,
      "phere": 6574,
      "▁might": 6575,
      "▁ceremony": 6576,
      "▁touched": 6577,
      "tes": 6578,
      "▁ser": 6579,
      "▁carries": 6580,
      "▁spoke": 6581,
      "▁specific": 6582,
      "▁pulling": 6583,
      "▁gras": 6584,
      "▁enj": 6585,
      "▁grows": 6586,
      "▁cohesion": 6587,
      "▁shall": 6588,
      "▁intentions": 6589,
      "▁toll": 6590,
      "▁admitted": 6591,
      "alog": 6592,
      "▁recall": 6593,
      "aster": 6594,
      "▁employment": 6595,
      "▁exerc": 6596,
      "▁collected": 6597,
      "▁privacy": 6598,
      "▁pronounced": 6599,
      "▁land": 6600,
      "▁american": 6601,
      "▁worm": 6602,
      "▁premium": 6603,
      "▁classes": 6604,
      "▁district": 6605,
      "▁sat": 6606,
      "▁shake": 6607,
      "▁arg": 6608,
      "▁emphas": 6609,
      "▁replication": 6610,
      "▁ur": 6611,
      "▁swit": 6612,
      "▁sump": 6613,
      "ishing": 6614,
      "aughter": 6615,
      "▁s": 6616,
      "ones": 6617,
      "▁acknowledge": 6618,
      "▁drops": 6619,
      "▁allies": 6620,
      "▁gardens": 6621,
      "▁involved": 6622,
      "▁mud": 6623,
      ".x": 6624,
      "rap": 6625,
      "▁attack": 6626,
      "▁ov": 6627,
      "▁lands": 6628,
      "▁refusing": 6629,
      "▁respons": 6630,
      "▁carrot": 6631,
      "ison": 6632,
      "▁spe": 6633,
      "▁op": 6634,
      "▁minus": 6635,
      "▁inter": 6636,
      "omm": 6637,
      "▁inf": 6638,
      "▁college": 6639,
      "ithstanding": 6640,
      "▁gather": 6641,
      "avi": 6642,
      "▁rep": 6643,
      "▁does": 6644,
      "ating": 6645,
      "▁crop": 6646,
      "▁objec": 6647,
      "▁in": 6648,
      "▁anth": 6649,
      "▁facts": 6650,
      "▁presented": 6651,
      "▁verif": 6652,
      "▁free": 6653,
      "tiles": 6654,
      "ipl": 6655,
      "urn": 6656,
      "0th": 6657,
      "▁function": 6658,
      "afts": 6659,
      "▁baby": 6660,
      "ma": 6661,
      "▁tag": 6662,
      "▁assigned": 6663,
      "▁queries": 6664,
      "▁graduate": 6665,
      "▁spiders": 6666,
      "▁bot": 6667,
      "▁essence": 6668,
      "▁developments": 6669,
      "aq": 6670,
      "▁happening": 6671,
      "▁ketchup": 6672,
      "▁sources": 6673,
      "▁med": 6674,
      "▁representative": 6675,
      "▁lists": 6676,
      "ins": 6677,
      "▁ded": 6678,
      "ature": 6679,
      "▁payment": 6680,
      "▁ld": 6681,
      "#6": 6682,
      "▁shows": 6683,
      "▁documentation": 6684,
      "▁reflection": 6685,
      "▁development": 6686,
      "▁invitation": 6687,
      "atives": 6688,
      "▁amended": 6689,
      "▁lawyers": 6690,
      "▁aircraft": 6691,
      "▁favorite": 6692,
      "▁coop": 6693,
      "▁shuttle": 6694,
      "▁commitment": 6695,
      "the": 6696,
      "▁appointed": 6697,
      "rol": 6698,
      "▁transactions": 6699,
      "▁acceptance": 6700,
      "inning": 6701,
      "ka": 6702,
      "▁chickens": 6703,
      "▁components": 6704,
      "craft": 6705,
      "▁expanded": 6706,
      "▁world": 6707,
      "▁sure": 6708,
      "▁gone": 6709,
      "▁home": 6710,
      "▁jeep": 6711,
      "▁quinn": 6712,
      "▁we": 6713,
      "▁proposed": 6714,
      "bles": 6715,
      "▁calendar": 6716,
      "▁transmed": 6717,
      "▁ham": 6718,
      "▁fav": 6719,
      "▁thread": 6720,
      "▁grumb": 6721,
      "▁programs": 6722,
      "ansion": 6723,
      "????????????????????????????????": 6724,
      "▁thou": 6725,
      "▁receiving": 6726,
      "▁you": 6727,
      "mb": 6728,
      "▁chairman": 6729,
      "ark": 6730,
      "otyp": 6731,
      "▁pipe": 6732,
      "▁species": 6733,
      "▁dream": 6734,
      "ocked": 6735,
      "aw": 6736,
      "▁distance": 6737,
      "▁roo": 6738,
      "▁park": 6739,
      "oth": 6740,
      "ines": 6741,
      "ony": 6742,
      "ι": 6743,
      "▁inst": 6744,
      "▁elbow": 6745,
      "▁opposite": 6746,
      "mping": 6747,
      "▁hoping": 6748,
      "▁laura": 6749,
      "▁circumstances": 6750,
      "bed": 6751,
      "▁follows": 6752,
      "▁competition": 6753,
      "▁cli": 6754,
      "▁points": 6755,
      "▁pyram": 6756,
      "▁pee": 6757,
      "▁instit": 6758,
      "▁requested": 6759,
      "▁constitu": 6760,
      "▁canada": 6761,
      ".d": 6762,
      "▁beat": 6763,
      "▁designs": 6764,
      "▁eth": 6765,
      "▁rabbits": 6766,
      "▁questions": 6767,
      "▁6": 6768,
      "▁drinking": 6769,
      "▁determ": 6770,
      "‘": 6771,
      "veral": 6772,
      "ned": 6773,
      "▁infrastructure": 6774,
      "▁ident": 6775,
      "▁circles": 6776,
      "▁giraff": 6777,
      "end": 6778,
      "▁heat": 6779,
      "▁racing": 6780,
      "▁mouth": 6781,
      "ate": 6782,
      "si": 6783,
      "ign": 6784,
      "▁climate": 6785,
      "▁learned": 6786,
      "▁hoped": 6787,
      "▁reduce": 6788,
      "▁meetings": 6789,
      "re": 6790,
      "▁kitten": 6791,
      "▁town": 6792,
      "like": 6793,
      "▁guy": 6794,
      "▁shr": 6795,
      "▁measure": 6796,
      "▁action": 6797,
      "▁clay": 6798,
      "▁articles": 6799,
      "▁repair": 6800,
      "▁therap": 6801,
      "▁2": 6802,
      "apped": 6803,
      "▁population": 6804,
      "­": 6805,
      "▁guess": 6806,
      "▁descriptions": 6807,
      "fully": 6808,
      "▁seekers": 6809,
      "▁rem": 6810,
      "ects": 6811,
      "▁pm": 6812,
      "▁conf": 6813,
      "▁bean": 6814,
      "▁come": 6815,
      "▁sir": 6816,
      "cakes": 6817,
      "▁animals": 6818,
      "ys": 6819,
      "▁enab": 6820,
      "▁general": 6821,
      "▁veg": 6822,
      "▁invol": 6823,
      "▁columb": 6824,
      "▁requ": 6825,
      "▁surprised": 6826,
      "▁societies": 6827,
      "thy": 6828,
      "▁navy": 6829,
      "▁substances": 6830,
      "▁lot": 6831,
      "▁filter": 6832,
      "▁haircut": 6833,
      "▁suggests": 6834,
      "▁fore": 6835,
      "▁education": 6836,
      "▁eas": 6837,
      "▁story": 6838,
      "▁sept": 6839,
      "za": 6840,
      "apers": 6841,
      "▁heav": 6842,
      "▁voice": 6843,
      "▁server": 6844,
      "ought": 6845,
      "▁got": 6846,
      "▁lifetime": 6847,
      "▁purchased": 6848,
      "oop": 6849,
      "▁lay": 6850,
      "▁prepared": 6851,
      "▁strateg": 6852,
      "ound": 6853,
      "▁ve": 6854,
      "ary": 6855,
      "▁confir": 6856,
      "cept": 6857,
      "sely": 6858,
      "▁cycl": 6859,
      "▁metal": 6860,
      "▁chr": 6861,
      "uck": 6862,
      "unch": 6863,
      "▁cin": 6864,
      "iliation": 6865,
      "▁u": 6866,
      "▁advice": 6867,
      "▁miracle": 6868,
      "▁grown": 6869,
      "▁----==": 6870,
      "—": 6871,
      "????????": 6872,
      "out": 6873,
      "▁tires": 6874,
      "arture": 6875,
      "alls": 6876,
      "▁super": 6877,
      "▁detro": 6878,
      "i": 6879,
      "rem": 6880,
      "▁airline": 6881,
      "▁balloons": 6882,
      "▁collab": 6883,
      "▁x": 6884,
      "▁put": 6885,
      "▁aut": 6886,
      "▁pop": 6887,
      "▁dar": 6888,
      "ky": 6889,
      "60s": 6890,
      "▁objectives": 6891,
      "▁ca": 6892,
      "▁fut": 6893,
      "▁audi": 6894,
      "view": 6895,
      "▁serv": 6896,
      "att": 6897,
      "▁lies": 6898,
      "▁pointing": 6899,
      "▁deaths": 6900,
      "▁enable": 6901,
      "oles": 6902,
      "▁wish": 6903,
      "▁client": 6904,
      "▁born": 6905,
      "▁17": 6906,
      "lers": 6907,
      "▁matters": 6908,
      "▁rein": 6909,
      "▁gulf": 6910,
      "▁ignored": 6911,
      "tch": 6912,
      "▁organ": 6913,
      "▁transportation": 6914,
      "▁plants": 6915,
      "▁colors": 6916,
      "▁suspect": 6917,
      "▁corn": 6918,
      "****************": 6919,
      "▁review": 6920,
      "▁mad": 6921,
      "▁forward": 6922,
      "▁depart": 6923,
      "▁connected": 6924,
      "▁app": 6925,
      "▁exper": 6926,
      "▁body": 6927,
      "▁wash": 6928,
      "▁help": 6929,
      "▁roads": 6930,
      "▁stops": 6931,
      "▁monks": 6932,
      "▁morality": 6933,
      "▁din": 6934,
      "▁raise": 6935,
      "▁motor": 6936,
      "▁dressed": 6937,
      "▁seventh": 6938,
      "▁inves": 6939,
      "ressed": 6940,
      "gre": 6941,
      "▁som": 6942,
      "▁pow": 6943,
      "▁feathers": 6944,
      "▁!!!!!!!!!!!!!!!!!!!": 6945,
      "▁pic": 6946,
      "▁eur": 6947,
      "▁blown": 6948,
      "▁created": 6949,
      "▁loss": 6950,
      "▁est": 6951,
      "▁care": 6952,
      "pa": 6953,
      "▁flooding": 6954,
      "lig": 6955,
      "ective": 6956,
      "▁mayor": 6957,
      "▁cru": 6958,
      "▁ir": 6959,
      "▁brief": 6960,
      "ο": 6961,
      "▁shore": 6962,
      "▁name": 6963,
      "vil": 6964,
      "▁legisl": 6965,
      "▁hear": 6966,
      "▁convin": 6967,
      "▁hour": 6968,
      "▁cars": 6969,
      "▁clean": 6970,
      "▁buil": 6971,
      "▁cab": 6972,
      "▁beg": 6973,
      "▁as400": 6974,
      "▁swim": 6975,
      "im": 6976,
      "ived": 6977,
      "▁reduced": 6978,
      "▁area": 6979,
      "▁resulting": 6980,
      "oured": 6981,
      "bre": 6982,
      "▁demonstr": 6983,
      "▁—": 6984,
      "itate": 6985,
      "▁yourself": 6986,
      "tai": 6987,
      "essment": 6988,
      "▁befor": 6989,
      "▁behaviors": 6990,
      "ainly": 6991,
      "▁football": 6992,
      "ril": 6993,
      "▁society": 6994,
      "ased": 6995,
      "▁until": 6996,
      "·": 6997,
      "▁fine": 6998,
      "inea": 6999,
      "az": 7000,
      "▁accompan": 7001,
      "▁pad": 7002,
      "ized": 7003,
      "▁machine": 7004,
      "▁chain": 7005,
      "▁tom": 7006,
      "inental": 7007,
      "▁maj": 7008,
      "alize": 7009,
      "▁secretary": 7010,
      "arm": 7011,
      ".": 7012,
      "▁nash": 7013,
      "▁transport": 7014,
      "2": 7015,
      "▁wished": 7016,
      "▁re": 7017,
      "▁strength": 7018,
      "▁direc": 7019,
      "▁border": 7020,
      "▁funnel": 7021,
      "▁fiel": 7022,
      "▁okay": 7023,
      "▁potty": 7024,
      "tain": 7025,
      "ming": 7026,
      "▁addressed": 7027,
      "▁manufact": 7028,
      "ites": 7029,
      "▁-------------------------------------------------": 7030,
      "▁church": 7031,
      "▁allowing": 7032,
      "wor": 7033,
      "▁oakland": 7034,
      "!!!!": 7035,
      "urday": 7036,
      "▁cerem": 7037,
      "▁writ": 7038,
      "▁evalu": 7039,
      "▁prod": 7040,
      "▁availability": 7041,
      "fri": 7042,
      "▁ok": 7043,
      "▁mistake": 7044,
      "▁price": 7045,
      "▁egg": 7046,
      "▁juice": 7047,
      "▁enh": 7048,
      "▁pilg": 7049,
      "▁entertainment": 7050,
      "▁covering": 7051,
      "▁sushi": 7052,
      "▁pocketbook": 7053,
      "▁helicopters": 7054,
      "------------": 7055,
      "▁0": 7056,
      "nut": 7057,
      "æ": 7058,
      "ummy": 7059,
      "▁don": 7060,
      "▁estate": 7061,
      "▁policy": 7062,
      "▁picked": 7063,
      "▁secon": 7064,
      "olution": 7065,
      "▁wagon": 7066,
      "▁bar": 7067,
      "▁clothing": 7068,
      "▁outf": 7069,
      "▁newspapers": 7070,
      "viously": 7071,
      "▁rout": 7072,
      "ician": 7073,
      "▁murder": 7074,
      "▁composition": 7075,
      "zing": 7076,
      "³": 7077,
      "▁commit": 7078,
      "********************************": 7079,
      "▁bud": 7080,
      "▁abo": 7081,
      "▁examine": 7082,
      "▁comments": 7083,
      "▁protection": 7084,
      "ast": 7085,
      "▁candid": 7086,
      "▁oz": 7087,
      "▁reserv": 7088,
      "ams": 7089,
      "▁pajamas": 7090,
      "▁entities": 7091,
      "▁conversations": 7092,
      "▁inch": 7093,
      "forming": 7094,
      "▁starting": 7095,
      "▁alright": 7096,
      "▁boat": 7097,
      "▁crossing": 7098,
      "'re": 7099,
      "▁threw": 7100,
      "mall": 7101,
      "▁do": 7102,
      "▁bank": 7103,
      "▁rainbow": 7104,
      "▁god": 7105,
      "▁june": 7106,
      "▁grit": 7107,
      "▁possession": 7108,
      "▁longer": 7109,
      "▁paths": 7110,
      "▁cook": 7111,
      "orage": 7112,
      "▁typ": 7113,
      "▁involvement": 7114,
      "lic": 7115,
      "rently": 7116,
      "cience": 7117,
      "▁ten": 7118,
      "▁dra": 7119,
      "▁studying": 7120,
      "▁host": 7121,
      "▁month": 7122,
      "eren": 7123,
      "▁consid": 7124,
      "▁mood": 7125,
      "▁seemed": 7126,
      "▁attorney": 7127,
      "▁live": 7128,
      "........": 7129,
      "^": 7130,
      "▁visa": 7131,
      "ke": 7132,
      "▁confidence": 7133,
      "atis": 7134,
      "▁likes": 7135,
      "▁them": 7136,
      "ead": 7137,
      "▁seen": 7138,
      "▁baltimore": 7139,
      "▁insights": 7140,
      "▁match": 7141,
      "▁fro": 7142,
      "▁ackn": 7143,
      "▁suggestion": 7144,
      "▁tops": 7145,
      "▁compon": 7146,
      "▁assets": 7147,
      "▁impact": 7148,
      "▁granted": 7149,
      "▁wip": 7150,
      "▁inc": 7151,
      "▁gr": 7152,
      "▁score": 7153,
      "▁point": 7154,
      "ct": 7155,
      "▁bu": 7156,
      "essions": 7157,
      "▁checked": 7158,
      "attered": 7159,
      "par": 7160,
      "▁able": 7161,
      "antee": 7162,
      "ioned": 7163,
      "▁childhood": 7164,
      "▁includes": 7165,
      "▁tractor": 7166,
      "▁knowing": 7167,
      "ei": 7168,
      "used": 7169,
      "▁door": 7170,
      "aking": 7171,
      "ci": 7172,
      "▁posed": 7173,
      "verage": 7174,
      "ited": 7175,
      "▁columns": 7176,
      "▁defining": 7177,
      "▁publish": 7178,
      "▁pittsbur": 7179,
      "ruc": 7180,
      "▁stuck": 7181,
      "▁sports": 7182,
      "▁conviction": 7183,
      "velop": 7184,
      "▁facility": 7185,
      "gh": 7186,
      "▁fax": 7187,
      "▁pursu": 7188,
      "▁administration": 7189,
      "▁above": 7190,
      "▁wed": 7191,
      "uggles": 7192,
      "!!!": 7193,
      "▁ap": 7194,
      "▁via": 7195,
      "▁profession": 7196,
      "tly": 7197,
      "▁brothers": 7198,
      "▁march": 7199,
      "▁occupation": 7200,
      "▁corner": 7201,
      "▁relax": 7202,
      "val": 7203,
      "berries": 7204,
      "▁myce": 7205,
      "▁plenty": 7206,
      "▁realism": 7207,
      "amas": 7208,
      "▁cries": 7209,
      "▁yard": 7210,
      "ning": 7211,
      "ject": 7212,
      "▁festiv": 7213,
      "▁surpr": 7214,
      "▁letting": 7215,
      "▁person": 7216,
      "ugg": 7217,
      "▁reference": 7218,
      "▁assistant": 7219,
      ".pd": 7220,
      "ults": 7221,
      "▁interv": 7222,
      "plus": 7223,
      "▁authors": 7224,
      "▁poem": 7225,
      "▁stem": 7226,
      "▁15": 7227,
      "▁enthusi": 7228,
      "▁dispute": 7229,
      "omer": 7230,
      "gel": 7231,
      "▁alternative": 7232,
      "▁guards": 7233,
      "▁educated": 7234,
      "▁tiger": 7235,
      "▁oath": 7236,
      "ocent": 7237,
      "eb": 7238,
      "age": 7239,
      "▁calc": 7240,
      "gar": 7241,
      "list": 7242,
      "▁virus": 7243,
      "▁solid": 7244,
      "▁also": 7245,
      "▁implementing": 7246,
      "▁tu": 7247,
      "▁lar": 7248,
      "▁female": 7249,
      "▁domain": 7250,
      "abilities": 7251,
      "▁human": 7252,
      "▁convention": 7253,
      "ran": 7254,
      "▁borders": 7255,
      "▁grab": 7256,
      "▁alter": 7257,
      "▁copies": 7258,
      "cut": 7259,
      "▁opened": 7260,
      "ular": 7261,
      "++": 7262,
      "▁goal": 7263,
      "▁increases": 7264,
      "▁playwright": 7265,
      "▁studied": 7266,
      "▁prett": 7267,
      "war": 7268,
      "▁worship": 7269,
      "oms": 7270,
      "▁>": 7271,
      "fact": 7272,
      "▁helping": 7273,
      "ol": 7274,
      "▁sites": 7275,
      "▁sens": 7276,
      "▁expensive": 7277,
      "yed": 7278,
      "pec": 7279,
      "ensions": 7280,
      "▁ripped": 7281,
      "▁ant": 7282,
      "eration": 7283,
      "▁losing": 7284,
      "oir": 7285,
      "eding": 7286,
      "▁.!": 7287,
      "hic": 7288,
      "▁spa": 7289,
      "irus": 7290,
      ".m.": 7291,
      "▁cards": 7292,
      "▁since": 7293,
      "▁conc": 7294,
      "▁targets": 7295,
      "its": 7296,
      "bby": 7297,
      "▁drag": 7298,
      "ront": 7299,
      "▁adding": 7300,
      "ility": 7301,
      "▁plant": 7302,
      "tures": 7303,
      "▁ps": 7304,
      "yet": 7305,
      "▁enem": 7306,
      "▁legacy": 7307,
      "▁dollie": 7308,
      "▁order": 7309,
      "▁jump": 7310,
      "▁members": 7311,
      "igration": 7312,
      "▁sor": 7313,
      "▁query": 7314,
      "▁buc": 7315,
      "▁propose": 7316,
      "▁near": 7317,
      "elled": 7318,
      "▁campaign": 7319,
      "▁course": 7320,
      "▁studies": 7321,
      "▁against": 7322,
      "30": 7323,
      "▁tea": 7324,
      "▁concerned": 7325,
      "▁princip": 7326,
      "▁network": 7327,
      "ention": 7328,
      "▁leader": 7329,
      "▁feelings": 7330,
      "etter": 7331,
      "ah": 7332,
      "▁morn": 7333,
      "▁manufacturers": 7334,
      "▁products": 7335,
      "acing": 7336,
      "▁friend": 7337,
      "ened": 7338,
      "▁arrest": 7339,
      "▁spotted": 7340,
      "▁performance": 7341,
      "-c": 7342,
      "▁replaced": 7343,
      "▁most": 7344,
      "▁meter": 7345,
      "iling": 7346,
      "ourn": 7347,
      "▁assistance": 7348,
      "▁analyses": 7349,
      "▁hund": 7350,
      "▁judg": 7351,
      "pen": 7352,
      "cean": 7353,
      "▁committee": 7354,
      "pan": 7355,
      "▁cig": 7356,
      "▁growing": 7357,
      "▁sight": 7358,
      "uscri": 7359,
      "▁object": 7360,
      "akistan": 7361,
      "▁attended": 7362,
      "▁correspondence": 7363,
      "▁invest": 7364,
      "▁aven": 7365,
      "▁are": 7366,
      "ep": 7367,
      "onstr": 7368,
      "▁series": 7369,
      "▁’ve": 7370,
      "▁role": 7371,
      "nly": 7372,
      "emic": 7373,
      "▁outc": 7374,
      "▁dism": 7375,
      "▁numbers": 7376,
      "tiv": 7377,
      "▁anti": 7378,
      "▁dwww": 7379,
      "ently": 7380,
      "▁contacts": 7381,
      "▁rip": 7382,
      "▁top": 7383,
      "▁keep": 7384,
      "▁print": 7385,
      "▁myself": 7386,
      "▁guest": 7387,
      "▁interference": 7388,
      "▁blog": 7389,
      "▁tongue": 7390,
      "ense": 7391,
      "▁stomach": 7392,
      "▁extended": 7393,
      "centi": 7394,
      "ulated": 7395,
      "▁fabric": 7396,
      "▁sunlight": 7397,
      "▁charlotte": 7398,
      "▁receipt": 7399,
      "iz": 7400,
      "leg": 7401,
      "oke": 7402,
      "▁certi": 7403,
      "nic": 7404,
      "▁architect": 7405,
      "temp": 7406,
      "▁neighbor": 7407,
      "▁licenses": 7408,
      "ates": 7409,
      "▁resp": 7410,
      "▁resour": 7411,
      "▁wand": 7412,
      "▁mission": 7413,
      "▁angeles": 7414,
      "▁bri": 7415,
      "▁equals": 7416,
      "ume": 7417,
      "▁lighting": 7418,
      "▁limb": 7419,
      "▁volunte": 7420,
      "▁sil": 7421,
      "▁included": 7422,
      "▁res": 7423,
      "▁tomorrow": 7424,
      "▁elect": 7425,
      "▁poo": 7426,
      "▁wonder": 7427,
      "▁details": 7428,
      "▁same": 7429,
      "▁sleeping": 7430,
      "▁red": 7431,
      "▁prevail": 7432,
      "▁mop": 7433,
      "▁z": 7434,
      "▁stri": 7435,
      "▁dan": 7436,
      "mber": 7437,
      "▁her": 7438,
      "▁references": 7439,
      "▁mixed": 7440,
      "rier": 7441,
      "▁.......": 7442,
      "▁admit": 7443,
      "▁chees": 7444,
      "▁straps": 7445,
      "▁entitled": 7446,
      "▁hoo": 7447,
      "▁sting": 7448,
      "iousness": 7449,
      "ord": 7450,
      "▁remarks": 7451,
      "▁reserves": 7452,
      "▁rats": 7453,
      "▁comparison": 7454,
      "▁atmos": 7455,
      "▁placed": 7456,
      "▁seek": 7457,
      "gth": 7458,
      "bers": 7459,
      "town": 7460,
      "ches": 7461,
      "▁experi": 7462,
      "70s": 7463,
      "▁immigration": 7464,
      "▁folks": 7465,
      "▁sh": 7466,
      "▁hundreds": 7467,
      "▁spacetime": 7468,
      "▁proce": 7469,
      "▁worms": 7470,
      "▁gdp": 7471,
      "enced": 7472,
      "icated": 7473,
      "▁congratulations": 7474,
      "▁edge": 7475,
      "▁mush": 7476,
      "▁climb": 7477,
      "▁announced": 7478,
      "ra": 7479,
      "▁roles": 7480,
      "▁hor": 7481,
      "▁oil": 7482,
      "▁mushroom": 7483,
      "▁capability": 7484,
      "▁sy": 7485,
      "▁reception": 7486,
      "▁snow": 7487,
      "▁within": 7488,
      "•": 7489,
      "▁ma": 7490,
      "▁kitchen": 7491,
      "▁hom": 7492,
      "▁divisions": 7493,
      "▁appeared": 7494,
      "▁exactly": 7495,
      "▁files": 7496,
      "▁dece": 7497,
      "▁planes": 7498,
      "▁decide": 7499,
      "act": 7500,
      "▁methods": 7501,
      "▁gent": 7502,
      "▁preparation": 7503,
      "▁goods": 7504,
      "▁lets": 7505,
      "iating": 7506,
      "ightly": 7507,
      "▁led": 7508,
      "▁/": 7509,
      "▁grew": 7510,
      "path": 7511,
      "▁inclu": 7512,
      "▁colleag": 7513,
      "huh": 7514,
      "0": 7515,
      "ument": 7516,
      "▁sugg": 7517,
      "▁five": 7518,
      "▁battery": 7519,
      "tic": 7520,
      "▁knight": 7521,
      "ished": 7522,
      "anc": 7523,
      "▁favour": 7524,
      "\"": 7525,
      "▁talk": 7526,
      "▁shade": 7527,
      "▁meaning": 7528,
      "▁forms": 7529,
      "▁legislature": 7530,
      "▁treated": 7531,
      "▁crisis": 7532,
      "▁euro": 7533,
      "▁becomes": 7534,
      "eignty": 7535,
      "ecting": 7536,
      "▁col": 7537,
      "ally": 7538,
      "alk": 7539,
      "▁discuss": 7540,
      "▁go": 7541,
      "▁bew": 7542,
      "▁officer": 7543,
      "▁aff": 7544,
      "otch": 7545,
      "▁appropri": 7546,
      "rent": 7547,
      "▁pro": 7548,
      "▁discipline": 7549,
      "▁ticket": 7550,
      "▁ton": 7551,
      "▁opposition": 7552,
      "▁!!!!!": 7553,
      "ial": 7554,
      "ball": 7555,
      "▁begins": 7556,
      "▁squi": 7557,
      "▁profess": 7558,
      "fish": 7559,
      "▁across": 7560,
      "▁sweep": 7561,
      "▁transit": 7562,
      "asing": 7563,
      "▁bound": 7564,
      "ile": 7565,
      "▁pir": 7566,
      "rying": 7567,
      "▁yogurt": 7568,
      "▁testing": 7569,
      "▁leg": 7570,
      "ear": 7571,
      "▁a.m.": 7572,
      "▁degre": 7573,
      "▁group": 7574,
      "▁challen": 7575,
      "▁characters": 7576,
      "▁culture": 7577,
      "▁vaccine": 7578,
      "▁mag": 7579,
      "▁indicates": 7580,
      "▁n't": 7581,
      "▁processing": 7582,
      "▁size": 7583,
      "▁cliff": 7584,
      "odes": 7585,
      "▁ter": 7586,
      "▁rising": 7587,
      "lation": 7588,
      "▁intern": 7589,
      "▁dign": 7590,
      "▁manage": 7591,
      "▁fields": 7592,
      "▁very": 7593,
      "▁informed": 7594,
      "▁reven": 7595,
      "king": 7596,
      "▁thir": 7597,
      "▁mili": 7598,
      "mentation": 7599,
      "▁satur": 7600,
      "▁pump": 7601,
      "▁vegetable": 7602,
      "land": 7603,
      "iving": 7604,
      "▁diss": 7605,
      "stem": 7606,
      "▁used": 7607,
      "▁…": 7608,
      "▁girlfriend": 7609,
      "oves": 7610,
      "▁wid": 7611,
      "▁core": 7612,
      "▁draft": 7613,
      "▁teen": 7614,
      "yond": 7615,
      "▁guerr": 7616,
      "▁susp": 7617,
      "▁ke": 7618,
      "▁each": 7619,
      "esday": 7620,
      "alists": 7621,
      "▁purple": 7622,
      "▁assu": 7623,
      "▁notch": 7624,
      "▁force": 7625,
      "zz": 7626,
      "iry": 7627,
      "▁bal": 7628,
      "▁beef": 7629,
      "▁financ": 7630,
      "▁certain": 7631,
      "▁ceiling": 7632,
      "▁september": 7633,
      "▁controls": 7634,
      "▁leading": 7635,
      "▁issued": 7636,
      "ression": 7637,
      "▁!?": 7638,
      "▁creates": 7639,
      "********": 7640,
      "▁away": 7641,
      "▁editors": 7642,
      "▁where": 7643,
      "▁demanding": 7644,
      "▁statis": 7645,
      "ele": 7646,
      "▁hurry": 7647,
      "▁quino": 7648,
      "▁import": 7649,
      "▁increased": 7650,
      "▁excel": 7651,
      "▁parake": 7652,
      "tally": 7653,
      "▁ped": 7654,
      "yst": 7655,
      "ctive": 7656,
      "▁difficult": 7657,
      "▁here": 7658,
      "▁victims": 7659,
      "ithst": 7660,
      "▁elected": 7661,
      "▁chance": 7662,
      "utor": 7663,
      "▁may": 7664,
      "▁broke": 7665,
      "aign": 7666,
      "▁taxi": 7667,
      "▁village": 7668,
      "▁nice": 7669,
      "mited": 7670,
      "▁accompanied": 7671,
      "▁thousands": 7672,
      "▁montreal": 7673,
      "▁path": 7674,
      "▁geor": 7675,
      "▁sticker": 7676,
      "▁jury": 7677,
      "▁leaned": 7678,
      "▁incitement": 7679,
      "▁surround": 7680,
      "eer": 7681,
      "▁hide": 7682,
      "▁poll": 7683,
      "ghts": 7684,
      "▁foli": 7685,
      "▁bomb": 7686,
      "▁difficulty": 7687,
      "▁performed": 7688,
      "isting": 7689,
      "▁parks": 7690,
      "eti": 7691,
      "aves": 7692,
      "▁us": 7693,
      "▁providing": 7694,
      "▁fe": 7695,
      "▁vers": 7696,
      "▁nails": 7697,
      "▁deck": 7698,
      "unk": 7699,
      "sure": 7700,
      "▁pray": 7701,
      "▁thre": 7702,
      "▁sarah": 7703,
      "pensive": 7704,
      "▁second": 7705,
      "▁enjoy": 7706,
      "▁proc": 7707,
      "un": 7708,
      "ow": 7709,
      "▁bir": 7710,
      "▁erase": 7711,
      "▁dim": 7712,
      "selves": 7713,
      "▁to": 7714,
      "▁tri": 7715,
      "▁x3": 7716,
      "▁vom": 7717,
      "▁giving": 7718,
      "▁brows": 7719,
      "▁advertising": 7720,
      "▁value": 7721,
      "▁wheel": 7722,
      "▁concl": 7723,
      "▁docum": 7724,
      "▁communities": 7725,
      "▁why": 7726,
      "▁tasted": 7727,
      "▁butterfl": 7728,
      "▁louis": 7729,
      "ine": 7730,
      "eers": 7731,
      "▁stranger": 7732,
      "▁var": 7733,
      "▁statue": 7734,
      "▁people": 7735,
      "ached": 7736,
      "▁maint": 7737,
      "▁?????": 7738,
      "▁unf": 7739,
      "pet": 7740,
      "▁parts": 7741,
      "▁square": 7742,
      "▁gram": 7743,
      "▁sush": 7744,
      "▁colon": 7745,
      "▁flights": 7746,
      "acamole": 7747,
      "▁file": 7748,
      "▁television": 7749,
      "▁funds": 7750,
      "▁laws": 7751,
      "▁not": 7752,
      "▁exposure": 7753,
      "▁wrong": 7754,
      "▁awa": 7755,
      "▁nume": 7756,
      "▁despite": 7757,
      "▁much": 7758,
      "▁issu": 7759,
      "▁pumpkin": 7760,
      "iced": 7761,
      "▁-": 7762,
      "▁provides": 7763,
      "plet": 7764,
      "▁while": 7765,
      "▁use": 7766,
      "▁sunday": 7767,
      "▁pile": 7768,
      "▁gir": 7769,
      "▁exch": 7770,
      "▁events": 7771,
      "▁mathematics": 7772,
      "ising": 7773,
      "▁radio": 7774,
      "▁gradu": 7775,
      "lin": 7776,
      "▁list": 7777,
      "▁assess": 7778,
      "urity": 7779,
      "▁crit": 7780,
      "▁strive": 7781,
      "▁dogg": 7782,
      "▁......": 7783,
      "▁relief": 7784,
      "▁pen": 7785,
      "▁unlike": 7786,
      "ction": 7787,
      "▁recipient": 7788,
      "▁kill": 7789,
      "▁coff": 7790,
      "▁americans": 7791,
      "▁new": 7792,
      "▁scissors": 7793,
      "▁fellows": 7794,
      "▁survived": 7795,
      "▁analy": 7796,
      "etition": 7797,
      "▁aside": 7798,
      "▁ge": 7799,
      "▁setting": 7800,
      "▁interpretation": 7801,
      "▁their": 7802,
      "▁poop": 7803,
      "▁sin": 7804,
      "rate": 7805,
      "▁pover": 7806,
      "▁owe": 7807,
      "spec": 7808,
      "pos": 7809,
      "ised": 7810,
      "▁have": 7811,
      "▁hamb": 7812,
      "▁bea": 7813,
      "▁suitcase": 7814,
      "▁repa": 7815,
      "▁left": 7816,
      "▁stretch": 7817,
      "▁addition": 7818,
      "▁humans": 7819,
      "▁sequ": 7820,
      "▁alcohol": 7821,
      "itals": 7822,
      "▁impro": 7823,
      "▁error": 7824,
      "▁islam": 7825,
      "▁chicken": 7826,
      "▁festivals": 7827,
      "jamas": 7828,
      "▁traff": 7829,
      "eor": 7830,
      "▁potato": 7831,
      "▁pour": 7832,
      "▁photography": 7833,
      "▁emails": 7834,
      "▁'ll": 7835,
      "▁contribute": 7836,
      "hether": 7837,
      "d-": 7838,
      "▁cons": 7839,
      "▁checks": 7840,
      "▁dishes": 7841,
      "▁turtle": 7842,
      "▁!.": 7843,
      "ottable": 7844,
      "▁momma": 7845,
      "▁pace": 7846,
      "▁interaction": 7847,
      "ff": 7848,
      "▁large": 7849,
      "▁cities": 7850,
      "▁requirements": 7851,
      "arity": 7852,
      "▁belief": 7853,
      "▁minutes": 7854,
      "eign": 7855,
      "▁crayon": 7856,
      "gets": 7857,
      "▁venture": 7858,
      "▁demand": 7859,
      "▁huge": 7860,
      "▁distributed": 7861,
      "▁par": 7862,
      "▁analyst": 7863,
      "ologist": 7864,
      "idd": 7865,
      "▁hosp": 7866,
      "▁30": 7867,
      "▁cheap": 7868,
      "▁clear": 7869,
      "jects": 7870,
      "▁promote": 7871,
      "▁leads": 7872,
      "▁organiz": 7873,
      "ution": 7874,
      "pathy": 7875,
      "cause": 7876,
      "▁anything": 7877,
      "▁piv": 7878,
      "▁towed": 7879,
      "aces": 7880,
      "▁poodle": 7881,
      "of": 7882,
      "ident": 7883,
      "▁coverage": 7884,
      "▁aid": 7885,
      "og": 7886,
      "▁estimated": 7887,
      "▁strategies": 7888,
      "▁moisture": 7889,
      "σ": 7890,
      "▁pu": 7891,
      "lications": 7892,
      "min": 7893,
      "▁iraq": 7894,
      "▁settlement": 7895,
      "▁percentage": 7896,
      "▁thinking": 7897,
      "▁kar": 7898,
      "▁rebuild": 7899,
      "▁baseball": 7900,
      "nies": 7901,
      "▁ling": 7902,
      "▁speci": 7903,
      "ist": 7904,
      "▁attract": 7905,
      "▁generated": 7906,
      "ˈ": 7907,
      "▁prac": 7908,
      "▁independence": 7909,
      "▁techniqu": 7910,
      "scope": 7911,
      "esty": 7912,
      "▁winter": 7913,
      "▁notes": 7914,
      "▁missiles": 7915,
      "▁conclu": 7916,
      "reds": 7917,
      "▁legislation": 7918,
      "▁remained": 7919,
      "▁greeted": 7920,
      "▁mommy": 7921,
      "▁understand": 7922,
      "▁working": 7923,
      "dit": 7924,
      "▁destiny": 7925,
      "▁wire": 7926,
      "orms": 7927,
      "▁tied": 7928,
      "▁iodine": 7929,
      "▁wit": 7930,
      "itions": 7931,
      "ih": 7932,
      "▁due": 7933,
      "▁pean": 7934,
      "jo": 7935,
      "▁pilot": 7936,
      "▁old": 7937,
      "▁day": 7938,
      "▁located": 7939,
      "▁>>": 7940,
      "▁espec": 7941,
      "su": 7942,
      "lion": 7943,
      "▁*": 7944,
      "▁whatever": 7945,
      "▁phys": 7946,
      "ls": 7947,
      "▁feedback": 7948,
      "▁focusing": 7949,
      "▁purs": 7950,
      "▁enti": 7951,
      "ondon": 7952,
      "titudes": 7953,
      "▁iv": 7954,
      "ther": 7955,
      "ert": 7956,
      "▁pr": 7957,
      "▁uncer": 7958,
      "▁polaroids": 7959,
      "▁periods": 7960,
      "ared": 7961,
      "▁exceed": 7962,
      "wear": 7963,
      "uge": 7964,
      "▁wor": 7965,
      "memb": 7966,
      "▁perspective": 7967,
      "▁afternoon": 7968,
      "ories": 7969,
      "▁sleeve": 7970,
      "▁dealer": 7971,
      "▁drawing": 7972,
      "▁arri": 7973,
      "▁phase": 7974,
      "▁default": 7975,
      "▁asyl": 7976,
      "▁open": 7977,
      "▁terrorism": 7978,
      "▁turning": 7979,
      "▁prohibited": 7980,
      "▁fles": 7981,
      "▁improve": 7982,
      "▁attitude": 7983,
      "ining": 7984,
      "mos": 7985,
      "co": 7986,
      "▁destro": 7987,
      "▁team": 7988,
      "▁citiz": 7989,
      "▁collapsed": 7990,
      "▁limit": 7991,
      "▁difference": 7992,
      "▁know": 7993,
      "ether": 7994,
      "▁oh": 7995,
      "ief": 7996,
      "▁deli": 7997,
      "▁obst": 7998,
      "▁environ": 7999,
      "ach": 8000,
      "{": 8001,
      "cing": 8002,
      "▁layout": 8003,
      "ures": 8004,
      "ho": 8005,
      "▁need": 8006,
      "▁wild": 8007,
      "▁jos": 8008,
      "ula": 8009,
      "▁grid": 8010,
      "ets": 8011,
      "▁low": 8012,
      "▁that": 8013,
      "iety": 8014,
      "▁eliminate": 8015,
      "rism": 8016,
      "▁corners": 8017,
      "▁tale": 8018,
      "▁bas": 8019,
      "▁minute": 8020,
      "ees": 8021,
      "aging": 8022,
      "▁mr": 8023,
      "▁film": 8024,
      "ology": 8025,
      "▁neighbors": 8026,
      "▁purpos": 8027,
      "▁social": 8028,
      "k": 8029,
      "▁associ": 8030,
      "▁interpret": 8031,
      "mp": 8032,
      "eled": 8033,
      "▁responsibilities": 8034,
      "▁knock": 8035,
      "▁enterpr": 8036,
      "▁airplan": 8037,
      "▁fare": 8038,
      "▁hard": 8039,
      "gency": 8040,
      "ences": 8041,
      "entions": 8042,
      "▁oblig": 8043,
      "osen": 8044,
      "tail": 8045,
      "ts": 8046,
      "▁avocado": 8047,
      "ure": 8048,
      "clock": 8049,
      "▁model": 8050,
      "▁ballet": 8051,
      "sc": 8052,
      "▁afric": 8053,
      "fic": 8054,
      "▁expectations": 8055,
      "uals": 8056,
      "▁teams": 8057,
      "▁fans": 8058,
      "▁exhibit": 8059,
      "inc": 8060,
      "omet": 8061,
      "▁alt.animals": 8062,
      "▁abe": 8063,
      "▁and": 8064,
      "▁hall": 8065,
      "od": 8066,
      "▁repl": 8067,
      "▁sounds": 8068,
      "▁dust": 8069,
      "cc": 8070,
      "▁apples": 8071,
      "▁bag": 8072,
      "▁gain": 8073,
      "ender": 8074,
      "▁universe": 8075,
      "ancy": 8076,
      "ait": 8077,
      "key": 8078,
      "▁employees": 8079,
      "▁lit": 8080,
      "▁pass": 8081,
      "▁key": 8082,
      "▁needed": 8083,
      "▁dolphins": 8084,
      "▁summer": 8085,
      "▁seeds": 8086,
      "▁part": 8087,
      "▁fares": 8088,
      "ipping": 8089,
      "▁landing": 8090,
      "iam": 8091,
      "err": 8092,
      "▁separate": 8093,
      "▁established": 8094,
      "ule": 8095,
      "▁sample": 8096,
      "▁pattern": 8097,
      "▁storm": 8098,
      "▁named": 8099,
      "▁wiz": 8100,
      "akers": 8101,
      "▁scene": 8102,
      "▁future": 8103,
      "▁occup": 8104,
      "▁generation": 8105,
      "▁arrived": 8106,
      "▁preserve": 8107,
      "▁visiting": 8108,
      "▁psych": 8109,
      "▁picking": 8110,
      "▁bo": 8111,
      "▁balt": 8112,
      "▁califor": 8113,
      "▁making": 8114,
      "▁b": 8115,
      "▁again": 8116,
      "▁gh": 8117,
      "▁operators": 8118,
      "ise": 8119,
      "▁h": 8120,
      "▁carry": 8121,
      "▁d": 8122,
      "▁cond": 8123,
      "▁presentation": 8124,
      "▁boys": 8125,
      "▁him": 8126,
      "▁equival": 8127,
      "▁decl": 8128,
      "▁brother": 8129,
      "▁famili": 8130,
      "ʃ": 8131,
      "▁wants": 8132,
      "ag": 8133,
      "▁couch": 8134,
      "eral": 8135,
      "▁architecture": 8136,
      "ud": 8137,
      "▁breakfast": 8138,
      "▁ho": 8139,
      "▁supply": 8140,
      "▁pink": 8141,
      "▁firms": 8142,
      "erves": 8143,
      "▁measured": 8144,
      "▁negoti": 8145,
      "▁spir": 8146,
      "ze": 8147,
      "▁emissions": 8148,
      "▁ended": 8149,
      "ac": 8150,
      "▁interest": 8151,
      "▁exist": 8152,
      "▁surr": 8153,
      "respond": 8154,
      "▁strengthen": 8155,
      "box": 8156,
      "▁imagination": 8157,
      "▁inven": 8158,
      "▁banana": 8159,
      "ti": 8160,
      "▁denied": 8161,
      "ceived": 8162,
      "▁uniform": 8163,
      "ged": 8164,
      "up": 8165,
      "▁suc": 8166,
      "▁look": 8167,
      "▁figure": 8168,
      "▁condition": 8169,
      "▁amongst": 8170,
      "has": 8171,
      "ces": 8172,
      "▁type": 8173,
      "▁da": 8174,
      "▁*****": 8175,
      "ener": 8176,
      "lection": 8177,
      "▁reports": 8178,
      "▁channel": 8179,
      "▁kicked": 8180,
      "▁more": 8181,
      "▁jokes": 8182,
      "▁meat": 8183,
      "oral": 8184,
      "▁career": 8185,
      "ower": 8186,
      "▁<": 8187,
      "▁y": 8188,
      "▁el": 8189,
      "utiful": 8190,
      "s": 8191
    },
    "merges": [
      [
        "▁p",
        "ar"
      ],
      [
        "▁argu",
        "e"
      ],
      [
        "▁hist",
        "ory"
      ],
      [
        "s",
        "c"
      ],
      [
        "▁y",
        "elling"
      ],
      [
        "ind",
        "ed"
      ],
      [
        "▁observ",
        "ation"
      ],
      [
        "▁p",
        "ic"
      ],
      [
        "▁f",
        "ull"
      ],
      [
        "ent",
        "ial"
      ],
      [
        "t",
        "i"
      ],
      [
        "▁for",
        "k"
      ],
      [
        "▁benefit",
        "s"
      ],
      [
        "▁to",
        "ys"
      ],
      [
        "▁wind",
        "ows"
      ],
      [
        "o",
        "or"
      ],
      [
        "▁vend",
        "ors"
      ],
      [
        "▁avo",
        "ided"
      ],
      [
        "li",
        "fe"
      ],
      [
        "▁banan",
        "a"
      ],
      [
        "ac",
        "ter"
      ],
      [
        "▁2",
        "00"
      ],
      [
        "ke",
        "ys"
      ],
      [
        "▁consum",
        "ers"
      ],
      [
        "▁di",
        "vers"
      ],
      [
        "▁ch",
        "ap"
      ],
      [
        "▁fall",
        "s"
      ],
      [
        "▁min",
        "us"
      ],
      [
        "▁mat",
        "er"
      ],
      [
        "▁w",
        "ay"
      ],
      [
        "▁attem",
        "pts"
      ],
      [
        "▁ca",
        "n"
      ],
      [
        "t",
        "en"
      ],
      [
        "▁con",
        "ver"
      ],
      [
        "▁doll",
        "ars"
      ],
      [
        "▁me",
        "al"
      ],
      [
        "▁ob",
        "jec"
      ],
      [
        "▁instruc",
        "tions"
      ],
      [
        "g",
        "el"
      ],
      [
        "▁refl",
        "ects"
      ],
      [
        "i",
        "oned"
      ],
      [
        "▁d",
        "ancing"
      ],
      [
        "n",
        "ot"
      ],
      [
        "▁",
        "ide"
      ],
      [
        "r",
        "aw"
      ],
      [
        "▁it",
        "s"
      ],
      [
        "▁purpos",
        "es"
      ],
      [
        "▁inf",
        "l"
      ],
      [
        "▁sign",
        "ing"
      ],
      [
        "▁ac",
        "t"
      ],
      [
        "▁tas",
        "te"
      ],
      [
        "▁s",
        "ame"
      ],
      [
        "▁mech",
        "an"
      ],
      [
        "ar",
        "d"
      ],
      [
        "ir",
        "us"
      ],
      [
        "▁mem",
        "ories"
      ],
      [
        "▁recommend",
        "ation"
      ],
      [
        "▁ques",
        "tions"
      ],
      [
        "a",
        "k"
      ],
      [
        "our",
        "s"
      ],
      [
        "▁c",
        "od"
      ],
      [
        "▁car",
        "ried"
      ],
      [
        "al",
        "ize"
      ],
      [
        "▁s",
        "el"
      ],
      [
        "▁m",
        "eth"
      ],
      [
        "▁earth",
        "qu"
      ],
      [
        "▁pe",
        "e"
      ],
      [
        "▁respons",
        "es"
      ],
      [
        "▁get",
        "s"
      ],
      [
        "li",
        "es"
      ],
      [
        "in",
        "ction"
      ],
      [
        "▁neighbor",
        "hood"
      ],
      [
        "os",
        "ed"
      ],
      [
        "▁y",
        "o"
      ],
      [
        "▁pri",
        "ce"
      ],
      [
        "▁ar",
        "tic"
      ],
      [
        "▁ro",
        "t"
      ],
      [
        "it",
        "ure"
      ],
      [
        "▁fung",
        "i"
      ],
      [
        "▁occas",
        "ions"
      ],
      [
        "▁par",
        "king"
      ],
      [
        "▁mark",
        "et"
      ],
      [
        "▁imp",
        "le"
      ],
      [
        "▁light",
        "ing"
      ],
      [
        "▁buil",
        "t"
      ],
      [
        "at",
        "i"
      ],
      [
        "▁quan",
        "tity"
      ],
      [
        "▁cros",
        "sing"
      ],
      [
        "▁act",
        "iv"
      ],
      [
        "▁l",
        "ock"
      ],
      [
        "▁play",
        "ed"
      ],
      [
        "olog",
        "ical"
      ],
      [
        "▁http://www",
        "."
      ],
      [
        "▁con",
        "su"
      ],
      [
        "i",
        "ke"
      ],
      [
        "▁m",
        "old"
      ],
      [
        "▁isl",
        "am"
      ],
      [
        "▁ag",
        "o"
      ],
      [
        "▁pres",
        "s"
      ],
      [
        "▁hel",
        "d"
      ],
      [
        "us",
        "ions"
      ],
      [
        "▁g",
        "n"
      ],
      [
        "▁comp",
        "le"
      ],
      [
        "▁t",
        "ax"
      ],
      [
        "▁sec",
        "ret"
      ],
      [
        "ca",
        "pe"
      ],
      [
        "or",
        "d"
      ],
      [
        "▁fo",
        "x"
      ],
      [
        "▁v",
        "er"
      ],
      [
        "▁s",
        "ug"
      ],
      [
        "▁r",
        "educ"
      ],
      [
        "▁sa",
        "ved"
      ],
      [
        "▁f",
        "it"
      ],
      [
        "derstand",
        "ing"
      ],
      [
        "r",
        "ance"
      ],
      [
        "▁laun",
        "ched"
      ],
      [
        "▁vers",
        "e"
      ],
      [
        "ol",
        "ve"
      ],
      [
        "au",
        "se"
      ],
      [
        "▁part",
        "ner"
      ],
      [
        "▁po",
        "w"
      ],
      [
        "▁",
        "**"
      ],
      [
        "▁ne",
        "g"
      ],
      [
        "▁des",
        "igned"
      ],
      [
        "f",
        "f"
      ],
      [
        "▁as",
        "tride"
      ],
      [
        "▁c",
        "ard"
      ],
      [
        "▁tour",
        "s"
      ],
      [
        "▁mo",
        "tion"
      ],
      [
        "▁pyr",
        "am"
      ],
      [
        "▁t",
        "owed"
      ],
      [
        "▁s",
        "ink"
      ],
      [
        "s",
        "ually"
      ],
      [
        "▁sat",
        "ur"
      ],
      [
        "▁par",
        "ticip"
      ],
      [
        "▁c",
        "odes"
      ],
      [
        "▁mis",
        "sing"
      ],
      [
        "▁aim",
        "s"
      ],
      [
        "▁pet",
        "s"
      ],
      [
        "▁sn",
        "itch"
      ],
      [
        "t",
        "op"
      ],
      [
        "k",
        "s"
      ],
      [
        "ow",
        "ers"
      ],
      [
        "--------",
        "----"
      ],
      [
        "▁o",
        "k"
      ],
      [
        "▁ad",
        "j"
      ],
      [
        "o",
        "ted"
      ],
      [
        "▁cro",
        "p"
      ],
      [
        "▁let",
        "s"
      ],
      [
        "▁h",
        "o"
      ],
      [
        "▁f",
        "l"
      ],
      [
        "ab",
        "b"
      ],
      [
        "cro",
        "ss"
      ],
      [
        "est",
        "ing"
      ],
      [
        "w",
        "ood"
      ],
      [
        "▁isl",
        "ands"
      ],
      [
        "▁lo",
        "ad"
      ],
      [
        "▁destro",
        "yed"
      ],
      [
        "▁house",
        "hold"
      ],
      [
        "▁ad",
        "ding"
      ],
      [
        "▁am",
        "b"
      ],
      [
        "o",
        "und"
      ],
      [
        "▁t",
        "utor"
      ],
      [
        "▁war",
        "s"
      ],
      [
        "▁l",
        "ink"
      ],
      [
        "▁",
        "iss"
      ],
      [
        "▁hop",
        "e"
      ],
      [
        "i",
        "ated"
      ],
      [
        "▁n",
        "e"
      ],
      [
        "▁down",
        "town"
      ],
      [
        "on",
        "al"
      ],
      [
        "ol",
        "l"
      ],
      [
        "▁inv",
        "olved"
      ],
      [
        "▁un",
        "f"
      ],
      [
        "▁cons",
        "c"
      ],
      [
        "▁[",
        "..."
      ],
      [
        "▁assoc",
        "iate"
      ],
      [
        "▁pre",
        "tt"
      ],
      [
        "er",
        "ed"
      ],
      [
        "▁sp",
        "ending"
      ],
      [
        "▁bro",
        "ad"
      ],
      [
        "▁l",
        "angu"
      ],
      [
        "▁deli",
        "very"
      ],
      [
        "▁l",
        "ist"
      ],
      [
        "▁k",
        "i"
      ],
      [
        "▁educ",
        "ated"
      ],
      [
        "▁con",
        "struc"
      ],
      [
        "r",
        "aph"
      ],
      [
        "▁.",
        "."
      ],
      [
        "▁ba",
        "ck"
      ],
      [
        "ate",
        "g"
      ],
      [
        "▁expl",
        "ained"
      ],
      [
        "▁strength",
        "en"
      ],
      [
        "ound",
        "ed"
      ],
      [
        "▁tre",
        "at"
      ],
      [
        "▁ch",
        "ances"
      ],
      [
        "al",
        "t"
      ],
      [
        "p",
        "ite"
      ],
      [
        "▁week",
        "end"
      ],
      [
        "▁qu",
        "ote"
      ],
      [
        "i",
        "ts"
      ],
      [
        "▁e",
        "st"
      ],
      [
        "in",
        "ated"
      ],
      [
        "w",
        "est"
      ],
      [
        "▁ev",
        "idence"
      ],
      [
        "▁b",
        "/"
      ],
      [
        "▁s",
        "ant"
      ],
      [
        "▁fig",
        "ured"
      ],
      [
        "umb",
        "led"
      ],
      [
        "▁ma",
        "y"
      ],
      [
        "▁st",
        "ay"
      ],
      [
        "▁t",
        "ack"
      ],
      [
        "ct",
        "ion"
      ],
      [
        "▁",
        "d"
      ],
      [
        "▁ent",
        "er"
      ],
      [
        "▁some",
        "body"
      ],
      [
        "as",
        "ts"
      ],
      [
        "▁al",
        "lig"
      ],
      [
        "o",
        "kes"
      ],
      [
        "▁read",
        "s"
      ],
      [
        "▁commission",
        "er"
      ],
      [
        "t",
        "es"
      ],
      [
        "▁wor",
        "m"
      ],
      [
        "▁hamb",
        "ur"
      ],
      [
        "▁sign",
        "ific"
      ],
      [
        "▁div",
        "isions"
      ],
      [
        "▁pl",
        "e"
      ],
      [
        "▁phr",
        "ase"
      ],
      [
        "▁swim",
        "ming"
      ],
      [
        "▁add",
        "iction"
      ],
      [
        "ul",
        "y"
      ],
      [
        "▁'",
        "s"
      ],
      [
        "▁po",
        "lic"
      ],
      [
        "▁bod",
        "ies"
      ],
      [
        "▁supp",
        "orted"
      ],
      [
        "▁micro",
        "phone"
      ],
      [
        "▁co",
        "ast"
      ],
      [
        "▁gen",
        "erated"
      ],
      [
        "i",
        "pped"
      ],
      [
        "▁ch",
        "oice"
      ],
      [
        "▁",
        "un"
      ],
      [
        "ect",
        "ion"
      ],
      [
        "▁",
        "ll"
      ],
      [
        "▁relationship",
        "s"
      ],
      [
        "▁con",
        "se"
      ],
      [
        "z",
        "ing"
      ],
      [
        "▁wa",
        "it"
      ],
      [
        "r",
        "on"
      ],
      [
        "▁c",
        "h"
      ],
      [
        "▁a",
        "n"
      ],
      [
        "amb",
        "ment"
      ],
      [
        "us",
        "ted"
      ],
      [
        "a",
        "pping"
      ],
      [
        "ig",
        "ning"
      ],
      [
        "o",
        "v"
      ],
      [
        "▁h",
        "alf"
      ],
      [
        "en",
        "n"
      ],
      [
        "▁le",
        "a"
      ],
      [
        "or",
        "ld"
      ],
      [
        "▁sub",
        "ject"
      ],
      [
        "▁potato",
        "es"
      ],
      [
        "▁r",
        "oot"
      ],
      [
        "▁or",
        "d"
      ],
      [
        "=",
        "----"
      ],
      [
        "▁li",
        "kes"
      ],
      [
        "▁bro",
        "ther"
      ],
      [
        "▁arri",
        "val"
      ],
      [
        "▁l",
        "ik"
      ],
      [
        "▁p",
        "osed"
      ],
      [
        "▁gd",
        "p"
      ],
      [
        "▁d",
        "oc"
      ],
      [
        "ali",
        "ties"
      ],
      [
        "er",
        "ences"
      ],
      [
        "ec",
        "ess"
      ],
      [
        "▁pos",
        "ted"
      ],
      [
        "▁st",
        "and"
      ],
      [
        "ar",
        "y"
      ],
      [
        "▁recip",
        "ient"
      ],
      [
        "▁decl",
        "ared"
      ],
      [
        "▁per",
        "hap"
      ],
      [
        "▁t",
        "iny"
      ],
      [
        "▁de",
        "ath"
      ],
      [
        "▁ext",
        "rem"
      ],
      [
        "i",
        "med"
      ],
      [
        "es",
        "ting"
      ],
      [
        "▁jo",
        "kes"
      ],
      [
        "ut",
        "or"
      ],
      [
        "at",
        "es"
      ],
      [
        "ac",
        "amole"
      ],
      [
        "▁ref",
        "use"
      ],
      [
        "c",
        "ha"
      ],
      [
        "d",
        "en"
      ],
      [
        "▁laugh",
        "ing"
      ],
      [
        "▁fr",
        "uit"
      ],
      [
        "▁throu",
        "gh"
      ],
      [
        "▁got",
        "ten"
      ],
      [
        "▁answer",
        "s"
      ],
      [
        "▁r",
        "ent"
      ],
      [
        "▁pen",
        "nies"
      ],
      [
        "▁’",
        "re"
      ],
      [
        "▁leg",
        "isl"
      ],
      [
        "▁",
        "both"
      ],
      [
        "▁tub",
        "e"
      ],
      [
        "en",
        "ef"
      ],
      [
        "▁cent",
        "re"
      ],
      [
        "▁af",
        "ric"
      ],
      [
        "▁mod",
        "ify"
      ],
      [
        "▁sp",
        "re"
      ],
      [
        "▁sel",
        "f"
      ],
      [
        "▁r",
        "ule"
      ],
      [
        "▁h",
        "ot"
      ],
      [
        "▁belief",
        "s"
      ],
      [
        "▁bun",
        "ny"
      ],
      [
        "▁certific",
        "ate"
      ],
      [
        "▁sur",
        "p"
      ],
      [
        "▁spl",
        "it"
      ],
      [
        "▁p",
        "up"
      ],
      [
        "▁alread",
        "y"
      ],
      [
        "or",
        "y"
      ],
      [
        "▁dan",
        "ger"
      ],
      [
        "▁c",
        "lo"
      ],
      [
        "ail",
        "s"
      ],
      [
        "▁prot",
        "ect"
      ],
      [
        "▁with",
        "out"
      ],
      [
        "▁vis",
        "its"
      ],
      [
        "▁weap",
        "ons"
      ],
      [
        "▁boy",
        "friend"
      ],
      [
        "▁po",
        "or"
      ],
      [
        "and",
        "ed"
      ],
      [
        "▁reg",
        "ist"
      ],
      [
        "▁t",
        "or"
      ],
      [
        "ate",
        "gy"
      ],
      [
        "▁pl",
        "us"
      ],
      [
        "▁m",
        "other"
      ],
      [
        "▁col",
        "or"
      ],
      [
        "▁s",
        "qui"
      ],
      [
        "am",
        "ole"
      ],
      [
        "▁h",
        "app"
      ],
      [
        "ac",
        "ks"
      ],
      [
        "▁rel",
        "ax"
      ],
      [
        "▁chr",
        "ist"
      ],
      [
        "▁boo",
        "t"
      ],
      [
        "▁vis",
        "it"
      ],
      [
        "z",
        "ations"
      ],
      [
        "▁slee",
        "ve"
      ],
      [
        "▁j",
        "am"
      ],
      [
        "is",
        "d"
      ],
      [
        "i",
        "r"
      ],
      [
        "▁cont",
        "ain"
      ],
      [
        "▁h",
        "it"
      ],
      [
        "id",
        "er"
      ],
      [
        "▁fe",
        "ature"
      ],
      [
        "▁sl",
        "ipped"
      ],
      [
        "▁tr",
        "ading"
      ],
      [
        "a",
        "lity"
      ],
      [
        "rup",
        "tion"
      ],
      [
        "▁b",
        "us"
      ],
      [
        "▁s",
        "alt"
      ],
      [
        "▁mos",
        "que"
      ],
      [
        "▁vers",
        "ions"
      ],
      [
        "▁dol",
        "ph"
      ],
      [
        "▁lea",
        "ving"
      ],
      [
        "um",
        "my"
      ],
      [
        "▁",
        "?"
      ],
      [
        "ag",
        "ing"
      ],
      [
        "▁deter",
        "i"
      ],
      [
        "▁el",
        "im"
      ],
      [
        "▁par",
        "liament"
      ],
      [
        "▁s",
        "ang"
      ],
      [
        "▁w",
        "ord"
      ],
      [
        "▁resul",
        "ted"
      ],
      [
        "▁s",
        "im"
      ],
      [
        "▁b",
        "ack"
      ],
      [
        "▁rapporte",
        "ur"
      ],
      [
        "un",
        "e"
      ],
      [
        "or",
        "ti"
      ],
      [
        "▁ca",
        "me"
      ],
      [
        "q",
        "ue"
      ],
[...]
