{
  "version": "1.0",
  "truncation": null,
  "padding": null,
  "added_tokens": [
    {
      "id": 755,
      "content": "[SEP]",
      "single_word": false,
      "lstrip": false,
      "rstrip": false,
      "normalized": false,
      "special": true
    },
    {
      "id": 813,
      "content": "[PAD]",
      "single_word": false,
      "lstrip": false,
      "rstrip": false,
      "normalized": false,
      "special": true
    },
    {
      "id": 1006,
      "content": "[CLS]",
      "single_word": false,
      "lstrip": false,
      "rstrip": false,
      "normalized": false,
      "special": true
    },
    {
      "id": 1849,
      "content": "[MASK]",
      "single_word": false,
      "lstrip": false,
      "rstrip": false,
      "normalized": false,
      "special": true
    },
    {
      "id": 3894,
      "content": "[UNK]",
      "single_word": false,
      "lstrip": false,
      "rstrip": false,
      "normalized": false,
      "special": true
    }
  ],
  "normalizer": {
    "type": "Sequence",
    "normalizers": [
      {
        "type": "NFD"
      },
      {
        "type": "Lowercase"
      },
      {
        "type": "StripAccents"
      }
    ]
  },
  "pre_tokenizer": {
    "type": "Sequence",
    "pretokenizers": [
      {
        "type": "Metaspace",
        "replacement": "▁",
        "prepend_scheme": "always",
        "split": true
      }
    ]
  },
  "post_processor": {
    "type": "TemplateProcessing",
    "single": [
      {
        "SpecialToken": {
          "id": "[CLS]",
          "type_id": 0
        }
      },
      {
        "Sequence": {
          "id": "A",
          "type_id": 0
        }
      },
      {
        "SpecialToken": {
          "id": "[SEP]",
          "type_id": 0
        }
      }
    ],
    "pair": [
      {
        "SpecialToken": {
          "id": "[CLS]",
          "type_id": 0
        }
      },
      {
        "Sequence": {
          "id": "A",
          "type_id": 0
        }
      },
      {
        "SpecialToken": {
          "id": "[SEP]",
          "type_id": 0
        }
      },
      {
        "Sequence": {
          "id": "B",
          "type_id": 1
        }
      },
      {
        "SpecialToken": {
          "id": "[SEP]",
          "type_id": 1
        }
      }
    ],
    "special_tokens": {
      "[CLS]": {
        "id": "[CLS]",
        "ids": [
          1006
        ],
        "tokens": [
          "[CLS]"
        ]
      },
      "[SEP]": {
        "id": "[SEP]",
        "ids": [
          755
        ],
        "tokens": [
          "[SEP]"
        ]
      }
    }
  },
  "decoder": {
    "type": "Metaspace",
    "replacement": "▁",
    "prepend_scheme": "always",
    "split": true
  },
  "model": {
    "type": "WordPiece",
    "unk_token": "[UNK]",
    "continuing_subword_prefix": "##",
    "max_input_chars_per_word": 100,
    "vocab": {
      "##ering": 0,
      "–": 1,
      "▁!.": 2,
      "##ction": 3,
      "▁fix": 4,
      "##iness": 5,
      "▁ag": 6,
      "▁beg": 7,
      "▁pit": 8,
      "▁bro": 9,
      "▁tas": 10,
      "##su": 11,
      "▁astride": 12,
      "▁’ll": 13,
      "##ables": 14,
      "##ution": 15,
      "▁path": 16,
      "##..": 17,
      "##rol": 18,
      "▁animals": 19,
      "▁sch": 20,
      "▁sched": 21,
      "▁bottom": 22,
      "▁rights": 23,
      "▁companies": 24,
      "##fl": 25,
      "▁may": 26,
      "▁neighbor": 27,
      "▁miles": 28,
      "▁partic": 29,
      "##lem": 30,
      "##ld": 31,
      "##ny": 32,
      "▁attention": 33,
      "##ych": 34,
      "▁through": 35,
      "▁apar": 36,
      "##??": 37,
      "##rax": 38,
      "##ater": 39,
      "▁issues": 40,
      "##band": 41,
      "▁[": 42,
      "▁noone": 43,
      "▁compon": 44,
      "##au": 45,
      "▁research": 46,
      "##xt": 47,
      "▁season": 48,
      "▁inst": 49,
      "##hood": 50,
      "##vailable": 51,
      "▁time": 52,
      "▁repres": 53,
      "▁ran": 54,
      "▁turning": 55,
      "▁viol": 56,
      "##ts": 57,
      "##chen": 58,
      "##ions": 59,
      "▁************************************************": 60,
      "##ched": 61,
      "▁bul": 62,
      "▁lady": 63,
      "▁week": 64,
      "▁body": 65,
      "▁nature": 66,
      "▁tv": 67,
      "##????????": 68,
      "##ork": 69,
      "▁person": 70,
      "▁corn": 71,
      "▁counterpar": 72,
      "▁camer": 73,
      "▁jud": 74,
      "▁master": 75,
      "▁report": 76,
      "▁cha": 77,
      "##ints": 78,
      "##el": 79,
      "▁fear": 80,
      "##mp": 81,
      "▁summer": 82,
      "##ory": 83,
      "▁sil": 84,
      "▁conditions": 85,
      "##tie": 86,
      "▁bed": 87,
      "##ss": 88,
      "##neath": 89,
      "##itt": 90,
      "▁incl": 91,
      "▁girl": 92,
      "▁mode": 93,
      "##operation": 94,
      "▁dragon": 95,
      "▁industry": 96,
      "▁lot": 97,
      "▁sw": 98,
      "▁brought": 99,
      "▁display": 100,
      "##cl": 101,
      "▁n": 102,
      "▁'re": 103,
      "^": 104,
      "▁bite": 105,
      "ς": 106,
      "▁asking": 107,
      "##be": 108,
      "##rou": 109,
      "▁'": 110,
      "▁from": 111,
      "▁camel": 112,
      "##ids": 113,
      "▁preven": 114,
      "▁cities": 115,
      "##isd": 116,
      "▁edit": 117,
      "##ag": 118,
      "##ements": 119,
      "s": 120,
      "▁notwithstanding": 121,
      "##raph": 122,
      "▁loss": 123,
      "▁blow": 124,
      "▁evening": 125,
      "##(": 126,
      "▁.?": 127,
      "▁issue": 128,
      "▁quit": 129,
      "##als": 130,
      "##=----": 131,
      "##form": 132,
      "▁flag": 133,
      "##alists": 134,
      "<": 135,
      "##1": 136,
      "▁on": 137,
      "▁difficul": 138,
      "▁litt": 139,
      "▁col": 140,
      "▁city": 141,
      "▁swww": 142,
      "▁become": 143,
      "##rel": 144,
      "▁open": 145,
      "##ders": 146,
      "▁pen": 147,
      "▁gar": 148,
      "##eti": 149,
      "▁-------------------------------------------------": 150,
      "▁weekend": 151,
      "▁p": 152,
      "▁mili": 153,
      "▁tuesday": 154,
      "▁cr": 155,
      "▁don": 156,
      "o": 157,
      "▁partners": 158,
      "▁over": 159,
      "▁shall": 160,
      "▁citi": 161,
      "##++": 162,
      "##rying": 163,
      "##ections": 164,
      "▁americ": 165,
      "▁favor": 166,
      "▁product": 167,
      "▁insp": 168,
      "▁miss": 169,
      "▁system": 170,
      "▁leg": 171,
      "▁fligh": 172,
      "##all": 173,
      "▁dogs": 174,
      "▁others": 175,
      "##duc": 176,
      "▁sto": 177,
      "▁pack": 178,
      "▁ha": 179,
      "▁resul": 180,
      "‘": 181,
      "▁pu": 182,
      "m": 183,
      "##inn": 184,
      "▁pop": 185,
      "▁car": 186,
      "▁ball": 187,
      "▁cage": 188,
      "##oration": 189,
      "##hether": 190,
      "##p;": 191,
      "▁sc": 192,
      "##se": 193,
      "##side": 194,
      "▁group": 195,
      "▁furn": 196,
      "▁outside": 197,
      "##ade": 198,
      "##rec": 199,
      "▁game": 200,
      "##ergy": 201,
      "▁took": 202,
      "##ump": 203,
      "▁wants": 204,
      "▁either": 205,
      "▁h": 206,
      "▁many": 207,
      "▁sy": 208,
      "▁tell": 209,
      "▁certai": 210,
      "##j": 211,
      "▁property": 212,
      "▁content": 213,
      "▁cent": 214,
      "##**********************************": 215,
      "##oring": 216,
      "##ounds": 217,
      "##anted": 218,
      "##right": 219,
      "##ou": 220,
      "▁'s": 221,
      "##.d": 222,
      "##iv": 223,
      "▁hors": 224,
      "▁___________": 225,
      "▁him": 226,
      "▁noticed": 227,
      "▁bus": 228,
      "▁?!": 229,
      "##aded": 230,
      "##like": 231,
      "▁morn": 232,
      "##light": 233,
      "##friend": 234,
      "▁??": 235,
      "▁ref": 236,
      "##amed": 237,
      "▁infl": 238,
      "▁good": 239,
      "##tives": 240,
      "▁interview": 241,
      "##lo": 242,
      "##ister": 243,
      "##ared": 244,
      "▁received": 245,
      "▁pa": 246,
      "▁dance": 247,
      "ε": 248,
      "##ema": 249,
      "▁guess": 250,
      "▁cond": 251,
      "ɛ": 252,
      "##lar": 253,
      "▁about": 254,
      "##----------------": 255,
      "▁scen": 256,
      "▁too": 257,
      "▁tent": 258,
      "▁nor": 259,
      "##amb": 260,
      "▁pass": 261,
      "▁ships": 262,
      "##ians": 263,
      "##llow": 264,
      "▁1": 265,
      "▁bomb": 266,
      "▁disp": 267,
      "▁offices": 268,
      "##con": 269,
      "▁-": 270,
      "##ard": 271,
      "▁dec": 272,
      "▁stock": 273,
      "▁changed": 274,
      "##uled": 275,
      "▁nonstop": 276,
      "##berry": 277,
      "▁staff": 278,
      "▁holiday": 279,
      "##ually": 280,
      "##ur": 281,
      "▁check": 282,
      "##...": 283,
      "▁sitting": 284,
      "▁catch": 285,
      "##ake": 286,
      "##ample": 287,
      "▁man": 288,
      "##otw": 289,
      "▁|--------+----------------": 290,
      "##val": 291,
      "▁dinosaur": 292,
      "##ozer": 293,
      "##ison": 294,
      "##ners": 295,
      "##ive": 296,
      "▁memory": 297,
      "▁lab": 298,
      "▁theory": 299,
      "▁menti": 300,
      "##0": 301,
      "▁sales": 302,
      "▁should": 303,
      "▁lips": 304,
      "##ha": 305,
      "▁cl": 306,
      "##ish": 307,
      "▁press": 308,
      "##d": 309,
      "▁out": 310,
      "▁respons": 311,
      "##ony": 312,
      "▁accep": 313,
      "##other": 314,
      "▁ple": 315,
      "▁types": 316,
      "▁thoughts": 317,
      "▁inf": 318,
      "##ator": 319,
      "##mitted": 320,
      "▁hundreds": 321,
      "u": 322,
      "▁lay": 323,
      "▁bowl": 324,
      "##--------+----------------": 325,
      "▁responsibility": 326,
      "▁anoder": 327,
      "##ide": 328,
      "▁jump": 329,
      "▁downtown": 330,
      "##per": 331,
      "▁tw": 332,
      "##ival": 333,
      "▁provides": 334,
      "▁mech": 335,
      "▁b/": 336,
      "▁cat": 337,
      "▁old": 338,
      "▁concern": 339,
      "▁bre": 340,
      "▁gun": 341,
      "▁pret": 342,
      "▁menu": 343,
      "▁film": 344,
      "▁so": 345,
      "▁comb": 346,
      "▁island": 347,
      "##oods": 348,
      "▁!!!?": 349,
      "##!!!!!!!!": 350,
      "##ri": 351,
      "▁direc": 352,
      "▁levels": 353,
      "▁read": 354,
      "##ret": 355,
      "##ants": 356,
      "▁mosqu": 357,
      "▁period": 358,
      "▁going": 359,
      "▁b": 360,
      "▁accept": 361,
      "##’": 362,
      "▁!!!!!!!!!!": 363,
      "▁bel": 364,
      "##tery": 365,
      "▁pos": 366,
      "▁begin": 367,
      "##uted": 368,
      "▁penc": 369,
      "▁fax": 370,
      "##olving": 371,
      "▁pip": 372,
      "##,": 373,
      "▁want": 374,
      "▁yourself": 375,
      "▁hang": 376,
      "▁cig": 377,
      "▁party": 378,
      "##ount": 379,
      "##ests": 380,
      "▁bu": 381,
      "##ense": 382,
      "##out": 383,
      "##ught": 384,
      "▁funds": 385,
      "##ili": 386,
      "▁objec": 387,
      "##????????????????": 388,
      "▁sm": 389,
      "▁s’": 390,
      "▁king": 391,
      "▁could": 392,
      "▁published": 393,
      "▁millions": 394,
      "▁concl": 395,
      "▁legisl": 396,
      "▁board": 397,
      "▁amidst": 398,
      "##isted": 399,
      "▁ser": 400,
      "##ef": 401,
      "5": 402,
      "##2": 403,
      "##ally": 404,
      "▁analys": 405,
      "▁apply": 406,
      "##ower": 407,
      "▁indic": 408,
      "▁lots": 409,
      "▁date": 410,
      "##–": 411,
      "##ption": 412,
      "▁your": 413,
      "▁except": 414,
      "▁gre": 415,
      "▁fares": 416,
      "▁coo": 417,
      "▁cost": 418,
      "▁gr": 419,
      "##+----------------": 420,
      "##liament": 421,
      "▁power": 422,
      "▁thursday": 423,
      "▁dis": 424,
      "▁meals": 425,
      "▁mentioned": 426,
      "##²": 427,
      "##ect": 428,
      "▁continue": 429,
      "▁nap": 430,
      "▁sol": 431,
      "▁lion": 432,
      "▁-----------------------------------------------------------------": 433,
      "7": 434,
      "▁doub": 435,
      "##ul": 436,
      "▁ground": 437,
      "▁emer": 438,
      "##ix": 439,
      "##rous": 440,
      "##ism": 441,
      "▁mot": 442,
      "▁territ": 443,
      "▁toast": 444,
      "##ligence": 445,
      "▁gri": 446,
      "▁way": 447,
      "▁truth": 448,
      "##ension": 449,
      "##derstand": 450,
      "▁second": 451,
      "##'clock": 452,
      "▁cartoon": 453,
      "▁d": 454,
      "▁a": 455,
      "▁adop": 456,
      "▁was": 457,
      "▁thousands": 458,
      "##af": 459,
      "▁both": 460,
      "▁<": 461,
      "▁jun": 462,
      "▁involved": 463,
      "▁covered": 464,
      "▁cle": 465,
      "##ang": 466,
      "##roduc": 467,
      "▁must": 468,
      "▁char": 469,
      "▁eggs": 470,
      "▁connection": 471,
      "▁schol": 472,
      "▁ob": 473,
      "▁toys": 474,
      "##....": 475,
      "▁adv": 476,
      "▁plants": 477,
      "##urs": 478,
      "##works": 479,
      "▁accident": 480,
      "##ties": 481,
      "▁ro": 482,
      "▁reg": 483,
      "▁regarding": 484,
      "##esday": 485,
      "▁bos": 486,
      "▁ordered": 487,
      "▁wi": 488,
      "##thers": 489,
      "▁ice": 490,
      "j": 491,
      "##room": 492,
      "▁ord": 493,
      "▁bot": 494,
      "▁needed": 495,
      "▁atmosphere": 496,
      "x": 497,
      "▁poss": 498,
      "▁hor": 499,
      "▁evidence": 500,
      "▁&am": 501,
      "▁offered": 502,
      "▁surprise": 503,
      "▁***": 504,
      "▁peace": 505,
      "##ve": 506,
      "##------------": 507,
      "▁starting": 508,
      "##gether": 509,
      "▁image": 510,
      "▁go": 511,
      "]": 512,
      "##pped": 513,
      "▁not": 514,
      "##zer": 515,
      "##erence": 516,
      "▁career": 517,
      "▁occ": 518,
      "▁mommy": 519,
      "##ł": 520,
      "▁pres": 521,
      "▁“": 522,
      "##ancing": 523,
      "##*": 524,
      "▁==----": 525,
      "▁bill": 526,
      "##ative": 527,
      "##kes": 528,
      "▁door": 529,
      "▁though": 530,
      "▁ac": 531,
      "▁princ": 532,
      "##ple": 533,
      "▁birthday": 534,
      "##derst": 535,
      "▁never": 536,
      "▁can": 537,
      "▁its": 538,
      "▁interv": 539,
      "▁defense": 540,
      "##arity": 541,
      "##ing": 542,
      "▁toy": 543,
      "▁assu": 544,
      "▁vehic": 545,
      "##‘": 546,
      "##ety": 547,
      "▁;": 548,
      "##row": 549,
      "▁-----------------": 550,
      "▁dog": 551,
      "##tures": 552,
      "▁walked": 553,
      "▁weather": 554,
      "▁giving": 555,
      "▁,": 556,
      "▁moved": 557,
      "▁thou": 558,
      "▁living": 559,
      "##erc": 560,
      "▁law": 561,
      "▁concer": 562,
      "▁rate": 563,
      "▁them": 564,
      "▁wife": 565,
      "▁conte": 566,
      "##atis": 567,
      "▁document": 568,
      "▁orig": 569,
      "▁wa": 570,
      "##elt": 571,
      "▁helped": 572,
      "▁men": 573,
      "▁da": 574,
      "##anc": 575,
      "▁century": 576,
      "##iety": 577,
      "▁bike": 578,
      "##de": 579,
      "##ashington": 580,
      "▁achieve": 581,
      "##ined": 582,
      "▁known": 583,
      "##ce": 584,
      "▁writ": 585,
      "▁beside": 586,
      "▁mass": 587,
      "##eared": 588,
      "##th": 589,
      "##aging": 590,
      "▁shape": 591,
      "▁last": 592,
      "▁id": 593,
      "ω": 594,
      "▁interests": 595,
      "##actions": 596,
      "▁hot": 597,
      "▁/": 598,
      "▁fun": 599,
      "▁basil": 600,
      "▁required": 601,
      "▁called": 602,
      "▁opportunity": 603,
      "##land": 604,
      "▁ir": 605,
      "z": 606,
      "##ball": 607,
      "▁puppy": 608,
      "▁hands": 609,
      "▁swee": 610,
      "▁service": 611,
      "##asts": 612,
      "▁student": 613,
      "##adel": 614,
      "▁capital": 615,
      "##resent": 616,
      "##ew": 617,
      "▁crow": 618,
      "▁”": 619,
      "##oved": 620,
      "##ery": 621,
      "▁innovation": 622,
      "##ington": 623,
      "▁gives": 624,
      "##uals": 625,
      "▁stand": 626,
      "ο": 627,
      "##ency": 628,
      "##inks": 629,
      "##ots": 630,
      "##iz": 631,
      "▁speaking": 632,
      "▁some": 633,
      "▁independ": 634,
      "##ains": 635,
      "##rup": 636,
      "▁conflict": 637,
      "▁!?": 638,
      "▁art": 639,
      "▁ear": 640,
      "▁appeared": 641,
      "▁tail": 642,
      "▁debate": 643,
      "▁get": 644,
      "▁coup": 645,
      "##iture": 646,
      "▁nov": 647,
      "▁bet": 648,
      "▁table": 649,
      "▁step": 650,
      "▁wan": 651,
      "▁exper": 652,
      "▁pub": 653,
      "##acted": 654,
      "##μ": 655,
      "##mes": 656,
      "▁fut": 657,
      "##ass": 658,
      "▁boat": 659,
      "▁dow": 660,
      "▁smo": 661,
      "▁sub": 662,
      "▁pic": 663,
      "▁run": 664,
      "▁bar": 665,
      "##line": 666,
      "▁prov": 667,
      "##mar": 668,
      "▁see": 669,
      "##ident": 670,
      "##iled": 671,
      "##ed": 672,
      "▁around": 673,
      "▁approach": 674,
      "▁rest": 675,
      "▁treatment": 676,
      "▁classes": 677,
      "##ise": 678,
      "▁----------------------------------------------------------------------": 679,
      "▁'ll": 680,
      "▁against": 681,
      "##ant": 682,
      "##ocol": 683,
      "▁climb": 684,
      "▁de": 685,
      "▁pil": 686,
      "▁tar": 687,
      "##stem": 688,
      "▁data": 689,
      "▁sp": 690,
      "##ood": 691,
      "±": 692,
      "▁–": 693,
      "▁sal": 694,
      "▁tele": 695,
      "▁anyone": 696,
      "▁upd": 697,
      "▁bedroom": 698,
      "##ech": 699,
      "▁everybody": 700,
      "▁programme": 701,
      "▁-----------------------------------------------------------------------": 702,
      "▁...": 703,
      "▁f": 704,
      "▁days": 705,
      "▁idea": 706,
      "##isco": 707,
      "▁cer": 708,
      "▁phot": 709,
      "▁suff": 710,
      "▁enab": 711,
      "▁tiger": 712,
      "##ka": 713,
      "▁understanding": 714,
      "▁resp": 715,
      "##ology": 716,
      "##ale": 717,
      "▁..": 718,
      "##ks": 719,
      "##gu": 720,
      "▁continu": 721,
      "##ell": 722,
      "▁contract": 723,
      "▁agre": 724,
      "##get": 725,
      "##clock": 726,
      "▁feet": 727,
      ",": 728,
      "▁‘": 729,
      "▁belon": 730,
      "##or": 731,
      "▁minus": 732,
      "##\"": 733,
      "##ibility": 734,
      "##earance": 735,
      "▁countries": 736,
      "▁marriage": 737,
      "##ere": 738,
      "▁added": 739,
      "▁respon": 740,
      "▁his": 741,
      "▁born": 742,
      "▁aft": 743,
      "▁relations": 744,
      "##els": 745,
      "##lity": 746,
      "▁record": 747,
      "▁'m": 748,
      "▁communication": 749,
      "##here": 750,
      "▁fit": 751,
      "▁estim": 752,
      "▁raised": 753,
      "▁rul": 754,
      "[SEP]": 755,
      "▁---=": 756,
      "▁amount": 757,
      "▁franc": 758,
      "##order": 759,
      "▁throughout": 760,
      "▁is": 761,
      "▁anybody": 762,
      "▁matter": 763,
      "▁they": 764,
      "­": 765,
      "##em": 766,
      "▁where": 767,
      "▁term": 768,
      "▁includes": 769,
      "▁media": 770,
      "▁wrote": 771,
      "▁mater": 772,
      "▁pool": 773,
      "▁money": 774,
      "8": 775,
      "▁transport": 776,
      "▁veget": 777,
      "▁version": 778,
      "▁tur": 779,
      "##ords": 780,
      "▁basis": 781,
      "▁without": 782,
      "##rib": 783,
      "▁works": 784,
      "▁forces": 785,
      "▁care": 786,
      "▁string": 787,
      "▁talking": 788,
      "▁!": 789,
      "▁let": 790,
      "▁another": 791,
      "▁manner": 792,
      "##“": 793,
      "▁row": 794,
      "▁’m": 795,
      "▁cars": 796,
      "▁disaster": 797,
      "▁were": 798,
      "▁:?": 799,
      "▁sleep": 800,
      "▁served": 801,
      "▁requi": 802,
      "▁enjoyed": 803,
      "▁head": 804,
      "##υ": 805,
      "▁repe": 806,
      "##uch": 807,
      "▁exam": 808,
      "##lished": 809,
      "▁months": 810,
      "##ea": 811,
      "▁walking": 812,
      "[PAD]": 813,
      "▁use": 814,
      "##aint": 815,
      "▁noise": 816,
      "##ify": 817,
      "##ee": 818,
      "▁baltimore": 819,
      "▁range": 820,
      "##c": 821,
      "▁bit": 822,
      "▁pain": 823,
      "##ren": 824,
      "##ici": 825,
      "▁hide": 826,
      "▁dirt": 827,
      "▁juice": 828,
      "▁monkey": 829,
      "▁side": 830,
      "▁vis": 831,
      "▁provided": 832,
      "▁threw": 833,
      "▁bott": 834,
      "▁stre": 835,
      "▁guys": 836,
      "▁advant": 837,
      "▁light": 838,
      "▁condition": 839,
      "▁everyone": 840,
      "▁including": 841,
      "##tile": 842,
      "▁ke": 843,
      "▁becom": 844,
      "▁descri": 845,
      "▁parties": 846,
      "##ently": 847,
      "▁st": 848,
      "##if": 849,
      "▁streets": 850,
      "##ruc": 851,
      "▁work": 852,
      "▁auth": 853,
      "##ames": 854,
      "▁technology": 855,
      "▁aspects": 856,
      "▁air": 857,
      "##ei": 858,
      "▁nobody": 859,
      "▁cons": 860,
      "##ought": 861,
      "▁cry": 862,
      "▁machine": 863,
      "▁am": 864,
      "##craft": 865,
      "▁hav": 866,
      "▁opened": 867,
      "##oon": 868,
      "▁then": 869,
      "▁big": 870,
      "▁holding": 871,
      "▁langu": 872,
      "##reds": 873,
      "▁versus": 874,
      "##r": 875,
      "▁vs.": 876,
      "▁ur": 877,
      "▁call": 878,
      "▁keep": 879,
      "##orting": 880,
      "▁pal": 881,
      "▁or": 882,
      "▁repl": 883,
      "##mb": 884,
      "##ll": 885,
      "▁despite": 886,
      "##oot": 887,
      "▁rates": 888,
      "▁!!!!!!": 889,
      "▁...................": 890,
      "▁maint": 891,
      "▁response": 892,
      "▁end": 893,
      "▁equ": 894,
      "##oin": 895,
      "##end": 896,
      "▁moving": 897,
      "▁reduc": 898,
      "##lly": 899,
      "▁deal": 900,
      "##ail": 901,
      "▁gu": 902,
      "##ρ": 903,
      "▁count": 904,
      "▁ourselves": 905,
      "—": 906,
      ">": 907,
      "▁thir": 908,
      "▁rules": 909,
      "##tering": 910,
      "▁goods": 911,
      "##hic": 912,
      "##nut": 913,
      "##tive": 914,
      "▁webs": 915,
      "▁datab": 916,
      "##ration": 917,
      "ɑ": 918,
      "##ying": 919,
      "▁straw": 920,
      "▁cart": 921,
      "▁towards": 922,
      "##ir": 923,
      "▁muse": 924,
      "▁friends": 925,
      "▁play": 926,
      "▁review": 927,
      "##ait": 928,
      "▁scale": 929,
      "▁position": 930,
      "▁loved": 931,
      "*": 932,
      "▁ver": 933,
      "▁ma": 934,
      "▁government": 935,
      "▁died": 936,
      "▁future": 937,
      "▁bottle": 938,
      "##alities": 939,
      "▁displ": 940,
      "▁trans": 941,
      "▁wedding": 942,
      "##si": 943,
      "##oices": 944,
      "▁stud": 945,
      "▁restaur": 946,
      "##qu": 947,
      "▁section": 948,
      "▁cover": 949,
      "##edom": 950,
      "▁ton": 951,
      "▁gi": 952,
      "▁und": 953,
      "##acks": 954,
      "▁attem": 955,
      "##ribution": 956,
      "##tion": 957,
      "##ording": 958,
      "▁spir": 959,
      "▁benef": 960,
      "##lig": 961,
      "▁voice": 962,
      "▁ab": 963,
      "▁pi": 964,
      "##ch": 965,
      "▁br": 966,
      "▁well": 967,
      "##oo": 968,
      "##place": 969,
      "▁themselves": 970,
      "##orders": 971,
      "▁anti": 972,
      "▁appears": 973,
      "▁advice": 974,
      "##uses": 975,
      "▁pat": 976,
      "▁ev": 977,
      "##ip": 978,
      "##uts": 979,
      "##ich": 980,
      "##ʃ": 981,
      "▁har": 982,
      "▁reports": 983,
      "▁measures": 984,
      "##i": 985,
      "▁ears": 986,
      "##uit": 987,
      "▁?????": 988,
      "▁`": 989,
      "▁econom": 990,
      "##[": 991,
      "▁customer": 992,
      "▁se": 993,
      "▁z": 994,
      "▁failed": 995,
      "##ak": 996,
      "##ick": 997,
      "##ything": 998,
      "▁hear": 999,
      "▁roo": 1000,
      "▁govern": 1001,
      "▁add": 1002,
      "▁structure": 1003,
      "##oul": 1004,
      "##ees": 1005,
      "[CLS]": 1006,
      "▁services": 1007,
      "##ops": 1008,
      "ə": 1009,
      "▁kept": 1010,
      "▁poli": 1011,
      "##sul": 1012,
      "##—": 1013,
      "▁television": 1014,
      "▁think": 1015,
      "##lu": 1016,
      "##izing": 1017,
      "▁duck": 1018,
      "##ca": 1019,
      "▁ban": 1020,
      "▁apartment": 1021,
      "▁fail": 1022,
      "▁heads": 1023,
      "▁learn": 1024,
      "▁helps": 1025,
      "▁?!?": 1026,
      "▁saturday": 1027,
      "▁peoples": 1028,
      "▁mor": 1029,
      "##'s": 1030,
      "▁jelly": 1031,
      "▁fe": 1032,
      "##erve": 1033,
      "▁enj": 1034,
      "##ottable": 1035,
      "▁than": 1036,
      "▁leading": 1037,
      "##ly": 1038,
      "##ible": 1039,
      "▁rat": 1040,
      "▁relig": 1041,
      "▁grew": 1042,
      "##dy": 1043,
      "▁imp": 1044,
      "▁hom": 1045,
      "▁tour": 1046,
      "▁block": 1047,
      "▁philadel": 1048,
      "##ool": 1049,
      "##ture": 1050,
      "##on": 1051,
      "##boy": 1052,
      "@": 1053,
      "▁inj": 1054,
      "▁prep": 1055,
      "▁ap": 1056,
      "▁pep": 1057,
      "▁stay": 1058,
      "##iver": 1059,
      "##ach": 1060,
      "▁beat": 1061,
      "▁death": 1062,
      "▁arri": 1063,
      "▁breakfast": 1064,
      "##uh": 1065,
      "##sts": 1066,
      "▁pri": 1067,
      "##outh": 1068,
      "▁shown": 1069,
      "▁prom": 1070,
      "▁pay": 1071,
      "▁news": 1072,
      "▁to": 1073,
      "▁oneself": 1074,
      "▁hers": 1075,
      "▁mention": 1076,
      "▁generation": 1077,
      "▁included": 1078,
      "▁how": 1079,
      "▁hund": 1080,
      "##selve": 1081,
      "▁vs": 1082,
      "▁guid": 1083,
      "▁mind": 1084,
      "▁teeth": 1085,
      "▁behavi": 1086,
      "▁budget": 1087,
      "▁bulldozer": 1088,
      "▁company": 1089,
      "▁listen": 1090,
      "##tain": 1091,
      "##ational": 1092,
      "▁ar": 1093,
      "▁cloth": 1094,
      "▁yesterday": 1095,
      "▁bat": 1096,
      "▁cream": 1097,
      "▁": 1098,
      "##mate": 1099,
      "▁make": 1100,
      "▁wee": 1101,
      ".": 1102,
      "##ception": 1103,
      "##eration": 1104,
      "##ament": 1105,
      "##ecting": 1106,
      "##and": 1107,
      "##alth": 1108,
      "▁plus": 1109,
      "▁all": 1110,
      "▁value": 1111,
      "##ust": 1112,
      "▁pillow": 1113,
      "▁mama": 1114,
      "▁clothing": 1115,
      "##ugg": 1116,
      "##/he": 1117,
      "▁kid": 1118,
      "##{": 1119,
      "##ached": 1120,
      "▁fac": 1121,
      "▁sn": 1122,
      "##atives": 1123,
      "▁banana": 1124,
      "##imed": 1125,
      "▁mount": 1126,
      "▁performance": 1127,
      "▁comp": 1128,
      "##ced": 1129,
      "▁situation": 1130,
      "▁fre": 1131,
      "▁bri": 1132,
      "▁su": 1133,
      "##aw": 1134,
      "▁posted": 1135,
      "▁independence": 1136,
      "##unch": 1137,
      "##ilities": 1138,
      "▁confir": 1139,
      "##enc": 1140,
      "▁des": 1141,
      "##!!": 1142,
      "▁tea": 1143,
      "▁famili": 1144,
      "▁organiz": 1145,
      "##ated": 1146,
      "▁type": 1147,
      "▁refl": 1148,
      "##osing": 1149,
      "▁salt": 1150,
      "▁piv": 1151,
      "▁again": 1152,
      "▁******************************************************************": 1153,
      "▁seeing": 1154,
      "▁whale": 1155,
      "▁wheel": 1156,
      "##ily": 1157,
      "▁broke": 1158,
      "##memb": 1159,
      "▁doing": 1160,
      "▁guy": 1161,
      "▁sugges": 1162,
      "##dle": 1163,
      "##t": 1164,
      "▁cere": 1165,
      "▁babies": 1166,
      "##ace": 1167,
      "▁sandwich": 1168,
      "##og": 1169,
      "▁wed": 1170,
      "##ression": 1171,
      "▁pros": 1172,
      "##ct": 1173,
      "▁appear": 1174,
      "##.doc": 1175,
      "▁lives": 1176,
      "▁aboard": 1177,
      "▁je": 1178,
      "▁across": 1179,
      "##ves": 1180,
      "▁hat": 1181,
      "▁minute": 1182,
      "▁enjoy": 1183,
      "▁rabb": 1184,
      "##ycle": 1185,
      "▁anything": 1186,
      "▁contact": 1187,
      "##ers": 1188,
      "▁more": 1189,
      "▁church": 1190,
      "##les": 1191,
      "##ject": 1192,
      "▁li": 1193,
      "▁just": 1194,
      "##ance": 1195,
      "##ket": 1196,
      "▁one": 1197,
      "▁acc": 1198,
      "##av": 1199,
      "▁field": 1200,
      "▁began": 1201,
      "##ging": 1202,
      "▁gon": 1203,
      "##ligh": 1204,
      "##uring": 1205,
      "##ipped": 1206,
      "▁office": 1207,
      "▁spot": 1208,
      "▁since": 1209,
      "▁chap": 1210,
      "##xce": 1211,
      "##'t": 1212,
      "▁discussion": 1213,
      "##ock": 1214,
      "##alism": 1215,
      "##ply": 1216,
      "▁garden": 1217,
      "f": 1218,
      "▁photograph": 1219,
      "▁poet": 1220,
      "▁coun": 1221,
      "▁that": 1222,
      "##ol": 1223,
      "▁arrang": 1224,
      "##ients": 1225,
      "▁beginning": 1226,
      "▁it": 1227,
      "##any": 1228,
      "▁subject": 1229,
      "▁size": 1230,
      "▁mix": 1231,
      "##ain": 1232,
      "▁director": 1233,
      "▁our": 1234,
      "##chie": 1235,
      "▁left": 1236,
      "▁fire": 1237,
      "##ru": 1238,
      "▁notw": 1239,
      "##ely": 1240,
      "▁thank": 1241,
      "▁fri": 1242,
      "▁result": 1243,
      "▁are": 1244,
      "▁mi": 1245,
      "▁because": 1246,
      "▁arm": 1247,
      "▁missed": 1248,
      "▁spell": 1249,
      "ʻ": 1250,
      "▁!!!!!!!": 1251,
      "▁goal": 1252,
      "##****": 1253,
      "▁whether": 1254,
      "▁eat": 1255,
      "▁chick": 1256,
      "▁proposed": 1257,
      "▁hour": 1258,
      "▁increased": 1259,
      "▁management": 1260,
      "##-------": 1261,
      "##ye": 1262,
      "##ital": 1263,
      "▁credit": 1264,
      "▁ste": 1265,
      "▁sel": 1266,
      "▁shoes": 1267,
      "▁glass": 1268,
      "▁decision": 1269,
      "##cause": 1270,
      "▁people": 1271,
      "▁purpos": 1272,
      "▁describe": 1273,
      "##acked": 1274,
      "▁chocol": 1275,
      "##|": 1276,
      "##cle": 1277,
      "##anger": 1278,
      "(": 1279,
      "##ame": 1280,
      "##en": 1281,
      "▁picture": 1282,
      "##ather": 1283,
      "▁sup": 1284,
      "▁honey": 1285,
      "##ches": 1286,
      "▁…": 1287,
      "##ong": 1288,
      "▁technologies": 1289,
      "l": 1290,
      "##<": 1291,
      "▁music": 1292,
      "|": 1293,
      "▁fixed": 1294,
      "▁push": 1295,
      "##acy": 1296,
      "##=": 1297,
      "▁seem": 1298,
      "▁fare": 1299,
      "μ": 1300,
      "##ived": 1301,
      "▁iodine": 1302,
      "▁ta": 1303,
      "##ination": 1304,
      "▁comments": 1305,
      "▁prin": 1306,
      "##ght": 1307,
      "▁employ": 1308,
      "##man": 1309,
      "n": 1310,
      "▁along": 1311,
      "▁website": 1312,
      "▁flying": 1313,
      "▁roll": 1314,
      "##sh": 1315,
      "▁license": 1316,
      "##os": 1317,
      "▁crack": 1318,
      "▁region": 1319,
      "▁considered": 1320,
      "▁adults": 1321,
      "##use": 1322,
      "##ents": 1323,
      "▁depart": 1324,
      "##nesday": 1325,
      "##ger": 1326,
      "▁bod": 1327,
      "▁e-m": 1328,
      "b": 1329,
      "##ious": 1330,
      "##ati": 1331,
      "▁letters": 1332,
      "##ec": 1333,
      "▁labor": 1334,
      "##erate": 1335,
      "▁qu": 1336,
      "▁arti": 1337,
      "##irst": 1338,
      "▁hall": 1339,
      "i": 1340,
      "▁math": 1341,
      "▁include": 1342,
      "▁che": 1343,
      "▁resour": 1344,
      "▁military": 1345,
      "##ments": 1346,
      "##ali": 1347,
      "▁grass": 1348,
      "##ind": 1349,
      "##iving": 1350,
      "▁lic": 1351,
      "##/": 1352,
      "##time": 1353,
      "▁civ": 1354,
      "▁.......": 1355,
      "▁observ": 1356,
      "▁imm": 1357,
      "▁notice": 1358,
      "▁....": 1359,
      "▁using": 1360,
      "▁expl": 1361,
      "▁dark": 1362,
      "##u": 1363,
      "▁even": 1364,
      "▁baby": 1365,
      "▁reas": 1366,
      "##ma": 1367,
      "▁plan": 1368,
      "##ulations": 1369,
      "##fication": 1370,
      "1": 1371,
      "##gg": 1372,
      "▁ours": 1373,
      "▁traff": 1374,
      "▁exh": 1375,
      "▁fem": 1376,
      "▁mir": 1377,
      "▁nume": 1378,
      "▁exposure": 1379,
      "▁itself": 1380,
      "▁fing": 1381,
      "▁cust": 1382,
      "##phone": 1383,
      "▁arrived": 1384,
      "▁isl": 1385,
      "##ations": 1386,
      "▁deb": 1387,
      "▁import": 1388,
      "▁hum": 1389,
      "▁filter": 1390,
      "▁n't": 1391,
      "##lf": 1392,
      "##inging": 1393,
      "▁---------------------------------------------------------------------": 1394,
      "▁diff": 1395,
      "▁wednesday": 1396,
      "▁cup": 1397,
      "##elly": 1398,
      "▁techniqu": 1399,
      "▁claim": 1400,
      "##ternoon": 1401,
      "▁tom": 1402,
      "##rit": 1403,
      "▁gave": 1404,
      "▁expect": 1405,
      "▁drinking": 1406,
      "▁role": 1407,
      "▁seas": 1408,
      "##lation": 1409,
      "##olog": 1410,
      "##z": 1411,
      "▁floor": 1412,
      "##********************************": 1413,
      "▁held": 1414,
      "##ls": 1415,
      "▁heart": 1416,
      "▁struc": 1417,
      "▁hus": 1418,
      "▁standards": 1419,
      "▁means": 1420,
      "▁seemed": 1421,
      "▁answ": 1422,
      "▁yourselves": 1423,
      "▁ren": 1424,
      "▁inte": 1425,
      "##ans": 1426,
      "##mon": 1427,
      "##ault": 1428,
      "##ets": 1429,
      "▁asp": 1430,
      "▁****": 1431,
      "▁,?": 1432,
      "##way": 1433,
      "▁seems": 1434,
      "##ugh": 1435,
      "ł": 1436,
      "▁facts": 1437,
      "▁islands": 1438,
      "▁dough": 1439,
      "##ured": 1440,
      "▁bo": 1441,
      "▁face": 1442,
      "##ressed": 1443,
      "▁transportation": 1444,
      "'": 1445,
      "▁non": 1446,
      "▁vac": 1447,
      "##ley": 1448,
      "##ild": 1449,
      "##acking": 1450,
      "##pe": 1451,
      "##l": 1452,
      "▁connec": 1453,
      "##olved": 1454,
      "##encies": 1455,
      "▁names": 1456,
      "▁fi": 1457,
      "▁goes": 1458,
      "▁degre": 1459,
      "##onom": 1460,
      "##town": 1461,
      "▁buil": 1462,
      "##ess": 1463,
      "##uff": 1464,
      "▁users": 1465,
      "▁production": 1466,
      "▁council": 1467,
      "▁give": 1468,
      "▁constit": 1469,
      "▁level": 1470,
      "▁real": 1471,
      "▁cros": 1472,
      "▁weap": 1473,
      "▁beh": 1474,
      "▁fol": 1475,
      "##♥": 1476,
      "##ses": 1477,
      "▁beneath": 1478,
      ";": 1479,
      "▁in": 1480,
      "##ize": 1481,
      "▁pocket": 1482,
      "▁swim": 1483,
      "▁camera": 1484,
      "▁til": 1485,
      "##ators": 1486,
      "▁movement": 1487,
      "▁unlike": 1488,
      "▁?": 1489,
      "▁close": 1490,
      "##........": 1491,
      "##lers": 1492,
      "▁dese": 1493,
      "##ills": 1494,
      "##essed": 1495,
      "##igh": 1496,
      "##==": 1497,
      "##cer": 1498,
      "##ill": 1499,
      "▁with": 1500,
      "##cri": 1501,
      "##ors": 1502,
      "##ounts": 1503,
      "##tiv": 1504,
      "▁context": 1505,
      "##osed": 1506,
      "▁chan": 1507,
      "▁before": 1508,
      "##ic": 1509,
      "##yond": 1510,
      "▁airplan": 1511,
      "▁ter": 1512,
      "▁november": 1513,
      "▁challenges": 1514,
      "▁spring": 1515,
      "▁children": 1516,
      "▁developing": 1517,
      "▁ph": 1518,
      "##tions": 1519,
      "##ω": 1520,
      "▁repair": 1521,
      "##ra": 1522,
      "▁stic": 1523,
      "▁drop": 1524,
      "##ʒ": 1525,
      "##ways": 1526,
      "▁husband": 1527,
      "▁expected": 1528,
      "##idden": 1529,
      "##ank": 1530,
      "▁front": 1531,
      "β": 1532,
      "▁tu": 1533,
      "▁som": 1534,
      "##rew": 1535,
      "▁drive": 1536,
      "▁column": 1537,
      "▁ind": 1538,
      "▁em": 1539,
      "▁coord": 1540,
      "▁meas": 1541,
      "##urday": 1542,
      "##usion": 1543,
      "▁pan": 1544,
      "▁sha": 1545,
      "▁me": 1546,
      "▁gas": 1547,
      "▁loan": 1548,
      "▁success": 1549,
      "##act": 1550,
      "▁freedom": 1551,
      "##owl": 1552,
      "##erences": 1553,
      "▁trad": 1554,
      "##inc": 1555,
      "▁elements": 1556,
      "▁pie": 1557,
      "##ice": 1558,
      "▁likes": 1559,
      "##alist": 1560,
      "▁visit": 1561,
      "▁forms": 1562,
      "##agon": 1563,
      "##ateg": 1564,
      "▁follow": 1565,
      "##im": 1566,
      "▁doggie": 1567,
      "▁woud": 1568,
      "▁looks": 1569,
      "e": 1570,
      "▁but": 1571,
      "▁try": 1572,
      "▁answer": 1573,
      "##owers": 1574,
      "##cing": 1575,
      "▁estab": 1576,
      "▁running": 1577,
      "##inated": 1578,
      "##inds": 1579,
      "▁whoever": 1580,
      "▁understand": 1581,
      "▁rail": 1582,
      "▁'d": 1583,
      "▁val": 1584,
      "##ograph": 1585,
      "▁sect": 1586,
      "▁june": 1587,
      "▁telling": 1588,
      "▁laun": 1589,
      "##ession": 1590,
      "##oice": 1591,
      "▁less": 1592,
      "▁boxes": 1593,
      "##gle": 1594,
      "▁economy": 1595,
      "▁waiting": 1596,
      "▁few": 1597,
      "##eet": 1598,
      "▁cause": 1599,
      "▁safety": 1600,
      "##ates": 1601,
      "▁butter": 1602,
      "##ition": 1603,
      "▁joke": 1604,
      "##oned": 1605,
      "æ": 1606,
      "##hold": 1607,
      "▁issu": 1608,
      "▁statement": 1609,
      "##ained": 1610,
      "▁refer": 1611,
      "▁com": 1612,
      "##cent": 1613,
      "▁plane": 1614,
      "##kets": 1615,
      "##iding": 1616,
      "9": 1617,
      "▁options": 1618,
      "▁cheese": 1619,
      "▁potty": 1620,
      "▁dest": 1621,
      "▁depar": 1622,
      "▁based": 1623,
      "▁health": 1624,
      "▁ever": 1625,
      "##ama": 1626,
      "▁design": 1627,
      "▁soldiers": 1628,
      "▁other": 1629,
      "▁take": 1630,
      "▁nt": 1631,
      "▁growth": 1632,
      "▁agreement": 1633,
      "▁father": 1634,
      "▁fore": 1635,
      "##phia": 1636,
      "▁pur": 1637,
      "▁motor": 1638,
      "▁delive": 1639,
      "▁fro": 1640,
      "##**": 1641,
      "▁touch": 1642,
      "▁pig": 1643,
      "▁tri": 1644,
      "▁chee": 1645,
      "▁dri": 1646,
      "▁clothes": 1647,
      "▁ought": 1648,
      "▁workers": 1649,
      "▁sugar": 1650,
      "##orn": 1651,
      "▁times": 1652,
      "##ury": 1653,
      "▁ones": 1654,
      "▁values": 1655,
      "▁seat": 1656,
      "▁du": 1657,
      "▁sing": 1658,
      "▁port": 1659,
      "##8": 1660,
      "##~": 1661,
      "▁occur": 1662,
      "▁taken": 1663,
      "▁inc": 1664,
      "▁chair": 1665,
      "▁bunch": 1666,
      "▁solution": 1667,
      "##ˈ": 1668,
      "▁this": 1669,
      "▁happening": 1670,
      "##let": 1671,
      "##iation": 1672,
      "▁community": 1673,
      "▁ov": 1674,
      "##ape": 1675,
      "##)": 1676,
      "##dit": 1677,
      "##inus": 1678,
      "▁computer": 1679,
      "▁intended": 1680,
      "##alt": 1681,
      "▁’’": 1682,
      "▁her": 1683,
      "##lan": 1684,
      "▁whose": 1685,
      "▁sat": 1686,
      "▁trave": 1687,
      "##war": 1688,
      "▁tummy": 1689,
      "▁opportun": 1690,
      "##ond": 1691,
      "▁rub": 1692,
      "▁.........": 1693,
      "▁item": 1694,
      "▁carry": 1695,
      "▁die": 1696,
      "▁love": 1697,
      "##men": 1698,
      "▁temper": 1699,
      "6": 1700,
      "##ow": 1701,
      "▁dall": 1702,
      "▁month": 1703,
      "##eep": 1704,
      "▁addition": 1705,
      "▁do": 1706,
      "▁yours": 1707,
      "▁regar": 1708,
      "▁studies": 1709,
      "▁respect": 1710,
      "##tic": 1711,
      "▁winter": 1712,
      "▁visa": 1713,
      "##”": 1714,
      "##b": 1715,
      "▁myself": 1716,
      "▁wind": 1717,
      "##ti": 1718,
      "▁any": 1719,
      "▁choo": 1720,
      "▁december": 1721,
      "▁quinoa": 1722,
      "##ble": 1723,
      "▁bee": 1724,
      "▁ex": 1725,
      "▁opposite": 1726,
      "▁turn": 1727,
      "▁details": 1728,
      "▁calling": 1729,
      "##ising": 1730,
      "##so": 1731,
      "▁leaving": 1732,
      "w": 1733,
      "##ummy": 1734,
      "▁up": 1735,
      "##oke": 1736,
      "##********": 1737,
      "##amples": 1738,
      "▁came": 1739,
      "##nec": 1740,
      "▁ed": 1741,
      "▁temperature": 1742,
      "▁c": 1743,
      "▁earth": 1744,
      "▁remain": 1745,
      "▁wit": 1746,
      "##ered": 1747,
      "▁monday": 1748,
      "▁according": 1749,
      "▁oper": 1750,
      "▁bread": 1751,
      "##ember": 1752,
      "▁atmos": 1753,
      "##bo": 1754,
      "▁wol": 1755,
      "▁us": 1756,
      "▁mess": 1757,
      "▁********************************": 1758,
      "▁inn": 1759,
      "▁thing": 1760,
      "▁wo": 1761,
      "##ai": 1762,
      "▁sl": 1763,
      "▁key": 1764,
      "##ulated": 1765,
      "▁throu": 1766,
      "▁prefer": 1767,
      "##ence": 1768,
      "▁recommended": 1769,
      "##iate": 1770,
      "##ones": 1771,
      "▁given": 1772,
      "▁minut": 1773,
      "▁band": 1774,
      "▁cowboy": 1775,
      "##vel": 1776,
      "##ledge": 1777,
      "▁shut": 1778,
      "▁efforts": 1779,
      "▁every": 1780,
      "▁cases": 1781,
      "##et": 1782,
      "▁center": 1783,
      "##tors": 1784,
      "▁compl": 1785,
      "##oted": 1786,
      "▁foc": 1787,
      "##able": 1788,
      "▁applied": 1789,
      "▁conduc": 1790,
      "▁mummy": 1791,
      "##6": 1792,
      "▁ship": 1793,
      "▁scre": 1794,
      "▁spider": 1795,
      "▁upon": 1796,
      "##!!!": 1797,
      "##ung": 1798,
      "▁owners": 1799,
      "##ert": 1800,
      "▁by": 1801,
      "##ploy": 1802,
      "▁told": 1803,
      "▁fiel": 1804,
      "▁cow": 1805,
      "##ved": 1806,
      "▁located": 1807,
      "##oth": 1808,
      "▁which": 1809,
      "▁dev": 1810,
      "##itation": 1811,
      "▁restaurant": 1812,
      "▁imag": 1813,
      "▁un": 1814,
      "▁self": 1815,
      "##aps": 1816,
      "▁met": 1817,
      "##uro": 1818,
      "▁effects": 1819,
      "▁point": 1820,
      "▁perform": 1821,
      "##gre": 1822,
      "##ia": 1823,
      "▁storm": 1824,
      "##ned": 1825,
      "▁>>": 1826,
      "▁mrs": 1827,
      "##erv": 1828,
      "▁numbers": 1829,
      "▁det": 1830,
      "▁net": 1831,
      "##ws": 1832,
      "▁uncle": 1833,
      "▁attacks": 1834,
      "##ground": 1835,
      "##•": 1836,
      "▁suicide": 1837,
      "▁al": 1838,
      "▁bud": 1839,
      "▁ways": 1840,
      "##avor": 1841,
      "##vision": 1842,
      "▁rev": 1843,
      "▁relationship": 1844,
      "▁sources": 1845,
      "##own": 1846,
      "##atch": 1847,
      "##urity": 1848,
      "[MASK]": 1849,
      "▁organization": 1850,
      "##ax": 1851,
      "▁schools": 1852,
      "##ping": 1853,
      "▁created": 1854,
      "##_": 1855,
      "▁together": 1856,
      "▁daughter": 1857,
      "▁house": 1858,
      "▁points": 1859,
      "▁exch": 1860,
      "▁differences": 1861,
      "##vest": 1862,
      "##le": 1863,
      "▁mag": 1864,
      "▁something": 1865,
      "▁recip": 1866,
      "▁banan": 1867,
      "▁pers": 1868,
      "##hes": 1869,
      "##est": 1870,
      "▁rele": 1871,
      "##β": 1872,
      "▁tax": 1873,
      "▁sme": 1874,
      "##ums": 1875,
      "▁exhib": 1876,
      "##site": 1877,
      "##bur": 1878,
      "▁sports": 1879,
      "▁legislation": 1880,
      "##ino": 1881,
      "▁thru": 1882,
      "▁desp": 1883,
      "##++++": 1884,
      "▁commission": 1885,
      "▁legos": 1886,
      "ʒ": 1887,
      "###": 1888,
      "##bly": 1889,
      "##ding": 1890,
      "##aces": 1891,
      "▁finding": 1892,
      "▁within": 1893,
      "##----------": 1894,
      "▁)": 1895,
      "▁hous": 1896,
      "▁tie": 1897,
      "▁presence": 1898,
      "▁year": 1899,
      "##q": 1900,
      "##umn": 1901,
      "▁iod": 1902,
      "▁es": 1903,
      "▁heat": 1904,
      "▁writer": 1905,
      "##ertai": 1906,
      "##ested": 1907,
      "▁ride": 1908,
      "▁skills": 1909,
      "##eeds": 1910,
      "▁trav": 1911,
      "▁dinner": 1912,
      "▁dece": 1913,
      "##--------": 1914,
      "▁seen": 1915,
      "▁forwar": 1916,
      "▁o'clock": 1917,
      "▁message": 1918,
      "▁no": 1919,
      "▁apprec": 1920,
      "▁also": 1921,
      "▁libr": 1922,
      "▁cash": 1923,
      "▁''": 1924,
      "▁prices": 1925,
      "▁sug": 1926,
      "▁ident": 1927,
      "##sm": 1928,
      "▁improve": 1929,
      "▁comed": 1930,
      "▁knowledge": 1931,
      "▁per": 1932,
      "▁bir": 1933,
      "▁cards": 1934,
      "##fri": 1935,
      "##oor": 1936,
      "##erated": 1937,
      "##ε": 1938,
      "▁sun": 1939,
      "##iew": 1940,
      "▁style": 1941,
      "▁movies": 1942,
      "▁dou": 1943,
      "▁mic": 1944,
      "##ς": 1945,
      "##&": 1946,
      "▁determ": 1947,
      "▁’": 1948,
      "▁and": 1949,
      "▁cookies": 1950,
      "▁button": 1951,
      "▁etc.": 1952,
      "v": 1953,
      "~": 1954,
      "▁plays": 1955,
      "▁atlanta": 1956,
      "##ole": 1957,
      "▁sli": 1958,
      "▁does": 1959,
      "·": 1960,
      "\"": 1961,
      "▁shoe": 1962,
      "▁vide": 1963,
      "##ook": 1964,
      "▁war": 1965,
      "▁boo": 1966,
      "##olution": 1967,
      "▁pictures": 1968,
      "▁avo": 1969,
      "▁morning": 1970,
      "##ities": 1971,
      "▁mathematics": 1972,
      "▁x": 1973,
      "▁’ve": 1974,
      "▁mur": 1975,
      "ʃ": 1976,
      "▁spe": 1977,
      "▁toward": 1978,
      "▁onto": 1979,
      "▁each": 1980,
      "##ature": 1981,
      "▁ann": 1982,
      "##ign": 1983,
      "▁beyond": 1984,
      "##red": 1985,
      "▁copy": 1986,
      "▁inclu": 1987,
      "▁murder": 1988,
      "▁south": 1989,
      "▁{": 1990,
      "##as": 1991,
      "##enti": 1992,
      "▁lost": 1993,
      "##omp": 1994,
      "▁proced": 1995,
      "▁stop": 1996,
      "▁citizens": 1997,
      "▁deli": 1998,
      "▁name": 1999,
      "▁example": 2000,
      "▁recogn": 2001,
      "▁most": 2002,
      "##ø": 2003,
      "▁commun": 2004,
      "ʊ": 2005,
      "##an": 2006,
      "▁space": 2007,
      "▁bathroom": 2008,
      "▁friend": 2009,
      "##v": 2010,
      "▁coming": 2011,
      "▁file": 2012,
      "▁items": 2013,
      "œ": 2014,
      "##und": 2015,
      "##ester": 2016,
      "▁circ": 2017,
      "##nd": 2018,
      "##ocracy": 2019,
      "##gin": 2020,
      "▁settle": 2021,
      "▁creating": 2022,
      "▁min": 2023,
      "▁e": 2024,
      "▁t": 2025,
      "▁los": 2026,
      "▁hos": 2027,
      "##jec": 2028,
      "▁rabbit": 2029,
      "##ume": 2030,
      "▁reasons": 2031,
      "##%": 2032,
      "▁appl": 2033,
      "▁provide": 2034,
      "▁secret": 2035,
      "▁break": 2036,
      "▁flight": 2037,
      "▁aircraft": 2038,
      "▁grow": 2039,
      "▁pre": 2040,
      "▁box": 2041,
      "▁legs": 2042,
      "▁competition": 2043,
      "##epend": 2044,
      "▁phone": 2045,
      "q": 2046,
      "##plan": 2047,
      "▁class": 2048,
      "##ional": 2049,
      "▁|": 2050,
      "▁always": 2051,
      "##ter": 2052,
      "▁gets": 2053,
      "##old": 2054,
      "##ose": 2055,
      "▁trouble": 2056,
      "##bb": 2057,
      "▁ate": 2058,
      "▁uhhuh": 2059,
      "##ound": 2060,
      "▁these": 2061,
      "##anks": 2062,
      "▁energy": 2063,
      "▁got": 2064,
      "▁letter": 2065,
      "▁opp": 2066,
      "▁arrives": 2067,
      "##rated": 2068,
      "▁rule": 2069,
      "▁str": 2070,
      "▁there": 2071,
      "▁lived": 2072,
      "▁world": 2073,
      "▁security": 2074,
      "▁coff": 2075,
      "##lies": 2076,
      "▁theirs": 2077,
      "▁keeping": 2078,
      "▁those": 2079,
      "▁project": 2080,
      "▁saying": 2081,
      "##ulate": 2082,
      "▁oc": 2083,
      "▁text": 2084,
      "▁turned": 2085,
      "##φ": 2086,
      "▁internet": 2087,
      "##tered": 2088,
      "▁road": 2089,
      "▁lack": 2090,
      "▁o": 2091,
      "##thin": 2092,
      "▁sugg": 2093,
      "##nus": 2094,
      "##+": 2095,
      "##ical": 2096,
      "½": 2097,
      "▁written": 2098,
      "##erved": 2099,
      "##lik": 2100,
      "##ides": 2101,
      "▁words": 2102,
      "▁return": 2103,
      "▁yester": 2104,
      "▁growing": 2105,
      "▁showing": 2106,
      "##ress": 2107,
      "▁develop": 2108,
      "▁between": 2109,
      "▁hal": 2110,
      "▁cake": 2111,
      "▁dropped": 2112,
      "▁best": 2113,
      "▁administration": 2114,
      "▁market": 2115,
      "▁lea": 2116,
      "##ight": 2117,
      "▁r": 2118,
      "▁environ": 2119,
      "##ength": 2120,
      "▁certain": 2121,
      "##.": 2122,
      "##ience": 2123,
      "▁conv": 2124,
      "▁campaign": 2125,
      "▁choose": 2126,
      "▁land": 2127,
      "##k": 2128,
      "▁ent": 2129,
      "▁actions": 2130,
      "##ore": 2131,
      "▁coffee": 2132,
      "▁fin": 2133,
      "##ous": 2134,
      "##ected": 2135,
      "▁new": 2136,
      "##ord": 2137,
      "▁herself": 2138,
      "##o": 2139,
      "▁books": 2140,
      "▁activity": 2141,
      "▁like": 2142,
      "##ender": 2143,
      "▁closed": 2144,
      "▁imple": 2145,
      "▁kitty": 2146,
      "▁_______": 2147,
      "▁scienti": 2148,
      "▁wake": 2149,
      "%": 2150,
      "▁know": 2151,
      "▁_____": 2152,
      "▁share": 2153,
      "▁who's": 2154,
      "##ourn": 2155,
      "##ines": 2156,
      "▁rad": 2157,
      "##re": 2158,
      "▁if": 2159,
      "▁clean": 2160,
      "##overn": 2161,
      "▁administ": 2162,
      "##formed": 2163,
      "▁far": 2164,
      "##yth": 2165,
      "▁site": 2166,
      "▁song": 2167,
      "▁interest": 2168,
      "##olding": 2169,
      "▁sti": 2170,
      "##ure": 2171,
      "”": 2172,
      "▁departing": 2173,
      "##pl": 2174,
      "▁model": 2175,
      "##riage": 2176,
      "▁ri": 2177,
      "▁beauty": 2178,
      "##ens": 2179,
      "▁sour": 2180,
      "▁area": 2181,
      "##ument": 2182,
      "▁sign": 2183,
      "▁climate": 2184,
      "##ope": 2185,
      "▁na": 2186,
      "▁hea": 2187,
      "▁san": 2188,
      "▁stated": 2189,
      "##airs": 2190,
      "▁find": 2191,
      "▁reality": 2192,
      "▁act": 2193,
      "##mber": 2194,
      "##7": 2195,
      "σ": 2196,
      "▁dinos": 2197,
      "▁hair": 2198,
      "##­": 2199,
      "##eas": 2200,
      "##!": 2201,
      "▁desk": 2202,
      "▁effort": 2203,
      "##ould": 2204,
      "##ified": 2205,
      "▁discuss": 2206,
      "##isation": 2207,
      "▁years": 2208,
      "▁suc": 2209,
      "▁arg": 2210,
      "##fe": 2211,
      "##ked": 2212,
      "▁pupp": 2213,
      "▁lo": 2214,
      "▁???": 2215,
      "▁card": 2216,
      "##ead": 2217,
      "▁accepted": 2218,
      "▁momma": 2219,
      "▁speech": 2220,
      "▁'ve": 2221,
      "##co": 2222,
      "▁daddy": 2223,
      "▁spent": 2224,
      "▁police": 2225,
      "▁makes": 2226,
      "##ds": 2227,
      "▁attend": 2228,
      "##ices": 2229,
      "▁ach": 2230,
      "▁i": 2231,
      "▁happens": 2232,
      "##ə": 2233,
      "▁signed": 2234,
      "##ker": 2235,
      "▁q": 2236,
      "##bs": 2237,
      "▁opin": 2238,
      "▁ki": 2239,
      "#": 2240,
      "▁conversation": 2241,
      "▁soldi": 2242,
      "▁pot": 2243,
      "▁here": 2244,
      "▁commit": 2245,
      "▁plans": 2246,
      "▁neither": 2247,
      "▁spend": 2248,
      "▁committee": 2249,
      "▁mathema": 2250,
      "▁ai": 2251,
      "▁co": 2252,
      "##oh": 2253,
      "▁el": 2254,
      ")": 2255,
      "▁analysis": 2256,
      "▁purch": 2257,
      "▁breakf": 2258,
      "##ision": 2259,
      "▁view": 2260,
      "▁individ": 2261,
      "##hip": 2262,
      "##?": 2263,
      "▁park": 2264,
      "▁save": 2265,
      "▁instance": 2266,
      "▁chance": 2267,
      "’": 2268,
      "##der": 2269,
      "##cro": 2270,
      "▁very": 2271,
      "##ving": 2272,
      "##'": 2273,
      "▁third": 2274,
      "▁initi": 2275,
      "▁lines": 2276,
      "▁will": 2277,
      "##ased": 2278,
      "▁movie": 2279,
      "▁behin": 2280,
      "▁hur": 2281,
      "▁recog": 2282,
      "##ributed": 2283,
      "▁fork": 2284,
      "▁won": 2285,
      "▁unto": 2286,
      "##------": 2287,
      "▁doctor": 2288,
      "°": 2289,
      "▁hi": 2290,
      "##tor": 2291,
      "▁conse": 2292,
      "▁iss": 2293,
      "▁did": 2294,
      "▁ret": 2295,
      "▁problems": 2296,
      "▁cal": 2297,
      "▁fact": 2298,
      "##e": 2299,
      "▁teach": 2300,
      "##head": 2301,
      "▁tape": 2302,
      "##olve": 2303,
      "##od": 2304,
      "▁hop": 2305,
      "▁spec": 2306,
      "▁thous": 2307,
      "##velop": 2308,
      "##za": 2309,
      "▁would": 2310,
      "▁women": 2311,
      "▁kit": 2312,
      "▁down": 2313,
      "▁te": 2314,
      "▁characters": 2315,
      "▁via": 2316,
      "##ning": 2317,
      "▁bun": 2318,
      "▁school": 2319,
      "▁web": 2320,
      "▁killed": 2321,
      "##}": 2322,
      "▁!!!!!!!!!!!!!!!!!!!": 2323,
      "▁exc": 2324,
      "“": 2325,
      "▁wanted": 2326,
      "##oy": 2327,
      "##ult": 2328,
      "▁above": 2329,
      "##ouse": 2330,
      "▁character": 2331,
      "▁plenty": 2332,
      "▁pet": 2333,
      "##ato": 2334,
      "▁estimated": 2335,
      "▁process": 2336,
      "▁behind": 2337,
      "▁dist": 2338,
      "▁describ": 2339,
      "##pp": 2340,
      "▁recommend": 2341,
      "##bers": 2342,
      "▁noon": 2343,
      "▁opinion": 2344,
      "▁store": 2345,
      "▁dam": 2346,
      "▁belong": 2347,
      "▁bring": 2348,
      "▁disc": 2349,
      "▁wor": 2350,
      "▁information": 2351,
      "##ost": 2352,
      "▁impro": 2353,
      "##tc": 2354,
      "##ron": 2355,
      "▁etc": 2356,
      "▁ho": 2357,
      "▁ris": 2358,
      "▁cooperation": 2359,
      "▁apart": 2360,
      "##duction": 2361,
      "▁home": 2362,
      "##gency": 2363,
      "▁dere": 2364,
      "▁l": 2365,
      "▁kitchen": 2366,
      "▁discussed": 2367,
      "▁]": 2368,
      "•": 2369,
      "▁search": 2370,
      "▁pred": 2371,
      "▁stat": 2372,
      "##omm": 2373,
      "▁reserv": 2374,
      "##ling": 2375,
      "▁*": 2376,
      "▁dol": 2377,
      "##ibilities": 2378,
      "▁ti": 2379,
      "##thing": 2380,
      "▁planning": 2381,
      "▁blanket": 2382,
      "##ces": 2383,
      "▁author": 2384,
      "##ied": 2385,
      "▁percentage": 2386,
      "##lions": 2387,
      "▁insur": 2388,
      "▁ability": 2389,
      "▁vote": 2390,
      "▁team": 2391,
      "##cc": 2392,
      "▁payment": 2393,
      "##uc": 2394,
      "▁sum": 2395,
      "##0s": 2396,
      "▁thy": 2397,
      "▁>": 2398,
      "▁united": 2399,
      "▁circle": 2400,
      "##pos": 2401,
      "▁taking": 2402,
      "▁made": 2403,
      "##tity": 2404,
      "▁cri": 2405,
      "▁said": 2406,
      "▁visited": 2407,
      "##vers": 2408,
      "##fer": 2409,
      "▁round": 2410,
      "▁eye": 2411,
      "▁quar": 2412,
      "##oard": 2413,
      "##ov": 2414,
      "##n": 2415,
      "▁skin": 2416,
      "▁writing": 2417,
      "▁who": 2418,
      "▁instruc": 2419,
      "▁august": 2420,
      "▁numerous": 2421,
      "▁=---": 2422,
      "▁dre": 2423,
      "##ogn": 2424,
      "▁really": 2425,
      "##ton": 2426,
      "▁rep": 2427,
      "▁rememb": 2428,
      "▁identi": 2429,
      "▁......": 2430,
      "▁intelligence": 2431,
      "##aith": 2432,
      "▁study": 2433,
      "▁obt": 2434,
      "##mer": 2435,
      "##ably": 2436,
      "▁list": 2437,
      "▁believed": 2438,
      "▁making": 2439,
      "##----": 2440,
      "▁brain": 2441,
      "ø": 2442,
      "▁siz": 2443,
      "▁cats": 2444,
      "##iti": 2445,
      "▁besides": 2446,
      "▁colle": 2447,
      "▁decided": 2448,
      "▁off": 2449,
      "▁surp": 2450,
      "▁practice": 2451,
      "▁line": 2452,
      "▁corner": 2453,
      "▁broken": 2454,
      "##uss": 2455,
      "##ps": 2456,
      "▁members": 2457,
      "▁markets": 2458,
      "▁ll": 2459,
      "▁bom": 2460,
      "##ads": 2461,
      "▁represent": 2462,
      "▁categ": 2463,
      "▁trip": 2464,
      "c": 2465,
      "##w": 2466,
      "##ment": 2467,
      "▁mil": 2468,
      "▁squ": 2469,
      "▁laws": 2470,
      "▁discovered": 2471,
      "##.m": 2472,
      "▁medic": 2473,
      "##ent": 2474,
      "##ode": 2475,
      "##ports": 2476,
      "##---": 2477,
      "▁decades": 2478,
      "##alu": 2479,
      "▁uses": 2480,
      "▁number": 2481,
      "▁deter": 2482,
      "##'re": 2483,
      "▁travel": 2484,
      "▁still": 2485,
      "##ired": 2486,
      "▁pages": 2487,
      "▁journ": 2488,
      "##tai": 2489,
      "##ys": 2490,
      "▁video": 2491,
      "▁airline": 2492,
      "##’t": 2493,
      "##eel": 2494,
      "##cr": 2495,
      "▁proble": 2496,
      "▁….": 2497,
      "##avi": 2498,
      "▁scr": 2499,
      "##gr": 2500,
      "▁imagine": 2501,
      "##ne": 2502,
      "▁tem": 2503,
      "##ath": 2504,
      "##urned": 2505,
      "▁root": 2506,
      "▁observed": 2507,
      "▁trees": 2508,
      "##jects": 2509,
      "▁has": 2510,
      "##hen": 2511,
      "##eng": 2512,
      "▁takes": 2513,
      "##ient": 2514,
      "##uzz": 2515,
      "▁forget": 2516,
      "▁present": 2517,
      "▁none": 2518,
      "##pen": 2519,
      "▁enter": 2520,
      "##mit": 2521,
      "▁fam": 2522,
      "##fic": 2523,
      "a": 2524,
      "##______": 2525,
      "▁custom": 2526,
      "▁barn": 2527,
      "▁business": 2528,
      "##iron": 2529,
      "▁building": 2530,
      "▁done": 2531,
      "▁bub": 2532,
      "▁suggest": 2533,
      "▁grandm": 2534,
      "▁wat": 2535,
      "▁be": 2536,
      "##ke": 2537,
      "##gy": 2538,
      "▁inside": 2539,
      "▁studying": 2540,
      "▁elect": 2541,
      "▁balloon": 2542,
      "##ο": 2543,
      "##ith": 2544,
      "▁tank": 2545,
      "▁sky": 2546,
      "▁great": 2547,
      "##vail": 2548,
      "##ading": 2549,
      "▁attempt": 2550,
      "+": 2551,
      "▁---": 2552,
      "##ades": 2553,
      "▁bi": 2554,
      "▁tonight": 2555,
      "##cross": 2556,
      "▁challen": 2557,
      "▁spoon": 2558,
      "▁dogg": 2559,
      "##sp": 2560,
      "▁access": 2561,
      "##rap": 2562,
      "▁code": 2563,
      "▁jo": 2564,
      "▁questions": 2565,
      "▁format": 2566,
      "▁kn": 2567,
      "##lled": 2568,
      "▁hope": 2569,
      "▁th": 2570,
      "▁airl": 2571,
      "▁tal": 2572,
      "▁method": 2573,
      "▁boston": 2574,
      "▁dr": 2575,
      "##ont": 2576,
      "##æ": 2577,
      "##ists": 2578,
      "##un": 2579,
      "▁areas": 2580,
      "▁hotel": 2581,
      "▁sty": 2582,
      "##m": 2583,
      "▁consid": 2584,
      "▁girls": 2585,
      "▁cam": 2586,
      "##f": 2587,
      "▁sec": 2588,
      "▁terror": 2589,
      "▁del": 2590,
      "▁shows": 2591,
      "##sed": 2592,
      "##ending": 2593,
      "▁foods": 2594,
      "▁led": 2595,
      "##ilos": 2596,
      "##ored": 2597,
      "##overed": 2598,
      "##ot": 2599,
      "▁tow": 2600,
      "▁moon": 2601,
      "▁quino": 2602,
      "▁salad": 2603,
      "▁enem": 2604,
      "▁ago": 2605,
      "▁!!!": 2606,
      "▁weapons": 2607,
      "▁airport": 2608,
      "##uk": 2609,
      "##ating": 2610,
      "▁mat": 2611,
      "##sure": 2612,
      "▁couple": 2613,
      "▁shop": 2614,
      "▁paint": 2615,
      "##either": 2616,
      "▁pour": 2617,
      "##liday": 2618,
      "▁wr": 2619,
      "▁mother": 2620,
      "##asing": 2621,
      "▁mom": 2622,
      "▁application": 2623,
      "▁job": 2624,
      "▁af": 2625,
      "▁dress": 2626,
      "▁&amp;": 2627,
      "▁—": 2628,
      "##ove": 2629,
      "▁kill": 2630,
      "▁cro": 2631,
      "▁organ": 2632,
      "▁parliament": 2633,
      "▁sit": 2634,
      "##ulture": 2635,
      "▁choice": 2636,
      "##ining": 2637,
      "##low": 2638,
      "▁rain": 2639,
      "▁environment": 2640,
      "υ": 2641,
      "##lish": 2642,
      "▁became": 2643,
      "##ided": 2644,
      "##ι": 2645,
      "▁results": 2646,
      "▁particip": 2647,
      "▁luck": 2648,
      "▁aff": 2649,
      "ʁ": 2650,
      "▁num": 2651,
      "[": 2652,
      "##____": 2653,
      "▁learning": 2654,
      "▁eating": 2655,
      "▁chocolate": 2656,
      "##imb": 2657,
      "▁strength": 2658,
      "##earch": 2659,
      "▁things": 2660,
      "##--": 2661,
      "▁sus": 2662,
      "##ized": 2663,
      "▁di": 2664,
      "##tice": 2665,
      "▁passed": 2666,
      "▁thinking": 2667,
      "▁mo": 2668,
      "▁ensure": 2669,
      "▁reviews": 2670,
      "##portun": 2671,
      "▁had": 2672,
      "▁sector": 2673,
      "▁wait": 2674,
      "▁camp": 2675,
      "g": 2676,
      "▁mov": 2677,
      "▁small": 2678,
      "▁chicken": 2679,
      "##ate": 2680,
      "▁somebody": 2681,
      "▁experience": 2682,
      "▁hist": 2683,
      "▁cruise": 2684,
      "▁bur": 2685,
      "##our": 2686,
      "▁jwww": 2687,
      "▁she": 2688,
      "▁hospital": 2689,
      "##idence": 2690,
      "▁y": 2691,
      "▁dep": 2692,
      "▁stret": 2693,
      "▁s": 2694,
      "##nt": 2695,
      "▁instead": 2696,
      "▁when": 2697,
      "r": 2698,
      "▁thoug": 2699,
      "▁say": 2700,
      "▁minutes": 2701,
      "▁population": 2702,
      "▁snow": 2703,
      "▁among": 2704,
      "▁families": 2705,
      "##s": 2706,
      "▁working": 2707,
      "##ened": 2708,
      "▁!!!!!!!!!!!!!!!": 2709,
      "▁lar": 2710,
      "▁story": 2711,
      "▁anth": 2712,
      "▁exist": 2713,
      "▁first": 2714,
      "▁continued": 2715,
      "▁invest": 2716,
      "##acters": 2717,
      "##ider": 2718,
      "▁wond": 2719,
      "##itions": 2720,
      "▁beach": 2721,
      "▁soc": 2722,
      "##orrow": 2723,
      "▁ou": 2724,
      "▁top": 2725,
      "▁cru": 2726,
      "▁played": 2727,
      "##ɑ": 2728,
      "▁univers": 2729,
      "▁worked": 2730,
      "▁option": 2731,
      "▁emb": 2732,
      "##een": 2733,
      "##nding": 2734,
      "▁spr": 2735,
      "▁pati": 2736,
      "▁says": 2737,
      "▁enc": 2738,
      "##kin": 2739,
      "▁object": 2740,
      "##ife": 2741,
      "##tern": 2742,
      "▁weeks": 2743,
      "▁case": 2744,
      "▁cre": 2745,
      "▁belie": 2746,
      "##ff": 2747,
      "##one": 2748,
      "##ins": 2749,
      "▁buy": 2750,
      "##aign": 2751,
      "▁while": 2752,
      "▁happened": 2753,
      "▁....................": 2754,
      "▁!!!!!!!!!!!!!": 2755,
      "▁wild": 2756,
      "▁lights": 2757,
      "##ile": 2758,
      "##ad": 2759,
      "##ement": 2760,
      "▁tomorrow": 2761,
      "▁experi": 2762,
      "▁windows": 2763,
      "▁blood": 2764,
      "##stances": 2765,
      "▁pe": 2766,
      "##mentation": 2767,
      "##vement": 2768,
      "##ation": 2769,
      "▁convers": 2770,
      "##????": 2771,
      "▁july": 2772,
      "▁intel": 2773,
      "▁as": 2774,
      "##ride": 2775,
      "▁tech": 2776,
      "▁plate": 2777,
      "##pt": 2778,
      "▁gender": 2779,
      "▁intern": 2780,
      "▁tool": 2781,
      "▁pencil": 2782,
      "▁screen": 2783,
      "##oug": 2784,
      "▁mach": 2785,
      "▁princip": 2786,
      "##des": 2787,
      "▁par": 2788,
      "##qui": 2789,
      "▁def": 2790,
      "##ver": 2791,
      "▁rock": 2792,
      "▁milit": 2793,
      "▁member": 2794,
      "##atures": 2795,
      "▁elev": 2796,
      "▁teh": 2797,
      "##den": 2798,
      "##`": 2799,
      "▁station": 2800,
      "▁|--------+----------------------->": 2801,
      "▁replication": 2802,
      "▁gro": 2803,
      "##__": 2804,
      "▁impact": 2805,
      "▁damage": 2806,
      "▁protect": 2807,
      "▁liked": 2808,
      "▁food": 2809,
      "▁·": 2810,
      "▁piece": 2811,
      "▁drug": 2812,
      "##pts": 2813,
      "▁sh": 2814,
      "▁pivottable": 2815,
      "##oder": 2816,
      "t": 2817,
      "▁query": 2818,
      "##www": 2819,
      "▁aw": 2820,
      "²": 2821,
      "▁w/": 2822,
      "##cess": 2823,
      "▁.....": 2824,
      "##ott": 2825,
      "▁requ": 2826,
      "##az": 2827,
      "▁reason": 2828,
      "##uty": 2829,
      "▁pittsburgh": 2830,
      "▁laugh": 2831,
      "▁exp": 2832,
      "▁price": 2833,
      "▁whom": 2834,
      "##---------------": 2835,
      "▁sort": 2836,
      "##iqu": 2837,
      "▁brother": 2838,
      "##ik": 2839,
      "##es": 2840,
      "▁bl": 2841,
      "▁function": 2842,
      "▁location": 2843,
      "▁madam": 2844,
      "▁anoth": 2845,
      "##ats": 2846,
      "▁_": 2847,
      "▁garage": 2848,
      "▁town": 2849,
      "▁kids": 2850,
      "##x": 2851,
      "##ybody": 2852,
      "▁ben": 2853,
      "▁bal": 2854,
      "▁star": 2855,
      "▁rout": 2856,
      "▁exce": 2857,
      "##osite": 2858,
      "▁---------------------------------": 2859,
      "▁life": 2860,
      "▁track": 2861,
      "▁amb": 2862,
      "##ion": 2863,
      "##icide": 2864,
      "##ises": 2865,
      "▁knew": 2866,
      "▁typ": 2867,
      "▁gl": 2868,
      "▁progress": 2869,
      "##ures": 2870,
      "##ward": 2871,
      "##aining": 2872,
      "##ap": 2873,
      "▁fight": 2874,
      "▁stage": 2875,
      "##rested": 2876,
      "##oles": 2877,
      "▁meant": 2878,
      "##my": 2879,
      "##lief": 2880,
      "▁belief": 2881,
      "▁water": 2882,
      "▁concept": 2883,
      "▁**": 2884,
      "▁explain": 2885,
      "##ab": 2886,
      "##isl": 2887,
      "▁g": 2888,
      "▁trade": 2889,
      "▁micro": 2890,
      "▁email": 2891,
      "▁po": 2892,
      "##]": 2893,
      "##ness": 2894,
      "##op": 2895,
      "##acter": 2896,
      "##book": 2897,
      "▁material": 2898,
      "##aft": 2899,
      "▁history": 2900,
      "▁mu": 2901,
      "▁.!": 2902,
      "▁cell": 2903,
      "♥": 2904,
      "##te": 2905,
      "▁sym": 2906,
      "▁named": 2907,
      "▁place": 2908,
      "▁filled": 2909,
      "▁resources": 2910,
      "##------->": 2911,
      "▁amend": 2912,
      "##rote": 2913,
      "▁events": 2914,
      "▁dom": 2915,
      "##eted": 2916,
      "##****************": 2917,
      "##lection": 2918,
      "▁half": 2919,
      "▁bea": 2920,
      "▁of": 2921,
      "▁sunday": 2922,
      "##gation": 2923,
      "##ial": 2924,
      "##oph": 2925,
      "▁ans": 2926,
      "▁task": 2927,
      "##p": 2928,
      "▁reading": 2929,
      "##ric": 2930,
      "▁dose": 2931,
      "##ite": 2932,
      "ˈ": 2933,
      "▁note": 2934,
      "▁thought": 2935,
      "▁post": 2936,
      "##oup": 2937,
      "▁everything": 2938,
      "▁chall": 2939,
      "▁amongst": 2940,
      "▁science": 2941,
      "▁grandmother": 2942,
      "▁standing": 2943,
      "##ays": 2944,
      "▁under": 2945,
      "▁horsie": 2946,
      "##-": 2947,
      "▁forth": 2948,
      "##ences": 2949,
      "##:": 2950,
      "##ability": 2951,
      "³": 2952,
      "▁glasses": 2953,
      "▁developed": 2954,
      "▁hole": 2955,
      "▁april": 2956,
      "##at": 2957,
      "##st": 2958,
      "##iting": 2959,
      "▁send": 2960,
      "##yp": 2961,
      "##ited": 2962,
      "▁word": 2963,
      "▁consider": 2964,
      "`": 2965,
      "##ceed": 2966,
      "▁obs": 2967,
      "##>": 2968,
      "##res": 2969,
      "##ough": 2970,
      "##umb": 2971,
      "▁owner": 2972,
      "▁indust": 2973,
      "##nly": 2974,
      "▁capacity": 2975,
      "▁need": 2976,
      "▁join": 2977,
      "▁reve": 2978,
      "##ics": 2979,
      "▁built": 2980,
      "##abb": 2981,
      "▁tr": 2982,
      "▁regards": 2983,
      "▁candid": 2984,
      "▁stri": 2985,
      "▁ec": 2986,
      "▁mem": 2987,
      "##ast": 2988,
      "▁opening": 2989,
      "##ithst": 2990,
      "▁var": 2991,
      "▁ps": 2992,
      "▁argument": 2993,
      "▁walk": 2994,
      "▁explained": 2995,
      "▁liter": 2996,
      "##³": 2997,
      "▁alt": 2998,
      "▁decl": 2999,
      "▁19": 3000,
      "##$": 3001,
      "##ty": 3002,
      "▁educ": 3003,
      "##aves": 3004,
      "▁surpr": 3005,
      "##um": 3006,
      "▁looked": 3007,
      "▁dro": 3008,
      "▁av": 3009,
      "▁comm": 3010,
      "▁course": 3011,
      "##tsbur": 3012,
      "▁une": 3013,
      "▁create": 3014,
      "##ication": 3015,
      "▁watch": 3016,
      "▁page": 3017,
      "▁quality": 3018,
      "▁maintain": 3019,
      "▁div": 3020,
      "▁jokes": 3021,
      "▁force": 3022,
      "##^": 3023,
      "▁cap": 3024,
      "▁feels": 3025,
      "▁med": 3026,
      "##ʊ": 3027,
      "▁products": 3028,
      "##aring": 3029,
      "▁inv": 3030,
      "▁proposal": 3031,
      "▁res": 3032,
      "▁lose": 3033,
      "##al": 3034,
      "▁child": 3035,
      "##ar": 3036,
      "##ons": 3037,
      "▁truck": 3038,
      "▁conf": 3039,
      "▁learned": 3040,
      "▁sand": 3041,
      "▁furniture": 3042,
      "▁thurs": 3043,
      "##ian": 3044,
      "▁sense": 3045,
      "##alf": 3046,
      "▁dad": 3047,
      "##enty": 3048,
      "▁tre": 3049,
      "▁implem": 3050,
      "▁ju": 3051,
      "▁cook": 3052,
      "▁wil": 3053,
      "##up": 3054,
      "##cles": 3055,
      "▁shorts": 3056,
      "▁int": 3057,
      "d": 3058,
      "▁behavior": 3059,
      "▁throw": 3060,
      "▁decisions": 3061,
      "▁proper": 3062,
      "▁past": 3063,
      "▁inter": 3064,
      "▁fell": 3065,
      "▁(": 3066,
      "▁democracy": 3067,
      "▁vi": 3068,
      "▁command": 3069,
      "##of": 3070,
      "##oll": 3071,
      "##ried": 3072,
      "##orts": 3073,
      "##lin": 3074,
      "▁la": 3075,
      "▁away": 3076,
      "▁looking": 3077,
      "##ility": 3078,
      "▁costs": 3079,
      "##tly": 3080,
      "▁boy": 3081,
      "##ort": 3082,
      "▁match": 3083,
      "▁pushed": 3084,
      "▁little": 3085,
      "▁betw": 3086,
      "##eces": 3087,
      "▁serves": 3088,
      "##app": 3089,
      "▁address": 3090,
      "▁wear": 3091,
      "▁airports": 3092,
      "##ft": 3093,
      "▁ra": 3094,
      "▁player": 3095,
      "p": 3096,
      "▁kind": 3097,
      "##uly": 3098,
      "▁night": 3099,
      "##used": 3100,
      "▁u": 3101,
      "▁dollars": 3102,
      "##ised": 3103,
      "##ection": 3104,
      "▁bulld": 3105,
      "▁their": 3106,
      "▁++++": 3107,
      "▁sens": 3108,
      "▁offici": 3109,
      "▁lead": 3110,
      "▁court": 3111,
      "▁yet": 3112,
      "▁groups": 3113,
      "▁an": 3114,
      "▁seek": 3115,
      "▁----": 3116,
      "▁swe": 3117,
      "▁sent": 3118,
      "▁assist": 3119,
      "##ʁ": 3120,
      "##asure": 3121,
      "▁went": 3122,
      "▁gall": 3123,
      "▁supposed": 3124,
      "▁dust": 3125,
      "▁stopover": 3126,
      "##ud": 3127,
      "##age": 3128,
      "▁+": 3129,
      "ι": 3130,
      "▁writers": 3131,
      "▁places": 3132,
      "##aking": 3133,
      "▁cour": 3134,
      "▁married": 3135,
      "##round": 3136,
      "▁eng": 3137,
      "▁train": 3138,
      "▁mouse": 3139,
      "▁est": 3140,
      "▁cab": 3141,
      "▁aug": 3142,
      "▁friday": 3143,
      "▁caught": 3144,
      "-": 3145,
      "##acts": 3146,
      "##ality": 3147,
      "▁...............": 3148,
      "▁chang": 3149,
      "▁tree": 3150,
      "##ended": 3151,
      "▁anthrax": 3152,
      "##ories": 3153,
      "▁2": 3154,
      "▁speed": 3155,
      "▁such": 3156,
      "▁pieces": 3157,
      "##ome": 3158,
      "##urn": 3159,
      "▁--": 3160,
      "##very": 3161,
      "▁risk": 3162,
      "▁needs": 3163,
      "##yed": 3164,
      "▁rooms": 3165,
      "▁agree": 3166,
      "▁creation": 3167,
      "##oney": 3168,
      "##iction": 3169,
      "▁pr": 3170,
      "▁experien": 3171,
      "▁propos": 3172,
      "▁vet": 3173,
      "##int": 3174,
      "##ission": 3175,
      "▁ticket": 3176,
      "##·": 3177,
      "##anded": 3178,
      "##ever": 3179,
      "##ther": 3180,
      "##body": 3181,
      "▁write": 3182,
      "##wor": 3183,
      "##artment": 3184,
      "##oss": 3185,
      "▁sell": 3186,
      "##aper": 3187,
      "▁problem": 3188,
      "▁drink": 3189,
      "▁phil": 3190,
      "▁felt": 3191,
      "▁mid": 3192,
      "▁much": 3193,
      "##g": 3194,
      "▁meat": 3195,
      "▁enjambment": 3196,
      "##ck": 3197,
      "▁sound": 3198,
      "##ars": 3199,
      "▁ques": 3200,
      "##ards": 3201,
      "▁watching": 3202,
      "▁mar": 3203,
      "▁ele": 3204,
      "##he": 3205,
      "▁nose": 3206,
      "▁trust": 3207,
      "##isting": 3208,
      "▁aud": 3209,
      "##oc": 3210,
      "##ether": 3211,
      "▁ve": 3212,
      "▁fingers": 3213,
      "▁destro": 3214,
      "▁ba": 3215,
      "▁stood": 3216,
      "▁parents": 3217,
      "▁butt": 3218,
      "##ening": 3219,
      "##ished": 3220,
      "▁during": 3221,
      "▁mouth": 3222,
      "▁released": 3223,
      "##mal": 3224,
      "▁driver": 3225,
      "▁bor": 3226,
      "##uding": 3227,
      "▁:": 3228,
      "▁dallas": 3229,
      "##om": 3230,
      "▁..........": 3231,
      "▁part": 3232,
      "▁e-mail": 3233,
      "▁changes": 3234,
      "▁cla": 3235,
      "▁started": 3236,
      "▁yo": 3237,
      "##action": 3238,
      "##its": 3239,
      "##aced": 3240,
      "##stop": 3241,
      "▁loc": 3242,
      "##elf": 3243,
      "▁lad": 3244,
      "▁mis": 3245,
      "▁pittsbur": 3246,
      "##akes": 3247,
      "▁surv": 3248,
      "##tle": 3249,
      "_": 3250,
      "##ues": 3251,
      "▁order": 3252,
      "▁president": 3253,
      "##sus": 3254,
      "▁language": 3255,
      "▁playing": 3256,
      "▁underst": 3257,
      "▁rec": 3258,
      "▁den": 3259,
      "##ro": 3260,
      "▁denver": 3261,
      "##otes": 3262,
      "▁wine": 3263,
      "▁********": 3264,
      "▁trying": 3265,
      "##ithstanding": 3266,
      "▁m": 3267,
      "##ows": 3268,
      "▁focus": 3269,
      "▁require": 3270,
      "##rows": 3271,
      "##h": 3272,
      "▁buttons": 3273,
      "▁cand": 3274,
      "▁speak": 3275,
      "▁reported": 3276,
      "##º": 3277,
      "##etition": 3278,
      "▁wonder": 3279,
      "##uation": 3280,
      "##anding": 3281,
      "▁saw": 3282,
      "▁thre": 3283,
      "▁link": 3284,
      "φ": 3285,
      "▁piz": 3286,
      "##til": 3287,
      "▁engine": 3288,
      "▁achie": 3289,
      "▁finished": 3290,
      "▁bath": 3291,
      "▁pl": 3292,
      "▁look": 3293,
      "/": 3294,
      "▁foot": 3295,
      "2": 3296,
      "▁knows": 3297,
      "▁!!": 3298,
      "▁driving": 3299,
      "▁&": 3300,
      "▁cove": 3301,
      "▁pizza": 3302,
      "▁systems": 3303,
      "▁’re": 3304,
      "##cakes": 3305,
      "▁attack": 3306,
      "▁cock": 3307,
      "##ude": 3308,
      "▁stopped": 3309,
      "▁progr": 3310,
      "##are": 3311,
      "}": 3312,
      "##urch": 3313,
      "##ash": 3314,
      "##pping": 3315,
      "▁env": 3316,
      "▁~": 3317,
      "▁eff": 3318,
      "▁move": 3319,
      "▁washington": 3320,
      "▁v": 3321,
      "▁believe": 3322,
      "##ase": 3323,
      "##educ": 3324,
      "▁at": 3325,
      "▁por": 3326,
      "▁serve": 3327,
      "▁jobs": 3328,
      "##ghting": 3329,
      "▁birds": 3330,
      "##ν": 3331,
      "▁init": 3332,
      "▁bank": 3333,
      "▁employment": 3334,
      "▁test": 3335,
      "▁forg": 3336,
      "##eck": 3337,
      "##ym": 3338,
      "▁nation": 3339,
      "##ologies": 3340,
      "▁cont": 3341,
      "▁blan": 3342,
      "▁hurt": 3343,
      "▁hours": 3344,
      "▁requirements": 3345,
      "▁happ": 3346,
      "##-m": 3347,
      "##mos": 3348,
      "##go": 3349,
      "##aged": 3350,
      "▁bear": 3351,
      "▁s/he": 3352,
      "##king": 3353,
      "▁meeting": 3354,
      "▁territory": 3355,
      "▁din": 3356,
      "▁fly": 3357,
      "▁difference": 3358,
      "##ighb": 3359,
      "##str": 3360,
      "##us": 3361,
      "▁mean": 3362,
      "##ocr": 3363,
      "▁recomm": 3364,
      "{": 3365,
      "▁support": 3366,
      "##ush": 3367,
      "▁mine": 3368,
      "##ters": 3369,
      "▁education": 3370,
      "▁innov": 3371,
      "▁cor": 3372,
      "▁wearing": 3373,
      "▁!!!!!!!!!!!": 3374,
      "##iod": 3375,
      "▁pill": 3376,
      "▁database": 3377,
      "▁country": 3378,
      "ρ": 3379,
      "▁counter": 3380,
      "▁room": 3381,
      "▁reven": 3382,
      "▁ants": 3383,
      "##enting": 3384,
      "##icul": 3385,
      "▁nothing": 3386,
      "▁afternoon": 3387,
      "##aur": 3388,
      "▁account": 3389,
      "▁les": 3390,
      "▁same": 3391,
      "▁mail": 3392,
      "▁arms": 3393,
      "▁sex": 3394,
      "▁dwww": 3395,
      "▁admin": 3396,
      "▁appro": 3397,
      "##3": 3398,
      "?": 3399,
      "▁fill": 3400,
      "##selves": 3401,
      "▁question": 3402,
      "##ete": 3403,
      "▁.": 3404,
      "▁er": 3405,
      "▁manager": 3406,
      "▁what": 3407,
      "▁contr": 3408,
      "##angu": 3409,
      "##ults": 3410,
      "▁metal": 3411,
      "▁mer": 3412,
      "▁parts": 3413,
      "▁capac": 3414,
      "##acket": 3415,
      "▁ahead": 3416,
      ":": 3417,
      "▁enjo": 3418,
      "▁bas": 3419,
      "▁cris": 3420,
      "▁governments": 3421,
      "##ges": 3422,
      "▁befor": 3423,
      "▁sho": 3424,
      "▁activities": 3425,
      "▁effect": 3426,
      "▁arch": 3427,
      "4": 3428,
      "##ry": 3429,
      "▁euro": 3430,
      "▁aut": 3431,
      "##over": 3432,
      "ɔ": 3433,
      "##imp": 3434,
      "&": 3435,
      "$": 3436,
      "##utions": 3437,
      "k": 3438,
      "º": 3439,
      "▁----==": 3440,
      "##ey": 3441,
      "▁draft": 3442,
      "##lights": 3443,
      "##ticip": 3444,
      "▁gener": 3445,
      "▁ne": 3446,
      "##ted": 3447,
      "##ph": 3448,
      "##ither": 3449,
      "##aries": 3450,
      "▁fig": 3451,
      "▁hit": 3452,
      "##for": 3453,
      "##face": 3454,
      "▁conflic": 3455,
      "▁bird": 3456,
      "▁allowed": 3457,
      "##gan": 3458,
      "▁snake": 3459,
      "0": 3460,
      "▁returned": 3461,
      "##ɛ": 3462,
      "▁win": 3463,
      "▁im": 3464,
      "▁wom": 3465,
      "##aste": 3466,
      "▁cos": 3467,
      "##ams": 3468,
      "▁you": 3469,
      "##uting": 3470,
      "##esting": 3471,
      "##5": 3472,
      "▁neighb": 3473,
      "▁purpose": 3474,
      "▁balt": 3475,
      "▁elected": 3476,
      "▁development": 3477,
      "▁help": 3478,
      "##ub": 3479,
      "##ror": 3480,
      "▁orders": 3481,
      "▁someone": 3482,
      "▁compan": 3483,
      "▁ye": 3484,
      "▁alongside": 3485,
      "▁app": 3486,
      "▁finger": 3487,
      "##σ": 3488,
      "▁draw": 3489,
      "▁birth": 3490,
      "▁build": 3491,
      "▁leaves": 3492,
      "##huh": 3493,
      "▁dat": 3494,
      "##it": 3495,
      "▁tic": 3496,
      "▁mos": 3497,
      "▁saf": 3498,
      "▁dey": 3499,
      "##pr": 3500,
      "##to": 3501,
      "▁ext": 3502,
      "##igned": 3503,
      "##ounced": 3504,
      "▁mon": 3505,
      "▁yog": 3506,
      "▁apple": 3507,
      "##uments": 3508,
      "▁watched": 3509,
      "▁soil": 3510,
      "▁surface": 3511,
      "▁influ": 3512,
      "##ince": 3513,
      "##force": 3514,
      "##struc": 3515,
      "▁feed": 3516,
      "▁carrying": 3517,
      "##ut": 3518,
      "▁’s": 3519,
      "▁start": 3520,
      "##ms": 3521,
      "▁[...]": 3522,
      "##ta": 3523,
      "▁pm": 3524,
      "##ute": 3525,
      "##ary": 3526,
      "▁my": 3527,
      "##ity": 3528,
      "##lication": 3529,
      "▁reached": 3530,
      "▁control": 3531,
      "▁artic": 3532,
      "▁consum": 3533,
      "##ist": 3534,
      "▁sheet": 3535,
      "▁colleag": 3536,
      "▁found": 3537,
      "##dge": 3538,
      "##aff": 3539,
      "▁ep": 3540,
      "▁fir": 3541,
      "▁boom": 3542,
      "▁wh": 3543,
      "▁moment": 3544,
      "▁offer": 3545,
      "▁peop": 3546,
      "▁ow": 3547,
      "▁d'": 3548,
      "##ded": 3549,
      "▁appointment": 3550,
      "##gh": 3551,
      "##lic": 3552,
      "▁bag": 3553,
      "##ril": 3554,
      "▁encour": 3555,
      "##!!!!": 3556,
      "##zation": 3557,
      "##air": 3558,
      "▁finish": 3559,
      "▁gir": 3560,
      "▁kitt": 3561,
      "##fare": 3562,
      "▁dem": 3563,
      "▁pull": 3564,
      "▁**********": 3565,
      "##ring": 3566,
      "▁offic": 3567,
      "▁species": 3568,
      "▁prac": 3569,
      "▁`s": 3570,
      "##er": 3571,
      "##orm": 3572,
      "▁ce": 3573,
      "▁anim": 3574,
      "▁horse": 3575,
      "##ivid": 3576,
      "▁rel": 3577,
      "##lus": 3578,
      "▁ad": 3579,
      "▁tha": 3580,
      "##eness": 3581,
      "▁customers": 3582,
      "▁bought": 3583,
      "▁grand": 3584,
      "▁proce": 3585,
      "▁rob": 3586,
      "▁leave": 3587,
      "▁neck": 3588,
      "▁ya": 3589,
      "##augh": 3590,
      "▁cop": 3591,
      "▁gen": 3592,
      "▁paper": 3593,
      "##????????????????????????????????": 3594,
      "##ah": 3595,
      "▁hand": 3596,
      "▁agreed": 3597,
      "▁pean": 3598,
      "##eth": 3599,
      "##iff": 3600,
      "▁techn": 3601,
      "##ctions": 3602,
      "▁bec": 3603,
      "▁officials": 3604,
      "▁change": 3605,
      "▁introduc": 3606,
      "##ies": 3607,
      "▁wou": 3608,
      "##erent": 3609,
      "▁street": 3610,
      "▁allow": 3611,
      "▁bab": 3612,
      "##work": 3613,
      "##irt": 3614,
      "▁cur": 3615,
      "##isions": 3616,
      "▁cereal": 3617,
      "▁used": 3618,
      "▁river": 3619,
      "▁putting": 3620,
      "##self": 3621,
      "▁series": 3622,
      "▁projects": 3623,
      "▁establish": 3624,
      "▁settlement": 3625,
      "##oun": 3626,
      "##ink": 3627,
      "▁\"": 3628,
      "▁mist": 3629,
      "▁society": 3630,
      "▁department": 3631,
      "▁ended": 3632,
      "▁stayed": 3633,
      "##ights": 3634,
      "▁contain": 3635,
      "▁put": 3636,
      "##ave": 3637,
      "▁'em": 3638,
      "▁next": 3639,
      "▁wilt": 3640,
      "▁philadelphia": 3641,
      "▁schedule": 3642,
      "▁weight": 3643,
      "▁family": 3644,
      "▁con": 3645,
      "▁feel": 3646,
      "▁state": 3647,
      "▁citiz": 3648,
      "▁gard": 3649,
      "▁charge": 3650,
      "▁now": 3651,
      "##anced": 3652,
      "▁sur": 3653,
      "##ɔ": 3654,
      "=": 3655,
      "▁fr": 3656,
      "▁attached": 3657,
      "▁curr": 3658,
      "##board": 3659,
      "##;": 3660,
      "▁ins": 3661,
      "▁counc": 3662,
      "##using": 3663,
      "▁fil": 3664,
      "##key": 3665,
      "h": 3666,
      "▁treat": 3667,
      "##ores": 3668,
      "▁reach": 3669,
      "▁wall": 3670,
      "▁show": 3671,
      "▁mad": 3672,
      "▁mountain": 3673,
      "▁cigar": 3674,
      "▁mod": 3675,
      "▁meth": 3676,
      "▁fan": 3677,
      "▁rece": 3678,
      "▁aside": 3679,
      "▁percent": 3680,
      "▁abo": 3681,
      "▁paid": 3682,
      "##ods": 3683,
      "▁till": 3684,
      "##aster": 3685,
      "▁leader": 3686,
      "▁arr": 3687,
      "##eries": 3688,
      "▁receive": 3689,
      "▁traffic": 3690,
      "▁whe": 3691,
      "##port": 3692,
      "▁army": 3693,
      "##yone": 3694,
      "▁flights": 3695,
      "▁form": 3696,
      "▁window": 3697,
      "▁comment": 3698,
      "##alk": 3699,
      "▁newsp": 3700,
      "▁college": 3701,
      "▁near": 3702,
      "▁described": 3703,
      "▁chec": 3704,
      "##ands": 3705,
      "▁ey": 3706,
      "##day": 3707,
      "▁come": 3708,
      "▁smal": 3709,
      "##tee": 3710,
      "▁event": 3711,
      "▁arriving": 3712,
      "▁having": 3713,
      "##kers": 3714,
      "▁guar": 3715,
      "3": 3716,
      "▁pants": 3717,
      "▁rem": 3718,
      "▁stories": 3719,
      "▁showed": 3720,
      "▁long": 3721,
      "▁expos": 3722,
      "##ointment": 3723,
      "▁poc": 3724,
      "▁eleph": 3725,
      "##y": 3726,
      "##orted": 3727,
      "▁amid": 3728,
      "▁prop": 3729,
      "##ries": 3730,
      "##ium": 3731,
      "▁re": 3732,
      "##iss": 3733,
      "##uth": 3734,
      "▁leaders": 3735,
      "▁animal": 3736,
      "##bon": 3737,
      "▁rug": 3738,
      "##zz": 3739,
      "▁wish": 3740,
      "▁lim": 3741,
      "▁gone": 3742,
      "▁institutions": 3743,
      "##her": 3744,
      "▁cir": 3745,
      "▁own": 3746,
      "##wic": 3747,
      "▁‘’": 3748,
      "▁sea": 3749,
      "##.c": 3750,
      "▁fund": 3751,
      "##derstanding": 3752,
      "##ue": 3753,
      "▁grab": 3754,
      "##ark": 3755,
      "▁horses": 3756,
      "▁shower": 3757,
      "##°": 3758,
      "▁terms": 3759,
      "▁pas": 3760,
      "▁sk": 3761,
      "▁lear": 3762,
      "▁treated": 3763,
      "▁activ": 3764,
      "##lications": 3765,
      "y": 3766,
      "▁lie": 3767,
      "▁pro": 3768,
      "##ge": 3769,
      "##owed": 3770,
      "▁games": 3771,
      "▁culture": 3772,
      "▁set": 3773,
      "▁pick": 3774,
      "##ire": 3775,
      "▁getting": 3776,
      "▁att": 3777,
      "▁suit": 3778,
      "▁mr": 3779,
      "▁maj": 3780,
      "▁thanks": 3781,
      "▁after": 3782,
      "▁conc": 3783,
      "▁arrive": 3784,
      "▁trou": 3785,
      "▁today": 3786,
      "##is": 3787,
      "▁followed": 3788,
      "…": 3789,
      "▁changing": 3790,
      "▁audience": 3791,
      "▁circum": 3792,
      "##uter": 3793,
      "▁j": 3794,
      "▁milk": 3795,
      "▁polic": 3796,
      "##ner": 3797,
      "▁hel": 3798,
      "▁himself": 3799,
      "▁meaning": 3800,
      "##me": 3801,
      "▁quite": 3802,
      "##ien": 3803,
      "▁chees": 3804,
      "▁[...": 3805,
      "##elines": 3806,
      "▁super": 3807,
      "##unt": 3808,
      "▁caused": 3809,
      "##am": 3810,
      "▁<<": 3811,
      "▁ide": 3812,
      "▁coll": 3813,
      "##sing": 3814,
      "▁telephone": 3815,
      "▁ch": 3816,
      "▁user": 3817,
      "##ʻ": 3818,
      "##ority": 3819,
      "▁source": 3820,
      "##phere": 3821,
      "▁ca": 3822,
      "▁been": 3823,
      "▁fields": 3824,
      "▁training": 3825,
      "▁sounds": 3826,
      "##formation": 3827,
      "▁program": 3828,
      "▁um": 3829,
      "▁esc": 3830,
      "▁action": 3831,
      "▁employees": 3832,
      "▁underneath": 3833,
      "▁cli": 3834,
      "##in": 3835,
      "▁he": 3836,
      "▁manag": 3837,
      "▁into": 3838,
      "##ages": 3839,
      "▁meal": 3840,
      "▁delivery": 3841,
      "▁it's": 3842,
      "##--------------------------------": 3843,
      "▁states": 3844,
      "▁*****": 3845,
      "##onstr": 3846,
      "▁the": 3847,
      "##ings": 3848,
      "##ear": 3849,
      "##lling": 3850,
      "▁coast": 3851,
      "##ouch": 3852,
      "▁why": 3853,
      "▁bug": 3854,
      "▁base": 3855,
      "##ange": 3856,
      "▁produc": 3857,
      "▁---------------------------------------------------------------------------": 3858,
      "▁forgot": 3859,
      "▁eyes": 3860,
      "##iated": 3861,
      "##br": 3862,
      "▁atop": 3863,
      "##ual": 3864,
      "▁day": 3865,
      "▁pulled": 3866,
      "##amp": 3867,
      "▁back": 3868,
      "▁live": 3869,
      "##ber": 3870,
      "##min": 3871,
      "▁poin": 3872,
      "▁asked": 3873,
      "▁conference": 3874,
      "▁protection": 3875,
      "##art": 3876,
      "▁we": 3877,
      "##a": 3878,
      "▁@": 3879,
      "##io": 3880,
      "▁article": 3881,
      "▁anal": 3882,
      "▁below": 3883,
      "ν": 3884,
      "##ie": 3885,
      "▁pup": 3886,
      "##eric": 3887,
      "▁spoke": 3888,
      "▁decide": 3889,
      "##oint": 3890,
      "##ac": 3891,
      "▁speci": 3892,
      "▁age": 3893,
      "[UNK]": 3894,
      "▁francisco": 3895,
      "##apers": 3896,
      "▁hosp": 3897,
      "##pers": 3898,
      "▁heard": 3899,
      "▁notic": 3900,
      "▁carried": 3901,
      "▁sold": 3902,
      "▁assistance": 3903,
      "▁woman": 3904,
      "▁happen": 3905,
      "##ivers": 3906,
      "▁discus": 3907,
      "▁airplane": 3908,
      "▁feeling": 3909,
      "##tw": 3910,
      "##ack": 3911,
      "▁ign": 3912,
      "▁breath": 3913,
      "▁steps": 3914,
      "▁different": 3915,
      "##temp": 3916,
      "▁mus": 3917,
      "▁regard": 3918,
      "##tit": 3919,
      "▁prot": 3920,
      "##ette": 3921,
      "▁-----": 3922,
      "▁oil": 3923,
      "##ances": 3924,
      "▁susp": 3925,
      "##ep": 3926,
      "▁assoc": 3927,
      "▁fo": 3928,
      "▁ask": 3929,
      "▁bunny": 3930,
      "▁middle": 3931,
      "##nel": 3932,
      "▁cut": 3933,
      "▁critic": 3934,
      "##±": 3935,
      "▁hold": 3936,
      "▁following": 3937,
      "▁detail": 3938,
      "▁sandwic": 3939,
      "▁someth": 3940,
      "▁restric": 3941,
      "!": 3942,
      "##par": 3943,
      "▁whatever": 3944,
      "▁majority": 3945,
      "▁remember": 3946,
      "##tride": 3947,
      "▁airlines": 3948,
      "▁op": 3949,
      "▁elections": 3950,
      "##ib": 3951,
      "##jo": 3952,
      "##ends": 3953,
      "▁airlin": 3954,
      "▁tou": 3955,
      "##imore": 3956,
      "▁right": 3957,
      "▁counterparty": 3958,
      "▁fl": 3959,
      "▁haf": 3960,
      "▁n’t": 3961,
      "##ig": 3962,
      "##med": 3963,
      "▁request": 3964,
      "▁reference": 3965,
      "▁=": 3966,
      "▁sept": 3967,
      "##@": 3968,
      "▁ass": 3969,
      "▁wal": 3970,
      "▁comes": 3971,
      "▁serv": 3972,
      "##ict": 3973,
      "▁!!!!!": 3974,
      "▁en": 3975,
      "▁conn": 3976,
      "▁vol": 3977,
      "▁being": 3978,
      "▁placed": 3979,
      "▁sci": 3980,
      "▁appearance": 3981,
      "▁tro": 3982,
      "▁knoc": 3983,
      "##ay": 3984,
      "▁le": 3985,
      "##ails": 3986,
      "##li": 3987,
      "##ote": 3988,
      "▁attemp": 3989,
      "▁conce": 3990,
      "▁rent": 3991,
      "##wn": 3992,
      "▁poll": 3993,
      "▁views": 3994,
      "▁september": 3995,
      "##il": 3996,
      "▁b/c": 3997,
      "▁secon": 3998,
      "▁prof": 3999,
      "▁shirt": 4000,
      "##ven": 4001,
      "##rop": 4002,
      "▁color": 4003,
      "▁mechan": 4004,
      "##tivity": 4005,
      "##ching": 4006,
      "▁emp": 4007,
      "▁lunch": 4008,
      "▁son": 4009,
      "▁electric": 4010,
      "▁argu": 4011,
      "▁threat": 4012,
      "▁talk": 4013,
      "##inu": 4014,
      "▁flowers": 4015,
      "▁uh": 4016,
      "▁doll": 4017,
      "▁policy": 4018,
      "##ulation": 4019,
      "▁egg": 4020,
      "##œ": 4021,
      "##ocks": 4022,
      "##ze": 4023,
      "▁atlan": 4024,
      "##itch": 4025,
      "##aughter": 4026,
      "##tim": 4027,
      "▁teacher": 4028,
      "▁directive": 4029,
      "##anges": 4030,
      "##ine": 4031,
      "##ged": 4032,
      "##ten": 4033,
      "▁might": 4034,
      "▁novel": 4035,
      "▁only": 4036,
      "▁established": 4037,
      "▁acqui": 4038,
      "▁wash": 4039,
      "▁fall": 4040,
      "##4": 4041,
      "##ases": 4042,
      "▁sle": 4043,
      "▁fish": 4044,
      "##ented": 4045,
      "▁k": 4046,
      "▁ideas": 4047,
      "##9": 4048,
      "▁doc": 4049,
      "▁for": 4050,
      "▁))": 4051,
      "##id": 4052,
      "##ug": 4053,
      "▁farm": 4054,
      "##ming": 4055,
      "▁supp": 4056,
      "▁tried": 4057,
      "▁produce": 4058,
      "##ention": 4059,
      "▁exec": 4060,
      "▁!!!!": 4061,
      "▁sa": 4062,
      "##sel": 4063,
      "▁meet": 4064,
      "##hin": 4065,
      "▁avoid": 4066,
      "▁boys": 4067,
      "▁have": 4068,
      "##uck": 4069,
      "##utation": 4070,
      "##crib": 4071,
      "##ambment": 4072,
      "##ww": 4073,
      "##ule": 4074,
      "▁instit": 4075,
      "##…": 4076,
      "▁incre": 4077,
      "▁vers": 4078,
      "▁students": 4079,
      "▁surround": 4080,
      "##tics": 4081,
      "▁sister": 4082,
      "▁book": 4083,
      "##!?": 4084,
      "▁until": 4085,
      "##aled": 4086,
      "##ting": 4087,
      "##ects": 4088,
      "▁vacation": 4089,
      "▁stuff": 4090,
      "##ful": 4091,
      "##led": 4092,
      "▁w": 4093,
      "▁’d": 4094,
      "▁languages": 4095
    }
  }
}