{
  "version": "1.0",
  "truncation": null,
  "padding": null,
  "added_tokens": [
    {
      "id": 750,
      "content": "[SEP]",
      "single_word": false,
      "lstrip": false,
      "rstrip": false,
      "normalized": false,
      "special": true
    },
    {
      "id": 3042,
      "content": "[CLS]",
      "single_word": false,
      "lstrip": false,
      "rstrip": false,
      "normalized": false,
      "special": true
    },
    {
      "id": 12201,
      "content": "[UNK]",
      "single_word": false,
      "lstrip": false,
      "rstrip": false,
      "normalized": false,
      "special": true
    },
    {
      "id": 13452,
      "content": "[MASK]",
      "single_word": false,
      "lstrip": false,
      "rstrip": false,
      "normalized": false,
      "special": true
    },
    {
      "id": 14160,
      "content": "[PAD]",
      "single_word": false,
      "lstrip": false,
      "rstrip": false,
      "normalized": false,
      "special": true
    }
  ],
  "normalizer": {
    "type": "Sequence",
    "normalizers": [
      {
        "type": "NFD"
      },
      {
        "type": "Lowercase"
      },
      {
        "type": "StripAccents"
      }
    ]
  },
  "pre_tokenizer": {
    "type": "Sequence",
    "pretokenizers": [
      {
        "type": "Metaspace",
        "replacement": "▁",
        "prepend_scheme": "always",
        "split": true
      }
    ]
  },
  "post_processor": {
    "type": "TemplateProcessing",
    "single": [
      {
        "SpecialToken": {
          "id": "[CLS]",
          "type_id": 0
        }
      },
      {
        "Sequence": {
          "id": "A",
          "type_id": 0
        }
      },
      {
        "SpecialToken": {
          "id": "[SEP]",
          "type_id": 0
        }
      }
    ],
    "pair": [
      {
        "SpecialToken": {
          "id": "[CLS]",
          "type_id": 0
        }
      },
      {
        "Sequence": {
          "id": "A",
          "type_id": 0
        }
      },
      {
        "SpecialToken": {
          "id": "[SEP]",
          "type_id": 0
        }
      },
      {
        "Sequence": {
          "id": "B",
          "type_id": 1
        }
      },
      {
        "SpecialToken": {
          "id": "[SEP]",
          "type_id": 1
        }
      }
    ],
    "special_tokens": {
      "[CLS]": {
        "id": "[CLS]",
        "ids": [
          3042
        ],
        "tokens": [
          "[CLS]"
        ]
      },
      "[SEP]": {
        "id": "[SEP]",
        "ids": [
          750
        ],
        "tokens": [
          "[SEP]"
        ]
      }
    }
  },
  "decoder": {
    "type": "Metaspace",
    "replacement": "▁",
    "prepend_scheme": "always",
    "split": true
  },
  "model": {
    "type": "BPE",
    "dropout": null,
    "unk_token": "[UNK]",
    "continuing_subword_prefix": null,
    "end_of_word_suffix": null,
    "fuse_unk": false,
    "byte_fallback": false,
    "ignore_merges": false,
    "vocab": {
      "90's": 0,
      "nown": 1,
      "erful": 2,
      "▁wite": 3,
      "▁helpers": 4,
      "▁text": 5,
      "▁trials": 6,
      "▁taxi": 7,
      "▁jih": 8,
      "▁embarr": 9,
      "▁tribulation": 10,
      "▁dvd": 11,
      "▁advertising": 12,
      "▁fried": 13,
      "ather": 14,
      "▁candy": 15,
      "▁codes": 16,
      "▁future": 17,
      "ognition": 18,
      "▁vac": 19,
      "temp": 20,
      "▁immigrants": 21,
      "▁protocol": 22,
      "▁souls": 23,
      "▁loans": 24,
      "▁anch": 25,
      "uh": 26,
      "▁polic": 27,
      "▁reop": 28,
      "▁killers": 29,
      "ico": 30,
      "▁camping": 31,
      "dd": 32,
      "▁lessons": 33,
      "▁defining": 34,
      "▁struggling": 35,
      "▁face": 36,
      "ule": 37,
      "▁buyer": 38,
      "▁withdrawn": 39,
      "ken": 40,
      "▁negotiations": 41,
      "▁al": 42,
      "▁editions": 43,
      "▁dev": 44,
      "ineered": 45,
      "▁cockati": 46,
      "▁sew": 47,
      "▁tonsils": 48,
      "lity": 49,
      "▁eol": 50,
      "▁&": 51,
      "▁evac": 52,
      "▁resources": 53,
      "▁tiny": 54,
      "▁determine": 55,
      "▁approved": 56,
      "▁manufact": 57,
      "▁nephew": 58,
      "▁bath+room": 59,
      "▁decisions": 60,
      "▁promising": 61,
      "vices": 62,
      "▁damp": 63,
      "ount": 64,
      "▁imagination": 65,
      "▁mi": 66,
      "▁subst": 67,
      "▁busy": 68,
      "adel": 69,
      "▁equipment": 70,
      "▁politics": 71,
      "▁punched": 72,
      "▁spin": 73,
      "▁sign": 74,
      "▁ld2d-#6933": 75,
      "igate": 76,
      "▁secrets": 77,
      "▁tol": 78,
      "▁asia": 79,
      "▁concl": 80,
      "▁cott": 81,
      "▁impacts": 82,
      "▁cape": 83,
      "▁obstacles": 84,
      "cially": 85,
      "▁sash": 86,
      "▁favorite": 87,
      "▁tul": 88,
      "▁bib": 89,
      "ople": 90,
      "▁breakfasts": 91,
      "▁excell": 92,
      "sel": 93,
      "▁samp": 94,
      "appy": 95,
      "▁sled": 96,
      "f-": 97,
      "▁toll": 98,
      "▁shares": 99,
      "▁crossings": 100,
      "▁hull": 101,
      "▁carn": 102,
      "ainly": 103,
      "▁stethoscope": 104,
      "▁stroll": 105,
      "▁animal": 106,
      "▁collapse": 107,
      "▁appl": 108,
      "▁artillery": 109,
      "▁alerts": 110,
      "▁story": 111,
      "kton": 112,
      "▁recipients": 113,
      "anal": 114,
      "▁defeated": 115,
      "ighth": 116,
      "▁bern": 117,
      "▁aut": 118,
      "ary": 119,
      "hether": 120,
      "▁inhabit": 121,
      "▁context": 122,
      "▁advice": 123,
      "ingness": 124,
      "▁fanc": 125,
      "▁respect": 126,
      "▁brain": 127,
      "d": 128,
      "▁23": 129,
      "▁twisted": 130,
      "▁plugged": 131,
      "▁developers": 132,
      "▁expressions": 133,
      "▁change": 134,
      "oint": 135,
      "▁potty": 136,
      "▁associations": 137,
      "▁murders": 138,
      "▁alcohol": 139,
      "▁proclaim": 140,
      "▁famili": 141,
      "▁melted": 142,
      "▁exter": 143,
      "emic": 144,
      "lightly": 145,
      "▁per": 146,
      "▁alternatives": 147,
      "▁considering": 148,
      "▁concent": 149,
      "▁claiming": 150,
      "▁techn": 151,
      "pr": 152,
      "▁pimple": 153,
      "▁setup": 154,
      "ute": 155,
      "ihow": 156,
      "▁endeavor": 157,
      "▁agriculture": 158,
      "derstanding": 159,
      "▁as400": 160,
      "▁scanning": 161,
      "ocking": 162,
      "lids": 163,
      "▁killings": 164,
      "▁mailman": 165,
      "▁{": 166,
      "▁deadline": 167,
      "▁volunteer": 168,
      "▁lig": 169,
      "▁exhibits": 170,
      "▁look": 171,
      "▁argues": 172,
      "▁espec": 173,
      "p;": 174,
      "▁compel": 175,
      "▁enterpr": 176,
      "▁heavens": 177,
      "·": 178,
      "igrate": 179,
      "▁float": 180,
      "▁att": 181,
      "▁recon": 182,
      "▁islets": 183,
      "▁density": 184,
      "▁fishermen": 185,
      "dotes": 186,
      "▁headband": 187,
      "▁aircraft": 188,
      "▁poo": 189,
      "ottable": 190,
      "▁specializing": 191,
      "▁steth": 192,
      "▁discre": 193,
      "▁forgotten": 194,
      "▁plots": 195,
      "▁functioning": 196,
      "|reg": 197,
      "aser": 198,
      "▁inst": 199,
      "▁hit": 200,
      "▁petition": 201,
      "▁remaining": 202,
      "▁pretext": 203,
      "▁liquor": 204,
      "▁emotion": 205,
      "▁january": 206,
      "eration": 207,
      "▁century": 208,
      "minate": 209,
      "▁accelerated": 210,
      "▁strap": 211,
      "▁entourage": 212,
      "▁agrees": 213,
      "▁bells": 214,
      "▁outlined": 215,
      "▁thous": 216,
      "▁deserted": 217,
      "▁gro": 218,
      "▁fragments": 219,
      "helf": 220,
      "▁der": 221,
      "▁yacht": 222,
      "▁susp": 223,
      "tles": 224,
      "▁extra": 225,
      "▁hummus": 226,
      "▁bigger": 227,
      "▁now": 228,
      "6": 229,
      "▁run": 230,
      "▁location": 231,
      "▁affected": 232,
      "idn": 233,
      "tling": 234,
      "rano": 235,
      "▁beaches": 236,
      "▁inscriptions": 237,
      "▁mort": 238,
      "▁viet": 239,
      "▁03": 240,
      "crib": 241,
      "▁lem": 242,
      "▁simp": 243,
      "ost": 244,
      "ash": 245,
      "▁chin": 246,
      "▁regim": 247,
      "tainty": 248,
      "▁uneas": 249,
      "▁senses": 250,
      "▁uhoh": 251,
      "▁event": 252,
      "▁disapp": 253,
      "▁vitamin": 254,
      "ister": 255,
      "▁must": 256,
      "02": 257,
      "▁lever": 258,
      "▁cabbage": 259,
      "dayeen": 260,
      "loading": 261,
      "▁great": 262,
      "▁writed": 263,
      "▁coordination": 264,
      "gal": 265,
      "▁represented": 266,
      "▁pilgrim": 267,
      "▁comprehension": 268,
      "▁price": 269,
      "▁ov": 270,
      "struc": 271,
      "▁neg": 272,
      "▁cornflakes": 273,
      "▁ai": 274,
      "ann": 275,
      "▁ld2d-": 276,
      "▁magnitude": 277,
      "▁addressed": 278,
      "▁champ": 279,
      "vance": 280,
      "▁attractions": 281,
      "anoma": 282,
      "icomed": 283,
      "keep": 284,
      "▁bee": 285,
      "▁few": 286,
      "▁his": 287,
      "itated": 288,
      "▁cope": 289,
      "▁attracting": 290,
      "▁god": 291,
      "ishment": 292,
      "box": 293,
      "▁advisor": 294,
      "▁church": 295,
      "▁physi": 296,
      "▁encompass": 297,
      "▁straps": 298,
      "▁grammar": 299,
      "▁arthritis": 300,
      "▁danger": 301,
      "teries": 302,
      "ded": 303,
      "▁cens": 304,
      "ising": 305,
      "▁l'": 306,
      "▁avoidance": 307,
      "▁gone": 308,
      "▁dip": 309,
      "▁predators": 310,
      "▁hotel": 311,
      "▁olive": 312,
      "ass": 313,
      "▁covered": 314,
      "▁test": 315,
      "oom": 316,
      "▁although": 317,
      "▁salesman": 318,
      "▁steam": 319,
      "▁lab": 320,
      "ft": 321,
      "▁bund": 322,
      "▁stead": 323,
      "▁wager": 324,
      "▁abandoning": 325,
      "▁wall": 326,
      "equ": 327,
      "▁faded": 328,
      "ct": 329,
      "▁empan": 330,
      "▁tortilla": 331,
      "▁diaper": 332,
      "eli": 333,
      "▁proc": 334,
      "tc": 335,
      "▁luggage": 336,
      "▁guaranty": 337,
      "▁bureaucr": 338,
      "ybody": 339,
      "▁supposed": 340,
      "▁santa": 341,
      "▁gathering": 342,
      "▁force": 343,
      "▁peppers": 344,
      "ps": 345,
      "her": 346,
      "▁videoc": 347,
      "▁antiquity": 348,
      "▁smal": 349,
      "enties": 350,
      "atry": 351,
      "▁amounts": 352,
      "▁leading": 353,
      "▁debris": 354,
      "sely": 355,
      "ion": 356,
      "onstr": 357,
      "▁lotos": 358,
      "▁legisl": 359,
      "▁horizon": 360,
      "onut": 361,
      "▁playw": 362,
      "60s": 363,
      "ighb": 364,
      "▁mpg": 365,
      "▁catholic": 366,
      "ival": 367,
      "▁civili": 368,
      "▁collect": 369,
      "▁balloons": 370,
      "▁receipt": 371,
      "mission": 372,
      "▁neoc": 373,
      "▁statement": 374,
      "▁equally": 375,
      "▁rot": 376,
      "▁insurg": 377,
      "▁november": 378,
      "▁ya": 379,
      "▁1960s": 380,
      "▁deemed": 381,
      "▁rarely": 382,
      "▁urgency": 383,
      "▁demonstrated": 384,
      "oted": 385,
      "ustr": 386,
      "▁requiring": 387,
      "▁wheelchair": 388,
      "▁listen": 389,
      "▁match": 390,
      "▁undert": 391,
      "▁refineries": 392,
      "ualize": 393,
      "▁interp": 394,
      "▁booking": 395,
      "▁fut": 396,
      "▁furnace": 397,
      "bled": 398,
      "austed": 399,
      ">": 400,
      "▁smart": 401,
      "▁afterwards": 402,
      "▁environment": 403,
      "▁gave": 404,
      "ullness": 405,
      "▁this": 406,
      "▁changes": 407,
      "▁cleric": 408,
      "eop": 409,
      "▁bash": 410,
      "▁roc": 411,
      "▁peek": 412,
      "r": 413,
      "▁your": 414,
      "▁vacc": 415,
      "▁gun": 416,
      "▁studied": 417,
      "▁notch": 418,
      "ford": 419,
      "▁readers": 420,
      "▁danny": 421,
      "▁achievement": 422,
      "▁sensitivity": 423,
      "▁reviewer": 424,
      "ucked": 425,
      "▁dand": 426,
      "▁pec": 427,
      "bernation": 428,
      "▁compan": 429,
      "▁nationalities": 430,
      "▁persons": 431,
      "atives": 432,
      "▁critic": 433,
      "▁apprehension": 434,
      "vail": 435,
      "▁fair": 436,
      "▁slam": 437,
      "▁terms": 438,
      "alk": 439,
      "▁grow": 440,
      "pir": 441,
      "maid": 442,
      "▁liberals": 443,
      "▁decor": 444,
      "▁dilemmas": 445,
      "apanese": 446,
      "has": 447,
      "▁isd": 448,
      "▁granddaughter": 449,
      "▁advised": 450,
      "▁mentions": 451,
      "▁postage": 452,
      "▁enchil": 453,
      "▁vice": 454,
      "▁uniformity": 455,
      "dit": 456,
      "▁mohamed": 457,
      "▁federalism": 458,
      "▁listing": 459,
      "▁amendments": 460,
      "▁cried": 461,
      "▁muscle": 462,
      "▁ones": 463,
      "orman": 464,
      "▁stro": 465,
      "aning": 466,
      "ums": 467,
      "▁deported": 468,
      "▁st": 469,
      "▁completed": 470,
      "▁reject": 471,
      "-s": 472,
      "ante": 473,
      "▁pressure": 474,
      "▁earned": 475,
      "▁period": 476,
      "▁_______": 477,
      "▁sneeze": 478,
      "ders": 479,
      "▁boasts": 480,
      "▁documenting": 481,
      "▁state": 482,
      "▁behaviour": 483,
      "wering": 484,
      "▁disintegration": 485,
      "▁orph": 486,
      "▁apost": 487,
      "▁!!!": 488,
      "▁fix": 489,
      "▁knows": 490,
      "▁packing": 491,
      "▁tickles": 492,
      "▁processes": 493,
      "▁dresses": 494,
      "▁glasses": 495,
      "inals": 496,
      "vision": 497,
      "▁succeed": 498,
      "▁i.e": 499,
      "▁burned": 500,
      "▁.?": 501,
      "▁month": 502,
      "▁plane": 503,
      "▁coupled": 504,
      "▁clients": 505,
      "atically": 506,
      "▁spine": 507,
      "▁skip": 508,
      "▁swing": 509,
      "▁obligation": 510,
      "▁overflow": 511,
      "▁persuade": 512,
      "▁deployment": 513,
      "▁fast": 514,
      "▁theat": 515,
      "▁listed": 516,
      "▁volleyball": 517,
      "east": 518,
      "▁gal": 519,
      "▁phrases": 520,
      "▁interference": 521,
      "▁belief": 522,
      "uth": 523,
      "▁exchanged": 524,
      "utes": 525,
      "▁decl": 526,
      "ina": 527,
      "▁concepts": 528,
      "cept": 529,
      "▁equip": 530,
      "omes": 531,
      "isting": 532,
      "▁makes": 533,
      "▁shiny": 534,
      "entieth": 535,
      "▁tablet": 536,
      "▁underwear": 537,
      "oun": 538,
      "urist": 539,
      "pted": 540,
      "others": 541,
      "▁risk": 542,
      "▁bonds": 543,
      "▁shrapnel": 544,
      "▁anthrop": 545,
      "▁entertainment": 546,
      "ł": 547,
      "▁surviv": 548,
      "▁instrument": 549,
      ";": 550,
      "▁common": 551,
      "▁propose": 552,
      "▁customize": 553,
      "▁introduce": 554,
      "▁attain": 555,
      "▁manuscri": 556,
      "▁horiz": 557,
      "▁concrete": 558,
      "▁sl": 559,
      "30": 560,
      "▁interests": 561,
      "utation": 562,
      "▁priced": 563,
      "▁locom": 564,
      "▁somewhat": 565,
      "▁pion": 566,
      "▁ruined": 567,
      "▁pasture": 568,
      "apolis": 569,
      "▁chess": 570,
      "-e": 571,
      "▁worrying": 572,
      "▁introducing": 573,
      "▁singer": 574,
      "▁operating": 575,
      "▁schedule": 576,
      "▁puppet": 577,
      "▁radiation": 578,
      "▁delivery": 579,
      "lane": 580,
      "▁six": 581,
      "ois": 582,
      "▁treas": 583,
      "▁queen": 584,
      "▁becom": 585,
      "▁nails": 586,
      "▁rebuil": 587,
      "▁nation": 588,
      "ighted": 589,
      "▁visu": 590,
      "ituting": 591,
      "uggle": 592,
      "▁runs": 593,
      "▁thinked": 594,
      "▁executing": 595,
      "▁kills": 596,
      "▁rank": 597,
      "▁valuing": 598,
      "▁daytime": 599,
      "▁trump": 600,
      "▁seizures": 601,
      "▁!": 602,
      "vas": 603,
      "▁wikinews": 604,
      "▁ans": 605,
      "▁sailors": 606,
      "▁aristocracy": 607,
      "▁cocktail": 608,
      "▁scaring": 609,
      "▁shyness": 610,
      "ractors": 611,
      "get": 612,
      "▁normally": 613,
      "▁planning": 614,
      "▁cy": 615,
      "▁the": 616,
      "▁shower": 617,
      "▁prey": 618,
      "▁coali": 619,
      "▁23rd": 620,
      "▁ahead": 621,
      "▁scored": 622,
      "▁carbon": 623,
      "▁nud": 624,
      "▁situation": 625,
      "▁petroleum": 626,
      "▁co-": 627,
      "▁vers": 628,
      "zed": 629,
      "▁bears": 630,
      "portedly": 631,
      "▁ramp": 632,
      "▁action": 633,
      "▁ling": 634,
      "▁eighteen": 635,
      "yl": 636,
      "$": 637,
      "bly": 638,
      "▁posters": 639,
      "play": 640,
      "▁spill": 641,
      "▁sworn": 642,
      "ind": 643,
      "alist": 644,
      "▁sailing": 645,
      "▁mich": 646,
      "▁pamph": 647,
      "▁evolve": 648,
      "▁incl": 649,
      "▁nig": 650,
      "dy": 651,
      ".com/": 652,
      "▁dictators": 653,
      "▁resignation": 654,
      "▁princess": 655,
      "▁ultras": 656,
      "▁jail": 657,
      "▁enj": 658,
      "▁appropri": 659,
      "ective": 660,
      "▁concert": 661,
      "▁maize": 662,
      "▁compressor": 663,
      "estone": 664,
      "▁impose": 665,
      "▁endeav": 666,
      "eets": 667,
      "▁gda": 668,
      "▁explosives": 669,
      "▁facilitate": 670,
      "▁ep": 671,
      "▁opponent": 672,
      "▁editing": 673,
      "▁heard": 674,
      "▁issued": 675,
      "▁disturb": 676,
      "▁intends": 677,
      "▁teasing": 678,
      "ruary": 679,
      "▁prefecture": 680,
      "▁folks": 681,
      "cki": 682,
      "▁[...]": 683,
      "▁searches": 684,
      "▁websites": 685,
      "▁b&b": 686,
      "▁bid": 687,
      "▁urine": 688,
      "▁servant": 689,
      "▁wiped": 690,
      "alks": 691,
      "▁charge": 692,
      "▁deficit": 693,
      "▁repeated": 694,
      ".doc": 695,
      "▁takeoff": 696,
      "▁raced": 697,
      "▁absorbing": 698,
      "▁gag": 699,
      "▁prac": 700,
      "▁testing": 701,
      "▁grace": 702,
      "▁irr": 703,
      "▁farewell": 704,
      "tly": 705,
      "vp": 706,
      "▁declining": 707,
      "▁draft": 708,
      "▁neighbourhood": 709,
      "timate": 710,
      "bers": 711,
      "▁ice": 712,
      "▁dedication": 713,
      "▁oath": 714,
      "▁glamosh": 715,
      "▁loop": 716,
      "how": 717,
      "▁vietnam": 718,
      "▁claims": 719,
      "▁cows": 720,
      "▁driveway": 721,
      "▁demonstrations": 722,
      "▁eco": 723,
      "▁trad": 724,
      "▁educate": 725,
      "▁cara": 726,
      "atme": 727,
      "▁derived": 728,
      "▁distractions": 729,
      "▁speci": 730,
      "▁skipping": 731,
      "▁decision": 732,
      "▁robots": 733,
      "▁feared": 734,
      "xt": 735,
      "▁experi": 736,
      "▁cons": 737,
      "mitted": 738,
      "▁cen": 739,
      "▁middle": 740,
      "▁retention": 741,
      "▁manatees": 742,
      "▁loc": 743,
      "ateral": 744,
      "asion": 745,
      "▁protects": 746,
      "innia": 747,
      "rise": 748,
      "usting": 749,
      "[SEP]": 750,
      "leum": 751,
      "▁oops": 752,
      "▁carnival": 753,
      "▁live": 754,
      "ording": 755,
      "▁ok": 756,
      "▁fry": 757,
      "inus": 758,
      "▁exactly": 759,
      "▁contacts": 760,
      "▁squirt": 761,
      "apers": 762,
      "ism": 763,
      "▁balanced": 764,
      "▁refrigerator": 765,
      "▁disint": 766,
      "maries": 767,
      "gie": 768,
      "▁ancestors": 769,
      "▁registration": 770,
      "▁boil": 771,
      "adder": 772,
      "▁contributions": 773,
      "▁itsy": 774,
      "pe": 775,
      "imited": 776,
      "▁analyzed": 777,
      "▁believes": 778,
      "▁madness": 779,
      "▁salute": 780,
      "▁protected": 781,
      "isd": 782,
      "▁tok": 783,
      "▁generators": 784,
      "▁woke": 785,
      "▁province": 786,
      "▁trails": 787,
      "inting": 788,
      "▁attributes": 789,
      "▁wonderful": 790,
      "▁yesterday": 791,
      "▁session": 792,
      "▁dine": 793,
      "▁play": 794,
      "▁answering": 795,
      "▁submitted": 796,
      "▁ridic": 797,
      "▁bach": 798,
      "▁grandfather": 799,
      "▁sacrificed": 800,
      "eno": 801,
      "▁hay": 802,
      "▁gentlemen": 803,
      "▁pocketbook": 804,
      "▁standards": 805,
      "▁hous": 806,
      "▁bless": 807,
      "eded": 808,
      "ec": 809,
      "▁sock": 810,
      "▁lid": 811,
      "▁squeeze": 812,
      "▁texas": 813,
      "imately": 814,
      "▁read": 815,
      "▁putting": 816,
      "esaw": 817,
      "▁affairs": 818,
      "▁carrier": 819,
      "▁mister": 820,
      "▁crane": 821,
      "▁luminol": 822,
      "▁***": 823,
      "▁observed": 824,
      "▁summer": 825,
      "▁ri": 826,
      "istor": 827,
      "▁cube": 828,
      "▁equals": 829,
      "▁hospitals": 830,
      "▁funds": 831,
      "▁established": 832,
      "erole": 833,
      "▁team": 834,
      "▁vice-president": 835,
      "▁maintains": 836,
      "ieved": 837,
      "▁capsules": 838,
      "▁du": 839,
      "▁ventures": 840,
      "▁oils": 841,
      "▁const": 842,
      ".un": 843,
      "izz": 844,
      "▁defence": 845,
      "▁endorsed": 846,
      "▁canned": 847,
      "lc": 848,
      "▁chronic": 849,
      "▁chequ": 850,
      "▁wandering": 851,
      "▁pop": 852,
      "▁appeared": 853,
      "▁tactic": 854,
      "▁ons": 855,
      "▁magazines": 856,
      "itz": 857,
      "▁jenn": 858,
      "▁impossible": 859,
      "▁fount": 860,
      "▁miles": 861,
      "ocked": 862,
      "mie": 863,
      "3": 864,
      "▁que": 865,
      "▁accessibility": 866,
      "▁preced": 867,
      "▁lev": 868,
      "▁score": 869,
      "▁neighborhood": 870,
      "atees": 871,
      "dish": 872,
      "▁adoption": 873,
      "▁encompasses": 874,
      "ening": 875,
      "▁stupid": 876,
      "umbling": 877,
      "▁persuaded": 878,
      "▁updating": 879,
      "▁je": 880,
      "▁a.m.": 881,
      "▁newark": 882,
      "▁planes": 883,
      "vals": 884,
      "▁budgie": 885,
      "▁20s": 886,
      "water": 887,
      "▁beaver": 888,
      "▁vaccines": 889,
      "▁taiwan": 890,
      "▁truths": 891,
      "front": 892,
      "ual": 893,
      "▁advert": 894,
      "▁promise": 895,
      "▁simpl": 896,
      "▁dump": 897,
      "▁tks": 898,
      "medi": 899,
      "▁photographers": 900,
      "▁treasure": 901,
      "▁pants": 902,
      "▁restric": 903,
      "▁recre": 904,
      "▁returns": 905,
      "iece": 906,
      "▁being": 907,
      "assing": 908,
      "▁contributing": 909,
      "▁jurisdiction": 910,
      "▁ski": 911,
      "▁near": 912,
      "estiv": 913,
      "▁sensation": 914,
      "▁connec": 915,
      "▁invoices": 916,
      "▁hutch": 917,
      "▁stepped": 918,
      "▁bathrooms": 919,
      "▁drowning": 920,
      "▁comfor": 921,
      "▁tattoos": 922,
      "▁choo": 923,
      "ield": 924,
      "▁riding": 925,
      "▁sucks": 926,
      "▁poet": 927,
      "▁closed": 928,
      "▁dursleys": 929,
      "▁succeeded": 930,
      "▁daniel": 931,
      "▁hoops": 932,
      "▁equi": 933,
      "▁se": 934,
      "▁ascertain": 935,
      "▁comprom": 936,
      "▁unh": 937,
      "▁requirement": 938,
      "▁programming": 939,
      "▁convin": 940,
      "memb": 941,
      "workers": 942,
      "ucker": 943,
      "▁retaliation": 944,
      "edly": 945,
      "▁sofa": 946,
      "ocol": 947,
      "▁dazz": 948,
      "▁bent": 949,
      "▁lik": 950,
      "▁********************************": 951,
      "▁clauses": 952,
      "▁mule": 953,
      "▁difficul": 954,
      "▁toystore": 955,
      "#'s": 956,
      "ified": 957,
      "▁embass": 958,
      "sh": 959,
      "tery": 960,
      "▁transmission": 961,
      "cend": 962,
      "▁encour": 963,
      "▁shrunk": 964,
      "▁german": 965,
      "▁histor": 966,
      "ization": 967,
      "▁bitsy": 968,
      "▁toddler": 969,
      "▁explo": 970,
      "▁divorce": 971,
      "▁hire": 972,
      "▁logic": 973,
      "▁bir": 974,
      "▁17": 975,
      "▁pitcher": 976,
      "▁lines": 977,
      "▁nov": 978,
      "▁rhymes": 979,
      "▁indignation": 980,
      "▁imposed": 981,
      "▁overt": 982,
      "▁quino": 983,
      "▁previous": 984,
      "▁propos": 985,
      "▁ingred": 986,
      "▁estimate": 987,
      "▁laid": 988,
      "ieve": 989,
      "▁nite": 990,
      "▁canopy": 991,
      "▁progression": 992,
      "▁referee": 993,
      "▁sket": 994,
      "▁tankers": 995,
      "▁styrofoam": 996,
      "▁los": 997,
      "▁tel": 998,
      "▁guarantee": 999,
      "▁occupied": 1000,
      "▁pas": 1001,
      "▁racing": 1002,
      "▁uphold": 1003,
      "pen": 1004,
      "ury": 1005,
      "▁everyday": 1006,
      "▁gym": 1007,
      ".s": 1008,
      "fin": 1009,
      "▁considered": 1010,
      "▁discouraging": 1011,
      "▁places": 1012,
      "▁sesame": 1013,
      "▁journey": 1014,
      "tiff": 1015,
      "▁handker": 1016,
      "▁recommends": 1017,
      "▁counter": 1018,
      "▁bu": 1019,
      "plet": 1020,
      "su": 1021,
      "osing": 1022,
      "ll": 1023,
      "▁service": 1024,
      "don": 1025,
      "▁it's": 1026,
      "▁donkey": 1027,
      "ruptions": 1028,
      "▁clicked": 1029,
      "▁waterfalls": 1030,
      "▁sunglasses": 1031,
      "oud": 1032,
      "▁incomes": 1033,
      "▁whoo": 1034,
      "▁convey": 1035,
      "▁resolution": 1036,
      "put": 1037,
      "thold": 1038,
      "eor": 1039,
      "▁helped": 1040,
      "▁ll": 1041,
      "▁mul": 1042,
      "▁marks": 1043,
      "▁names": 1044,
      "▁foreigner": 1045,
      "▁tended": 1046,
      "▁minneapolis": 1047,
      "▁things": 1048,
      "▁begins": 1049,
      "▁perfect": 1050,
      "▁justification": 1051,
      "ence": 1052,
      "▁console": 1053,
      "▁asked": 1054,
      "▁cush": 1055,
      "esting": 1056,
      "▁))": 1057,
      "otions": 1058,
      "▁directives": 1059,
      "▁excellent": 1060,
      "▁divor": 1061,
      "▁urge": 1062,
      "▁analy": 1063,
      "▁sulf": 1064,
      "mbing": 1065,
      "▁imp": 1066,
      "eck": 1067,
      "▁counterfeiting": 1068,
      "▁somehow": 1069,
      "▁hundreds": 1070,
      "pend": 1071,
      "▁bound": 1072,
      "▁councill": 1073,
      "▁integrity": 1074,
      "▁hippopotamus": 1075,
      "▁headaches": 1076,
      "▁wandered": 1077,
      "▁identified": 1078,
      "▁tur": 1079,
      "▁amidst": 1080,
      "{": 1081,
      "▁set": 1082,
      "▁produce": 1083,
      "kly": 1084,
      "▁envir": 1085,
      "▁belongs": 1086,
      "▁extinction": 1087,
      "▁apolog": 1088,
      "imb": 1089,
      "▁excluded": 1090,
      "▁homeopath": 1091,
      "ading": 1092,
      "▁reduced": 1093,
      "▁mac": 1094,
      "!!!!": 1095,
      "▁tighten": 1096,
      "▁shoes": 1097,
      "nh": 1098,
      "▁structure": 1099,
      "▁europe": 1100,
      "▁unloading": 1101,
      "▁dope": 1102,
      "▁padd": 1103,
      "quis": 1104,
      "▁absorb": 1105,
      "▁gaming": 1106,
      "▁melting": 1107,
      "▁morphology": 1108,
      "▁wildcard": 1109,
      "▁reservation": 1110,
      "▁dh": 1111,
      "▁pre-": 1112,
      "▁king": 1113,
      "▁possibly": 1114,
      "cut": 1115,
      "▁seafood": 1116,
      "▁suspicion": 1117,
      "▁branch": 1118,
      "▁allowing": 1119,
      "▁arab": 1120,
      "▁nothing": 1121,
      "▁dese": 1122,
      "▁simple": 1123,
      "▁axis": 1124,
      "udge": 1125,
      "▁python": 1126,
      "▁moreau": 1127,
      "▁draping": 1128,
      "wood": 1129,
      "lo": 1130,
      "▁whereas": 1131,
      "▁contrast": 1132,
      "▁instruc": 1133,
      "▁highlight": 1134,
      "▁statute": 1135,
      "▁airport": 1136,
      "▁browser": 1137,
      "▁health": 1138,
      "▁drift": 1139,
      "▁nanny": 1140,
      "▁gd": 1141,
      "▁notebook": 1142,
      "eria": 1143,
      "amus": 1144,
      "▁emphas": 1145,
      "▁smeared": 1146,
      "▁fris": 1147,
      "ority": 1148,
      "body": 1149,
      "▁fascination": 1150,
      "▁erup": 1151,
      "umbled": 1152,
      "worms": 1153,
      "▁university": 1154,
      "eap": 1155,
      "▁mass": 1156,
      "▁land": 1157,
      "▁º": 1158,
      "▁diego": 1159,
      "cessfully": 1160,
      "▁forms": 1161,
      "uss": 1162,
      "lace": 1163,
      "▁mine": 1164,
      "inkle": 1165,
      "▁fol": 1166,
      "▁central": 1167,
      "▁homes": 1168,
      "lication": 1169,
      ":0": 1170,
      "▁crawl": 1171,
      "▁festival": 1172,
      "cri": 1173,
      "▁share": 1174,
      "▁wav": 1175,
      "father": 1176,
      "▁representation": 1177,
      "▁autumn": 1178,
      "▁width": 1179,
      "▁profic": 1180,
      "option": 1181,
      "▁remarked": 1182,
      "p": 1183,
      "ortion": 1184,
      "icular": 1185,
      "▁assets": 1186,
      "▁australia": 1187,
      "ro": 1188,
      "pri": 1189,
      "ator": 1190,
      "▁addition": 1191,
      "ocado": 1192,
      "▁diale": 1193,
      "▁makeup": 1194,
      "▁arr": 1195,
      "▁here": 1196,
      "▁corruption": 1197,
      "ocks": 1198,
      "ids": 1199,
      "▁bump": 1200,
      "▁gates": 1201,
      "ing": 1202,
      "words": 1203,
      "-m": 1204,
      "▁invested": 1205,
      "▁children": 1206,
      "iliation": 1207,
      "▁studying": 1208,
      "β": 1209,
      "▁earn": 1210,
      "▁hol": 1211,
      "▁towns": 1212,
      "▁soy": 1213,
      "▁desire": 1214,
      "▁clean": 1215,
      "▁limits": 1216,
      "▁reimbursed": 1217,
      "▁parachute": 1218,
      "jwww": 1219,
      "▁ow": 1220,
      "▁flir": 1221,
      "▁pleased": 1222,
      "▁port": 1223,
      "sst": 1224,
      "▁literature": 1225,
      "▁+": 1226,
      "▁gardens": 1227,
      "▁allowance": 1228,
      "ety": 1229,
      "▁advanced": 1230,
      "▁undergo": 1231,
      "▁bitmap": 1232,
      "▁batteries": 1233,
      "▁rising": 1234,
      "-p": 1235,
      "▁staple": 1236,
      "▁values": 1237,
      "▁cave": 1238,
      "▁ink": 1239,
      "▁dissatisfaction": 1240,
      "▁proceeding": 1241,
      "▁subscrib": 1242,
      "▁procr": 1243,
      "▁centi": 1244,
      "▁stub": 1245,
      "³": 1246,
      "------------": 1247,
      "▁crushing": 1248,
      "ackened": 1249,
      "▁probability": 1250,
      "▁datab": 1251,
      "▁recommending": 1252,
      "▁demands": 1253,
      "▁astron": 1254,
      "▁reward": 1255,
      "▁abstr": 1256,
      "▁pirate": 1257,
      "▁cav": 1258,
      "olence": 1259,
      "om": 1260,
      "ario": 1261,
      "▁08": 1262,
      "▁penis": 1263,
      "▁mailing": 1264,
      "▁rests": 1265,
      "▁!!!!!!!!!!!!!!!": 1266,
      "▁eee": 1267,
      "▁glancing": 1268,
      "▁dragged": 1269,
      "▁writer": 1270,
      "▁cavity": 1271,
      "1st": 1272,
      "▁husband": 1273,
      "eeled": 1274,
      "▁vlog": 1275,
      "▁remainder": 1276,
      "person": 1277,
      ".d.": 1278,
      "▁pean": 1279,
      "▁bounced": 1280,
      "▁reference": 1281,
      "▁degu": 1282,
      "sm": 1283,
      "▁myth": 1284,
      "▁foie": 1285,
      "ibility": 1286,
      "uding": 1287,
      "▁approximation": 1288,
      "▁amending": 1289,
      "▁sin": 1290,
      "▁troops": 1291,
      "▁monitor": 1292,
      "ative": 1293,
      "ptian": 1294,
      "▁advise": 1295,
      "men": 1296,
      "▁coin": 1297,
      "▁bronze": 1298,
      "▁contain": 1299,
      "▁proper": 1300,
      "▁inspired": 1301,
      "▁noted": 1302,
      "plan": 1303,
      "▁article": 1304,
      "▁motorc": 1305,
      "▁bludgers": 1306,
      "▁grade": 1307,
      "▁undertaken": 1308,
      "▁herd": 1309,
      "unte": 1310,
      "▁tastes": 1311,
      "afts": 1312,
      "▁construc": 1313,
      "▁wonder": 1314,
      "▁judging": 1315,
      "fortable": 1316,
      "tail": 1317,
      "▁corn": 1318,
      "▁russians": 1319,
      "▁shirt": 1320,
      "▁included": 1321,
      "▁injustice": 1322,
      "▁favorites": 1323,
      "▁exem": 1324,
      "isl": 1325,
      "▁invoked": 1326,
      "▁hydrogen": 1327,
      "▁rebels": 1328,
      "▁transforming": 1329,
      "ully": 1330,
      "▁sinus": 1331,
      "sour": 1332,
      "▁turns": 1333,
      "▁correctly": 1334,
      "▁bans": 1335,
      "▁monuments": 1336,
      "▁elimination": 1337,
      "“": 1338,
      "▁peric": 1339,
      "▁cant": 1340,
      "▁mean": 1341,
      "▁prog": 1342,
      "--------+----------------": 1343,
      "ounter": 1344,
      "▁communicate": 1345,
      "▁spank": 1346,
      "asionally": 1347,
      "mic": 1348,
      "ssi": 1349,
      "▁stops": 1350,
      "lin": 1351,
      "▁responsibilities": 1352,
      "▁progress": 1353,
      "irt": 1354,
      "▁arsen": 1355,
      "▁kib": 1356,
      "▁immedi": 1357,
      "▁successfully": 1358,
      "▁title": 1359,
      "▁appearing": 1360,
      "den": 1361,
      "▁business": 1362,
      "▁valley": 1363,
      "▁asser": 1364,
      "▁parts": 1365,
      "▁represent": 1366,
      "▁core": 1367,
      "▁pige": 1368,
      "ians": 1369,
      "▁belonged": 1370,
      "▁noise": 1371,
      "▁mechanisms": 1372,
      "us": 1373,
      "▁quidditch": 1374,
      "▁filters": 1375,
      "mental": 1376,
      "▁doom": 1377,
      "wa": 1378,
      "▁guess": 1379,
      "▁connecting": 1380,
      "cepted": 1381,
      "▁robes": 1382,
      "▁exploding": 1383,
      "ingly": 1384,
      "▁spores": 1385,
      "▁david": 1386,
      "▁cred": 1387,
      "▁orientation": 1388,
      "▁shun": 1389,
      "▁replication": 1390,
      "▁delicious": 1391,
      "tibility": 1392,
      "60": 1393,
      "▁bred": 1394,
      "ticip": 1395,
      "▁analys": 1396,
      "▁goodbye": 1397,
      "resident": 1398,
      "▁purple": 1399,
      "hua": 1400,
      "lando": 1401,
      "▁retrie": 1402,
      "▁locker": 1403,
      "▁expert": 1404,
      "▁sect": 1405,
      "▁dresser": 1406,
      "aneously": 1407,
      "ome": 1408,
      "▁a": 1409,
      "▁scared": 1410,
      "▁legacy": 1411,
      "▁mob": 1412,
      "▁tower": 1413,
      "▁commem": 1414,
      "ose": 1415,
      "▁placing": 1416,
      "▁travelled": 1417,
      "▁organize": 1418,
      "▁oink": 1419,
      "▁gotted": 1420,
      "▁who": 1421,
      "▁mounds": 1422,
      "▁filing": 1423,
      "▁reintroduc": 1424,
      "▁viewpoints": 1425,
      "▁sensing": 1426,
      "▁twelve": 1427,
      "▁stationed": 1428,
      "asley": 1429,
      "▁obt": 1430,
      "▁nationality": 1431,
      "▁kidn": 1432,
      "gulation": 1433,
      "▁courses": 1434,
      "cause": 1435,
      "▁politicians": 1436,
      "▁pest": 1437,
      "▁root": 1438,
      "ticks": 1439,
      "▁hid": 1440,
      "▁tim": 1441,
      "▁supers": 1442,
      "▁ups": 1443,
      "▁complex": 1444,
      "ained": 1445,
      "▁administration": 1446,
      "▁regulated": 1447,
      "▁flirting": 1448,
      "▁curlers": 1449,
      "▁olivia": 1450,
      "▁freezing": 1451,
      "ocracy": 1452,
      "▁..........": 1453,
      "▁association": 1454,
      "▁treati": 1455,
      "▁scheduled": 1456,
      "▁cc": 1457,
      "▁leap": 1458,
      "▁aff": 1459,
      "▁b2b": 1460,
      "▁pri": 1461,
      "▁termination": 1462,
      "▁between": 1463,
      "▁aug": 1464,
      "▁comed": 1465,
      "y": 1466,
      "orn": 1467,
      "▁cloud": 1468,
      "▁exaggeration": 1469,
      "gings": 1470,
      "▁dinosaur": 1471,
      "▁exception": 1472,
      "▁conditioning": 1473,
      "ech": 1474,
      "▁tav": 1475,
      "▁nasa": 1476,
      "▁valuation": 1477,
      "ww": 1478,
      "▁tickets": 1479,
      "iety": 1480,
      "riage": 1481,
      "▁alter": 1482,
      "▁healing": 1483,
      "▁discomfort": 1484,
      "▁sk": 1485,
      "▁rescued": 1486,
      "▁ang": 1487,
      "▁pamp": 1488,
      "▁hacking": 1489,
      "▁daughter": 1490,
      "▁wednesdays": 1491,
      "▁visited": 1492,
      "▁inning": 1493,
      "▁duties": 1494,
      "▁esteem": 1495,
      "▁sp": 1496,
      "▁dipl": 1497,
      "▁roman": 1498,
      "▁british": 1499,
      "▁candles": 1500,
      "▁competition": 1501,
      "tops": 1502,
      "▁shepherd": 1503,
      "▁eaters": 1504,
      "tyard": 1505,
      "▁referring": 1506,
      "▁twin": 1507,
      "▁blows": 1508,
      "▁distance": 1509,
      "▁cabinet": 1510,
      "▁hh": 1511,
      "▁publicly": 1512,
      "tai": 1513,
      "▁ratify": 1514,
      "▁boost": 1515,
      "anges": 1516,
      "▁electron": 1517,
      "▁lawsuit": 1518,
      "▁factor": 1519,
      "▁predict": 1520,
      "▁hon": 1521,
      "▁metascience": 1522,
      "▁y": 1523,
      "▁ki": 1524,
      "▁plotted": 1525,
      "▁administer": 1526,
      "▁assassinated": 1527,
      "▁noises": 1528,
      "▁inspire": 1529,
      "▁partnership": 1530,
      "▁components": 1531,
      "ped": 1532,
      "▁sad": 1533,
      "▁yaw": 1534,
      "▁substituted": 1535,
      "puts": 1536,
      "▁coo": 1537,
      "▁mathematicians": 1538,
      "▁receip": 1539,
      "▁70s": 1540,
      "▁accessing": 1541,
      "....": 1542,
      "▁tig": 1543,
      "rison": 1544,
      "▁pat": 1545,
      "▁transported": 1546,
      "▁bure": 1547,
      "▁kit": 1548,
      "mped": 1549,
      "5": 1550,
      "bout": 1551,
      "▁fabrications": 1552,
      "▁hum": 1553,
      "▁lettuce": 1554,
      "▁yoga": 1555,
      "▁in": 1556,
      "▁streak": 1557,
      "▁varying": 1558,
      "▁engineered": 1559,
      "▁concerns": 1560,
      "stant": 1561,
      "▁burger": 1562,
      "▁nice": 1563,
      "▁traffic": 1564,
      "▁annoy": 1565,
      "orld": 1566,
      "iu": 1567,
      "ident": 1568,
      "ast": 1569,
      "▁dryer": 1570,
      "▁joh": 1571,
      "▁guerr": 1572,
      "▁answer": 1573,
      "▁eyebrows": 1574,
      "ulations": 1575,
      "▁wash": 1576,
      "ialism": 1577,
      "▁textbook": 1578,
      "-d": 1579,
      "▁escaped": 1580,
      "▁reduces": 1581,
      "50": 1582,
      "asy": 1583,
      "▁exists": 1584,
      "▁remembers": 1585,
      "▁pink": 1586,
      "▁derivatives": 1587,
      "▁stup": 1588,
      "er": 1589,
      "eness": 1590,
      "▁myce": 1591,
      "▁beverage": 1592,
      "cod": 1593,
      "▁term": 1594,
      "▁conviction": 1595,
      "▁jig": 1596,
      "iot": 1597,
      "▁balloon": 1598,
      "eric": 1599,
      "▁hunt": 1600,
      "andon": 1601,
      "▁led": 1602,
      "istan": 1603,
      "▁holder": 1604,
      "▁insur": 1605,
      "▁persuading": 1606,
      "stly": 1607,
      "▁harmony": 1608,
      "▁violating": 1609,
      "▁profess": 1610,
      "▁knit": 1611,
      "ssibly": 1612,
      "▁****": 1613,
      "▁ide": 1614,
      "rou": 1615,
      "▁horns": 1616,
      "▁ess": 1617,
      "▁exhaus": 1618,
      "▁cheese": 1619,
      "▁arm": 1620,
      "▁untied": 1621,
      "▁cheating": 1622,
      "▁attrition": 1623,
      "▁farmers": 1624,
      "▁salaries": 1625,
      "▁chu": 1626,
      "▁backed": 1627,
      "▁basically": 1628,
      "▁fa": 1629,
      "▁perfume": 1630,
      "▁exceptions": 1631,
      "▁regime": 1632,
      "▁lime": 1633,
      "▁fin": 1634,
      "▁auth": 1635,
      "arn": 1636,
      "▁o'clock": 1637,
      "▁gl": 1638,
      "cally": 1639,
      "▁russ": 1640,
      "▁dy": 1641,
      "osex": 1642,
      "▁departments": 1643,
      "▁sch": 1644,
      "▁variables": 1645,
      "▁activities": 1646,
      "▁italian": 1647,
      "▁neuro": 1648,
      "▁travelers": 1649,
      "tern": 1650,
      "▁cla": 1651,
      "▁positive": 1652,
      "▁commanders": 1653,
      "▁ozone": 1654,
      "artment": 1655,
      "▁stopping": 1656,
      "▁issues": 1657,
      "▁spring": 1658,
      "ases": 1659,
      "▁ship": 1660,
      "▁interpret": 1661,
      "▁beatles": 1662,
      "▁pops": 1663,
      "▁strolled": 1664,
      "▁mend": 1665,
      "aign": 1666,
      "og": 1667,
      "47": 1668,
      "▁feet": 1669,
      "gin": 1670,
      "▁hairdress": 1671,
      "emporary": 1672,
      "ancing": 1673,
      "0s": 1674,
      "pond": 1675,
      "▁involving": 1676,
      "▁dun": 1677,
      "▁easier": 1678,
      "▁controlled": 1679,
      "▁bees": 1680,
      "▁paraphr": 1681,
      "▁manufacturers": 1682,
      "▁ment": 1683,
      "▁skill": 1684,
      "▁exagg": 1685,
      "▁scrape": 1686,
      "▁devote": 1687,
      "▁room": 1688,
      "▁believe": 1689,
      "▁lungs": 1690,
      "▁sympt": 1691,
      "▁dwar": 1692,
      "▁horror": 1693,
      "▁place": 1694,
      "▁invo": 1695,
      "▁creations": 1696,
      "▁costumes": 1697,
      "▁stickerbir": 1698,
      "▁fertilizer": 1699,
      "▁occupy": 1700,
      "▁yourselves": 1701,
      "▁acupunct": 1702,
      "▁raging": 1703,
      "▁ann": 1704,
      "rof": 1705,
      "▁offset": 1706,
      "▁circumference": 1707,
      "elly": 1708,
      "▁tat": 1709,
      "b": 1710,
      "▁modification": 1711,
      "▁fan": 1712,
      "▁car": 1713,
      "mometer": 1714,
      "▁showing": 1715,
      "ythm": 1716,
      "▁okay": 1717,
      "▁alright": 1718,
      "ant": 1719,
      "▁substances": 1720,
      "▁awards": 1721,
      "▁barges": 1722,
      "field": 1723,
      "ont": 1724,
      "▁spread": 1725,
      "▁smells": 1726,
      "▁pretty": 1727,
      "▁light": 1728,
      "mer": 1729,
      "▁avenues": 1730,
      "▁envelope": 1731,
      "▁frogg": 1732,
      "quently": 1733,
      "orter": 1734,
      "▁subject": 1735,
      "▁journal": 1736,
      "like": 1737,
      "▁approached": 1738,
      "▁soap": 1739,
      "▁grandparents": 1740,
      "▁bookstore": 1741,
      "▁earthworms": 1742,
      "thritis": 1743,
      "▁eigh": 1744,
      "▁dis": 1745,
      "▁holds": 1746,
      "▁skin": 1747,
      "che": 1748,
      "▁enjambment": 1749,
      "▁stations": 1750,
      "▁conden": 1751,
      "▁riches": 1752,
      "▁seconds": 1753,
      "ighter": 1754,
      "▁por": 1755,
      "▁papers": 1756,
      "▁affili": 1757,
      "▁deserve": 1758,
      "▁mmbtu": 1759,
      "pace": 1760,
      "▁missing": 1761,
      "▁insights": 1762,
      "▁rewarded": 1763,
      "▁firing": 1764,
      "▁insect": 1765,
      "▁might": 1766,
      "tone": 1767,
      "▁delays": 1768,
      "eless": 1769,
      "▁agre": 1770,
      "▁entirely": 1771,
      "riting": 1772,
      "▁scale": 1773,
      "▁ballerina": 1774,
      "▁punch": 1775,
      "▁cro": 1776,
      "▁scoring": 1777,
      "▁roared": 1778,
      "hf": 1779,
      "▁2004": 1780,
      "▁such": 1781,
      "▁subscribe": 1782,
      "▁friendships": 1783,
      "▁fest": 1784,
      "▁description": 1785,
      "▁brushing": 1786,
      "▁europeans": 1787,
      "▁ships": 1788,
      "▁scholars": 1789,
      "▁self-": 1790,
      "▁grease": 1791,
      "▁lamb": 1792,
      "▁amend": 1793,
      "osm": 1794,
      "▁tran": 1795,
      "▁shelves": 1796,
      "▁world": 1797,
      "▁psychologist": 1798,
      "▁plaintiffs": 1799,
      "jecting": 1800,
      "▁summoned": 1801,
      "+----------------": 1802,
      "▁artists": 1803,
      "▁grands": 1804,
      "▁venture": 1805,
      "af": 1806,
      "▁eng": 1807,
      "▁guy": 1808,
      "▁training": 1809,
      "▁warning": 1810,
      "▁curator": 1811,
      "▁greatest": 1812,
      "▁proce": 1813,
      "formation": 1814,
      "▁fif": 1815,
      "▁junk": 1816,
      "erv": 1817,
      "otes": 1818,
      "ules": 1819,
      "▁cuisine": 1820,
      "▁autonomy": 1821,
      "▁pictures": 1822,
      "▁renewal": 1823,
      "stop": 1824,
      "▁china": 1825,
      "▁peer": 1826,
      "▁normal": 1827,
      "jects": 1828,
      "ants": 1829,
      "▁philosophers": 1830,
      "▁finish": 1831,
      "▁welcomed": 1832,
      "▁regard": 1833,
      "eted": 1834,
      "▁options": 1835,
      "▁mystery": 1836,
      "▁----==": 1837,
      "ecutive": 1838,
      "▁reli": 1839,
      "▁duckies": 1840,
      "▁frustration": 1841,
      "▁epc": 1842,
      "riend": 1843,
      "▁announced": 1844,
      "▁dislike": 1845,
      "▁harb": 1846,
      "▁skis": 1847,
      "▁structures": 1848,
      "ecution": 1849,
      "▁airline": 1850,
      "▁client": 1851,
      "▁caf": 1852,
      "▁bend": 1853,
      "reat": 1854,
      "▁relief": 1855,
      "▁d.": 1856,
      "▁evening": 1857,
      "▁registered": 1858,
      "▁doctor": 1859,
      "ouring": 1860,
      "▁wiring": 1861,
      "▁browse": 1862,
      "▁sucked": 1863,
      "▁tripped": 1864,
      "ably": 1865,
      "rote": 1866,
      "▁time": 1867,
      "▁torch": 1868,
      "▁contains": 1869,
      "▁meters": 1870,
      "▁exporting": 1871,
      "ag": 1872,
      "▁hates": 1873,
      "▁knocked": 1874,
      "iation": 1875,
      "▁occupation": 1876,
      "▁abbreviation": 1877,
      "▁qualities": 1878,
      "bblers": 1879,
      "▁ramifications": 1880,
      "ointment": 1881,
      "▁rene": 1882,
      "▁guerrillas": 1883,
      "▁bew": 1884,
      "mbol": 1885,
      "▁foods": 1886,
      "▁considerations": 1887,
      "▁applause": 1888,
      "▁extending": 1889,
      "usement": 1890,
      "▁tempt": 1891,
      "www": 1892,
      "▁particip": 1893,
      "▁hub": 1894,
      "ade": 1895,
      "▁vis": 1896,
      "▁pulls": 1897,
      "▁null": 1898,
      "ater": 1899,
      "▁dove": 1900,
      "istence": 1901,
      "rands": 1902,
      "▁initiatives": 1903,
      "▁leggings": 1904,
      "▁heaven": 1905,
      "▁censor": 1906,
      "▁generated": 1907,
      "▁terrain": 1908,
      "▁extre": 1909,
      "▁exposure": 1910,
      "▁drives": 1911,
      "erably": 1912,
      "▁repairs": 1913,
      "▁commitment": 1914,
      "▁provoking": 1915,
      "▁safe": 1916,
      "▁wheel": 1917,
      "ucking": 1918,
      "c": 1919,
      "raph": 1920,
      "▁france": 1921,
      "ra": 1922,
      "▁lav": 1923,
      "▁illustrate": 1924,
      "band": 1925,
      "velled": 1926,
      "▁widely": 1927,
      "▁choices": 1928,
      "▁dentist": 1929,
      "duction": 1930,
      "▁expense": 1931,
      "▁start": 1932,
      "▁seem": 1933,
      "(s": 1934,
      "▁crystallite": 1935,
      "tering": 1936,
      "▁limited": 1937,
      "▁knew": 1938,
      "head": 1939,
      "▁ours": 1940,
      "ystem": 1941,
      "ell": 1942,
      "▁mezza": 1943,
      "▁waive": 1944,
      "▁princip": 1945,
      "▁mild": 1946,
      "▁futures": 1947,
      "ster": 1948,
      "▁flexibility": 1949,
      "▁surroundings": 1950,
      "▁jumps": 1951,
      "▁gtc": 1952,
      "▁selections": 1953,
      "aphr": 1954,
      "▁menu": 1955,
      "anding": 1956,
      "▁hear": 1957,
      "▁intriguing": 1958,
      "crif": 1959,
      "ering": 1960,
      "▁thirty": 1961,
      "▁fore": 1962,
      "▁infected": 1963,
      "▁grad": 1964,
      "▁fun": 1965,
      "▁exports": 1966,
      "▁entree": 1967,
      "▁interrup": 1968,
      "ologue": 1969,
      "▁fulf": 1970,
      "osh": 1971,
      "▁valued": 1972,
      "▁aboard": 1973,
      "▁focusing": 1974,
      "olerance": 1975,
      "▁pickle": 1976,
      "▁respondents": 1977,
      "▁fodder": 1978,
      "ark": 1979,
      "▁discrim": 1980,
      "▁objective": 1981,
      "▁surpl": 1982,
      "▁comp.s": 1983,
      "ension": 1984,
      "tra": 1985,
      "▁bell": 1986,
      "▁reminder": 1987,
      "▁lucky": 1988,
      "enty": 1989,
      "able": 1990,
      ".h": 1991,
      "comm": 1992,
      "inkles": 1993,
      "-en": 1994,
      "pot": 1995,
      "▁pursu": 1996,
      "▁surround": 1997,
      "▁discussion": 1998,
      "▁tas": 1999,
      "▁gul": 2000,
      "iate": 2001,
      "kind": 2002,
      "urred": 2003,
      "unciation": 2004,
      "▁ingenuity": 2005,
      "isms": 2006,
      "mac": 2007,
      "▁cic": 2008,
      "▁sight": 2009,
      "▁highest": 2010,
      "▁sixth": 2011,
      "lie": 2012,
      "enom": 2013,
      "ideration": 2014,
      "▁remn": 2015,
      "▁durs": 2016,
      "▁organisations": 2017,
      "▁affiliate": 2018,
      "▁functionality": 2019,
      "▁201": 2020,
      "children": 2021,
      "▁enfor": 2022,
      "▁avocado": 2023,
      "▁wells": 2024,
      "▁shipped": 2025,
      "▁drugstore": 2026,
      "rupt": 2027,
      "▁paid": 2028,
      "▁stakes": 2029,
      "▁variability": 2030,
      "▁clerks": 2031,
      "▁dream": 2032,
      "▁ect": 2033,
      "▁van": 2034,
      "encing": 2035,
      "▁x3-9890": 2036,
      "▁cartoon": 2037,
      "▁uhh": 2038,
      "itude": 2039,
      "▁''": 2040,
      "▁appointees": 2041,
      "▁printing": 2042,
      "▁accounting": 2043,
      "▁opening": 2044,
      "▁indicators": 2045,
      "~": 2046,
      "▁teleph": 2047,
      "▁clarify": 2048,
      "▁build": 2049,
      "▁even": 2050,
      "▁table": 2051,
      "▁sanctions": 2052,
      "▁buffet": 2053,
      "▁grid": 2054,
      "▁cincinn": 2055,
      "▁refuse": 2056,
      "▁creates": 2057,
      "uscri": 2058,
      "▁pittsburgh": 2059,
      "▁licensed": 2060,
      "▁losing": 2061,
      "cel": 2062,
      "▁exacerb": 2063,
      "▁dallas": 2064,
      "inent": 2065,
      "▁everyone": 2066,
      "▁incubator": 2067,
      "▁allegations": 2068,
      "▁chor": 2069,
      "inds": 2070,
      "ica": 2071,
      "oney": 2072,
      "▁release": 2073,
      "▁mushroom": 2074,
      "▁trade": 2075,
      "▁sql": 2076,
      "▁reporter": 2077,
      "▁par": 2078,
      "vious": 2079,
      "▁labyr": 2080,
      "▁meals": 2081,
      "▁phone": 2082,
      "▁reind": 2083,
      "▁stalls": 2084,
      "▁cond": 2085,
      "▁lope": 2086,
      "▁introduces": 2087,
      "▁backpack": 2088,
      "▁fence": 2089,
      "▁eat-e": 2090,
      "jectory": 2091,
      "▁analyses": 2092,
      "▁education": 2093,
      "▁withdrawing": 2094,
      "▁fam": 2095,
      "▁dim": 2096,
      "aw": 2097,
      "▁traced": 2098,
      "▁nonstop": 2099,
      "▁andaman": 2100,
      "▁organisation": 2101,
      "▁female": 2102,
      "▁five": 2103,
      "▁intolerance": 2104,
      "▁shows": 2105,
      "▁quan": 2106,
      "▁contrib": 2107,
      "ime": 2108,
      "▁basic": 2109,
      "▁adjo": 2110,
      "iddit": 2111,
      "▁preparedness": 2112,
      "▁reflects": 2113,
      "▁slow": 2114,
      "▁poverty": 2115,
      "▁facts": 2116,
      "enda": 2117,
      "▁race": 2118,
      "▁musicians": 2119,
      "ouses": 2120,
      "▁assumption": 2121,
      "ophobia": 2122,
      "▁barbeque": 2123,
      "▁silic": 2124,
      "▁thousands": 2125,
      "▁instructor": 2126,
      "reation": 2127,
      "▁demonstration": 2128,
      "▁states": 2129,
      "▁direct": 2130,
      "izers": 2131,
      "▁weekdays": 2132,
      "▁thanks": 2133,
      "▁mar": 2134,
      "▁m": 2135,
      "▁emph": 2136,
      ".e": 2137,
      "▁char": 2138,
      "▁stall": 2139,
      "▁treatment": 2140,
      "bby": 2141,
      "rate": 2142,
      "▁snow": 2143,
      "▁folio": 2144,
      "▁twe": 2145,
      "▁fitting": 2146,
      "▁without": 2147,
      "tieth": 2148,
      "eri": 2149,
      "▁sticker": 2150,
      "▁border": 2151,
      "▁70's": 2152,
      "▁involved": 2153,
      "▁poem": 2154,
      "▁modernity": 2155,
      "▁cash": 2156,
      "▁won": 2157,
      "▁seed": 2158,
      "▁trail": 2159,
      "▁cub": 2160,
      "▁coincidence": 2161,
      "▁unemployment": 2162,
      "roidered": 2163,
      "onally": 2164,
      "▁with": 2165,
      "▁d'": 2166,
      "▁stores": 2167,
      "esis": 2168,
      "agie": 2169,
      "lit": 2170,
      "itivity": 2171,
      "▁row": 2172,
      "own": 2173,
      "½": 2174,
      "▁bur": 2175,
      ".co": 2176,
      "▁eyes": 2177,
      "gel": 2178,
      "uty": 2179,
      "ged": 2180,
      "▁testim": 2181,
      "point": 2182,
      "▁emperor": 2183,
      "▁tested": 2184,
      "▁picnic": 2185,
      "▁adding": 2186,
      "irus": 2187,
      "▁discrepancy": 2188,
      "▁resc": 2189,
      "▁aggregate": 2190,
      "tered": 2191,
      "▁mouth": 2192,
      "▁contemp": 2193,
      "ird": 2194,
      "▁administr": 2195,
      "▁orchestra": 2196,
      "day": 2197,
      "ains": 2198,
      "▁maniac": 2199,
      "out": 2200,
      "▁discussed": 2201,
      "▁fronti": 2202,
      "▁ltte": 2203,
      "▁tricks": 2204,
      "▁records": 2205,
      "spec": 2206,
      "▁oo": 2207,
      "▁giraffe": 2208,
      "▁container": 2209,
      "ives": 2210,
      "▁trips": 2211,
      "hiki": 2212,
      "▁acknowledge": 2213,
      "▁recieve": 2214,
      "▁cinema": 2215,
      "▁uk": 2216,
      "ration": 2217,
      "▁–": 2218,
      "▁newsgroups": 2219,
      "▁criticized": 2220,
      "▁depth": 2221,
      "▁appro": 2222,
      "▁milk": 2223,
      "▁territ": 2224,
      "▁keyboard": 2225,
      "▁enter": 2226,
      "▁gathered": 2227,
      "inema": 2228,
      "idge": 2229,
      "ously": 2230,
      "aging": 2231,
      "▁snip": 2232,
      "▁princ": 2233,
      "ticoat": 2234,
      "▁activity": 2235,
      "▁fe": 2236,
      "▁zipper": 2237,
      "▁ax": 2238,
      "haki": 2239,
      "=": 2240,
      "ber": 2241,
      "erry": 2242,
      "inary": 2243,
      "▁celebrity": 2244,
      "▁fading": 2245,
      "▁objec": 2246,
      "▁sidew": 2247,
      "jections": 2248,
      "▁clou": 2249,
      "▁deleted": 2250,
      "▁occupying": 2251,
      "▁stationery": 2252,
      "amps": 2253,
      "▁array": 2254,
      "▁slu": 2255,
      "singly": 2256,
      "sters": 2257,
      "oned": 2258,
      "son": 2259,
      "▁insp": 2260,
      "force": 2261,
      "▁wrapping": 2262,
      "app": 2263,
      "▁empanadas": 2264,
      "▁ques": 2265,
      "▁copied": 2266,
      "sec": 2267,
      "▁background": 2268,
      "▁halls": 2269,
      "▁perhaps": 2270,
      "▁sweater": 2271,
      "▁pu": 2272,
      "▁pins": 2273,
      "▁england": 2274,
      "▁hugging": 2275,
      "▁supporting": 2276,
      "▁4": 2277,
      "yon": 2278,
      "▁snatched": 2279,
      "▁greeting": 2280,
      "▁q": 2281,
      "▁pret": 2282,
      "nings": 2283,
      "eeper": 2284,
      "▁.........": 2285,
      "▁fant": 2286,
      "▁strong": 2287,
      "▁greater": 2288,
      "▁operates": 2289,
      "46": 2290,
      "atos": 2291,
      "▁humor": 2292,
      "▁requesting": 2293,
      "▁jumping": 2294,
      "▁mind": 2295,
      "▁gaz": 2296,
      "▁desir": 2297,
      "▁sor": 2298,
      "▁tro": 2299,
      "▁scrambled": 2300,
      "▁ir": 2301,
      "▁&amp;": 2302,
      "▁seeds": 2303,
      "▁classified": 2304,
      "▁obsession": 2305,
      "ool": 2306,
      "▁palm": 2307,
      "oking": 2308,
      "▁customers": 2309,
      "▁ecodes": 2310,
      "!": 2311,
      "'et": 2312,
      "▁regarded": 2313,
      "▁participated": 2314,
      "mering": 2315,
      "---": 2316,
      "▁microns": 2317,
      "our": 2318,
      "▁witnesses": 2319,
      "▁heel": 2320,
      "ouch": 2321,
      "▁began": 2322,
      "▁reproduction": 2323,
      "▁calculating": 2324,
      "▁showed": 2325,
      "▁bottles": 2326,
      "ban": 2327,
      "-y": 2328,
      "/200": 2329,
      "▁engineer": 2330,
      "▁complain": 2331,
      "▁mired": 2332,
      "anes": 2333,
      "▁zip": 2334,
      "▁boarding": 2335,
      "▁whisper": 2336,
      "▁enabled": 2337,
      "▁rays": 2338,
      "rows": 2339,
      "▁helmet": 2340,
      "▁40": 2341,
      "▁syntax": 2342,
      "▁emotions": 2343,
      "▁trousers": 2344,
      "▁apartments": 2345,
      "▁louis": 2346,
      "▁entails": 2347,
      "ula": 2348,
      "▁audiobooks": 2349,
      "▁sum": 2350,
      "▁conde": 2351,
      "▁kinds": 2352,
      "▁army": 2353,
      "▁steve": 2354,
      "enumber": 2355,
      "▁responded": 2356,
      "▁opted": 2357,
      "▁'ve": 2358,
      "▁webs": 2359,
      "ings": 2360,
      "▁starts": 2361,
      "▁diarr": 2362,
      "▁acc": 2363,
      "▁professors": 2364,
      "▁excuses": 2365,
      "▁governments": 2366,
      "▁enjoyed": 2367,
      "▁bosom": 2368,
      "▁mostly": 2369,
      "▁gnome": 2370,
      "▁conscience": 2371,
      "▁kim": 2372,
      "▁caterpillars": 2373,
      "▁supermar": 2374,
      "▁difficulty": 2375,
      "itially": 2376,
      "▁crawler": 2377,
      "▁servers": 2378,
      "▁unre": 2379,
      "▁tugging": 2380,
      "inars": 2381,
      "▁pester": 2382,
      "▁experien": 2383,
      "▁autob": 2384,
      "ppled": 2385,
      "eel": 2386,
      "▁accomplishment": 2387,
      "▁fashion": 2388,
      "▁matt": 2389,
      "▁principles": 2390,
      "▁use": 2391,
      "ation": 2392,
      "▁depart": 2393,
      "▁purse": 2394,
      "▁spouting": 2395,
      "▁remove": 2396,
      "▁bases": 2397,
      "▁products": 2398,
      "▁adhering": 2399,
      "enti": 2400,
      "▁meets": 2401,
      "▁dash": 2402,
      "ati": 2403,
      "rehension": 2404,
      "▁prop": 2405,
      "▁sustainability": 2406,
      "ablish": 2407,
      "▁finalize": 2408,
      "ry": 2409,
      "▁lol": 2410,
      "ought": 2411,
      "-h": 2412,
      "▁savi": 2413,
      "▁contractor": 2414,
      "▁clarification": 2415,
      "▁crocod": 2416,
      "umn": 2417,
      "▁emer": 2418,
      "ologists": 2419,
      "▁upgrade": 2420,
      "▁phoned": 2421,
      "i-": 2422,
      "▁shar": 2423,
      "▁fullness": 2424,
      "re": 2425,
      "▁cancelled": 2426,
      "ioned": 2427,
      "▁gigg": 2428,
      "▁denied": 2429,
      "▁prototyp": 2430,
      "▁be": 2431,
      "▁themselves": 2432,
      "▁eb": 2433,
      "▁squared": 2434,
      "▁loo": 2435,
      "▁14": 2436,
      "▁sex": 2437,
      "▁truth": 2438,
      "▁merchant": 2439,
      "bands": 2440,
      "▁credentials": 2441,
      "▁nursery": 2442,
      "enoc": 2443,
      "▁sweat": 2444,
      "▁replacing": 2445,
      "▁wide": 2446,
      "▁trust": 2447,
      "▁outcom": 2448,
      "▁doz": 2449,
      "issing": 2450,
      "▁ids": 2451,
      "▁reconc": 2452,
      "▁holders": 2453,
      "▁sounds": 2454,
      "inn": 2455,
      "ingu": 2456,
      "▁customer": 2457,
      "▁authors": 2458,
      "▁levels": 2459,
      "▁heightened": 2460,
      "▁sc": 2461,
      "actor": 2462,
      "▁society": 2463,
      "▁airlines": 2464,
      "▁cin": 2465,
      "▁shouted": 2466,
      "▁secession": 2467,
      "▁tele": 2468,
      "hment": 2469,
      "----------------": 2470,
      "▁telephones": 2471,
      "▁foss": 2472,
      "▁america": 2473,
      "ael": 2474,
      "▁liabilities": 2475,
      "▁underground": 2476,
      "▁containing": 2477,
      "▁apprentice": 2478,
      "rier": 2479,
      "▁shed": 2480,
      "▁drow": 2481,
      "▁ger": 2482,
      "zing": 2483,
      "▁mayonnaise": 2484,
      "▁oneself": 2485,
      "ish": 2486,
      "▁anatomy": 2487,
      "▁ton": 2488,
      "▁tv": 2489,
      "▁rises": 2490,
      "iat": 2491,
      "▁weight": 2492,
      "iciary": 2493,
      "owned": 2494,
      "itation": 2495,
      "▁christi": 2496,
      "▁alt.animals.d": 2497,
      "▁blonde": 2498,
      "▁pilgrims": 2499,
      "▁bo": 2500,
      "▁align": 2501,
      "▁scenarios": 2502,
      "▁preci": 2503,
      "▁tooth": 2504,
      "▁chang": 2505,
      "▁*": 2506,
      "igr": 2507,
      "▁martyrs": 2508,
      "▁flooded": 2509,
      "err": 2510,
      "▁looks": 2511,
      "▁expire": 2512,
      "▁wildlife": 2513,
      "▁apron": 2514,
      "▁homosex": 2515,
      "istic": 2516,
      "kins": 2517,
      "▁clues": 2518,
      "onal": 2519,
      "▁clock": 2520,
      "celer": 2521,
      "erer": 2522,
      "▁aimed": 2523,
      "▁cuck": 2524,
      "omer": 2525,
      "cil": 2526,
      "▁courtesy": 2527,
      "▁according": 2528,
      "▁rebalancing": 2529,
      "]": 2530,
      "▁entrance": 2531,
      "istribution": 2532,
      "▁confidante": 2533,
      "▁moustache": 2534,
      "▁island": 2535,
      "▁prepare": 2536,
      "▁bank": 2537,
      "▁success": 2538,
      "▁voices": 2539,
      "▁freedoms": 2540,
      "lying": 2541,
      "▁jihad": 2542,
      "▁mist": 2543,
      "▁div": 2544,
      "▁exist": 2545,
      "atis": 2546,
      "▁wording": 2547,
      "▁eliminated": 2548,
      "▁detail": 2549,
      "▁anth": 2550,
      "unity": 2551,
      "▁intercon": 2552,
      "▁twa": 2553,
      "gust": 2554,
      "▁floated": 2555,
      "▁occas": 2556,
      "eos": 2557,
      "ightening": 2558,
      "▁guaranteed": 2559,
      "▁dish": 2560,
      "▁destiny": 2561,
      "ada": 2562,
      "osite": 2563,
      "▁unit": 2564,
      "▁comedy": 2565,
      "▁hanged": 2566,
      "▁feelings": 2567,
      "▁coming": 2568,
      "▁printer": 2569,
      "▁therap": 2570,
      "▁highlighting": 2571,
      "inated": 2572,
      "▁mm": 2573,
      "▁resist": 2574,
      "olds": 2575,
      "▁clin": 2576,
      "▁guards": 2577,
      "▁referral": 2578,
      "▁winter": 2579,
      "▁download": 2580,
      "▁travel": 2581,
      "▁penet": 2582,
      "▁thank": 2583,
      "▁menti": 2584,
      "▁punishment": 2585,
      "either": 2586,
      "▁arrange": 2587,
      "▁producers": 2588,
      "▁crime": 2589,
      "oices": 2590,
      "▁mold": 2591,
      "gation": 2592,
      "▁workmanship": 2593,
      "▁outlets": 2594,
      "▁court": 2595,
      "▁disparities": 2596,
      "▁ar": 2597,
      "v": 2598,
      "▁fourth": 2599,
      "warded": 2600,
      "▁punchline": 2601,
      "▁barn": 2602,
      "ester": 2603,
      "▁scient": 2604,
      "▁wailing": 2605,
      "▁spre": 2606,
      "▁courts": 2607,
      "▁wishing": 2608,
      "▁cooker": 2609,
      "▁narrowed": 2610,
      "▁duration": 2611,
      "▁dropped": 2612,
      "▁discus": 2613,
      "▁away": 2614,
      "▁hippop": 2615,
      "-1.xls": 2616,
      "▁evap": 2617,
      "▁featuring": 2618,
      "ifications": 2619,
      "▁spacetime": 2620,
      "ror": 2621,
      "▁hu": 2622,
      "▁missile": 2623,
      "▁reception": 2624,
      "▁mish": 2625,
      "▁opposed": 2626,
      "▁adam": 2627,
      "mmed": 2628,
      "▁dram": 2629,
      "▁observation": 2630,
      "eralize": 2631,
      "-3": 2632,
      "▁lee": 2633,
      "▁jihadis": 2634,
      "▁cooperate": 2635,
      "ely": 2636,
      "▁motiv": 2637,
      "▁smiled": 2638,
      "fting": 2639,
      "inted": 2640,
      "res": 2641,
      "▁learners": 2642,
      "▁west": 2643,
      "▁ambulances": 2644,
      "elling": 2645,
      "▁’ll": 2646,
      "▁descriptions": 2647,
      "▁failures": 2648,
      "▁waves": 2649,
      "▁preferences": 2650,
      "▁neolog": 2651,
      "yp": 2652,
      "▁permitted": 2653,
      "▁deliver": 2654,
      "ix": 2655,
      "elag": 2656,
      "▁spe": 2657,
      "ortly": 2658,
      "erals": 2659,
      "cling": 2660,
      "ited": 2661,
      "▁ear": 2662,
      "▁cos": 2663,
      "▁invented": 2664,
      "ean": 2665,
      "egration": 2666,
      "▁tds": 2667,
      "▁florida": 2668,
      "▁bum": 2669,
      "loth": 2670,
      "▁assist": 2671,
      "lection": 2672,
      "▁resembled": 2673,
      "▁motion": 2674,
      "▁consc": 2675,
      "▁shade": 2676,
      "▁temptation": 2677,
      "▁rais": 2678,
      "▁pilgrimage": 2679,
      "▁travels": 2680,
      "▁neocons": 2681,
      "▁reviews": 2682,
      "▁communications": 2683,
      "▁dissolved": 2684,
      "▁ackn": 2685,
      "goround": 2686,
      "acket": 2687,
      "▁attach": 2688,
      "oured": 2689,
      "▁sources": 2690,
      "▁remain": 2691,
      "umps": 2692,
      "▁wish": 2693,
      "▁nail": 2694,
      "0's": 2695,
      "▁each": 2696,
      "▁cognition": 2697,
      "▁veranda": 2698,
      "▁subscribed": 2699,
      "anx": 2700,
      "▁cable": 2701,
      "▁d2": 2702,
      "▁...............": 2703,
      "leenex": 2704,
      "▁buys": 2705,
      "espan": 2706,
      "▁drive": 2707,
      "▁revision": 2708,
      "▁’’": 2709,
      "▁poin": 2710,
      "▁20": 2711,
      "▁fung": 2712,
      "tives": 2713,
      "etti": 2714,
      "▁spend": 2715,
      "▁kangaroo": 2716,
      "ona": 2717,
      "▁headmaster": 2718,
      "quarters": 2719,
      "▁applies": 2720,
      "pan": 2721,
      "eds": 2722,
      "▁butt": 2723,
      "▁billion": 2724,
      "cp": 2725,
      "▁taliban": 2726,
      "▁lasts": 2727,
      "▁stre": 2728,
      "▁referencing": 2729,
      "▁enclosure": 2730,
      "▁ml": 2731,
      "ler": 2732,
      "▁thinking": 2733,
      "▁compli": 2734,
      "utions": 2735,
      "▁arrivals": 2736,
      "▁video": 2737,
      "▁htt": 2738,
      "▁fist": 2739,
      "▁retirement": 2740,
      "▁mould": 2741,
      "nt": 2742,
      "▁ostrich": 2743,
      "lly": 2744,
      "etown": 2745,
      "▁formation": 2746,
      "▁hoo": 2747,
      "▁2010": 2748,
      "▁descended": 2749,
      "▁recoll": 2750,
      "▁midd": 2751,
      "▁curves": 2752,
      "▁stars": 2753,
      "mal": 2754,
      "▁compl": 2755,
      "gins": 2756,
      "▁federal": 2757,
      "azed": 2758,
      "onation": 2759,
      "▁header": 2760,
      "▁behin": 2761,
      "▁ny": 2762,
      "39": 2763,
      "gency": 2764,
      "▁civil": 2765,
      "▁hours": 2766,
      "use": 2767,
      "▁oversight": 2768,
      "▁opinions": 2769,
      "▁librarians": 2770,
      "▁thunder": 2771,
      "▁factors": 2772,
      "▁jo": 2773,
      "aming": 2774,
      "ews": 2775,
      "▁admit": 2776,
      "essions": 2777,
      "▁circles": 2778,
      "▁folk": 2779,
      "▁taxpay": 2780,
      "▁selling": 2781,
      "▁----": 2782,
      "nish": 2783,
      "▁p.": 2784,
      "▁current": 2785,
      "▁specify": 2786,
      "▁pillars": 2787,
      "▁vel": 2788,
      "leon": 2789,
      "▁quad": 2790,
      "▁starvation": 2791,
      "▁draws": 2792,
      "▁blueberries": 2793,
      "▁s’": 2794,
      "▁shakespeare": 2795,
      "▁seems": 2796,
      "▁modes": 2797,
      "▁indication": 2798,
      "▁bowl": 2799,
      "▁flying": 2800,
      "undity": 2801,
      "ɛ": 2802,
      "▁helping": 2803,
      "▁ro": 2804,
      "▁sue": 2805,
      "▁saucepan": 2806,
      "▁correlation": 2807,
      "▁dictionary": 2808,
      "▁cincinnati": 2809,
      "▁incentive": 2810,
      "tition": 2811,
      "▁converting": 2812,
      "▁preorder": 2813,
      "▁civ": 2814,
      "▁attraction": 2815,
      "wan": 2816,
      "45": 2817,
      "▁tournament": 2818,
      "naires": 2819,
      "▁vince": 2820,
      "▁laughed": 2821,
      "icks": 2822,
      "▁dwell": 2823,
      "▁burn": 2824,
      "eteria": 2825,
      "eda": 2826,
      "waves": 2827,
      "▁asses": 2828,
      "▁decide": 2829,
      "ship": 2830,
      "ias": 2831,
      "▁modified": 2832,
      "▁renting": 2833,
      "▁jim": 2834,
      "▁draw": 2835,
      "://": 2836,
      "▁explore": 2837,
      "▁shore": 2838,
      "▁mut": 2839,
      "▁drowned": 2840,
      "▁compromise": 2841,
      "rich": 2842,
      "[": 2843,
      "▁uncover": 2844,
      "ributing": 2845,
      "▁ground": 2846,
      "▁nomination": 2847,
      "liday": 2848,
      "▁anti": 2849,
      "▁curric": 2850,
      "▁received": 2851,
      "lines": 2852,
      "▁curb": 2853,
      "hirt": 2854,
      "cr": 2855,
      "▁korea": 2856,
      "▁athens": 2857,
      "▁poll": 2858,
      "▁lifetime": 2859,
      ".n": 2860,
      "▁meats": 2861,
      "▁motives": 2862,
      "▁publicity": 2863,
      "▁excel": 2864,
      "▁since": 2865,
      "▁banners": 2866,
      "▁masterpi": 2867,
      "▁wren": 2868,
      "▁childcare": 2869,
      "▁biked": 2870,
      "▁controversy": 2871,
      "▁intersection": 2872,
      "▁reluctance": 2873,
      "▁issuing": 2874,
      "▁tuna": 2875,
      "▁washing": 2876,
      "▁moth": 2877,
      "▁troub": 2878,
      "▁noting": 2879,
      "▁nt": 2880,
      "▁michael": 2881,
      "uc": 2882,
      "▁crises": 2883,
      "▁governance": 2884,
      "▁affliction": 2885,
      "▁mag": 2886,
      "▁september": 2887,
      "▁ambassad": 2888,
      "operation": 2889,
      "▁idiot": 2890,
      "asts": 2891,
      "▁phenomen": 2892,
      "lik": 2893,
      "▁worksh": 2894,
      "▁constitu": 2895,
      "▁sadness": 2896,
      "owners": 2897,
      "▁inc": 2898,
      "nity": 2899,
      "▁łodz": 2900,
      "▁whisp": 2901,
      "▁stick": 2902,
      "▁wishes": 2903,
      "▁********": 2904,
      "▁prem": 2905,
      "▁vul": 2906,
      "▁tofu": 2907,
      "▁enough": 2908,
      "▁titled": 2909,
      "▁nav": 2910,
      "▁kidding": 2911,
      "view": 2912,
      "▁41": 2913,
      "orated": 2914,
      "▁beard": 2915,
      "▁picket": 2916,
      "▁area": 2917,
      "▁honour": 2918,
      "▁doughnuts": 2919,
      "▁`s": 2920,
      "▁judiciary": 2921,
      "▁mil": 2922,
      "▁rescue": 2923,
      "▁gives": 2924,
      "▁tidbit": 2925,
      "▁agg": 2926,
      "cret": 2927,
      "▁abbre": 2928,
      "▁adorned": 2929,
      "▁alt.animals.": 2930,
      "▁shown": 2931,
      "ter": 2932,
      "gr": 2933,
      "▁clubs": 2934,
      "▁settled": 2935,
      "▁productivity": 2936,
      "alities": 2937,
      "▁banana": 2938,
      "▁lod": 2939,
      "▁celebrating": 2940,
      "▁poss": 2941,
      "▁opinion": 2942,
      "house": 2943,
      "▁pilots": 2944,
      "▁cited": 2945,
      "ower": 2946,
      "▁linger": 2947,
      "dation": 2948,
      "▁shorts": 2949,
      "▁falling": 2950,
      "ves": 2951,
      "▁networks": 2952,
      "▁wig": 2953,
      "▁ter": 2954,
      "▁competence": 2955,
      "▁express": 2956,
      "▁provision": 2957,
      "▁awww": 2958,
      "▁plat": 2959,
      "▁matching": 2960,
      "▁assigned": 2961,
      "iew": 2962,
      "▁stuck": 2963,
      "▁transmittal": 2964,
      "▁interfaces": 2965,
      "▁technology": 2966,
      "ital": 2967,
      "▁kind": 2968,
      "▁maple": 2969,
      "▁clar": 2970,
      "▁spice": 2971,
      "▁grandd": 2972,
      "agon": 2973,
      "▁hey": 2974,
      "rep": 2975,
      "lished": 2976,
      "▁ownership": 2977,
      "▁foisted": 2978,
      "▁notepad": 2979,
      "▁sheep": 2980,
      "▁democracy": 2981,
      "▁crab": 2982,
      "▁secret": 2983,
      "▁sits": 2984,
      "▁mimic": 2985,
      "mas": 2986,
      "▁covering": 2987,
      "▁frogs": 2988,
      "▁transmit": 2989,
      "▁called": 2990,
      "▁learned": 2991,
      "nched": 2992,
      "▁nume": 2993,
      "30s": 2994,
      "atter": 2995,
      "▁satisf": 2996,
      "▁irritation": 2997,
      "▁removal": 2998,
      "▁liquid": 2999,
      "ceed": 3000,
      "▁sacrifice": 3001,
      "enail": 3002,
      "▁angels": 3003,
      "▁intention": 3004,
      "▁mins": 3005,
      "▁ceremony": 3006,
      "▁2015": 3007,
      "ecks": 3008,
      "pensive": 3009,
      "▁purposes": 3010,
      "▁defendants": 3011,
      "avery": 3012,
      "▁part": 3013,
      "erce": 3014,
      "▁important": 3015,
      "▁weeks": 3016,
      "ine": 3017,
      "▁million": 3018,
      "▁ducks": 3019,
      "▁evacuated": 3020,
      "▁alligator": 3021,
      "▁tresp": 3022,
      "▁profit": 3023,
      "▁experim": 3024,
      "▁charlotte": 3025,
      "▁bleachers": 3026,
      "▁coordinated": 3027,
      "▁attachments": 3028,
      "▁requi": 3029,
      "▁reflecting": 3030,
      "▁trauma": 3031,
      "▁employment": 3032,
      "▁correl": 3033,
      "▁transparency": 3034,
      "▁arriving": 3035,
      "▁destination": 3036,
      "▁hoped": 3037,
      "▁mou": 3038,
      "▁special": 3039,
      "▁soci": 3040,
      "▁#": 3041,
      "[CLS]": 3042,
      "ious": 3043,
      "thers": 3044,
      "▁campaign": 3045,
      "▁dinners": 3046,
      "▁regimes": 3047,
      "▁horsesho": 3048,
      "▁macaroni": 3049,
      "++": 3050,
      "thing": 3051,
      "▁transf": 3052,
      "▁boat": 3053,
      "▁treated": 3054,
      "▁updates": 3055,
      "▁detention": 3056,
      "▁glow": 3057,
      "▁applied": 3058,
      "▁strateg": 3059,
      "op": 3060,
      "eriff": 3061,
      "▁remnants": 3062,
      "mos": 3063,
      "▁professionals": 3064,
      "lihood": 3065,
      "▁inves": 3066,
      "▁aft": 3067,
      "▁dies": 3068,
      "▁worlds": 3069,
      "▁reads": 3070,
      "▁thrive": 3071,
      "▁trajectory": 3072,
      "▁during": 3073,
      "▁stories": 3074,
      "▁furnished": 3075,
      "▁pricing": 3076,
      "ata": 3077,
      "▁method": 3078,
      "▁hack": 3079,
      "▁prospects": 3080,
      "▁exce": 3081,
      "▁lesson": 3082,
      "▁mic": 3083,
      "▁sail": 3084,
      "▁vern": 3085,
      "geration": 3086,
      "bur": 3087,
      "▁tou": 3088,
      "arity": 3089,
      "▁fighting": 3090,
      "▁roles": 3091,
      "uel": 3092,
      "▁line": 3093,
      "▁?!?": 3094,
      "▁subj": 3095,
      "▁substant": 3096,
      "▁p.m.": 3097,
      "▁hasidim": 3098,
      "te": 3099,
      "▁dilem": 3100,
      "▁flee": 3101,
      "▁past": 3102,
      "ocate": 3103,
      "▁seventh": 3104,
      "▁hones": 3105,
      "issance": 3106,
      "▁relations": 3107,
      "▁arguments": 3108,
      "▁chiro": 3109,
      "est": 3110,
      "ocrat": 3111,
      "▁chores": 3112,
      "▁palest": 3113,
      "nages": 3114,
      "▁stuttering": 3115,
      "▁wink": 3116,
      "orti": 3117,
      "▁glows": 3118,
      "▁chalk": 3119,
      "▁meant": 3120,
      "fir": 3121,
      "▁stay": 3122,
      "▁sounded": 3123,
      "rowed": 3124,
      "▁sailor": 3125,
      "▁grandpar": 3126,
      "illas": 3127,
      "▁manti": 3128,
      "▁french": 3129,
      "ogn": 3130,
      "▁volunte": 3131,
      "j": 3132,
      "irts": 3133,
      "hes": 3134,
      "▁microphone": 3135,
      "acking": 3136,
      "▁continents": 3137,
      ".pdf": 3138,
      "▁yiel": 3139,
      "▁warhol": 3140,
      "▁power": 3141,
      "▁************************************************": 3142,
      "▁messages": 3143,
      "▁incident": 3144,
      "▁octopus": 3145,
      "▁flav": 3146,
      "itting": 3147,
      "▁ug": 3148,
      "ora": 3149,
      "▁threat": 3150,
      "peare": 3151,
      "bish": 3152,
      "▁roms": 3153,
      "▁aught": 3154,
      "uded": 3155,
      "▁orbit": 3156,
      "▁submit": 3157,
      "▁congratulate": 3158,
      "▁pot": 3159,
      "▁sailed": 3160,
      "ky": 3161,
      "±": 3162,
      "▁mesh": 3163,
      "▁occurred": 3164,
      "▁tales": 3165,
      "truck": 3166,
      "▁overcome": 3167,
      "▁ops": 3168,
      "oder": 3169,
      "ma": 3170,
      "▁superv": 3171,
      "ucky": 3172,
      "ices": 3173,
      "▁coastline": 3174,
      "writ": 3175,
      "▁amazing": 3176,
      "▁investigating": 3177,
      "▁displaced": 3178,
      "elines": 3179,
      "▁dav": 3180,
      "▁scaven": 3181,
      "▁etiqu": 3182,
      "▁estimated": 3183,
      "dled": 3184,
      "▁assisting": 3185,
      "▁scratching": 3186,
      "▁reconstr": 3187,
      "▁protein": 3188,
      "▁quotes": 3189,
      "▁dwww": 3190,
      "▁hook": 3191,
      "▁youth": 3192,
      "▁sexual": 3193,
      "▁coordin": 3194,
      "▁fisheries": 3195,
      "▁canc": 3196,
      "▁saturday": 3197,
      "▁bleeding": 3198,
      "▁characteristic": 3199,
      "▁preserv": 3200,
      "▁tucked": 3201,
      "▁arrows": 3202,
      "▁coupons": 3203,
      "▁generation": 3204,
      "▁viewing": 3205,
      "ress": 3206,
      "▁football": 3207,
      "▁decre": 3208,
      "▁boiler": 3209,
      "▁glance": 3210,
      "▁nickname": 3211,
      "inism": 3212,
      "▁accustomed": 3213,
      "igning": 3214,
      "▁fed": 3215,
      "▁wou": 3216,
      "▁kar": 3217,
      "▁swit": 3218,
      "▁harry": 3219,
      "▁sponsored": 3220,
      "▁ration": 3221,
      "▁aversion": 3222,
      "▁weap": 3223,
      "owed": 3224,
      "ole": 3225,
      "ip": 3226,
      "▁sat": 3227,
      "▁200": 3228,
      "▁pyr": 3229,
      "▁blood": 3230,
      "▁patch": 3231,
      "▁defend": 3232,
      "▁les": 3233,
      "▁pursuing": 3234,
      "enfranch": 3235,
      "▁shive": 3236,
      "▁manufacturer": 3237,
      "▁celebr": 3238,
      "▁hr": 3239,
      "▁flooring": 3240,
      "▁senti": 3241,
      "▁universe": 3242,
      "▁hometown": 3243,
      "br": 3244,
      "ground": 3245,
      "iciency": 3246,
      "▁net": 3247,
      "▁facilitating": 3248,
      "▁exhaustion": 3249,
      "▁domain": 3250,
      "ulated": 3251,
      "77": 3252,
      "▁grandm": 3253,
      "▁tomato": 3254,
      "▁horn": 3255,
      "utors": 3256,
      "▁gamb": 3257,
      "▁sid": 3258,
      "▁beg": 3259,
      "▁strength": 3260,
      "&": 3261,
      "▁somewhere": 3262,
      "▁ye": 3263,
      "▁cpa": 3264,
      "▁cerem": 3265,
      "▁emper": 3266,
      "▁complained": 3267,
      "▁ecosystem": 3268,
      "inks": 3269,
      "▁flat": 3270,
      "rican": 3271,
      "▁nap": 3272,
      "▁bedroom": 3273,
      "▁stat": 3274,
      "agne": 3275,
      "inned": 3276,
      "-year": 3277,
      "▁thinks": 3278,
      "ativ": 3279,
      "▁cont": 3280,
      "▁experts": 3281,
      "▁newspapers": 3282,
      "▁death": 3283,
      "enting": 3284,
      "▁reduc": 3285,
      "▁striking": 3286,
      "▁thyroid": 3287,
      ".xls": 3288,
      "▁frames": 3289,
      "hibited": 3290,
      "▁mermaid": 3291,
      "▁diff": 3292,
      "▁upstairs": 3293,
      "ym": 3294,
      "hi": 3295,
      "▁commons": 3296,
      "▁dock": 3297,
      "ports": 3298,
      "mp": 3299,
      "▁wings": 3300,
      "▁gin": 3301,
      "▁cohes": 3302,
      "vity": 3303,
      "ull": 3304,
      "▁stung": 3305,
      "▁museums": 3306,
      "▁presence": 3307,
      "▁circulate": 3308,
      "▁fles": 3309,
      "▁porch": 3310,
      "▁infl": 3311,
      "function": 3312,
      "▁realised": 3313,
      "▁proxim": 3314,
      "▁conforms": 3315,
      "ore": 3316,
      "▁claim": 3317,
      "▁syrup": 3318,
      "▁pregn": 3319,
      "▁ign": 3320,
      "▁initial": 3321,
      "▁soared": 3322,
      "▁convention": 3323,
      "▁urs": 3324,
      "▁duck": 3325,
      "▁regards": 3326,
      "▁stock": 3327,
      "▁para": 3328,
      "olding": 3329,
      "▁cat-flap": 3330,
      "▁memphis": 3331,
      "chant": 3332,
      "▁difference": 3333,
      "▁erec": 3334,
      "▁flash": 3335,
      "▁mankind": 3336,
      "▁congratulations": 3337,
      "tic": 3338,
      "▁shaped": 3339,
      "▁bomb": 3340,
      "▁inquiry": 3341,
      "▁combining": 3342,
      "▁childbir": 3343,
      "▁complement": 3344,
      "▁negotiated": 3345,
      "eman": 3346,
      "▁spikes": 3347,
      "▁sudd": 3348,
      "kay": 3349,
      "igation": 3350,
      "▁conspir": 3351,
      "▁equation": 3352,
      "▁trans": 3353,
      "▁asset": 3354,
      "ff": 3355,
      "▁faculty": 3356,
      "▁liber": 3357,
      "▁empty": 3358,
      "▁depends": 3359,
      "▁inclu": 3360,
      "▁harbor": 3361,
      "▁economy": 3362,
      "ball": 3363,
      "otte": 3364,
      "▁beating": 3365,
      "▁schedul": 3366,
      "▁settlements": 3367,
      "iversary": 3368,
      "▁pine": 3369,
      "▁admissions": 3370,
      "▁peter": 3371,
      "▁strengthening": 3372,
      "▁bagels": 3373,
      "▁160": 3374,
      "▁documented": 3375,
      "▁peanuts": 3376,
      "▁breast": 3377,
      "mble": 3378,
      "▁encompassing": 3379,
      "▁olives": 3380,
      "vet": 3381,
      "▁cru": 3382,
      "▁awareness": 3383,
      "▁°": 3384,
      "▁nerves": 3385,
      "▁oper": 3386,
      "sed": 3387,
      "▁reaff": 3388,
      "▁accomp": 3389,
      "▁terr": 3390,
      "▁soup": 3391,
      "▁snitch": 3392,
      "▁chatting": 3393,
      "▁demonstr": 3394,
      "ture": 3395,
      "▁consist": 3396,
      "▁pound": 3397,
      "ratic": 3398,
      "uched": 3399,
      "▁error": 3400,
      "▁slee": 3401,
      "unch": 3402,
      "▁daycare": 3403,
      "▁cuz": 3404,
      "▁treaties": 3405,
      "▁d": 3406,
      "cl": 3407,
      "mm": 3408,
      "▁arrv.": 3409,
      "▁weaponize": 3410,
      "▁exc": 3411,
      "▁ul": 3412,
      "rong": 3413,
      "▁memorial": 3414,
      "rits": 3415,
      "▁spike": 3416,
      "▁laugh": 3417,
      "▁game": 3418,
      "▁!!!!!!!": 3419,
      "▁curve": 3420,
      "▁installed": 3421,
      "▁vic": 3422,
      "▁accusing": 3423,
      "ana": 3424,
      "▁....": 3425,
      "▁thri": 3426,
      "▁dall": 3427,
      "▁western": 3428,
      "▁for": 3429,
      "asi": 3430,
      "▁nurse": 3431,
      "cents": 3432,
      "▁embedded": 3433,
      "▁than": 3434,
      "▁perceptions": 3435,
      "▁interviewers": 3436,
      "ider": 3437,
      "▁owing": 3438,
      "▁contempl": 3439,
      "irc": 3440,
      "▁cath": 3441,
      "▁joint": 3442,
      "▁schools": 3443,
      "▁meditation": 3444,
      "▁simplicity": 3445,
      "▁adopt": 3446,
      "▁stacked": 3447,
      "▁obtaining": 3448,
      "leading": 3449,
      "▁gentle": 3450,
      "▁houston": 3451,
      "▁diseas": 3452,
      "▁byebye": 3453,
      "ib": 3454,
      "look": 3455,
      "▁transcri": 3456,
      "▁maw": 3457,
      "▁eating": 3458,
      "▁whoever": 3459,
      "▁uneasiness": 3460,
      "▁blower": 3461,
      "▁surgery": 3462,
      "stache": 3463,
      "▁wins": 3464,
      "ert": 3465,
      "heet": 3466,
      "▁result": 3467,
      "ogh": 3468,
      "▁smaller": 3469,
      "ankie": 3470,
      "▁four": 3471,
      "▁package": 3472,
      "▁medic": 3473,
      "ector": 3474,
      "▁co-f": 3475,
      "▁fold": 3476,
      "▁tuned": 3477,
      "ourse": 3478,
      "▁lunch": 3479,
      "▁disagree": 3480,
      "▁occur": 3481,
      "▁escape": 3482,
      "▁heck": 3483,
      "▁tying": 3484,
      "▁100": 3485,
      "▁permission": 3486,
      "▁whole": 3487,
      "well": 3488,
      "▁forbidden": 3489,
      "▁instructed": 3490,
      "▁dignitaries": 3491,
      "▁propped": 3492,
      "▁furniture": 3493,
      "▁busted": 3494,
      "▁misery": 3495,
      "▁toured": 3496,
      "▁br": 3497,
      "▁stand": 3498,
      "▁paramet": 3499,
      ".d": 3500,
      "▁v02": 3501,
      "▁forwarded": 3502,
      "▁anticip": 3503,
      "chored": 3504,
      "▁ontario": 3505,
      "▁blizzard": 3506,
      "▁cargo": 3507,
      "▁ma": 3508,
      "▁?????": 3509,
      "▁goose": 3510,
      "ightened": 3511,
      "nesday": 3512,
      "ern": 3513,
      "▁income": 3514,
      "▁micros": 3515,
      "▁tiger": 3516,
      "▁relativ": 3517,
      "▁armies": 3518,
      "▁notify": 3519,
      "till": 3520,
      "▁portions": 3521,
      "▁visibility": 3522,
      "▁sinking": 3523,
      "▁percentiles": 3524,
      "▁natives": 3525,
      "affles": 3526,
      "▁accent": 3527,
      "uate": 3528,
      "▁financed": 3529,
      "▁bubbles": 3530,
      "▁watered": 3531,
      "▁jack": 3532,
      "▁whom": 3533,
      "▁?": 3534,
      "▁compens": 3535,
      "▁proposing": 3536,
      "▁18": 3537,
      "▁banned": 3538,
      "▁priorities": 3539,
      "▁analysis": 3540,
      "▁recruitment": 3541,
      "-fl": 3542,
      "▁conformity": 3543,
      "▁l2": 3544,
      "ectively": 3545,
      "▁moved": 3546,
      "▁matters": 3547,
      "dbit": 3548,
      "▁relics": 3549,
      "▁slipped": 3550,
      "▁interpretations": 3551,
      "ovate": 3552,
      "alised": 3553,
      "▁abused": 3554,
      "angling": 3555,
      "▁do": 3556,
      "▁tape": 3557,
      ":30": 3558,
      "▁richard": 3559,
      "▁alphabet": 3560,
      "▁year": 3561,
      "▁resize": 3562,
      "▁robber": 3563,
      "esity": 3564,
      "ics": 3565,
      "entralized": 3566,
      "▁eated": 3567,
      "ras": 3568,
      "▁antiqu": 3569,
      "ds": 3570,
      "aries": 3571,
      "▁electric": 3572,
      "▁reproduced": 3573,
      "▁one": 3574,
      "s": 3575,
      "▁pity": 3576,
      "▁plant": 3577,
      "▁unto": 3578,
      "▁buyers": 3579,
      "inning": 3580,
      "▁emphasize": 3581,
      "▁motive": 3582,
      "emination": 3583,
      "▁heading": 3584,
      "sitive": 3585,
      "▁embarrass": 3586,
      "▁pled": 3587,
      "bbing": 3588,
      "ny": 3589,
      "▁luck": 3590,
      "▁conges": 3591,
      "▁steel": 3592,
      "urr": 3593,
      "▁llm": 3594,
      "▁seam": 3595,
      "▁soaked": 3596,
      "-te": 3597,
      "▁beat": 3598,
      "▁momma": 3599,
      ".6": 3600,
      "▁phoenix": 3601,
      "▁transactions": 3602,
      "idic": 3603,
      "tocks.pdf": 3604,
      "ette": 3605,
      "▁translations": 3606,
      "▁descend": 3607,
      "▁analyze": 3608,
      "▁win": 3609,
      "▁jokes": 3610,
      "cat": 3611,
      "▁wrongdo": 3612,
      "▁producing": 3613,
      "▁suspended": 3614,
      "▁until": 3615,
      "▁pumping": 3616,
      "rayed": 3617,
      "rim": 3618,
      "▁rewar": 3619,
      "▁cycles": 3620,
      "▁inability": 3621,
      "▁effect": 3622,
      "▁oz": 3623,
      "▁westchester": 3624,
      "igned": 3625,
      "▁dna": 3626,
      "▁curled": 3627,
      "▁o": 3628,
      "▁stare": 3629,
      "▁pushing": 3630,
      "▁ninet": 3631,
      "▁habitat": 3632,
      "▁baked": 3633,
      "▁scorp": 3634,
      "vailable": 3635,
      "▁appell": 3636,
      "▁revive": 3637,
      "▁13": 3638,
      "▁chill": 3639,
      "lities": 3640,
      "mon": 3641,
      "▁loot": 3642,
      "▁firetruck": 3643,
      "onishment": 3644,
      "▁pairs": 3645,
      "▁pulse": 3646,
      "▁cact": 3647,
      "▁takeoffs": 3648,
      "ne": 3649,
      "ores": 3650,
      "dr": 3651,
      "town": 3652,
      "▁reliance": 3653,
      "acters": 3654,
      "▁!?": 3655,
      "ackers": 3656,
      "▁edited": 3657,
      "isters": 3658,
      "▁knitting": 3659,
      "▁fal": 3660,
      "▁entered": 3661,
      "lees": 3662,
      "eet": 3663,
      "▁food": 3664,
      "▁hamburger": 3665,
      "▁tors": 3666,
      "▁ecodesign": 3667,
      "▁brushed": 3668,
      "▁suddenly": 3669,
      "▁supermarkets": 3670,
      "▁airplane": 3671,
      "▁its": 3672,
      "▁consume": 3673,
      "ainability": 3674,
      "▁house": 3675,
      "▁http://www": 3676,
      "onin": 3677,
      "▁weapons": 3678,
      "ares": 3679,
      "▁similarities": 3680,
      "▁stunk": 3681,
      "▁determination": 3682,
      "lic": 3683,
      "▁ambition": 3684,
      "▁toothpaste": 3685,
      "ouble": 3686,
      "▁poses": 3687,
      "▁employ": 3688,
      "▁ta": 3689,
      "▁absence": 3690,
      "pack": 3691,
      "▁concess": 3692,
      "▁childbirth": 3693,
      "▁tossed": 3694,
      "▁resting": 3695,
      "▁anemones": 3696,
      "▁assembled": 3697,
      "7": 3698,
      "▁punctuation": 3699,
      "rations": 3700,
      "▁bladder": 3701,
      "ologies": 3702,
      "▁horsies": 3703,
      "▁muggle": 3704,
      "▁metering": 3705,
      "▁pension": 3706,
      "▁job": 3707,
      "ove": 3708,
      "▁contractors": 3709,
      "▁guit": 3710,
      "▁adjustments": 3711,
      "▁houses": 3712,
      "▁committee": 3713,
      "room": 3714,
      "▁furn": 3715,
      "▁ec": 3716,
      "▁files": 3717,
      "▁book": 3718,
      "oring": 3719,
      "▁how": 3720,
      "enced": 3721,
      "▁ethnocentrism": 3722,
      "▁deriv": 3723,
      "▁jewel": 3724,
      "▁deepen": 3725,
      "▁hears": 3726,
      "▁asking": 3727,
      "ithst": 3728,
      "▁hypnosis": 3729,
      "kles": 3730,
      "▁acceding": 3731,
      "▁te": 3732,
      "▁muttered": 3733,
      "och": 3734,
      "▁ap": 3735,
      "▁enemy": 3736,
      "▁bombings": 3737,
      "▁researching": 3738,
      "▁buzzer": 3739,
      "▁label": 3740,
      "▁blinked": 3741,
      "▁symphony": 3742,
      "▁roughness": 3743,
      "▁smell": 3744,
      "▁requests": 3745,
      "tiation": 3746,
      "▁walls": 3747,
      "▁alternates": 3748,
      "oof": 3749,
      "▁attachment": 3750,
      "▁rode": 3751,
      "▁meth": 3752,
      "▁generate": 3753,
      "▁masts": 3754,
      "▁yawning": 3755,
      "▁bom": 3756,
      "▁spea": 3757,
      "▁investigation": 3758,
      "▁ward": 3759,
      "ipl": 3760,
      "▁martyr": 3761,
      "▁spacecraft": 3762,
      "-president": 3763,
      "▁winters": 3764,
      "ocr": 3765,
      "▁corridors": 3766,
      "▁matched": 3767,
      "▁romances": 3768,
      "▁accomplished": 3769,
      "enity": 3770,
      "▁ak": 3771,
      "▁waving": 3772,
      "sd": 3773,
      "engers": 3774,
      "▁dwibbling": 3775,
      "▁swee": 3776,
      "▁submarine": 3777,
      "▁toy": 3778,
      "▁sem": 3779,
      "▁rapidly": 3780,
      "▁foll": 3781,
      "▁knot": 3782,
      "tures": 3783,
      "▁able": 3784,
      "▁worked": 3785,
      "▁knock": 3786,
      "position": 3787,
      "-mem": 3788,
      "▁metro": 3789,
      "▁bumped": 3790,
      "▁ideals": 3791,
      "▁touch": 3792,
      "▁discussing": 3793,
      "▁reintroduction": 3794,
      "▁happ": 3795,
      "▁ming": 3796,
      "▁beams": 3797,
      "▁secure": 3798,
      "▁capacity": 3799,
      "▁fuss": 3800,
      "▁majority": 3801,
      "ader": 3802,
      "respond": 3803,
      "bio": 3804,
      "enna": 3805,
      "▁tore": 3806,
      "▁interval": 3807,
      "▁possibilities": 3808,
      "▁planet": 3809,
      "▁tile": 3810,
      "omic": 3811,
      "▁solved": 3812,
      "▁significance": 3813,
      "unh": 3814,
      "▁ther": 3815,
      "▁african": 3816,
      "▁pivotch": 3817,
      "▁declaring": 3818,
      "▁iq": 3819,
      "▁flatten": 3820,
      "▁tells": 3821,
      "▁adapted": 3822,
      "▁shone": 3823,
      "hs": 3824,
      "uity": 3825,
      "▁licens": 3826,
      "rights": 3827,
      "reach": 3828,
      "▁attended": 3829,
      "omob": 3830,
      "irmed": 3831,
      "▁offense": 3832,
      "▁trumpets": 3833,
      "▁milwaukee": 3834,
      "umble": 3835,
      "▁combined": 3836,
      "▁grandchildren": 3837,
      "ointed": 3838,
      "▁orchestrated": 3839,
      "▁yards": 3840,
      "▁suite": 3841,
      "▁rentals": 3842,
      "▁town": 3843,
      "bone": 3844,
      "▁consideration": 3845,
      "▁house-": 3846,
      "▁validity": 3847,
      "▁expelling": 3848,
      "▁kilometres": 3849,
      "▁suggesting": 3850,
      "▁distraction": 3851,
      "▁translates": 3852,
      "▁policy": 3853,
      "▁disappeared": 3854,
      "▁after": 3855,
      "▁temp": 3856,
      "ybod": 3857,
      "tiveness": 3858,
      "gregation": 3859,
      "▁wednesday": 3860,
      "▁recommended": 3861,
      "▁assemb": 3862,
      "points": 3863,
      "▁responds": 3864,
      "rial": 3865,
      "▁scramb": 3866,
      "▁vict": 3867,
      "▁colored": 3868,
      "▁cre": 3869,
      "▁entities": 3870,
      "onsumers": 3871,
      "artiality": 3872,
      "▁vessels": 3873,
      "▁contacting": 3874,
      "iency": 3875,
      "▁throu": 3876,
      "tle": 3877,
      "▁malf": 3878,
      "▁attaining": 3879,
      "▁scientology": 3880,
      "▁sneakers": 3881,
      "isco": 3882,
      "▁belon": 3883,
      "▁lodging": 3884,
      "********************************": 3885,
      "neath": 3886,
      "▁checked": 3887,
      "▁stranger": 3888,
      "▁angles": 3889,
      "▁notified": 3890,
      "▁directly": 3891,
      "ticism": 3892,
      "ins": 3893,
      "▁farmer": 3894,
      "▁@": 3895,
      "bir": 3896,
      "▁tribes": 3897,
      "otated": 3898,
      "▁forwarding": 3899,
      "▁inter": 3900,
      "▁advisors": 3901,
      "▁constit": 3902,
      "raged": 3903,
      "hen": 3904,
      "alling": 3905,
      "▁overth": 3906,
      "▁march": 3907,
      "group": 3908,
      "▁keeps": 3909,
      "tie": 3910,
      "▁breaking": 3911,
      "ticians": 3912,
      "▁skating": 3913,
      "▁erase": 3914,
      "otape": 3915,
      "cape": 3916,
      "ictions": 3917,
      "▁presentation": 3918,
      "▁manuf": 3919,
      "▁pieces": 3920,
      "▁succession": 3921,
      "▁please": 3922,
      "▁beetle": 3923,
      "vd": 3924,
      "▁design": 3925,
      "▁double": 3926,
      "ugee": 3927,
      "▁oxy": 3928,
      "▁posed": 3929,
      "▁tolerance": 3930,
      "▁placed": 3931,
      "▁conf": 3932,
      "▁robotics": 3933,
      "▁farms": 3934,
      "owl": 3935,
      "▁legitimacy": 3936,
      "wash": 3937,
      "ilter": 3938,
      "▁fabric": 3939,
      "▁monarchy": 3940,
      "▁concer": 3941,
      "▁weeds": 3942,
      "awled": 3943,
      "▁situations": 3944,
      "▁sust": 3945,
      "▁s-": 3946,
      "oft": 3947,
      "▁publish": 3948,
      "▁doggies": 3949,
      "▁protect": 3950,
      "ensive": 3951,
      "▁estimates": 3952,
      "oard": 3953,
      "icts": 3954,
      "▁terminated": 3955,
      "▁any": 3956,
      "titudes": 3957,
      "▁teef": 3958,
      "▁finding": 3959,
      "▁desert": 3960,
      "▁outfits": 3961,
      "▁tug": 3962,
      "ath": 3963,
      "oor": 3964,
      "▁moment": 3965,
      "night": 3966,
      "▁autobiography": 3967,
      "▁ridden": 3968,
      "anza": 3969,
      "▁old": 3970,
      "ura": 3971,
      "▁mow": 3972,
      "ties": 3973,
      "25": 3974,
      "▁swallow": 3975,
      "▁minus": 3976,
      "▁them": 3977,
      "▁flour": 3978,
      "▁ranges": 3979,
      "▁prov": 3980,
      "▁machines": 3981,
      "▁expl": 3982,
      "▁gol": 3983,
      "▁linking": 3984,
      "▁triv": 3985,
      "▁......": 3986,
      "list": 3987,
      "▁tray": 3988,
      "▁total": 3989,
      "▁miss": 3990,
      "imore": 3991,
      "▁all": 3992,
      "▁chem": 3993,
      "▁website": 3994,
      "▁luncheon": 3995,
      "ame": 3996,
      "▁completing": 3997,
      "▁cancellation": 3998,
      "tt": 3999,
      "▁n’t": 4000,
      "▁leader": 4001,
      "▁cleaners": 4002,
      "▁incentives": 4003,
      "▁royalist": 4004,
      "▁sar": 4005,
      "▁carvings": 4006,
      "▁bars": 4007,
      "▁generalizability": 4008,
      "▁maintenance": 4009,
      "▁bicycle": 4010,
      "ocated": 4011,
      "▁banknotes": 4012,
      "▁-----": 4013,
      "▁seminars": 4014,
      "▁bacter": 4015,
      "▁join": 4016,
      "▁comparisons": 4017,
      "▁integr": 4018,
      "▁jose": 4019,
      "▁know": 4020,
      "nets": 4021,
      "▁poles": 4022,
      "▁occasionally": 4023,
      "▁theirs": 4024,
      "▁permits": 4025,
      "▁da": 4026,
      "▁comp": 4027,
      "▁receive": 4028,
      "▁enthusiasm": 4029,
      "ored": 4030,
      "▁trying": 4031,
      "▁purch": 4032,
      "▁causes": 4033,
      "inally": 4034,
      "▁reserves": 4035,
      "▁ads": 4036,
      "ivated": 4037,
      "alth": 4038,
      "▁plaque": 4039,
      "▁forget": 4040,
      "▁boing": 4041,
      "▁dipping": 4042,
      "▁displaying": 4043,
      "▁popsicle": 4044,
      "▁manager": 4045,
      "▁explains": 4046,
      "river": 4047,
      "▁league": 4048,
      "▁store": 4049,
      "▁trunks": 4050,
      "▁gtee": 4051,
      "▁followed": 4052,
      "▁toronto": 4053,
      "▁singles": 4054,
      "▁features": 4055,
      "t": 4056,
      "ental": 4057,
      "▁rip": 4058,
      "▁define": 4059,
      "ally": 4060,
      "▁dissemination": 4061,
      "ied": 4062,
      "▁bott": 4063,
      "▁phd": 4064,
      "▁cric": 4065,
      "huh": 4066,
      "▁repaired": 4067,
      "qu": 4068,
      "▁compliance": 4069,
      "▁rhy": 4070,
      "▁preparation": 4071,
      "itioned": 4072,
      "▁disconnect": 4073,
      "▁dir": 4074,
      "▁technologies": 4075,
      "▁courtyard": 4076,
      "▁case": 4077,
      "▁check": 4078,
      "▁pile": 4079,
      "▁borrow": 4080,
      "▁trim": 4081,
      "ees": 4082,
      "▁thousand": 4083,
      "▁rely": 4084,
      "▁deer": 4085,
      "▁encourage": 4086,
      "▁extent": 4087,
      "▁membership": 4088,
      "▁outro": 4089,
      "yard": 4090,
      "▁ensured": 4091,
      "yet": 4092,
      "▁statistics": 4093,
      "▁kicking": 4094,
      "▁appease": 4095,
      "▁sprouts": 4096,
      "sent": 4097,
      "▁forums": 4098,
      "▁extract": 4099,
      "▁armaments": 4100,
      "▁gods": 4101,
      "volutionary": 4102,
      "amples": 4103,
      "▁non-": 4104,
      "▁compensate": 4105,
      "81-1.doc": 4106,
      "▁role": 4107,
      "▁aim": 4108,
      "opes": 4109,
      "▁filtering": 4110,
      "▁muscles": 4111,
      "▁sewed": 4112,
      "tax": 4113,
      "▁bapt": 4114,
      "▁disciples": 4115,
      "▁expos": 4116,
      "▁bang": 4117,
      "▁policeman": 4118,
      "▁exhibited": 4119,
      "thma": 4120,
      "▁lottery": 4121,
      "▁molec": 4122,
      "▁doggy": 4123,
      "▁resided": 4124,
      "ategy": 4125,
      "▁jump": 4126,
      "▁emerges": 4127,
      "▁writ": 4128,
      "▁ever": 4129,
      "ient": 4130,
      "▁sentence": 4131,
      "▁pew": 4132,
      "▁tal": 4133,
      "▁turned": 4134,
      "▁leaves": 4135,
      "▁orient": 4136,
      "▁settle": 4137,
      "▁scri": 4138,
      "▁spirit": 4139,
      "▁hatred": 4140,
      "rav": 4141,
      "gery": 4142,
      "▁incap": 4143,
      "▁purpose": 4144,
      "▁guilt": 4145,
      "▁cigar": 4146,
      "log": 4147,
      "ching": 4148,
      "▁collaborations": 4149,
      "isf": 4150,
      "▁subs": 4151,
      "▁arres": 4152,
      "▁rolled": 4153,
      "▁dog": 4154,
      "▁detained": 4155,
      "8th": 4156,
      "▁officers": 4157,
      "▁factory": 4158,
      "▁sizz": 4159,
      "▁revolution": 4160,
      "ocrats": 4161,
      "▁mathema": 4162,
      "▁seating": 4163,
      "▁personal": 4164,
      "▁upside": 4165,
      "▁snakes": 4166,
      "▁devil": 4167,
      "▁likeness": 4168,
      "▁exch": 4169,
      "▁scand": 4170,
      "ulf": 4171,
      "80": 4172,
      "▁observations": 4173,
      "▁wheeled": 4174,
      "▁parent": 4175,
      "▁gear": 4176,
      "▁enterprises": 4177,
      "▁has": 4178,
      "erences": 4179,
      "▁demon": 4180,
      "▁inhabitants": 4181,
      "▁embarked": 4182,
      "▁best": 4183,
      "▁constitution": 4184,
      "▁pain": 4185,
      "atedly": 4186,
      "oods": 4187,
      "▁staffed": 4188,
      "▁neither": 4189,
      "▁suspected": 4190,
      "▁uh": 4191,
      "▁end": 4192,
      "▁improvements": 4193,
      "▁trays": 4194,
      "▁doors": 4195,
      "under": 4196,
      "▁laptops": 4197,
      "▁thyro": 4198,
      "80s": 4199,
      "duc": 4200,
      "cove": 4201,
      "▁bugs": 4202,
      "▁biologists": 4203,
      "▁verifies": 4204,
      "▁prototype": 4205,
      "▁counterpar": 4206,
      "▁hauled": 4207,
      "▁kaos": 4208,
      ",": 4209,
      "ligh": 4210,
      "isted": 4211,
      "▁terrible": 4212,
      "▁invites": 4213,
      "▁indicator": 4214,
      "▁warrants": 4215,
      "▁recreation": 4216,
      "▁70": 4217,
      "▁high": 4218,
      "▁cha": 4219,
      "▁had": 4220,
      "▁holt": 4221,
      "▁60": 4222,
      "▁fault": 4223,
      "▁patients": 4224,
      "life": 4225,
      "▁afford": 4226,
      "▁twilight": 4227,
      "ultural": 4228,
      "▁greetings": 4229,
      "ilities": 4230,
      "▁restructuring": 4231,
      "▁dialog": 4232,
      "▁mit": 4233,
      "▁industrialist": 4234,
      "▁partnerships": 4235,
      "▁`": 4236,
      "pse": 4237,
      "▁spices": 4238,
      "▁swear": 4239,
      "▁poems": 4240,
      "▁hoc": 4241,
      "▁retailers": 4242,
      "▁fours": 4243,
      "fi": 4244,
      "▁notions": 4245,
      "▁militias": 4246,
      "▁recip": 4247,
      "▁household": 4248,
      "▁sep": 4249,
      "▁pro": 4250,
      "ius": 4251,
      "▁rec": 4252,
      "▁daughters": 4253,
      "itoring": 4254,
      "▁attract": 4255,
      "**********************************": 4256,
      "rr": 4257,
      "tions": 4258,
      "▁prisoner": 4259,
      "▁meowing": 4260,
      "▁broke": 4261,
      "terations": 4262,
      "▁river": 4263,
      "astic": 4264,
      "▁pati": 4265,
      "eenth": 4266,
      "▁handkerchief": 4267,
      "▁baby": 4268,
      "▁consensus": 4269,
      "▁bodies": 4270,
      "▁navigation": 4271,
      "▁anno": 4272,
      "▁slugs": 4273,
      "0th": 4274,
      "▁waffles": 4275,
      "ef": 4276,
      "▁tickle": 4277,
      "▁wors": 4278,
      "▁columns": 4279,
      "bern": 4280,
      "▁transmedia": 4281,
      "ghts": 4282,
      "▁persistence": 4283,
      "▁suffix": 4284,
      "▁apple": 4285,
      "▁parameters": 4286,
      "▁users": 4287,
      "▁pseudonym": 4288,
      "70s": 4289,
      "▁obligations": 4290,
      "au": 4291,
      "▁offered": 4292,
      "▁provided": 4293,
      "▁ass": 4294,
      "▁p&": 4295,
      "gu": 4296,
      "▁wiel": 4297,
      "awah": 4298,
      "▁fled": 4299,
      "▁finger": 4300,
      "▁landings": 4301,
      "titions": 4302,
      "idemic": 4303,
      "▁directing": 4304,
      "▁moose": 4305,
      "▁burs": 4306,
      "▁spider": 4307,
      "fo": 4308,
      "▁wanted": 4309,
      "▁confirms": 4310,
      "▁maintaining": 4311,
      "▁g": 4312,
      "/2": 4313,
      "▁manual": 4314,
      "▁caves": 4315,
      "pp": 4316,
      "▁adjustment": 4317,
      "▁exploring": 4318,
      "▁guar": 4319,
      "▁scope": 4320,
      "▁hurting": 4321,
      "▁poa": 4322,
      "iked": 4323,
      "▁planted": 4324,
      "▁confisc": 4325,
      "▁li": 4326,
      "▁!!!!": 4327,
      "organ": 4328,
      "▁rough": 4329,
      "▁acquiring": 4330,
      "rel": 4331,
      "▁watch": 4332,
      "▁satellite": 4333,
      "igration": 4334,
      "▁correc": 4335,
      "▁convince": 4336,
      "dering": 4337,
      "ode": 4338,
      "▁wol": 4339,
      "▁did": 4340,
      "▁develop": 4341,
      "▁rush": 4342,
      "aud": 4343,
      "▁pittsbur": 4344,
      "▁families": 4345,
      "▁depths": 4346,
      "▁bearing": 4347,
      "iss": 4348,
      "▁string": 4349,
      "tiqu": 4350,
      "ences": 4351,
      "▁notes": 4352,
      "▁,": 4353,
      "▁fungus": 4354,
      "▁adults": 4355,
      "▁converted": 4356,
      "▁cropdusters": 4357,
      "▁profession": 4358,
      "▁invention": 4359,
      "▁outsiders": 4360,
      "eralism": 4361,
      "▁bridges": 4362,
      "▁stomachs": 4363,
      "▁opposite": 4364,
      "▁consumer": 4365,
      "▁ker": 4366,
      "idden": 4367,
      "▁an": 4368,
      "▁main": 4369,
      "▁podcast": 4370,
      "▁struc": 4371,
      "▁laws": 4372,
      "▁attrib": 4373,
      "▁advertise": 4374,
      "uild": 4375,
      "ap": 4376,
      "▁conserv": 4377,
      "▁whipped": 4378,
      "back": 4379,
      "elf": 4380,
      "▁gut": 4381,
      "▁heating": 4382,
      "▁secretaries": 4383,
      "▁likely": 4384,
      "▁english": 4385,
      "▁plight": 4386,
      "▁slang": 4387,
      "lling": 4388,
      "▁cher": 4389,
      "▁conqu": 4390,
      "▁spaw": 4391,
      "▁bap": 4392,
      "▁human": 4393,
      "iki": 4394,
      "▁fiction": 4395,
      "▁perspective": 4396,
      "antiation": 4397,
      "▁commentary": 4398,
      "▁woo": 4399,
      "ak": 4400,
      "ronic": 4401,
      "▁tipt": 4402,
      "▁expects": 4403,
      "▁stage": 4404,
      "▁arrangement": 4405,
      "▁seated": 4406,
      "fro": 4407,
      "▁dec": 4408,
      "▁thin": 4409,
      "atories": 4410,
      "▁sponge": 4411,
      "li": 4412,
      "▁verify": 4413,
      "▁gastroenter": 4414,
      "▁sculpt": 4415,
      "▁execution": 4416,
      "▁novelty": 4417,
      "▁interro": 4418,
      "porter": 4419,
      "lig": 4420,
      "▁exile": 4421,
      "▁afghanistan": 4422,
      "la": 4423,
      "▁screaming": 4424,
      "▁galleries": 4425,
      "arrassment": 4426,
      "lets": 4427,
      "pt": 4428,
      "ularity": 4429,
      "ream": 4430,
      "bread": 4431,
      "▁glanced": 4432,
      "▁overlooked": 4433,
      "rint": 4434,
      "▁concern": 4435,
      "earance": 4436,
      "ukee": 4437,
      "sually": 4438,
      "▁abandoned": 4439,
      "▁lym": 4440,
      "▁outcome": 4441,
      "▁elbow": 4442,
      "pancy": 4443,
      "here": 4444,
      "▁but": 4445,
      "▁-----------------": 4446,
      "▁expect": 4447,
      "▁euros": 4448,
      "▁hel": 4449,
      "berry": 4450,
      "▁circum": 4451,
      "▁reass": 4452,
      "▁nipple": 4453,
      "▁pull": 4454,
      "▁suffer": 4455,
      "▁entitled": 4456,
      "▁po": 4457,
      "▁talk": 4458,
      "▁chimney": 4459,
      "”": 4460,
      "▁incen": 4461,
      "▁actress": 4462,
      "▁physics": 4463,
      "▁screams": 4464,
      "orkers": 4465,
      "utching": 4466,
      "aid": 4467,
      "▁indian": 4468,
      "▁connected": 4469,
      "▁horrible": 4470,
      "▁votes": 4471,
      "▁grumble": 4472,
      "▁abuse": 4473,
      "▁preventing": 4474,
      "▁squadrons": 4475,
      "▁meat": 4476,
      "oscope": 4477,
      "▁alik": 4478,
      "▁lon": 4479,
      "▁monaster": 4480,
      "ilosoph": 4481,
      "▁chandeli": 4482,
      "4": 4483,
      "▁sang": 4484,
      "▁respec": 4485,
      "ric": 4486,
      "▁markers": 4487,
      "▁identifying": 4488,
      "aponize": 4489,
      "uster": 4490,
      "ea": 4491,
      "▁rid": 4492,
      "dge": 4493,
      "▁sending": 4494,
      "fec": 4495,
      "ci": 4496,
      "▁chat": 4497,
      "▁surveillance": 4498,
      "capes": 4499,
      "▁encouraged": 4500,
      "▁obl": 4501,
      "ok": 4502,
      "▁committed": 4503,
      "enny": 4504,
      "▁consid": 4505,
      "▁purs": 4506,
      "▁bread": 4507,
      "▁el": 4508,
      "▁impression": 4509,
      "ility": 4510,
      "omatically": 4511,
      "▁mailed": 4512,
      "▁owned": 4513,
      "tite": 4514,
      "▁analogy": 4515,
      "▁galois": 4516,
      "▁consul": 4517,
      "▁panic": 4518,
      "arently": 4519,
      "▁lumin": 4520,
      "▁recommendation": 4521,
      "▁jam": 4522,
      "▁leisure": 4523,
      "▁dogg": 4524,
      "ployment": 4525,
      "▁charity": 4526,
      "▁bricks": 4527,
      "▁underlined": 4528,
      "▁mainland": 4529,
      "▁reprinted": 4530,
      "▁meanings": 4531,
      "▁butterfl": 4532,
      "eces": 4533,
      "ocratic": 4534,
      "rave": 4535,
      "zema": 4536,
      "-8": 4537,
      "▁status": 4538,
      "▁rubble": 4539,
      "aroo": 4540,
      "▁vet": 4541,
      "▁elevators": 4542,
      "▁crept": 4543,
      "▁microsoft": 4544,
      "▁stickerbirds": 4545,
      "▁sump": 4546,
      "tive": 4547,
      "▁unem": 4548,
      "▁surren": 4549,
      "▁implemented": 4550,
      "ograph": 4551,
      "▁seat": 4552,
      "▁scoop": 4553,
      "▁mids": 4554,
      "hocks": 4555,
      "lam": 4556,
      "▁recovering": 4557,
      "▁ant": 4558,
      "▁front": 4559,
      "▁nowhere": 4560,
      "rons": 4561,
      "▁ob": 4562,
      "ither": 4563,
      "▁niece": 4564,
      "rating": 4565,
      "▁probably": 4566,
      "▁sof": 4567,
      "▁migrant": 4568,
      "eb": 4569,
      "▁wine": 4570,
      "▁sighed": 4571,
      "▁religion": 4572,
      "▁presidents": 4573,
      "▁subscri": 4574,
      "▁pre": 4575,
      "▁ne": 4576,
      "▁transformed": 4577,
      "▁machinery": 4578,
      "▁ris": 4579,
      "▁scratched": 4580,
      "▁memorized": 4581,
      "▁stink": 4582,
      "dose": 4583,
      "▁filling": 4584,
      "▁!!!!!!": 4585,
      "▁neighb": 4586,
      "▁conversion": 4587,
      "▁compounded": 4588,
      "liness": 4589,
      "▁created": 4590,
      "▁doctors": 4591,
      "▁median": 4592,
      "▁concre": 4593,
      "erm": 4594,
      "▁polish": 4595,
      "▁copyrighted": 4596,
      "▁snapped": 4597,
      "▁unions": 4598,
      "▁synthes": 4599,
      "▁portrayed": 4600,
      "ʊ": 4601,
      "▁---------------------------------": 4602,
      "omach": 4603,
      "▁accepted": 4604,
      "▁comments": 4605,
      "▁2": 4606,
      "▁harbour": 4607,
      "stem": 4608,
      "▁could": 4609,
      "utiny": 4610,
      "cts": 4611,
      "▁gent": 4612,
      "▁heights": 4613,
      "▁enlargement": 4614,
      "▁pal": 4615,
      "▁over": 4616,
      "▁piano": 4617,
      "▁neighboring": 4618,
      "real": 4619,
      "▁re": 4620,
      "▁bull": 4621,
      "iol": 4622,
      "▁lies": 4623,
      "▁voy": 4624,
      "▁prod": 4625,
      "erating": 4626,
      "▁prepay": 4627,
      "▁experimenting": 4628,
      "▁exposed": 4629,
      "▁grandpa": 4630,
      "▁committ": 4631,
      "tr": 4632,
      "▁cliff": 4633,
      "▁nut": 4634,
      "▁official": 4635,
      "▁tattoo": 4636,
      "pped": 4637,
      "▁beware": 4638,
      "▁cat-fl": 4639,
      "▁shippers": 4640,
      "▁loss": 4641,
      "▁intended": 4642,
      "▁guessed": 4643,
      "▁storage": 4644,
      "▁departing": 4645,
      "▁length": 4646,
      "▁intermed": 4647,
      "▁paddistocks": 4648,
      "▁swept": 4649,
      "epad": 4650,
      "▁designated": 4651,
      "▁coord": 4652,
      "▁mentioned": 4653,
      "▁pastor": 4654,
      "▁least": 4655,
      "▁achieve": 4656,
      "ravated": 4657,
      "▁shatter": 4658,
      "ney": 4659,
      "▁chasing": 4660,
      "▁message": 4661,
      "▁glim": 4662,
      "alising": 4663,
      "▁cyc": 4664,
      "▁actor": 4665,
      "▁ρ": 4666,
      "▁recieved": 4667,
      "▁hamas": 4668,
      "▁condem": 4669,
      "▁hitting": 4670,
      "▁cray": 4671,
      "▁themes": 4672,
      "▁cent": 4673,
      "▁vacuum": 4674,
      "▁outcomes": 4675,
      "▁transformation": 4676,
      "kets": 4677,
      "izes": 4678,
      "▁pioneer": 4679,
      "ractions": 4680,
      "▁tumor": 4681,
      "▁hym": 4682,
      "fitting": 4683,
      "▁mater": 4684,
      "▁securities": 4685,
      "▁influences": 4686,
      "▁vot": 4687,
      "▁creatures": 4688,
      "▁squir": 4689,
      "▁shame": 4690,
      "▁foot": 4691,
      "▁dslr": 4692,
      "▁neologism": 4693,
      "▁sitting": 4694,
      "▁arrow": 4695,
      "enses": 4696,
      "▁knights": 4697,
      "mited": 4698,
      "▁embr": 4699,
      "▁grumbles": 4700,
      "▁popular": 4701,
      "▁pray": 4702,
      "keys": 4703,
      "mals": 4704,
      "▁depar": 4705,
      "ane": 4706,
      "▁email": 4707,
      "load": 4708,
      "▁function": 4709,
      "▁black": 4710,
      "▁ferry": 4711,
      "ty": 4712,
      "▁frightened": 4713,
      "cul": 4714,
      "door": 4715,
      "struction": 4716,
      "anism": 4717,
      "▁rapporte": 4718,
      "troduc": 4719,
      "clo": 4720,
      "▁represents": 4721,
      "▁spr": 4722,
      "▁helicopters": 4723,
      "...@": 4724,
      "▁adaptation": 4725,
      "▁mant": 4726,
      "▁expel": 4727,
      "▁alleged": 4728,
      "acture": 4729,
      "▁ill": 4730,
      "-of-": 4731,
      "▁anthrax": 4732,
      "▁purpos": 4733,
      "▁crust": 4734,
      "▁band": 4735,
      "▁balances": 4736,
      "▁canvas": 4737,
      "▁whales": 4738,
      "teen": 4739,
      "▁yelling": 4740,
      "▁co": 4741,
      "▁grim": 4742,
      "gers": 4743,
      "▁charl": 4744,
      "▁dates": 4745,
      "▁prolon": 4746,
      "▁starve": 4747,
      "entment": 4748,
      "▁locations": 4749,
      "▁deli": 4750,
      "▁fixing": 4751,
      "iently": 4752,
      "▁taxpayers": 4753,
      "▁pang": 4754,
      "▁\"": 4755,
      "▁refriger": 4756,
      "▁heated": 4757,
      "▁record": 4758,
      "▁yea": 4759,
      "▁manage": 4760,
      "▁schema": 4761,
      "▁migrants": 4762,
      "▁former": 4763,
      "▁contrary": 4764,
      "▁pouring": 4765,
      "▁ti": 4766,
      "ught": 4767,
      "▁vom": 4768,
      "▁envoy": 4769,
      "▁bat": 4770,
      "▁patents": 4771,
      "ops": 4772,
      "▁vegas": 4773,
      "▁circumstances": 4774,
      "▁spanning": 4775,
      "uri": 4776,
      "ieth": 4777,
      "▁enjoyment": 4778,
      "▁males": 4779,
      "▁percentile": 4780,
      "▁ruler": 4781,
      "▁enhance": 4782,
      "▁knife": 4783,
      "▁display": 4784,
      "▁target": 4785,
      "come": 4786,
      "▁problem": 4787,
      "▁lea": 4788,
      "▁joking": 4789,
      "▁luxury": 4790,
      "▁und": 4791,
      "▁whose": 4792,
      "▁organization": 4793,
      "nies": 4794,
      "ression": 4795,
      "▁star": 4796,
      "hus": 4797,
      "▁movies": 4798,
      "▁glimpse": 4799,
      "▁trash": 4800,
      "▁chame": 4801,
      "mly": 4802,
      "▁chocolates": 4803,
      "▁condemned": 4804,
      "▁savages": 4805,
      "tively": 4806,
      "▁traveling": 4807,
      "▁chart": 4808,
      "▁girls": 4809,
      "▁policies": 4810,
      "▁flow": 4811,
      "▁founder": 4812,
      "▁characterized": 4813,
      "▁deeply": 4814,
      "▁survive": 4815,
      "▁trusted": 4816,
      "▁physic": 4817,
      "▁pizzas": 4818,
      "▁semi": 4819,
      "▁relig": 4820,
      "▁fruit": 4821,
      "▁evolution": 4822,
      "dness": 4823,
      "▁kill": 4824,
      "▁proceed": 4825,
      "▁specialization": 4826,
      "educ": 4827,
      "▁hairdresser": 4828,
      "▁certi": 4829,
      "▁goo": 4830,
      "▁flirt": 4831,
      "ustice": 4832,
      "▁broken": 4833,
      "▁liqu": 4834,
      "▁chair": 4835,
      "▁ret": 4836,
      "▁pseud": 4837,
      "▁etc.": 4838,
      "▁fork": 4839,
      "▁adh": 4840,
      "ificant": 4841,
      "▁tatt": 4842,
      "▁patterns": 4843,
      "▁years": 4844,
      "▁d700": 4845,
      "▁dried": 4846,
      "▁freedom": 4847,
      "▁dodge": 4848,
      "▁genius": 4849,
      "▁ba": 4850,
      "▁mushrooms": 4851,
      "▁twenty": 4852,
      "▁manag": 4853,
      "▁stadium": 4854,
      "▁v": 4855,
      "'re": 4856,
      "▁woods": 4857,
      "▁starred": 4858,
      "▁posts": 4859,
      "eav": 4860,
      "aining": 4861,
      "▁horrors": 4862,
      "▁tear": 4863,
      "tilation": 4864,
      "umber": 4865,
      "▁disclaimer": 4866,
      "▁moreover": 4867,
      "▁mechanic": 4868,
      "▁mashing": 4869,
      "▁ii": 4870,
      "▁post": 4871,
      "▁swe": 4872,
      "▁dance": 4873,
      "inct": 4874,
      "▁bio": 4875,
      "ograp": 4876,
      "▁nibb": 4877,
      "▁posting": 4878,
      "▁especially": 4879,
      "▁>": 4880,
      "▁bouts": 4881,
      "▁japanese": 4882,
      "▁s/he": 4883,
      "▁greet": 4884,
      "▁specialist": 4885,
      "▁eats": 4886,
      "▁expenses": 4887,
      "▁germs": 4888,
      "▁supporter": 4889,
      "ception": 4890,
      "kka": 4891,
      "iversity": 4892,
      "▁gold": 4893,
      "▁continuation": 4894,
      "▁screamed": 4895,
      "▁novella": 4896,
      "▁limous": 4897,
      "▁reluct": 4898,
      "ise": 4899,
      "▁evaluate": 4900,
      "▁gifts": 4901,
      "▁birthdays": 4902,
      "aur": 4903,
      "▁thumbs": 4904,
      "▁ult": 4905,
      "le": 4906,
      "▁childhood": 4907,
      "liability": 4908,
      "ellow": 4909,
      "▁sill": 4910,
      "▁attacks": 4911,
      "▁involves": 4912,
      "▁destin": 4913,
      "▁acquisition": 4914,
      "▁crooks": 4915,
      "▁forcing": 4916,
      "▁straight": 4917,
      "cross": 4918,
      "sg": 4919,
      "▁contribution": 4920,
      "▁policymakers": 4921,
      "▁grinning": 4922,
      "itage": 4923,
      "▁capabilities": 4924,
      "▁probe": 4925,
      "▁industry": 4926,
      "▁bi": 4927,
      "ction": 4928,
      "▁strawberry": 4929,
      "▁buzz": 4930,
      "▁borders": 4931,
      "wardness": 4932,
      "▁prosec": 4933,
      "▁offer": 4934,
      "▁commod": 4935,
      "▁di": 4936,
      "▁pup": 4937,
      "▁portrait": 4938,
      "▁button": 4939,
      "gar": 4940,
      "▁uncovered": 4941,
      "▁drums": 4942,
      "sand": 4943,
      "▁inspector": 4944,
      "▁say": 4945,
      "▁squirter": 4946,
      "▁possible": 4947,
      "▁staff": 4948,
      "▁aband": 4949,
      "▁shrug": 4950,
      "▁poodle": 4951,
      "▁rise": 4952,
      "▁congregation": 4953,
      "▁greeted": 4954,
      "▁bron": 4955,
      "▁squashed": 4956,
      "▁24": 4957,
      "▁supplies": 4958,
      "▁measured": 4959,
      "▁sender": 4960,
      "▁cherries": 4961,
      "▁attached": 4962,
      "▁disli": 4963,
      "▁authorization": 4964,
      "erates": 4965,
      "▁mos": 4966,
      "fare": 4967,
      "▁smoked": 4968,
      "▁cosplay": 4969,
      "▁ignorance": 4970,
      "▁congr": 4971,
      "▁lu": 4972,
      "▁down": 4973,
      "ming": 4974,
      "mally": 4975,
      "▁inflation": 4976,
      "▁controls": 4977,
      "▁perfec": 4978,
      "▁heav": 4979,
      "▁announcement": 4980,
      "▁policing": 4981,
      "▁truly": 4982,
      "▁recurring": 4983,
      "▁vast": 4984,
      "▁kay": 4985,
      "▁patrons": 4986,
      "▁assass": 4987,
      "▁lions": 4988,
      "▁banan": 4989,
      "▁intelligence": 4990,
      "▁treatise": 4991,
      "▁wear": 4992,
      "▁egyptian": 4993,
      "▁expand": 4994,
      "ush": 4995,
      "cess": 4996,
      "k": 4997,
      "▁aesthetics": 4998,
      "▁host": 4999,
      "rick": 5000,
      "▁optim": 5001,
      "▁software": 5002,
      "▁hamster": 5003,
      "▁trucks": 5004,
      "tured": 5005,
      "▁purchases": 5006,
      "ard": 5007,
      "▁enthus": 5008,
      "’t": 5009,
      "▁beauty": 5010,
      "ent": 5011,
      "ialization": 5012,
      "▁custom": 5013,
      "▁utility": 5014,
      "▁surrender": 5015,
      "▁islamic": 5016,
      "▁rov": 5017,
      "▁infant": 5018,
      "ay": 5019,
      "▁lipsticks": 5020,
      "▁thought": 5021,
      "▁darkness": 5022,
      "o.": 5023,
      "ulars": 5024,
      "urring": 5025,
      "▁smoking": 5026,
      "▁gambling": 5027,
      "▁associate": 5028,
      "ternoon": 5029,
      "▁municipality": 5030,
      "▁preached": 5031,
      "ize": 5032,
      "▁mineral": 5033,
      "atisfaction": 5034,
      "▁dinos": 5035,
      "▁si": 5036,
      "▁thomas": 5037,
      "▁overwhel": 5038,
      "▁conservatives": 5039,
      "▁meet": 5040,
      "▁abs": 5041,
      "oni": 5042,
      "▁characteris": 5043,
      "▁supersed": 5044,
      "▁renew": 5045,
      "▁destro": 5046,
      "▁domains": 5047,
      "▁opener": 5048,
      "▁pact": 5049,
      "▁plur": 5050,
      "▁oakland": 5051,
      "▁coc": 5052,
      "ised": 5053,
      "▁!!!?": 5054,
      "▁elected": 5055,
      "▁ol": 5056,
      "▁pushed": 5057,
      "▁handled": 5058,
      "▁prints": 5059,
      "▁bad": 5060,
      "▁hood": 5061,
      "▁bedrooms": 5062,
      "▁tracked": 5063,
      "▁behavior": 5064,
      "▁em": 5065,
      "▁transp": 5066,
      "▁questionnaires": 5067,
      "▁injection": 5068,
      "▁gratitude": 5069,
      "pletely": 5070,
      "oplane": 5071,
      "▁blinking": 5072,
      "▁cake": 5073,
      "oitation": 5074,
      "▁thx": 5075,
      "▁willingness": 5076,
      "aster": 5077,
      "▁recordings": 5078,
      "▁topic": 5079,
      "▁charco": 5080,
      "▁wizards": 5081,
      "alous": 5082,
      "▁couple": 5083,
      "▁blanket": 5084,
      "ceptions": 5085,
      "▁writings": 5086,
      "▁ranger": 5087,
      "▁dang": 5088,
      "ctions": 5089,
      "fts": 5090,
      "-g": 5091,
      "▁cookie": 5092,
      "istr": 5093,
      "▁sovereignty": 5094,
      "▁revised": 5095,
      "alists": 5096,
      "u": 5097,
      "▁assisted": 5098,
      "store": 5099,
      "▁constitute": 5100,
      "▁launched": 5101,
      "/ps": 5102,
      "▁yeah": 5103,
      "h": 5104,
      "oughly": 5105,
      "oma": 5106,
      "▁sonnets": 5107,
      "▁against": 5108,
      "▁sorr": 5109,
      "▁vari": 5110,
      "▁technician": 5111,
      "▁tush": 5112,
      "▁players": 5113,
      "▁onions": 5114,
      "▁certainty": 5115,
      "▁correction": 5116,
      "▁occupies": 5117,
      "▁bef": 5118,
      "riers": 5119,
      "▁engaging": 5120,
      "obyl": 5121,
      "▁spaced": 5122,
      "unately": 5123,
      "sting": 5124,
      "▁trag": 5125,
      "▁gulf": 5126,
      "▁omission": 5127,
      "acked": 5128,
      "▁avoided": 5129,
      "▁dishwasher": 5130,
      "▁intend": 5131,
      "▁sow": 5132,
      "oral": 5133,
      "▁leather": 5134,
      "▁vehicle": 5135,
      "▁purchasing": 5136,
      "▁mutants": 5137,
      "▁invited": 5138,
      "▁bible": 5139,
      "▁fig": 5140,
      "▁course": 5141,
      "▁shrimp": 5142,
      "▁mechanism": 5143,
      "▁ringlets": 5144,
      "▁or": 5145,
      "orts": 5146,
      ".8": 5147,
      "▁elephants": 5148,
      "▁forum": 5149,
      "▁inside": 5150,
      "mb": 5151,
      "▁sunburn": 5152,
      "gl": 5153,
      "▁exercised": 5154,
      "▁close": 5155,
      "▁homeopathy": 5156,
      "inating": 5157,
      "▁rotating": 5158,
      "lands": 5159,
      "▁plain": 5160,
      "▁x": 5161,
      "▁fifteen": 5162,
      "▁—": 5163,
      "▁reit": 5164,
      "▁garbage": 5165,
      "▁essentially": 5166,
      "▁rem": 5167,
      "▁intake": 5168,
      "▁pose": 5169,
      "ig": 5170,
      "unds": 5171,
      "▁tapering": 5172,
      "▁jum": 5173,
      "ald": 5174,
      "▁h": 5175,
      "▁independence": 5176,
      "▁resisted": 5177,
      "▁dressed": 5178,
      "▁sweats": 5179,
      "▁w/": 5180,
      "▁lobster": 5181,
      "▁investing": 5182,
      "▁report": 5183,
      "▁programmes": 5184,
      "▁shop": 5185,
      "▁devices": 5186,
      "▁fas": 5187,
      "▁scienti": 5188,
      "03": 5189,
      "▁sculptures": 5190,
      "▁achie": 5191,
      "▁procedures": 5192,
      "▁make": 5193,
      "▁tonight": 5194,
      "▁utterance": 5195,
      "pite": 5196,
      "ritation": 5197,
      "▁solem": 5198,
      "▁differential": 5199,
      "▁trading": 5200,
      "▁compar": 5201,
      "▁bedding": 5202,
      "▁ld2d-#6939": 5203,
      "▁poc": 5204,
      "▁earthquake": 5205,
      "▁debts": 5206,
      "▁gis": 5207,
      "▁prayer": 5208,
      "▁marketing": 5209,
      "▁hug": 5210,
      "▁dough": 5211,
      "▁fug": 5212,
      "▁climate": 5213,
      "▁collecting": 5214,
      "▁create": 5215,
      "orded": 5216,
      "▁palate": 5217,
      "iner": 5218,
      "▁controlling": 5219,
      "oozing": 5220,
      "za": 5221,
      "▁built": 5222,
      "<": 5223,
      "▁bureaucracy": 5224,
      "rors": 5225,
      "iled": 5226,
      "▁pouch": 5227,
      "+re": 5228,
      "▁works": 5229,
      "backs": 5230,
      "▁founders": 5231,
      "▁paired": 5232,
      "▁heads": 5233,
      "▁silver": 5234,
      "▁attorneys": 5235,
      "▁officer": 5236,
      "▁comes": 5237,
      "▁gest": 5238,
      "▁ignored": 5239,
      ",000": 5240,
      "etter": 5241,
      "▁bush": 5242,
      "▁contact": 5243,
      "stances": 5244,
      "▁knowing": 5245,
      "▁pretended": 5246,
      "▁frequent": 5247,
      "▁sticks": 5248,
      "▁ps": 5249,
      "▁crisis": 5250,
      "▁ev": 5251,
      "/2000": 5252,
      "▁renovation": 5253,
      "lav": 5254,
      "▁playroom": 5255,
      "▁may": 5256,
      "▁pump": 5257,
      "▁approach": 5258,
      "▁dying": 5259,
      "▁discoveries": 5260,
      "zers": 5261,
      "▁toilet": 5262,
      "▁treaty": 5263,
      "▁gels": 5264,
      "▁buildings": 5265,
      "ently": 5266,
      "▁relationship": 5267,
      "▁fights": 5268,
      "▁licenses": 5269,
      "▁strikes": 5270,
      "ibilities": 5271,
      "▁reversal": 5272,
      "ger": 5273,
      "lessly": 5274,
      "▁stood": 5275,
      "▁numbness": 5276,
      "▁spos": 5277,
      "▁exclu": 5278,
      "▁items": 5279,
      "▁(": 5280,
      "▁spiders": 5281,
      "▁balt": 5282,
      "▁implementing": 5283,
      "afe": 5284,
      "▁1": 5285,
      "▁yo": 5286,
      "!?": 5287,
      "▁typ": 5288,
      "▁execute": 5289,
      "▁deal": 5290,
      "▁hoping": 5291,
      "▁scarf": 5292,
      "▁abandon": 5293,
      "▁prevent": 5294,
      "▁declar": 5295,
      "▁saying": 5296,
      "▁capture": 5297,
      "oting": 5298,
      "▁shad": 5299,
      "▁facebook": 5300,
      "▁engineering": 5301,
      "▁stopped": 5302,
      "▁collapsed": 5303,
      "▁delivering": 5304,
      "▁dictate": 5305,
      "▁combat": 5306,
      "▁compos": 5307,
      "▁crush": 5308,
      "cro": 5309,
      "▁bunch": 5310,
      "▁israeli": 5311,
      "▁thumb": 5312,
      "▁restriction": 5313,
      "▁exa": 5314,
      "▁ignor": 5315,
      "▁smile": 5316,
      "asses": 5317,
      "jud": 5318,
      "▁day": 5319,
      "▁small": 5320,
      "▁altitude": 5321,
      "f": 5322,
      "▁tourists": 5323,
      "▁enem": 5324,
      "▁cohesion": 5325,
      "▁bombing": 5326,
      "▁train": 5327,
      "▁syria": 5328,
      "▁balance": 5329,
      "▁planting": 5330,
      "▁throat": 5331,
      "▁waiting": 5332,
      "▁vine": 5333,
      "▁pennies": 5334,
      "▁gripped": 5335,
      "▁proceeds": 5336,
      "▁pall": 5337,
      "▁voting": 5338,
      "saw": 5339,
      "▁cleanup": 5340,
      "▁grabbed": 5341,
      "▁immigration": 5342,
      "▁reviewed": 5343,
      "▁wire": 5344,
      "mest": 5345,
      "finger": 5346,
      "▁beach": 5347,
      "▁checks": 5348,
      "▁apart": 5349,
      "▁sho": 5350,
      "▁rob": 5351,
      "▁adapt": 5352,
      "▁zinc": 5353,
      "▁hotdog": 5354,
      "ically": 5355,
      "▁facilities": 5356,
      "▁moor": 5357,
      "inity": 5358,
      "▁william": 5359,
      "lus": 5360,
      "enter": 5361,
      "bal": 5362,
      "▁latest": 5363,
      "▁hockey": 5364,
      "▁gloom": 5365,
      "▁results": 5366,
      "lds": 5367,
      "▁pros": 5368,
      "▁agents": 5369,
      "▁everybody": 5370,
      "▁od": 5371,
      "▁octop": 5372,
      "▁tasting": 5373,
      "▁tor": 5374,
      "overing": 5375,
      "▁baggage": 5376,
      "_re": 5377,
      "▁isda": 5378,
      "▁harmonised": 5379,
      "file": 5380,
      "▁monks": 5381,
      "▁reck": 5382,
      "▁squ": 5383,
      "▁quartiles": 5384,
      "▁hurts": 5385,
      "▁counterfe": 5386,
      "onds": 5387,
      "▁nickel": 5388,
      "▁inv": 5389,
      "ented": 5390,
      "▁sunk": 5391,
      "▁tugged": 5392,
      "phone": 5393,
      "ibb": 5394,
      "▁facet": 5395,
      "in'": 5396,
      "▁rides": 5397,
      "eu": 5398,
      "▁stimuli": 5399,
      "▁..": 5400,
      "▁refusing": 5401,
      "wit": 5402,
      "ides": 5403,
      "cuse": 5404,
      "ency": 5405,
      "▁speck": 5406,
      "oks": 5407,
      "▁ranked": 5408,
      "▁determ": 5409,
      "▁interested": 5410,
      "rum": 5411,
      "▁nana": 5412,
      "▁arabs": 5413,
      "▁fuel": 5414,
      "▁acqu": 5415,
      "imum": 5416,
      "sen": 5417,
      "▁wor": 5418,
      "ya": 5419,
      "▁oatmeal": 5420,
      "▁tupper": 5421,
      "▁founding": 5422,
      "icking": 5423,
      "▁birthday": 5424,
      "▁indi": 5425,
      "flies": 5426,
      "▁freely": 5427,
      "ades": 5428,
      "▁sunshine": 5429,
      "▁env": 5430,
      "▁sculp": 5431,
      "▁broccoli": 5432,
      "▁wid": 5433,
      "▁direc": 5434,
      "▁dischar": 5435,
      "▁discont": 5436,
      "urned": 5437,
      "ill": 5438,
      "▁passes": 5439,
      "aste": 5440,
      "ronym": 5441,
      "▁bottom": 5442,
      "▁experiments": 5443,
      "enex": 5444,
      "▁alongside": 5445,
      "▁trustee": 5446,
      "▁thr": 5447,
      "▁speech": 5448,
      "▁portion": 5449,
      "▁repe": 5450,
      "▁ste": 5451,
      "ressed": 5452,
      "▁cros": 5453,
      "▁broom": 5454,
      "▁chr": 5455,
      "▁pattern": 5456,
      "▁reapp": 5457,
      "▁joining": 5458,
      "▁jurisd": 5459,
      "pically": 5460,
      "bster": 5461,
      "▁restricted": 5462,
      "▁dais": 5463,
      "▁denom": 5464,
      "▁dreamed": 5465,
      "▁fits": 5466,
      "ke": 5467,
      "▁shoo": 5468,
      "▁indulged": 5469,
      "▁ld2d-#693": 5470,
      "▁monday": 5471,
      "ugh": 5472,
      "▁buses": 5473,
      "cery": 5474,
      "uf": 5475,
      "atograph": 5476,
      "▁findings": 5477,
      "▁needs": 5478,
      "▁proclaimed": 5479,
      "▁smooth": 5480,
      "▁8": 5481,
      "▁dare": 5482,
      "bscrib": 5483,
      "▁yourself": 5484,
      "▁diet": 5485,
      "ential": 5486,
      "both": 5487,
      "zer": 5488,
      "▁key": 5489,
      "▁pooping": 5490,
      "ason": 5491,
      "▁song": 5492,
      "▁mir": 5493,
      "▁radio": 5494,
      "uge": 5495,
      "▁provin": 5496,
      "istency": 5497,
      "▁produces": 5498,
      "▁defended": 5499,
      "quil": 5500,
      "▁format": 5501,
      "▁chef": 5502,
      "▁clip": 5503,
      "ais": 5504,
      "▁suit": 5505,
      "gic": 5506,
      "▁scrub": 5507,
      "▁waterways": 5508,
      "food": 5509,
      "▁lifted": 5510,
      "inu": 5511,
      "lers": 5512,
      "▁gri": 5513,
      "▁lect": 5514,
      "▁fend": 5515,
      "et": 5516,
      "ful": 5517,
      "▁attacking": 5518,
      "enn": 5519,
      "olis": 5520,
      "▁protested": 5521,
      "▁illness": 5522,
      "▁highly": 5523,
      "▁yar": 5524,
      "▁suppl": 5525,
      "▁cancel": 5526,
      "ational": 5527,
      "paper": 5528,
      "▁pests": 5529,
      "erved": 5530,
      "▁sides": 5531,
      "anged": 5532,
      "tias": 5533,
      "▁similar": 5534,
      "▁carrots": 5535,
      "▁saving": 5536,
      "▁beans": 5537,
      "▁agent": 5538,
      "▁spots": 5539,
      "▁so": 5540,
      "imed": 5541,
      "▁exploitation": 5542,
      "▁drawer": 5543,
      "▁audiences": 5544,
      "lete": 5545,
      "▁separated": 5546,
      "▁recently": 5547,
      "▁sub": 5548,
      "▁1970s": 5549,
      "▁mentality": 5550,
      "▁encoun": 5551,
      "▁agreements": 5552,
      "▁long": 5553,
      "sid": 5554,
      "ye": 5555,
      "▁will": 5556,
      "▁maps": 5557,
      "akistan": 5558,
      "▁interpre": 5559,
      "▁coff": 5560,
      "veland": 5561,
      "▁chinese": 5562,
      "▁play+": 5563,
      "▁persists": 5564,
      "▁holding": 5565,
      "ativeness": 5566,
      "▁magazine": 5567,
      "▁lids": 5568,
      "▁scott": 5569,
      "▁skills": 5570,
      "▁popped": 5571,
      "▁targeting": 5572,
      "▁outwe": 5573,
      "iny": 5574,
      "sequently": 5575,
      "▁hosp": 5576,
      "▁organizing": 5577,
      "▁yield": 5578,
      "dog": 5579,
      "▁strol": 5580,
      "rill": 5581,
      "▁mates": 5582,
      "▁shipping": 5583,
      "▁slid": 5584,
      "▁paintings": 5585,
      "▁outl": 5586,
      "▁sme": 5587,
      "▁customs": 5588,
      "▁marking": 5589,
      "▁rap": 5590,
      "▁blueberry": 5591,
      "▁prere": 5592,
      "▁ecli": 5593,
      "▁rhinoc": 5594,
      "▁powers": 5595,
      "ething": 5596,
      "▁crawling": 5597,
      "▁quickly": 5598,
      "▁already": 5599,
      "nly": 5600,
      "▁mov": 5601,
      "▁beyon": 5602,
      "▁creative": 5603,
      "▁cheek": 5604,
      "▁handles": 5605,
      "▁introduc": 5606,
      "▁accum": 5607,
      "▁judged": 5608,
      "▁guacamole": 5609,
      "▁baba": 5610,
      "▁musharraf": 5611,
      "▁afflic": 5612,
      ".2": 5613,
      "▁deserves": 5614,
      "ope": 5615,
      "▁rel": 5616,
      "▁offspring": 5617,
      "53": 5618,
      "▁preven": 5619,
      "▁bought": 5620,
      "▁setoff": 5621,
      "▁asc": 5622,
      "▁attendance": 5623,
      "uit": 5624,
      "▁slavery": 5625,
      "rad": 5626,
      "▁lean": 5627,
      "▁rag": 5628,
      "onym": 5629,
      "▁spilling": 5630,
      "▁muffs": 5631,
      "▁opponents": 5632,
      "▁carrot": 5633,
      "▁tiss": 5634,
      "▁discouraged": 5635,
      "▁safety": 5636,
      "irling": 5637,
      "vern": 5638,
      "-cl": 5639,
      "cently": 5640,
      "▁vaccine": 5641,
      "▁transmitted": 5642,
      "▁de": 5643,
      "ized": 5644,
      "▁bottoms": 5645,
      "▁enforcement": 5646,
      "▁managing": 5647,
      "ic": 5648,
      "▁geof": 5649,
      "▁dess": 5650,
      "falls": 5651,
      "▁meg": 5652,
      "▁times": 5653,
      "▁collections": 5654,
      "▁shut": 5655,
      "▁known": 5656,
      "▁bar": 5657,
      "▁bust": 5658,
      "▁transport": 5659,
      "▁emerged": 5660,
      "▁print": 5661,
      "▁rebuild": 5662,
      "▁lord": 5663,
      "▁internship": 5664,
      "▁waitresses": 5665,
      "▁enclosed": 5666,
      "▁switch": 5667,
      "----------": 5668,
      "arded": 5669,
      "▁lawyers": 5670,
      "▁flood": 5671,
      "▁bind": 5672,
      "les": 5673,
      "▁bos": 5674,
      "▁awa": 5675,
      "▁primarily": 5676,
      "▁phenomena": 5677,
      "paste": 5678,
      "▁dolls": 5679,
      "▁coop": 5680,
      "▁patient": 5681,
      "▁brown": 5682,
      "▁aud": 5683,
      "▁p.s": 5684,
      "elected": 5685,
      "▁redeem": 5686,
      "iates": 5687,
      "▁cors": 5688,
      "▁strengthen": 5689,
      "▁charging": 5690,
      "▁belie": 5691,
      "▁-": 5692,
      "▁independ": 5693,
      "ι": 5694,
      "▁restaur": 5695,
      "▁confidence": 5696,
      "z": 5697,
      "▁flakes": 5698,
      "▁implies": 5699,
      "▁stret": 5700,
      "apping": 5701,
      "awn": 5702,
      "▁trot": 5703,
      "▁valu": 5704,
      "▁teaches": 5705,
      "▁implementation": 5706,
      "▁30th": 5707,
      "hel": 5708,
      "uals": 5709,
      "▁union": 5710,
      "▁inequality": 5711,
      "▁traders": 5712,
      "▁revenues": 5713,
      "▁yet": 5714,
      "▁altern": 5715,
      "uations": 5716,
      "▁farce": 5717,
      "▁sout": 5718,
      "▁stolen": 5719,
      "▁fy0": 5720,
      "▁kick": 5721,
      "▁mr": 5722,
      "▁rewards": 5723,
      "▁describing": 5724,
      "▁another": 5725,
      "▁rats": 5726,
      "▁witn": 5727,
      "▁washington": 5728,
      "▁pains": 5729,
      "een": 5730,
      "-o": 5731,
      "enas": 5732,
      "▁allowed": 5733,
      "▁rumbling": 5734,
      "▁vs.": 5735,
      "90": 5736,
      "▁catalog": 5737,
      "▁rout": 5738,
      "key": 5739,
      "▁sci": 5740,
      "▁sings": 5741,
      "▁waived": 5742,
      "▁figured": 5743,
      "▁obe": 5744,
      "ondad": 5745,
      "▁rev": 5746,
      "ai": 5747,
      "▁responses": 5748,
      "▁interrupted": 5749,
      "wide": 5750,
      "▁numerous": 5751,
      "▁wan": 5752,
      "▁instinct": 5753,
      "▁buy": 5754,
      "▁mel": 5755,
      "dent": 5756,
      "self": 5757,
      "▁became": 5758,
      "▁superseding": 5759,
      "▁nutri": 5760,
      "▁vintage": 5761,
      "▁locals": 5762,
      "▁thro": 5763,
      "▁wilderness": 5764,
      "▁beeper": 5765,
      "▁guarant": 5766,
      "omed": 5767,
      "▁handle": 5768,
      "▁pollution": 5769,
      "▁delay": 5770,
      "▁northeast": 5771,
      "▁reason": 5772,
      "▁anthropologist": 5773,
      "▁extremists": 5774,
      "▁favoured": 5775,
      "gated": 5776,
      "▁grandma": 5777,
      "▁patter": 5778,
      "▁him": 5779,
      "▁alert": 5780,
      "▁profits": 5781,
      "▁vulnerability": 5782,
      "▁celebration": 5783,
      "▁generations": 5784,
      "▁colonization": 5785,
      "erman": 5786,
      "▁found": 5787,
      "▁give": 5788,
      "▁rotation": 5789,
      "▁missed": 5790,
      "▁lasted": 5791,
      "▁link": 5792,
      "▁ut": 5793,
      "tak": 5794,
      "▁bus": 5795,
      "▁targ": 5796,
      "▁sweep": 5797,
      "▁.": 5798,
      "▁catast": 5799,
      "rec": 5800,
      ".1": 5801,
      "loying": 5802,
      "xce": 5803,
      "▁sample": 5804,
      "▁citations": 5805,
      "▁eggs": 5806,
      "▁flaw": 5807,
      "▁battling": 5808,
      "▁ori": 5809,
      "▁collaborate": 5810,
      "nic": 5811,
      "ghting": 5812,
      "overy": 5813,
      "▁bananas": 5814,
      "▁parking": 5815,
      "▁nervous": 5816,
      "▁passage": 5817,
      "▁qa": 5818,
      "▁lion": 5819,
      "asa": 5820,
      "▁happened": 5821,
      "!!!!!!!!": 5822,
      "▁weakness": 5823,
      "▁targets": 5824,
      "▁died": 5825,
      "▁taste": 5826,
      "azz": 5827,
      "50s": 5828,
      "s.": 5829,
      "▁restruc": 5830,
      "▁sculpture": 5831,
      "▁anyth": 5832,
      "▁solicit": 5833,
      "ort": 5834,
      "▁surprises": 5835,
      "▁ethics": 5836,
      "ply": 5837,
      "▁indicate": 5838,
      "▁sup": 5839,
      "▁waffle": 5840,
      "▁wad": 5841,
      "▁simply": 5842,
      "aks": 5843,
      "▁cotton": 5844,
      "▁coincides": 5845,
      "▁duty": 5846,
      "▁newsgroup": 5847,
      "▁arrayed": 5848,
      "orth": 5849,
      "▁counted": 5850,
      "▁smoothie": 5851,
      "▁campus": 5852,
      "▁tags": 5853,
      "ates": 5854,
      "where": 5855,
      "▁among": 5856,
      "ackets": 5857,
      "umph": 5858,
      "▁told": 5859,
      "esame": 5860,
      "▁installing": 5861,
      "▁puss": 5862,
      "▁hints": 5863,
      "▁updated": 5864,
      "▁galax": 5865,
      "▁villages": 5866,
      "▁spot": 5867,
      "▁painted": 5868,
      "▁active": 5869,
      "co": 5870,
      "▁clause": 5871,
      "fore": 5872,
      "90s": 5873,
      "enuity": 5874,
      "ament": 5875,
      "roduc": 5876,
      "▁yelled": 5877,
      "▁timing": 5878,
      "▁afric": 5879,
      "w": 5880,
      "&b": 5881,
      "▁days": 5882,
      "ars": 5883,
      "▁workforce": 5884,
      "hension": 5885,
      "▁sector": 5886,
      "tician": 5887,
      "▁answered": 5888,
      "▁nos": 5889,
      "▁prevention": 5890,
      "▁inclusion": 5891,
      "▁dan": 5892,
      "▁anyway": 5893,
      "▁whiff": 5894,
      "▁stim": 5895,
      "cillas": 5896,
      "▁parti": 5897,
      "▁feature": 5898,
      "▁squeak": 5899,
      "▁dramati": 5900,
      "▁feels": 5901,
      "▁gift": 5902,
      "ords": 5903,
      "egr": 5904,
      "▁lawn": 5905,
      "▁fox": 5906,
      "▁leaning": 5907,
      "forcement": 5908,
      "▁insist": 5909,
      "▁cold": 5910,
      "▁scrap": 5911,
      "▁shakes": 5912,
      "▁standing": 5913,
      "ovation": 5914,
      "acter": 5915,
      "uil": 5916,
      "▁ha": 5917,
      "fic": 5918,
      "ado": 5919,
      "▁dispute": 5920,
      "agging": 5921,
      "▁exiled": 5922,
      "▁almon": 5923,
      "▁tanks": 5924,
      "tain": 5925,
      "▁interact": 5926,
      "▁threats": 5927,
      "▁echo": 5928,
      "essed": 5929,
      "▁lipstick": 5930,
      "sul": 5931,
      "▁disadvant": 5932,
      "alizations": 5933,
      "itch": 5934,
      "▁flags": 5935,
      "lium": 5936,
      "▁arg": 5937,
      "▁details": 5938,
      "impl": 5939,
      "▁commits": 5940,
      "▁thwar": 5941,
      "▁karen": 5942,
      "▁cauldron": 5943,
      "▁pse": 5944,
      "▁mad": 5945,
      "lier": 5946,
      "▁earli": 5947,
      "▁nuts": 5948,
      "▁character": 5949,
      "▁stretch": 5950,
      "▁hamb": 5951,
      "▁ld2d-#69345": 5952,
      "▁questionnaire": 5953,
      "▁buried": 5954,
      "bod": 5955,
      "▁713": 5956,
      "▁applic": 5957,
      "▁fill": 5958,
      "▁excl": 5959,
      "uncture": 5960,
      "ima": 5961,
      "▁compete": 5962,
      "con": 5963,
      "orting": 5964,
      "dress": 5965,
      "▁artill": 5966,
      "sical": 5967,
      "acles": 5968,
      "ek": 5969,
      "ining": 5970,
      "▁ed": 5971,
      "▁pivotchart": 5972,
      "▁harmonisation": 5973,
      "arding": 5974,
      "▁borne": 5975,
      "▁doctr": 5976,
      "▁fit": 5977,
      "▁pl": 5978,
      "▁aunt": 5979,
      "▁rabbits": 5980,
      "form": 5981,
      "▁need": 5982,
      "▁mornings": 5983,
      "▁pepper": 5984,
      "child": 5985,
      "▁puffs": 5986,
      "▁embargo": 5987,
      "▁norton": 5988,
      "▁mama": 5989,
      "▁epm": 5990,
      "uation": 5991,
      "bee": 5992,
      "▁propping": 5993,
      "▁mare": 5994,
      "▁conjunction": 5995,
      "▁excepted": 5996,
      "▁abide": 5997,
      "▁dug": 5998,
      "▁petersburg": 5999,
      "essment": 6000,
      "▁compares": 6001,
      "▁bordered": 6002,
      "▁processor": 6003,
      "▁occurring": 6004,
      "▁numb": 6005,
      "▁decade": 6006,
      "▁killing": 6007,
      "▁adjusters": 6008,
      "▁researchers": 6009,
      "arism": 6010,
      "▁alt": 6011,
      "▁research": 6012,
      "▁borrowed": 6013,
      "yalist": 6014,
      "osed": 6015,
      "▁tracking": 6016,
      "▁neighbor": 6017,
      "▁fu": 6018,
      "▁reins": 6019,
      "▁varied": 6020,
      "▁packet": 6021,
      "▁wrapped": 6022,
      "▁discom": 6023,
      "▁rabbi": 6024,
      "▁motto": 6025,
      "idding": 6026,
      "elty": 6027,
      "▁quarters": 6028,
      "▁delive": 6029,
      "▁paw": 6030,
      "▁careful": 6031,
      "▁burbank": 6032,
      "▁politician": 6033,
      "▁saw": 6034,
      "▁proportion": 6035,
      "▁ecommerce": 6036,
      "▁cance": 6037,
      "▁exerc": 6038,
      "uction": 6039,
      "▁dusting": 6040,
      "▁foc": 6041,
      "▁overhead": 6042,
      "lies": 6043,
      "▁wang": 6044,
      "ned": 6045,
      "▁played": 6046,
      "▁panted": 6047,
      "▁accommodation": 6048,
      "pers": 6049,
      "fficient": 6050,
      "▁classroom": 6051,
      "▁wizard": 6052,
      "▁browsers": 6053,
      "▁reaches": 6054,
      "rophe": 6055,
      "▁rbi": 6056,
      "▁1991": 6057,
      "▁waterway": 6058,
      "▁counting": 6059,
      "▁meaning": 6060,
      "▁chute": 6061,
      "▁arti": 6062,
      ".": 6063,
      "▁equal": 6064,
      "esses": 6065,
      "▁dive": 6066,
      "▁authorities": 6067,
      "0": 6068,
      "oodle": 6069,
      "▁trous": 6070,
      "▁moral": 6071,
      "▁participating": 6072,
      "yst": 6073,
      "▁copying": 6074,
      "▁mo": 6075,
      "▁retraction": 6076,
      "|": 6077,
      "▁cock": 6078,
      "▁require": 6079,
      "▁jos": 6080,
      "▁rapids": 6081,
      "▁intranet": 6082,
      "▁cleveland": 6083,
      "asting": 6084,
      "air": 6085,
      "▁required": 6086,
      "▁protege": 6087,
      "▁individual": 6088,
      "▁plenty": 6089,
      "▁crying": 6090,
      "▁witch": 6091,
      "▁representative": 6092,
      "▁moisture": 6093,
      "▁olds": 6094,
      "▁shud": 6095,
      "ways": 6096,
      "▁yes": 6097,
      "▁reporting": 6098,
      "elled": 6099,
      "attering": 6100,
      "▁ak47": 6101,
      "▁rift": 6102,
      "▁vod": 6103,
      "▁snake": 6104,
      "▁squi": 6105,
      "▁origin": 6106,
      "29": 6107,
      "▁decree": 6108,
      "▁peninsula": 6109,
      "▁push": 6110,
      "▁claimed": 6111,
      "▁attracted": 6112,
      "▁beast": 6113,
      "antee": 6114,
      "▁sab": 6115,
      "▁---=": 6116,
      "▁tragicomed": 6117,
      "▁immunity": 6118,
      "l": 6119,
      "▁theater": 6120,
      "▁implications": 6121,
      "▁mix": 6122,
      "▁afgh": 6123,
      "▁across": 6124,
      "oin": 6125,
      "▁bes": 6126,
      "▁good": 6127,
      "▁longer": 6128,
      "▁bre": 6129,
      "▁charged": 6130,
      "▁tum": 6131,
      "▁phot": 6132,
      "▁revenue": 6133,
      "▁chief": 6134,
      "▁crayon": 6135,
      "▁storing": 6136,
      "ursed": 6137,
      "▁stirrup": 6138,
      "▁ankles": 6139,
      "▁oak": 6140,
      "▁yogurt": 6141,
      "▁enabling": 6142,
      "▁rules": 6143,
      "▁greatness": 6144,
      "▁process": 6145,
      "▁slides": 6146,
      "orit": 6147,
      "▁gir": 6148,
      "▁numbers": 6149,
      "▁hand": 6150,
      "▁alig": 6151,
      "▁interf": 6152,
      "▁tab": 6153,
      "▁conspiracy": 6154,
      "ishing": 6155,
      "▁delta": 6156,
      "▁cottage": 6157,
      "aki": 6158,
      "eks": 6159,
      "aus": 6160,
      "▁sal": 6161,
      "▁stan": 6162,
      "▁campaigns": 6163,
      "▁reminded": 6164,
      "▁suff": 6165,
      "▁gradu": 6166,
      "▁tobacco": 6167,
      "▁sie": 6168,
      "▁impro": 6169,
      "▁debr": 6170,
      "▁lbs": 6171,
      "bye": 6172,
      "▁network": 6173,
      "▁discovered": 6174,
      "▁califor": 6175,
      "▁accordance": 6176,
      "▁1st": 6177,
      "▁stockings": 6178,
      "▁drawers": 6179,
      "‘": 6180,
      "eas": 6181,
      "urities": 6182,
      "▁ease": 6183,
      "▁remained": 6184,
      "uct": 6185,
      "▁forearm": 6186,
      "▁bail": 6187,
      "moil": 6188,
      "▁hovered": 6189,
      "▁bankruptcy": 6190,
      "▁october": 6191,
      "▁administered": 6192,
      "▁submission": 6193,
      "ertain": 6194,
      "▁beings": 6195,
      "▁consorti": 6196,
      "entil": 6197,
      "▁traged": 6198,
      "ican": 6199,
      "amet": 6200,
      "▁2012": 6201,
      "▁recyc": 6202,
      "nif": 6203,
      "▁catch": 6204,
      "▁person": 6205,
      "▁hash": 6206,
      "▁slime": 6207,
      "▁block": 6208,
      "▁staring": 6209,
      "▁publishing": 6210,
      "ocity": 6211,
      "▁rud": 6212,
      "▁stroke": 6213,
      "▁annotated": 6214,
      "onto": 6215,
      "▁mmbt": 6216,
      "▁10": 6217,
      "▁lower": 6218,
      "urch": 6219,
      "▁trait": 6220,
      "▁better": 6221,
      "chester": 6222,
      "▁incub": 6223,
      "▁dress": 6224,
      "▁blended": 6225,
      "▁summ": 6226,
      "▁altar": 6227,
      "▁1980s": 6228,
      "▁previously": 6229,
      "▁understood": 6230,
      "▁underm": 6231,
      "▁idiots": 6232,
      "▁tend": 6233,
      "▁whe": 6234,
      "▁vow": 6235,
      "▁merely": 6236,
      "▁knight": 6237,
      "▁takes": 6238,
      "▁signature": 6239,
      "▁libraries": 6240,
      "▁replace": 6241,
      "dies": 6242,
      "ob": 6243,
      "qual": 6244,
      "▁spelling": 6245,
      "▁ate": 6246,
      "▁proph": 6247,
      "▁emit": 6248,
      "▁maint": 6249,
      "▁targeted": 6250,
      "▁colonel": 6251,
      "▁surrounded": 6252,
      "▁edit": 6253,
      "▁speakers": 6254,
      "ific": 6255,
      "▁convinced": 6256,
      "▁assure": 6257,
      "▁survivors": 6258,
      "▁/": 6259,
      "▁dozens": 6260,
      "cking": 6261,
      "▁pestic": 6262,
      "-wood": 6263,
      "▁excited": 6264,
      "▁mitigated": 6265,
      "▁clouds": 6266,
      "▁bead": 6267,
      "▁salon": 6268,
      "▁159": 6269,
      "▁lets": 6270,
      "▁fundamental": 6271,
      "▁broc": 6272,
      "▁structured": 6273,
      "▁firms": 6274,
      "▁interaction": 6275,
      "▁migr": 6276,
      "ighed": 6277,
      "▁cashout": 6278,
      "▁expecting": 6279,
      "▁modem": 6280,
      "▁animals": 6281,
      "▁polaro": 6282,
      "▁clic": 6283,
      "▁needles": 6284,
      "▁enchiladas": 6285,
      "▁api": 6286,
      "eneration": 6287,
      "▁freight": 6288,
      "ials": 6289,
      "▁max": 6290,
      "▁flowers": 6291,
      "ve": 6292,
      "▁cle": 6293,
      "pes": 6294,
      "▁interest": 6295,
      "▁chee": 6296,
      "iration": 6297,
      "•": 6298,
      "▁terrorist": 6299,
      "▁ducked": 6300,
      "▁viewers": 6301,
      "▁contexts": 6302,
      "▁serviced": 6303,
      "rus": 6304,
      "▁admiration": 6305,
      "▁socks": 6306,
      "▁headquarters": 6307,
      "fer": 6308,
      "▁roo": 6309,
      "▁stra": 6310,
      "▁cem": 6311,
      "▁nash": 6312,
      "▁slip": 6313,
      "yi": 6314,
      "▁deter": 6315,
      "▁stayed": 6316,
      "▁spanking": 6317,
      "omb": 6318,
      "enron.com": 6319,
      "▁seized": 6320,
      "▁multipl": 6321,
      "▁stored": 6322,
      "▁techniques": 6323,
      "▁submarines": 6324,
      "lico": 6325,
      "▁procrastination": 6326,
      "tionally": 6327,
      "▁pledge": 6328,
      "▁admitted": 6329,
      "▁developed": 6330,
      "▁addresses": 6331,
      "▁acad": 6332,
      "▁operation": 6333,
      "▁conference": 6334,
      "reds": 6335,
      "jection": 6336,
      "pol": 6337,
      "▁implicated": 6338,
      "▁fus": 6339,
      "▁judgment": 6340,
      "▁art": 6341,
      "▁swim": 6342,
      "▁packs": 6343,
      "▁dances": 6344,
      "▁nearly": 6345,
      "▁filed": 6346,
      "▁refund": 6347,
      "ware": 6348,
      "▁palace": 6349,
      "▁prediction": 6350,
      "▁snort": 6351,
      "▁women": 6352,
      "▁steps": 6353,
      "▁propaganda": 6354,
      "▁weak": 6355,
      "▁resident": 6356,
      "oneering": 6357,
      "▁psych": 6358,
      "▁isl": 6359,
      "▁request": 6360,
      "emark": 6361,
      "▁upload": 6362,
      "ffle": 6363,
      "▁hij": 6364,
      "▁whispered": 6365,
      "▁crews": 6366,
      "▁moon": 6367,
      "▁inher": 6368,
      "acting": 6369,
      "string": 6370,
      "iating": 6371,
      "▁colleges": 6372,
      "▁hes": 6373,
      "▁wanting": 6374,
      "ousness": 6375,
      "▁embed": 6376,
      "▁inno": 6377,
      "▁fool": 6378,
      "aling": 6379,
      "eeing": 6380,
      "▁lego": 6381,
      "▁united": 6382,
      "▁puff": 6383,
      "▁mouths": 6384,
      "tis": 6385,
      "▁convers": 6386,
      "ama": 6387,
      "idency": 6388,
      "▁discovery": 6389,
      "▁dem": 6390,
      "▁pyramid": 6391,
      "▁germ": 6392,
      "▁stating": 6393,
      "od": 6394,
      "▁useful": 6395,
      "grad": 6396,
      "▁self": 6397,
      "▁plunge": 6398,
      "ages": 6399,
      "▁hence": 6400,
      "▁graduated": 6401,
      "▁significant": 6402,
      "▁group": 6403,
      "▁visit": 6404,
      "▁rifle": 6405,
      "chup": 6406,
      "▁nonsense": 6407,
      "▁loads": 6408,
      "ley": 6409,
      "▁chapter": 6410,
      "alation": 6411,
      "▁0": 6412,
      "▁empathy": 6413,
      "▁9th": 6414,
      "alties": 6415,
      "▁opposition": 6416,
      "▁absorbed": 6417,
      "▁hairs": 6418,
      "▁aston": 6419,
      "jected": 6420,
      "▁hedge": 6421,
      "utin": 6422,
      "▁haul": 6423,
      "▁surviving": 6424,
      "▁chaos": 6425,
      "▁ske": 6426,
      "▁kins": 6427,
      "asel": 6428,
      "▁gnomes": 6429,
      "▁sympath": 6430,
      "▁doo": 6431,
      "ires": 6432,
      "▁byp": 6433,
      "▁u.s.": 6434,
      "sus": 6435,
      "▁hm": 6436,
      "▁egy": 6437,
      "▁con": 6438,
      "▁discon": 6439,
      "chief": 6440,
      "▁vomit": 6441,
      "▁emitting": 6442,
      "▁~": 6443,
      "eachment": 6444,
      "igated": 6445,
      "▁forming": 6446,
      "▁winds": 6447,
      "▁jealousy": 6448,
      "ph": 6449,
      "verage": 6450,
      "&d": 6451,
      "inny": 6452,
      "▁bucks": 6453,
      "lear": 6454,
      "cle": 6455,
      "ron": 6456,
      "▁warl": 6457,
      "▁swinging": 6458,
      "aulted": 6459,
      "▁freak": 6460,
      "▁accident": 6461,
      "▁gunfire": 6462,
      "▁constitutions": 6463,
      "erti": 6464,
      "▁playwrights": 6465,
      "▁deteri": 6466,
      "▁seriously": 6467,
      "▁tam": 6468,
      "▁herbs": 6469,
      "▁pent": 6470,
      "▁amongst": 6471,
      "uated": 6472,
      "▁saf": 6473,
      "▁databases": 6474,
      "▁ireland": 6475,
      "▁blew": 6476,
      "▁>>": 6477,
      "▁frequently": 6478,
      "▁american": 6479,
      "aurs": 6480,
      "amb": 6481,
      "▁tin": 6482,
      "'": 6483,
      "lips": 6484,
      "▁argument": 6485,
      "▁uncertainty": 6486,
      "nocentrism": 6487,
      "▁garlic": 6488,
      "▁eta": 6489,
      "▁answ": 6490,
      "▁confirm": 6491,
      "chang": 6492,
      "▁doub": 6493,
      "▁insurgency": 6494,
      "ooding": 6495,
      "▁roots": 6496,
      "▁nor": 6497,
      "▁mayor": 6498,
      "▁shelter": 6499,
      "inking": 6500,
      "▁caring": 6501,
      "sp": 6502,
      "▁sandwic": 6503,
      "▁subd": 6504,
      "▁dipped": 6505,
      "▁symbols": 6506,
      "▁fem": 6507,
      "▁resemb": 6508,
      "▁mountains": 6509,
      "nuts": 6510,
      "zas": 6511,
      "▁gambit": 6512,
      "▁bright": 6513,
      "▁fish": 6514,
      "▁lighting": 6515,
      "▁=": 6516,
      "▁gravity": 6517,
      "▁evaluator": 6518,
      "▁kil": 6519,
      "▁doughnut": 6520,
      "▁base": 6521,
      "▁toile": 6522,
      "▁enthusiasts": 6523,
      "▁lengths": 6524,
      "lim": 6525,
      "▁aph": 6526,
      "▁cool": 6527,
      "▁wip": 6528,
      "▁lists": 6529,
      "▁compare": 6530,
      "▁snail": 6531,
      "ssible": 6532,
      "▁feat": 6533,
      "▁prepar": 6534,
      "▁prett": 6535,
      "entally": 6536,
      "▁war": 6537,
      "ycling": 6538,
      "▁semester": 6539,
      "▁estate": 6540,
      "▁mount": 6541,
      "legation": 6542,
      "▁pumped": 6543,
      "▁their": 6544,
      "▁universities": 6545,
      "▁cupcakes": 6546,
      "▁possession": 6547,
      "yone": 6548,
      "▁criticism": 6549,
      "▁vib": 6550,
      "▁reconsider": 6551,
      "▁misfortune": 6552,
      "▁except": 6553,
      "▁ideas": 6554,
      "▁sss": 6555,
      "▁sorry": 6556,
      "▁sleeve": 6557,
      "▁reserved": 6558,
      "ɑ": 6559,
      "▁camp": 6560,
      "▁timed": 6561,
      "▁500": 6562,
      "▁fares": 6563,
      "▁25": 6564,
      "rums": 6565,
      "▁styling": 6566,
      "iots": 6567,
      "▁lawyer": 6568,
      "keness": 6569,
      "▁pounce": 6570,
      "▁coalition": 6571,
      "▁election": 6572,
      "▁buttered": 6573,
      "▁craw": 6574,
      "▁sweetie": 6575,
      "▁images": 6576,
      "▁theodor": 6577,
      "▁val": 6578,
      "▁pasta": 6579,
      "▁pip": 6580,
      "▁some": 6581,
      "cake": 6582,
      "▁sri": 6583,
      "▁rather": 6584,
      "▁expanding": 6585,
      "▁pursue": 6586,
      "▁operas": 6587,
      "▁un": 6588,
      "phab": 6589,
      "atom": 6590,
      "▁ammon": 6591,
      "▁sustained": 6592,
      "▁pursuit": 6593,
      "lent": 6594,
      "▁cell": 6595,
      "▁hatch": 6596,
      "sc": 6597,
      "oot": 6598,
      "bra": 6599,
      "▁product": 6600,
      "▁mapping": 6601,
      "llation": 6602,
      "▁montreal": 6603,
      "icul": 6604,
      "------": 6605,
      "▁d'etat": 6606,
      "ents": 6607,
      "▁ga": 6608,
      "▁tech": 6609,
      "aos": 6610,
      "▁suc": 6611,
      "awatt": 6612,
      "subscrib": 6613,
      "▁usually": 6614,
      "▁cart": 6615,
      "erving": 6616,
      "▁masses": 6617,
      "ularly": 6618,
      "dict": 6619,
      "perc": 6620,
      "oir": 6621,
      "▁jewelry": 6622,
      "▁date": 6623,
      "wi": 6624,
      "▁burst": 6625,
      "▁rocks": 6626,
      "▁farrier": 6627,
      "▁ripped": 6628,
      "▁assu": 6629,
      "▁treating": 6630,
      "amed": 6631,
      "▁wax": 6632,
      "▁origins": 6633,
      "als": 6634,
      "▁9": 6635,
      "▁80": 6636,
      "▁gazing": 6637,
      "▁vehicles": 6638,
      "▁util": 6639,
      "▁rich": 6640,
      "olog": 6641,
      "▁vendors": 6642,
      "▁tutor": 6643,
      "▁.!": 6644,
      "▁weasel": 6645,
      "▁judges": 6646,
      "orist": 6647,
      "▁openness": 6648,
      "▁want": 6649,
      "-st": 6650,
      "▁quart": 6651,
      "▁loan": 6652,
      "▁proposal": 6653,
      "▁**": 6654,
      "▁confir": 6655,
      "▁copy": 6656,
      "▁vision": 6657,
      "▁owes": 6658,
      "▁horsie": 6659,
      "unk": 6660,
      "▁championship": 6661,
      "▁anticipate": 6662,
      "▁fired": 6663,
      "ano": 6664,
      "▁neph": 6665,
      "▁underp": 6666,
      "▁wangs": 6667,
      "▁default": 6668,
      "▁happiness": 6669,
      "▁repos": 6670,
      "hole": 6671,
      "light": 6672,
      "▁ehr": 6673,
      "ngth": 6674,
      "▁silk": 6675,
      "▁coconut": 6676,
      "▁counters": 6677,
      "▁thef": 6678,
      "attered": 6679,
      "▁quoted": 6680,
      "▁artworks": 6681,
      "▁single": 6682,
      "▁concentrate": 6683,
      "lization": 6684,
      "▁obtained": 6685,
      "▁reader": 6686,
      "▁followers": 6687,
      "▁sunlight": 6688,
      "rusted": 6689,
      "▁textile": 6690,
      "friends": 6691,
      "▁scientists": 6692,
      "sible": 6693,
      "iles": 6694,
      "ressing": 6695,
      "▁confused": 6696,
      "▁authority": 6697,
      "▁populations": 6698,
      "▁owns": 6699,
      "▁eagle": 6700,
      "▁athe": 6701,
      "▁squares": 6702,
      "▁poke": 6703,
      "▁proposes": 6704,
      "il": 6705,
      "▁successful": 6706,
      "▁...................": 6707,
      "▁unity": 6708,
      "▁shaking": 6709,
      "▁tha": 6710,
      "▁history": 6711,
      "▁awarded": 6712,
      "▁traditions": 6713,
      "▁stove": 6714,
      "▁i": 6715,
      "▁revival": 6716,
      "▁man": 6717,
      "▁compound": 6718,
      "▁captain": 6719,
      "▁calm": 6720,
      "dents": 6721,
      "it": 6722,
      "▁suburbs": 6723,
      "lections": 6724,
      "ches": 6725,
      "ten": 6726,
      "fil": 6727,
      "-sm": 6728,
      "▁quest": 6729,
      "▁moham": 6730,
      "▁shall": 6731,
      "▁==----": 6732,
      "▁fle": 6733,
      "▁assump": 6734,
      "▁pending": 6735,
      "atch": 6736,
      "rup": 6737,
      "▁lots": 6738,
      "▁transition": 6739,
      "▁evenings": 6740,
      "pre": 6741,
      "▁3": 6742,
      "go": 6743,
      "▁sleepy": 6744,
      "bil": 6745,
      "▁prizes": 6746,
      "▁convicts": 6747,
      "outu": 6748,
      "▁postures": 6749,
      "-6": 6750,
      "▁mummy": 6751,
      "tiality": 6752,
      "▁barrel": 6753,
      "▁thing": 6754,
      "eeds": 6755,
      "ergy": 6756,
      "▁phen": 6757,
      "▁vide": 6758,
      "gan": 6759,
      "’": 6760,
      "▁confidentiality": 6761,
      "▁vessel": 6762,
      "▁dimensions": 6763,
      "▁window": 6764,
      "▁visitor": 6765,
      "▁crown": 6766,
      "▁itiner": 6767,
      "▁likes": 6768,
      "▁plag": 6769,
      "liferation": 6770,
      "apped": 6771,
      "▁landed": 6772,
      "ached": 6773,
      "▁chew": 6774,
      "▁buck": 6775,
      "▁lacked": 6776,
      "▁market": 6777,
      "▁desc": 6778,
      "▁mig": 6779,
      "▁sn": 6780,
      "ribution": 6781,
      "▁ancest": 6782,
      "▁queue": 6783,
      "▁mortgage": 6784,
      "▁flesh": 6785,
      "▁accust": 6786,
      "▁routes": 6787,
      "▁beginners": 6788,
      "▁crack": 6789,
      "▁actors": 6790,
      "▁dots": 6791,
      "▁jur": 6792,
      "▁hambur": 6793,
      "▁imm": 6794,
      "▁dinosaurs": 6795,
      "▁dismissed": 6796,
      "▁tar": 6797,
      "▁ord": 6798,
      "▁badge": 6799,
      "iac": 6800,
      "▁lar": 6801,
      "▁leash": 6802,
      "me": 6803,
      "ooded": 6804,
      "▁inform": 6805,
      "▁spokes": 6806,
      "▁wat": 6807,
      "▁dw": 6808,
      "▁boundaries": 6809,
      "▁grumb": 6810,
      "▁shook": 6811,
      "▁sued": 6812,
      "cover": 6813,
      "▁arrival": 6814,
      "▁pit": 6815,
      "ocation": 6816,
      "erely": 6817,
      "▁distorts": 6818,
      "▁alterations": 6819,
      "▁hideout": 6820,
      "ything": 6821,
      "▁compelled": 6822,
      "icians": 6823,
      "▁occasions": 6824,
      "▁conditions": 6825,
      "▁headline": 6826,
      "xing": 6827,
      "▁obsf": 6828,
      "fect": 6829,
      "▁tonnes": 6830,
      "▁distribution": 6831,
      "▁pho": 6832,
      "ature": 6833,
      "▁most": 6834,
      "▁incorp": 6835,
      "▁fac": 6836,
      "▁media": 6837,
      "▁blue": 6838,
      "▁trained": 6839,
      "▁identify": 6840,
      "▁crowd": 6841,
      "▁mini": 6842,
      "▁hats": 6843,
      "bol": 6844,
      "dron": 6845,
      "arians": 6846,
      "▁flop": 6847,
      "alt": 6848,
      "tivity": 6849,
      "▁portra": 6850,
      "▁advancement": 6851,
      "gest": 6852,
      "▁beaters": 6853,
      "▁establishing": 6854,
      "▁collab": 6855,
      "▁spoons": 6856,
      "▁increases": 6857,
      "▁flashing": 6858,
      "▁stairs": 6859,
      "ude": 6860,
      "▁disobedience": 6861,
      "▁deep": 6862,
      "▁critters": 6863,
      "▁inspiration": 6864,
      "▁del": 6865,
      "ample": 6866,
      "▁arrested": 6867,
      "-and": 6868,
      "eeze": 6869,
      "tice": 6870,
      "▁calendar": 6871,
      "▁strainer": 6872,
      "▁thieves": 6873,
      "uling": 6874,
      "idated": 6875,
      "▁ensure": 6876,
      "▁sour": 6877,
      "▁appetizers": 6878,
      "▁parish": 6879,
      "▁flown": 6880,
      "▁destruction": 6881,
      "▁subjects": 6882,
      "▁fact": 6883,
      "▁participate": 6884,
      "▁som": 6885,
      "▁tabled": 6886,
      "▁joy": 6887,
      "iting": 6888,
      "▁billing": 6889,
      "▁citing": 6890,
      "holes": 6891,
      "umped": 6892,
      "▁malls": 6893,
      "fs": 6894,
      "erves": 6895,
      "▁legislation": 6896,
      "▁administrations": 6897,
      "▁weather": 6898,
      "▁hen": 6899,
      "▁departures": 6900,
      "▁na": 6901,
      "▁assassination": 6902,
      "▁misc": 6903,
      "ifically": 6904,
      "aled": 6905,
      "▁holes": 6906,
      "▁religious": 6907,
      "▁nost": 6908,
      "▁itself": 6909,
      "▁lad": 6910,
      "aded": 6911,
      "▁circular": 6912,
      "▁teeth": 6913,
      "▁mouf": 6914,
      "▁wolf": 6915,
      "lights": 6916,
      "▁marching": 6917,
      "▁pers": 6918,
      "eland": 6919,
      "▁rang": 6920,
      "▁exchanges": 6921,
      "▁originally": 6922,
      "oc": 6923,
      "▁said": 6924,
      "▁helic": 6925,
      "aints": 6926,
      "guard": 6927,
      "▁kiw": 6928,
      "▁sealed": 6929,
      "▁muffin": 6930,
      "▁rhinoceros": 6931,
      "▁premium": 6932,
      "▁favor": 6933,
      "▁recommend": 6934,
      "▁nightlife": 6935,
      "▁apprec": 6936,
      "tainly": 6937,
      "▁availability": 6938,
      "▁predictors": 6939,
      "▁contested": 6940,
      "▁medal": 6941,
      "uela": 6942,
      "lish": 6943,
      "yc": 6944,
      "▁wheat": 6945,
      "▁week": 6946,
      "▁appropriate": 6947,
      "▁pyth": 6948,
      "▁intercep": 6949,
      "aven": 6950,
      "▁penins": 6951,
      "▁diagnosed": 6952,
      "zation": 6953,
      "▁caus": 6954,
      "▁u.": 6955,
      "▁explan": 6956,
      "iqu": 6957,
      "▁advantages": 6958,
      "▁drafted": 6959,
      "▁lanterns": 6960,
      "▁yarns": 6961,
      "hing": 6962,
      "enix": 6963,
      "▁scul": 6964,
      "biting": 6965,
      "▁ketchup": 6966,
      "mbling": 6967,
      "▁cfls": 6968,
      "side": 6969,
      "cial": 6970,
      "ested": 6971,
      "▁clear": 6972,
      "▁seven": 6973,
      "▁anem": 6974,
      "▁photograph": 6975,
      "▁households": 6976,
      "▁dining": 6977,
      "▁disorder": 6978,
      "▁grf": 6979,
      "▁p": 6980,
      "▁glowstick": 6981,
      "ρ": 6982,
      "-1": 6983,
      "▁guil": 6984,
      "zability": 6985,
      "ggies": 6986,
      "▁throws": 6987,
      "▁searching": 6988,
      "▁fath": 6989,
      "▁messed": 6990,
      "▁det": 6991,
      "▁arena": 6992,
      "▁sites": 6993,
      "gate": 6994,
      "▁behave": 6995,
      "▁sketchbook": 6996,
      "▁trick": 6997,
      "▁no": 6998,
      "▁reassure": 6999,
      "▁goog": 7000,
      "▁cuts": 7001,
      "4th": 7002,
      "▁stabilization": 7003,
      "00s": 7004,
      "▁convicted": 7005,
      "▁achieving": 7006,
      "▁refres": 7007,
      "▁omitted": 7008,
      "▁signal": 7009,
      "▁deteriorate": 7010,
      "▁disciplines": 7011,
      "▁fores": 7012,
      "▁toss": 7013,
      "istem": 7014,
      "urning": 7015,
      "▁pleasure": 7016,
      ".consumers": 7017,
      "▁else": 7018,
      "▁witness": 7019,
      "▁google": 7020,
      "xfer": 7021,
      "ond": 7022,
      "▁whatnot": 7023,
      "at": 7024,
      "feration": 7025,
      "lant": 7026,
      "▁yr": 7027,
      "▁meal": 7028,
      "▁answers": 7029,
      "▁hated": 7030,
      "▁creativity": 7031,
      "▁fishie": 7032,
      "▁responsibility": 7033,
      "▁powder": 7034,
      "▁districts": 7035,
      "▁graduate": 7036,
      "▁brief": 7037,
      "▁obstacle": 7038,
      "▁referend": 7039,
      "▁manipulate": 7040,
      "▁evalu": 7041,
      "▁figures": 7042,
      "▁wifi": 7043,
      "arr": 7044,
      "▁yen": 7045,
      "▁temperatures": 7046,
      "friend": 7047,
      "etro": 7048,
      "grated": 7049,
      "▁turnout": 7050,
      "▁anemone": 7051,
      "uv": 7052,
      "▁cupboard": 7053,
      "▁uti": 7054,
      "▁tire": 7055,
      "▁celeb": 7056,
      "▁plates": 7057,
      "▁repurp": 7058,
      "tp": 7059,
      "▁diversity": 7060,
      "▁focus": 7061,
      "being": 7062,
      "▁turning": 7063,
      "aping": 7064,
      "▁ken": 7065,
      "▁neigh": 7066,
      "▁lawy": 7067,
      "bbed": 7068,
      "▁nineteenth": 7069,
      "▁quaffle": 7070,
      "no": 7071,
      "▁mosquitoes": 7072,
      "▁pul": 7073,
      "▁attem": 7074,
      "rop": 7075,
      "ikh": 7076,
      "urs": 7077,
      "▁kid": 7078,
      "▁coordinator": 7079,
      "▁diving": 7080,
      "▁stealing": 7081,
      "▁gdp": 7082,
      "mans": 7083,
      "▁ted": 7084,
      "ender": 7085,
      "▁misfort": 7086,
      "eignty": 7087,
      "▁cheer": 7088,
      "▁economists": 7089,
      "act": 7090,
      "▁cleaned": 7091,
      "▁tup": 7092,
      "uro": 7093,
      "▁coats": 7094,
      "▁starving": 7095,
      "▁ambulance": 7096,
      "▁sacrif": 7097,
      "▁pdt": 7098,
      "▁road": 7099,
      "▁stability": 7100,
      "▁moaned": 7101,
      "▁peanut": 7102,
      "▁tens": 7103,
      "▁managers": 7104,
      "▁teaspoons": 7105,
      "▁list": 7106,
      "▁living": 7107,
      "mates": 7108,
      "▁intervals": 7109,
      "▁squirted": 7110,
      "▁cm": 7111,
      "marked": 7112,
      "mplified": 7113,
      "▁preview": 7114,
      "▁fec": 7115,
      "▁proud": 7116,
      "eaker": 7117,
      "ate": 7118,
      "bb": 7119,
      "▁gentleman": 7120,
      "▁employee": 7121,
      "irl": 7122,
      "▁larger": 7123,
      "▁misconception": 7124,
      "200": 7125,
      "▁asylum": 7126,
      "onies": 7127,
      "▁blender": 7128,
      "▁drink": 7129,
      "olving": 7130,
      "▁maintain": 7131,
      "▁formula": 7132,
      "▁thirtieth": 7133,
      "lect": 7134,
      "▁au": 7135,
      "▁drawstring": 7136,
      "▁cyclone": 7137,
      "▁hors": 7138,
      "storm": 7139,
      "▁negotiating": 7140,
      "▁particular": 7141,
      "▁channel": 7142,
      "▁wearing": 7143,
      "▁dire": 7144,
      "▁era": 7145,
      "▁nectar": 7146,
      "▁msg": 7147,
      "pub": 7148,
      "▁boule": 7149,
      "▁sports": 7150,
      "▁existence": 7151,
      "▁evacuation": 7152,
      "▁discharge": 7153,
      "pi": 7154,
      "▁contacted": 7155,
      "ghetti": 7156,
      "▁’ve": 7157,
      "▁name": 7158,
      "▁philadelphia": 7159,
      "▁saint": 7160,
      "▁mashed": 7161,
      "▁sisters": 7162,
      "▁cit": 7163,
      "ortment": 7164,
      "▁reviewers": 7165,
      "▁marked": 7166,
      "▁headache": 7167,
      "enders": 7168,
      "▁-------------------------------------------------": 7169,
      "▁inven": 7170,
      "▁ornament": 7171,
      "▁grave": 7172,
      "ional": 7173,
      "▁protection": 7174,
      "▁county": 7175,
      "▁transfer": 7176,
      "▁seattle": 7177,
      "▁oven": 7178,
      "▁albeit": 7179,
      "alia": 7180,
      "uting": 7181,
      "▁hurry": 7182,
      "▁baking": 7183,
      "▁arrived": 7184,
      "▁broad": 7185,
      "▁fertili": 7186,
      "▁teh": 7187,
      "▁appear": 7188,
      "eats": 7189,
      "flower": 7190,
      "▁gender": 7191,
      "tw": 7192,
      "▁appeal": 7193,
      "▁hastened": 7194,
      "neys": 7195,
      "▁tremb": 7196,
      "▁procl": 7197,
      "▁interv": 7198,
      "▁kansas": 7199,
      "▁shirts": 7200,
      "▁doorman": 7201,
      "▁crow": 7202,
      "▁blown": 7203,
      "ober": 7204,
      "tiv": 7205,
      "▁lift": 7206,
      "drops": 7207,
      "▁bags": 7208,
      "▁awesome": 7209,
      "▁explanations": 7210,
      "▁park": 7211,
      "▁pi": 7212,
      "▁swa": 7213,
      "ashed": 7214,
      "▁prote": 7215,
      "▁swings": 7216,
      "▁limitation": 7217,
      "▁where": 7218,
      "▁cat": 7219,
      "▁identification": 7220,
      "▁expired": 7221,
      "▁equivalence": 7222,
      "▁appeti": 7223,
      "▁usb": 7224,
      "▁supply": 7225,
      "rie": 7226,
      "▁strangers": 7227,
      "▁consulted": 7228,
      "bac": 7229,
      "▁clos": 7230,
      "uldron": 7231,
      "▁style": 7232,
      "▁toast": 7233,
      "ceived": 7234,
      "▁improving": 7235,
      "▁advantage": 7236,
      "▁prize": 7237,
      "▁interior": 7238,
      "▁cannon": 7239,
      "▁consented": 7240,
      "▁reign": 7241,
      "▁phase": 7242,
      "07.doc": 7243,
      "▁therapist": 7244,
      "▁fuse": 7245,
      "▁finished": 7246,
      "▁aggression": 7247,
      "▁abstract": 7248,
      "▁rounds": 7249,
      "▁bas": 7250,
      "▁fleeing": 7251,
      "▁undo": 7252,
      "▁killer": 7253,
      "bat": 7254,
      "▁infection": 7255,
      "▁thurs": 7256,
      "hone": 7257,
      "▁respon": 7258,
      "▁gath": 7259,
      "pec": 7260,
      "▁syn": 7261,
      "▁landm": 7262,
      "▁mantra": 7263,
      "▁return": 7264,
      "▁ech": 7265,
      "eling": 7266,
      "ump": 7267,
      "vol": 7268,
      "▁cause": 7269,
      "****": 7270,
      "▁quiddit": 7271,
      "▁badly": 7272,
      "idity": 7273,
      "▁alley": 7274,
      "▁batch": 7275,
      "@enron.com": 7276,
      "▁labeled": 7277,
      "▁flossing": 7278,
      "ural": 7279,
      "▁curtains": 7280,
      "ickness": 7281,
      "▁chapters": 7282,
      "▁archive": 7283,
      "iginal": 7284,
      "▁visas": 7285,
      "▁reaching": 7286,
      "▁mart": 7287,
      "▁enrongss.xls": 7288,
      "▁relax": 7289,
      "▁festivals": 7290,
      "ately": 7291,
      "▁curry": 7292,
      "▁prototypes": 7293,
      "▁torn": 7294,
      "▁attempt": 7295,
      "▁beyond": 7296,
      "▁mate": 7297,
      "▁exercise": 7298,
      "▁conferences": 7299,
      "▁etiquette": 7300,
      "iveness": 7301,
      "in": 7302,
      "▁vi": 7303,
      "▁voters": 7304,
      "▁drain": 7305,
      "alecki": 7306,
      "▁realization": 7307,
      "▁pointing": 7308,
      "▁insul": 7309,
      "rar": 7310,
      "▁blending": 7311,
      "▁aristocrats": 7312,
      "▁ribs": 7313,
      "▁choke": 7314,
      "▁ride": 7315,
      "on": 7316,
      "▁continent": 7317,
      "▁bullet": 7318,
      "▁appealed": 7319,
      "▁attack": 7320,
      "▁busses": 7321,
      "▁students": 7322,
      "▁utens": 7323,
      "▁totally": 7324,
      "▁tourism": 7325,
      "▁general": 7326,
      "burg": 7327,
      "▁cir": 7328,
      "▁pens": 7329,
      "▁aqu": 7330,
      "▁dinner": 7331,
      "fl": 7332,
      "▁meow": 7333,
      "▁t.v.": 7334,
      "icated": 7335,
      "▁shipment": 7336,
      "▁hing": 7337,
      "▁tablets": 7338,
      "▁different": 7339,
      "▁family": 7340,
      "▁eu": 7341,
      "▁intervening": 7342,
      "gh": 7343,
      "▁partners": 7344,
      "▁magic": 7345,
      "▁bulbs": 7346,
      "iron": 7347,
      "▁audio": 7348,
      "▁garage": 7349,
      "▁oriented": 7350,
      "itched": 7351,
      "▁styles": 7352,
      "uropean": 7353,
      "r.": 7354,
      "▁circularisation": 7355,
      "▁assumed": 7356,
      "▁dpr": 7357,
      "▁signed": 7358,
      "ql": 7359,
      "▁forehead": 7360,
      "▁seiz": 7361,
      "▁blacks": 7362,
      "▁refunds": 7363,
      "▁discl": 7364,
      "▁http": 7365,
      "▁region": 7366,
      "▁tumbled": 7367,
      "▁j": 7368,
      "estic": 7369,
      "▁champagne": 7370,
      "yed": 7371,
      "▁shell": 7372,
      "▁asthma": 7373,
      "asure": 7374,
      "uled": 7375,
      "mar": 7376,
      "▁corners": 7377,
      "▁dictatorship": 7378,
      "▁officials": 7379,
      "armacy": 7380,
      "▁sauc": 7381,
      "▁tr": 7382,
      "▁nine": 7383,
      "▁bones": 7384,
      "▁excer": 7385,
      "▁milieu": 7386,
      "▁elect": 7387,
      "▁turtle": 7388,
      "▁aesthe": 7389,
      "ady": 7390,
      "▁hesitate": 7391,
      "ʒ": 7392,
      "▁inqui": 7393,
      "▁directed": 7394,
      "pent": 7395,
      "anting": 7396,
      "▁cities": 7397,
      "'etat": 7398,
      "▁priest": 7399,
      "erred": 7400,
      "▁roughly": 7401,
      "ects": 7402,
      "▁operator": 7403,
      "uistics": 7404,
      "▁photo": 7405,
      "▁communication": 7406,
      "▁pajamas": 7407,
      "▁dol": 7408,
      "▁fought": 7409,
      "▁sale": 7410,
      "▁sympathy": 7411,
      "▁revealed": 7412,
      "▁april": 7413,
      "lem": 7414,
      "▁cuis": 7415,
      "face": 7416,
      "▁flag": 7417,
      "▁mixed": 7418,
      "▁performed": 7419,
      "▁claws": 7420,
      "▁margin": 7421,
      "▁wed": 7422,
      "▁go": 7423,
      "▁operators": 7424,
      "lists": 7425,
      "pful": 7426,
      "ptions": 7427,
      "▁dollar": 7428,
      "▁govern": 7429,
      "▁blues": 7430,
      "▁sought": 7431,
      "▁dey": 7432,
      "▁picked": 7433,
      "▁emb": 7434,
      "▁tractor": 7435,
      "▁wai": 7436,
      "▁thie": 7437,
      "▁scribb": 7438,
      "unking": 7439,
      "▁'re": 7440,
      "▁designs": 7441,
      "▁very": 7442,
      "▁crosstab": 7443,
      "▁exceed": 7444,
      "▁bited": 7445,
      "▁helicop": 7446,
      "▁artic": 7447,
      "▁jobs": 7448,
      "▁llms": 7449,
      "▁thawed": 7450,
      "▁dangling": 7451,
      "▁alone": 7452,
      "▁pp": 7453,
      "▁bab": 7454,
      "▁atmosphere": 7455,
      "▁possibility": 7456,
      "▁#'s": 7457,
      "▁stop": 7458,
      "▁teething": 7459,
      "▁sati": 7460,
      "▁laser": 7461,
      "iful": 7462,
      "▁there": 7463,
      "▁plastic": 7464,
      "▁forgiveness": 7465,
      "forming": 7466,
      "▁rose": 7467,
      "▁distingu": 7468,
      "itely": 7469,
      "▁repay": 7470,
      "gown": 7471,
      "▁diagram": 7472,
      "φ": 7473,
      "▁stev": 7474,
      "icked": 7475,
      "▁harm": 7476,
      "▁triumph": 7477,
      "▁fr": 7478,
      "ginally": 7479,
      "▁++++": 7480,
      "phis": 7481,
      "____": 7482,
      "▁domest": 7483,
      "▁legos": 7484,
      "▁drove": 7485,
      "▁tack": 7486,
      "oop": 7487,
      "▁sag": 7488,
      "▁recog": 7489,
      "▁caused": 7490,
      "▁lap": 7491,
      "▁foster": 7492,
      "▁hund": 7493,
      "ellers": 7494,
      "▁torti": 7495,
      "ville": 7496,
      "▁sport": 7497,
      "▁cruise": 7498,
      "▁before": 7499,
      "▁pork": 7500,
      "▁crackers": 7501,
      "▁t3i": 7502,
      "▁affirm": 7503,
      "▁http://": 7504,
      "▁roll": 7505,
      "tims": 7506,
      "▁rfp": 7507,
      "▁discrimination": 7508,
      "▁gaps": 7509,
      "aliation": 7510,
      "▁candidate": 7511,
      "▁copies": 7512,
      "▁sushi": 7513,
      "▁dime": 7514,
      "▁husbands": 7515,
      "cessarily": 7516,
      "▁proble": 7517,
      "▁respond": 7518,
      "▁ena": 7519,
      "▁focuses": 7520,
      "▁aerogel": 7521,
      "▁complaints": 7522,
      "▁elevator": 7523,
      "▁tours": 7524,
      "▁nerv": 7525,
      "▁metaphors": 7526,
      "▁nuisance": 7527,
      "▁secon": 7528,
      "▁improvement": 7529,
      "▁mycelium": 7530,
      "▁field": 7531,
      "▁englishman": 7532,
      "weight": 7533,
      "▁threw": 7534,
      "▁referr": 7535,
      "▁recons": 7536,
      "▁yrs": 7537,
      "ces": 7538,
      "▁supp": 7539,
      "▁tool": 7540,
      "▁amended": 7541,
      "▁wondered": 7542,
      "▁component": 7543,
      "▁commemorated": 7544,
      "▁bubble": 7545,
      "▁abst": 7546,
      "▁zeitgeist": 7547,
      "▁gisb": 7548,
      "iries": 7549,
      "dain": 7550,
      "▁continuing": 7551,
      "erina": 7552,
      "▁penn": 7553,
      "▁reinfor": 7554,
      "▁composed": 7555,
      "▁humans": 7556,
      "ner": 7557,
      "onent": 7558,
      "▁carpenter": 7559,
      "▁envelop": 7560,
      "▁bite": 7561,
      "▁schedules": 7562,
      "▁nons": 7563,
      "roph": 7564,
      "uring": 7565,
      "▁co2": 7566,
      "ails": 7567,
      "▁roofs": 7568,
      "aganda": 7569,
      "▁oli": 7570,
      "▁passenger": 7571,
      "▁concerned": 7572,
      "▁experiences": 7573,
      "▁however": 7574,
      "▁internet": 7575,
      "▁elastic": 7576,
      "▁precision": 7577,
      "alding": 7578,
      "▁darn": 7579,
      "wards": 7580,
      "▁ou": 7581,
      "▁floor": 7582,
      "lions": 7583,
      "aper": 7584,
      "▁bub": 7585,
      "▁guidelines": 7586,
      "▁chalkboard": 7587,
      "▁bce": 7588,
      "▁stab": 7589,
      "▁easi": 7590,
      "▁bankn": 7591,
      "▁needing": 7592,
      "▁wasted": 7593,
      "▁frighten": 7594,
      "▁awaited": 7595,
      "▁underw": 7596,
      "▁sle": 7597,
      "▁belong": 7598,
      "▁grant": 7599,
      "▁superi": 7600,
      "▁retiring": 7601,
      "▁reality": 7602,
      "▁brow": 7603,
      "▁crop": 7604,
      "▁des": 7605,
      "▁super": 7606,
      "overed": 7607,
      "▁jew": 7608,
      "aucr": 7609,
      "▁oppose": 7610,
      "anger": 7611,
      "▁particles": 7612,
      "▁present": 7613,
      "ises": 7614,
      "▁side": 7615,
      "▁dancers": 7616,
      "▁separation": 7617,
      "▁goods": 7618,
      "urt": 7619,
      "ging": 7620,
      "▁sigh": 7621,
      "arch": 7622,
      "▁truck": 7623,
      "▁inquiries": 7624,
      "▁tiles": 7625,
      "▁bathroom": 7626,
      "inal": 7627,
      "inews": 7628,
      "▁moo": 7629,
      "▁carolina": 7630,
      "anistan": 7631,
      "▁program": 7632,
      "off": 7633,
      "asters": 7634,
      "right": 7635,
      "▁phones": 7636,
      "uddled": 7637,
      "▁clam": 7638,
      "▁refused": 7639,
      "▁controvers": 7640,
      "tress": 7641,
      "▁alarms": 7642,
      "ros": 7643,
      "entions": 7644,
      "eously": 7645,
      "▁sam": 7646,
      "▁seeks": 7647,
      "ooks": 7648,
      "▁thigh": 7649,
      "▁supper": 7650,
      "▁flush": 7651,
      "▁stem": 7652,
      "▁others": 7653,
      "▁collaborated": 7654,
      "ys": 7655,
      "▁chance": 7656,
      "▁rumors": 7657,
      "▁law": 7658,
      "▁suggested": 7659,
      "▁umb": 7660,
      "▁modules": 7661,
      "▁screwed": 7662,
      "▁premise": 7663,
      "▁infinity": 7664,
      "▁gener": 7665,
      "▁screen": 7666,
      "▁which": 7667,
      "el": 7668,
      "▁pin": 7669,
      "▁prosecutor": 7670,
      "▁hosting": 7671,
      "▁definition": 7672,
      "▁paint": 7673,
      "▁bacon": 7674,
      "▁railway": 7675,
      "▁panorama": 7676,
      "▁rumor": 7677,
      "▁major": 7678,
      "▁acup": 7679,
      "▁emerge": 7680,
      "▁pussy": 7681,
      "▁shark": 7682,
      "▁compon": 7683,
      "▁veteran": 7684,
      "▁released": 7685,
      "▁drinks": 7686,
      "▁berries": 7687,
      "▁supporters": 7688,
      "▁ideation": 7689,
      "ropriate": 7690,
      "zes": 7691,
      "▁memo": 7692,
      "arily": 7693,
      "▁|": 7694,
      "▁lighted": 7695,
      "▁maker": 7696,
      "▁90s": 7697,
      "▁utilities": 7698,
      "▁laundry": 7699,
      "ted": 7700,
      "▁ree": 7701,
      "▁pivottable": 7702,
      "▁crave": 7703,
      "▁explain": 7704,
      "▁due": 7705,
      "▁drained": 7706,
      "▁broadc": 7707,
      "▁dialects": 7708,
      "▁composition": 7709,
      "▁routine": 7710,
      "▁failing": 7711,
      "▁besides": 7712,
      "inea": 7713,
      "bie": 7714,
      "▁site": 7715,
      "▁arrogance": 7716,
      "uum": 7717,
      "infect": 7718,
      "▁ge": 7719,
      "▁incapac": 7720,
      "▁assaulted": 7721,
      "▁voice": 7722,
      "▁cocoa": 7723,
      "▁methods": 7724,
      "▁hoagie": 7725,
      "x": 7726,
      "gies": 7727,
      "▁sails": 7728,
      "▁willing": 7729,
      "▁indust": 7730,
      "▁talent": 7731,
      "▁ded": 7732,
      "▁skirts": 7733,
      "ateg": 7734,
      "▁banner": 7735,
      "▁amaz": 7736,
      "py": 7737,
      "mers": 7738,
      "▁influx": 7739,
      "▁remark": 7740,
      "anim": 7741,
      "▁unlike": 7742,
      "▁agric": 7743,
      "▁hotels": 7744,
      "▁steak": 7745,
      "▁stopovers": 7746,
      "ex": 7747,
      "ossible": 7748,
      "▁trial": 7749,
      "▁military": 7750,
      "onents": 7751,
      "wise": 7752,
      "▁floating": 7753,
      "cinn": 7754,
      "▁termin": 7755,
      "▁summit": 7756,
      "etery": 7757,
      "▁med": 7758,
      "▁proposed": 7759,
      "▁remarks": 7760,
      "oration": 7761,
      "▁encounter": 7762,
      "­": 7763,
      "▁archbish": 7764,
      "▁christmas": 7765,
      "▁political": 7766,
      "▁asp": 7767,
      "▁expected": 7768,
      "▁increasing": 7769,
      "▁strain": 7770,
      "▁ties": 7771,
      "▁muggles": 7772,
      "▁mothers": 7773,
      "▁woof": 7774,
      "▁yoghurt": 7775,
      "▁well": 7776,
      "▁grocer": 7777,
      "▁hierarch": 7778,
      "ounces": 7779,
      "▁changed": 7780,
      "▁cham": 7781,
      "▁mal": 7782,
      "▁remedy": 7783,
      "arred": 7784,
      "▁hour": 7785,
      "▁tsar": 7786,
      "▁contr": 7787,
      "selve": 7788,
      "▁surprised": 7789,
      "ift": 7790,
      "▁surve": 7791,
      "▁diesel": 7792,
      "o": 7793,
      "uts": 7794,
      "▁kleenex": 7795,
      "▁extradited": 7796,
      "orama": 7797,
      "argy": 7798,
      "▁shelf": 7799,
      "atibility": 7800,
      "▁shuff": 7801,
      "▁22": 7802,
      "▁uni": 7803,
      "▁diversion": 7804,
      "▁parach": 7805,
      "▁dam": 7806,
      "▁grape": 7807,
      "lessness": 7808,
      "▁circling": 7809,
      "▁steph": 7810,
      "▁specifications": 7811,
      "▁‘’": 7812,
      "▁b.": 7813,
      "ould": 7814,
      "count": 7815,
      "▁horses": 7816,
      "▁revers": 7817,
      "▁z": 7818,
      "▁shared": 7819,
      "ult": 7820,
      "abit": 7821,
      "œ": 7822,
      "ain": 7823,
      "▁easter": 7824,
      "▁declined": 7825,
      "am": 7826,
      "▁candle": 7827,
      "▁dollars": 7828,
      "▁anywhere": 7829,
      "en": 7830,
      "ml": 7831,
      "▁demand": 7832,
      "▁waved": 7833,
      "▁diner": 7834,
      "▁pitches": 7835,
      "▁num": 7836,
      "▁forecast": 7837,
      "▁tant": 7838,
      "▁hotdogs": 7839,
      "▁bumble": 7840,
      "otion": 7841,
      "▁thrown": 7842,
      "h-": 7843,
      "▁thirds": 7844,
      "▁featured": 7845,
      "▁offering": 7846,
      "▁activists": 7847,
      "rael": 7848,
      "keting": 7849,
      "▁casting": 7850,
      "identally": 7851,
      "▁limb": 7852,
      "uch": 7853,
      "isure": 7854,
      "▁sphere": 7855,
      "▁deduc": 7856,
      "▁interventions": 7857,
      "▁principal": 7858,
      "▁occurrence": 7859,
      "▁gotten": 7860,
      "▁specifies": 7861,
      "▁addiction": 7862,
      "plus": 7863,
      "▁wellbeing": 7864,
      "▁worm": 7865,
      "▁me": 7866,
      "▁reducing": 7867,
      "▁contained": 7868,
      "▁statements": 7869,
      "▁statis": 7870,
      "▁ego": 7871,
      "▁airlin": 7872,
      "ffic": 7873,
      "affle": 7874,
      "uten": 7875,
      "▁pee": 7876,
      "▁conducting": 7877,
      "▁dancer": 7878,
      "▁bombs": 7879,
      "aces": 7880,
      "▁trou": 7881,
      "▁quiz": 7882,
      "▁driver": 7883,
      "ugs": 7884,
      "▁adopting": 7885,
      "▁crops": 7886,
      "erarch": 7887,
      "▁painting": 7888,
      "++++": 7889,
      "▁mor": 7890,
      "▁signs": 7891,
      "▁don": 7892,
      "ret": 7893,
      "ep": 7894,
      "▁26": 7895,
      "▁seek": 7896,
      "▁pretend": 7897,
      "▁slices": 7898,
      "▁gots": 7899,
      "▁dri": 7900,
      "iance": 7901,
      "▁hards": 7902,
      "▁disrupt": 7903,
      "▁underst": 7904,
      "▁settlement": 7905,
      "▁first": 7906,
      "▁facing": 7907,
      "▁late": 7908,
      "▁rein": 7909,
      "▁giant": 7910,
      "▁morning": 7911,
      "▁sandwich": 7912,
      "▁wakes": 7913,
      "▁average": 7914,
      "▁symbolizes": 7915,
      "cing": 7916,
      "▁months": 7917,
      "▁abandonment": 7918,
      "▁basil": 7919,
      "▁battle": 7920,
      "▁cheers": 7921,
      "▁shel": 7922,
      "▁complications": 7923,
      "▁cas": 7924,
      "corn": 7925,
      "▁procedure": 7926,
      "▁individ": 7927,
      "otive": 7928,
      "▁canada": 7929,
      "▁ran": 7930,
      "name": 7931,
      "▁notice": 7932,
      "▁resolved": 7933,
      "uter": 7934,
      "ician": 7935,
      "▁hens": 7936,
      "▁clothing": 7937,
      "▁crude": 7938,
      "▁dynamics": 7939,
      "ena": 7940,
      "▁highlights": 7941,
      "▁nip": 7942,
      "▁anime": 7943,
      "▁illusions": 7944,
      "▁unicorn": 7945,
      "▁support": 7946,
      "▁invoice": 7947,
      "▁t+re": 7948,
      "aped": 7949,
      "▁remod": 7950,
      "▁postponed": 7951,
      "▁public": 7952,
      "▁along": 7953,
      "mem": 7954,
      "▁legs": 7955,
      "▁wrest": 7956,
      "▁unfort": 7957,
      "▁defense": 7958,
      "▁aven": 7959,
      "▁suggests": 7960,
      "▁starved": 7961,
      "@": 7962,
      "tise": 7963,
      "sl": 7964,
      "foli": 7965,
      "▁deposition": 7966,
      "esty": 7967,
      "rited": 7968,
      "tiles": 7969,
      "raeli": 7970,
      "coon": 7971,
      "▁killed": 7972,
      "▁baptised": 7973,
      "▁chees": 7974,
      "▁specifics": 7975,
      "▁philosoph": 7976,
      "▁hundred": 7977,
      "ruption": 7978,
      "▁nailed": 7979,
      "▁wasp": 7980,
      "▁hallway": 7981,
      "▁restored": 7982,
      "▁verb": 7983,
      "▁transmed": 7984,
      "▁landlord": 7985,
      "▁earthqu": 7986,
      "▁baff": 7987,
      "▁scent": 7988,
      "▁electricity": 7989,
      "▁satisfy": 7990,
      "▁view": 7991,
      "▁assignment": 7992,
      "arf": 7993,
      "▁sco": 7994,
      "▁scanned": 7995,
      "▁advertis": 7996,
      "▁imported": 7997,
      "▁defines": 7998,
      "▁2005": 7999,
      "▁resumed": 8000,
      "arked": 8001,
      "▁consequences": 8002,
      "▁yours": 8003,
      "▁we": 8004,
      "▁antip": 8005,
      "▁fee": 8006,
      "▁boards": 8007,
      "▁initiation": 8008,
      "▁choose": 8009,
      "▁prec": 8010,
      "▁homeland": 8011,
      "▁jerk": 8012,
      "▁dedicated": 8013,
      "ait": 8014,
      "▁dist": 8015,
      "▁if": 8016,
      "ity": 8017,
      "▁regret": 8018,
      "▁enacting": 8019,
      "▁professionalism": 8020,
      "▁lace": 8021,
      "▁home": 8022,
      "▁progr": 8023,
      "▁relationships": 8024,
      "▁initiate": 8025,
      "▁ex": 8026,
      "aff": 8027,
      "ody": 8028,
      "▁mixture": 8029,
      "ourage": 8030,
      "▁walking": 8031,
      "▁certainly": 8032,
      "▁fixtures": 8033,
      "▁tun": 8034,
      "▁illusion": 8035,
      "▁centers": 8036,
      "▁stirrups": 8037,
      "▁forwar": 8038,
      "▁toaster": 8039,
      "▁kent": 8040,
      "▁recipe": 8041,
      "▁footst": 8042,
      "▁iraq": 8043,
      "quet": 8044,
      "other": 8045,
      "▁city": 8046,
      "ending": 8047,
      "▁insurance": 8048,
      "▁substance": 8049,
      "▁embarrassment": 8050,
      "▁clothespin": 8051,
      "▁satel": 8052,
      "▁panda": 8053,
      "▁electr": 8054,
      "▁credited": 8055,
      "pple": 8056,
      "tish": 8057,
      "▁faun": 8058,
      "▁contract": 8059,
      "poon": 8060,
      "▁marshes": 8061,
      "▁connection": 8062,
      "▁penny": 8063,
      "ontario": 8064,
      "▁funding": 8065,
      "▁suspension": 8066,
      "reed": 8067,
      "▁retained": 8068,
      "▁versions": 8069,
      "angu": 8070,
      "igorate": 8071,
      "▁millenn": 8072,
      "▁biodiversity": 8073,
      "erally": 8074,
      "▁anoth": 8075,
      "▁explanation": 8076,
      "▁promotion": 8077,
      "▁defe": 8078,
      "ge": 8079,
      "▁attacked": 8080,
      "▁designer": 8081,
      "oo": 8082,
      "▁courage": 8083,
      "▁drivers": 8084,
      "▁jer": 8085,
      "ges": 8086,
      "cularly": 8087,
      "uments": 8088,
      "ounded": 8089,
      "▁cover": 8090,
      "▁redesigning": 8091,
      "▁indicates": 8092,
      "▁departs": 8093,
      "▁lifeboats": 8094,
      "id": 8095,
      "▁interpreted": 8096,
      "happ": 8097,
      "▁topper": 8098,
      "▁bl": 8099,
      "▁conducted": 8100,
      "▁hoax": 8101,
      "oved": 8102,
      "▁wake": 8103,
      "iti": 8104,
      "franch": 8105,
      "▁natur": 8106,
      "activity": 8107,
      "▁guiding": 8108,
      "▁reve": 8109,
      "ued": 8110,
      "▁girl": 8111,
      "hop": 8112,
      "▁broaden": 8113,
      "▁monsters": 8114,
      "▁enh": 8115,
      "cano": 8116,
      "▁worries": 8117,
      "▁forced": 8118,
      "▁ld": 8119,
      "▁government": 8120,
      "▁concerning": 8121,
      "▁cheeks": 8122,
      "▁encourages": 8123,
      "▁dempse": 8124,
      "▁recruiting": 8125,
      "▁season": 8126,
      "▁regarding": 8127,
      "▁relevant": 8128,
      "▁gate": 8129,
      "▁greek": 8130,
      "▁moh": 8131,
      "▁immersion": 8132,
      "▁governor": 8133,
      "▁fine": 8134,
      "▁w": 8135,
      "pring": 8136,
      "▁booked": 8137,
      "▁rum": 8138,
      "▁extremist": 8139,
      "ossing": 8140,
      "▁esc": 8141,
      "▁overal": 8142,
      "▁inch": 8143,
      "▁rockets": 8144,
      "to": 8145,
      "▁pursued": 8146,
      "▁bbq": 8147,
      "acle": 8148,
      "▁gum": 8149,
      "▁hymn": 8150,
      "▁image": 8151,
      "▁arrang": 8152,
      "▁confl": 8153,
      "alog": 8154,
      "▁pancake": 8155,
      "▁denying": 8156,
      "▁cultural": 8157,
      "▁demanded": 8158,
      "leration": 8159,
      "▁exec": 8160,
      "ologist": 8161,
      "▁benefited": 8162,
      "/c": 8163,
      "▁prevail": 8164,
      "▁removes": 8165,
      "rowave": 8166,
      "igital": 8167,
      "▁sover": 8168,
      "▁embassy": 8169,
      "abouts": 8170,
      "▁warranty": 8171,
      "▁waited": 8172,
      "▁hot": 8173,
      "▁begun": 8174,
      "▁slippers": 8175,
      "ielder": 8176,
      "▁corpus": 8177,
      "ible": 8178,
      "▁needed": 8179,
      "ickened": 8180,
      "▁liking": 8181,
      ".7": 8182,
      "▁shit": 8183,
      "▁injured": 8184,
      "▁haf": 8185,
      "▁horm": 8186,
      "▁minute": 8187,
      "▁confronted": 8188,
      "▁pm": 8189,
      "▁strike": 8190,
      "▁stripes": 8191,
      "▁oct": 8192,
      "prints": 8193,
      "▁revisions": 8194,
      "▁strawberries": 8195,
      "v.": 8196,
      "▁stirring": 8197,
      "▁runway": 8198,
      "▁conclusion": 8199,
      "▁spirited": 8200,
      "▁m.": 8201,
      "▁cares": 8202,
      "▁examined": 8203,
      "▁credit": 8204,
      "▁company": 8205,
      "▁pod": 8206,
      "▁lecture": 8207,
      "ters": 8208,
      "▁permit": 8209,
      "▁chas": 8210,
      "▁28": 8211,
      "▁die": 8212,
      "▁candidates": 8213,
      "▁suspend": 8214,
      "▁tale": 8215,
      "▁pie": 8216,
      "que": 8217,
      "▁nuis": 8218,
      "▁scan": 8219,
      "▁tu": 8220,
      "▁lun": 8221,
      "▁co-founder": 8222,
      "▁fridge": 8223,
      "▁pale": 8224,
      "kle": 8225,
      "▁fracture": 8226,
      "▁chairs": 8227,
      "▁lollipop": 8228,
      "▁hea": 8229,
      "▁squeezed": 8230,
      "▁golf": 8231,
      "▁hasid": 8232,
      "▁climber": 8233,
      "▁acceler": 8234,
      "orating": 8235,
      "▁words": 8236,
      "▁medicine": 8237,
      "▁given": 8238,
      "▁patri": 8239,
      "▁paragraph": 8240,
      "▁brains": 8241,
      "▁contest": 8242,
      "tige": 8243,
      "'d": 8244,
      "▁station": 8245,
      "▁lamp": 8246,
      "▁mode": 8247,
      "▁atlanta": 8248,
      "▁theft": 8249,
      "▁cosmos": 8250,
      "ploy": 8251,
      "ors": 8252,
      "▁entry": 8253,
      "▁advance": 8254,
      "▁critics": 8255,
      "▁cuckoo": 8256,
      "▁judg": 8257,
      "▁once": 8258,
      "▁chicken": 8259,
      "onna": 8260,
      "▁memor": 8261,
      "▁reveal": 8262,
      "▁backside": 8263,
      "▁consortium": 8264,
      "▁sec": 8265,
      "▁fos": 8266,
      "▁chasers": 8267,
      "▁incorporates": 8268,
      "▁air": 8269,
      "▁75": 8270,
      "▁travellers": 8271,
      "▁bowf": 8272,
      "akes": 8273,
      "inter": 8274,
      "ardised": 8275,
      "▁overwhelmed": 8276,
      "▁congestion": 8277,
      "ests": 8278,
      "▁fitness": 8279,
      "unic": 8280,
      "se": 8281,
      "hea": 8282,
      "▁poli": 8283,
      "▁hus": 8284,
      "eled": 8285,
      "lift": 8286,
      "▁pace": 8287,
      "▁popcorn": 8288,
      "▁pony": 8289,
      "word": 8290,
      "▁um": 8291,
      "▁investi": 8292,
      "lion": 8293,
      "ø": 8294,
      "▁graduates": 8295,
      "▁threatens": 8296,
      "▁delighted": 8297,
      "▁apparently": 8298,
      "▁gallon": 8299,
      "▁symptoms": 8300,
      "▁cop": 8301,
      "▁chosen": 8302,
      "▁retrosp": 8303,
      "ring": 8304,
      "▁generally": 8305,
      "▁monkey": 8306,
      "▁quality": 8307,
      "▁abo": 8308,
      "▁towards": 8309,
      "fa": 8310,
      "my": 8311,
      "▁ath": 8312,
      "▁volume": 8313,
      "▁red": 8314,
      "a": 8315,
      "▁mot": 8316,
      "▁wines": 8317,
      "▁corrected": 8318,
      "ah": 8319,
      "ourn": 8320,
      "ac": 8321,
      "▁fucking": 8322,
      "▁crit": 8323,
      "oween": 8324,
      "▁lanes": 8325,
      "ugging": 8326,
      "nesses": 8327,
      "▁welfare": 8328,
      "dre": 8329,
      "▁citi": 8330,
      "▁nations": 8331,
      "▁reveals": 8332,
      "▁opin": 8333,
      "ived": 8334,
      "▁luna": 8335,
      "▁technique": 8336,
      "icult": 8337,
      "▁enc": 8338,
      "▁victory": 8339,
      "▁iv": 8340,
      "▁providers": 8341,
      "▁shining": 8342,
      "▁observ": 8343,
      "bo": 8344,
      "▁t": 8345,
      "▁flu": 8346,
      "▁stair": 8347,
      "▁withd": 8348,
      "▁complaint": 8349,
      "▁office": 8350,
      "▁limousine": 8351,
      "▁exclaimed": 8352,
      "utor": 8353,
      "▁angle": 8354,
      "▁distortions": 8355,
      "dler": 8356,
      "▁backing": 8357,
      "ressive": 8358,
      "▁crest": 8359,
      "º": 8360,
      "▁leadership": 8361,
      "▁murder": 8362,
      "▁cakes": 8363,
      "▁next": 8364,
      "bs": 8365,
      "▁wisdom": 8366,
      "▁betta": 8367,
      "▁conduct": 8368,
      "▁walked": 8369,
      "▁question": 8370,
      "erview": 8371,
      "▁mull": 8372,
      "▁related": 8373,
      "fall": 8374,
      "▁towel": 8375,
      "▁fires": 8376,
      "▁symbolism": 8377,
      "▁rocked": 8378,
      "▁capt": 8379,
      "▁type": 8380,
      "ple": 8381,
      "▁nature": 8382,
      "+": 8383,
      "▁adjusting": 8384,
      "▁miti": 8385,
      "▁below": 8386,
      "▁constituency": 8387,
      "▁laying": 8388,
      "em": 8389,
      "ague": 8390,
      "▁b/c": 8391,
      "▁catches": 8392,
      "▁explaining": 8393,
      "ayed": 8394,
      "uggles": 8395,
      "▁grounded": 8396,
      "▁newspaper": 8397,
      "▁switched": 8398,
      "▁exclaim": 8399,
      "-fe": 8400,
      "▁notion": 8401,
      "▁lounge": 8402,
      "▁chili": 8403,
      "▁web": 8404,
      "▁bug": 8405,
      "▁equival": 8406,
      "stall": 8407,
      "▁hard": 8408,
      "▁been": 8409,
      "▁huh": 8410,
      "▁care": 8411,
      "▁cases": 8412,
      "▁pres": 8413,
      "craft": 8414,
      "▁downloaded": 8415,
      "▁pig": 8416,
      "jo": 8417,
      "oli": 8418,
      "ortant": 8419,
      "▁errors": 8420,
      "press": 8421,
      "▁preferred": 8422,
      "veral": 8423,
      "▁cursor": 8424,
      "▁gasped": 8425,
      "utic": 8426,
      "▁prom": 8427,
      "▁paul": 8428,
      "▁morality": 8429,
      "-98": 8430,
      "▁attempts": 8431,
      "▁complete": 8432,
      "ral": 8433,
      "▁enterprise": 8434,
      "▁deeds": 8435,
      "oles": 8436,
      "▁aeroplane": 8437,
      "▁international": 8438,
      "▁pea": 8439,
      "otograp": 8440,
      "fuge": 8441,
      "righted": 8442,
      "▁blades": 8443,
      "rely": 8444,
      "ting": 8445,
      "▁pandemic": 8446,
      "-19": 8447,
      "ebook": 8448,
      "▁aware": 8449,
      "▁checking": 8450,
      "▁lat": 8451,
      "▁ey": 8452,
      "otch": 8453,
      "▁mediation": 8454,
      "▁dressing": 8455,
      "▁russian": 8456,
      "▁soda": 8457,
      "▁documentation": 8458,
      "▁third": 8459,
      "▁cameras": 8460,
      "▁carries": 8461,
      "▁breakfast": 8462,
      "▁deliveries": 8463,
      "▁fert": 8464,
      "ionary": 8465,
      "▁prompted": 8466,
      "▁news": 8467,
      "▁checkers": 8468,
      "▁coverage": 8469,
      "▁hostess": 8470,
      "▁lantern": 8471,
      "▁money": 8472,
      "▁versus": 8473,
      "▁reservations": 8474,
      "mercial": 8475,
      "ide": 8476,
      "▁brought": 8477,
      "ian": 8478,
      "▁frame": 8479,
      "▁rocket": 8480,
      "rest": 8481,
      "ationed": 8482,
      "▁sunday": 8483,
      "▁accuracy": 8484,
      "▁emiss": 8485,
      "ients": 8486,
      "▁atop": 8487,
      "gon": 8488,
      "▁femora": 8489,
      "▁pays": 8490,
      "▁jacket": 8491,
      "▁miscon": 8492,
      "▁tacoma": 8493,
      "υ": 8494,
      "ket": 8495,
      "▁bits": 8496,
      "▁movie": 8497,
      "▁trigg": 8498,
      "▁philosophy": 8499,
      "▁chanting": 8500,
      "▁198": 8501,
      "raction": 8502,
      "93": 8503,
      "9th": 8504,
      "aith": 8505,
      "▁occup": 8506,
      "▁tit": 8507,
      "▁regain": 8508,
      "▁freezer": 8509,
      "▁pad": 8510,
      "▁labels": 8511,
      "▁prosp": 8512,
      "▁hassle": 8513,
      "▁cutter": 8514,
      "▁scen": 8515,
      "▁flicker": 8516,
      "▁films": 8517,
      "▁influence": 8518,
      "▁goodness": 8519,
      "▁underlying": 8520,
      "▁geomet": 8521,
      "▁layer": 8522,
      "▁stip": 8523,
      "works": 8524,
      "▁emp": 8525,
      "ertainly": 8526,
      "▁falled": 8527,
      "▁advis": 8528,
      "▁creep": 8529,
      "▁achieved": 8530,
      "▁fren": 8531,
      "structed": 8532,
      "of": 8533,
      "▁fir": 8534,
      "▁victims": 8535,
      "▁resour": 8536,
      "▁litt": 8537,
      "▁ultimately": 8538,
      "▁chi": 8539,
      "arraf": 8540,
      "▁renewed": 8541,
      "▁antibio": 8542,
      "▁sword": 8543,
      "▁reel": 8544,
      "▁birds": 8545,
      "6th": 8546,
      "”s": 8547,
      "▁neglected": 8548,
      "▁came": 8549,
      "▁focused": 8550,
      "▁speed": 8551,
      "▁characteristics": 8552,
      "▁checkout": 8553,
      "▁cherry": 8554,
      "▁vegetables": 8555,
      "▁sol": 8556,
      "▁intr": 8557,
      "▁stressed": 8558,
      "▁lifestyle": 8559,
      "▁mom": 8560,
      "▁roses": 8561,
      "-sh": 8562,
      "▁cia": 8563,
      "▁about": 8564,
      "▁mys": 8565,
      "uttering": 8566,
      "ocent": 8567,
      "▁specialists": 8568,
      "▁not": 8569,
      "▁spilled": 8570,
      "▁kilometers": 8571,
      "▁storms": 8572,
      "▁licking": 8573,
      "▁expectation": 8574,
      "▁fog": 8575,
      "istocks": 8576,
      "▁rainbow": 8577,
      "▁padalecki": 8578,
      "▁juice": 8579,
      "▁camer": 8580,
      "▁comb": 8581,
      "▁comple": 8582,
      "▁debate": 8583,
      "▁explained": 8584,
      "ignment": 8585,
      "▁assuring": 8586,
      "▁effective": 8587,
      "▁should": 8588,
      "▁barrels": 8589,
      "▁frosting": 8590,
      "▁employer": 8591,
      "▁clearly": 8592,
      "▁scenar": 8593,
      "ios": 8594,
      "▁drying": 8595,
      "▁loved": 8596,
      "ood": 8597,
      "gen": 8598,
      "▁foreground": 8599,
      "▁entering": 8600,
      "rently": 8601,
      "▁citizens": 8602,
      "▁low": 8603,
      "______": 8604,
      "▁hill": 8605,
      "olation": 8606,
      "▁degree": 8607,
      "♥": 8608,
      "▁creature": 8609,
      "▁reflect": 8610,
      "▁bravery": 8611,
      "▁prayers": 8612,
      "▁s": 8613,
      "▁misunderstanding": 8614,
      "▁hardly": 8615,
      "▁carved": 8616,
      "▁deputy": 8617,
      "▁clue": 8618,
      "cakes": 8619,
      "ka": 8620,
      "▁chickens": 8621,
      "acing": 8622,
      "▁eyeb": 8623,
      "osure": 8624,
      "ild": 8625,
      "▁loving": 8626,
      "▁mess": 8627,
      "▁scream": 8628,
      "att": 8629,
      "▁spinach": 8630,
      "▁computing": 8631,
      "▁held": 8632,
      "▁hal": 8633,
      "▁reh": 8634,
      "▁gam": 8635,
      "▁category": 8636,
      "40": 8637,
      "▁ref": 8638,
      "▁attitudes": 8639,
      "dity": 8640,
      "▁popup": 8641,
      "▁sacrifices": 8642,
      "▁kicked": 8643,
      "▁alread": 8644,
      "▁lent": 8645,
      "▁cloth": 8646,
      "▁orders": 8647,
      "ank": 8648,
      "▁realize": 8649,
      "esday": 8650,
      "▁carve": 8651,
      "▁survived": 8652,
      "ich": 8653,
      "▁lan": 8654,
      "ressions": 8655,
      "▁dlc": 8656,
      "▁locks": 8657,
      "▁private": 8658,
      "▁coun": 8659,
      "▁crossing": 8660,
      "▁carefully": 8661,
      "▁counterparty": 8662,
      "▁oblig": 8663,
      "ck": 8664,
      "▁ip": 8665,
      "▁staircase": 8666,
      "▁aro": 8667,
      "▁production": 8668,
      "▁arrives": 8669,
      "outs": 8670,
      "▁twirl": 8671,
      "▁verge": 8672,
      "▁shores": 8673,
      "▁handed": 8674,
      "▁mma": 8675,
      "▁curriculum": 8676,
      "▁glad": 8677,
      "▁squeal": 8678,
      "itis": 8679,
      "▁dioxide": 8680,
      "▁planned": 8681,
      "▁plans": 8682,
      "▁tulsa": 8683,
      "▁obtain": 8684,
      "▁sales": 8685,
      "▁detective": 8686,
      "▁destruc": 8687,
      "▁depend": 8688,
      "▁unt": 8689,
      "▁payers": 8690,
      "scrib": 8691,
      "▁crap": 8692,
      "▁shops": 8693,
      "opath": 8694,
      "▁tot": 8695,
      "▁correspond": 8696,
      "▁cafes": 8697,
      "▁mat": 8698,
      "▁fat": 8699,
      "piece": 8700,
      "oval": 8701,
      "▁fathers": 8702,
      "tally": 8703,
      "war": 8704,
      "oses": 8705,
      "▁ensu": 8706,
      "▁bit": 8707,
      "▁16": 8708,
      "▁seas": 8709,
      "▁communities": 8710,
      "▁stress": 8711,
      "▁compliments": 8712,
      "▁saves": 8713,
      "▁ten": 8714,
      "▁ask": 8715,
      "▁guidance": 8716,
      "▁starters": 8717,
      "▁atrophy": 8718,
      "▁mitch": 8719,
      "▁dined": 8720,
      "▁environments": 8721,
      "▁im": 8722,
      "esion": 8723,
      "ho": 8724,
      "▁fax": 8725,
      "▁like": 8726,
      "nically": 8727,
      "▁attending": 8728,
      "inos": 8729,
      "▁|--------+----------------": 8730,
      ".p": 8731,
      "ots": 8732,
      "ʃ": 8733,
      "▁ze": 8734,
      "▁brainw": 8735,
      "amic": 8736,
      "▁mathematics": 8737,
      "▁culture": 8738,
      "aceful": 8739,
      "▁surpr": 8740,
      "opard": 8741,
      "▁friday": 8742,
      "ows": 8743,
      "▁packages": 8744,
      "▁freshman": 8745,
      "▁arise": 8746,
      "▁poor": 8747,
      "itates": 8748,
      "▁surp": 8749,
      "▁wild": 8750,
      "▁preserve": 8751,
      "▁it": 8752,
      "▁sy": 8753,
      "comp": 8754,
      "▁install": 8755,
      "▁performance": 8756,
      "▁stic": 8757,
      "▁scenery": 8758,
      "▁lur": 8759,
      "▁negotiation": 8760,
      "inoc": 8761,
      "▁handling": 8762,
      "▁glu": 8763,
      "▁surr": 8764,
      "ugg": 8765,
      "▁antibiotics": 8766,
      "▁plus": 8767,
      "▁rhino": 8768,
      "urn": 8769,
      "▁aeros": 8770,
[...]
