{
  "version": "1.0",
  "truncation": null,
  "padding": null,
  "added_tokens": [
    {
      "id": 379,
      "content": "[SEP]",
      "single_word": false,
      "lstrip": false,
      "rstrip": false,
      "normalized": false,
      "special": true
    },
    {
      "id": 1497,
      "content": "[CLS]",
      "single_word": false,
      "lstrip": false,
      "rstrip": false,
      "normalized": false,
      "special": true
    },
    {
      "id": 6128,
      "content": "[UNK]",
      "single_word": false,
      "lstrip": false,
      "rstrip": false,
      "normalized": false,
      "special": true
    },
    {
      "id": 6730,
      "content": "[MASK]",
      "single_word": false,
      "lstrip": false,
      "rstrip": false,
      "normalized": false,
      "special": true
    },
    {
      "id": 7096,
      "content": "[PAD]",
      "single_word": false,
      "lstrip": false,
      "rstrip": false,
      "normalized": false,
      "special": true
    }
  ],
  "normalizer": {
    "type": "Sequence",
    "normalizers": [
      {
        "type": "NFD"
      },
      {
        "type": "Lowercase"
      },
      {
        "type": "StripAccents"
      }
    ]
  },
  "pre_tokenizer": {
    "type": "Sequence",
    "pretokenizers": [
      {
        "type": "Metaspace",
        "replacement": "▁",
        "prepend_scheme": "always",
        "split": true
      }
    ]
  },
  "post_processor": {
    "type": "TemplateProcessing",
    "single": [
      {
        "SpecialToken": {
          "id": "[CLS]",
          "type_id": 0
        }
      },
      {
        "Sequence": {
          "id": "A",
          "type_id": 0
        }
      },
      {
        "SpecialToken": {
          "id": "[SEP]",
          "type_id": 0
        }
      }
    ],
    "pair": [
      {
        "SpecialToken": {
          "id": "[CLS]",
          "type_id": 0
        }
      },
      {
        "Sequence": {
          "id": "A",
          "type_id": 0
        }
      },
      {
        "SpecialToken": {
          "id": "[SEP]",
          "type_id": 0
        }
      },
      {
        "Sequence": {
          "id": "B",
          "type_id": 1
        }
      },
      {
        "SpecialToken": {
          "id": "[SEP]",
          "type_id": 1
        }
      }
    ],
    "special_tokens": {
      "[CLS]": {
        "id": "[CLS]",
        "ids": [
          1497
        ],
        "tokens": [
          "[CLS]"
        ]
      },
      "[SEP]": {
        "id": "[SEP]",
        "ids": [
          379
        ],
        "tokens": [
          "[SEP]"
        ]
      }
    }
  },
  "decoder": {
    "type": "Metaspace",
    "replacement": "▁",
    "prepend_scheme": "always",
    "split": true
  },
  "model": {
    "type": "WordPiece",
    "unk_token": "[UNK]",
    "continuing_subword_prefix": "##",
    "max_input_chars_per_word": 100,
    "vocab": {
      "▁text": 0,
      "▁trials": 1,
      "▁taxi": 2,
      "▁jih": 3,
      "##ase": 4,
      "▁advertising": 5,
      "▁candy": 6,
      "▁codes": 7,
      "▁future": 8,
      "##gg": 9,
      "▁vac": 10,
      "##io": 11,
      "▁loans": 12,
      "##ories": 13,
      "▁polic": 14,
      "▁defining": 15,
      "▁lessons": 16,
      "▁face": 17,
      "##appy": 18,
      "##jects": 19,
      "▁negotiations": 20,
      "##corn": 21,
      "▁al": 22,
      "▁dev": 23,
      "##ocked": 24,
      "▁sew": 25,
      "▁&": 26,
      "##ird": 27,
      "▁evac": 28,
      "▁resources": 29,
      "▁determine": 30,
      "▁manufact": 31,
      "▁approved": 32,
      "▁nephew": 33,
      "▁decisions": 34,
      "▁imagination": 35,
      "▁mi": 36,
      "▁subst": 37,
      "▁busy": 38,
      "▁equipment": 39,
      "▁politics": 40,
      "##idden": 41,
      "▁spin": 42,
      "▁sign": 43,
      "##ip": 44,
      "##ort": 45,
      "▁tol": 46,
      "##er": 47,
      "▁concl": 48,
      "▁cott": 49,
      "▁impacts": 50,
      "##ved": 51,
      "▁favorite": 52,
      "##able": 53,
      "##inus": 54,
      "##bb": 55,
      "##ousness": 56,
      "##cakes": 57,
      "▁toll": 58,
      "▁shares": 59,
      "▁animal": 60,
      "▁appl": 61,
      "##uum": 62,
      "##erv": 63,
      "▁story": 64,
      "▁defeated": 65,
      "▁aut": 66,
      "▁inhabit": 67,
      "▁context": 68,
      "▁advice": 69,
      "##tured": 70,
      "▁respect": 71,
      "▁brain": 72,
      "d": 73,
      "##ers": 74,
      "##ority": 75,
      "##ithstanding": 76,
      "▁change": 77,
      "##end": 78,
      "▁potty": 79,
      "▁murders": 80,
      "▁alcohol": 81,
      "▁famili": 82,
      "##utiful": 83,
      "▁per": 84,
      "##night": 85,
      "▁concent": 86,
      "▁considering": 87,
      "##all": 88,
      "▁claiming": 89,
      "▁techn": 90,
      "▁setup": 91,
      "▁agriculture": 92,
      "▁as400": 93,
      "##ap": 94,
      "##ract": 95,
      "##ither": 96,
      "▁{": 97,
      "##lu": 98,
      "▁look": 99,
      "▁espec": 100,
      "▁enterpr": 101,
      "·": 102,
      "##mar": 103,
      "##led": 104,
      "▁att": 105,
      "▁recon": 106,
      "##ε": 107,
      "▁aircraft": 108,
      "▁poo": 109,
      "##are": 110,
      "##alk": 111,
      "▁discre": 112,
      "▁forgotten": 113,
      "▁inst": 114,
      "▁hit": 115,
      "▁remaining": 116,
      "▁january": 117,
      "▁century": 118,
      "##omed": 119,
      "##enience": 120,
      "##urch": 121,
      "▁thous": 122,
      "▁gro": 123,
      "▁der": 124,
      "▁susp": 125,
      "▁now": 126,
      "6": 127,
      "▁run": 128,
      "▁location": 129,
      "▁affected": 130,
      "▁beaches": 131,
      "##ones": 132,
      "##ake": 133,
      "▁event": 134,
      "▁disapp": 135,
      "▁must": 136,
      "▁cabbage": 137,
      "▁great": 138,
      "▁coordination": 139,
      "▁represented": 140,
      "▁price": 141,
      "▁ov": 142,
      "▁neg": 143,
      "▁ai": 144,
      "##’": 145,
      "▁ld2d-": 146,
      "▁addressed": 147,
      "▁champ": 148,
      "▁bee": 149,
      "▁few": 150,
      "##ise": 151,
      "▁his": 152,
      "▁god": 153,
      "▁church": 154,
      "▁straps": 155,
      "▁grammar": 156,
      "##eces": 157,
      "▁danger": 158,
      "##[": 159,
      "##ex": 160,
      "▁gone": 161,
      "▁predators": 162,
      "##art": 163,
      "▁hotel": 164,
      "##ali": 165,
      "##ights": 166,
      "##ce": 167,
      "▁test": 168,
      "▁covered": 169,
      "##arked": 170,
      "▁steam": 171,
      "▁lab": 172,
      "##ith": 173,
      "▁wall": 174,
      "##gs": 175,
      "▁diaper": 176,
      "▁proc": 177,
      "▁supposed": 178,
      "▁force": 179,
      "▁smal": 180,
      "▁amounts": 181,
      "▁leading": 182,
      "▁streng": 183,
      "▁legisl": 184,
      "▁playw": 185,
      "##cer": 186,
      "▁civili": 187,
      "▁collect": 188,
      "▁balloons": 189,
      "##anda": 190,
      "▁receipt": 191,
      "##hin": 192,
      "##alog": 193,
      "▁statement": 194,
      "▁rot": 195,
      "▁november": 196,
      "▁ya": 197,
      "▁demonstrated": 198,
      "▁requiring": 199,
      "▁listen": 200,
      "▁match": 201,
      "▁undert": 202,
      "##--------+----------------": 203,
      "▁interp": 204,
      "▁fut": 205,
      "##ular": 206,
      ">": 207,
      "▁environment": 208,
      "▁gave": 209,
      "▁this": 210,
      "▁changes": 211,
      "▁roc": 212,
      "r": 213,
      "▁your": 214,
      "▁vacc": 215,
      "▁gun": 216,
      "▁studied": 217,
      "▁notch": 218,
      "▁readers": 219,
      "▁achievement": 220,
      "##ologist": 221,
      "▁compan": 222,
      "##room": 223,
      "▁persons": 224,
      "▁critic": 225,
      "##ales": 226,
      "▁fair": 227,
      "▁terms": 228,
      "##nus": 229,
      "▁grow": 230,
      "##its": 231,
      "##ts": 232,
      "▁isd": 233,
      "##ech": 234,
      "▁advised": 235,
      "▁vice": 236,
      "▁listing": 237,
      "▁amendments": 238,
      "▁muscle": 239,
      "▁cried": 240,
      "▁ones": 241,
      "▁stro": 242,
      "▁st": 243,
      "▁completed": 244,
      "##ean": 245,
      "##oral": 246,
      "##ogn": 247,
      "▁pressure": 248,
      "▁earned": 249,
      "▁period": 250,
      "▁_______": 251,
      "▁state": 252,
      "▁!!!": 253,
      "▁fix": 254,
      "▁knows": 255,
      "##ke": 256,
      "▁processes": 257,
      "▁dresses": 258,
      "▁glasses": 259,
      "▁succeed": 260,
      "▁.?": 261,
      "▁month": 262,
      "▁plane": 263,
      "##onna": 264,
      "##ug": 265,
      "##iss": 266,
      "▁skip": 267,
      "##enti": 268,
      "▁swing": 269,
      "▁theat": 270,
      "▁listed": 271,
      "▁gal": 272,
      "▁interference": 273,
      "▁belief": 274,
      "##itely": 275,
      "##pec": 276,
      "▁decl": 277,
      "▁concepts": 278,
      "▁equip": 279,
      "▁makes": 280,
      "##uil": 281,
      "▁risk": 282,
      "▁entertainment": 283,
      "ł": 284,
      ";": 285,
      "##ture": 286,
      "▁common": 287,
      "▁propose": 288,
      "▁introduce": 289,
      "▁manuscri": 290,
      "▁concrete": 291,
      "▁sl": 292,
      "##aus": 293,
      "▁interests": 294,
      "##off": 295,
      "▁locom": 296,
      "▁chess": 297,
      "##med": 298,
      "▁introducing": 299,
      "▁operating": 300,
      "▁schedule": 301,
      "##eline": 302,
      "▁radiation": 303,
      "▁delivery": 304,
      "##ssible": 305,
      "▁nails": 306,
      "▁becom": 307,
      "▁rebuil": 308,
      "▁nation": 309,
      "##urs": 310,
      "▁runs": 311,
      "▁rank": 312,
      "##ellow": 313,
      "▁!": 314,
      "▁ans": 315,
      "##uting": 316,
      "▁cocktail": 317,
      "##and": 318,
      "▁cy": 319,
      "▁planning": 320,
      "▁the": 321,
      "▁shower": 322,
      "▁ahead": 323,
      "▁scored": 324,
      "▁carbon": 325,
      "##acters": 326,
      "▁situation": 327,
      "##cape": 328,
      "▁co-": 329,
      "▁petroleum": 330,
      "▁vers": 331,
      "▁bears": 332,
      "##ulf": 333,
      "▁action": 334,
      "▁ling": 335,
      "$": 336,
      "##ply": 337,
      "▁spill": 338,
      "▁mich": 339,
      "##urop": 340,
      "##omach": 341,
      "▁jail": 342,
      "▁enj": 343,
      "▁appropri": 344,
      "##tt": 345,
      "▁endeav": 346,
      "▁facilitate": 347,
      "▁ep": 348,
      "##estiv": 349,
      "▁heard": 350,
      "▁issued": 351,
      "▁folks": 352,
      "▁[...]": 353,
      "▁charge": 354,
      "##bly": 355,
      "▁repeated": 356,
      "▁prac": 357,
      "▁testing": 358,
      "▁draft": 359,
      "▁ice": 360,
      "▁oath": 361,
      "##od": 362,
      "▁claims": 363,
      "##inking": 364,
      "▁cows": 365,
      "▁trad": 366,
      "▁derived": 367,
      "▁!?!": 368,
      "▁speci": 369,
      "▁decision": 370,
      "▁experi": 371,
      "▁cons": 372,
      "##des": 373,
      "##epend": 374,
      "▁middle": 375,
      "##irus": 376,
      "▁loc": 377,
      "##nec": 378,
      "[SEP]": 379,
      "##et": 380,
      "▁live": 381,
      "##ang": 382,
      "▁ok": 383,
      "▁squirt": 384,
      "▁contacts": 385,
      "▁refrigerator": 386,
      "▁boil": 387,
      "▁contributions": 388,
      "▁believes": 389,
      "▁protected": 390,
      "▁generators": 391,
      "▁woke": 392,
      "▁yesterday": 393,
      "▁session": 394,
      "##eeze": 395,
      "▁play": 396,
      "▁submitted": 397,
      "##inging": 398,
      "▁hay": 399,
      "▁pocketbook": 400,
      "##erc": 401,
      "▁standards": 402,
      "▁hous": 403,
      "##rew": 404,
      "##ada": 405,
      "▁sock": 406,
      "▁squeeze": 407,
      "##essment": 408,
      "▁texas": 409,
      "▁read": 410,
      "▁putting": 411,
      "▁affairs": 412,
      "##el": 413,
      "##irl": 414,
      "▁***": 415,
      "▁observed": 416,
      "▁summer": 417,
      "▁ri": 418,
      "##ough": 419,
      "▁equals": 420,
      "##oph": 421,
      "▁funds": 422,
      "▁established": 423,
      "▁team": 424,
      "▁du": 425,
      "##quis": 426,
      "▁pop": 427,
      "▁appeared": 428,
      "▁miles": 429,
      "3": 430,
      "▁que": 431,
      "##ont": 432,
      "▁score": 433,
      "▁neighborhood": 434,
      "▁adoption": 435,
      "##ictions": 436,
      "▁je": 437,
      "▁a.m.": 438,
      "▁newark": 439,
      "▁planes": 440,
      "##ł": 441,
      "##vening": 442,
      "▁promise": 443,
      "##ests": 444,
      "##ild": 445,
      "▁dump": 446,
      "##æ": 447,
      "##inds": 448,
      "##knowled": 449,
      "▁pants": 450,
      "▁restric": 451,
      "▁being": 452,
      "▁ski": 453,
      "▁near": 454,
      "##ull": 455,
      "▁connec": 456,
      "▁stepped": 457,
      "▁choo": 458,
      "▁riding": 459,
      "##yn": 460,
      "▁poet": 461,
      "▁closed": 462,
      "▁se": 463,
      "▁requirement": 464,
      "▁convin": 465,
      "##og": 466,
      "▁bent": 467,
      "▁********************************": 468,
      "▁difficul": 469,
      "##lf": 470,
      "▁encour": 471,
      "▁explo": 472,
      "▁hire": 473,
      "##tis": 474,
      "▁bir": 475,
      "##tle": 476,
      "▁lines": 477,
      "▁nov": 478,
      "##ions": 479,
      "##ler": 480,
      "▁quino": 481,
      "▁propos": 482,
      "▁ingred": 483,
      "▁estimate": 484,
      "▁laid": 485,
      "▁los": 486,
      "▁tel": 487,
      "▁guarantee": 488,
      "▁pas": 489,
      "▁racing": 490,
      "##place": 491,
      "##eting": 492,
      "▁gym": 493,
      "##ach": 494,
      "▁considered": 495,
      "▁places": 496,
      "▁journey": 497,
      "▁counter": 498,
      "##lished": 499,
      "▁bu": 500,
      "##emb": 501,
      "▁service": 502,
      "▁it's": 503,
      "##rested": 504,
      "▁donkey": 505,
      "##ual": 506,
      "▁resolution": 507,
      "▁helped": 508,
      "▁ll": 509,
      "##hibited": 510,
      "▁mul": 511,
      "▁names": 512,
      "▁things": 513,
      "▁begins": 514,
      "##ders": 515,
      "▁asked": 516,
      "##oo": 517,
      "▁))": 518,
      "▁excellent": 519,
      "▁analy": 520,
      "▁imp": 521,
      "▁counterfeiting": 522,
      "▁hundreds": 523,
      "▁bound": 524,
      "▁identified": 525,
      "▁tur": 526,
      "▁amidst": 527,
      "{": 528,
      "▁set": 529,
      "##erate": 530,
      "##ired": 531,
      "##phis": 532,
      "▁produce": 533,
      "##essing": 534,
      "▁belongs": 535,
      "▁apolog": 536,
      "▁homeopath": 537,
      "▁reduced": 538,
      "▁mac": 539,
      "##rectly": 540,
      "▁shoes": 541,
      "▁structure": 542,
      "▁europe": 543,
      "▁absorb": 544,
      "##set": 545,
      "▁reservation": 546,
      "▁king": 547,
      "▁allowing": 548,
      "▁branch": 549,
      "▁arab": 550,
      "▁nothing": 551,
      "▁dese": 552,
      "##enders": 553,
      "##ro": 554,
      "▁contrast": 555,
      "▁instruc": 556,
      "▁statute": 557,
      "▁airport": 558,
      "▁browser": 559,
      "▁health": 560,
      "▁gd": 561,
      "▁notebook": 562,
      "▁emphas": 563,
      "▁university": 564,
      "▁mass": 565,
      "▁land": 566,
      "▁diego": 567,
      "##overy": 568,
      "▁forms": 569,
      "▁crawl": 570,
      "▁mine": 571,
      "▁fol": 572,
      "▁homes": 573,
      "▁festival": 574,
      "▁share": 575,
      "▁representation": 576,
      "▁autumn": 577,
      "p": 578,
      "▁assets": 579,
      "##bs": 580,
      "##‘": 581,
      "▁addition": 582,
      "▁arr": 583,
      "##tern": 584,
      "▁here": 585,
      "##<": 586,
      "▁children": 587,
      "▁studying": 588,
      "β": 589,
      "##μ": 590,
      "▁towns": 591,
      "▁soy": 592,
      "▁desire": 593,
      "▁clean": 594,
      "▁ow": 595,
      "▁flir": 596,
      "▁port": 597,
      "▁literature": 598,
      "##gr": 599,
      "▁+": 600,
      "▁gardens": 601,
      "##rec": 602,
      "▁batteries": 603,
      "▁rising": 604,
      "##scrib": 605,
      "##osen": 606,
      "▁values": 607,
      "##ief": 608,
      "▁cave": 609,
      "▁subscrib": 610,
      "³": 611,
      "##iv": 612,
      "##the": 613,
      "▁datab": 614,
      "##uck": 615,
      "##res": 616,
      "##ier": 617,
      "##ur": 618,
      "▁!!!!!!!!!!!!!!!": 619,
      "▁dragged": 620,
      "▁writer": 621,
      "##icians": 622,
      "##ei": 623,
      "▁husband": 624,
      "▁vlog": 625,
      "▁pean": 626,
      "▁reference": 627,
      "##ision": 628,
      "##bably": 629,
      "▁sin": 630,
      "▁troops": 631,
      "▁monitor": 632,
      "▁advise": 633,
      "▁bronze": 634,
      "▁contain": 635,
      "▁proper": 636,
      "▁inspired": 637,
      "▁noted": 638,
      "▁article": 639,
      "▁motorc": 640,
      "▁tastes": 641,
      "▁construc": 642,
      "▁wonder": 643,
      "▁corn": 644,
      "▁shirt": 645,
      "▁included": 646,
      "##p;": 647,
      "▁turns": 648,
      "##oy": 649,
      "“": 650,
      "▁mean": 651,
      "##...": 652,
      "▁stops": 653,
      "▁responsibilities": 654,
      "▁progress": 655,
      "##ors": 656,
      "##av": 657,
      "##ady": 658,
      "##pped": 659,
      "▁title": 660,
      "##ued": 661,
      "▁business": 662,
      "▁valley": 663,
      "##ecting": 664,
      "▁parts": 665,
      "▁represent": 666,
      "▁core": 667,
      "▁noise": 668,
      "▁filters": 669,
      "▁guess": 670,
      "▁connecting": 671,
      "##??": 672,
      "▁cred": 673,
      "##ards": 674,
      "##ned": 675,
      "▁replication": 676,
      "▁analys": 677,
      "▁purple": 678,
      "▁expert": 679,
      "▁sect": 680,
      "▁a": 681,
      "▁legacy": 682,
      "▁organize": 683,
      "▁who": 684,
      "##ater": 685,
      "##inger": 686,
      "▁obt": 687,
      "##mped": 688,
      "▁courses": 689,
      "▁politicians": 690,
      "▁root": 691,
      "▁complex": 692,
      "##co": 693,
      "▁administration": 694,
      "##uro": 695,
      "▁..........": 696,
      "▁scheduled": 697,
      "##^": 698,
      "▁aff": 699,
      "▁pri": 700,
      "▁between": 701,
      "▁aug": 702,
      "y": 703,
      "▁comed": 704,
      "▁dinosaur": 705,
      "▁exception": 706,
      "##ys": 707,
      "##ump": 708,
      "##!!!!": 709,
      "##ins": 710,
      "▁tickets": 711,
      "▁alter": 712,
      "##rong": 713,
      "▁sk": 714,
      "▁ang": 715,
      "▁daughter": 716,
      "▁wednesdays": 717,
      "▁visited": 718,
      "▁duties": 719,
      "▁sp": 720,
      "▁dipl": 721,
      "▁roman": 722,
      "▁competition": 723,
      "##ord": 724,
      "▁distance": 725,
      "▁cabinet": 726,
      "##cinn": 727,
      "▁factor": 728,
      "▁hon": 729,
      "▁y": 730,
      "▁ki": 731,
      "##ature": 732,
      "▁partnership": 733,
      "##urn": 734,
      "▁components": 735,
      "▁sad": 736,
      "▁coo": 737,
      "▁receip": 738,
      "▁pat": 739,
      "▁kit": 740,
      "##ternoon": 741,
      "5": 742,
      "▁hum": 743,
      "▁lettuce": 744,
      "▁yoga": 745,
      "▁in": 746,
      "▁concerns": 747,
      "▁nice": 748,
      "▁traffic": 749,
      "▁joh": 750,
      "▁guerr": 751,
      "##ure": 752,
      "▁answer": 753,
      "▁wash": 754,
      "▁escaped": 755,
      "▁reduces": 756,
      "▁exists": 757,
      "▁pink": 758,
      "##ration": 759,
      "▁myce": 760,
      "▁term": 761,
      "▁conviction": 762,
      "##book": 763,
      "▁balloon": 764,
      "▁led": 765,
      "▁insur": 766,
      "▁profess": 767,
      "▁****": 768,
      "▁ide": 769,
      "▁ess": 770,
      "▁cheese": 771,
      "▁arm": 772,
      "##selves": 773,
      "▁farmers": 774,
      "▁backed": 775,
      "▁fa": 776,
      "▁regime": 777,
      "▁fin": 778,
      "▁auth": 779,
      "▁o'clock": 780,
      "▁gl": 781,
      "▁russ": 782,
      "▁dy": 783,
      "▁sch": 784,
      "▁activities": 785,
      "##ama": 786,
      "▁neuro": 787,
      "##ened": 788,
      "▁cla": 789,
      "▁ozone": 790,
      "▁stopping": 791,
      "▁issues": 792,
      "▁spring": 793,
      "##ville": 794,
      "▁ship": 795,
      "▁interpret": 796,
      "▁pops": 797,
      "##eb": 798,
      "▁feet": 799,
      "##uation": 800,
      "▁involving": 801,
      "##enture": 802,
      "▁dun": 803,
      "##spec": 804,
      "▁manufacturers": 805,
      "▁skill": 806,
      "▁room": 807,
      "▁believe": 808,
      "▁horror": 809,
      "▁place": 810,
      "##son": 811,
      "▁yourselves": 812,
      "##ects": 813,
      "▁ann": 814,
      "##itt": 815,
      "b": 816,
      "▁fan": 817,
      "▁car": 818,
      "▁showing": 819,
      "▁okay": 820,
      "##chie": 821,
      "▁substances": 822,
      "##outs": 823,
      "▁spread": 824,
      "##tie": 825,
      "▁pretty": 826,
      "##reds": 827,
      "▁light": 828,
      "##aying": 829,
      "▁journal": 830,
      "▁subject": 831,
      "##ive": 832,
      "##ative": 833,
      "▁approached": 834,
      "▁soap": 835,
      "##ad": 836,
      "▁dis": 837,
      "▁holds": 838,
      "▁skin": 839,
      "##aroni": 840,
      "▁enjambment": 841,
      "▁seconds": 842,
      "##formed": 843,
      "▁por": 844,
      "##ivers": 845,
      "▁papers": 846,
      "##com": 847,
      "▁missing": 848,
      "▁insights": 849,
      "▁might": 850,
      "▁agre": 851,
      "▁scale": 852,
      "▁punch": 853,
      "▁cro": 854,
      "▁roared": 855,
      "▁such": 856,
      "##ist": 857,
      "▁description": 858,
      "▁ships": 859,
      "▁scholars": 860,
      "▁lamb": 861,
      "▁amend": 862,
      "▁world": 863,
      "##oss": 864,
      "##ally": 865,
      "▁artists": 866,
      "##cre": 867,
      "##arian": 868,
      "▁venture": 869,
      "##ite": 870,
      "▁eng": 871,
      "▁guy": 872,
      "▁training": 873,
      "▁warning": 874,
      "▁proce": 875,
      "▁junk": 876,
      "▁pictures": 877,
      "▁china": 878,
      "▁finish": 879,
      "▁welcomed": 880,
      "▁regard": 881,
      "▁options": 882,
      "▁mystery": 883,
      "▁----==": 884,
      "##as": 885,
      "##ere": 886,
      "▁announced": 887,
      "▁structures": 888,
      "##ters": 889,
      "▁airline": 890,
      "▁client": 891,
      "##v": 892,
      "▁relief": 893,
      "▁evening": 894,
      "▁registered": 895,
      "▁doctor": 896,
      "##alt": 897,
      "##ufact": 898,
      "▁time": 899,
      "▁contains": 900,
      "##olving": 901,
      "▁knocked": 902,
      "▁occupation": 903,
      "##ceptions": 904,
      "▁rene": 905,
      "▁bew": 906,
      "##come": 907,
      "▁guerrillas": 908,
      "▁foods": 909,
      "▁particip": 910,
      "▁vis": 911,
      "▁initiatives": 912,
      "▁generated": 913,
      "▁extre": 914,
      "▁exposure": 915,
      "▁commitment": 916,
      "▁wheel": 917,
      "c": 918,
      "##ghts": 919,
      "▁expense": 920,
      "▁choices": 921,
      "▁dentist": 922,
      "▁start": 923,
      "▁seem": 924,
      "▁limited": 925,
      "▁knew": 926,
      "▁ours": 927,
      "▁princip": 928,
      "▁menu": 929,
      "▁hear": 930,
      "##rael": 931,
      "▁fore": 932,
      "▁grad": 933,
      "▁fun": 934,
      "##itate": 935,
      "▁fulf": 936,
      "▁aboard": 937,
      "▁focusing": 938,
      "▁bell": 939,
      "##'": 940,
      "##sul": 941,
      "▁reminder": 942,
      "##iating": 943,
      "##ables": 944,
      "##ange": 945,
      "##>": 946,
      "##anded": 947,
      "▁pursu": 948,
      "▁surround": 949,
      "▁discussion": 950,
      "▁tas": 951,
      "##ole": 952,
      "##ould": 953,
      "##rates": 954,
      "▁sight": 955,
      "▁avocado": 956,
      "##titude": 957,
      "##illed": 958,
      "▁shipped": 959,
      "##ware": 960,
      "▁paid": 961,
      "##ugg": 962,
      "▁dream": 963,
      "##pp": 964,
      "▁van": 965,
      "▁cartoon": 966,
      "▁''": 967,
      "▁opening": 968,
      "##onstr": 969,
      "~": 970,
      "▁build": 971,
      "▁even": 972,
      "▁table": 973,
      "▁refuse": 974,
      "▁grid": 975,
      "▁cincinn": 976,
      "▁creates": 977,
      "▁pittsburgh": 978,
      "▁licensed": 979,
      "▁losing": 980,
      "▁dallas": 981,
      "▁everyone": 982,
      "##mon": 983,
      "##eor": 984,
      "▁release": 985,
      "▁mushroom": 986,
      "▁trade": 987,
      "##ycle": 988,
      "▁par": 989,
      "▁meals": 990,
      "▁phone": 991,
      "▁cond": 992,
      "▁fence": 993,
      "▁analyses": 994,
      "▁education": 995,
      "##2d-": 996,
      "▁fam": 997,
      "▁dim": 998,
      "##ulated": 999,
      "##pse": 1000,
      "▁nonstop": 1001,
      "▁female": 1002,
      "▁shows": 1003,
      "▁quan": 1004,
      "▁contrib": 1005,
      "##υ": 1006,
      "▁reflects": 1007,
      "▁poverty": 1008,
      "▁facts": 1009,
      "▁race": 1010,
      "##raph": 1011,
      "▁thousands": 1012,
      "▁instructor": 1013,
      "##mal": 1014,
      "##essed": 1015,
      "▁states": 1016,
      "▁thanks": 1017,
      "▁mar": 1018,
      "##ighter": 1019,
      "##asis": 1020,
      "▁m": 1021,
      "##rop": 1022,
      "▁char": 1023,
      "▁treatment": 1024,
      "▁snow": 1025,
      "▁folio": 1026,
      "▁without": 1027,
      "###69": 1028,
      "▁sticker": 1029,
      "▁border": 1030,
      "▁involved": 1031,
      "▁poem": 1032,
      "▁cash": 1033,
      "▁seed": 1034,
      "▁won": 1035,
      "▁trail": 1036,
      "▁coincidence": 1037,
      "##”": 1038,
      "▁unemployment": 1039,
      "▁with": 1040,
      "▁d'": 1041,
      "##me": 1042,
      "▁stores": 1043,
      "▁row": 1044,
      "½": 1045,
      "▁bur": 1046,
      "▁eyes": 1047,
      "▁tested": 1048,
      "##ans": 1049,
      "▁adding": 1050,
      "▁resc": 1051,
      "▁mouth": 1052,
      "▁administr": 1053,
      "##rigu": 1054,
      "▁discussed": 1055,
      "##kes": 1056,
      "▁records": 1057,
      "##tsbur": 1058,
      "▁giraffe": 1059,
      "▁container": 1060,
      "▁trips": 1061,
      "▁acknowledge": 1062,
      "▁uk": 1063,
      "##ell": 1064,
      "▁–": 1065,
      "▁depth": 1066,
      "▁milk": 1067,
      "▁appro": 1068,
      "▁territ": 1069,
      "##nets": 1070,
      "▁enter": 1071,
      "▁gathered": 1072,
      "##self": 1073,
      "▁princ": 1074,
      "▁activity": 1075,
      "▁fe": 1076,
      "=": 1077,
      "##rem": 1078,
      "▁objec": 1079,
      "▁clou": 1080,
      "##ten": 1081,
      "##n": 1082,
      "##orti": 1083,
      "▁insp": 1084,
      "▁ques": 1085,
      "▁copied": 1086,
      "▁background": 1087,
      "##not": 1088,
      "▁perhaps": 1089,
      "▁sweater": 1090,
      "▁pu": 1091,
      "▁supporting": 1092,
      "▁4": 1093,
      "##ult": 1094,
      "##o": 1095,
      "▁q": 1096,
      "▁pret": 1097,
      "##ero": 1098,
      "▁.........": 1099,
      "▁fant": 1100,
      "▁strong": 1101,
      "▁jumping": 1102,
      "▁mind": 1103,
      "##attle": 1104,
      "▁sor": 1105,
      "▁tro": 1106,
      "▁&amp;": 1107,
      "▁ir": 1108,
      "▁seeds": 1109,
      "▁palm": 1110,
      "▁customers": 1111,
      "▁regarded": 1112,
      "!": 1113,
      "▁heel": 1114,
      "▁began": 1115,
      "▁bottles": 1116,
      "▁showed": 1117,
      "##waukee": 1118,
      "##one": 1119,
      "##he": 1120,
      "▁rays": 1121,
      "##ran": 1122,
      "##-m": 1123,
      "▁louis": 1124,
      "##ograph": 1125,
      "▁sum": 1126,
      "▁conde": 1127,
      "##ses": 1128,
      "▁kinds": 1129,
      "▁army": 1130,
      "▁responded": 1131,
      "##animals": 1132,
      "##ands": 1133,
      "##ployment": 1134,
      "▁'ve": 1135,
      "▁webs": 1136,
      "##aping": 1137,
      "▁starts": 1138,
      "▁acc": 1139,
      "▁governments": 1140,
      "▁enjoyed": 1141,
      "▁supermar": 1142,
      "▁difficulty": 1143,
      "▁experien": 1144,
      "##ideration": 1145,
      "▁fashion": 1146,
      "▁principles": 1147,
      "▁use": 1148,
      "▁depart": 1149,
      "▁purse": 1150,
      "##uce": 1151,
      "▁remove": 1152,
      "▁products": 1153,
      "##ucks": 1154,
      "##ctions": 1155,
      "▁prop": 1156,
      "##------": 1157,
      "▁emer": 1158,
      "▁shar": 1159,
      "##laim": 1160,
      "▁denied": 1161,
      "▁be": 1162,
      "▁themselves": 1163,
      "▁loo": 1164,
      "▁truth": 1165,
      "▁sex": 1166,
      "##itch": 1167,
      "##ceived": 1168,
      "▁trust": 1169,
      "▁reconc": 1170,
      "##les": 1171,
      "▁sounds": 1172,
      "##69": 1173,
      "▁customer": 1174,
      "▁authors": 1175,
      "▁levels": 1176,
      "##iel": 1177,
      "▁sc": 1178,
      "▁society": 1179,
      "▁airlines": 1180,
      "▁cin": 1181,
      "▁tele": 1182,
      "##ol": 1183,
      "▁america": 1184,
      "▁containing": 1185,
      "##get": 1186,
      "▁shed": 1187,
      "##di": 1188,
      "##fore": 1189,
      "##—": 1190,
      "▁oneself": 1191,
      "▁ton": 1192,
      "▁tv": 1193,
      "##ustration": 1194,
      "##nly": 1195,
      "▁weight": 1196,
      "##imb": 1197,
      "▁bo": 1198,
      "▁tooth": 1199,
      "▁chang": 1200,
      "▁*": 1201,
      "▁looks": 1202,
      "▁wildlife": 1203,
      "▁clock": 1204,
      "▁aimed": 1205,
      "▁cuck": 1206,
      "▁according": 1207,
      "]": 1208,
      "##–": 1209,
      "##gers": 1210,
      "▁island": 1211,
      "▁prepare": 1212,
      "▁bank": 1213,
      "▁success": 1214,
      "▁voices": 1215,
      "▁freedoms": 1216,
      "##isl": 1217,
      "##sts": 1218,
      "##kets": 1219,
      "▁jihad": 1220,
      "▁mist": 1221,
      "▁div": 1222,
      "▁exist": 1223,
      "▁detail": 1224,
      "▁anth": 1225,
      "▁intercon": 1226,
      "##iness": 1227,
      "##:/": 1228,
      "##==": 1229,
      "##fort": 1230,
      "▁occas": 1231,
      "▁dish": 1232,
      "▁destiny": 1233,
      "##---": 1234,
      "▁unit": 1235,
      "▁comedy": 1236,
      "##__": 1237,
      "▁feelings": 1238,
      "▁coming": 1239,
      "##tw": 1240,
      "▁therap": 1241,
      "▁mm": 1242,
      "▁resist": 1243,
      "▁clin": 1244,
      "▁guards": 1245,
      "##ending": 1246,
      "▁winter": 1247,
      "##berry": 1248,
      "▁travel": 1249,
      "▁thank": 1250,
      "▁menti": 1251,
      "▁arrange": 1252,
      "##ational": 1253,
      "▁producers": 1254,
      "##lions": 1255,
      "▁crime": 1256,
      "▁mold": 1257,
      "##alists": 1258,
      "▁court": 1259,
      "▁ar": 1260,
      "v": 1261,
      "▁barn": 1262,
      "##inks": 1263,
      "##ayed": 1264,
      "▁spre": 1265,
      "▁dropped": 1266,
      "##temp": 1267,
      "▁discus": 1268,
      "▁away": 1269,
      "▁hippop": 1270,
      "▁spacetime": 1271,
      "##ement": 1272,
      "▁missile": 1273,
      "▁reception": 1274,
      "▁opposed": 1275,
      "▁adam": 1276,
      "▁observation": 1277,
      "##ulations": 1278,
      "##uated": 1279,
      "▁motiv": 1280,
      "##fications": 1281,
      "##okes": 1282,
      "▁restri": 1283,
      "▁west": 1284,
      "▁descriptions": 1285,
      "▁’ll": 1286,
      "##ases": 1287,
      "▁waves": 1288,
      "##lling": 1289,
      "▁permitted": 1290,
      "▁deliver": 1291,
      "▁spe": 1292,
      "##pol": 1293,
      "▁cos": 1294,
      "▁ear": 1295,
      "▁invented": 1296,
      "##ette": 1297,
      "##ʻ": 1298,
      "▁assist": 1299,
      "##tile": 1300,
      "▁motion": 1301,
      "▁consc": 1302,
      "▁shade": 1303,
      "▁rais": 1304,
      "▁reviews": 1305,
      "##ourn": 1306,
      "##uations": 1307,
      "##urt": 1308,
      "##ires": 1309,
      "##overed": 1310,
      "##----------": 1311,
      "▁attach": 1312,
      "▁sources": 1313,
      "▁remain": 1314,
      "▁wish": 1315,
      "▁nail": 1316,
      "▁each": 1317,
      "▁cognition": 1318,
      "▁...............": 1319,
      "▁drive": 1320,
      "▁revision": 1321,
      "▁’’": 1322,
      "##ully": 1323,
      "▁20": 1324,
      "▁poin": 1325,
      "▁fung": 1326,
      "▁spend": 1327,
      "▁applies": 1328,
      "##ology": 1329,
      "##oin": 1330,
      "▁butt": 1331,
      "▁stre": 1332,
      "##portun": 1333,
      "▁ml": 1334,
      "▁thinking": 1335,
      "▁compli": 1336,
      "▁htt": 1337,
      "▁video": 1338,
      "##eep": 1339,
      "##ways": 1340,
      "##za": 1341,
      "▁hoo": 1342,
      "##use": 1343,
      "▁curves": 1344,
      "##action": 1345,
      "▁stars": 1346,
      "▁compl": 1347,
      "##ain": 1348,
      "▁behin": 1349,
      "▁hours": 1350,
      "▁opinions": 1351,
      "▁librarians": 1352,
      "▁factors": 1353,
      "▁jo": 1354,
      "▁circles": 1355,
      "▁admit": 1356,
      "▁selling": 1357,
      "▁----": 1358,
      "##ct": 1359,
      "▁current": 1360,
      "▁specify": 1361,
      "##ested": 1362,
      "##eav": 1363,
      "▁s’": 1364,
      "##iring": 1365,
      "▁shakespeare": 1366,
      "▁seems": 1367,
      "▁bowl": 1368,
      "▁flying": 1369,
      "##ir": 1370,
      "##em": 1371,
      "##icking": 1372,
      "ɛ": 1373,
      "▁helping": 1374,
      "▁ro": 1375,
      "▁cincinnati": 1376,
      "▁civ": 1377,
      "##aw": 1378,
      "##ute": 1379,
      "▁laughed": 1380,
      "▁burn": 1381,
      "▁decide": 1382,
      "▁modified": 1383,
      "▁draw": 1384,
      "▁explore": 1385,
      "##pathy": 1386,
      "##thin": 1387,
      "##hib": 1388,
      "▁shore": 1389,
      "▁mut": 1390,
      "##nam": 1391,
      "[": 1392,
      "##enix": 1393,
      "##ugged": 1394,
      "▁ground": 1395,
      "▁anti": 1396,
      "▁received": 1397,
      "▁poll": 1398,
      "▁lifetime": 1399,
      "##itated": 1400,
      "▁since": 1401,
      "▁excel": 1402,
      "##.m.": 1403,
      "##equ": 1404,
      "##ighb": 1405,
      "▁washing": 1406,
      "▁moth": 1407,
      "##affle": 1408,
      "▁nt": 1409,
      "▁mag": 1410,
      "▁september": 1411,
      "▁phenomen": 1412,
      "▁worksh": 1413,
      "▁constitu": 1414,
      "▁inc": 1415,
      "##nding": 1416,
      "##ver": 1417,
      "▁stick": 1418,
      "▁********": 1419,
      "▁prem": 1420,
      "▁enough": 1421,
      "▁nav": 1422,
      "▁kidding": 1423,
      "##ancers": 1424,
      "▁beard": 1425,
      "▁area": 1426,
      "▁`s": 1427,
      "▁mil": 1428,
      "▁rescue": 1429,
      "▁gives": 1430,
      "##.pd": 1431,
      "▁abbre": 1432,
      "▁alt.animals.": 1433,
      "▁shown": 1434,
      "##d-": 1435,
      "▁settled": 1436,
      "##isture": 1437,
      "▁productivity": 1438,
      "▁banana": 1439,
      "##rely": 1440,
      "▁poss": 1441,
      "▁opinion": 1442,
      "▁cited": 1443,
      "▁shorts": 1444,
      "▁falling": 1445,
      "▁networks": 1446,
      "▁wig": 1447,
      "▁ter": 1448,
      "▁provision": 1449,
      "▁express": 1450,
      "##ons": 1451,
      "▁plat": 1452,
      "▁assigned": 1453,
      "▁stuck": 1454,
      "▁technology": 1455,
      "##uling": 1456,
      "▁kind": 1457,
      "▁clar": 1458,
      "##ansion": 1459,
      "##ually": 1460,
      "##ec": 1461,
      "▁sheep": 1462,
      "##raw": 1463,
      "▁democracy": 1464,
      "##tise": 1465,
      "▁secret": 1466,
      "##rib": 1467,
      "##ude": 1468,
      "▁covering": 1469,
      "▁called": 1470,
      "▁learned": 1471,
      "##ato": 1472,
      "▁nume": 1473,
      "▁satisf": 1474,
      "▁liquid": 1475,
      "▁ceremony": 1476,
      "##²": 1477,
      "▁purposes": 1478,
      "▁part": 1479,
      "▁important": 1480,
      "▁weeks": 1481,
      "▁ducks": 1482,
      "▁alligator": 1483,
      "▁profit": 1484,
      "▁experim": 1485,
      "▁charlotte": 1486,
      "▁requi": 1487,
      "##stop": 1488,
      "▁employment": 1489,
      "▁arriving": 1490,
      "▁destination": 1491,
      "▁hoped": 1492,
      "▁mou": 1493,
      "##int": 1494,
      "▁special": 1495,
      "▁soci": 1496,
      "[CLS]": 1497,
      "▁campaign": 1498,
      "▁macaroni": 1499,
      "▁transf": 1500,
      "▁boat": 1501,
      "▁treated": 1502,
      "▁updates": 1503,
      "▁glow": 1504,
      "▁applied": 1505,
      "▁strateg": 1506,
      "##thers": 1507,
      "▁inves": 1508,
      "▁aft": 1509,
      "▁dies": 1510,
      "▁reads": 1511,
      "###693": 1512,
      "##jec": 1513,
      "##ted": 1514,
      "▁during": 1515,
      "▁stories": 1516,
      "##bol": 1517,
      "▁pricing": 1518,
      "##iful": 1519,
      "▁method": 1520,
      "▁exce": 1521,
      "▁lesson": 1522,
      "▁mic": 1523,
      "▁sail": 1524,
      "▁tou": 1525,
      "▁fighting": 1526,
      "▁roles": 1527,
      "##nd": 1528,
      "▁line": 1529,
      "▁?!?": 1530,
      "##ring": 1531,
      "▁p.m.": 1532,
      "▁dilem": 1533,
      "▁past": 1534,
      "▁seventh": 1535,
      "##ant": 1536,
      "▁relations": 1537,
      "▁arguments": 1538,
      "##eeds": 1539,
      "▁chalk": 1540,
      "▁meant": 1541,
      "##king": 1542,
      "▁stay": 1543,
      "▁sounded": 1544,
      "##kle": 1545,
      "##huh": 1546,
      "##riage": 1547,
      "j": 1548,
      "▁volunte": 1549,
      "▁microphone": 1550,
      "##ces": 1551,
      "▁power": 1552,
      "▁************************************************": 1553,
      "▁messages": 1554,
      "▁incident": 1555,
      "▁flav": 1556,
      "▁threat": 1557,
      "##arks": 1558,
      "▁submit": 1559,
      "▁congratulate": 1560,
      "▁pot": 1561,
      "±": 1562,
      "##fer": 1563,
      "▁occurred": 1564,
      "▁overcome": 1565,
      "##issed": 1566,
      "##iqu": 1567,
      "##oard": 1568,
      "▁dav": 1569,
      "▁estimated": 1570,
      "▁dwww": 1571,
      "##..": 1572,
      "▁youth": 1573,
      "▁coordin": 1574,
      "▁canc": 1575,
      "▁saturday": 1576,
      "##ability": 1577,
      "▁coupons": 1578,
      "##ʁ": 1579,
      "▁generation": 1580,
      "▁decre": 1581,
      "▁football": 1582,
      "▁fed": 1583,
      "##ching": 1584,
      "##owing": 1585,
      "▁wou": 1586,
      "▁swit": 1587,
      "##unch": 1588,
      "▁harry": 1589,
      "##iate": 1590,
      "▁weap": 1591,
      "▁sat": 1592,
      "▁200": 1593,
      "▁pyr": 1594,
      "▁blood": 1595,
      "▁defend": 1596,
      "▁les": 1597,
      "▁celebr": 1598,
      "▁hr": 1599,
      "##ade": 1600,
      "▁universe": 1601,
      "##ges": 1602,
      "▁net": 1603,
      "##iated": 1604,
      "▁domain": 1605,
      "▁grandm": 1606,
      "▁tomato": 1607,
      "▁horn": 1608,
      "▁gamb": 1609,
      "##!": 1610,
      "▁beg": 1611,
      "##ounced": 1612,
      "▁strength": 1613,
      "&": 1614,
      "▁somewhere": 1615,
      "▁ye": 1616,
      "##ots": 1617,
      "▁cerem": 1618,
      "▁flat": 1619,
      "▁nap": 1620,
      "▁bedroom": 1621,
      "▁stat": 1622,
      "▁thinks": 1623,
      "##t": 1624,
      "▁cont": 1625,
      "▁experts": 1626,
      "▁newspapers": 1627,
      "▁death": 1628,
      "▁reduc": 1629,
      "##ha": 1630,
      "▁diff": 1631,
      "##ocation": 1632,
      "▁cohes": 1633,
      "##ails": 1634,
      "▁presence": 1635,
      "▁fles": 1636,
      "▁infl": 1637,
      "##oices": 1638,
      "▁claim": 1639,
      "##ulating": 1640,
      "▁syrup": 1641,
      "▁ign": 1642,
      "##ummy": 1643,
      "##lik": 1644,
      "▁initial": 1645,
      "▁convention": 1646,
      "▁urs": 1647,
      "##ida": 1648,
      "▁duck": 1649,
      "▁regards": 1650,
      "▁stock": 1651,
      "▁memphis": 1652,
      "▁difference": 1653,
      "▁flash": 1654,
      "▁congratulations": 1655,
      "##ether": 1656,
      "▁bomb": 1657,
      "▁inquiry": 1658,
      "##als": 1659,
      "▁negotiated": 1660,
      "▁trans": 1661,
      "▁faculty": 1662,
      "▁liber": 1663,
      "##ticip": 1664,
      "▁depends": 1665,
      "▁inclu": 1666,
      "▁economy": 1667,
      "▁documented": 1668,
      "▁peanuts": 1669,
      "▁breast": 1670,
      "##elt": 1671,
      "##liament": 1672,
      "▁cru": 1673,
      "▁awareness": 1674,
      "##ctive": 1675,
      "▁°": 1676,
      "▁oper": 1677,
      "##est": 1678,
      "##0's": 1679,
      "▁accomp": 1680,
      "##ause": 1681,
      "▁terr": 1682,
      "▁soup": 1683,
      "▁snitch": 1684,
      "▁demonstr": 1685,
      "##eros": 1686,
      "##ical": 1687,
      "▁error": 1688,
      "▁slee": 1689,
      "▁d": 1690,
      "▁exc": 1691,
      "##alized": 1692,
      "##op": 1693,
      "▁laugh": 1694,
      "▁game": 1695,
      "▁!!!!!!!": 1696,
      "▁installed": 1697,
      "▁vic": 1698,
      "▁....": 1699,
      "▁thri": 1700,
      "▁dall": 1701,
      "##fri": 1702,
      "▁for": 1703,
      "▁than": 1704,
      "▁adopt": 1705,
      "▁schools": 1706,
      "▁gentle": 1707,
      "▁houston": 1708,
      "▁diseas": 1709,
      "▁eating": 1710,
      "▁whoever": 1711,
      "▁surgery": 1712,
      "##resent": 1713,
      "▁result": 1714,
      "##eal": 1715,
      "▁package": 1716,
      "▁medic": 1717,
      "▁fold": 1718,
      "▁lunch": 1719,
      "▁occur": 1720,
      "▁escape": 1721,
      "##inal": 1722,
      "▁permission": 1723,
      "▁whole": 1724,
      "▁furniture": 1725,
      "▁br": 1726,
      "▁stand": 1727,
      "##uff": 1728,
      "##esting": 1729,
      "▁forwarded": 1730,
      "▁anticip": 1731,
      "▁cargo": 1732,
      "▁ma": 1733,
      "▁?????": 1734,
      "▁goose": 1735,
      "##orities": 1736,
      "▁income": 1737,
      "▁tiger": 1738,
      "##ched": 1739,
      "▁bubbles": 1740,
      "▁whom": 1741,
      "▁?": 1742,
      "▁compens": 1743,
      "##lief": 1744,
      "▁priorities": 1745,
      "##ister": 1746,
      "##ence": 1747,
      "▁analysis": 1748,
      "▁l2": 1749,
      "▁moved": 1750,
      "▁matters": 1751,
      "##pre": 1752,
      "▁slipped": 1753,
      "▁do": 1754,
      "▁tape": 1755,
      "▁year": 1756,
      "▁antiqu": 1757,
      "▁electric": 1758,
      "▁one": 1759,
      "s": 1760,
      "▁plant": 1761,
      "▁unto": 1762,
      "▁heading": 1763,
      "▁pled": 1764,
      "▁luck": 1765,
      "▁seam": 1766,
      "##fting": 1767,
      "▁beat": 1768,
      "▁momma": 1769,
      "▁phoenix": 1770,
      "▁transactions": 1771,
      "##mo": 1772,
      "##ai": 1773,
      "▁win": 1774,
      "▁jokes": 1775,
      "##eness": 1776,
      "▁until": 1777,
      "##ely": 1778,
      "##loy": 1779,
      "▁effect": 1780,
      "▁oz": 1781,
      "##lar": 1782,
      "▁dna": 1783,
      "▁o": 1784,
      "▁pushing": 1785,
      "##umb": 1786,
      "##aded": 1787,
      "##orms": 1788,
      "##otyp": 1789,
      "▁!?": 1790,
      "▁entered": 1791,
      "▁food": 1792,
      "▁airplane": 1793,
      "▁its": 1794,
      "##ca": 1795,
      "▁house": 1796,
      "▁http://www": 1797,
      "▁weapons": 1798,
      "##bility": 1799,
      "▁employ": 1800,
      "▁ta": 1801,
      "▁absence": 1802,
      "##ords": 1803,
      "##owl": 1804,
      "7": 1805,
      "##....": 1806,
      "▁job": 1807,
      "##es": 1808,
      "▁guit": 1809,
      "▁houses": 1810,
      "▁committee": 1811,
      "▁furn": 1812,
      "▁ec": 1813,
      "▁files": 1814,
      "▁book": 1815,
      "▁how": 1816,
      "##ates": 1817,
      "##asts": 1818,
      "▁asking": 1819,
      "▁te": 1820,
      "▁ap": 1821,
      "▁enemy": 1822,
      "##le": 1823,
      "▁smell": 1824,
      "▁requests": 1825,
      "▁walls": 1826,
      "▁rode": 1827,
      "▁attachment": 1828,
      "▁meth": 1829,
      "▁generate": 1830,
      "##osite": 1831,
      "▁bom": 1832,
      "▁spea": 1833,
      "▁investigation": 1834,
      "▁swee": 1835,
      "▁toy": 1836,
      "▁sem": 1837,
      "▁foll": 1838,
      "▁able": 1839,
      "▁worked": 1840,
      "▁knock": 1841,
      "▁touch": 1842,
      "▁discussing": 1843,
      "▁happ": 1844,
      "##b": 1845,
      "##ifies": 1846,
      "▁secure": 1847,
      "##ugh": 1848,
      "▁capacity": 1849,
      "##cess": 1850,
      "▁majority": 1851,
      "##ulture": 1852,
      "▁possibilities": 1853,
      "▁planet": 1854,
      "▁significance": 1855,
      "▁ther": 1856,
      "▁tells": 1857,
      "▁adapted": 1858,
      "▁licens": 1859,
      "▁attended": 1860,
      "▁milwaukee": 1861,
      "▁combined": 1862,
      "##ial": 1863,
      "▁suite": 1864,
      "▁town": 1865,
      "▁consideration": 1866,
      "##il": 1867,
      "▁suggesting": 1868,
      "▁policy": 1869,
      "▁disappeared": 1870,
      "▁after": 1871,
      "▁temp": 1872,
      "##icted": 1873,
      "▁wednesday": 1874,
      "▁recommended": 1875,
      "▁assemb": 1876,
      "##ich": 1877,
      "▁vict": 1878,
      "▁cre": 1879,
      "▁entities": 1880,
      "##ay": 1881,
      "##acts": 1882,
      "▁throu": 1883,
      "▁belon": 1884,
      "▁checked": 1885,
      "##sus": 1886,
      "▁stranger": 1887,
      "▁farmer": 1888,
      "▁@": 1889,
      "▁inter": 1890,
      "##l": 1891,
      "▁constit": 1892,
      "▁march": 1893,
      "▁keeps": 1894,
      "##our": 1895,
      "▁breaking": 1896,
      "▁erase": 1897,
      "▁manuf": 1898,
      "▁presentation": 1899,
      "▁pieces": 1900,
      "▁please": 1901,
      "▁design": 1902,
      "##ster": 1903,
      "▁posed": 1904,
      "##lights": 1905,
      "##orts": 1906,
      "▁placed": 1907,
      "▁conf": 1908,
      "##aper": 1909,
      "▁fabric": 1910,
      "▁concer": 1911,
      "▁situations": 1912,
      "▁sust": 1913,
      "▁publish": 1914,
      "##ploy": 1915,
      "▁protect": 1916,
      "▁any": 1917,
      "##oon": 1918,
      "▁finding": 1919,
      "▁desert": 1920,
      "▁tug": 1921,
      "▁moment": 1922,
      "##90s": 1923,
      "##pos": 1924,
      "▁old": 1925,
      "##owed": 1926,
      "▁swallow": 1927,
      "▁minus": 1928,
      "▁them": 1929,
      "▁prov": 1930,
      "▁machines": 1931,
      "▁expl": 1932,
      "▁gol": 1933,
      "##ile": 1934,
      "##tingu": 1935,
      "▁......": 1936,
      "▁tray": 1937,
      "▁total": 1938,
      "▁miss": 1939,
      "##bed": 1940,
      "▁all": 1941,
      "▁chem": 1942,
      "▁website": 1943,
      "##r.": 1944,
      "##umbled": 1945,
      "▁n’t": 1946,
      "▁leader": 1947,
      "##option": 1948,
      "▁sar": 1949,
      "▁bars": 1950,
      "▁maintenance": 1951,
      "▁bicycle": 1952,
      "##st": 1953,
      "▁-----": 1954,
      "▁join": 1955,
      "▁integr": 1956,
      "▁jose": 1957,
      "▁know": 1958,
      "▁poles": 1959,
      "▁theirs": 1960,
      "▁da": 1961,
      "▁comp": 1962,
      "▁receive": 1963,
      "##uit": 1964,
      "▁trying": 1965,
      "▁purch": 1966,
      "▁causes": 1967,
      "▁reserves": 1968,
      "▁forget": 1969,
      "▁manager": 1970,
      "▁store": 1971,
      "##-b": 1972,
      "▁followed": 1973,
      "▁toronto": 1974,
      "▁features": 1975,
      "t": 1976,
      "▁rip": 1977,
      "▁define": 1978,
      "##boy": 1979,
      "▁bott": 1980,
      "##hus": 1981,
      "##anted": 1982,
      "▁preparation": 1983,
      "##lies": 1984,
      "▁technologies": 1985,
      "▁case": 1986,
      "▁check": 1987,
      "▁pile": 1988,
      "▁extent": 1989,
      "▁encourage": 1990,
      "▁membership": 1991,
      "##way": 1992,
      "##ais": 1993,
      "▁statistics": 1994,
      "##rol": 1995,
      "##icul": 1996,
      "▁non-": 1997,
      "##tail": 1998,
      "▁role": 1999,
      "▁aim": 2000,
      "##rest": 2001,
      "▁filtering": 2002,
      "##warded": 2003,
      "▁muscles": 2004,
      "##angu": 2005,
      "##g": 2006,
      "##land": 2007,
      "▁expos": 2008,
      "▁bang": 2009,
      "##omp": 2010,
      "▁policeman": 2011,
      "##ember": 2012,
      "▁jump": 2013,
      "▁writ": 2014,
      "▁ever": 2015,
      "▁sentence": 2016,
      "##ital": 2017,
      "▁tal": 2018,
      "▁turned": 2019,
      "▁leaves": 2020,
      "▁orient": 2021,
      "▁settle": 2022,
      "##ipping": 2023,
      "▁spirit": 2024,
      "##pa": 2025,
      "▁purpose": 2026,
      "##eland": 2027,
      "▁cigar": 2028,
      "▁subs": 2029,
      "##ror": 2030,
      "▁rolled": 2031,
      "##ney": 2032,
      "▁dog": 2033,
      "##?!?": 2034,
      "▁officers": 2035,
      "▁factory": 2036,
      "▁revolution": 2037,
      "▁mathema": 2038,
      "▁seating": 2039,
      "▁upside": 2040,
      "##isters": 2041,
      "▁snakes": 2042,
      "▁exch": 2043,
      "##ints": 2044,
      "▁parent": 2045,
      "▁has": 2046,
      "▁demon": 2047,
      "##sex": 2048,
      "▁best": 2049,
      "▁constitution": 2050,
      "▁pain": 2051,
      "▁neither": 2052,
      "▁suspected": 2053,
      "▁uh": 2054,
      "▁end": 2055,
      "##iciency": 2056,
      "▁doors": 2057,
      "##heet": 2058,
      "▁bugs": 2059,
      "##igration": 2060,
      "##ites": 2061,
      "##-p": 2062,
      "##ft": 2063,
      "▁counterpar": 2064,
      "##eys": 2065,
      ",": 2066,
      "▁high": 2067,
      "▁cha": 2068,
      "▁had": 2069,
      "##at": 2070,
      "▁fault": 2071,
      "▁patients": 2072,
      "##omic": 2073,
      "▁afford": 2074,
      "##actor": 2075,
      "▁greetings": 2076,
      "▁dialog": 2077,
      "##hether": 2078,
      "##mit": 2079,
      "##ction": 2080,
      "▁`": 2081,
      "##te": 2082,
      "▁poems": 2083,
      "▁hoc": 2084,
      "▁recip": 2085,
      "▁household": 2086,
      "▁sep": 2087,
      "▁pro": 2088,
      "▁rec": 2089,
      "##erves": 2090,
      "▁attract": 2091,
      "▁broke": 2092,
      "▁river": 2093,
      "▁pati": 2094,
      "##unk": 2095,
      "▁baby": 2096,
      "▁bodies": 2097,
      "##isions": 2098,
      "▁tickle": 2099,
      "##usions": 2100,
      "▁columns": 2101,
      "##oved": 2102,
      "##time": 2103,
      "▁apple": 2104,
      "▁users": 2105,
      "##icide": 2106,
      "▁offered": 2107,
      "##om": 2108,
      "▁provided": 2109,
      "▁ass": 2110,
      "▁finger": 2111,
      "##qui": 2112,
      "▁spider": 2113,
      "▁wanted": 2114,
      "##yed": 2115,
      "▁maintaining": 2116,
      "▁g": 2117,
      "##ye": 2118,
      "▁manual": 2119,
      "##alization": 2120,
      "##respond": 2121,
      "▁guar": 2122,
      "▁li": 2123,
      "▁!!!!": 2124,
      "▁watch": 2125,
      "▁satellite": 2126,
      "##se": 2127,
      "▁correc": 2128,
      "##iration": 2129,
      "##ther": 2130,
      "##lig": 2131,
      "▁wol": 2132,
      "##la": 2133,
      "▁did": 2134,
      "▁develop": 2135,
      "▁rush": 2136,
      "##?": 2137,
      "▁pittsbur": 2138,
      "▁families": 2139,
      "▁bearing": 2140,
      "##ton": 2141,
      "▁string": 2142,
      "▁notes": 2143,
      "▁,": 2144,
      "▁adults": 2145,
      "▁profession": 2146,
      "##ass": 2147,
      "##iders": 2148,
      "▁opposite": 2149,
      "▁consumer": 2150,
      "##ities": 2151,
      "▁an": 2152,
      "##mb": 2153,
      "▁main": 2154,
      "▁struc": 2155,
      "▁laws": 2156,
      "▁conserv": 2157,
      "##}": 2158,
      "##ʒ": 2159,
      "##anding": 2160,
      "▁english": 2161,
      "##met": 2162,
      "▁cher": 2163,
      "▁human": 2164,
      "▁fiction": 2165,
      "▁perspective": 2166,
      "▁stage": 2167,
      "##act": 2168,
      "##eds": 2169,
      "▁arrangement": 2170,
      "##gle": 2171,
      "##ancing": 2172,
      "▁dec": 2173,
      "##illas": 2174,
      "▁execution": 2175,
      "▁galleries": 2176,
      "##oney": 2177,
      "▁concern": 2178,
      "##oring": 2179,
      "▁abandoned": 2180,
      "▁outcome": 2181,
      "▁elbow": 2182,
      "▁but": 2183,
      "▁-----------------": 2184,
      "▁expect": 2185,
      "▁hel": 2186,
      "##mes": 2187,
      "##yp": 2188,
      "##lem": 2189,
      "▁circum": 2190,
      "##ale": 2191,
      "▁pull": 2192,
      "▁suffer": 2193,
      "▁entitled": 2194,
      "▁po": 2195,
      "▁talk": 2196,
      "”": 2197,
      "▁incen": 2198,
      "▁actress": 2199,
      "▁indian": 2200,
      "▁connected": 2201,
      "##uration": 2202,
      "▁votes": 2203,
      "▁abuse": 2204,
      "##owers": 2205,
      "▁meat": 2206,
      "▁monaster": 2207,
      "##tiff": 2208,
      "4": 2209,
      "▁sang": 2210,
      "▁identifying": 2211,
      "▁sending": 2212,
      "▁chat": 2213,
      "▁encouraged": 2214,
      "▁obl": 2215,
      "▁committed": 2216,
      "▁consid": 2217,
      "▁purs": 2218,
      "##ew": 2219,
      "▁el": 2220,
      "▁bread": 2221,
      "▁impression": 2222,
      "▁owned": 2223,
      "##cally": 2224,
      "##vely": 2225,
      "##pite": 2226,
      "##ents": 2227,
      "▁consul": 2228,
      "▁recommendation": 2229,
      "▁jam": 2230,
      "▁dogg": 2231,
      "##educ": 2232,
      "▁butterfl": 2233,
      "##ised": 2234,
      "▁status": 2235,
      "▁vet": 2236,
      "▁sump": 2237,
      "▁unem": 2238,
      "▁implemented": 2239,
      "▁seat": 2240,
      "▁mids": 2241,
      "##bles": 2242,
      "▁ant": 2243,
      "▁front": 2244,
      "▁ob": 2245,
      "▁probably": 2246,
      "▁wine": 2247,
      "##ik": 2248,
      "▁religion": 2249,
      "##ading": 2250,
      "▁subscri": 2251,
      "▁pre": 2252,
      "▁ne": 2253,
      "##erent": 2254,
      "##ues": 2255,
      "##ids": 2256,
      "▁ris": 2257,
      "##zed": 2258,
      "▁!!!!!!": 2259,
      "##bal": 2260,
      "▁neighb": 2261,
      "▁created": 2262,
      "▁doctors": 2263,
      "▁median": 2264,
      "▁concre": 2265,
      "ʊ": 2266,
      "▁---------------------------------": 2267,
      "▁accepted": 2268,
      "▁comments": 2269,
      "▁2": 2270,
      "▁could": 2271,
      "▁gent": 2272,
      "▁pal": 2273,
      "▁over": 2274,
      "▁piano": 2275,
      "##de": 2276,
      "▁re": 2277,
      "▁bull": 2278,
      "▁lies": 2279,
      "▁prod": 2280,
      "##ouch": 2281,
      "▁exposed": 2282,
      "##ose": 2283,
      "▁cliff": 2284,
      "##id": 2285,
      "▁nut": 2286,
      "▁official": 2287,
      "▁loss": 2288,
      "▁intended": 2289,
      "▁guessed": 2290,
      "▁storage": 2291,
      "▁departing": 2292,
      "▁length": 2293,
      "##alities": 2294,
      "▁coord": 2295,
      "▁mentioned": 2296,
      "▁least": 2297,
      "▁achieve": 2298,
      "##ner": 2299,
      "##eration": 2300,
      "▁chasing": 2301,
      "▁message": 2302,
      "▁actor": 2303,
      "▁condem": 2304,
      "▁hitting": 2305,
      "▁cray": 2306,
      "##une": 2307,
      "▁themes": 2308,
      "##apse": 2309,
      "▁cent": 2310,
      "▁vacuum": 2311,
      "▁transformation": 2312,
      "▁mater": 2313,
      "▁vot": 2314,
      "▁squir": 2315,
      "▁shame": 2316,
      "▁foot": 2317,
      "▁sitting": 2318,
      "▁arrow": 2319,
      "▁pray": 2320,
      "▁depar": 2321,
      "▁email": 2322,
      "##ut": 2323,
      "▁function": 2324,
      "▁black": 2325,
      "##tion": 2326,
      "▁rapporte": 2327,
      "##hen": 2328,
      "▁represents": 2329,
      "▁spr": 2330,
      "##hip": 2331,
      "▁helicopters": 2332,
      "▁alleged": 2333,
      "▁ill": 2334,
      "▁anthrax": 2335,
      "▁purpos": 2336,
      "▁band": 2337,
      "▁balances": 2338,
      "##ized": 2339,
      "▁yelling": 2340,
      "▁co": 2341,
      "##eign": 2342,
      "##issors": 2343,
      "▁charl": 2344,
      "##ron": 2345,
      "▁dates": 2346,
      "▁locations": 2347,
      "▁deli": 2348,
      "##enings": 2349,
      "##ender": 2350,
      "▁\"": 2351,
      "##ortion": 2352,
      "▁refriger": 2353,
      "▁record": 2354,
      "▁yea": 2355,
      "##ilosoph": 2356,
      "▁schema": 2357,
      "▁manage": 2358,
      "▁former": 2359,
      "##iam": 2360,
      "▁ti": 2361,
      "▁vom": 2362,
      "▁bat": 2363,
      "##tices": 2364,
      "▁vegas": 2365,
      "▁circumstances": 2366,
      "##enting": 2367,
      "▁males": 2368,
      "##irst": 2369,
      "▁knife": 2370,
      "▁display": 2371,
      "▁target": 2372,
      "▁problem": 2373,
      "▁lea": 2374,
      "▁und": 2375,
      "▁whose": 2376,
      "▁organization": 2377,
      "▁star": 2378,
      "▁movies": 2379,
      "▁trash": 2380,
      "▁traveling": 2381,
      "▁chart": 2382,
      "▁girls": 2383,
      "▁policies": 2384,
      "▁flow": 2385,
      "▁founder": 2386,
      "▁survive": 2387,
      "▁relig": 2388,
      "▁fruit": 2389,
      "▁evolution": 2390,
      "##ified": 2391,
      "▁kill": 2392,
      "▁proceed": 2393,
      "##ka": 2394,
      "▁certi": 2395,
      "▁goo": 2396,
      "▁broken": 2397,
      "▁liqu": 2398,
      "▁chair": 2399,
      "▁ret": 2400,
      "##tive": 2401,
      "▁etc.": 2402,
      "▁fork": 2403,
      "▁patterns": 2404,
      "▁years": 2405,
      "▁dried": 2406,
      "▁freedom": 2407,
      "##keys": 2408,
      "▁genius": 2409,
      "▁ba": 2410,
      "##orld": 2411,
      "▁manag": 2412,
      "▁v": 2413,
      "▁posts": 2414,
      "▁tear": 2415,
      "▁mechanic": 2416,
      "▁post": 2417,
      "▁swe": 2418,
      "▁dance": 2419,
      "▁especially": 2420,
      "##cing": 2421,
      "▁>": 2422,
      "▁s/he": 2423,
      "▁greet": 2424,
      "▁eats": 2425,
      "▁specialist": 2426,
      "##ave": 2427,
      "▁gold": 2428,
      "▁limous": 2429,
      "##aser": 2430,
      "▁gifts": 2431,
      "▁childhood": 2432,
      "##apes": 2433,
      "▁attacks": 2434,
      "▁destin": 2435,
      "##ator": 2436,
      "##ulation": 2437,
      "▁contribution": 2438,
      "##ering": 2439,
      "##rops": 2440,
      "▁industry": 2441,
      "▁bi": 2442,
      "▁strawberry": 2443,
      "▁borders": 2444,
      "▁prosec": 2445,
      "▁offer": 2446,
      "##mber": 2447,
      "▁di": 2448,
      "▁pup": 2449,
      "##tions": 2450,
      "▁button": 2451,
      "▁say": 2452,
      "▁possible": 2453,
      "##ligh": 2454,
      "▁staff": 2455,
      "▁aband": 2456,
      "##in": 2457,
      "##**": 2458,
      "▁rise": 2459,
      "▁greeted": 2460,
      "▁poodle": 2461,
      "▁bron": 2462,
      "▁supplies": 2463,
      "▁measured": 2464,
      "▁attached": 2465,
      "▁mos": 2466,
      "▁ignorance": 2467,
      "▁congr": 2468,
      "▁down": 2469,
      "▁inflation": 2470,
      "▁controls": 2471,
      "▁heav": 2472,
      "##less": 2473,
      "##inoc": 2474,
      "##uh": 2475,
      "▁assass": 2476,
      "▁banan": 2477,
      "▁intelligence": 2478,
      "▁wear": 2479,
      "▁expand": 2480,
      "k": 2481,
      "▁host": 2482,
      "▁software": 2483,
      "▁hamster": 2484,
      "##ric": 2485,
      "▁enthus": 2486,
      "▁beauty": 2487,
      "▁custom": 2488,
      "▁thought": 2489,
      "▁darkness": 2490,
      "##arture": 2491,
      "##tes": 2492,
      "▁smoking": 2493,
      "▁associate": 2494,
      "▁dinos": 2495,
      "▁si": 2496,
      "▁meet": 2497,
      "▁abs": 2498,
      "▁characteris": 2499,
      "##dit": 2500,
      "##ateg": 2501,
      "▁renew": 2502,
      "▁destro": 2503,
      "▁oakland": 2504,
      "▁coc": 2505,
      "##phone": 2506,
      "##atme": 2507,
      "▁!!!?": 2508,
      "▁elected": 2509,
      "▁ol": 2510,
      "▁pushed": 2511,
      "▁handled": 2512,
      "▁bad": 2513,
      "##!!!": 2514,
      "▁behavior": 2515,
      "▁em": 2516,
      "▁transp": 2517,
      "##m": 2518,
      "▁cake": 2519,
      "##arr": 2520,
      "▁topic": 2521,
      "▁couple": 2522,
      "##wi": 2523,
      "▁blanket": 2524,
      "##ment": 2525,
      "▁cookie": 2526,
      "▁sovereignty": 2527,
      "##ently": 2528,
      "▁revised": 2529,
      "u": 2530,
      "##irts": 2531,
      "##--------------------------------": 2532,
      "▁launched": 2533,
      "▁yeah": 2534,
      "h": 2535,
      "▁sonnets": 2536,
      "▁against": 2537,
      "▁vari": 2538,
      "▁players": 2539,
      "##of": 2540,
      "##ything": 2541,
      "▁trag": 2542,
      "▁gulf": 2543,
      "▁avoided": 2544,
      "##iling": 2545,
      "##unct": 2546,
      "▁intend": 2547,
      "▁vehicle": 2548,
      "##ertainly": 2549,
      "▁purchasing": 2550,
      "▁invited": 2551,
      "▁fig": 2552,
      "▁course": 2553,
      "##ager": 2554,
      "▁mechanism": 2555,
      "##ously": 2556,
      "▁or": 2557,
      "▁elephants": 2558,
      "▁inside": 2559,
      "##y": 2560,
      "▁close": 2561,
      "▁plain": 2562,
      "▁x": 2563,
      "▁—": 2564,
      "▁garbage": 2565,
      "▁rem": 2566,
      "##oc": 2567,
      "##ukee": 2568,
      "▁h": 2569,
      "▁independence": 2570,
      "▁dressed": 2571,
      "▁w/": 2572,
      "▁report": 2573,
      "▁programmes": 2574,
      "▁shop": 2575,
      "▁scienti": 2576,
      "▁achie": 2577,
      "▁procedures": 2578,
      "▁make": 2579,
      "▁tonight": 2580,
      "▁trading": 2581,
      "▁compar": 2582,
      "▁poc": 2583,
      "##her": 2584,
      "▁gis": 2585,
      "▁prayer": 2586,
      "▁marketing": 2587,
      "▁hug": 2588,
      "▁dough": 2589,
      "##'re": 2590,
      "##orth": 2591,
      "▁climate": 2592,
      "▁collecting": 2593,
      "▁create": 2594,
      "##berries": 2595,
      "##ag": 2596,
      "▁built": 2597,
      "<": 2598,
      "▁works": 2599,
      "##uality": 2600,
      "▁heads": 2601,
      "▁silver": 2602,
      "##mp": 2603,
      "▁officer": 2604,
      "▁comes": 2605,
      "##_": 2606,
      "▁ignored": 2607,
      "▁bush": 2608,
      "▁contact": 2609,
      "▁knowing": 2610,
      "##lers": 2611,
      "##uts": 2612,
      "▁sticks": 2613,
      "##ticks": 2614,
      "▁ps": 2615,
      "▁crisis": 2616,
      "▁ev": 2617,
      "▁may": 2618,
      "▁pump": 2619,
      "▁approach": 2620,
      "▁dying": 2621,
      "▁toilet": 2622,
      "▁buildings": 2623,
      "▁relationship": 2624,
      "▁licenses": 2625,
      "##ing": 2626,
      "##elines": 2627,
      "▁stood": 2628,
      "▁spos": 2629,
      "▁exclu": 2630,
      "▁(": 2631,
      "▁items": 2632,
      "▁implementing": 2633,
      "▁balt": 2634,
      "▁spiders": 2635,
      "##cean": 2636,
      "▁1": 2637,
      "▁yo": 2638,
      "##po": 2639,
      "▁typ": 2640,
      "▁execute": 2641,
      "▁deal": 2642,
      "▁hoping": 2643,
      "##uk": 2644,
      "▁prevent": 2645,
      "▁declar": 2646,
      "▁saying": 2647,
      "▁capture": 2648,
      "▁shad": 2649,
      "▁engineering": 2650,
      "▁stopped": 2651,
      "▁collapsed": 2652,
      "▁compos": 2653,
      "▁crush": 2654,
      "▁bunch": 2655,
      "##itement": 2656,
      "##goti": 2657,
      "##ades": 2658,
      "▁restriction": 2659,
      "▁ignor": 2660,
      "▁smile": 2661,
      "##faction": 2662,
      "##uter": 2663,
      "▁day": 2664,
      "▁small": 2665,
      "f": 2666,
      "▁tourists": 2667,
      "▁enem": 2668,
      "▁cohesion": 2669,
      "▁train": 2670,
      "▁balance": 2671,
      "▁throat": 2672,
      "▁waiting": 2673,
      "▁vine": 2674,
      "▁pennies": 2675,
      "##ener": 2676,
      "▁immigration": 2677,
      "▁reviewed": 2678,
      "▁wire": 2679,
      "##eti": 2680,
      "▁beach": 2681,
      "▁checks": 2682,
      "▁apart": 2683,
      "▁sho": 2684,
      "##bur": 2685,
      "▁rob": 2686,
      "▁adapt": 2687,
      "▁facilities": 2688,
      "▁latest": 2689,
      "##sing": 2690,
      "▁results": 2691,
      "▁pros": 2692,
      "▁agents": 2693,
      "##fic": 2694,
      "▁everybody": 2695,
      "▁tor": 2696,
      "▁isda": 2697,
      "▁monks": 2698,
      "▁squ": 2699,
      "▁hurts": 2700,
      "▁counterfe": 2701,
      "▁inv": 2702,
      "##nis": 2703,
      "▁..": 2704,
      "▁refusing": 2705,
      "##scope": 2706,
      "▁determ": 2707,
      "▁interested": 2708,
      "##=": 2709,
      "▁fuel": 2710,
      "##ounts": 2711,
      "##4": 2712,
      "##oli": 2713,
      "▁wor": 2714,
      "▁oatmeal": 2715,
      "▁birthday": 2716,
      "##elly": 2717,
      "##ottable": 2718,
      "▁env": 2719,
      "▁wid": 2720,
      "▁direc": 2721,
      "▁passes": 2722,
      "▁bottom": 2723,
      "▁alongside": 2724,
      "▁speech": 2725,
      "▁portion": 2726,
      "▁ste": 2727,
      "▁repe": 2728,
      "▁cros": 2729,
      "##ertain": 2730,
      "▁broom": 2731,
      "▁chr": 2732,
      "▁pattern": 2733,
      "##://": 2734,
      "▁dreamed": 2735,
      "▁fits": 2736,
      "▁shoo": 2737,
      "##itical": 2738,
      "▁ld2d-#693": 2739,
      "▁monday": 2740,
      "▁buses": 2741,
      "▁findings": 2742,
      "##icals": 2743,
      "▁needs": 2744,
      "▁8": 2745,
      "##unte": 2746,
      "▁yourself": 2747,
      "▁diet": 2748,
      "▁key": 2749,
      "▁song": 2750,
      "▁radio": 2751,
      "▁mir": 2752,
      "▁provin": 2753,
      "▁produces": 2754,
      "▁format": 2755,
      "▁chef": 2756,
      "▁suit": 2757,
      "▁lifted": 2758,
      "##++++": 2759,
      "▁gri": 2760,
      "##log": 2761,
      "##tures": 2762,
      "▁highly": 2763,
      "##eled": 2764,
      "▁suppl": 2765,
      "▁cancel": 2766,
      "##--": 2767,
      "▁sides": 2768,
      "▁saving": 2769,
      "▁beans": 2770,
      "▁agent": 2771,
      "##tery": 2772,
      "▁so": 2773,
      "▁drawer": 2774,
      "##ghting": 2775,
      "▁recently": 2776,
      "▁sub": 2777,
      "▁1970s": 2778,
      "▁agreements": 2779,
      "▁long": 2780,
      "▁will": 2781,
      "▁maps": 2782,
      "▁interpre": 2783,
      "▁coff": 2784,
      "▁play+": 2785,
      "▁holding": 2786,
      "▁magazine": 2787,
      "▁skills": 2788,
      "##ret": 2789,
      "▁hosp": 2790,
      "▁paintings": 2791,
      "▁customs": 2792,
      "▁sme": 2793,
      "▁rap": 2794,
      "##aks": 2795,
      "##ley": 2796,
      "▁powers": 2797,
      "▁quickly": 2798,
      "##rax": 2799,
      "▁already": 2800,
      "▁mov": 2801,
      "▁cheek": 2802,
      "▁introduc": 2803,
      "▁accum": 2804,
      "##issions": 2805,
      "▁guacamole": 2806,
      "▁rel": 2807,
      "▁preven": 2808,
      "▁bought": 2809,
      "▁asc": 2810,
      "▁rag": 2811,
      "▁lean": 2812,
      "##row": 2813,
      "▁carrot": 2814,
      "▁safety": 2815,
      "▁vaccine": 2816,
      "▁de": 2817,
      "##ru": 2818,
      "▁enforcement": 2819,
      "▁managing": 2820,
      "##ault": 2821,
      "▁dess": 2822,
      "▁times": 2823,
      "▁shut": 2824,
      "▁known": 2825,
      "▁bar": 2826,
      "▁emerged": 2827,
      "▁transport": 2828,
      "▁print": 2829,
      "▁rebuild": 2830,
      "▁lord": 2831,
      "▁switch": 2832,
      "▁lawyers": 2833,
      "▁flood": 2834,
      "▁bos": 2835,
      "▁awa": 2836,
      "##www": 2837,
      "▁coop": 2838,
      "##ove": 2839,
      "##ω": 2840,
      "▁patient": 2841,
      "▁aud": 2842,
      "##vest": 2843,
      "▁strengthen": 2844,
      "▁belie": 2845,
      "▁-": 2846,
      "▁independ": 2847,
      "ι": 2848,
      "▁restaur": 2849,
      "▁confidence": 2850,
      "z": 2851,
      "▁stret": 2852,
      "##pl": 2853,
      "▁valu": 2854,
      "▁implementation": 2855,
      "▁union": 2856,
      "##fts": 2857,
      "▁traders": 2858,
      "▁yet": 2859,
      "▁altern": 2860,
      "▁kick": 2861,
      "▁mr": 2862,
      "▁describing": 2863,
      "▁another": 2864,
      "▁rats": 2865,
      "▁witn": 2866,
      "##ush": 2867,
      "▁washington": 2868,
      "▁allowed": 2869,
      "▁vs.": 2870,
      "▁rout": 2871,
      "▁sci": 2872,
      "##w": 2873,
      "##ri": 2874,
      "##gin": 2875,
      "▁figured": 2876,
      "##ortant": 2877,
      "▁rev": 2878,
      "▁responses": 2879,
      "▁wan": 2880,
      "▁numerous": 2881,
      "##artment": 2882,
      "##real": 2883,
      "▁buy": 2884,
      "▁mel": 2885,
      "▁became": 2886,
      "▁thro": 2887,
      "▁guarant": 2888,
      "▁pollution": 2889,
      "▁handle": 2890,
      "##ption": 2891,
      "▁reason": 2892,
      "▁grandma": 2893,
      "▁him": 2894,
      "▁profits": 2895,
      "▁generations": 2896,
      "▁found": 2897,
      "▁give": 2898,
      "▁missed": 2899,
      "▁lasted": 2900,
      "▁link": 2901,
      "##oil": 2902,
      "##asing": 2903,
      "▁bus": 2904,
      "▁targ": 2905,
      "▁sweep": 2906,
      "▁.": 2907,
      "▁sample": 2908,
      "##izing": 2909,
      "▁eggs": 2910,
      "##sive": 2911,
      "▁bananas": 2912,
      "▁parking": 2913,
      "##eria": 2914,
      "▁passage": 2915,
      "▁qa": 2916,
      "##inental": 2917,
      "▁lion": 2918,
      "##sel": 2919,
      "▁happened": 2920,
      "##ication": 2921,
      "▁targets": 2922,
      "##oma": 2923,
      "▁died": 2924,
      "▁taste": 2925,
      "##den": 2926,
      "##.": 2927,
      "▁anyth": 2928,
      "##ril": 2929,
      "##aint": 2930,
      "▁indicate": 2931,
      "▁sup": 2932,
      "▁simply": 2933,
      "▁duty": 2934,
      "##centi": 2935,
      "▁campus": 2936,
      "▁tags": 2937,
      "##ception": 2938,
      "▁among": 2939,
      "▁told": 2940,
      "##oice": 2941,
      "▁installing": 2942,
      "##--------": 2943,
      "▁spot": 2944,
      "##etition": 2945,
      "##cp": 2946,
      "##xce": 2947,
      "▁timing": 2948,
      "▁afric": 2949,
      "w": 2950,
      "▁days": 2951,
      "##ozer": 2952,
      "▁workforce": 2953,
      "▁sector": 2954,
      "▁answered": 2955,
      "▁dan": 2956,
      "▁parti": 2957,
      "▁feature": 2958,
      "▁feels": 2959,
      "▁gift": 2960,
      "##arians": 2961,
      "▁fox": 2962,
      "▁cold": 2963,
      "▁shakes": 2964,
      "##dge": 2965,
      "##ih": 2966,
      "▁standing": 2967,
      "▁ha": 2968,
      "▁dispute": 2969,
      "▁interact": 2970,
      "▁arg": 2971,
      "▁details": 2972,
      "##zz": 2973,
      "##.c": 2974,
      "##arly": 2975,
      "▁mad": 2976,
      "▁earli": 2977,
      "##for": 2978,
      "▁character": 2979,
      "▁stretch": 2980,
      "▁hamb": 2981,
      "▁fill": 2982,
      "▁compete": 2983,
      "▁ed": 2984,
      "▁harmonisation": 2985,
      "▁fit": 2986,
      "▁pl": 2987,
      "▁aunt": 2988,
      "##raction": 2989,
      "▁rabbits": 2990,
      "▁need": 2991,
      "▁mornings": 2992,
      "▁pepper": 2993,
      "▁mama": 2994,
      "▁epm": 2995,
      "▁petersburg": 2996,
      "##d": 2997,
      "▁decade": 2998,
      "▁killing": 2999,
      "##ue": 3000,
      "▁researchers": 3001,
      "▁alt": 3002,
      "▁research": 3003,
      "▁neighbor": 3004,
      "▁fu": 3005,
      "##phere": 3006,
      "##iff": 3007,
      "▁delive": 3008,
      "##ρ": 3009,
      "##erm": 3010,
      "▁saw": 3011,
      "##ety": 3012,
      "▁exerc": 3013,
      "▁foc": 3014,
      "▁played": 3015,
      "▁classroom": 3016,
      "▁wizard": 3017,
      "##ocent": 3018,
      "##’t": 3019,
      "##amed": 3020,
      "##ledge": 3021,
      "▁meaning": 3022,
      "▁arti": 3023,
      ".": 3024,
      "##par": 3025,
      "##ob": 3026,
      "##asa": 3027,
      "▁authorities": 3028,
      "0": 3029,
      "##rote": 3030,
      "▁participating": 3031,
      "▁mo": 3032,
      "##ining": 3033,
      "|": 3034,
      "▁cock": 3035,
      "▁require": 3036,
      "▁jos": 3037,
      "▁cleveland": 3038,
      "▁required": 3039,
      "▁individual": 3040,
      "##iew": 3041,
      "▁plenty": 3042,
      "▁crying": 3043,
      "▁witch": 3044,
      "▁representative": 3045,
      "▁moisture": 3046,
      "▁vod": 3047,
      "▁snake": 3048,
      "▁squi": 3049,
      "▁origin": 3050,
      "▁push": 3051,
      "▁claimed": 3052,
      "##su": 3053,
      "▁attracted": 3054,
      "##ul": 3055,
      "▁---=": 3056,
      "l": 3057,
      "▁theater": 3058,
      "▁implications": 3059,
      "▁mix": 3060,
      "▁across": 3061,
      "▁good": 3062,
      "▁longer": 3063,
      "▁bre": 3064,
      "▁charged": 3065,
      "▁phot": 3066,
      "▁revenue": 3067,
      "▁chief": 3068,
      "▁crayon": 3069,
      "▁stirrup": 3070,
      "▁oak": 3071,
      "▁yogurt": 3072,
      "##ocracy": 3073,
      "▁rules": 3074,
      "▁process": 3075,
      "▁gir": 3076,
      "▁numbers": 3077,
      "▁hand": 3078,
      "##ament": 3079,
      "▁interf": 3080,
      "##cery": 3081,
      "##atch": 3082,
      "▁tab": 3083,
      "▁delta": 3084,
      "##driver": 3085,
      "▁sal": 3086,
      "▁reminded": 3087,
      "▁suff": 3088,
      "▁gradu": 3089,
      "##ah": 3090,
      "▁impro": 3091,
      "▁network": 3092,
      "▁discovered": 3093,
      "▁accordance": 3094,
      "‘": 3095,
      "▁remained": 3096,
      "##osed": 3097,
      "##auce": 3098,
      "▁beings": 3099,
      "▁traged": 3100,
      "▁catch": 3101,
      "▁person": 3102,
      "▁block": 3103,
      "▁staring": 3104,
      "▁10": 3105,
      "##gar": 3106,
      "▁better": 3107,
      "##neath": 3108,
      "▁dress": 3109,
      "▁summ": 3110,
      "##ishment": 3111,
      "▁understood": 3112,
      "▁underm": 3113,
      "▁tend": 3114,
      "▁whe": 3115,
      "▁knight": 3116,
      "▁takes": 3117,
      "▁signature": 3118,
      "▁replace": 3119,
      "##nels": 3120,
      "▁ate": 3121,
      "▁maint": 3122,
      "▁surrounded": 3123,
      "▁edit": 3124,
      "▁convinced": 3125,
      "▁/": 3126,
      "▁salon": 3127,
      "▁lets": 3128,
      "▁firms": 3129,
      "▁interaction": 3130,
      "▁expecting": 3131,
      "▁animals": 3132,
      "▁polaro": 3133,
      "▁flowers": 3134,
      "▁cle": 3135,
      "▁interest": 3136,
      "##ition": 3137,
      "##ear": 3138,
      "▁chee": 3139,
      "##cross": 3140,
      "•": 3141,
      "##enn": 3142,
      "▁terrorist": 3143,
      "▁socks": 3144,
      "##keep": 3145,
      "##etro": 3146,
      "▁headquarters": 3147,
      "▁roo": 3148,
      "##ifying": 3149,
      "##ory": 3150,
      "▁nash": 3151,
      "▁slip": 3152,
      "▁deter": 3153,
      "##ging": 3154,
      "▁stayed": 3155,
      "▁seized": 3156,
      "▁multipl": 3157,
      "##uals": 3158,
      "▁techniques": 3159,
      "##ven": 3160,
      "▁admitted": 3161,
      "##thy": 3162,
      "▁developed": 3163,
      "▁operation": 3164,
      "▁conference": 3165,
      "##ern": 3166,
      "▁art": 3167,
      "▁swim": 3168,
      "▁filed": 3169,
      "▁palace": 3170,
      "##hic": 3171,
      "▁women": 3172,
      "▁steps": 3173,
      "▁propaganda": 3174,
      "▁psych": 3175,
      "▁isl": 3176,
      "▁request": 3177,
      "▁moon": 3178,
      "▁hes": 3179,
      "▁wanting": 3180,
      "##af": 3181,
      "▁lego": 3182,
      "##ev": 3183,
      "▁united": 3184,
      "▁convers": 3185,
      "▁discovery": 3186,
      "▁dem": 3187,
      "▁self": 3188,
      "▁group": 3189,
      "▁visit": 3190,
      "##enef": 3191,
      "▁chapter": 3192,
      "▁0": 3193,
      "##rows": 3194,
      "▁opposition": 3195,
      "▁hedge": 3196,
      "##orders": 3197,
      "##-s": 3198,
      "##********************************": 3199,
      "▁u.s.": 3200,
      "##thing": 3201,
      "▁con": 3202,
      "▁~": 3203,
      "▁winds": 3204,
      "▁swinging": 3205,
      "▁accident": 3206,
      "##pan": 3207,
      "▁deteri": 3208,
      "▁tam": 3209,
      "##(": 3210,
      "▁amongst": 3211,
      "▁blew": 3212,
      "▁saf": 3213,
      "▁>>": 3214,
      "▁american": 3215,
      "##where": 3216,
      "'": 3217,
      "##bir": 3218,
      "▁argument": 3219,
      "▁uncertainty": 3220,
      "##ats": 3221,
      "▁answ": 3222,
      "▁confirm": 3223,
      "▁doub": 3224,
      "##ingly": 3225,
      "▁nor": 3226,
      "▁mayor": 3227,
      "▁sandwic": 3228,
      "##reat": 3229,
      "▁fem": 3230,
      "##path": 3231,
      "##ect": 3232,
      "▁mountains": 3233,
      "▁lighting": 3234,
      "▁fish": 3235,
      "▁bright": 3236,
      "▁=": 3237,
      "▁kil": 3238,
      "▁doughnut": 3239,
      "##tiveness": 3240,
      "▁base": 3241,
      "▁toile": 3242,
      "##ocks": 3243,
      "##nce": 3244,
      "▁wip": 3245,
      "▁lists": 3246,
      "▁compare": 3247,
      "▁feat": 3248,
      "▁prepar": 3249,
      "▁prett": 3250,
      "▁war": 3251,
      "##oll": 3252,
      "##operation": 3253,
      "##ieties": 3254,
      "▁estate": 3255,
      "▁mount": 3256,
      "▁their": 3257,
      "▁universities": 3258,
      "▁cupcakes": 3259,
      "▁possession": 3260,
      "▁criticism": 3261,
      "▁except": 3262,
      "▁ideas": 3263,
      "▁sss": 3264,
      "##z": 3265,
      "▁sorry": 3266,
      "▁sleeve": 3267,
      "ɑ": 3268,
      "▁camp": 3269,
      "▁fares": 3270,
      "##friend": 3271,
      "##ate": 3272,
      "▁lawyer": 3273,
      "▁election": 3274,
      "▁craw": 3275,
      "▁sweetie": 3276,
      "▁images": 3277,
      "▁val": 3278,
      "▁pasta": 3279,
      "##ee": 3280,
      "▁pip": 3281,
      "▁some": 3282,
      "##aurs": 3283,
      "▁rather": 3284,
      "▁expanding": 3285,
      "▁pursue": 3286,
      "##lie": 3287,
      "▁un": 3288,
      "##phia": 3289,
      "##****************": 3290,
      "##athers": 3291,
      "▁cell": 3292,
      "##------------": 3293,
      "▁product": 3294,
      "▁montreal": 3295,
      "▁ga": 3296,
      "▁tech": 3297,
      "▁suc": 3298,
      "▁integ": 3299,
      "▁usually": 3300,
      "▁cart": 3301,
      "▁date": 3302,
      "▁burst": 3303,
      "▁rocks": 3304,
      "▁farrier": 3305,
      "▁ripped": 3306,
      "▁assu": 3307,
      "##ains": 3308,
      "##ess": 3309,
      "▁origins": 3310,
      "▁vehicles": 3311,
      "▁vendors": 3312,
      "##aker": 3313,
      "▁tutor": 3314,
      "▁.!": 3315,
      "##ny": 3316,
      "▁want": 3317,
      "##urned": 3318,
      "▁loan": 3319,
      "▁proposal": 3320,
      "▁**": 3321,
      "▁confir": 3322,
      "▁copy": 3323,
      "▁vision": 3324,
      "▁horsie": 3325,
      "##omm": 3326,
      "▁fired": 3327,
      "▁neph": 3328,
      "▁default": 3329,
      "##hol": 3330,
      "▁happiness": 3331,
      "▁silk": 3332,
      "##ept": 3333,
      "##ook": 3334,
      "▁quoted": 3335,
      "▁artworks": 3336,
      "##edness": 3337,
      "▁obtained": 3338,
      "##oned": 3339,
      "▁sunlight": 3340,
      "▁scientists": 3341,
      "##°": 3342,
      "▁authority": 3343,
      "▁populations": 3344,
      "##ame": 3345,
      "▁...................": 3346,
      "▁unity": 3347,
      "▁tha": 3348,
      "▁history": 3349,
      "▁awarded": 3350,
      "▁traditions": 3351,
      "##mely": 3352,
      "▁i": 3353,
      "▁man": 3354,
      "▁captain": 3355,
      "##err": 3356,
      "▁quest": 3357,
      "▁==----": 3358,
      "▁shall": 3359,
      "▁fle": 3360,
      "▁lots": 3361,
      "▁transition": 3362,
      "▁evenings": 3363,
      "▁3": 3364,
      "▁mummy": 3365,
      "▁barrel": 3366,
      "▁thing": 3367,
      "##amb": 3368,
      "▁vide": 3369,
      "##oni": 3370,
      "’": 3371,
      "▁confidentiality": 3372,
      "▁vessel": 3373,
      "▁window": 3374,
      "▁likes": 3375,
      "##zen": 3376,
      "▁landed": 3377,
      "▁chew": 3378,
      "▁buck": 3379,
      "▁market": 3380,
      "##eel": 3381,
      "##lly": 3382,
      "▁mig": 3383,
      "▁sn": 3384,
      "▁routes": 3385,
      "▁crack": 3386,
      "▁actors": 3387,
      "▁jur": 3388,
      "▁hambur": 3389,
      "▁imm": 3390,
      "▁dinosaurs": 3391,
      "▁tar": 3392,
      "▁ord": 3393,
      "▁lar": 3394,
      "▁leash": 3395,
      "##ting": 3396,
      "##au": 3397,
      "▁inform": 3398,
      "▁spokes": 3399,
      "▁wat": 3400,
      "▁dw": 3401,
      "▁grumb": 3402,
      "▁arrival": 3403,
      "▁pit": 3404,
      "▁occasions": 3405,
      "▁conditions": 3406,
      "##uly": 3407,
      "▁obsf": 3408,
      "▁distribution": 3409,
      "▁pho": 3410,
      "##h": 3411,
      "▁most": 3412,
      "▁fac": 3413,
      "▁media": 3414,
      "▁blue": 3415,
      "▁trained": 3416,
      "▁crowd": 3417,
      "▁incorp": 3418,
      "▁identify": 3419,
      "##aze": 3420,
      "##icated": 3421,
      "▁collab": 3422,
      "▁establishing": 3423,
      "▁increases": 3424,
      "▁stairs": 3425,
      "##ior": 3426,
      "##mented": 3427,
      "▁del": 3428,
      "▁arrested": 3429,
      "▁calendar": 3430,
      "##esthe": 3431,
      "##br": 3432,
      "▁ensure": 3433,
      "▁sour": 3434,
      "##itations": 3435,
      "##|": 3436,
      "▁destruction": 3437,
      "▁subjects": 3438,
      "▁fact": 3439,
      "▁participate": 3440,
      "▁som": 3441,
      "▁legislation": 3442,
      "##own": 3443,
      "▁weather": 3444,
      "▁na": 3445,
      "▁assassination": 3446,
      "▁holes": 3447,
      "▁itself": 3448,
      "▁lad": 3449,
      "▁teeth": 3450,
      "##icke": 3451,
      "▁wolf": 3452,
      "▁pers": 3453,
      "▁rang": 3454,
      "▁said": 3455,
      "▁helic": 3456,
      "##0": 3457,
      "▁premium": 3458,
      "▁favor": 3459,
      "▁recommend": 3460,
      "##olog": 3461,
      "▁apprec": 3462,
      "▁availability": 3463,
      "▁wheat": 3464,
      "▁week": 3465,
      "▁u.": 3466,
      "▁explan": 3467,
      "##spite": 3468,
      "▁scul": 3469,
      "##ibilities": 3470,
      "▁ketchup": 3471,
      "##ache": 3472,
      "##erts": 3473,
      "▁clear": 3474,
      "▁photograph": 3475,
      "▁dining": 3476,
      "▁p": 3477,
      "ρ": 3478,
      "▁guil": 3479,
      "▁searching": 3480,
      "▁det": 3481,
      "▁sites": 3482,
      "##rent": 3483,
      "▁no": 3484,
      "##ased": 3485,
      "▁achieving": 3486,
      "##laimed": 3487,
      "▁pleasure": 3488,
      "▁else": 3489,
      "##iles": 3490,
      "##ected": 3491,
      "▁meal": 3492,
      "▁answers": 3493,
      "##mm": 3494,
      "▁responsibility": 3495,
      "▁powder": 3496,
      "▁graduate": 3497,
      "▁brief": 3498,
      "▁evalu": 3499,
      "▁figures": 3500,
      "▁temperatures": 3501,
      "▁cupboard": 3502,
      "▁uti": 3503,
      "▁tire": 3504,
      "▁celeb": 3505,
      "▁diversity": 3506,
      "##order": 3507,
      "▁focus": 3508,
      "▁turning": 3509,
      "▁lawy": 3510,
      "▁attem": 3511,
      "▁kid": 3512,
      "##sp": 3513,
      "##olding": 3514,
      "▁economists": 3515,
      "▁cleaned": 3516,
      "▁road": 3517,
      "▁stability": 3518,
      "▁peanut": 3519,
      "▁tens": 3520,
      "▁managers": 3521,
      "##ary": 3522,
      "▁list": 3523,
      "▁living": 3524,
      "##ecess": 3525,
      "##orn": 3526,
      "##lic": 3527,
      "##do": 3528,
      "▁asylum": 3529,
      "##ained": 3530,
      "##edom": 3531,
      "▁drink": 3532,
      "▁maintain": 3533,
      "##ourse": 3534,
      "▁hors": 3535,
      "##ding": 3536,
      "▁particular": 3537,
      "▁channel": 3538,
      "▁era": 3539,
      "▁wearing": 3540,
      "▁sports": 3541,
      "▁existence": 3542,
      "▁contacted": 3543,
      "▁’ve": 3544,
      "▁name": 3545,
      "▁philadelphia": 3546,
      "##erved": 3547,
      "##cri": 3548,
      "##­": 3549,
      "▁sisters": 3550,
      "▁marked": 3551,
      "▁-------------------------------------------------": 3552,
      "##ators": 3553,
      "▁inven": 3554,
      "▁protection": 3555,
      "▁transfer": 3556,
      "▁seattle": 3557,
      "▁oven": 3558,
      "▁hurry": 3559,
      "▁baking": 3560,
      "##ices": 3561,
      "##ati": 3562,
      "▁arrived": 3563,
      "▁broad": 3564,
      "▁teh": 3565,
      "▁appear": 3566,
      "##lined": 3567,
      "▁gender": 3568,
      "##i": 3569,
      "##abilities": 3570,
      "##arity": 3571,
      "▁interv": 3572,
      "▁shirts": 3573,
      "▁kansas": 3574,
      "##.d": 3575,
      "▁crow": 3576,
      "▁blown": 3577,
      "▁bags": 3578,
      "▁explanations": 3579,
      "▁park": 3580,
      "▁pi": 3581,
      "▁swa": 3582,
      "▁prote": 3583,
      "▁where": 3584,
      "▁cat": 3585,
      "▁supply": 3586,
      "##oods": 3587,
      "▁clos": 3588,
      "▁style": 3589,
      "▁toast": 3590,
      "▁advantage": 3591,
      "▁improving": 3592,
      "▁phase": 3593,
      "##ognition": 3594,
      "▁finished": 3595,
      "##view": 3596,
      "▁bas": 3597,
      "##%": 3598,
      "▁thurs": 3599,
      "▁respon": 3600,
      "▁gath": 3601,
      "▁syn": 3602,
      "##gry": 3603,
      "▁return": 3604,
      "##6": 3605,
      "##yst": 3606,
      "▁cause": 3607,
      "##-d": 3608,
      "##ina": 3609,
      "▁reaching": 3610,
      "▁relax": 3611,
      "##otion": 3612,
      "##ino": 3613,
      "▁festivals": 3614,
      "▁attempt": 3615,
      "▁beyond": 3616,
      "▁exercise": 3617,
      "▁conferences": 3618,
      "##ark": 3619,
      "▁vi": 3620,
      "##gage": 3621,
      "▁pointing": 3622,
      "▁ride": 3623,
      "▁continent": 3624,
      "##iously": 3625,
      "▁attack": 3626,
      "##pe": 3627,
      "##onal": 3628,
      "##lect": 3629,
      "▁students": 3630,
      "##iled": 3631,
      "##~": 3632,
      "▁tourism": 3633,
      "▁general": 3634,
      "▁cir": 3635,
      "▁aqu": 3636,
      "▁dinner": 3637,
      "▁meow": 3638,
      "##ered": 3639,
      "▁different": 3640,
      "▁family": 3641,
      "##½": 3642,
      "▁intervening": 3643,
      "▁partners": 3644,
      "##books": 3645,
      "##ural": 3646,
      "▁magic": 3647,
      "##80s": 3648,
      "▁garage": 3649,
      "▁audio": 3650,
      "▁assumed": 3651,
      "▁signed": 3652,
      "##ics": 3653,
      "▁forehead": 3654,
      "▁http": 3655,
      "▁region": 3656,
      "▁j": 3657,
      "##*": 3658,
      "▁shell": 3659,
      "##iod": 3660,
      "▁corners": 3661,
      "▁officials": 3662,
      "▁tr": 3663,
      "▁bones": 3664,
      "##ointed": 3665,
      "##8": 3666,
      "▁elect": 3667,
      "▁turtle": 3668,
      "▁aesthe": 3669,
      "ʒ": 3670,
      "##ito": 3671,
      "▁directed": 3672,
      "▁cities": 3673,
      "##.com/": 3674,
      "▁priest": 3675,
      "▁operator": 3676,
      "▁photo": 3677,
      "▁communication": 3678,
      "▁pajamas": 3679,
      "▁dol": 3680,
      "▁fought": 3681,
      "##ful": 3682,
      "▁sale": 3683,
      "▁revealed": 3684,
      "▁april": 3685,
      "▁flag": 3686,
      "▁mixed": 3687,
      "▁performed": 3688,
      "▁wed": 3689,
      "▁go": 3690,
      "##omet": 3691,
      "▁operators": 3692,
      "##asure": 3693,
      "##aches": 3694,
      "▁dollar": 3695,
      "▁govern": 3696,
      "▁sought": 3697,
      "▁dey": 3698,
      "▁picked": 3699,
      "▁emb": 3700,
      "▁tractor": 3701,
      "▁scribb": 3702,
      "▁'re": 3703,
      "▁designs": 3704,
      "▁very": 3705,
      "▁exceed": 3706,
      "▁helicop": 3707,
      "▁artic": 3708,
      "▁jobs": 3709,
      "##ived": 3710,
      "##clu": 3711,
      "▁alone": 3712,
      "▁bab": 3713,
      "▁atmosphere": 3714,
      "##cut": 3715,
      "##load": 3716,
      "▁possibility": 3717,
      "▁stop": 3718,
      "##ithst": 3719,
      "▁laser": 3720,
      "▁there": 3721,
      "▁plastic": 3722,
      "▁rose": 3723,
      "▁distingu": 3724,
      "##tics": 3725,
      "φ": 3726,
      "▁harm": 3727,
      "▁fr": 3728,
      "▁++++": 3729,
      "##olve": 3730,
      "##gre": 3731,
      "▁legos": 3732,
      "▁drove": 3733,
      "▁tack": 3734,
      "##$$": 3735,
      "▁recog": 3736,
      "▁lap": 3737,
      "▁caused": 3738,
      "##“": 3739,
      "▁hund": 3740,
      "##hered": 3741,
      "▁cruise": 3742,
      "▁before": 3743,
      "▁crackers": 3744,
      "▁http://": 3745,
      "▁roll": 3746,
      "▁candidate": 3747,
      "▁copies": 3748,
      "##p": 3749,
      "▁sushi": 3750,
      "▁respond": 3751,
      "▁proble": 3752,
      "##bing": 3753,
      "▁elevator": 3754,
      "▁tours": 3755,
      "##enth": 3756,
      "##pt": 3757,
      "▁secon": 3758,
      "▁improvement": 3759,
      "▁field": 3760,
      "▁mycelium": 3761,
      "▁threw": 3762,
      "##$": 3763,
      "▁supp": 3764,
      "▁tool": 3765,
      "▁amended": 3766,
      "▁wondered": 3767,
      "▁component": 3768,
      "▁bubble": 3769,
      "##ils": 3770,
      "##sters": 3771,
      "##ht": 3772,
      "▁continuing": 3773,
      "▁reinfor": 3774,
      "▁humans": 3775,
      "▁envelop": 3776,
      "▁bite": 3777,
      "##ti": 3778,
      "##rier": 3779,
      "##ality": 3780,
      "▁experiences": 3781,
      "▁concerned": 3782,
      "▁however": 3783,
      "▁internet": 3784,
      "▁ou": 3785,
      "▁floor": 3786,
      "▁bub": 3787,
      "▁guidelines": 3788,
      "##ky": 3789,
      "##ants": 3790,
      "▁sle": 3791,
      "##ss": 3792,
      "▁belong": 3793,
      "▁grant": 3794,
      "▁reality": 3795,
      "▁crop": 3796,
      "▁des": 3797,
      "▁super": 3798,
      "▁jew": 3799,
      "##ensity": 3800,
      "##igning": 3801,
      "▁oppose": 3802,
      "▁particles": 3803,
      "##aring": 3804,
      "▁present": 3805,
      "▁side": 3806,
      "▁goods": 3807,
      "##ample": 3808,
      "▁truck": 3809,
      "▁bathroom": 3810,
      "▁program": 3811,
      "▁phones": 3812,
      "▁refused": 3813,
      "##round": 3814,
      "##port": 3815,
      "##.com": 3816,
      "▁supper": 3817,
      "##aces": 3818,
      "▁stem": 3819,
      "▁others": 3820,
      "▁chance": 3821,
      "▁law": 3822,
      "▁suggested": 3823,
      "▁gener": 3824,
      "▁pin": 3825,
      "▁which": 3826,
      "▁screen": 3827,
      "##ises": 3828,
      "▁hosting": 3829,
      "▁definition": 3830,
      "▁paint": 3831,
      "▁bacon": 3832,
      "▁major": 3833,
      "▁shark": 3834,
      "▁compon": 3835,
      "▁released": 3836,
      "▁drinks": 3837,
      "▁supporters": 3838,
      "##ores": 3839,
      "##nesday": 3840,
      "##ination": 3841,
      "▁|": 3842,
      "▁laundry": 3843,
      "▁pivottable": 3844,
      "▁explain": 3845,
      "▁due": 3846,
      "▁composition": 3847,
      "##list": 3848,
      "▁routine": 3849,
      "▁besides": 3850,
      "▁site": 3851,
      "##imum": 3852,
      "▁ge": 3853,
      "▁voice": 3854,
      "▁methods": 3855,
      "x": 3856,
      "▁indust": 3857,
      "▁talent": 3858,
      "▁ded": 3859,
      "##ling": 3860,
      "▁agric": 3861,
      "▁unlike": 3862,
      "▁steak": 3863,
      "▁hotels": 3864,
      "##yr": 3865,
      "▁trial": 3866,
      "##ilities": 3867,
      "▁military": 3868,
      "##zing": 3869,
      "▁floating": 3870,
      "▁med": 3871,
      "##nut": 3872,
      "▁proposed": 3873,
      "▁remarks": 3874,
      "##umes": 3875,
      "­": 3876,
      "##no": 3877,
      "▁expected": 3878,
      "▁political": 3879,
      "▁asp": 3880,
      "▁strain": 3881,
      "▁increasing": 3882,
      "▁ties": 3883,
      "▁well": 3884,
      "▁changed": 3885,
      "▁hour": 3886,
      "▁contr": 3887,
      "##uary": 3888,
      "▁surprised": 3889,
      "▁surve": 3890,
      "##ald": 3891,
      "o": 3892,
      "▁shelf": 3893,
      "##anim": 3894,
      "▁uni": 3895,
      "##used": 3896,
      "▁dam": 3897,
      "▁grape": 3898,
      "▁‘’": 3899,
      "##aste": 3900,
      "##tit": 3901,
      "▁horses": 3902,
      "▁revers": 3903,
      "▁z": 3904,
      "##ising": 3905,
      "▁shared": 3906,
      "œ": 3907,
      "▁declined": 3908,
      "▁candle": 3909,
      "▁dollars": 3910,
      "##mer": 3911,
      "▁demand": 3912,
      "##gement": 3913,
      "▁num": 3914,
      "##loyed": 3915,
      "▁thrown": 3916,
      "▁bumble": 3917,
      "##inate": 3918,
      "▁offering": 3919,
      "▁limb": 3920,
      "▁gotten": 3921,
      "▁addiction": 3922,
      "▁worm": 3923,
      "▁me": 3924,
      "▁reducing": 3925,
      "▁contained": 3926,
      "▁statements": 3927,
      "▁statis": 3928,
      "▁airlin": 3929,
      "##ancy": 3930,
      "▁pee": 3931,
      "##ph": 3932,
      "▁bombs": 3933,
      "##ector": 3934,
      "▁trou": 3935,
      "▁driver": 3936,
      "▁crops": 3937,
      "▁painting": 3938,
      "▁mor": 3939,
      "▁signs": 3940,
      "▁don": 3941,
      "##amples": 3942,
      "▁seek": 3943,
      "▁pretend": 3944,
      "▁dri": 3945,
      "▁underst": 3946,
      "▁first": 3947,
      "▁settlement": 3948,
      "▁facing": 3949,
      "▁late": 3950,
      "▁rein": 3951,
      "▁giant": 3952,
      "▁morning": 3953,
      "▁sandwich": 3954,
      "##ailed": 3955,
      "▁average": 3956,
      "▁months": 3957,
      "▁basil": 3958,
      "▁battle": 3959,
      "▁shel": 3960,
      "▁cas": 3961,
      "##ribb": 3962,
      "▁procedure": 3963,
      "▁individ": 3964,
      "▁ran": 3965,
      "##wood": 3966,
      "▁notice": 3967,
      "▁clothing": 3968,
      "##alu": 3969,
      "##ods": 3970,
      "▁support": 3971,
      "▁public": 3972,
      "▁along": 3973,
      "▁legs": 3974,
      "▁wrest": 3975,
      "##peare": 3976,
      "▁defense": 3977,
      "▁aven": 3978,
      "▁suggests": 3979,
      "@": 3980,
      "▁killed": 3981,
      "##ival": 3982,
      "▁chees": 3983,
      "▁philosoph": 3984,
      "##on": 3985,
      "▁transmed": 3986,
      "▁earthqu": 3987,
      "▁electricity": 3988,
      "▁view": 3989,
      "##ointment": 3990,
      "▁advertis": 3991,
      "▁consequences": 3992,
      "▁yours": 3993,
      "▁we": 3994,
      "▁fee": 3995,
      "▁choose": 3996,
      "▁prec": 3997,
      "▁dist": 3998,
      "▁if": 3999,
      "▁regret": 4000,
      "▁home": 4001,
      "▁progr": 4002,
      "▁relationships": 4003,
      "▁ex": 4004,
      "▁mixture": 4005,
      "▁walking": 4006,
      "▁certainly": 4007,
      "▁tun": 4008,
      "▁forwar": 4009,
      "▁recipe": 4010,
      "▁iraq": 4011,
      "##ify": 4012,
      "▁insurance": 4013,
      "▁city": 4014,
      "##ø": 4015,
      "##anks": 4016,
      "▁satel": 4017,
      "##rit": 4018,
      "▁contract": 4019,
      "▁connection": 4020,
      "▁penny": 4021,
      "▁funding": 4022,
      "##ume": 4023,
      "▁versions": 4024,
      "▁anoth": 4025,
      "##ught": 4026,
      "▁explanation": 4027,
      "▁promotion": 4028,
      "▁defe": 4029,
      "▁attacked": 4030,
      "▁designer": 4031,
      "▁cover": 4032,
      "▁indicates": 4033,
      "##boat": 4034,
      "▁interpreted": 4035,
      "##itation": 4036,
      "▁bl": 4037,
      "▁conducted": 4038,
      "▁wake": 4039,
      "▁reve": 4040,
      "##ious": 4041,
      "▁girl": 4042,
      "##ub": 4043,
      "▁enh": 4044,
      "##dered": 4045,
      "▁forced": 4046,
      "▁ld": 4047,
      "▁government": 4048,
      "▁concerning": 4049,
      "##lation": 4050,
      "▁regarding": 4051,
      "▁season": 4052,
      "##duction": 4053,
      "##li": 4054,
      "▁gate": 4055,
      "##orum": 4056,
      "▁governor": 4057,
      "▁fine": 4058,
      "▁w": 4059,
      "##ast": 4060,
      "▁booked": 4061,
      "▁rum": 4062,
      "▁inch": 4063,
      "▁esc": 4064,
      "▁gum": 4065,
      "▁image": 4066,
      "▁arrang": 4067,
      "##icked": 4068,
      "##ceed": 4069,
      "▁exec": 4070,
      "▁prevail": 4071,
      "▁sover": 4072,
      "▁waited": 4073,
      "▁hot": 4074,
      "▁begun": 4075,
      "▁needed": 4076,
      "▁shit": 4077,
      "▁haf": 4078,
      "▁minute": 4079,
      "▁pm": 4080,
      "▁strike": 4081,
      "▁oct": 4082,
      "▁conclusion": 4083,
      "▁examined": 4084,
      "▁credit": 4085,
      "▁company": 4086,
      "▁pod": 4087,
      "##fted": 4088,
      "▁die": 4089,
      "▁candidates": 4090,
      "##ounded": 4091,
      "▁tale": 4092,
      "▁pie": 4093,
      "##ares": 4094,
      "▁scan": 4095,
      "▁tu": 4096,
      "▁lun": 4097,
      "▁chairs": 4098,
      "##ody": 4099,
      "▁hea": 4100,
      "▁hasid": 4101,
      "##ography": 4102,
      "▁words": 4103,
      "▁medicine": 4104,
      "▁given": 4105,
      "##inder": 4106,
      "▁paragraph": 4107,
      "▁contest": 4108,
      "##pen": 4109,
      "##clock": 4110,
      "▁station": 4111,
      "▁lamp": 4112,
      "##lications": 4113,
      "▁atlanta": 4114,
      "▁mode": 4115,
      "▁entry": 4116,
      "▁advance": 4117,
      "▁critics": 4118,
      "▁judg": 4119,
      "▁once": 4120,
      "▁chicken": 4121,
      "##rons": 4122,
      "▁reveal": 4123,
      "##ced": 4124,
      "▁sec": 4125,
      "##ict": 4126,
      "##na": 4127,
      "▁air": 4128,
      "▁poli": 4129,
      "▁hus": 4130,
      "▁pace": 4131,
      "▁popcorn": 4132,
      "▁pony": 4133,
      "▁um": 4134,
      "▁investi": 4135,
      "ø": 4136,
      "▁gallon": 4137,
      "▁chosen": 4138,
      "▁cop": 4139,
      "##ox": 4140,
      "##leum": 4141,
      "▁monkey": 4142,
      "▁quality": 4143,
      "▁abo": 4144,
      "▁towards": 4145,
      "##light": 4146,
      "▁volume": 4147,
      "▁red": 4148,
      "a": 4149,
      "▁mot": 4150,
      "##ot": 4151,
      "▁wines": 4152,
      "##ud": 4153,
      "▁crit": 4154,
      "##ery": 4155,
      "▁welfare": 4156,
      "▁citi": 4157,
      "▁nations": 4158,
      "▁opin": 4159,
      "▁technique": 4160,
      "##ait": 4161,
      "▁victory": 4162,
      "▁enc": 4163,
      "##vil": 4164,
      "▁iv": 4165,
      "##ury": 4166,
      "▁observ": 4167,
      "▁flu": 4168,
      "▁t": 4169,
      "▁stair": 4170,
      "▁withd": 4171,
      "▁complaint": 4172,
      "▁office": 4173,
      "▁limousine": 4174,
      "º": 4175,
      "▁leadership": 4176,
      "##ance": 4177,
      "▁murder": 4178,
      "▁next": 4179,
      "##key": 4180,
      "##uty": 4181,
      "▁conduct": 4182,
      "▁walked": 4183,
      "▁question": 4184,
      "▁towel": 4185,
      "##ink": 4186,
      "▁capt": 4187,
      "▁type": 4188,
      "▁nature": 4189,
      "+": 4190,
      "▁below": 4191,
      "##fin": 4192,
      "▁constituency": 4193,
      "▁laying": 4194,
      "▁b/c": 4195,
      "▁newspaper": 4196,
      "▁switched": 4197,
      "▁notion": 4198,
      "##force": 4199,
      "▁web": 4200,
      "##avor": 4201,
      "▁bug": 4202,
      "▁equival": 4203,
      "##ickness": 4204,
      "▁hard": 4205,
      "▁been": 4206,
      "▁care": 4207,
      "##derstand": 4208,
      "▁cases": 4209,
      "##aly": 4210,
      "▁pres": 4211,
      "▁pig": 4212,
      "▁errors": 4213,
      "▁preferred": 4214,
      "▁paul": 4215,
      "▁prom": 4216,
      "▁morality": 4217,
      "##rition": 4218,
      "▁attempts": 4219,
      "▁complete": 4220,
      "##uc": 4221,
      "▁international": 4222,
      "▁checking": 4223,
      "▁lat": 4224,
      "▁ey": 4225,
      "▁soda": 4226,
      "▁documentation": 4227,
      "▁third": 4228,
      "▁carries": 4229,
      "##yone": 4230,
      "▁breakfast": 4231,
      "##ust": 4232,
      "▁news": 4233,
      "▁coverage": 4234,
      "##elf": 4235,
      "▁money": 4236,
      "##bon": 4237,
      "▁lantern": 4238,
      "##unc": 4239,
      "##oun": 4240,
      "##ensus": 4241,
      "▁versus": 4242,
      "▁brought": 4243,
      "▁frame": 4244,
      "▁rocket": 4245,
      "▁sunday": 4246,
      "▁atop": 4247,
      "##ulars": 4248,
      "##ket": 4249,
      "▁jacket": 4250,
      "##uss": 4251,
      "##liance": 4252,
      "υ": 4253,
      "▁bits": 4254,
      "▁movie": 4255,
      "##vert": 4256,
      "▁philosophy": 4257,
      "##areness": 4258,
      "##ire": 4259,
      "▁occup": 4260,
      "##box": 4261,
      "▁freezer": 4262,
      "▁pad": 4263,
      "▁prosp": 4264,
      "▁scen": 4265,
      "▁films": 4266,
      "▁influence": 4267,
      "▁geomet": 4268,
      "##usion": 4269,
      "▁emp": 4270,
      "##uring": 4271,
      "▁advis": 4272,
      "##ials": 4273,
      "▁achieved": 4274,
      "▁fir": 4275,
      "▁victims": 4276,
      "##ath": 4277,
      "##aign": 4278,
      "▁resour": 4279,
      "▁litt": 4280,
      "▁sword": 4281,
      "▁birds": 4282,
      "▁came": 4283,
      "▁focused": 4284,
      "▁speed": 4285,
      "##enty": 4286,
      "▁vegetables": 4287,
      "▁sol": 4288,
      "▁mom": 4289,
      "▁about": 4290,
      "▁mys": 4291,
      "##ax": 4292,
      "▁not": 4293,
      "##;": 4294,
      "##erated": 4295,
      "##adel": 4296,
      "##tainty": 4297,
      "▁rainbow": 4298,
      "▁juice": 4299,
      "▁camer": 4300,
      "▁comb": 4301,
      "▁debate": 4302,
      "▁comple": 4303,
      "▁explained": 4304,
      "##oth": 4305,
      "##70s": 4306,
      "##ower": 4307,
      "▁should": 4308,
      "##oxide": 4309,
      "▁scenar": 4310,
      "▁loved": 4311,
      "▁entering": 4312,
      "▁citizens": 4313,
      "▁low": 4314,
      "▁hill": 4315,
      "▁degree": 4316,
      "##ession": 4317,
      "♥": 4318,
      "▁reflect": 4319,
      "▁s": 4320,
      "▁chickens": 4321,
      "##+": 4322,
      "▁mess": 4323,
      "▁held": 4324,
      "▁hal": 4325,
      "▁category": 4326,
      "▁ref": 4327,
      "▁attitudes": 4328,
      "▁kicked": 4329,
      "▁alread": 4330,
      "▁orders": 4331,
      "▁cloth": 4332,
      "▁realize": 4333,
      "##ront": 4334,
      "##tly": 4335,
      "##ming": 4336,
      "▁survived": 4337,
      "▁lan": 4338,
      "▁coun": 4339,
      "▁crossing": 4340,
      "▁counterparty": 4341,
      "▁oblig": 4342,
      "##wa": 4343,
      "▁production": 4344,
      "▁arrives": 4345,
      "▁handed": 4346,
      "▁dioxide": 4347,
      "▁planned": 4348,
      "▁plans": 4349,
      "▁obtain": 4350,
      "▁sales": 4351,
      "▁detective": 4352,
      "▁depend": 4353,
      "▁destruc": 4354,
      "##ig": 4355,
      "▁crap": 4356,
      "▁shops": 4357,
      "▁tot": 4358,
      "▁correspond": 4359,
      "▁mat": 4360,
      "##app": 4361,
      "▁fat": 4362,
      "▁bit": 4363,
      "▁seas": 4364,
      "▁communities": 4365,
      "▁stress": 4366,
      "▁ten": 4367,
      "▁ask": 4368,
      "▁guidance": 4369,
      "##irt": 4370,
      "▁environments": 4371,
      "▁im": 4372,
      "▁fax": 4373,
      "▁like": 4374,
      "##ble": 4375,
      "▁|--------+----------------": 4376,
      "##00": 4377,
      "ʃ": 4378,
      "▁mathematics": 4379,
      "▁culture": 4380,
      "▁surpr": 4381,
      "##igr": 4382,
      "▁friday": 4383,
      "##inist": 4384,
      "▁poor": 4385,
      "▁surp": 4386,
      "▁wild": 4387,
      "▁preserve": 4388,
      "▁it": 4389,
      "##ail": 4390,
      "▁sy": 4391,
      "▁install": 4392,
      "##ount": 4393,
      "##xt": 4394,
      "▁performance": 4395,
      "▁stic": 4396,
      "▁handling": 4397,
      "▁surr": 4398,
      "##iving": 4399,
      "▁plus": 4400,
      "▁.......": 4401,
      "▁santorum": 4402,
      "##ruc": 4403,
      "▁tip": 4404,
      "##qual": 4405,
      "##pri": 4406,
      "##gl": 4407,
      "▁wars": 4408,
      "▁scenario": 4409,
      "▁deals": 4410,
      "##igh": 4411,
      "▁stomach": 4412,
      "▁fly": 4413,
      "##ine": 4414,
      "▁wilt": 4415,
      "▁ke": 4416,
      "▁incitement": 4417,
      "9": 4418,
      "##ie": 4419,
      "▁invol": 4420,
      "▁eff": 4421,
      "▁finally": 4422,
      "▁guid": 4423,
      "▁mother": 4424,
      "▁proved": 4425,
      "▁arms": 4426,
      "▁smiling": 4427,
      "▁regre": 4428,
      "##mentation": 4429,
      "▁soli": 4430,
      "▁priv": 4431,
      "▁tomatoes": 4432,
      "##rs": 4433,
      "##unction": 4434,
      "##rance": 4435,
      "##ulate": 4436,
      "▁episode": 4437,
      "▁spending": 4438,
      "▁variety": 4439,
      "▁ready": 4440,
      "▁notic": 4441,
      "▁driving": 4442,
      "▁update": 4443,
      "##eck": 4444,
      "▁boot": 4445,
      "▁candid": 4446,
      "▁track": 4447,
      "▁printed": 4448,
      "##60s": 4449,
      "▁texts": 4450,
      "▁july": 4451,
      "##'s": 4452,
      "##ov": 4453,
      "▁enti": 4454,
      "▁concluded": 4455,
      "▁wood": 4456,
      "▁hang": 4457,
      "▁donations": 4458,
      "##s.": 4459,
      "▁winning": 4460,
      "▁tail": 4461,
      "##has": 4462,
      "▁astr": 4463,
      "##eng": 4464,
      "▁prefer": 4465,
      "▁rock": 4466,
      "▁fellows": 4467,
      "▁raining": 4468,
      "▁comparison": 4469,
      "▁resource": 4470,
      "##ch": 4471,
      "▁seeking": 4472,
      "▁existing": 4473,
      "▁national": 4474,
      "##oint": 4475,
      "▁calc": 4476,
      "##perity": 4477,
      "▁phrase": 4478,
      "▁views": 4479,
      "▁involve": 4480,
      "##ll": 4481,
      "▁disease": 4482,
      "##±": 4483,
      "▁guys": 4484,
      "▁ur": 4485,
      "▁sister": 4486,
      "##oodle": 4487,
      "▁only": 4488,
      "▁opp": 4489,
      "▁beneath": 4490,
      "▁refin": 4491,
      "▁promote": 4492,
      "##•": 4493,
      "▁.....": 4494,
      "▁---------------------------------------------------------------------------": 4495,
      "▁pred": 4496,
      "▁rat": 4497,
      "▁!!!!!!!!!!": 4498,
      "▁natural": 4499,
      "▁appreciated": 4500,
      "##ius": 4501,
      "▁'em": 4502,
      "▁damage": 4503,
      "▁aims": 4504,
      "▁assistant": 4505,
      "▁madam": 4506,
      "▁he": 4507,
      "▁applying": 4508,
      "▁rule": 4509,
      "##????????????????": 4510,
      "▁fishing": 4511,
      "##tification": 4512,
      "▁doc": 4513,
      "▁grill": 4514,
      "▁whether": 4515,
      "▁principle": 4516,
      "▁reports": 4517,
      "▁neighbors": 4518,
      "##erence": 4519,
      "▁senators": 4520,
      "▁mood": 4521,
      "##lite": 4522,
      "##osing": 4523,
      "▁alliance": 4524,
      "▁emissions": 4525,
      "▁novels": 4526,
      "▁exam": 4527,
      "▁preparing": 4528,
      "▁section": 4529,
      "▁pack": 4530,
      "▁selection": 4531,
      "▁library": 4532,
      "##aped": 4533,
      "##ash": 4534,
      "▁stol": 4535,
      "▁tips": 4536,
      "▁back": 4537,
      "▁decades": 4538,
      "▁piece": 4539,
      "▁tent": 4540,
      "▁survey": 4541,
      "▁imag": 4542,
      "▁appreciate": 4543,
      "▁edition": 4544,
      "▁contin": 4545,
      "▁noticed": 4546,
      "▁maintained": 4547,
      "▁parakeet": 4548,
      "##re": 4549,
      "▁pub": 4550,
      "##let": 4551,
      "##acamole": 4552,
      "##ambment": 4553,
      "▁pets": 4554,
      "▁just": 4555,
      "▁discuss": 4556,
      "▁fingers": 4557,
      "##rup": 4558,
      "▁rele": 4559,
      "##oting": 4560,
      "▁slice": 4561,
      "▁achievements": 4562,
      "▁boom": 4563,
      "##ives": 4564,
      "▁jellyfish": 4565,
      "▁spec": 4566,
      "▁tri": 4567,
      "▁ocean": 4568,
      "▁sens": 4569,
      "▁bel": 4570,
      "▁early": 4571,
      "▁pizza": 4572,
      "▁streets": 4573,
      "▁----------------------------------------------------------------------": 4574,
      "▁reven": 4575,
      "(": 4576,
      "▁practice": 4577,
      "▁friends": 4578,
      "▁solid": 4579,
      "▁af": 4580,
      "##burg": 4581,
      "##chup": 4582,
      "▁summary": 4583,
      "##ures": 4584,
      "▁capac": 4585,
      "##inter": 4586,
      "▁beside": 4587,
      "▁mile": 4588,
      "▁reply": 4589,
      "▁temples": 4590,
      "##oration": 4591,
      "##alth": 4592,
      "g": 4593,
      "▁gon": 4594,
      "▁etc": 4595,
      "▁teasp": 4596,
      "▁tummy": 4597,
      "▁interviewed": 4598,
      "##gether": 4599,
      "▁several": 4600,
      "▁degre": 4601,
      "▁address": 4602,
      "▁swung": 4603,
      "##ially": 4604,
      "▁intel": 4605,
      "▁age": 4606,
      "##ashed": 4607,
      "▁re-": 4608,
      "##ou": 4609,
      "##tice": 4610,
      "▁transl": 4611,
      "▁running": 4612,
      "▁cord": 4613,
      "##hing": 4614,
      "##py": 4615,
      "##iction": 4616,
      "▁combination": 4617,
      "##ado": 4618,
      "##arg": 4619,
      "▁camera": 4620,
      "▁b/": 4621,
      "##form": 4622,
      "##ns": 4623,
      "##alize": 4624,
      "##auc": 4625,
      "▁’d": 4626,
      "/": 4627,
      "##to": 4628,
      "##istic": 4629,
      "▁habit": 4630,
      "▁seekers": 4631,
      "##rou": 4632,
      "##istan": 4633,
      "##jamas": 4634,
      "▁hams": 4635,
      "▁shock": 4636,
      "▁veter": 4637,
      "▁referred": 4638,
      "▁carol": 4639,
      "##eren": 4640,
      "▁kitchen": 4641,
      "▁dou": 4642,
      "▁quinn": 4643,
      "▁bye": 4644,
      "▁rub": 4645,
      "ɔ": 4646,
      "▁query": 4647,
      "▁sell": 4648,
      "▁appears": 4649,
      "▁body": 4650,
      "▁study": 4651,
      "##ks": 4652,
      "▁chic": 4653,
      "▁police": 4654,
      "▁phil": 4655,
      "▁argu": 4656,
      "▁": 4657,
      "▁daily": 4658,
      "▁up": 4659,
      "▁poster": 4660,
      "##imp": 4661,
      "▁exploration": 4662,
      "##atched": 4663,
      "▁kn": 4664,
      "▁imagined": 4665,
      "▁periods": 4666,
      "##********": 4667,
      "▁reasons": 4668,
      "##olution": 4669,
      "##lection": 4670,
      "##wic": 4671,
      "▁free": 4672,
      "▁last": 4673,
      "▁species": 4674,
      "▁motorcycle": 4675,
      "##s": 4676,
      "▁hospital": 4677,
      "▁landscape": 4678,
      "##esty": 4679,
      "##out": 4680,
      "▁son": 4681,
      "▁enjo": 4682,
      "▁having": 4683,
      "▁determined": 4684,
      "n": 4685,
      "▁aid": 4686,
      "##iousness": 4687,
      "▁colour": 4688,
      "▁named": 4689,
      "##ological": 4690,
      "▁dat": 4691,
      "▁nest": 4692,
      "▁deficiency": 4693,
      "▁accomplish": 4694,
      "▁platform": 4695,
      "▁parents": 4696,
      "▁withdraw": 4697,
      "▁paperwork": 4698,
      "▁closing": 4699,
      "▁cheap": 4700,
      "##uf": 4701,
      "▁fall": 4702,
      "▁certific": 4703,
      "▁quick": 4704,
      "##ef": 4705,
      "▁owners": 4706,
      "▁reconciliation": 4707,
      "▁pay": 4708,
      "▁jan": 4709,
      "▁tops": 4710,
      "▁soc": 4711,
      "▁movement": 4712,
      "▁expansion": 4713,
      "▁added": 4714,
      "▁illust": 4715,
      "##tles": 4716,
      "##zation": 4717,
      "##inc": 4718,
      "##ooks": 4719,
      "▁basis": 4720,
      "##ective": 4721,
      "▁imagine": 4722,
      "▁bot": 4723,
      "▁uses": 4724,
      "▁mech": 4725,
      "▁promised": 4726,
      "▁elements": 4727,
      "▁extension": 4728,
      "▁strategy": 4729,
      "##ptions": 4730,
      "▁divers": 4731,
      "##ips": 4732,
      "▁way": 4733,
      "▁elections": 4734,
      "##]": 4735,
      "▁questions": 4736,
      "▁denti": 4737,
      "▁sharing": 4738,
      "##ter": 4739,
      "##ren": 4740,
      "##illa": 4741,
      "▁examination": 4742,
      "▁head": 4743,
      "▁pan": 4744,
      "▁filter": 4745,
      "▁rolls": 4746,
      "▁tex": 4747,
      "▁conse": 4748,
      "▁nights": 4749,
      "▁plants": 4750,
      "##itled": 4751,
      "▁certificate": 4752,
      "▁spl": 4753,
      "▁weekend": 4754,
      "▁facil": 4755,
      "##tering": 4756,
      "▁joke": 4757,
      "▁warming": 4758,
      "▁knee": 4759,
      "▁chairman": 4760,
      "▁ab": 4761,
      "▁serves": 4762,
      "▁drank": 4763,
      "▁sink": 4764,
      "##memb": 4765,
      "▁headed": 4766,
      "▁dreams": 4767,
      "##ian": 4768,
      "▁perio": 4769,
      "▁lifesty": 4770,
      "##ured": 4771,
      "▁ele": 4772,
      "▁lying": 4773,
      "▁reputation": 4774,
      "▁mur": 4775,
      "▁sac": 4776,
      "▁resistance": 4777,
      "▁lit": 4778,
      "▁tension": 4779,
      "▁anybody": 4780,
      "##aff": 4781,
      "▁http://www.": 4782,
      "▁pulling": 4783,
      "▁alar": 4784,
      "##th": 4785,
      "▁dad": 4786,
      "##♥": 4787,
      "▁su": 4788,
      "▁tom": 4789,
      "▁laughter": 4790,
      "▁pool": 4791,
      "##ore": 4792,
      "▁trends": 4793,
      "▁polar": 4794,
      "##lim": 4795,
      "▁hav": 4796,
      "##erve": 4797,
      "▁cries": 4798,
      "▁publication": 4799,
      "▁amendment": 4800,
      "##.x": 4801,
      "▁--": 4802,
      "▁counsel": 4803,
      "##lines": 4804,
      "▁community": 4805,
      "ν": 4806,
      "##ground": 4807,
      "▁village": 4808,
      "##vail": 4809,
      "##ician": 4810,
      "▁panel": 4811,
      "▁---------------------------------------------------------------------": 4812,
      "##usted": 4813,
      "▁systems": 4814,
      "▁realism": 4815,
      "▁conn": 4816,
      "##eared": 4817,
      "▁circle": 4818,
      "##ope": 4819,
      "▁bulb": 4820,
      "##duc": 4821,
      "##bby": 4822,
      "▁mus": 4823,
      "##ema": 4824,
      "▁ic": 4825,
      "▁who's": 4826,
      "##un": 4827,
      "▁condition": 4828,
      "▁airplan": 4829,
      "▁missiles": 4830,
      "▁potential": 4831,
      "##eak": 4832,
      "##aming": 4833,
      "▁loves": 4834,
      "##ɑ": 4835,
      "▁territory": 4836,
      "##structed": 4837,
      "##ather": 4838,
      "▁mathematician": 4839,
      "##ologists": 4840,
      "▁---": 4841,
      "▁har": 4842,
      "▁mum": 4843,
      "##7": 4844,
      "▁scre": 4845,
      "▁spears": 4846,
      "▁tragedies": 4847,
      "8": 4848,
      "##roduction": 4849,
      "▁mommy": 4850,
      "▁garden": 4851,
      "▁cour": 4852,
      "▁regist": 4853,
      "▁swww": 4854,
      "▁brush": 4855,
      "▁transportation": 4856,
      "##esaw": 4857,
      "▁cages": 4858,
      "▁perhap": 4859,
      "##**********************************": 4860,
      "▁appreciation": 4861,
      "##dle": 4862,
      "▁wind": 4863,
      "##ober": 4864,
      "▁brother": 4865,
      "##urday": 4866,
      "▁moving": 4867,
      "##ansas": 4868,
      "▁you": 4869,
      "▁fort": 4870,
      "##chen": 4871,
      "##vision": 4872,
      "▁come": 4873,
      "▁sequ": 4874,
      "##band": 4875,
      "▁watched": 4876,
      "▁european": 4877,
      "##aws": 4878,
      "▁adopted": 4879,
      ")": 4880,
      "▁km": 4881,
      "▁click": 4882,
      "##aining": 4883,
      "▁le": 4884,
      "ς": 4885,
      "##ace": 4886,
      "▁l": 4887,
      "##ape": 4888,
      "▁strip": 4889,
      "▁er": 4890,
      "▁initi": 4891,
      "▁jeans": 4892,
      "▁emails": 4893,
      "▁millions": 4894,
      "▁music": 4895,
      "▁map": 4896,
      "▁data": 4897,
      "##ily": 4898,
      "▁materials": 4899,
      "##idding": 4900,
      "▁av": 4901,
      "▁sizes": 4902,
      "▁december": 4903,
      "▁acquired": 4904,
      "▁en": 4905,
      "▁sant": 4906,
      "▁arch": 4907,
      "▁sauce": 4908,
      "▁hed": 4909,
      "▁legislature": 4910,
      "▁count": 4911,
      "▁joined": 4912,
      "##aos": 4913,
      "▁comput": 4914,
      "##rors": 4915,
      "▁hurt": 4916,
      "▁estim": 4917,
      "##ill": 4918,
      "▁energy": 4919,
      "▁sheet": 4920,
      "▁fi": 4921,
      "▁recognized": 4922,
      "▁act": 4923,
      "▁navy": 4924,
      "##----": 4925,
      "▁buc": 4926,
      "##ana": 4927,
      "▁municip": 4928,
      "▁hate": 4929,
      "▁equality": 4930,
      "▁anim": 4931,
      "▁position": 4932,
      "▁coast": 4933,
      "▁suggestion": 4934,
      "##idence": 4935,
      "##fully": 4936,
      "▁sometimes": 4937,
      "▁dc": 4938,
      "▁recording": 4939,
      "▁expressed": 4940,
      "▁symbol": 4941,
      "▁bill": 4942,
      "▁off": 4943,
      "▁overalls": 4944,
      "▁beh": 4945,
      "▁traveled": 4946,
      "▁supported": 4947,
      "▁tour": 4948,
      "▁rom": 4949,
      "▁yard": 4950,
      "▁defin": 4951,
      "##000": 4952,
      "##other": 4953,
      "▁affect": 4954,
      "▁helps": 4955,
      "▁deaths": 4956,
      "▁hearts": 4957,
      "▁solutions": 4958,
      "▁microscope": 4959,
      "▁waiter": 4960,
      "▁heat": 4961,
      "▁eval": 4962,
      "▁fro": 4963,
      "σ": 4964,
      "##5": 4965,
      "▁cupcake": 4966,
      "##xim": 4967,
      "▁hobby": 4968,
      "▁recommendations": 4969,
      "▁mission": 4970,
      "▁parliament": 4971,
      "##ide": 4972,
      "▁because": 4973,
      "▁becoming": 4974,
      "▁swimming": 4975,
      "▁cowboy": 4976,
      "▁resume": 4977,
      "▁tasted": 4978,
      "▁tag": 4979,
      "▁patience": 4980,
      "##uffs": 4981,
      "▁invitation": 4982,
      "▁holiday": 4983,
      "▁quinoa": 4984,
      "▁paused": 4985,
      "▁nat": 4986,
      "▁attr": 4987,
      "##ym": 4988,
      "▁rubber": 4989,
      "##onents": 4990,
      "▁evaluation": 4991,
      "▁spotted": 4992,
      "▁user": 4993,
      "▁boats": 4994,
      "▁operate": 4995,
      "▁!!!!!!!!!!!!!!!!!!!": 4996,
      "▁used": 4997,
      "▁brand": 4998,
      "##ber": 4999,
      "▁reform": 5000,
      "▁investment": 5001,
      "▁fright": 5002,
      "▁impris": 5003,
      "##º": 5004,
      "▁bridge": 5005,
      "▁garb": 5006,
      "▁distributed": 5007,
      "▁fab": 5008,
      "—": 5009,
      "▁sh": 5010,
      "▁take": 5011,
      "▁forg": 5012,
      "▁actions": 5013,
      "▁load": 5014,
      "▁hop": 5015,
      "▁top": 5016,
      "##eted": 5017,
      "▁puppy": 5018,
      "▁napkin": 5019,
      "▁forth": 5020,
      "▁suppose": 5021,
      "▁lived": 5022,
      "▁pencil": 5023,
      "▁ho": 5024,
      "▁pow": 5025,
      "▁depending": 5026,
      "▁categ": 5027,
      "##ically": 5028,
      "▁pitch": 5029,
      "▁airports": 5030,
      "▁listened": 5031,
      "▁hope": 5032,
      "▁questioned": 5033,
      "▁assessment": 5034,
      "##town": 5035,
      "##man": 5036,
      "▁seen": 5037,
      "##acing": 5038,
      "▁sel": 5039,
      "##eral": 5040,
      "▁assoc": 5041,
      "▁upon": 5042,
      "▁license": 5043,
      "▁understand": 5044,
      "▁liter": 5045,
      "##con": 5046,
      "▁baseball": 5047,
      "▁sett": 5048,
      "▁din": 5049,
      "▁model": 5050,
      "▁quartile": 5051,
      "▁frozen": 5052,
      "▁:?": 5053,
      "▁find": 5054,
      "▁tax": 5055,
      "▁census": 5056,
      "▁include": 5057,
      "▁playwright": 5058,
      "▁corp": 5059,
      "▁learning": 5060,
      "▁code": 5061,
      "##ists": 5062,
      "##verage": 5063,
      "##anges": 5064,
      "▁suggestions": 5065,
      "▁cabb": 5066,
      "▁intentions": 5067,
      "▁directions": 5068,
      "##ributed": 5069,
      "##airs": 5070,
      "##arters": 5071,
      "▁san": 5072,
      "▁rh": 5073,
      "▁published": 5074,
      "▁pir": 5075,
      "▁wal": 5076,
      "▁hom": 5077,
      "▁recorded": 5078,
      "▁attorney": 5079,
      "▁crayons": 5080,
      "▁communic": 5081,
      "▁offers": 5082,
      "▁afternoon": 5083,
      "▁elephant": 5084,
      "##gan": 5085,
      "▁contribute": 5086,
      "▁object": 5087,
      "▁seeing": 5088,
      "▁rib": 5089,
      "▁assault": 5090,
      "▁apartment": 5091,
      "▁participants": 5092,
      "▁ursula": 5093,
      "▁repeat": 5094,
      "##ool": 5095,
      "▁outfit": 5096,
      "▁tolerate": 5097,
      "▁keeping": 5098,
      "▁k": 5099,
      "##ians": 5100,
      "##aking": 5101,
      "▁listening": 5102,
      "▁gras": 5103,
      "▁fur": 5104,
      "▁risks": 5105,
      "##aur": 5106,
      "▁parake": 5107,
      "##ution": 5108,
      "▁log": 5109,
      "▁meas": 5110,
      "▁mud": 5111,
      "##acles": 5112,
      "▁doggie": 5113,
      "▁water": 5114,
      "▁master": 5115,
      "▁access": 5116,
      "▁resear": 5117,
      "##go": 5118,
      "▁carry": 5119,
      "▁avo": 5120,
      "##vement": 5121,
      "▁half": 5122,
      "▁prison": 5123,
      "▁seats": 5124,
      "##enda": 5125,
      "▁stepping": 5126,
      "##ited": 5127,
      "▁think": 5128,
      "▁gn": 5129,
      "##adle": 5130,
      "▁does": 5131,
      "##clo": 5132,
      "##sent": 5133,
      "▁soul": 5134,
      "##ele": 5135,
      "▁!!": 5136,
      "▁creation": 5137,
      "##ization": 5138,
      "##aled": 5139,
      "▁rep": 5140,
      "▁apply": 5141,
      "##ills": 5142,
      "▁soon": 5143,
      "▁tac": 5144,
      "##????????": 5145,
      "▁knoc": 5146,
      "▁allig": 5147,
      "▁turb": 5148,
      "▁drops": 5149,
      "▁agreement": 5150,
      "▁properties": 5151,
      "▁requirements": 5152,
      "##oses": 5153,
      "▁amount": 5154,
      "▁executed": 5155,
      "▁system": 5156,
      "▁eur": 5157,
      "▁fo": 5158,
      "▁soldier": 5159,
      "▁app": 5160,
      "▁americ": 5161,
      "▁7": 5162,
      "▁drop": 5163,
      "▁cycle": 5164,
      "▁schol": 5165,
      "▁suffered": 5166,
      "##u": 5167,
      "▁c": 5168,
      "▁tast": 5169,
      "▁belt": 5170,
      "▁penc": 5171,
      "▁knowledge": 5172,
      "▁when": 5173,
      "▁worn": 5174,
      "##ff": 5175,
      "▁charges": 5176,
      "▁islamists": 5177,
      "▁engine": 5178,
      "##ington": 5179,
      "##amas": 5180,
      "##cl": 5181,
      "##ince": 5182,
      "▁understanding": 5183,
      "##so": 5184,
      "##eers": 5185,
      "##ried": 5186,
      "▁conflic": 5187,
      "##bre": 5188,
      "▁teaching": 5189,
      "##acter": 5190,
      "▁smoke": 5191,
      "▁parks": 5192,
      "▁salad": 5193,
      "▁funnel": 5194,
      "▁yellow": 5195,
      "▁mice": 5196,
      "▁citiz": 5197,
      "▁effects": 5198,
      "##per": 5199,
      "▁accompanied": 5200,
      "▁bone": 5201,
      "▁wil": 5202,
      "▁settings": 5203,
      "▁ribbon": 5204,
      "##ought": 5205,
      "▁lost": 5206,
      "▁agree": 5207,
      "▁ladder": 5208,
      "▁refer": 5209,
      "▁drawn": 5210,
      "▁work": 5211,
      "##jection": 5212,
      "▁member": 5213,
      "▁suicide": 5214,
      "##que": 5215,
      "##ress": 5216,
      "▁ladies": 5217,
      "▁let": 5218,
      "##gery": 5219,
      "▁new": 5220,
      "##orrow": 5221,
      "▁solution": 5222,
      "▁’": 5223,
      "##ension": 5224,
      "▁harmon": 5225,
      "▁goals": 5226,
      "▁starting": 5227,
      "▁grew": 5228,
      "▁colle": 5229,
      "##ads": 5230,
      "##iety": 5231,
      "▁enable": 5232,
      "##ost": 5233,
      "▁negot": 5234,
      "▁commitments": 5235,
      "##engers": 5236,
      "▁increase": 5237,
      "▁us": 5238,
      "▁content": 5239,
      "▁miracle": 5240,
      "▁indianapolis": 5241,
      "▁applications": 5242,
      "##otte": 5243,
      "▁realized": 5244,
      "▁warned": 5245,
      "▁rabbit": 5246,
      "▁bor": 5247,
      "▁within": 5248,
      "▁beet": 5249,
      "▁clown": 5250,
      "▁langu": 5251,
      "▁describe": 5252,
      "▁pron": 5253,
      "▁lou": 5254,
      "▁professor": 5255,
      "▁ends": 5256,
      "▁indic": 5257,
      "▁spell": 5258,
      "##ib": 5259,
      "▁tools": 5260,
      "▁realised": 5261,
      "▁diplom": 5262,
      "▁minn": 5263,
      "▁types": 5264,
      "▁sto": 5265,
      "▁staying": 5266,
      "▁behalf": 5267,
      "▁aw": 5268,
      "##inated": 5269,
      "▁saved": 5270,
      "▁la": 5271,
      "▁opens": 5272,
      "▁tw": 5273,
      "▁woud": 5274,
      "##erful": 5275,
      "▁reflection": 5276,
      "▁analyst": 5277,
      "▁haircut": 5278,
      "▁evolved": 5279,
      "##afts": 5280,
      "##asm": 5281,
      "▁geor": 5282,
      "##ocol": 5283,
      "##ra": 5284,
      "##ife": 5285,
      "▁filled": 5286,
      "▁worth": 5287,
      "##atic": 5288,
      "▁salt": 5289,
      "▁egg": 5290,
      "▁globe": 5291,
      "##ocated": 5292,
      "▁scribble": 5293,
      "▁impl": 5294,
      "▁moves": 5295,
      "▁visits": 5296,
      "…": 5297,
      "▁route": 5298,
      "##like": 5299,
      "▁op": 5300,
      "▁-----------------------------------------------------------------------": 5301,
      "▁theme": 5302,
      "##---------------": 5303,
      "##utions": 5304,
      "##zac": 5305,
      "▁roof": 5306,
      "##ead": 5307,
      "▁attempted": 5308,
      "▁perf": 5309,
      "##atives": 5310,
      "▁tow": 5311,
      "##mate": 5312,
      "▁mosquito": 5313,
      "▁trouble": 5314,
      "##iding": 5315,
      "▁viol": 5316,
      "##______": 5317,
      "▁mailings": 5318,
      "▁notw": 5319,
      "▁mistake": 5320,
      "▁contents": 5321,
      "▁fre": 5322,
      "▁duel": 5323,
      "▁penalty": 5324,
      "##alism": 5325,
      "▁drill": 5326,
      "▁plaster": 5327,
      "▁efforts": 5328,
      "##cked": 5329,
      "▁wondering": 5330,
      "▁categories": 5331,
      "▁pr": 5332,
      "▁gallery": 5333,
      "▁highl": 5334,
      "2": 5335,
      "##tually": 5336,
      "▁tric": 5337,
      "##aling": 5338,
      "##!!": 5339,
      "▁crash": 5340,
      "▁vegetable": 5341,
      "▁opened": 5342,
      "▁accommod": 5343,
      "▁cer": 5344,
      "▁californ": 5345,
      "##chang": 5346,
      "##ense": 5347,
      "▁london": 5348,
      "##orter": 5349,
      "▁ballet": 5350,
      "▁bulldozer": 5351,
      "▁fing": 5352,
      "▁dom": 5353,
      "##ds": 5354,
      "##craft": 5355,
      "▁retired": 5356,
      "▁bil": 5357,
      "▁sha": 5358,
      "▁veg": 5359,
      "▁com": 5360,
      "▁full": 5361,
      "▁…": 5362,
      "▁branches": 5363,
      "▁games": 5364,
      "##9": 5365,
      "##a": 5366,
      "▁pillow": 5367,
      "▁shoulders": 5368,
      "▁wave": 5369,
      "▁feed": 5370,
      "▁teach": 5371,
      "▁dose": 5372,
      "▁burden": 5373,
      "▁gets": 5374,
      "##ention": 5375,
      "▁fell": 5376,
      "▁blame": 5377,
      "##ribute": 5378,
      "##ix": 5379,
      "##pping": 5380,
      "▁facility": 5381,
      "##anced": 5382,
      "▁destroy": 5383,
      "##an": 5384,
      "##ard": 5385,
      "▁edge": 5386,
      "##amp": 5387,
      "##iz": 5388,
      "▁shadow": 5389,
      "▁john": 5390,
      "▁expertise": 5391,
      "##ball": 5392,
      "#": 5393,
      "▁weekends": 5394,
      "▁bud": 5395,
      "▁memoir": 5396,
      "ˈ": 5397,
      "▁cut": 5398,
      "▁rooms": 5399,
      "##isd": 5400,
      "▁failed": 5401,
      "##dly": 5402,
      "▁anything": 5403,
      "##mited": 5404,
      "▁kiss": 5405,
      "▁continued": 5406,
      ":": 5407,
      "##ning": 5408,
      "▁dollie": 5409,
      "▁reduction": 5410,
      "▁gh": 5411,
      "▁ceo": 5412,
      "▁francisco": 5413,
      "##outh": 5414,
      "▁farm": 5415,
      "▁hall": 5416,
      "▁cere": 5417,
      "▁someth": 5418,
      "##war": 5419,
      "▁mid-": 5420,
      "##ations": 5421,
      "##um": 5422,
      "▁citizen": 5423,
      "▁facul": 5424,
      "▁foundation": 5425,
      "▁babies": 5426,
      "▁regulations": 5427,
      "▁ports": 5428,
      "▁climb": 5429,
      "▁wik": 5430,
      "▁poop": 5431,
      "▁hy": 5432,
      "▁tub": 5433,
      "▁laughing": 5434,
      "▁offices": 5435,
      "▁provisions": 5436,
      "##rous": 5437,
      "▁alt.": 5438,
      "▁owe": 5439,
      "▁struggle": 5440,
      "##vers": 5441,
      "▁receiving": 5442,
      "▁journ": 5443,
      "##rog": 5444,
      "##actions": 5445,
      "##forcement": 5446,
      "▁pronounced": 5447,
      "##lo": 5448,
      "▁var": 5449,
      "▁_____": 5450,
      "▁digging": 5451,
      "▁failure": 5452,
      "▁east": 5453,
      "▁....................": 5454,
      "##tch": 5455,
      "▁square": 5456,
      "▁hearings": 5457,
      "##ership": 5458,
      "##board": 5459,
      "▁hur": 5460,
      "##ackers": 5461,
      "▁recent": 5462,
      "▁meeting": 5463,
      "▁fighter": 5464,
      "▁too": 5465,
      "▁worry": 5466,
      "##avi": 5467,
      "▁rad": 5468,
      "▁markets": 5469,
      "▁sons": 5470,
      "▁teacher": 5471,
      "##ent": 5472,
      "▁shadows": 5473,
      "▁bul": 5474,
      "▁organizations": 5475,
      "##mping": 5476,
      "##makers": 5477,
      "▁frost": 5478,
      "▁doll": 5479,
      "▁conclu": 5480,
      "▁cartoons": 5481,
      "▁thy": 5482,
      "##ode": 5483,
      "▁directive": 5484,
      "▁surprise": 5485,
      "##een": 5486,
      "##overs": 5487,
      "##acket": 5488,
      "▁marriage": 5489,
      "▁tree": 5490,
      "▁rights": 5491,
      "▁calend": 5492,
      "▁companies": 5493,
      "▁suck": 5494,
      "##utation": 5495,
      "▁cereal": 5496,
      "▁fight": 5497,
      "▁consciousness": 5498,
      "▁that": 5499,
      "##ies": 5500,
      "▁paths": 5501,
      "▁enron": 5502,
      "##anger": 5503,
      "▁get": 5504,
      "▁leads": 5505,
      "▁obs": 5506,
      "▁labor": 5507,
      "##hes": 5508,
      "▁continental": 5509,
      "\"": 5510,
      "▁pract": 5511,
      "##rif": 5512,
      "▁ginger": 5513,
      "▁chall": 5514,
      "##tain": 5515,
      "▁definitely": 5516,
      "▁they": 5517,
      "▁identi": 5518,
      "##icult": 5519,
      "##back": 5520,
      "##hea": 5521,
      "▁une": 5522,
      "##tiles": 5523,
      "▁student": 5524,
      "##ential": 5525,
      "▁lif": 5526,
      "▁organ": 5527,
      "##asters": 5528,
      "▁cous": 5529,
      "▁shopping": 5530,
      "##ak": 5531,
      "▁tomorrow": 5532,
      "▁cabin": 5533,
      "##ly": 5534,
      "▁into": 5535,
      "▁stated": 5536,
      "▁indicated": 5537,
      "▁phenomenon": 5538,
      "▁calls": 5539,
      "##sed": 5540,
      "▁ourselves": 5541,
      "▁soldi": 5542,
      "▁passing": 5543,
      "▁plaintiff": 5544,
      "▁flies": 5545,
      "##asp": 5546,
      "▁judge": 5547,
      "▁privacy": 5548,
      "▁peoples": 5549,
      "▁coach": 5550,
      "▁large": 5551,
      "##ounce": 5552,
      "▁uncer": 5553,
      "▁doubts": 5554,
      "##ilos": 5555,
      "▁true": 5556,
      "▁fungi": 5557,
      "##veland": 5558,
      "▁teen": 5559,
      "▁dating": 5560,
      "μ": 5561,
      "##ows": 5562,
      "▁essence": 5563,
      "▁her": 5564,
      "##tee": 5565,
      "▁happens": 5566,
      "▁form": 5567,
      "##ond": 5568,
      "▁piz": 5569,
      "##&": 5570,
      "##using": 5571,
      "▁discount": 5572,
      "▁collected": 5573,
      "▁camel": 5574,
      "▁hanging": 5575,
      "▁cig": 5576,
      "##xts": 5577,
      "▁developments": 5578,
      "##quarters": 5579,
      "▁recru": 5580,
      "▁bath": 5581,
      "▁dividends": 5582,
      "▁discip": 5583,
      "##unic": 5584,
      "▁smelled": 5585,
      "▁screwdriver": 5586,
      "▁sugg": 5587,
      "▁reserv": 5588,
      "▁parties": 5589,
      "▁becomes": 5590,
      "▁those": 5591,
      "##:": 5592,
      "##ument": 5593,
      "▁mines": 5594,
      "##umn": 5595,
      "▁challenges": 5596,
      "▁colors": 5597,
      "▁beliefs": 5598,
      "##coon": 5599,
      "▁got": 5600,
      "##ours": 5601,
      "▁outc": 5602,
      "▁audience": 5603,
      "▁ent": 5604,
      "▁fav": 5605,
      "▁downtown": 5606,
      "▁bandaid": 5607,
      "▁“": 5608,
      "▁programme": 5609,
      "▁languages": 5610,
      "▁instance": 5611,
      "▁rece": 5612,
      "▁sched": 5613,
      "##mans": 5614,
      "##icular": 5615,
      "▁econom": 5616,
      "▁hiking": 5617,
      "##ably": 5618,
      "▁traff": 5619,
      "▁colon": 5620,
      "##-1.doc": 5621,
      "##iency": 5622,
      "▁sake": 5623,
      "##akers": 5624,
      "▁institutions": 5625,
      "▁requested": 5626,
      "▁both": 5627,
      "▁hyp": 5628,
      "##utes": 5629,
      "##hold": 5630,
      "▁pupp": 5631,
      "▁pilot": 5632,
      "##wor": 5633,
      "▁fate": 5634,
      "##iron": 5635,
      "▁looked": 5636,
      "▁range": 5637,
      "##air": 5638,
      "▁contro": 5639,
      "##pond": 5640,
      "##iced": 5641,
      "▁intervention": 5642,
      "▁popularity": 5643,
      "▁regar": 5644,
      "▁iodised": 5645,
      "▁open": 5646,
      "##ainly": 5647,
      "▁orange": 5648,
      "▁justice": 5649,
      "▁document": 5650,
      "▁writes": 5651,
      "▁exhib": 5652,
      "##oms": 5653,
      "^": 5654,
      "▁beer": 5655,
      "▁remembered": 5656,
      "▁club": 5657,
      "##asion": 5658,
      "▁gel": 5659,
      "▁every": 5660,
      "##'t": 5661,
      "▁bringing": 5662,
      "##wn": 5663,
      "▁always": 5664,
      "▁drug": 5665,
      "▁flo": 5666,
      "##ac": 5667,
      "##attered": 5668,
      "▁photos": 5669,
      "▁material": 5670,
      "▁turkey": 5671,
      "##2": 5672,
      "▁mirror": 5673,
      "##alty": 5674,
      "▁apol": 5675,
      "▁tap": 5676,
      "##ecks": 5677,
      "##ergy": 5678,
      "▁micro": 5679,
      "▁sug": 5680,
      "##iry": 5681,
      "▁cards": 5682,
      "▁break": 5683,
      "▁christ": 5684,
      "▁agency": 5685,
      "##store": 5686,
      "▁fli": 5687,
      "▁eas": 5688,
      "##ker": 5689,
      "##aster": 5690,
      "##either": 5691,
      "▁fare": 5692,
      "▁confid": 5693,
      "▁percenti": 5694,
      "##oe": 5695,
      "##ental": 5696,
      "▁marsh": 5697,
      "##els": 5698,
      "▁pol": 5699,
      "▁objectives": 5700,
      "##qu": 5701,
      "##³": 5702,
      "▁thou": 5703,
      "##ague": 5704,
      "▁gen": 5705,
      "*": 5706,
      "▁ability": 5707,
      "▁shuttle": 5708,
      "▁cars": 5709,
      "##isting": 5710,
      "▁judgments": 5711,
      "▁partic": 5712,
      "▁real": 5713,
      "▁interview": 5714,
      "▁mayonna": 5715,
      "##olis": 5716,
      "▁guide": 5717,
      "▁organized": 5718,
      "▁viewed": 5719,
      "##bit": 5720,
      "▁commissioner": 5721,
      "▁thursday": 5722,
      "▁review": 5723,
      "▁flower": 5724,
      "▁stuff": 5725,
      "▁consequ": 5726,
      "▁monster": 5727,
      "▁israel": 5728,
      "▁innovations": 5729,
      "##.s": 5730,
      "▁stone": 5731,
      "▁ring": 5732,
      "##ed": 5733,
      "▁passengers": 5734,
      "▁heels": 5735,
      "##eg": 5736,
      "▁continu": 5737,
      "▁separ": 5738,
      "▁extended": 5739,
      "▁flew": 5740,
      "##abit": 5741,
      "##timate": 5742,
      "##ined": 5743,
      "▁areas": 5744,
      "##leg": 5745,
      "▁item": 5746,
      "▁sleeping": 5747,
      "▁translation": 5748,
      "▁wa": 5749,
      "▁ways": 5750,
      "▁people": 5751,
      "▁allows": 5752,
      "▁hopes": 5753,
      "▁writers": 5754,
      "##orded": 5755,
      "▁resp": 5756,
      "▁maybe": 5757,
      "▁search": 5758,
      "▁elev": 5759,
      "▁theory": 5760,
      "##ocado": 5761,
      "▁repair": 5762,
      "▁str": 5763,
      "▁agencies": 5764,
      "##cles": 5765,
      "▁following": 5766,
      "▁bother": 5767,
      "▁heart": 5768,
      "▁sunsh": 5769,
      "▁charm": 5770,
      "▁abe": 5771,
      "▁reported": 5772,
      "##ree": 5773,
      "▁pipe": 5774,
      "▁unf": 5775,
      "##j": 5776,
      "▁banj": 5777,
      "##ient": 5778,
      "##stit": 5779,
      "▁was": 5780,
      "##ula": 5781,
      "▁captured": 5782,
      "##att": 5783,
      "##sh": 5784,
      "##adas": 5785,
      "##up": 5786,
      "▁laund": 5787,
      "▁series": 5788,
      "##orting": 5789,
      "▁inspection": 5790,
      "▁alco": 5791,
      "▁butter": 5792,
      "▁gain": 5793,
      "▁assured": 5794,
      "▁opportun": 5795,
      "▁econ": 5796,
      "▁wiz": 5797,
      "##alls": 5798,
      "▁attorn": 5799,
      "▁yoy": 5800,
      "▁happening": 5801,
      "▁sen": 5802,
      "▁!!!!!": 5803,
      "##ity": 5804,
      "▁hos": 5805,
      "##ves": 5806,
      "▁thread": 5807,
      "▁aspect": 5808,
      "▁alle": 5809,
      "▁consider": 5810,
      "▁sold": 5811,
      "##dy": 5812,
      "m": 5813,
      "▁telling": 5814,
      "▁mention": 5815,
      "▁anal": 5816,
      "##ia": 5817,
      "▁tic": 5818,
      "▁sur": 5819,
      "##ion": 5820,
      "▁example": 5821,
      "▁merc": 5822,
      "##jected": 5823,
      "▁wiggle": 5824,
      "##-c": 5825,
      "▁try": 5826,
      "▁fallen": 5827,
      "▁parad": 5828,
      "##velop": 5829,
      "▁opportunity": 5830,
      "▁passed": 5831,
      "▁amid": 5832,
      "▁recr": 5833,
      "▁reb": 5834,
      "▁dolphins": 5835,
      "▁ple": 5836,
      "##ld": 5837,
      "##asy": 5838,
      "▁weekday": 5839,
      "##aph": 5840,
      "▁mr.": 5841,
      "▁minister": 5842,
      "▁sarah": 5843,
      "##struc": 5844,
      "▁seemed": 5845,
      "▁highligh": 5846,
      "ο": 5847,
      "▁b": 5848,
      "▁]": 5849,
      "▁!!!!!!!!!!!!!": 5850,
      "▁tradition": 5851,
      "▁frequ": 5852,
      "▁impact": 5853,
      "▁locked": 5854,
      "▁relation": 5855,
      "▁space": 5856,
      "▁whic": 5857,
      "▁manufactur": 5858,
      "▁anyone": 5859,
      "▁math": 5860,
      "▁adjust": 5861,
      "▁5": 5862,
      "▁mili": 5863,
      "▁requ": 5864,
      "▁reduce": 5865,
      "▁kissed": 5866,
      "##oted": 5867,
      "##here": 5868,
      "▁sym": 5869,
      "▁sure": 5870,
      "##lor": 5871,
      "##rel": 5872,
      "▁addressing": 5873,
      "▁developing": 5874,
      "▁audi": 5875,
      "▁presented": 5876,
      "▁speaker": 5877,
      "▁everything": 5878,
      "▁treatments": 5879,
      "▁resul": 5880,
      "▁females": 5881,
      "▁stands": 5882,
      "##top": 5883,
      "▁looking": 5884,
      "▁mail": 5885,
      "▁singing": 5886,
      "▁dated": 5887,
      "▁zero": 5888,
      "##uge": 5889,
      "▁council": 5890,
      "##tered": 5891,
      "##men": 5892,
      "##tr": 5893,
      "▁cook": 5894,
      "▁degrees": 5895,
      "##inally": 5896,
      "##ison": 5897,
      "##ness": 5898,
      "▁cooperation": 5899,
      "▁americans": 5900,
      "▁foreigners": 5901,
      "##rate": 5902,
      "▁rags": 5903,
      "##nt": 5904,
      "##uis": 5905,
      "##otch": 5906,
      "##ended": 5907,
      "▁classes": 5908,
      "▁gap": 5909,
      "##nect": 5910,
      "##ident": 5911,
      "▁incre": 5912,
      "▁metal": 5913,
      "##unt": 5914,
      "##oder": 5915,
      "▁dee": 5916,
      "▁e-m": 5917,
      "▁issue": 5918,
      "▁walks": 5919,
      "▁honey": 5920,
      "▁ought": 5921,
      "##idd": 5922,
      "##ounds": 5923,
      "##.xls": 5924,
      "▁cage": 5925,
      "▁laur": 5926,
      "##ros": 5927,
      "▁gre": 5928,
      "▁sus": 5929,
      "▁couch": 5930,
      "▁challenge": 5931,
      "▁peters": 5932,
      "▁suffering": 5933,
      "▁enthusi": 5934,
      "▁newsp": 5935,
      "▁become": 5936,
      "##\"": 5937,
      "▁ag": 5938,
      "##ately": 5939,
      "▁award": 5940,
      "▁betw": 5941,
      "##house": 5942,
      "▁projected": 5943,
      "▁corner": 5944,
      "▁making": 5945,
      "▁happen": 5946,
      "##azed": 5947,
      "##kin": 5948,
      "▁june": 5949,
      "##fter": 5950,
      "##inu": 5951,
      "##agraph": 5952,
      "▁replaced": 5953,
      "▁pledged": 5954,
      "▁climbed": 5955,
      "▁york": 5956,
      "▁toys": 5957,
      "##tick": 5958,
      "▁businesses": 5959,
      "▁stopover": 5960,
      "##tim": 5961,
      "▁_": 5962,
      "▁drawing": 5963,
      "##fl": 5964,
      "▁party": 5965,
      "##age": 5966,
      "▁st.": 5967,
      "▁cross": 5968,
      "▁expression": 5969,
      "▁bal": 5970,
      "▁seal": 5971,
      "▁allies": 5972,
      "▁chicago": 5973,
      "##aq": 5974,
      "æ": 5975,
      "##oves": 5976,
      "▁minutes": 5977,
      "▁n": 5978,
      "▁fiel": 5979,
      "▁declaration": 5980,
      "▁none": 5981,
      "##ous": 5982,
      "▁cam": 5983,
      "-": 5984,
      "##otes": 5985,
      "##oh": 5986,
      "▁basketball": 5987,
      "▁”": 5988,
      "▁boots": 5989,
      "▁night": 5990,
      "▁vote": 5991,
      "▁payments": 5992,
      "▁qu": 5993,
      "▁import": 5994,
      "▁specific": 5995,
      "▁feel": 5996,
      "▁gard": 5997,
      "##ea": 5998,
      "▁playing": 5999,
      "##ences": 6000,
      "▁distribute": 6001,
      "▁california": 6002,
      "▁attributed": 6003,
      "##umin": 6004,
      "▁storm": 6005,
      "▁hidden": 6006,
      "▁prev": 6007,
      "##asses": 6008,
      "▁trees": 6009,
      "▁recipient": 6010,
      "▁pulled": 6011,
      "##vailable": 6012,
      "##jo": 6013,
      "▁attend": 6014,
      "▁glove": 6015,
      "▁min": 6016,
      "▁describes": 6017,
      "▁cur": 6018,
      "▁bac": 6019,
      "▁faced": 6020,
      "##enom": 6021,
      "▁married": 6022,
      "▁bunny": 6023,
      "▁leaders": 6024,
      "▁points": 6025,
      "▁roar": 6026,
      "▁financ": 6027,
      "▁forb": 6028,
      "▁sev": 6029,
      "}": 6030,
      "▁increased": 6031,
      "▁licen": 6032,
      "##φ": 6033,
      "##apped": 6034,
      "▁beautiful": 6035,
      "▁def": 6036,
      "▁adm": 6037,
      "▁sea": 6038,
      "▁acqui": 6039,
      "▁taxes": 6040,
      "▁ca": 6041,
      "▁insight": 6042,
      "▁archit": 6043,
      "##tic": 6044,
      "▁eye": 6045,
      "##ott": 6046,
      "▁two": 6047,
      "▁eaten": 6048,
      "▁adver": 6049,
      "▁contracts": 6050,
      "▁exhibit": 6051,
      "▁disaster": 6052,
      "▁flight": 6053,
      "▁serv": 6054,
      "▁desk": 6055,
      "▁solve": 6056,
      "▁???": 6057,
      "▁assessing": 6058,
      "##am": 6059,
      "▁frid": 6060,
      "▁mult": 6061,
      "##ɛ": 6062,
      "▁benefits": 6063,
      "▁airfare": 6064,
      "▁george": 6065,
      "▁amer": 6066,
      "▁posted": 6067,
      "▁hair": 6068,
      "▁sights": 6069,
      "▁lover": 6070,
      "▁gr": 6071,
      "▁moun": 6072,
      "##cle": 6073,
      "▁dism": 6074,
      "##face": 6075,
      "▁were": 6076,
      "▁carrying": 6077,
      "▁depos": 6078,
      "##@": 6079,
      "▁hist": 6080,
      "▁ve": 6081,
      "##igrants": 6082,
      "▁invite": 6083,
      "▁rin": 6084,
      "▁wee": 6085,
      "▁vs": 6086,
      "##eli": 6087,
      "▁imprisoned": 6088,
      "▁connections": 6089,
      "▁conce": 6090,
      "▁traveler": 6091,
      "▁again": 6092,
      "▁arranged": 6093,
      "▁arrive": 6094,
      "▁terrorists": 6095,
      "▁terrorism": 6096,
      "▁boo": 6097,
      "##0th": 6098,
      "▁novelist": 6099,
      "##abb": 6100,
      "▁boyfriend": 6101,
      "▁u": 6102,
      "▁today": 6103,
      "▁drinking": 6104,
      "▁chick": 6105,
      "▁travelling": 6106,
      "##ght": 6107,
      "##placement": 6108,
      "##eth": 6109,
      "▁limit": 6110,
      "##ules": 6111,
      "▁che": 6112,
      "▁card": 6113,
      "▁excuse": 6114,
      "▁atmos": 6115,
      "▁visiting": 6116,
      "▁control": 6117,
      "▁anoder": 6118,
      "##tors": 6119,
      "▁though": 6120,
      "▁regions": 6121,
      "▁rain": 6122,
      "▁brass": 6123,
      "▁grandmother": 6124,
      "##oul": 6125,
      "▁femur": 6126,
      "▁instr": 6127,
      "[UNK]": 6128,
      "▁guard": 6129,
      "▁uhhuh": 6130,
      "##isms": 6131,
      "##ester": 6132,
      "▁ears": 6133,
      "▁felt": 6134,
      "▁source": 6135,
      "▁growth": 6136,
      "▁pill": 6137,
      "##ign": 6138,
      "▁wo": 6139,
      "##inating": 6140,
      "▁infrastruc": 6141,
      "▁centuries": 6142,
      "▁expanded": 6143,
      "▁opportunities": 6144,
      "##sets": 6145,
      "▁participation": 6146,
      "▁pra": 6147,
      "▁descri": 6148,
      "▁apples": 6149,
      "##tity": 6150,
      "▁signing": 6151,
      "▁nurs": 6152,
      "▁banks": 6153,
      "▁column": 6154,
      "▁rope": 6155,
      "▁information": 6156,
      "▁can": 6157,
      "▁adv": 6158,
      "▁individuals": 6159,
      "▁funny": 6160,
      "##`": 6161,
      "▁grapes": 6162,
      "▁hoof": 6163,
      "▁ident": 6164,
      "##·": 6165,
      "▁suitcase": 6166,
      "▁stream": 6167,
      "▁quote": 6168,
      "▁experience": 6169,
      "▁models": 6170,
      "▁defic": 6171,
      "##cr": 6172,
      "▁exper": 6173,
      "▁non": 6174,
      "▁pumpkin": 6175,
      "▁displ": 6176,
      "##isf": 6177,
      "▁sometime": 6178,
      "▁step": 6179,
      "▁outside": 6180,
      "▁bucket": 6181,
      "▁lake": 6182,
      "▁injury": 6183,
      "▁trib": 6184,
      "▁show": 6185,
      "##antly": 6186,
      "▁spray": 6187,
      "##tiv": 6188,
      "▁instructions": 6189,
      "▁magn": 6190,
      "##antee": 6191,
      "##arm": 6192,
      "▁point": 6193,
      "▁interesting": 6194,
      "▁quar": 6195,
      "##atis": 6196,
      "▁hip": 6197,
      "▁hold": 6198,
      "▁expensive": 6199,
      "▁selected": 6200,
      "##acted": 6201,
      "▁concept": 6202,
      "▁personality": 6203,
      "##cept": 6204,
      "▁crimin": 6205,
      "▁beef": 6206,
      "##mitted": 6207,
      "##inning": 6208,
      "▁circ": 6209,
      "▁many": 6210,
      "##otted": 6211,
      "▁innovation": 6212,
      "##uscri": 6213,
      "▁lo": 6214,
      "▁members": 6215,
      "##ν": 6216,
      "##ote": 6217,
      "▁avoid": 6218,
      "▁meetings": 6219,
      "▁cfl": 6220,
      "▁construction": 6221,
      "▁bed": 6222,
      "▁bon": 6223,
      "▁something": 6224,
      "▁myself": 6225,
      "▁onto": 6226,
      "##akes": 6227,
      "▁workers": 6228,
      "▁effort": 6229,
      "▁our": 6230,
      "##vements": 6231,
      "▁volley": 6232,
      "▁attemp": 6233,
      "▁sli": 6234,
      "▁persp": 6235,
      "▁practicing": 6236,
      "▁fail": 6237,
      "▁mechan": 6238,
      "▁write": 6239,
      "▁filtered": 6240,
      "▁ext": 6241,
      "▁bod": 6242,
      "##ops": 6243,
      "##urity": 6244,
      "▁sod": 6245,
      "²": 6246,
      "▁puts": 6247,
      "▁vacation": 6248,
      "▁crew": 6249,
      "##iture": 6250,
      "▁affects": 6251,
      "▁statue": 6252,
      "▁account": 6253,
      "▁tick": 6254,
      "##-": 6255,
      "▁tube": 6256,
      "▁adj": 6257,
      "▁architecture": 6258,
      "▁sandwiches": 6259,
      "▁wom": 6260,
      "▁copyright": 6261,
      "▁prep": 6262,
      "▁stones": 6263,
      "▁yester": 6264,
      "▁conduc": 6265,
      "▁'s": 6266,
      "▁tem": 6267,
      "▁gi": 6268,
      "##ets": 6269,
      "▁teams": 6270,
      "##'clock": 6271,
      "▁attention": 6272,
      "▁repres": 6273,
      "▁easy": 6274,
      "▁kitten": 6275,
      "▁nobody": 6276,
      "▁n't": 6277,
      "##apers": 6278,
      "▁tourist": 6279,
      "▁compared": 6280,
      "▁sing": 6281,
      "▁uvb": 6282,
      "##cent": 6283,
      "##gency": 6284,
      "▁decline": 6285,
      "▁arrest": 6286,
      "##eding": 6287,
      "▁stretched": 6288,
      "▁disability": 6289,
      "##stem": 6290,
      "▁lobby": 6291,
      "▁under": 6292,
      "▁licensor": 6293,
      "▁wrote": 6294,
      "##tuce": 6295,
      "▁brooms": 6296,
      "▁glass": 6297,
      "▁examples": 6298,
      "##cience": 6299,
      "▁muse": 6300,
      "##ification": 6301,
      "▁mop": 6302,
      "▁dishes": 6303,
      "▁savings": 6304,
      "##yl": 6305,
      "▁restrictions": 6306,
      "▁director": 6307,
      "▁diss": 6308,
      "▁inequ": 6309,
      "##ked": 6310,
      "▁manip": 6311,
      "▁ens": 6312,
      "▁ju": 6313,
      "▁violence": 6314,
      "##acked": 6315,
      "▁commission": 6316,
      "▁layout": 6317,
      "▁friendly": 6318,
      "▁aside": 6319,
      "▁career": 6320,
      "▁deck": 6321,
      "▁proposals": 6322,
      "##****": 6323,
      "##…": 6324,
      "▁angel": 6325,
      "##iveness": 6326,
      "##pd": 6327,
      "▁ignore": 6328,
      "▁<<": 6329,
      "##bo": 6330,
      "##iny": 6331,
      "##entiality": 6332,
      "##ve": 6333,
      "▁letting": 6334,
      "▁local": 6335,
      "▁breathe": 6336,
      "▁spear": 6337,
      "▁tons": 6338,
      "▁wel": 6339,
      "##apolis": 6340,
      "▁described": 6341,
      "##gging": 6342,
      "▁measure": 6343,
      "▁ver": 6344,
      "▁extend": 6345,
      "▁prot": 6346,
      "▁growing": 6347,
      "▁gall": 6348,
      "▁pic": 6349,
      "##400": 6350,
      "▁profile": 6351,
      "##aced": 6352,
      "##acking": 6353,
      "▁property": 6354,
      "▁exh": 6355,
      "▁accep": 6356,
      "▁cigarette": 6357,
      "##ede": 6358,
      "▁adult": 6359,
      "▁supports": 6360,
      "▁robo": 6361,
      "##be": 6362,
      "##ple": 6363,
      "▁counterfeit": 6364,
      "▁ped": 6365,
      "▁welcome": 6366,
      "##e": 6367,
      "##uses": 6368,
      "▁programs": 6369,
      "##/he": 6370,
      "▁consum": 6371,
      "▁wh": 6372,
      "▁lin": 6373,
      "▁survival": 6374,
      "▁beds": 6375,
      "##?!": 6376,
      "▁paying": 6377,
      "▁chocolate": 6378,
      "▁initiative": 6379,
      "##plan": 6380,
      "▁accord": 6381,
      "▁bow": 6382,
      "▁collap": 6383,
      "▁wait": 6384,
      "▁television": 6385,
      "▁countries": 6386,
      "▁fields": 6387,
      "▁weake": 6388,
      "▁letter": 6389,
      "▁kittens": 6390,
      "▁bands": 6391,
      "▁lock": 6392,
      "##eries": 6393,
      "▁insects": 6394,
      "▁bun": 6395,
      "▁sugar": 6396,
      "▁banjo": 6397,
      "##lities": 6398,
      "▁lip": 6399,
      "▁plays": 6400,
      "▁spons": 6401,
      "▁laura": 6402,
      "▁worship": 6403,
      "▁am": 6404,
      "▁pa": 6405,
      "▁welc": 6406,
      "▁reflected": 6407,
      "▁says": 6408,
      "▁conv": 6409,
      "▁residents": 6410,
      "##ʃ": 6411,
      "##ording": 6412,
      "▁direction": 6413,
      "▁value": 6414,
      "▁jury": 6415,
      "▁continues": 6416,
      "▁tables": 6417,
      "▁e": 6418,
      "##works": 6419,
      "▁based": 6420,
      "▁dar": 6421,
      "##my": 6422,
      "##riendly": 6423,
      "▁flavor": 6424,
      "▁have": 6425,
      "▁pride": 6426,
      "##river": 6427,
      "▁letters": 6428,
      "▁spir": 6429,
      "▁proced": 6430,
      "▁giving": 6431,
      "▁windows": 6432,
      "▁really": 6433,
      "##σ": 6434,
      "▁produc": 6435,
      "##aganda": 6436,
      "▁zone": 6437,
      "##ybody": 6438,
      "##hood": 6439,
      "▁reviewing": 6440,
      "▁nove": 6441,
      "▁pancakes": 6442,
      "▁mechanics": 6443,
      "▁mrs": 6444,
      "▁chemicals": 6445,
      "##earance": 6446,
      "▁mosques": 6447,
      "##roph": 6448,
      "##ge": 6449,
      "##ete": 6450,
      "▁enjoy": 6451,
      "▁wing": 6452,
      "▁noon": 6453,
      "▁movements": 6454,
      "##ached": 6455,
      "▁offici": 6456,
      "▁balls": 6457,
      "▁film": 6458,
      "##ael": 6459,
      "▁goat": 6460,
      "▁bean": 6461,
      "▁board": 6462,
      "▁whale": 6463,
      "▁identifies": 6464,
      "▁snack": 6465,
      "▁neck": 6466,
      "▁grass": 6467,
      "▁acknowled": 6468,
      "##ww": 6469,
      "▁epis": 6470,
      "▁hearing": 6471,
      "##ams": 6472,
      "##forming": 6473,
      "▁launch": 6474,
      "##ony": 6475,
      "▁carro": 6476,
      "##ml": 6477,
      "▁articles": 6478,
      "▁ruin": 6479,
      "▁improved": 6480,
      "▁studies": 6481,
      "▁verif": 6482,
      "▁split": 6483,
      "▁implement": 6484,
      "▁th": 6485,
      "▁shoot": 6486,
      "▁mont": 6487,
      "##olved": 6488,
      "▁written": 6489,
      "##ien": 6490,
      "▁at": 6491,
      "##odes": 6492,
      "##rated": 6493,
      "##down": 6494,
      "##word": 6495,
      "▁shot": 6496,
      "▁cris": 6497,
      "##oked": 6498,
      "##ularity": 6499,
      "▁mu": 6500,
      "▁puzz": 6501,
      "▁mosqu": 6502,
      "▁oil": 6503,
      "##umble": 6504,
      "##elling": 6505,
      "▁morn": 6506,
      "▁number": 6507,
      "##ategy": 6508,
      "##itive": 6509,
      "▁cler": 6510,
      "▁shr": 6511,
      "▁ordered": 6512,
      "▁stir": 6513,
      "▁collection": 6514,
      "##gu": 6515,
      "▁done": 6516,
      "▁phr": 6517,
      "▁ind": 6518,
      "▁balzac": 6519,
      "▁sussex": 6520,
      "▁conclude": 6521,
      "▁influ": 6522,
      "▁declare": 6523,
      "##etter": 6524,
      "##enced": 6525,
      "▁dre": 6526,
      "▁memory": 6527,
      "##inction": 6528,
      "▁mer": 6529,
      "▁gram": 6530,
      "##aked": 6531,
      "1": 6532,
      "▁grain": 6533,
      "▁serve": 6534,
      "▁___________": 6535,
      "##iti": 6536,
      "▁behavi": 6537,
      "##atory": 6538,
      "##ularly": 6539,
      "##line": 6540,
      "▁phenom": 6541,
      "▁accomm": 6542,
      "▁option": 6543,
      "▁cooking": 6544,
      "▁paper": 6545,
      "▁kept": 6546,
      "`": 6547,
      "▁kitt": 6548,
      "▁reading": 6549,
      "▁spa": 6550,
      "▁amb": 6551,
      "▁jews": 6552,
      "▁short": 6553,
      "▁translated": 6554,
      "##orate": 6555,
      "##az": 6556,
      "▁arrangements": 6557,
      "▁prin": 6558,
      "▁documents": 6559,
      "▁leaving": 6560,
      "##uma": 6561,
      "▁examining": 6562,
      "▁colleag": 6563,
      "▁surf": 6564,
      "▁discover": 6565,
      "▁president": 6566,
      "▁country": 6567,
      "▁sent": 6568,
      "▁department": 6569,
      "▁gather": 6570,
      "##tives": 6571,
      "▁raise": 6572,
      "▁cele": 6573,
      "▁noone": 6574,
      "▁chances": 6575,
      "##ios": 6576,
      "▁quite": 6577,
      "▁innov": 6578,
      "##ilize": 6579,
      "▁see": 6580,
      "▁bric": 6581,
      "▁whil": 6582,
      "##ock": 6583,
      "▁qui": 6584,
      "▁bea": 6585,
      "▁attitude": 6586,
      "▁scar": 6587,
      "▁eth": 6588,
      "▁ach": 6589,
      "▁fer": 6590,
      "▁col": 6591,
      "▁treat": 6592,
      "▁dogs": 6593,
      "▁talking": 6594,
      "##ides": 6595,
      "##.doc": 6596,
      "▁performing": 6597,
      "##ward": 6598,
      "▁bet": 6599,
      "▁assuming": 6600,
      "▁refl": 6601,
      "▁pockets": 6602,
      "##acle": 6603,
      "▁cutting": 6604,
      "▁lights": 6605,
      "▁inj": 6606,
      "##old": 6607,
      "▁gcp": 6608,
      "▁bench": 6609,
      "▁philadel": 6610,
      "▁watching": 6611,
      "##lication": 6612,
      "▁chest": 6613,
      "▁went": 6614,
      "▁ending": 6615,
      "##gue": 6616,
      "▁tests": 6617,
      "▁are": 6618,
      "▁eliminate": 6619,
      "▁recall": 6620,
      "▁wr": 6621,
      "▁box": 6622,
      "▁argue": 6623,
      "▁india": 6624,
      "##ng": 6625,
      "▁e-mail": 6626,
      "▁deb": 6627,
      "▁pref": 6628,
      "##gy": 6629,
      "##amus": 6630,
      "##atisfaction": 6631,
      "##min": 6632,
      "##day": 6633,
      "▁slope": 6634,
      "▁chim": 6635,
      "▁'m": 6636,
      "▁wealth": 6637,
      "▁exchang": 6638,
      "##ances": 6639,
      "▁taught": 6640,
      "▁consu": 6641,
      "▁global": 6642,
      "▁project": 6643,
      "▁out": 6644,
      "##ivid": 6645,
      "▁currency": 6646,
      "##veral": 6647,
      "▁approval": 6648,
      "▁inqu": 6649,
      "▁vint": 6650,
      "▁right": 6651,
      "##ield": 6652,
      "##cc": 6653,
      "▁approve": 6654,
      "▁herself": 6655,
      "##ements": 6656,
      "▁declared": 6657,
      "##derst": 6658,
      "##us": 6659,
      "▁quit": 6660,
      "▁sleep": 6661,
      "▁adop": 6662,
      "▁groups": 6663,
      "##ored": 6664,
      "▁yog": 6665,
      "▁'ll": 6666,
      "▁*****": 6667,
      "▁fortune": 6668,
      "▁recognize": 6669,
      "▁ben": 6670,
      "▁press": 6671,
      "▁earth": 6672,
      "##ack": 6673,
      "▁hiding": 6674,
      "ε": 6675,
      "▁quack": 6676,
      "▁hat": 6677,
      "▁abilities": 6678,
      "▁aspects": 6679,
      "##mpl": 6680,
      "##itional": 6681,
      "▁dealing": 6682,
      "▁benef": 6683,
      "▁rememb": 6684,
      "▁wrap": 6685,
      "▁toward": 6686,
      "##os": 6687,
      "##tled": 6688,
      "▁agreed": 6689,
      "▁destroyed": 6690,
      "▁more": 6691,
      "##si": 6692,
      "##play": 6693,
      "▁recorder": 6694,
      "▁recomm": 6695,
      "▁rail": 6696,
      "##nuts": 6697,
      "▁functions": 6698,
      "##ane": 6699,
      "▁quantity": 6700,
      "##ded": 6701,
      "##tor": 6702,
      "▁cor": 6703,
      "▁surge": 6704,
      "▁dep": 6705,
      "##lin": 6706,
      "##fish": 6707,
      "##riend": 6708,
      "##nic": 6709,
      "▁player": 6710,
      "##eric": 6711,
      "▁videos": 6712,
      "▁linked": 6713,
      "▁temperature": 6714,
      "▁boss": 6715,
      "##esh": 6716,
      "##lan": 6717,
      "##ying": 6718,
      "##{": 6719,
      "##eas": 6720,
      "▁follows": 6721,
      "▁percentage": 6722,
      "▁drag": 6723,
      "▁forward": 6724,
      "▁jwww": 6725,
      "▁tos": 6726,
      "▁center": 6727,
      "▁talks": 6728,
      "##oup": 6729,
      "[MASK]": 6730,
      "▁[": 6731,
      "▁lil": 6732,
      "##aughters": 6733,
      "▁avail": 6734,
      "▁differences": 6735,
      "##iliation": 6736,
      "▁fil": 6737,
      "##-------": 6738,
      "##ished": 6739,
      "##orage": 6740,
      "▁including": 6741,
      "▁flooding": 6742,
      "▁gar": 6743,
      "▁straw": 6744,
      "▁objects": 6745,
      "##encies": 6746,
      "##erest": 6747,
      "▁sort": 6748,
      "▁serving": 6749,
      "▁occ": 6750,
      "▁diseases": 6751,
      "▁prices": 6752,
      "▁hun": 6753,
      "▁select": 6754,
      "▁tre": 6755,
      "▁examine": 6756,
      "##ments": 6757,
      "##ican": 6758,
      "▁sa": 6759,
      "▁extremely": 6760,
      "▁password": 6761,
      "##enc": 6762,
      "▁rac": 6763,
      "▁techniqu": 6764,
      "##lit": 6765,
      "▁pass": 6766,
      "##gest": 6767,
      "▁int": 6768,
      "▁boston": 6769,
      "▁little": 6770,
      "▁scientist": 6771,
      "▁divided": 6772,
      "▁societies": 6773,
      "▁means": 6774,
      "##oke": 6775,
      "▁note": 6776,
      "▁cinnamon": 6777,
      "▁fligh": 6778,
      "##most": 6779,
      "▁distur": 6780,
      "▁crimes": 6781,
      "▁modify": 6782,
      "▁distinguish": 6783,
      "▁youn": 6784,
      "▁hell": 6785,
      "▁ph": 6786,
      "▁commit": 6787,
      "▁implem": 6788,
      "##ic": 6789,
      "▁uv": 6790,
      "▁pun": 6791,
      "▁falls": 6792,
      "▁editors": 6793,
      "▁brows": 6794,
      "▁frag": 6795,
      "##ral": 6796,
      "▁veget": 6797,
      "▁screw": 6798,
      "##ship": 6799,
      "##iece": 6800,
      "▁follow": 6801,
      "##life": 6802,
      "▁height": 6803,
      "▁slide": 6804,
      "##yth": 6805,
      "▁associ": 6806,
      "▁learn": 6807,
      "▁ago": 6808,
      "▁boxes": 6809,
      "▁rug": 6810,
      "▁dolph": 6811,
      "##ference": 6812,
      "##x": 6813,
      "##erences": 6814,
      "##ung": 6815,
      "▁available": 6816,
      "▁incorporated": 6817,
      "▁guns": 6818,
      "▁infrastructure": 6819,
      "##ws": 6820,
      "▁restaurants": 6821,
      "▁ended": 6822,
      "▁plot": 6823,
      "##icate": 6824,
      "▁never": 6825,
      "▁tie": 6826,
      "##ible": 6827,
      "▁iss": 6828,
      "▁cultures": 6829,
      "##ums": 6830,
      "▁inf": 6831,
      "▁payment": 6832,
      "▁surv": 6833,
      "▁ins": 6834,
      "▁jungle": 6835,
      "##erving": 6836,
      "##orated": 6837,
      "▁cheapest": 6838,
      "▁picking": 6839,
      "▁cups": 6840,
      "▁meter": 6841,
      "▁cab": 6842,
      "▁surface": 6843,
      "e": 6844,
      "▁capital": 6845,
      "##ches": 6846,
      "##ə": 6847,
      "▁green": 6848,
      "▁‘": 6849,
      "▁designed": 6850,
      "▁causing": 6851,
      "▁avoiding": 6852,
      "▁reached": 6853,
      "##ong": 6854,
      "##cularly": 6855,
      "##ider": 6856,
      "##ike": 6857,
      "▁brings": 6858,
      "▁dark": 6859,
      "▁color": 6860,
      "▁transaction": 6861,
      "▁still": 6862,
      "▁jeep": 6863,
      "##egr": 6864,
      "ə": 6865,
      "▁wiki": 6866,
      "##ici": 6867,
      "##aged": 6868,
      "##aid": 6869,
      "##case": 6870,
      "##astic": 6871,
      "▁:": 6872,
      "##uate": 6873,
      "▁r": 6874,
      "▁trav": 6875,
      "##ens": 6876,
      "▁magaz": 6877,
      "▁owner": 6878,
      "##pts": 6879,
      "▁smo": 6880,
      "▁tell": 6881,
      "▁rever": 6882,
      "▁conflict": 6883,
      "▁inte": 6884,
      "▁rates": 6885,
      "▁repa": 6886,
      "##it": 6887,
      "##igg": 6888,
      "▁clothes": 6889,
      "▁asyl": 6890,
      "▁ban": 6891,
      "##)": 6892,
      "▁gas": 6893,
      "##ency": 6894,
      "▁experienced": 6895,
      "▁returned": 6896,
      "▁leaf": 6897,
      "▁apar": 6898,
      "▁economic": 6899,
      "##ports": 6900,
      "▁thre": 6901,
      "▁reas": 6902,
      "▁bro": 6903,
      "##nel": 6904,
      "▁waste": 6905,
      "▁tra": 6906,
      "▁division": 6907,
      "▁activ": 6908,
      "▁figure": 6909,
      "▁would": 6910,
      "##uggle": 6911,
      "▁biting": 6912,
      "##vel": 6913,
      "▁dece": 6914,
      "–": 6915,
      "▁positions": 6916,
      "▁sting": 6917,
      "▁blocks": 6918,
      "##hap": 6919,
      "##lium": 6920,
      "##ears": 6921,
      "▁purchased": 6922,
      "##ared": 6923,
      "▁standard": 6924,
      "##sually": 6925,
      "▁social": 6926,
      "##fe": 6927,
      "▁leave": 6928,
      "▁continue": 6929,
      "##overn": 6930,
      "▁cult": 6931,
      "▁terror": 6932,
      "▁trip": 6933,
      "▁invest": 6934,
      "##idents": 6935,
      "##ipl": 6936,
      "▁passport": 6937,
      "▁located": 6938,
      "▁proof": 6939,
      "▁expectations": 6940,
      "▁tied": 6941,
      "▁marry": 6942,
      "▁formed": 6943,
      "▁chec": 6944,
      "##uted": 6945,
      "▁sectors": 6946,
      "▁beginning": 6947,
      "##ok": 6948,
      "▁******************************************************************": 6949,
      "▁is": 6950,
      "##iation": 6951,
      "▁somebody": 6952,
      "▁conc": 6953,
      "▁lim": 6954,
      "▁science": 6955,
      "▁landing": 6956,
      "▁cod": 6957,
      "▁ble": 6958,
      "▁outf": 6959,
      "▁leaned": 6960,
      "▁throwing": 6961,
      "##apping": 6962,
      "▁displayed": 6963,
      "▁requires": 6964,
      "▁f": 6965,
      "##c": 6966,
      "##bow": 6967,
      "▁hers": 6968,
      "▁chocol": 6969,
      "▁battery": 6970,
      "##ries": 6971,
      "##ime": 6972,
      "▁recover": 6973,
      "##ι": 6974,
      "##cope": 6975,
      "▁iran": 6976,
      "▁conclusions": 6977,
      "##izes": 6978,
      "▁served": 6979,
      "##k": 6980,
      "▁ch": 6981,
      "▁divid": 6982,
      "▁sty": 6983,
      "▁dow": 6984,
      "▁export": 6985,
      "▁acting": 6986,
      "▁cup": 6987,
      "##ck": 6988,
      "##istence": 6989,
      "##amole": 6990,
      "##f": 6991,
      "▁oc": 6992,
      "▁life": 6993,
      "▁certain": 6994,
      "▁reproduc": 6995,
      "▁dr": 6996,
      "▁flex": 6997,
      "▁enab": 6998,
      "▁response": 6999,
      "##=----": 7000,
      "##pr": 7001,
      "##ashington": 7002,
      "▁ac": 7003,
      "ω": 7004,
      "▁spaces": 7005,
      "##ow": 7006,
      "▁trunk": 7007,
      "▁behind": 7008,
      "##arch": 7009,
      "▁industries": 7010,
      "▁notwithstanding": 7011,
      "▁lemon": 7012,
      "▁financial": 7013,
      "▁ceiling": 7014,
      "▁ra": 7015,
      "▁peace": 7016,
      "▁entertain": 7017,
      "▁young": 7018,
      "▁soldiers": 7019,
      "▁whatever": 7020,
      "##aft": 7021,
      "##ipped": 7022,
      "▁theatre": 7023,
      "##ving": 7024,
      "▁chips": 7025,
      "▁driven": 7026,
      "##cause": 7027,
      "▁ham": 7028,
      "##esday": 7029,
      "▁remains": 7030,
      "▁sky": 7031,
      "▁prohibited": 7032,
      "##und": 7033,
      "▁appearance": 7034,
      "▁pen": 7035,
      "▁lose": 7036,
      "▁vit": 7037,
      "▁lady": 7038,
      "▁assistance": 7039,
      "▁silence": 7040,
      "▁disc": 7041,
      "##icing": 7042,
      "▁tires": 7043,
      "##ondon": 7044,
      "##acting": 7045,
      "▁cafe": 7046,
      "▁prof": 7047,
      "▁cracker": 7048,
      "▁lear": 7049,
      "##is": 7050,
      "▁deny": 7051,
      "▁acceptance": 7052,
      "▁why": 7053,
      "▁add": 7054,
      "##inn": 7055,
      "▁vess": 7056,
      "▁soil": 7057,
      "▁festiv": 7058,
      "##ologies": 7059,
      "▁emerging": 7060,
      "▁demanding": 7061,
      "▁ticket": 7062,
      "▁appointed": 7063,
      "▁server": 7064,
      "##tc": 7065,
      "▁resulting": 7066,
      "▁wagon": 7067,
      "▁removed": 7068,
      "▁spent": 7069,
      "▁!.": 7070,
      "##ci": 7071,
      "##vation": 7072,
      "▁ce": 7073,
      "▁repl": 7074,
      "▁narr": 7075,
      "▁chose": 7076,
      "##ativity": 7077,
      "##ms": 7078,
      "##uggles": 7079,
      "▁rabb": 7080,
      "##gets": 7081,
      "▁working": 7082,
      "▁cap": 7083,
      "▁chain": 7084,
      "▁taking": 7085,
      "▁outs": 7086,
      "▁investigate": 7087,
      "▁further": 7088,
      "▁hung": 7089,
      "▁polaroids": 7090,
      "▁forgot": 7091,
      "▁museum": 7092,
      "##ork": 7093,
      "##aughter": 7094,
      "▁arri": 7095,
      "[PAD]": 7096,
      "##onto": 7097,
      "▁creating": 7098,
      "##ick": 7099,
      "▁interconnect": 7100,
      "##ated": 7101,
      "▁pe": 7102,
      "##str": 7103,
      "▁goal": 7104,
      "▁correspondence": 7105,
      "▁experiment": 7106,
      "##til": 7107,
      "▁accept": 7108,
      "##erating": 7109,
      "▁demonstrate": 7110,
      "▁throw": 7111,
      "▁iron": 7112,
      "▁lips": 7113,
      "##mission": 7114,
      "▁keys": 7115,
      "▁sentences": 7116,
      "##care": 7117,
      "▁these": 7118,
      "###": 7119,
      "▁counc": 7120,
      "▁colleagues": 7121,
      "▁upd": 7122,
      "##ta": 7123,
      "▁refuge": 7124,
      "##3": 7125,
      "▁child": 7126,
      "▁guests": 7127,
      "▁res": 7128,
      "▁pep": 7129,
      "▁confusion": 7130,
      "▁replacement": 7131,
      "▁holidays": 7132,
      "▁events": 7133,
      "▁commun": 7134,
      "▁=---": 7135,
      "##fare": 7136,
      "▁bills": 7137,
      "##tivity": 7138,
      "▁tampa": 7139,
      "▁settlers": 7140,
      "▁setting": 7141,
      "▁jus": 7142,
      "▁gu": 7143,
      "▁vodka": 7144,
      "▁operations": 7145,
      "▁occasion": 7146,
      "▁less": 7147,
      "▁lead": 7148,
      "▁establishment": 7149,
      "▁scissors": 7150,
      "▁welf": 7151,
      "##ouse": 7152,
      "▁trave": 7153,
      "##oving": 7154,
      "▁piv": 7155,
      "▁quarter": 7156,
      "▁backs": 7157,
      "##oles": 7158,
      "▁coll": 7159,
      "##ributing": 7160,
      "▁foreign": 7161,
      "▁rapporteur": 7162,
      "▁absor": 7163,
      "▁samples": 7164,
      "▁uncle": 7165,
      "▁dust": 7166,
      "▁friend": 7167,
      "▁inviting": 7168,
      "▁grit": 7169,
      "##ound": 7170,
      "##rating": 7171,
      "▁**********": 7172,
      "##onom": 7173,
      "▁shape": 7174,
      "▁population": 7175,
      "▁tennis": 7176,
      "##oking": 7177,
      "▁leg": 7178,
      "▁problems": 7179,
      "▁cli": 7180,
      "▁providing": 7181,
      "##q": 7182,
      "##uits": 7183,
      "##arl": 7184,
      "##ze": 7185,
      "▁phys": 7186,
      "▁cal": 7187,
      "▁preserved": 7188,
      "▁behaviors": 7189,
      "▁priority": 7190,
      "▁potatoes": 7191,
      "##crib": 7192,
      "▁incom": 7193,
      "▁retail": 7194,
      "▁topics": 7195,
      "▁produced": 7196,
      "▁mem": 7197,
      "▁maj": 7198,
      "▁visitors": 7199,
      "▁exp": 7200,
      "##over": 7201,
      "▁threatened": 7202,
      "▁gover": 7203,
      "▁remind": 7204,
      "▁above": 7205,
      "▁sections": 7206,
      "##uropean": 7207,
      "▁dealer": 7208,
      "▁himself": 7209,
      "##ioned": 7210,
      "##earch": 7211,
      "##ation": 7212,
      "▁bear": 7213,
      "##lent": 7214,
      "##ays": 7215,
      "▁ambul": 7216,
      "▁stri": 7217,
      "▁pet": 7218,
      "##erted": 7219,
      "▁acted": 7220,
      "▁underneath": 7221,
      "▁calling": 7222,
      "▁laun": 7223,
      "▁identity": 7224,
      "##ς": 7225,
      "##ann": 7226,
      "▁tragedy": 7227,
      "▁street": 7228,
      "▁sm": 7229,
      "▁potato": 7230,
      "##ression": 7231,
      "▁vanilla": 7232,
      "▁congrat": 7233,
      "##ls": 7234,
      "▁mod": 7235,
      "▁path": 7236,
      "▁crossed": 7237,
      "##ili": 7238,
      "▁talked": 7239,
      "▁ser": 7240,
      "▁school": 7241,
      "▁minut": 7242,
      "##ields": 7243,
      "##imore": 7244,
      "▁schem": 7245,
      "▁cow": 7246,
      "▁second": 7247,
      "##itals": 7248,
      "##zer": 7249,
      "▁lives": 7250,
      "▁till": 7251,
      "##emic": 7252,
      "▁baltimore": 7253,
      "▁via": 7254,
      "##ults": 7255,
      "▁sit": 7256,
      "▁obst": 7257,
      "▁alternative": 7258,
      "▁packed": 7259,
      "▁element": 7260,
      "▁ad": 7261,
      "▁three": 7262,
      "▁squirrel": 7263,
      "▁roads": 7264,
      "▁univers": 7265,
      "▁munic": 7266,
      "▁chan": 7267,
      "▁arts": 7268,
      "▁adds": 7269,
      "▁comment": 7270,
      "▁machine": 7271,
      "##ism": 7272,
      "▁editor": 7273,
      "▁glo": 7274,
      "▁improve": 7275,
      "##val": 7276,
      "▁thoughts": 7277,
      "▁finds": 7278,
      "▁debated": 7279,
      "▁benefit": 7280,
      "▁sti": 7281,
      "▁neighbour": 7282,
      "▁together": 7283,
      "▁rental": 7284,
      "▁fash": 7285,
      "▁poetry": 7286,
      "▁college": 7287,
      "##tician": 7288,
      "▁she": 7289,
      "##eignty": 7290,
      "▁-----------------------------------------------------------------": 7291,
      "▁size": 7292,
      "▁girlfriend": 7293,
      "▁’s": 7294,
      "##ided": 7295,
      "▁owl": 7296,
      "▁sugges": 7297,
      "▁wedding": 7298,
      "##oir": 7299,
      "▁introduction": 7300,
      "▁unc": 7301,
      "▁idea": 7302,
      "##oor": 7303,
      "##work": 7304,
      "▁moments": 7305,
      "▁measures": 7306,
      "##+----------------": 7307,
      "##omination": 7308,
      "##ctly": 7309,
      "▁divisions": 7310,
      "▁xml": 7311,
      "▁!!!!!!!!!!!": 7312,
      "▁tunnel": 7313,
      "▁men": 7314,
      "##.pdf": 7315,
      "▁pos": 7316,
      "▁lacking": 7317,
      "▁slept": 7318,
      "▁blog": 7319,
      "▁performances": 7320,
      "▁rif": 7321,
      "##astruc": 7322,
      "▁studio": 7323,
      "##mos": 7324,
      "##ever": 7325,
      "##isation": 7326,
      "▁blan": 7327,
      "▁pilg": 7328,
      "▁orig": 7329,
      "▁bag": 7330,
      "##ressed": 7331,
      "##onds": 7332,
      "▁framework": 7333,
      "▁midnight": 7334,
      "▁confirmed": 7335,
      "▁grows": 7336,
      "▁spoke": 7337,
      "▁adap": 7338,
      "▁speaking": 7339,
      "▁coat": 7340,
      "▁building": 7341,
      "▁version": 7342,
      "▁writing": 7343,
      "▁congress": 7344,
      "##ift": 7345,
      "▁eleph": 7346,
      "▁rice": 7347,
      "##rap": 7348,
      "##porte": 7349,
      "▁capability": 7350,
      "##lets": 7351,
      "▁islands": 7352,
      "##al": 7353,
      "▁signific": 7354,
      "▁move": 7355,
      "▁oppos": 7356,
      "▁iod": 7357,
      "▁administrator": 7358,
      "▁regulation": 7359,
      "▁curr": 7360,
      "▁jun": 7361,
      "▁fantasy": 7362,
      "▁much": 7363,
      "▁later": 7364,
      "▁dry": 7365,
      "##ooth": 7366,
      "▁uniform": 7367,
      "##ho": 7368,
      "##low": 7369,
      "##ych": 7370,
      "▁zoo": 7371,
      "▁strive": 7372,
      "##ood": 7373,
      "##ger": 7374,
      "▁device": 7375,
      "▁corpor": 7376,
      "▁conver": 7377,
      "▁pointed": 7378,
      "▁thru": 7379,
      "##????????????????????????????????": 7380,
      "▁cells": 7381,
      "▁fellow": 7382,
      "##ashing": 7383,
      "▁jumped": 7384,
      "▁references": 7385,
      "▁big": 7386,
      "##ease": 7387,
      "▁trader": 7388,
      "##ris": 7389,
      "▁coinc": 7390,
      "##en": 7391,
      "##++": 7392,
      "▁photography": 7393,
      "##red": 7394,
      "▁??": 7395,
      "▁extrem": 7396,
      "▁towed": 7397,
      "##elled": 7398,
      "▁thir": 7399,
      "▁befor": 7400,
      "▁pipeline": 7401,
      "▁novel": 7402,
      "▁organiz": 7403,
      "▁issu": 7404,
      "▁kitty": 7405,
      "▁wished": 7406,
      "▁astride": 7407,
      "▁|--------+----------------------->": 7408,
      "▁conform": 7409,
      "##ne": 7410,
      "▁19": 7411,
      "▁artist": 7412,
      "##owled": 7413,
      "▁cand": 7414,
      "##agon": 7415,
      "▁application": 7416,
      "▁sept": 7417,
      "##tling": 7418,
      "▁….": 7419,
      "##ey": 7420,
      "▁blow": 7421,
      "##rying": 7422,
      "▁teachers": 7423,
      "▁cast": 7424,
      "▁fruits": 7425,
      "##roleum": 7426,
      "##ility": 7427,
      "▁reg": 7428,
      "▁kids": 7429,
      "▁eat": 7430,
      "▁left": 7431,
      "##.m": 7432,
      "▁promp": 7433,
      "▁management": 7434,
      "▁,?": 7435,
      "##gation": 7436,
      "##uments": 7437,
      "▁affair": 7438,
      "##alf": 7439,
      "▁giraff": 7440,
      "▁command": 7441,
      "▁goes": 7442,
      "▁send": 7443,
      "▁waters": 7444,
      "▁put": 7445,
      "▁consumption": 7446,
      "▁puzzle": 7447,
      "▁memories": 7448,
      "▁appe": 7449,
      "▁suspect": 7450,
      "▁dignity": 7451,
      "▁by": 7452,
      "##ʊ": 7453,
      "▁plate": 7454,
      "▁estab": 7455,
      "▁spokesman": 7456,
      "▁same": 7457,
      "▁attempting": 7458,
      "##imed": 7459,
      "▁lands": 7460,
      "▁wrong": 7461,
      "##liday": 7462,
      "##lish": 7463,
      "ʻ": 7464,
      "▁services": 7465,
      "▁instead": 7466,
      "▁'d": 7467,
      "▁describ": 7468,
      "##pop": 7469,
      "▁advant": 7470,
      "▁architect": 7471,
      "##/": 7472,
      "▁involvement": 7473,
      "▁informed": 7474,
      "▁dest": 7475,
      "##atures": 7476,
      "▁tort": 7477,
      "▁costs": 7478,
      "▁’re": 7479,
      "▁integration": 7480,
      "##ped": 7481,
      "##ert": 7482,
      "▁also": 7483,
      "##iac": 7484,
      "▁author": 7485,
      "▁<": 7486,
      "▁housing": 7487,
      "▁conte": 7488,
      "▁choice": 7489,
      "▁miami": 7490,
      "▁links": 7491,
      "▁initiated": 7492,
      "▁dig": 7493,
      "▁las": 7494,
      "##ission": 7495,
      "##nowled": 7496,
      "▁feeling": 7497,
      "▁docum": 7498,
      "▁managed": 7499,
      "##ruption": 7500,
      "##uch": 7501,
      "##itting": 7502,
      "##wear": 7503,
      "▁other": 7504,
      "▁going": 7505,
      "▁fear": 7506,
      "▁recruit": 7507,
      "▁racket": 7508,
      "▁prosperity": 7509,
      "▁projects": 7510,
      "▁vend": 7511,
      "▁transform": 7512,
      "▁q1": 7513,
      "▁cost": 7514,
      "##ep": 7515,
      "▁den": 7516,
      "##ength": 7517,
      "##ibility": 7518,
      "▁defined": 7519,
      "##ied": 7520,
      "▁father": 7521,
      "▁finance": 7522,
      "▁efficiency": 7523,
      "##derstanding": 7524,
      "▁apr": 7525,
      "##uth": 7526,
      "▁bran": 7527,
      "▁debt": 7528,
      "▁faces": 7529,
      "▁grand": 7530,
      "##nesses": 7531,
      "▁comm": 7532,
      "▁ingredients": 7533,
      "▁inh": 7534,
      "▁mutation": 7535,
      "▁perceived": 7536,
      "▁rul": 7537,
      "▁bulld": 7538,
      "▁shoe": 7539,
      "▁around": 7540,
      "▁decided": 7541,
      "▁mike": 7542,
      "▁minimum": 7543,
      "q": 7544,
      "▁founded": 7545,
      "##avery": 7546,
      "##utor": 7547,
      "▁favour": 7548,
      "▁shoulder": 7549,
      "▁carried": 7550,
      "▁lot": 7551,
      "▁appointment": 7552,
      "▁virus": 7553,
      "▁discussions": 7554,
      "▁mid": 7555,
      "##stances": 7556,
      "▁supermarket": 7557,
      "▁limitations": 7558,
      "▁shake": 7559,
      "▁influenced": 7560,
      "▁using": 7561,
      "▁oh": 7562,
      "##teries": 7563,
      "▁analysts": 7564,
      "▁cl": 7565,
      "▁pour": 7566,
      "▁percent": 7567,
      "▁wolves": 7568,
      "▁pair": 7569,
      "▁vill": 7570,
      "##ection": 7571,
      "▁ren": 7572,
      "▁lic": 7573,
      "▁delivered": 7574,
      "▁dirt": 7575,
      "▁elim": 7576,
      "▁extr": 7577,
      "▁refri": 7578,
      "▁stamp": 7579,
      "▁south": 7580,
      "▁bic": 7581,
      "▁met": 7582,
      "##aps": 7583,
      "▁buil": 7584,
      "▁conversation": 7585,
      "▁sense": 7586,
      "##ressing": 7587,
      "##ening": 7588,
      "▁provides": 7589,
      "▁dere": 7590,
      "▁tongue": 7591,
      "▁sush": 7592,
      "▁wi": 7593,
      "##-1": 7594,
      "▁hero": 7595,
      "▁computer": 7596,
      "▁offic": 7597,
      "▁enjoying": 7598,
      "▁cooked": 7599,
      "▁;": 7600,
      "▁clay": 7601,
      "▁pud": 7602,
      "▁taken": 7603,
      "▁my": 7604,
      "##r": 7605,
      "▁plan": 7606,
      "▁cri": 7607,
      "▁sw": 7608,
      "##ind": 7609,
      "▁forces": 7610,
      "▁grab": 7611,
      "▁pover": 7612,
      "▁prepared": 7613,
      "▁fame": 7614,
      "##lando": 7615,
      "▁soft": 7616,
      "▁units": 7617,
      "▁raised": 7618,
      "▁computers": 7619,
      "▁own": 7620,
      "▁happy": 7621,
      "▁woman": 7622,
      "▁page": 7623,
      "▁jar": 7624,
      "▁wipe": 7625,
      "##ating": 7626,
      "##illing": 7627,
      "▁fries": 7628,
      "▁introduced": 7629,
      "▁artwork": 7630,
      "▁scene": 7631,
      "▁cove": 7632,
      "##side": 7633,
      "▁alt.animals": 7634,
      "▁assume": 7635,
      "##ensions": 7636,
      "▁development": 7637,
      "##aves": 7638,
      "▁dal": 7639,
      "▁siz": 7640,
      "##ab": 7641,
      "##pers": 7642,
      "##im": 7643,
      "▁rate": 7644,
      "▁ber": 7645,
      "##lus": 7646,
      "##olves": 7647,
      "▁gained": 7648,
      "▁recogn": 7649,
      "▁duckie": 7650,
      "▁songs": 7651,
      "▁consumers": 7652,
      "##ience": 7653,
      "▁washed": 7654,
      "▁·": 7655,
      "▁suggest": 7656,
      "▁basket": 7657,
      "▁verse": 7658,
      "▁islam": 7659,
      "▁weapon": 7660,
      "▁dead": 7661,
      "▁iodine": 7662,
      "▁interviews": 7663,
      "##iver": 7664,
      "▁disl": 7665,
      "▁developer": 7666,
      "▁fri": 7667,
      "▁liked": 7668,
      "▁walk": 7669,
      "▁exchange": 7670,
      "▁delete": 7671,
      "▁birth": 7672,
      "▁scam": 7673,
      "▁as": 7674,
      "▁atlan": 7675,
      "▁cradle": 7676,
      "▁nur": 7677,
      "▁oatme": 7678,
      "▁pyram": 7679,
      "▁containers": 7680,
      "▁doing": 7681,
      "▁scr": 7682,
      "▁administ": 7683,
      "▁cust": 7684,
      "##ank": 7685,
      "##enance": 7686,
      "▁passion": 7687,
      "▁spoken": 7688,
      "##lity": 7689,
      "▁cycl": 7690,
      "▁voted": 7691,
      "##ific": 7692,
      "▁tribe": 7693,
      "▁lay": 7694,
      "▁centre": 7695,
      "▁dealt": 7696,
      "##gel": 7697,
      "##head": 7698,
      "##ages": 7699,
      "##inea": 7700,
      "##ames": 7701,
      "▁bec": 7702,
      "▁someone": 7703,
      "▁sir": 7704,
      "##ections": 7705,
      "▁reach": 7706,
      "▁accused": 7707,
      "▁purchase": 7708,
      "▁keep": 7709,
      "▁legend": 7710,
      "##iting": 7711,
      "▁particularly": 7712,
      "▁devoted": 7713,
      "##ish": 7714,
      "▁what": 7715,
      "▁characters": 7716,
      "▁inches": 7717,
      "▁dign": 7718,
      "▁stillman": 7719,
      "▁consult": 7720,
      "##ffic": 7721,
      "▁drugs": 7722,
      "▁level": 7723,
      "▁sil": 7724,
      "▁wheels": 7725,
      "▁&am": 7726,
      "▁pocket": 7727,
      "▁explos": 7728,
      "▁wants": 7729,
      "▁jelly": 7730,
      "▁fund": 7731,
      "##ings": 7732,
      "▁task": 7733,
      "▁sav": 7734,
      "▁persu": 7735,
      "##cend": 7736,
      "▁vol": 7737,
      "▁accounts": 7738,
      "▁jud": 7739,
      "▁orlando": 7740,
      "▁took": 7741,
      "▁doubt": 7742,
      "%": 7743,
      "▁admin": 7744,
      "▁theories": 7745,
      "ʁ": 7746,
      "▁boys": 7747,
      "▁struck": 7748,
      "##irc": 7749,
      "▁brothers": 7750,
      "▁jul": 7751,
      "▁mas": 7752,
      "▁visa": 7753,
      "▁audit": 7754,
      "▁clo": 7755,
      "▁promoted": 7756,
      "##ligence": 7757,
      "##opath": 7758,
      "▁evidence": 7759,
      "▁telephone": 7760,
      "##cro": 7761,
      "▁fever": 7762,
      "▁gains": 7763,
      "▁cr": 7764,
      "▁soccer": 7765,
      "##ablish": 7766,
      "▁calif": 7767,
      "##der": 7768,
      "##namon": 7769,
      "▁perform": 7770,
      "▁books": 7771,
      "▁fears": 7772,
      "▁call": 7773,
      "▁argued": 7774,
      "##tims": 7775,
      "▁es": 7776,
      "##!!!!!!!!": 7777,
      "▁casual": 7778,
      "▁prove": 7779,
      "▁mis": 7780,
      "▁medium": 7781,
      "##ees": 7782,
      "##anc": 7783,
      "▁bike": 7784,
      "##orted": 7785,
      "##sm": 7786,
      "##minated": 7787,
      "▁negoti": 7788,
      "▁sees": 7789,
      "▁challen": 7790,
      "##eer": 7791,
      "##ano": 7792,
      "▁ket": 7793,
      "▁from": 7794,
      "▁twist": 7795,
      "▁coffee": 7796,
      "▁turn": 7797,
      "▁info": 7798,
      "▁assess": 7799,
      "##ented": 7800,
      "▁tea": 7801,
      "▁spoon": 7802,
      "##sure": 7803,
      "▁flights": 7804,
      "▁necess": 7805,
      "▁reef": 7806,
      "##rism": 7807,
      "▁dolly": 7808,
      "?": 7809,
      "▁economies": 7810,
      "▁init": 7811,
      "▁conversations": 7812,
      "##ˈ": 7813,
      "▁bottle": 7814,
      "▁waitress": 7815,
      "▁nose": 7816,
      "▁rolling": 7817,
      "▁monarch": 7818,
      "##otw": 7819,
      "▁tasks": 7820,
      "▁cats": 7821,
      "▁monit": 7822,
      "▁drama": 7823,
      "▁[...": 7824,
      "##ars": 7825,
      "▁euro": 7826,
      "##rim": 7827,
      "▁employed": 7828,
      "▁sim": 7829,
      "▁robot": 7830,
      "▁sou": 7831,
      "▁concentration": 7832,
      "▁acts": 7833,
      "▁peop": 7834,
      "▁dra": 7835,
      "▁sun": 7836,
      "##ribution": 7837,
      "▁returning": 7838,
      "▁help": 7839,
      "▁seesaw": 7840,
      "##----------------": 7841,
      "##yond": 7842,
      "i": 7843,
      "▁pounds": 7844,
      "▁district": 7845,
      "▁buying": 7846,
      "▁drew": 7847,
      "▁'": 7848,
      "##worms": 7849,
      "▁friendship": 7850,
      "▁franc": 7851,
      "▁id": 7852,
      "##ium": 7853,
      "▁grounds": 7854,
      "##zations": 7855,
      "##very": 7856,
      "##itions": 7857,
      "▁while": 7858,
      "▁belly": 7859,
      "▁huge": 7860,
      "##tainly": 7861,
      "##ice": 7862,
      "▁far": 7863,
      "▁through": 7864,
      "▁mon": 7865,
      "▁portr": 7866,
      "▁agenda": 7867,
      "##udes": 7868,
      "##ry": 7869,
      "▁often": 7870,
      "##ps": 7871,
      "▁firm": 7872,
      "▁partner": 7873,
      "▁class": 7874,
      "##orm": 7875,
      "▁pages": 7876,
      "▁relating": 7877,
      "▁secretary": 7878,
      "▁evolving": 7879,
      "▁guest": 7880,
      "▁love": 7881,
      "▁bird": 7882,
      "▁dancing": 7883,
      "##ners": 7884,
      "▁instit": 7885,
      "##kers": 7886,
      "▁earliest": 7887,
      "##ishing": 7888,
      "▁despite": 7889,
      "▁and": 7890,
      "▁save": 7891,
      "##ines": 7892,
      "▁6": 7893,
      "▁grav": 7894,
      "##aging": 7895,
      "##selve": 7896,
      "▁door": 7897,
      "##β": 7898,
      "▁milit": 7899,
      "▁libr": 7900,
      "▁rent": 7901,
      "▁mark": 7902,
      "▁naima": 7903,
      "▁language": 7904,
      "▁refers": 7905,
      "▁datash": 7906,
      "▁speak": 7907,
      "##aith": 7908,
      "▁remember": 7909,
      "##____": 7910,
      "▁acquis": 7911,
      "▁x3": 7912,
      "▁whis": 7913,
      "▁til": 7914,
      "▁engage": 7915,
      "##ject": 7916,
      "▁throughout": 7917,
      "▁recognition": 7918,
      "▁to": 7919,
      "▁receives": 7920,
      "▁minds": 7921,
      "##or": 7922,
      "▁cleaning": 7923,
      "##ɔ": 7924,
      "##ize": 7925,
      "##nies": 7926,
      "▁hi": 7927,
      "▁tank": 7928,
      "▁separate": 7929,
      "▁faith": 7930,
      "▁born": 7931,
      "▁educated": 7932,
      "▁arguing": 7933,
      "##ients": 7934,
      "▁queries": 7935,
      "##titudes": 7936,
      "##ocr": 7937,
      "##fication": 7938,
      "##ional": 7939,
      "▁provide": 7940,
      "▁referen": 7941,
      "▁strugg": 7942,
      "▁denver": 7943,
      "▁connect": 7944,
      "▁toes": 7945,
      "##aries": 7946,
      "▁processing": 7947,
      "▁lick": 7948,
      "##lion": 7949,
      "▁hor": 7950,
      "▁imple": 7951,
      "▁entity": 7952,
      "▁momm": 7953,
      "▁allow": 7954,
      "▁trains": 7955,
      "▁bring": 7956,
      "▁ing": 7957,
      "▁mach": 7958,
      "▁security": 7959,
      "▁miam": 7960,
      "##orp": 7961,
      "▁accompan": 7962,
      "▁budget": 7963,
      "▁wore": 7964,
      "▁hands": 7965,
      "▁practices": 7966,
      "▁either": 7967,
      "▁criteria": 7968,
      "##,": 7969,
      "▁difficult": 7970,
      "▁employees": 7971,
      "▁surrounding": 7972,
      "##acks": 7973,
      "▁funded": 7974,
      "▁male": 7975,
      "▁manner": 7976,
      "▁cream": 7977,
      "▁coup": 7978,
      "▁north": 7979,
      "##if": 7980,
      "##ma": 7981,
      "▁worms": 7982,
      "▁lack": 7983,
      "##lled": 7984,
      "▁waiver": 7985,
      "▁knees": 7986,
      "▁reaction": 7987,
      "▁existed": 7988,
      "##llow": 7989,
      "▁dail": 7990,
      "##acy": 7991,
      "▁promoting": 7992,
      "▁pretending": 7993,
      "##essions": 7994,
      "▁dro": 7995,
      "▁feedback": 7996,
      "▁intern": 7997,
      "▁file": 7998,
      "##gh": 7999,
      "_": 8000,
      "##isco": 8001,
      "▁respons": 8002,
      "##1": 8003,
      "▁mosque": 8004,
      "▁adventure": 8005,
      "▁equ": 8006,
      "##fact": 8007,
      "▁buttons": 8008,
      "▁lined": 8009,
      "▁changing": 8010,
      "▁picture": 8011,
      "▁deployed": 8012,
      "##œ": 8013,
      "▁departure": 8014,
      "▁motor": 8015,
      "▁temper": 8016,
      "▁scenes": 8017,
      "▁pur": 8018,
      "▁granted": 8019,
      "##inded": 8020,
      "##pensive": 8021,
      "##------->": 8022,
      "▁mush": 8023,
      "▁tuesday": 8024,
      "▁round": 8025,
      "▁ball": 8026,
      "▁psychology": 8027,
      "▁hide": 8028,
      "##read": 8029,
      "▁cookies": 8030,
      "▁investig": 8031,
      "▁sand": 8032,
      "▁infr": 8033,
      "▁order": 8034,
      "▁asks": 8035,
      "▁?!": 8036,
      "▁therefore": 8037,
      "▁establish": 8038,
      "▁ven": 8039,
      "▁lie": 8040,
      "▁actually": 8041,
      "▁rest": 8042,
      "▁journals": 8043,
      "▁airl": 8044,
      "▁interface": 8045,
      "##ar": 8046,
      "▁matter": 8047,
      "##ping": 8048,
      "##ule": 8049,
      "##ty": 8050,
      "▁strategies": 8051,
      "▁sear": 8052,
      "##oot": 8053,
      "▁grown": 8054,
      "▁believed": 8055,
      "##eet": 8056,
      "▁blink": 8057,
      "▁tried": 8058,
      "▁presents": 8059,
      "▁difficulties": 8060,
      "##inity": 8061,
      "▁wife": 8062,
      "▁’m": 8063,
      "##right": 8064,
      "▁horse": 8065,
      "▁fans": 8066,
      "▁educ": 8067,
      "##orized": 8068,
      "▁feathers": 8069,
      "▁intrigu": 8070,
      "▁fl": 8071,
      "▁...": 8072,
      "##ends": 8073,
      "##roduc": 8074,
      "##-w": 8075,
      "▁pick": 8076,
      "▁fees": 8077,
      "▁inn": 8078,
      "▁litter": 8079,
      "▁cancer": 8080,
      "▁guinea": 8081,
      "▁paris": 8082,
      "▁wand": 8083,
      "##cently": 8084,
      "▁emergency": 8085,
      "°": 8086,
      "##uzz": 8087,
      "##put": 8088,
      "##any": 8089,
      "▁bri": 8090,
      "▁vehic": 8091,
      "▁pix": 8092,
      "▁nursies": 8093,
      "▁environ": 8094,
      "▁est": 8095,
      "▁associated": 8096,
      "##ima": 8097,
      "▁importance": 8098,
      "▁fixed": 8099,
      "▁started": 8100,
      "▁cry": 8101,
      "▁violation": 8102,
      "▁touched": 8103,
      "▁pil": 8104,
      "▁diapers": 8105,
      "##ties": 8106,
      "▁ru": 8107,
      "##ight": 8108,
      "▁hammer": 8109,
      "▁getting": 8110,
      "##oop": 8111,
      "##ocity": 8112,
      "▁humanity": 8113,
      "▁breakf": 8114,
      "▁restaurant": 8115,
      "▁distric": 8116,
      "▁mouse": 8117,
      "▁wond": 8118,
      "##formation": 8119,
      "##body": 8120,
      "▁carriage": 8121,
      "##uries": 8122,
      "▁mistakes": 8123,
      "▁resulted": 8124,
      "▁made": 8125,
      "▁)": 8126,
      "▁breath": 8127,
      "▁on": 8128,
      "▁database": 8129,
      "##ged": 8130,
      "▁shift": 8131,
      "▁chap": 8132,
      "▁ensuring": 8133,
      "##alist": 8134,
      "▁dolphin": 8135,
      "▁wit": 8136,
      "##uled": 8137,
      "▁begin": 8138,
      "##ome": 8139,
      "▁stud": 8140,
      "▁white": 8141,
      "▁august": 8142,
      "▁distinction": 8143,
      "▁undertake": 8144,
      "▁climbing": 8145,
      "▁dessert": 8146,
      "▁ants": 8147,
      "▁of": 8148,
      "##eets": 8149,
      "▁contributed": 8150,
      "##entions": 8151,
      "▁daddy": 8152,
      "##ο": 8153,
      "▁tracks": 8154,
      "▁forest": 8155,
      "▁reserve": 8156,
      "▁then": 8157,
      "##????": 8158,
      "##augh": 8159,
      "##isted": 8160,
      "##0s": 8161,
      "▁dragon": 8162,
      "##igned": 8163,
      "▁foli": 8164,
      "##mall": 8165,
      "▁includes": 8166,
      "▁representatives": 8167,
      "▁almost": 8168,
      "▁fire": 8169,
      "##bers": 8170,
      "##cake": 8171,
      "▁allocated": 8172,
      "##ago": 8173,
      "▁hole": 8174,
      "##alsa": 8175,
      "▁mountain": 8176,
      "▁funeral": 8177,
      "▁caught": 8178,
      "##oured": 8179,
      "##agement": 8180,
      "▁boy": 8181,
      "##ticians": 8182,
      "▁gang": 8183,
      "▁disp": 8184,
      "▁word": 8185,
      "##pet": 8186,
      "▁transit": 8187,
      "▁angeles": 8188,
      "##........": 8189,
      "▁caps": 8190,
      "▁sound": 8191
    }
  }
}