{
  "version": "1.0",
  "truncation": null,
  "padding": null,
  "added_tokens": [
    {
      "id": 544,
      "content": "[CLS]",
      "single_word": false,
      "lstrip": false,
      "rstrip": false,
      "normalized": false,
      "special": true
    },
    {
      "id": 979,
      "content": "[SEP]",
      "single_word": false,
      "lstrip": false,
      "rstrip": false,
      "normalized": false,
      "special": true
    },
    {
      "id": 2365,
      "content": "[PAD]",
      "single_word": false,
      "lstrip": false,
      "rstrip": false,
      "normalized": false,
      "special": true
    },
    {
      "id": 3490,
      "content": "[MASK]",
      "single_word": false,
      "lstrip": false,
      "rstrip": false,
      "normalized": false,
      "special": true
    },
    {
      "id": 3672,
      "content": "[UNK]",
      "single_word": false,
      "lstrip": false,
      "rstrip": false,
      "normalized": false,
      "special": true
    }
  ],
  "normalizer": {
    "type": "Sequence",
    "normalizers": [
      {
        "type": "NFD"
      },
      {
        "type": "Lowercase"
      },
      {
        "type": "StripAccents"
      }
    ]
  },
  "pre_tokenizer": {
    "type": "Sequence",
    "pretokenizers": [
      {
        "type": "Metaspace",
        "replacement": "▁",
        "prepend_scheme": "always",
        "split": true
      }
    ]
  },
  "post_processor": {
    "type": "TemplateProcessing",
    "single": [
      {
        "SpecialToken": {
          "id": "[CLS]",
          "type_id": 0
        }
      },
      {
        "Sequence": {
          "id": "A",
          "type_id": 0
        }
      },
      {
        "SpecialToken": {
          "id": "[SEP]",
          "type_id": 0
        }
      }
    ],
    "pair": [
      {
        "SpecialToken": {
          "id": "[CLS]",
          "type_id": 0
        }
      },
      {
        "Sequence": {
          "id": "A",
          "type_id": 0
        }
      },
      {
        "SpecialToken": {
          "id": "[SEP]",
          "type_id": 0
        }
      },
      {
        "Sequence": {
          "id": "B",
          "type_id": 1
        }
      },
      {
        "SpecialToken": {
          "id": "[SEP]",
          "type_id": 1
        }
      }
    ],
    "special_tokens": {
      "[CLS]": {
        "id": "[CLS]",
        "ids": [
          544
        ],
        "tokens": [
          "[CLS]"
        ]
      },
      "[SEP]": {
        "id": "[SEP]",
        "ids": [
          979
        ],
        "tokens": [
          "[SEP]"
        ]
      }
    }
  },
  "decoder": {
    "type": "Metaspace",
    "replacement": "▁",
    "prepend_scheme": "always",
    "split": true
  },
  "model": {
    "type": "BPE",
    "dropout": null,
    "unk_token": "[UNK]",
    "continuing_subword_prefix": null,
    "end_of_word_suffix": null,
    "fuse_unk": false,
    "byte_fallback": false,
    "ignore_merges": false,
    "vocab": {
      "!!!!!!!!": 0,
      "iss": 1,
      "▁thoughts": 2,
      "isting": 3,
      "▁pr": 4,
      "tery": 5,
      "ming": 6,
      "▁pocket": 7,
      "▁little": 8,
      "▁directive": 9,
      "ind": 10,
      "????": 11,
      "▁anth": 12,
      "▁connec": 13,
      "▁as": 14,
      "▁shop": 15,
      "eces": 16,
      "▁pep": 17,
      "▁\"": 18,
      "▁recip": 19,
      "▁ad": 20,
      "▁pie": 21,
      "▁introduc": 22,
      "idden": 23,
      "▁mass": 24,
      "▁heads": 25,
      "ew": 26,
      "▁interv": 27,
      "bb": 28,
      "▁there": 29,
      "▁date": 30,
      "▁circum": 31,
      "ting": 32,
      "▁depart": 33,
      "▁dat": 34,
      "????????": 35,
      "▁ec": 36,
      "▁involved": 37,
      "aking": 38,
      "▁parents": 39,
      "▁ha": 40,
      "▁must": 41,
      "▁proble": 42,
      "▁airplan": 43,
      "aw": 44,
      "▁surv": 45,
      "ly": 46,
      "▁form": 47,
      "........": 48,
      "▁impact": 49,
      ".c": 50,
      "▁know": 51,
      "▁pittsbur": 52,
      "▁before": 53,
      "▁someth": 54,
      "ased": 55,
      "▁joined": 56,
      "▁areas": 57,
      "▁last": 58,
      "ement": 59,
      "▁resources": 60,
      "▁wine": 61,
      "▁standing": 62,
      "▁!!!!!": 63,
      "tity": 64,
      "▁recommended": 65,
      "▁q": 66,
      "lf": 67,
      "▁help": 68,
      "ived": 69,
      "▁paint": 70,
      "▁wear": 71,
      "tly": 72,
      "▁times": 73,
      "▁describe": 74,
      "▁wanted": 75,
      "▁would": 76,
      "…": 77,
      "▁hop": 78,
      "ete": 79,
      "▁establish": 80,
      "▁appears": 81,
      "▁helps": 82,
      "▁tow": 83,
      "------------": 84,
      "▁hear": 85,
      "▁opin": 86,
      "▁period": 87,
      "up": 88,
      "▁etc": 89,
      "▁created": 90,
      "erent": 91,
      "ility": 92,
      "▁bathroom": 93,
      "▁wedding": 94,
      "æ": 95,
      "▁ear": 96,
      "boy": 97,
      "▁wait": 98,
      "▁counterpar": 99,
      "▁saying": 100,
      "cross": 101,
      "▁poll": 102,
      "ess": 103,
      "▁mor": 104,
      "▁business": 105,
      "'": 106,
      "▁old": 107,
      "▁rep": 108,
      "▁mama": 109,
      "▁moved": 110,
      "▁buy": 111,
      "uss": 112,
      "▁map": 113,
      "▁watch": 114,
      "▁well": 115,
      "ided": 116,
      "▁driving": 117,
      "ril": 118,
      "▁x": 119,
      "▁employees": 120,
      "▁suff": 121,
      "▁replication": 122,
      "▁plan": 123,
      "▁squ": 124,
      "▁live": 125,
      "▁code": 126,
      "and": 127,
      "▁august": 128,
      "▁y": 129,
      "▁content": 130,
      "▁aside": 131,
      "▁ap": 132,
      "▁became": 133,
      "▁quinoa": 134,
      "▁flag": 135,
      "ither": 136,
      "one": 137,
      "▁progress": 138,
      "▁lad": 139,
      "▁col": 140,
      "ʻ": 141,
      "▁now": 142,
      "▁could": 143,
      "ass": 144,
      "▁ph": 145,
      "craft": 146,
      "▁_____": 147,
      "▁sens": 148,
      "▁spend": 149,
      "▁buc": 150,
      "ven": 151,
      "▁best": 152,
      "▁activ": 153,
      "▁u": 154,
      "▁waiting": 155,
      "▁learned": 156,
      "▁***": 157,
      "ester": 158,
      "anger": 159,
      "▁dow": 160,
      "▁finger": 161,
      "ape": 162,
      "▁!!!?": 163,
      "▁apar": 164,
      "▁so": 165,
      "jec": 166,
      "▁gives": 167,
      "▁fig": 168,
      "▁shown": 169,
      "▁law": 170,
      "ocol": 171,
      "▁sleep": 172,
      "olved": 173,
      "▁measures": 174,
      "▁explained": 175,
      "--------": 176,
      "▁********": 177,
      "▁mar": 178,
      "▁house": 179,
      "ized": 180,
      "▁viol": 181,
      "onstr": 182,
      "ig": 183,
      "inus": 184,
      "▁vis": 185,
      "tsbur": 186,
      "▁hist": 187,
      "▁rights": 188,
      "avor": 189,
      "▁!.": 190,
      "▁needed": 191,
      "liday": 192,
      "▁ne": 193,
      "▁watching": 194,
      "▁felt": 195,
      "▁cooperation": 196,
      "ably": 197,
      "ving": 198,
      "▁accepted": 199,
      "derstanding": 200,
      "▁ra": 201,
      "▁drinking": 202,
      "co": 203,
      "utions": 204,
      "form": 205,
      "▁ton": 206,
      "▁–": 207,
      "---": 208,
      "▁sc": 209,
      "▁driver": 210,
      "▁tar": 211,
      "▁fail": 212,
      "▁will": 213,
      "▁kn": 214,
      "ali": 215,
      "▁season": 216,
      "▁estab": 217,
      "▁candid": 218,
      "ea": 219,
      "▁hers": 220,
      "alism": 221,
      "▁'d": 222,
      "▁winter": 223,
      "▁ov": 224,
      "▁with": 225,
      "ributed": 226,
      "▁commission": 227,
      "▁wild": 228,
      "–": 229,
      "▁first": 230,
      "▁influ": 231,
      "wn": 232,
      "▁trees": 233,
      "▁yog": 234,
      "ant": 235,
      "....": 236,
      "▁versus": 237,
      "▁nose": 238,
      "▁responsibility": 239,
      "erences": 240,
      "▁management": 241,
      "ally": 242,
      "▁tail": 243,
      "▁things": 244,
      "▁b/c": 245,
      "▁exhib": 246,
      "ep": 247,
      "ging": 248,
      "▁...................": 249,
      "ults": 250,
      "ize": 251,
      "es": 252,
      "▁fields": 253,
      "▁indic": 254,
      "▁cove": 255,
      "▁grandm": 256,
      "acking": 257,
      "▁ever": 258,
      "▁.......": 259,
      "▁hal": 260,
      "▁boy": 261,
      "▁;": 262,
      "ed": 263,
      "▁are": 264,
      "▁corn": 265,
      "▁increased": 266,
      "▁comb": 267,
      "▁repe": 268,
      "hood": 269,
      "▁agre": 270,
      "round": 271,
      "ca": 272,
      "▁bag": 273,
      "ble": 274,
      "▁if": 275,
      "ead": 276,
      "▁mater": 277,
      "uch": 278,
      "ising": 279,
      "ans": 280,
      "▁breakfast": 281,
      "az": 282,
      "▁oc": 283,
      "▁agree": 284,
      "ood": 285,
      "▁in": 286,
      "▁sched": 287,
      "lers": 288,
      "▁dece": 289,
      "ve": 290,
      "▁said": 291,
      "▁.........": 292,
      "▁stayed": 293,
      "▁majority": 294,
      "▁inn": 295,
      "ost": 296,
      "▁mat": 297,
      "overn": 298,
      "▁den": 299,
      "▁j": 300,
      "▁control": 301,
      "▁number": 302,
      "▁bec": 303,
      "▁oil": 304,
      "neath": 305,
      "▁wilt": 306,
      "▁file": 307,
      "▁study": 308,
      "▁support": 309,
      "ance": 310,
      "▁jobs": 311,
      "▁meas": 312,
      "▁at": 313,
      "▁less": 314,
      "▁reality": 315,
      "▁add": 316,
      "▁enjoyed": 317,
      "ective": 318,
      "r": 319,
      "ear": 320,
      "earch": 321,
      "▁returned": 322,
      "ather": 323,
      "▁hands": 324,
      "▁legislation": 325,
      "ey": 326,
      "▁items": 327,
      "ings": 328,
      "cles": 329,
      "▁order": 330,
      "▁known": 331,
      "tle": 332,
      "ures": 333,
      "elines": 334,
      "lly": 335,
      "▁game": 336,
      "▁airports": 337,
      "▁appointment": 338,
      "▁********************************": 339,
      "▁funds": 340,
      "▁break": 341,
      "arity": 342,
      "ma": 343,
      "▁role": 344,
      "ces": 345,
      "▁pur": 346,
      "ments": 347,
      "ses": 348,
      "▁toward": 349,
      "ect": 350,
      "nel": 351,
      "pts": 352,
      "▁tele": 353,
      "erved": 354,
      "id": 355,
      "▁about": 356,
      "▁’": 357,
      "ees": 358,
      "▁until": 359,
      "▁kitty": 360,
      "▁ground": 361,
      "▁inv": 362,
      "tt": 363,
      "operation": 364,
      "are": 365,
      "▁ir": 366,
      "▁aw": 367,
      "▁come": 368,
      ":": 369,
      "end": 370,
      "lled": 371,
      "▁sister": 372,
      "▁prot": 373,
      "▁amount": 374,
      "▁p": 375,
      "ec": 376,
      "▁draw": 377,
      "fact": 378,
      "▁seas": 379,
      "▁arri": 380,
      "▁party": 381,
      "▁w": 382,
      "▁throughout": 383,
      "▁trav": 384,
      "▁blood": 385,
      "ode": 386,
      "▁boys": 387,
      "ix": 388,
      "▁cond": 389,
      "vail": 390,
      "▁!!!!": 391,
      "▁why": 392,
      "erence": 393,
      "▁campaign": 394,
      "tie": 395,
      "▁ice": 396,
      "▁phone": 397,
      "▁mine": 398,
      "▁rout": 399,
      "00": 400,
      "kin": 401,
      "▁sugges": 402,
      "rows": 403,
      "▁---------------------------------": 404,
      "”": 405,
      "▁di": 406,
      "tering": 407,
      "▁implem": 408,
      "▁stated": 409,
      "itation": 410,
      "case": 411,
      "er": 412,
      "tion": 413,
      "▁atop": 414,
      "for": 415,
      "▁range": 416,
      "o": 417,
      "memb": 418,
      "▁united": 419,
      "onom": 420,
      "▁window": 421,
      "ated": 422,
      "▁starting": 423,
      "▁fore": 424,
      "▁song": 425,
      "▁outside": 426,
      "▁interview": 427,
      "▁prac": 428,
      "▁appl": 429,
      "osite": 430,
      "ip": 431,
      "▁govern": 432,
      "eric": 433,
      "ope": 434,
      "▁explain": 435,
      "▁buttons": 436,
      "▁their": 437,
      "▁br": 438,
      "▁become": 439,
      "▁salad": 440,
      "▁post": 441,
      "head": 442,
      "$": 443,
      "▁developing": 444,
      "▁people": 445,
      "ul": 446,
      "▁3": 447,
      "sure": 448,
      "▁.": 449,
      "▁human": 450,
      "▁space": 451,
      "ild": 452,
      "plan": 453,
      "▁cl": 454,
      "▁fligh": 455,
      "imed": 456,
      "▁called": 457,
      "▁chicken": 458,
      "rous": 459,
      "▁s’": 460,
      "▁opportunity": 461,
      "▁spr": 462,
      "avi": 463,
      "▁miles": 464,
      "▁should": 465,
      "v": 466,
      "▁standards": 467,
      "▁ours": 468,
      "▁crow": 469,
      "▁lion": 470,
      "!?": 471,
      "▁pu": 472,
      "fo": 473,
      "ric": 474,
      "ening": 475,
      "▁reviews": 476,
      "▁airline": 477,
      "ashed": 478,
      "▁anything": 479,
      "▁techniqu": 480,
      "▁:?": 481,
      "ast": 482,
      "▁strength": 483,
      "▁convers": 484,
      "ums": 485,
      "▁sources": 486,
      "▁options": 487,
      "▁suit": 488,
      "▁does": 489,
      "il": 490,
      "▁pig": 491,
      "▁fare": 492,
      "▁..": 493,
      "▁wants": 494,
      ".doc": 495,
      "▁ride": 496,
      "▁regarding": 497,
      "▁wond": 498,
      "▁av": 499,
      "ything": 500,
      "thing": 501,
      "▁wol": 502,
      "▁avo": 503,
      "▁o": 504,
      "▁format": 505,
      "▁disp": 506,
      "ise": 507,
      "▁face": 508,
      "▁tom": 509,
      "ove": 510,
      "▁weight": 511,
      "▁ask": 512,
      "▁micro": 513,
      "▁shoes": 514,
      "▁schedule": 515,
      "urn": 516,
      "▁rooms": 517,
      "▁dev": 518,
      "▁monkey": 519,
      "ections": 520,
      "lation": 521,
      "υ": 522,
      "iron": 523,
      "▁job": 524,
      "ify": 525,
      "ading": 526,
      "▁it": 527,
      "▁issues": 528,
      "▁coo": 529,
      "▁going": 530,
      "ense": 531,
      "▁read": 532,
      "using": 533,
      "********************************": 534,
      "▁brought": 535,
      "▁cent": 536,
      "▁continued": 537,
      "▁cartoon": 538,
      "▁wonder": 539,
      "▁clothes": 540,
      "▁ran": 541,
      "de": 542,
      "▁independ": 543,
      "[CLS]": 544,
      "▁bri": 545,
      "ium": 546,
      "ulations": 547,
      "▁stic": 548,
      "▁-----": 549,
      "▁anyone": 550,
      "▁corner": 551,
      "▁reas": 552,
      "▁bulldozer": 553,
      "▁ob": 554,
      "force": 555,
      "▁eating": 556,
      "▁quality": 557,
      "▁ab": 558,
      "▁throu": 559,
      "▁mov": 560,
      "▁sl": 561,
      "▁details": 562,
      "▁hospital": 563,
      "▁kill": 564,
      "▁everybody": 565,
      "▁administ": 566,
      "works": 567,
      "either": 568,
      "▁arg": 569,
      "--------+----------------": 570,
      "▁direc": 571,
      "▁restaurant": 572,
      "book": 573,
      "▁money": 574,
      "▁classes": 575,
      "▁jwww": 576,
      "▁organiz": 577,
      "▁family": 578,
      "ction": 579,
      "▁sel": 580,
      "▁reached": 581,
      "▁start": 582,
      "▁that": 583,
      "▁lat": 584,
      "▁nature": 585,
      "um": 586,
      "▁built": 587,
      "▁received": 588,
      "ulate": 589,
      "▁dropped": 590,
      "st": 591,
      "fl": 592,
      "▁during": 593,
      "▁among": 594,
      "fir": 595,
      "▁neck": 596,
      "▁traff": 597,
      "▁tha": 598,
      "ently": 599,
      "tions": 600,
      "cept": 601,
      "▁country": 602,
      "inn": 603,
      "elt": 604,
      "▁pivottable": 605,
      "inds": 606,
      "ro": 607,
      "▁beginning": 608,
      "▁toy": 609,
      "'s": 610,
      "ful": 611,
      "ation": 612,
      "oard": 613,
      "ints": 614,
      "▁conf": 615,
      "▁stre": 616,
      "▁cons": 617,
      "▁sandwic": 618,
      "▁milk": 619,
      "▁apprec": 620,
      "▁answer": 621,
      "ars": 622,
      "ican": 623,
      "▁comp": 624,
      "▁hous": 625,
      "▁cage": 626,
      "▁cli": 627,
      "▁receive": 628,
      "▁anti": 629,
      "▁****": 630,
      "▁communication": 631,
      "▁conversation": 632,
      "essed": 633,
      "▁dam": 634,
      "▁n": 635,
      "▁finished": 636,
      "▁cap": 637,
      "▁bunny": 638,
      "▁april": 639,
      "▁'ll": 640,
      "ater": 641,
      "chie": 642,
      "▁attacks": 643,
      "▁dr": 644,
      "▁head": 645,
      "osed": 646,
      "▁meth": 647,
      "▁call": 648,
      "▁citiz": 649,
      "▁imp": 650,
      "▁sure": 651,
      "▁lab": 652,
      "▁prefer": 653,
      "oy": 654,
      "hen": 655,
      "▁[...]": 656,
      "▁using": 657,
      "▁ow": 658,
      "▁beneath": 659,
      "▁..........": 660,
      "tivity": 661,
      "▁farm": 662,
      "old": 663,
      "▁appeared": 664,
      "▁scienti": 665,
      "lies": 666,
      "act": 667,
      "▁women": 668,
      "▁respons": 669,
      "▁aff": 670,
      "▁credit": 671,
      "ge": 672,
      "▁notw": 673,
      "oo": 674,
      "▁reach": 675,
      "▁movie": 676,
      "▁une": 677,
      "!!": 678,
      "▁!!!!!!!!!!!!!!!": 679,
      "▁acc": 680,
      "▁room": 681,
      "▁hom": 682,
      "▁motor": 683,
      "▁---------------------------------------------------------------------------": 684,
      "▁ways": 685,
      "▁bot": 686,
      "▁image": 687,
      "²": 688,
      "clock": 689,
      "ry": 690,
      "▁against": 691,
      "▁copy": 692,
      "ph": 693,
      "▁19": 694,
      "▁accep": 695,
      "▁projects": 696,
      "▁choo": 697,
      "▁dough": 698,
      "|": 699,
      "reds": 700,
      "ets": 701,
      "▁points": 702,
      "▁size": 703,
      "ks": 704,
      "akes": 705,
      "▁legos": 706,
      "▁cr": 707,
      "'clock": 708,
      "▁sug": 709,
      "▁incl": 710,
      "▁upd": 711,
      "ς": 712,
      "ually": 713,
      "▁insurance": 714,
      "▁adam": 715,
      "▁arrive": 716,
      "▁eleph": 717,
      "ummy": 718,
      "▁bul": 719,
      "con": 720,
      "..": 721,
      "▁diff": 722,
      "pen": 723,
      "▁picture": 724,
      "▁door": 725,
      "▁parts": 726,
      "▁army": 727,
      "inated": 728,
      "val": 729,
      "▁interests": 730,
      "uit": 731,
      "te": 732,
      "▁baby": 733,
      "▁movies": 734,
      "▁evidence": 735,
      "▁feed": 736,
      "ened": 737,
      "▁fo": 738,
      "cl": 739,
      "▁menti": 740,
      "▁lie": 741,
      "▁river": 742,
      "▁teh": 743,
      "▁use": 744,
      "ays": 745,
      "▁adults": 746,
      "oices": 747,
      "ive": 748,
      "line": 749,
      "▁animals": 750,
      "amp": 751,
      "▁surpr": 752,
      "yth": 753,
      "▁reason": 754,
      "▁….": 755,
      "ends": 756,
      "ward": 757,
      "▁pub": 758,
      "▁airport": 759,
      "▁stri": 760,
      "orn": 761,
      "▁bird": 762,
      "▁conte": 763,
      "▁sil": 764,
      "▁confir": 765,
      "erve": 766,
      "▁objec": 767,
      "lection": 768,
      "liament": 769,
      "▁around": 770,
      "▁food": 771,
      "▁enjoy": 772,
      "▁@": 773,
      "▁threat": 774,
      "ely": 775,
      "ned": 776,
      "▁next": 777,
      "▁showing": 778,
      "eeds": 779,
      "▁nice": 780,
      "cally": 781,
      "b": 782,
      "ote": 783,
      "▁truth": 784,
      "▁body": 785,
      "▁message": 786,
      "▁abo": 787,
      "▁page": 788,
      "▁acqui": 789,
      "▁rele": 790,
      "▁making": 791,
      "ges": 792,
      "▁belong": 793,
      "▁companies": 794,
      "▁button": 795,
      "▁mu": 796,
      "++++": 797,
      "oss": 798,
      "iate": 799,
      "▁society": 800,
      "▁employ": 801,
      "▁stopover": 802,
      "▁park": 803,
      "▁but": 804,
      "▁ki": 805,
      "ef": 806,
      "▁vehic": 807,
      "▁afternoon": 808,
      "▁others": 809,
      "ights": 810,
      "ention": 811,
      "▁determ": 812,
      "__": 813,
      "▁discovered": 814,
      "****************": 815,
      "ds": 816,
      "▁away": 817,
      "▁denver": 818,
      "ited": 819,
      "oon": 820,
      "▁&amp;": 821,
      "▁elected": 822,
      "▁decision": 823,
      "▁plenty": 824,
      "▁elev": 825,
      "▁girl": 826,
      "▁jun": 827,
      "oh": 828,
      "▁mess": 829,
      "▁milit": 830,
      "▁pret": 831,
      "▁attached": 832,
      "▁cop": 833,
      "▁works": 834,
      "▁typ": 835,
      "▁comment": 836,
      "▁shower": 837,
      "▁except": 838,
      "▁person": 839,
      "▁trying": 840,
      "rong": 841,
      "dge": 842,
      "ama": 843,
      "▁tent": 844,
      "▁descri": 845,
      "formation": 846,
      "anced": 847,
      "ghting": 848,
      "oted": 849,
      "▁manag": 850,
      "▁offici": 851,
      "▁display": 852,
      "▁libr": 853,
      "▁and": 854,
      "apers": 855,
      "ard": 856,
      "▁co": 857,
      "▁across": 858,
      "▁ti": 859,
      "▁phot": 860,
      "▁owner": 861,
      "huh": 862,
      "als": 863,
      "ang": 864,
      "▁thousands": 865,
      "urity": 866,
      "▁salt": 867,
      "ounced": 868,
      "▁’ll": 869,
      "▁say": 870,
      "plus": 871,
      "▁feeling": 872,
      "▁cigar": 873,
      "▁stud": 874,
      "itions": 875,
      "oot": 876,
      "▁med": 877,
      "is": 878,
      "σ": 879,
      "▁mission": 880,
      "▁pl": 881,
      "▁weeks": 882,
      "ire": 883,
      "▁opening": 884,
      "▁proposal": 885,
      "ain": 886,
      "▁infl": 887,
      "▁path": 888,
      "▁sle": 889,
      "▁down": 890,
      "▁follows": 891,
      "▁birthday": 892,
      "³": 893,
      "▁problems": 894,
      "▁bowl": 895,
      "▁pet": 896,
      "ances": 897,
      "▁die": 898,
      "▁described": 899,
      "▁followed": 900,
      "▁whe": 901,
      "▁action": 902,
      "▁men": 903,
      "▁days": 904,
      "idence": 905,
      "▁father": 906,
      "▁ce": 907,
      "▁neighbor": 908,
      "▁thir": 909,
      "▁night": 910,
      "ight": 911,
      "▁looks": 912,
      "▁thursday": 913,
      "ders": 914,
      "▁row": 915,
      "▁speed": 916,
      "▁concer": 917,
      "▁sugar": 918,
      "friend": 919,
      "▁shirt": 920,
      "▁trust": 921,
      "rec": 922,
      "ame": 923,
      "▁son": 924,
      "▁numerous": 925,
      "ables": 926,
      "▁fish": 927,
      "▁skin": 928,
      "▁guys": 929,
      "▁hope": 930,
      "▁dou": 931,
      "lic": 932,
      "▁pal": 933,
      "uted": 934,
      "▁project": 935,
      "▁happening": 936,
      "▁exposure": 937,
      "▁psych": 938,
      "in": 939,
      "▁penc": 940,
      "▁hotel": 941,
      "▁schools": 942,
      "▁bac": 943,
      "ps": 944,
      "ell": 945,
      "▁incre": 946,
      "▁think": 947,
      "uation": 948,
      "▁ey": 949,
      "ture": 950,
      "▁mommy": 951,
      "aint": 952,
      "▁raised": 953,
      "▁hur": 954,
      "▁here": 955,
      "sel": 956,
      "▁friends": 957,
      "▁any": 958,
      "▁fixed": 959,
      "asure": 960,
      "uments": 961,
      "▁bus": 962,
      "ech": 963,
      "vest": 964,
      "as": 965,
      "▁boston": 966,
      "▁threw": 967,
      "▁pick": 968,
      "cer": 969,
      "▁ll": 970,
      "uals": 971,
      "▁a": 972,
      "▁needs": 973,
      "▁minutes": 974,
      "▁wish": 975,
      "▁ri": 976,
      "▁hosp": 977,
      "ination": 978,
      "[SEP]": 979,
      "▁mountain": 980,
      "▁text": 981,
      "▁sm": 982,
      "go": 983,
      "▁transportation": 984,
      "▁wi": 985,
      "etition": 986,
      "▁closed": 987,
      "▁conduc": 988,
      "▁rat": 989,
      "▁were": 990,
      "ee": 991,
      "ilities": 992,
      "▁leaving": 993,
      "▁scre": 994,
      "▁aft": 995,
      "*": 996,
      "▁despite": 997,
      "▁electric": 998,
      "▁belief": 999,
      "----": 1000,
      "▁+": 1001,
      "derstand": 1002,
      "▁>>": 1003,
      "ure": 1004,
      "ten": 1005,
      "▁near": 1006,
      "▁broken": 1007,
      "lig": 1008,
      "▁’s": 1009,
      "▁trad": 1010,
      "▁f": 1011,
      "ale": 1012,
      "▁paul": 1013,
      "▁mir": 1014,
      "ys": 1015,
      "ides": 1016,
      "▁dragon": 1017,
      "▁sci": 1018,
      "▁bal": 1019,
      "▁prof": 1020,
      "-m": 1021,
      "eep": 1022,
      "▁balloon": 1023,
      "ower": 1024,
      "▁estimated": 1025,
      "▁conce": 1026,
      "▁mr": 1027,
      "▁occ": 1028,
      "▁‘’": 1029,
      "▁taken": 1030,
      "ressed": 1031,
      "▁initi": 1032,
      "encies": 1033,
      "itt": 1034,
      "▁own": 1035,
      "▁wa": 1036,
      "▁council": 1037,
      "▁nobody": 1038,
      "▁style": 1039,
      "▁destro": 1040,
      "▁du": 1041,
      "▁inside": 1042,
      "▁terror": 1043,
      "▁user": 1044,
      "▁fr": 1045,
      "▁ann": 1046,
      "uting": 1047,
      "▁master": 1048,
      "▁supp": 1049,
      "▁many": 1050,
      "iness": 1051,
      "▁bel": 1052,
      "ak": 1053,
      "▁dirt": 1054,
      "ν": 1055,
      "ə": 1056,
      "uk": 1057,
      "▁workers": 1058,
      "ange": 1059,
      "▁listen": 1060,
      "▁coming": 1061,
      "=----": 1062,
      "rote": 1063,
      "▁values": 1064,
      "ror": 1065,
      "▁por": 1066,
      "▁he": 1067,
      "▁link": 1068,
      "▁gl": 1069,
      "time": 1070,
      "of": 1071,
      "mon": 1072,
      "unt": 1073,
      "▁whale": 1074,
      "▁hair": 1075,
      "▁include": 1076,
      "▁speech": 1077,
      "▁loss": 1078,
      "▁cell": 1079,
      "▁*****": 1080,
      "enty": 1081,
      "hes": 1082,
      "▁history": 1083,
      "▁marriage": 1084,
      "▁—": 1085,
      "oder": 1086,
      "▁roo": 1087,
      "▁condition": 1088,
      "tai": 1089,
      "ience": 1090,
      "▁knowledge": 1091,
      "ences": 1092,
      "str": 1093,
      "▁goods": 1094,
      "im": 1095,
      "us": 1096,
      "▁noon": 1097,
      "▁future": 1098,
      "rop": 1099,
      "ould": 1100,
      "ithst": 1101,
      "aughter": 1102,
      "▁kitchen": 1103,
      "▁swim": 1104,
      "▁buil": 1105,
      "educ": 1106,
      "ural": 1107,
      "▁ach": 1108,
      "od": 1109,
      ".": 1110,
      "eas": 1111,
      "▁newsp": 1112,
      "▁which": 1113,
      "▁capac": 1114,
      "▁neighb": 1115,
      "▁rug": 1116,
      "▁heart": 1117,
      "▁represent": 1118,
      "inu": 1119,
      "ption": 1120,
      "▁rocks": 1121,
      "▁brother": 1122,
      "ores": 1123,
      "▁nov": 1124,
      "▁function": 1125,
      "▁tur": 1126,
      "spite": 1127,
      "ams": 1128,
      "oration": 1129,
      "▁surp": 1130,
      "▁breakf": 1131,
      "▁um": 1132,
      "▁oneself": 1133,
      "____": 1134,
      "z": 1135,
      "▁beat": 1136,
      "▁bu": 1137,
      "▁legs": 1138,
      "▁dest": 1139,
      "▁gr": 1140,
      "ledge": 1141,
      "▁sand": 1142,
      "▁following": 1143,
      "▁_": 1144,
      "ins": 1145,
      "▁told": 1146,
      "▁grab": 1147,
      "▁innov": 1148,
      "▁seen": 1149,
      "▁root": 1150,
      "}": 1151,
      "▁seem": 1152,
      "▁concern": 1153,
      "▁ma": 1154,
      "▁calling": 1155,
      "▁everyone": 1156,
      "ball": 1157,
      "▁peop": 1158,
      "ict": 1159,
      ".com": 1160,
      "▁always": 1161,
      "▁getting": 1162,
      "▁oh": 1163,
      "▁nt": 1164,
      "ipped": 1165,
      "▁camel": 1166,
      "ested": 1167,
      "▁not": 1168,
      "▁numbers": 1169,
      "▁citi": 1170,
      "oring": 1171,
      "ord": 1172,
      "▁im": 1173,
      "▁everything": 1174,
      "▁thru": 1175,
      "ounds": 1176,
      "▁intelligence": 1177,
      "it": 1178,
      "erate": 1179,
      "▁floor": 1180,
      "▁write": 1181,
      "▁upon": 1182,
      "www": 1183,
      "▁technologies": 1184,
      "av": 1185,
      "overed": 1186,
      "▁shall": 1187,
      "lus": 1188,
      "▁bun": 1189,
      "ised": 1190,
      "▁ba": 1191,
      "▁comes": 1192,
      "zz": 1193,
      "nut": 1194,
      "▁board": 1195,
      "ied": 1196,
      "▁cha": 1197,
      "ent": 1198,
      "▁sch": 1199,
      "ρ": 1200,
      "▁instit": 1201,
      "oth": 1202,
      "▁payment": 1203,
      "▁cause": 1204,
      "▁reve": 1205,
      "ult": 1206,
      "▁!!!!!!!": 1207,
      "▁may": 1208,
      "▁thous": 1209,
      "▁h": 1210,
      "ument": 1211,
      "ved": 1212,
      "▁growing": 1213,
      "▁poss": 1214,
      "▁teach": 1215,
      "▁service": 1216,
      "▁continu": 1217,
      "he": 1218,
      "orting": 1219,
      "▁exh": 1220,
      "▁th": 1221,
      "▁talk": 1222,
      "▁pop": 1223,
      "▁boat": 1224,
      "▁myself": 1225,
      "▁hors": 1226,
      "▁our": 1227,
      "ever": 1228,
      "▁speci": 1229,
      "▁hor": 1230,
      "▁po": 1231,
      "rou": 1232,
      "½": 1233,
      "▁se": 1234,
      "▁bud": 1235,
      "tile": 1236,
      "▁particip": 1237,
      "▁vs.": 1238,
      "▁way": 1239,
      "▁character": 1240,
      "▁dey": 1241,
      "▁prov": 1242,
      "ington": 1243,
      "▁than": 1244,
      "▁pull": 1245,
      "▁airlin": 1246,
      "if": 1247,
      "lo": 1248,
      "▁pip": 1249,
      "ients": 1250,
      "▁serv": 1251,
      "oice": 1252,
      "▁analys": 1253,
      "agon": 1254,
      "▁sports": 1255,
      "ion": 1256,
      "▁been": 1257,
      "------->": 1258,
      "ny": 1259,
      "tain": 1260,
      "▁ended": 1261,
      "ous": 1262,
      "▁lines": 1263,
      "▁property": 1264,
      "▁gon": 1265,
      "▁expl": 1266,
      "ister": 1267,
      "ced": 1268,
      "ceed": 1269,
      "ails": 1270,
      "▁years": 1271,
      "▁mili": 1272,
      "ade": 1273,
      "▁fan": 1274,
      "3": 1275,
      "▁accept": 1276,
      "bers": 1277,
      "▁activity": 1278,
      "????????????????????????????????": 1279,
      "ids": 1280,
      "tered": 1281,
      "▁becom": 1282,
      "la": 1283,
      "▁end": 1284,
      "ybody": 1285,
      "▁implementation": 1286,
      "eth": 1287,
      "▁today": 1288,
      "▁move": 1289,
      "oint": 1290,
      "▁lady": 1291,
      "▁consum": 1292,
      "imp": 1293,
      "▁innovation": 1294,
      "▁---=": 1295,
      "▁commun": 1296,
      "vement": 1297,
      "▁b/": 1298,
      "▁cloth": 1299,
      "▁num": 1300,
      "▁des": 1301,
      "ograph": 1302,
      "alf": 1303,
      "▁pm": 1304,
      "▁married": 1305,
      "▁organization": 1306,
      "▁sector": 1307,
      ",": 1308,
      "▁tas": 1309,
      "▁mach": 1310,
      "▁course": 1311,
      "▁stuff": 1312,
      "orrow": 1313,
      "▁con": 1314,
      "▁....": 1315,
      "▁watched": 1316,
      "▁cig": 1317,
      "`": 1318,
      "▁goal": 1319,
      "▁deal": 1320,
      "ual": 1321,
      "▁alread": 1322,
      "▁rece": 1323,
      "▁sing": 1324,
      "▁hundreds": 1325,
      "▁cruise": 1326,
      "ism": 1327,
      "ones": 1328,
      "uding": 1329,
      "▁jump": 1330,
      "▁giving": 1331,
      "▁sex": 1332,
      "inging": 1333,
      "▁age": 1334,
      "mate": 1335,
      "▁started": 1336,
      "▁thy": 1337,
      "▁died": 1338,
      "ber": 1339,
      "▁tool": 1340,
      "▁exist": 1341,
      "▁pi": 1342,
      "▁hat": 1343,
      "rested": 1344,
      "▁cre": 1345,
      "eel": 1346,
      "▁knows": 1347,
      "▁adopted": 1348,
      "thers": 1349,
      "▁imagine": 1350,
      "roduction": 1351,
      "ub": 1352,
      "erc": 1353,
      "▁whoever": 1354,
      "igned": 1355,
      "▁rel": 1356,
      "▁another": 1357,
      "▁side": 1358,
      "omm": 1359,
      "▁band": 1360,
      "ates": 1361,
      "ploy": 1362,
      "▁lead": 1363,
      "▁health": 1364,
      "▁magic": 1365,
      "ress": 1366,
      "ug": 1367,
      "▁gun": 1368,
      "▁term": 1369,
      "▁pill": 1370,
      "ners": 1371,
      "▁pulled": 1372,
      "/": 1373,
      "arl": 1374,
      "▁chance": 1375,
      "▁treatment": 1376,
      "▁leg": 1377,
      "▁observed": 1378,
      "elf": 1379,
      "=": 1380,
      "▁did": 1381,
      "dle": 1382,
      "ond": 1383,
      "cess": 1384,
      "▁above": 1385,
      "▁though": 1386,
      "▁la": 1387,
      "llow": 1388,
      "owl": 1389,
      "ei": 1390,
      "▁sec": 1391,
      "▁attention": 1392,
      "▁el": 1393,
      "▁resul": 1394,
      "▁match": 1395,
      "▁already": 1396,
      "▁engine": 1397,
      "▁account": 1398,
      "▁gu": 1399,
      "▁mosqu": 1400,
      "▁weapons": 1401,
      "▁gets": 1402,
      "ist": 1403,
      "▁chang": 1404,
      "▁fund": 1405,
      "▁mo": 1406,
      "▁music": 1407,
      "fri": 1408,
      "▁assoc": 1409,
      "ached": 1410,
      "mentation": 1411,
      "▁”": 1412,
      "▁sun": 1413,
      "▁befor": 1414,
      "ined": 1415,
      "▁k": 1416,
      "ded": 1417,
      "▁dro": 1418,
      "▁snake": 1419,
      "bon": 1420,
      "▁fre": 1421,
      "▁exp": 1422,
      "hether": 1423,
      "▁treat": 1424,
      "esday": 1425,
      "ily": 1426,
      "▁kit": 1427,
      "ames": 1428,
      "▁cro": 1429,
      "▁cere": 1430,
      "elly": 1431,
      "wa": 1432,
      "▁cust": 1433,
      "▁showed": 1434,
      "▁doll": 1435,
      "ʊ": 1436,
      "▁production": 1437,
      "▁tic": 1438,
      "atis": 1439,
      "zer": 1440,
      "▁purch": 1441,
      "anted": 1442,
      "▁comm": 1443,
      "sts": 1444,
      "▁un": 1445,
      "▁ball": 1446,
      "▁stret": 1447,
      "▁surround": 1448,
      "▁says": 1449,
      "▁truck": 1450,
      "▁ser": 1451,
      "▁child": 1452,
      "▁taking": 1453,
      "eck": 1454,
      "▁career": 1455,
      "ta": 1456,
      "▁helped": 1457,
      "▁posted": 1458,
      "umn": 1459,
      "▁stage": 1460,
      "▁stay": 1461,
      "let": 1462,
      "▁dol": 1463,
      "φ": 1464,
      "ternoon": 1465,
      "▁holiday": 1466,
      "un": 1467,
      "▁stand": 1468,
      "p;": 1469,
      "band": 1470,
      "▁minut": 1471,
      "iz": 1472,
      "▁safety": 1473,
      "▁der": 1474,
      "▁sk": 1475,
      "lar": 1476,
      "▁cake": 1477,
      "▁dress": 1478,
      "▁birth": 1479,
      "ength": 1480,
      "▁juice": 1481,
      "▁leaves": 1482,
      "u": 1483,
      "▁web": 1484,
      "▁uses": 1485,
      "▁decisions": 1486,
      "▁relig": 1487,
      "selves": 1488,
      "rax": 1489,
      "▁she": 1490,
      "tice": 1491,
      "▁econom": 1492,
      "▁settlement": 1493,
      "▁looked": 1494,
      "▁car": 1495,
      "▁inj": 1496,
      "▁dwww": 1497,
      "▁butter": 1498,
      "▁contain": 1499,
      "▁opp": 1500,
      "olding": 1501,
      "▁observ": 1502,
      "▁look": 1503,
      "ample": 1504,
      "▁webs": 1505,
      "▁run": 1506,
      "pos": 1507,
      "▁restaur": 1508,
      "▁orig": 1509,
      "olve": 1510,
      "king": 1511,
      "ty": 1512,
      "▁bread": 1513,
      "qui": 1514,
      "▁comments": 1515,
      "▁spoon": 1516,
      "▁occur": 1517,
      "▁this": 1518,
      "me": 1519,
      "orm": 1520,
      "▁de": 1521,
      "▁friday": 1522,
      "▁places": 1523,
      "▁available": 1524,
      "▁|--------+----------------------->": 1525,
      "▁began": 1526,
      "▁two": 1527,
      "▁notwithstanding": 1528,
      "▁ent": 1529,
      "▁bott": 1530,
      "▁respect": 1531,
      "▁hi": 1532,
      "ule": 1533,
      "imb": 1534,
      "▁colle": 1535,
      "▁really": 1536,
      "umb": 1537,
      "▁lim": 1538,
      "▁peoples": 1539,
      "▁temper": 1540,
      "mb": 1541,
      "▁count": 1542,
      "oles": 1543,
      "yed": 1544,
      "▁ships": 1545,
      "▁dep": 1546,
      "----------------": 1547,
      "▁conv": 1548,
      "▁provided": 1549,
      "▁respon": 1550,
      "▁email": 1551,
      "▁bub": 1552,
      "▁employment": 1553,
      "su": 1554,
      "▁same": 1555,
      "▁jelly": 1556,
      "aur": 1557,
      "▁steps": 1558,
      "▁aug": 1559,
      "duc": 1560,
      "t": 1561,
      "▁neither": 1562,
      "gh": 1563,
      "▁served": 1564,
      "▁uh": 1565,
      "▁query": 1566,
      "▁nap": 1567,
      "▁math": 1568,
      "▁pati": 1569,
      "▁track": 1570,
      "▁level": 1571,
      "▁connection": 1572,
      "asts": 1573,
      "les": 1574,
      "▁atlan": 1575,
      "▁wan": 1576,
      "▁few": 1577,
      "▁ke": 1578,
      "▁veget": 1579,
      "▁real": 1580,
      "ide": 1581,
      "▁))": 1582,
      "▁again": 1583,
      "▁blanket": 1584,
      "▁want": 1585,
      "ugg": 1586,
      "▁command": 1587,
      "“": 1588,
      "usion": 1589,
      "▁questions": 1590,
      "▁war": 1591,
      "▁understand": 1592,
      "▁let": 1593,
      "▁placed": 1594,
      "▁rock": 1595,
      "▁artic": 1596,
      "▁ur": 1597,
      "▁rate": 1598,
      "▁reduc": 1599,
      "way": 1600,
      "&": 1601,
      "urned": 1602,
      "▁effect": 1603,
      "ication": 1604,
      "lik": 1605,
      "▁line": 1606,
      "▁sub": 1607,
      "▁disaster": 1608,
      "▁security": 1609,
      "▁siz": 1610,
      "▁worked": 1611,
      "so": 1612,
      "ick": 1613,
      "owers": 1614,
      "▁machine": 1615,
      "▁int": 1616,
      "▁detail": 1617,
      "tive": 1618,
      "▁town": 1619,
      "▁system": 1620,
      "▁pit": 1621,
      "▁mon": 1622,
      "▁pen": 1623,
      "▁hour": 1624,
      "sm": 1625,
      "tw": 1626,
      "▁even": 1627,
      "alist": 1628,
      "▁fri": 1629,
      "▁smo": 1630,
      "▁you": 1631,
      "▁shoe": 1632,
      "▁video": 1633,
      "hic": 1634,
      "▁activities": 1635,
      "▁pencil": 1636,
      "ce": 1637,
      "▁st.": 1638,
      "▁2": 1639,
      "▁depar": 1640,
      "▁hold": 1641,
      "▁=": 1642,
      "ru": 1643,
      "▁key": 1644,
      "rol": 1645,
      "ot": 1646,
      "▁wat": 1647,
      "ecting": 1648,
      "▁madam": 1649,
      "▁bomb": 1650,
      "▁playing": 1651,
      "ired": 1652,
      "p": 1653,
      "▁third": 1654,
      "▁dri": 1655,
      "▁cir": 1656,
      "▁after": 1657,
      "▁anim": 1658,
      "▁kept": 1659,
      "▁spider": 1660,
      "▁world": 1661,
      "▁tummy": 1662,
      "▁plane": 1663,
      "▁te": 1664,
      "▁doub": 1665,
      "▁life": 1666,
      "age": 1667,
      "▁....................": 1668,
      "▁je": 1669,
      "ol": 1670,
      "▁changed": 1671,
      "▁rule": 1672,
      "thin": 1673,
      "▁advant": 1674,
      "▁of": 1675,
      "▁net": 1676,
      "▁apple": 1677,
      "▁star": 1678,
      "▁stopped": 1679,
      "▁charge": 1680,
      "▁product": 1681,
      "▁bush": 1682,
      "▁presence": 1683,
      "▁sli": 1684,
      "▁lost": 1685,
      "uring": 1686,
      "bs": 1687,
      "ocracy": 1688,
      "ribution": 1689,
      "▁chick": 1690,
      "▁cos": 1691,
      "ending": 1692,
      "▁yo": 1693,
      "atives": 1694,
      "▁instance": 1695,
      "▁spoke": 1696,
      "pe": 1697,
      "▁tour": 1698,
      "tc": 1699,
      "▁iod": 1700,
      "▁mind": 1701,
      "▁high": 1702,
      "ony": 1703,
      "▁climate": 1704,
      "ambment": 1705,
      "▁doc": 1706,
      "▁prop": 1707,
      "▁mid": 1708,
      "▁big": 1709,
      "min": 1710,
      "▁proced": 1711,
      "ian": 1712,
      "▁mem": 1713,
      "▁consequ": 1714,
      "▁plus": 1715,
      "▁expected": 1716,
      "een": 1717,
      "hin": 1718,
      "▁expect": 1719,
      "▁advice": 1720,
      "cakes": 1721,
      "ling": 1722,
      "ught": 1723,
      "’s": 1724,
      "▁vac": 1725,
      "▁found": 1726,
      "▁approach": 1727,
      "iving": 1728,
      "▁shows": 1729,
      "▁themselves": 1730,
      "▁build": 1731,
      "▁rates": 1732,
      "▁attr": 1733,
      "amples": 1734,
      "▁article": 1735,
      "▁fingers": 1736,
      "▁islands": 1737,
      "▁|": 1738,
      "▁opened": 1739,
      "▁onto": 1740,
      "▁group": 1741,
      "▁*": 1742,
      "▁atlanta": 1743,
      "▁ago": 1744,
      "▁att": 1745,
      "▁produc": 1746,
      "▁policy": 1747,
      "▁chap": 1748,
      "▁sha": 1749,
      "selve": 1750,
      "▁sitting": 1751,
      "▁----------------------------------------------------------------------": 1752,
      "▁clean": 1753,
      "▁walked": 1754,
      "▁???": 1755,
      "▁chall": 1756,
      "aq": 1757,
      "▁sent": 1758,
      "▁encour": 1759,
      "ł": 1760,
      "ented": 1761,
      "eet": 1762,
      "si": 1763,
      "▁water": 1764,
      "yond": 1765,
      "▁·": 1766,
      "ema": 1767,
      "`s": 1768,
      "▁screen": 1769,
      "▁experien": 1770,
      "berry": 1771,
      "▁flowers": 1772,
      "▁vide": 1773,
      "▁orders": 1774,
      "pp": 1775,
      "le": 1776,
      "▁view": 1777,
      "▁within": 1778,
      "▁univers": 1779,
      "ible": 1780,
      "▁fi": 1781,
      "cha": 1782,
      "ley": 1783,
      "fic": 1784,
      "▁reference": 1785,
      "▁ought": 1786,
      "▁wom": 1787,
      "▁remember": 1788,
      "ia": 1789,
      "▁amid": 1790,
      "▁storm": 1791,
      "▁delivery": 1792,
      "ians": 1793,
      "very": 1794,
      "▁unto": 1795,
      "▁cla": 1796,
      "q": 1797,
      "▁bat": 1798,
      "▁sugg": 1799,
      "▁markets": 1800,
      "▁spring": 1801,
      "ancing": 1802,
      "▁company": 1803,
      "▁terms": 1804,
      "▁degre": 1805,
      "▁benef": 1806,
      "▁def": 1807,
      "▁elements": 1808,
      "ile": 1809,
      "▁development": 1810,
      "▁ste": 1811,
      "▁year": 1812,
      "▁liked": 1813,
      "ried": 1814,
      "▁dose": 1815,
      "▁coffee": 1816,
      "▁mer": 1817,
      "▁del": 1818,
      "▁effects": 1819,
      "isions": 1820,
      "olving": 1821,
      "▁asked": 1822,
      "d": 1823,
      "▁my": 1824,
      "▁d": 1825,
      "ay": 1826,
      "▁,?": 1827,
      "▁indust": 1828,
      "▁beach": 1829,
      "▁spell": 1830,
      "▁tri": 1831,
      "▁journ": 1832,
      "ained": 1833,
      "▁mus": 1834,
      "▁good": 1835,
      "▁loc": 1836,
      "▁counter": 1837,
      "stem": 1838,
      "cc": 1839,
      "▁news": 1840,
      "▁-----------------------------------------------------------------": 1841,
      "▁tro": 1842,
      "▁contact": 1843,
      "ο": 1844,
      "!!!!": 1845,
      "ici": 1846,
      "▁com": 1847,
      "▁tal": 1848,
      "▁aut": 1849,
      "▁components": 1850,
      "▁soil": 1851,
      "▁div": 1852,
      "▁pil": 1853,
      "▁color": 1854,
      "▁t": 1855,
      "▁writ": 1856,
      "▁south": 1857,
      "▁join": 1858,
      "2": 1859,
      "fication": 1860,
      "▁cri": 1861,
      "▁considered": 1862,
      "▁pictures": 1863,
      "▁defense": 1864,
      "otw": 1865,
      "▁pas": 1866,
      "▁changes": 1867,
      "ym": 1868,
      "▁education": 1869,
      "▁til": 1870,
      "ects": 1871,
      "▁allowed": 1872,
      "▁your": 1873,
      "▁countries": 1874,
      "▁sti": 1875,
      "▁sty": 1876,
      "▁gone": 1877,
      "▁chan": 1878,
      "get": 1879,
      "dy": 1880,
      "▁enc": 1881,
      "▁whose": 1882,
      "▁choose": 1883,
      "--": 1884,
      "▁det": 1885,
      "▁critic": 1886,
      "▁offered": 1887,
      "▁=---": 1888,
      "▁stock": 1889,
      "********": 1890,
      "▁hall": 1891,
      "order": 1892,
      "{": 1893,
      "ε": 1894,
      "▁ideas": 1895,
      "▁proposed": 1896,
      "▁gri": 1897,
      "▁gener": 1898,
      "▁tiger": 1899,
      "▁furn": 1900,
      "▁laura": 1901,
      "▁serve": 1902,
      "ergy": 1903,
      "ities": 1904,
      "ters": 1905,
      "▁glass": 1906,
      "▁esc": 1907,
      "▁change": 1908,
      "▁held": 1909,
      "els": 1910,
      "ket": 1911,
      "▁noise": 1912,
      "▁studies": 1913,
      "▁industry": 1914,
      "▁amidst": 1915,
      "ue": 1916,
      "▁downtown": 1917,
      "▁husband": 1918,
      "▁emp": 1919,
      "▁legisl": 1920,
      "▁dance": 1921,
      "▁tr": 1922,
      "▁planning": 1923,
      "▁pred": 1924,
      "▁’’": 1925,
      "▁ext": 1926,
      "▁wind": 1927,
      "▁’m": 1928,
      "anks": 1929,
      "ough": 1930,
      "ls": 1931,
      "▁vol": 1932,
      "0": 1933,
      "▁e-mail": 1934,
      "▁got": 1935,
      "°": 1936,
      "▁who's": 1937,
      "▁lose": 1938,
      "▁************************************************": 1939,
      "▁ev": 1940,
      "+----------------": 1941,
      "▁sandwich": 1942,
      "▁we": 1943,
      "’": 1944,
      "▁momma": 1945,
      "▁en": 1946,
      "▁sort": 1947,
      "▁eng": 1948,
      "▁art": 1949,
      "ject": 1950,
      "os": 1951,
      "uts": 1952,
      "▁gar": 1953,
      "▁conc": 1954,
      "▁sat": 1955,
      "▁airl": 1956,
      "iod": 1957,
      "▁forces": 1958,
      "day": 1959,
      "ate": 1960,
      "amed": 1961,
      "▁pro": 1962,
      "▁enab": 1963,
      "ability": 1964,
      "▁prom": 1965,
      "▁share": 1966,
      "▁create": 1967,
      "▁ou": 1968,
      "▁request": 1969,
      "▁ind": 1970,
      "▁quino": 1971,
      "ne": 1972,
      "▁horsie": 1973,
      "all": 1974,
      "▁mathema": 1975,
      "asing": 1976,
      "ions": 1977,
      "▁air": 1978,
      "▁saf": 1979,
      "ought": 1980,
      "▁sell": 1981,
      "▁es": 1982,
      "▁sym": 1983,
      "k": 1984,
      "▁came": 1985,
      "▁’d": 1986,
      "▁woman": 1987,
      "▁arrived": 1988,
      "▁event": 1989,
      "▁achie": 1990,
      "▁middle": 1991,
      "▁susp": 1992,
      "▁tem": 1993,
      "ort": 1994,
      "▁intel": 1995,
      "▁fem": 1996,
      "za": 1997,
      "▁holding": 1998,
      "▁medic": 1999,
      "▁killed": 2000,
      "▁independence": 2001,
      "▁levels": 2002,
      "▁internet": 2003,
      "▁girls": 2004,
      "▁beauty": 2005,
      "▁hang": 2006,
      "▁`": 2007,
      "▁attem": 2008,
      "orders": 2009,
      "5": 2010,
      "▁anoth": 2011,
      "▁past": 2012,
      "▁miss": 2013,
      "▁reven": 2014,
      "tern": 2015,
      "ring": 2016,
      "▁pres": 2017,
      "**": 2018,
      "▁famili": 2019,
      "ials": 2020,
      "▁cle": 2021,
      "▁governments": 2022,
      "▁pants": 2023,
      "ah": 2024,
      "enti": 2025,
      "ison": 2026,
      "▁wake": 2027,
      "ac": 2028,
      "se": 2029,
      "▁ps": 2030,
      "aled": 2031,
      "sed": 2032,
      "▁spec": 2033,
      "▁staff": 2034,
      "ors": 2035,
      "▁conclu": 2036,
      "ther": 2037,
      "▁happened": 2038,
      "▁access": 2039,
      "▁forms": 2040,
      "▁together": 2041,
      "▁meals": 2042,
      "ad": 2043,
      "uter": 2044,
      "▁refer": 2045,
      "▁atmos": 2046,
      "▁whatever": 2047,
      "ient": 2048,
      "▁novel": 2049,
      "▁liter": 2050,
      "ose": 2051,
      "▁caught": 2052,
      "▁because": 2053,
      "▁go": 2054,
      "▁struc": 2055,
      "▁'m": 2056,
      "▁gall": 2057,
      "tim": 2058,
      "▁doing": 2059,
      "▁arms": 2060,
      "▁takes": 2061,
      "re": 2062,
      "ash": 2063,
      "cri": 2064,
      "ods": 2065,
      "▁!?": 2066,
      "▁list": 2067,
      "▁author": 2068,
      "▁students": 2069,
      "▁species": 2070,
      "▁leader": 2071,
      "▁place": 2072,
      "▁sunday": 2073,
      "l": 2074,
      "ury": 2075,
      "lished": 2076,
      "▁bite": 2077,
      "▁cros": 2078,
      "▁rail": 2079,
      "tics": 2080,
      "▁win": 2081,
      "▁families": 2082,
      "▁front": 2083,
      "▁pressure": 2084,
      "eries": 2085,
      "oph": 2086,
      "ades": 2087,
      "▁characters": 2088,
      "▁culture": 2089,
      "▁ident": 2090,
      "ots": 2091,
      "▁station": 2092,
      "oin": 2093,
      "▁based": 2094,
      "▁nume": 2095,
      "▁rememb": 2096,
      "▁argument": 2097,
      "▁find": 2098,
      "▁supposed": 2099,
      "▁television": 2100,
      "ton": 2101,
      "▁dec": 2102,
      "▁systems": 2103,
      "▁aud": 2104,
      "▁chee": 2105,
      "▁bit": 2106,
      "angu": 2107,
      "art": 2108,
      "▁bet": 2109,
      "aces": 2110,
      "crib": 2111,
      "outh": 2112,
      "▁sour": 2113,
      "▁wh": 2114,
      "to": 2115,
      "pr": 2116,
      "abb": 2117,
      "▁teeth": 2118,
      "uses": 2119,
      "▁filled": 2120,
      "▁fil": 2121,
      "▁doggie": 2122,
      "gan": 2123,
      "▁swee": 2124,
      "▁plays": 2125,
      "▁ref": 2126,
      "▁can": 2127,
      "▁telephone": 2128,
      "▁shorts": 2129,
      "▁yet": 2130,
      "its": 2131,
      "den": 2132,
      "▁tried": 2133,
      "▁&": 2134,
      "lin": 2135,
      "▁choice": 2136,
      "ators": 2137,
      "▁offices": 2138,
      "▁believed": 2139,
      "▁meat": 2140,
      "????????????????": 2141,
      "▁cats": 2142,
      "irst": 2143,
      "▁----==": 2144,
      "▁plants": 2145,
      "▁site": 2146,
      "cause": 2147,
      "▁put": 2148,
      "▁structure": 2149,
      "▁market": 2150,
      "▁muse": 2151,
      "▁shut": 2152,
      "artment": 2153,
      "▁sme": 2154,
      "▁compon": 2155,
      "▁discussion": 2156,
      "▁arrang": 2157,
      "ages": 2158,
      "oke": 2159,
      "rying": 2160,
      "▁asking": 2161,
      "▁imple": 2162,
      "▁parking": 2163,
      "▁cat": 2164,
      "▁different": 2165,
      "pt": 2166,
      "▁toast": 2167,
      "▁guid": 2168,
      "ies": 2169,
      "▁cookies": 2170,
      "▁basil": 2171,
      "▁instead": 2172,
      "▁ca": 2173,
      "▁department": 2174,
      "▁hide": 2175,
      "▁purpos": 2176,
      "▁thre": 2177,
      "ulated": 2178,
      "▁difficul": 2179,
      "▁pe": 2180,
      "▁opposite": 2181,
      "▁som": 2182,
      "▁categ": 2183,
      "stop": 2184,
      "▁solution": 2185,
      "▁drop": 2186,
      "yet": 2187,
      "ibilities": 2188,
      "ld": 2189,
      "▁took": 2190,
      "▁daughter": 2191,
      "▁rev": 2192,
      "++": 2193,
      "▁recomm": 2194,
      "ack": 2195,
      "▁...": 2196,
      "imore": 2197,
      "▁under": 2198,
      "▁test": 2199,
      "▁letters": 2200,
      "▁fill": 2201,
      "▁curr": 2202,
      "ished": 2203,
      "struc": 2204,
      "▁rob": 2205,
      "uled": 2206,
      "▁without": 2207,
      "▁plate": 2208,
      "▁writer": 2209,
      "▁bi": 2210,
      "gation": 2211,
      "▁anthrax": 2212,
      "▁windows": 2213,
      "▁along": 2214,
      "▁visited": 2215,
      "pers": 2216,
      "▁tax": 2217,
      "▁clothing": 2218,
      "gin": 2219,
      "▁done": 2220,
      "▁address": 2221,
      "town": 2222,
      "▁wheel": 2223,
      "em": 2224,
      "▁question": 2225,
      "%": 2226,
      "▁hea": 2227,
      "ver": 2228,
      "ye": 2229,
      "▁king": 2230,
      "ender": 2231,
      "fer": 2232,
      "▁li": 2233,
      "temp": 2234,
      "aith": 2235,
      "▁pic": 2236,
      "▁report": 2237,
      "▁performance": 2238,
      "▁me": 2239,
      "ina": 2240,
      "▁garden": 2241,
      "▁id": 2242,
      "▁looking": 2243,
      "io": 2244,
      "ink": 2245,
      "▁weap": 2246,
      "▁court": 2247,
      "▁stat": 2248,
      "▁somebody": 2249,
      "led": 2250,
      "gu": 2251,
      "▁princ": 2252,
      "ted": 2253,
      "isl": 2254,
      "▁ign": 2255,
      "▁putting": 2256,
      "▁programme": 2257,
      "▁cover": 2258,
      "over": 2259,
      "8": 2260,
      "▁cow": 2261,
      "▁sect": 2262,
      "aging": 2263,
      "▁each": 2264,
      "sus": 2265,
      "▁reported": 2266,
      "▁wor": 2267,
      "▁stop": 2268,
      "▁missed": 2269,
      "ume": 2270,
      "▁euro": 2271,
      "▁conflict": 2272,
      "▁home": 2273,
      "gre": 2274,
      "▁poli": 2275,
      "▁suggest": 2276,
      "ligence": 2277,
      "▁fam": 2278,
      "▁uhhuh": 2279,
      "ws": 2280,
      "▁such": 2281,
      "▁cup": 2282,
      "▁given": 2283,
      "▁lives": 2284,
      "gether": 2285,
      "▁behavi": 2286,
      "▁parties": 2287,
      "▁mother": 2288,
      "---------------": 2289,
      "▁itself": 2290,
      "mitted": 2291,
      "****": 2292,
      "▁costs": 2293,
      "▁suc": 2294,
      "ness": 2295,
      "oney": 2296,
      "ution": 2297,
      ">": 2298,
      "at": 2299,
      "▁still": 2300,
      "▁reg": 2301,
      "▁turn": 2302,
      "▁bear": 2303,
      "▁value": 2304,
      "▁fax": 2305,
      "▁var": 2306,
      "mer": 2307,
      "▁writing": 2308,
      "▁jo": 2309,
      "▁yourself": 2310,
      "iqu": 2311,
      "▁alt": 2312,
      "▁ord": 2313,
      "iture": 2314,
      "▁decl": 2315,
      "atures": 2316,
      "adel": 2317,
      "’t": 2318,
      "▁mic": 2319,
      "▁man": 2320,
      "▁parliament": 2321,
      "▁carrying": 2322,
      "▁books": 2323,
      "▁!!": 2324,
      "▁inf": 2325,
      "▁anal": 2326,
      "▁agreed": 2327,
      "▁flights": 2328,
      "▁death": 2329,
      "▁much": 2330,
      "▁meant": 2331,
      "▁besides": 2332,
      "▁franc": 2333,
      "▁ins": 2334,
      "ka": 2335,
      "▁vote": 2336,
      "lief": 2337,
      "low": 2338,
      "pite": 2339,
      "▁meeting": 2340,
      "▁suicide": 2341,
      "▁rest": 2342,
      "-------": 2343,
      "▁force": 2344,
      "ices": 2345,
      "▁charl": 2346,
      "▁atmosphere": 2347,
      "▁back": 2348,
      "tor": 2349,
      "▁from": 2350,
      "▁lots": 2351,
      "▁words": 2352,
      "▁seat": 2353,
      "▁cart": 2354,
      "bo": 2355,
      "▁remembered": 2356,
      "ino": 2357,
      "▁road": 2358,
      "▁bill": 2359,
      "▁fir": 2360,
      "▁moving": 2361,
      "vers": 2362,
      "▁mentioned": 2363,
      "▁website": 2364,
      "[PAD]": 2365,
      "▁argu": 2366,
      "▁thanks": 2367,
      "des": 2368,
      "ych": 2369,
      "rated": 2370,
      "▁adop": 2371,
      "▁information": 2372,
      "iding": 2373,
      "op": 2374,
      "ck": 2375,
      "▁had": 2376,
      "▁1": 2377,
      "▁attack": 2378,
      "ach": 2379,
      "lity": 2380,
      "▁theirs": 2381,
      "ust": 2382,
      "•": 2383,
      "▁process": 2384,
      "iation": 2385,
      "▁coup": 2386,
      "▁amb": 2387,
      "gr": 2388,
      "▁between": 2389,
      "orted": 2390,
      "▁great": 2391,
      "▁photograph": 2392,
      "▁long": 2393,
      "▁lay": 2394,
      "orts": 2395,
      "▁provide": 2396,
      "▁freedom": 2397,
      "tit": 2398,
      "▁competition": 2399,
      "▁philadelphia": 2400,
      "▁exper": 2401,
      "▁including": 2402,
      "ment": 2403,
      "▁democracy": 2404,
      "ected": 2405,
      "ining": 2406,
      "▁has": 2407,
      "ission": 2408,
      "▁woud": 2409,
      "aper": 2410,
      "▁`s": 2411,
      "^": 2412,
      "▁pa": 2413,
      "ice": 2414,
      "▁feel": 2415,
      "▁feet": 2416,
      "▁nor": 2417,
      "▁metal": 2418,
      "▁'s": 2419,
      "▁sy": 2420,
      "▁generation": 2421,
      "ct": 2422,
      "▁theory": 2423,
      "ply": 2424,
      "▁ass": 2425,
      "▁location": 2426,
      "▁ye": 2427,
      "sing": 2428,
      "▁also": 2429,
      "actions": 2430,
      "anding": 2431,
      "ow": 2432,
      "ics": 2433,
      "▁re": 2434,
      "nt": 2435,
      "▁camp": 2436,
      "ified": 2437,
      "▁type": 2438,
      "au": 2439,
      "▁happens": 2440,
      "▁thou": 2441,
      "▁require": 2442,
      "▁francisco": 2443,
      "▁enjo": 2444,
      "▁december": 2445,
      "▁ex": 2446,
      "hold": 2447,
      "▁population": 2448,
      "ore": 2449,
      "ron": 2450,
      "▁laws": 2451,
      "▁mod": 2452,
      "ut": 2453,
      "▁pittsburgh": 2454,
      "▁wash": 2455,
      "▁da": 2456,
      "▁swww": 2457,
      "▁yourselves": 2458,
      "▁rent": 2459,
      "▁ju": 2460,
      "▁bas": 2461,
      "▁get": 2462,
      "oll": 2463,
      "ʒ": 2464,
      "▁hole": 2465,
      "▁into": 2466,
      "▁‘": 2467,
      "▁civ": 2468,
      "▁l": 2469,
      "▁store": 2470,
      "0s": 2471,
      "▁puppy": 2472,
      "iew": 2473,
      "▁follow": 2474,
      "▁reserv": 2475,
      "▁insur": 2476,
      "▁dallas": 2477,
      "▁most": 2478,
      "▁duck": 2479,
      "▁method": 2480,
      "▁church": 2481,
      "▁creation": 2482,
      "▁mech": 2483,
      "▁creating": 2484,
      "ival": 2485,
      "▁coun": 2486,
      "▁dogs": 2487,
      "▁ate": 2488,
      "iled": 2489,
      "▁surface": 2490,
      "▁cook": 2491,
      "▁addition": 2492,
      "▁circ": 2493,
      "▁cream": 2494,
      "enc": 2495,
      "own": 2496,
      "atch": 2497,
      "▁s": 2498,
      "▁pay": 2499,
      "▁bridge": 2500,
      "▁went": 2501,
      "und": 2502,
      "▁search": 2503,
      "9": 2504,
      "acter": 2505,
      "==": 2506,
      "uty": 2507,
      "▁obt": 2508,
      "til": 2509,
      "ch": 2510,
      "▁rules": 2511,
      "ression": 2512,
      "ω": 2513,
      "osing": 2514,
      "▁released": 2515,
      "ying": 2516,
      "/he": 2517,
      "▁admin": 2518,
      "▁ris": 2519,
      "▁tou": 2520,
      "▁bug": 2521,
      "▁paper": 2522,
      "ases": 2523,
      "▁agreement": 2524,
      "▁din": 2525,
      "▁dis": 2526,
      "▁them": 2527,
      "▁poin": 2528,
      "▁finish": 2529,
      "▁these": 2530,
      "▁tea": 2531,
      "▁v": 2532,
      "▁<": 2533,
      "▁soldiers": 2534,
      "▁try": 2535,
      "ivers": 2536,
      "▁nation": 2537,
      "▁noticed": 2538,
      "ulation": 2539,
      "▁either": 2540,
      "▁discuss": 2541,
      "▁dem": 2542,
      "iction": 2543,
      "▁reading": 2544,
      "kets": 2545,
      "▁recommend": 2546,
      "▁san": 2547,
      ")": 2548,
      "▁ensure": 2549,
      "formed": 2550,
      "ection": 2551,
      "kes": 2552,
      "stances": 2553,
      "▁jud": 2554,
      "▁exec": 2555,
      "ouch": 2556,
      "▁fix": 2557,
      "▁concept": 2558,
      "▁audience": 2559,
      "▁card": 2560,
      "ounts": 2561,
      "▁discus": 2562,
      "▁pot": 2563,
      "ries": 2564,
      "▁schol": 2565,
      "▁cost": 2566,
      "▁ro": 2567,
      "esting": 2568,
      "earance": 2569,
      "other": 2570,
      "▁minute": 2571,
      "▁tech": 2572,
      "▁send": 2573,
      "▁minus": 2574,
      "▁impro": 2575,
      "▁wo": 2576,
      "▁inclu": 2577,
      "▁egg": 2578,
      "▁faith": 2579,
      "▁begin": 2580,
      "▁below": 2581,
      "gy": 2582,
      "▁beside": 2583,
      "▁rice": 2584,
      "per": 2585,
      "▁fun": 2586,
      "▁sit": 2587,
      "▁appear": 2588,
      "▁second": 2589,
      "▁july": 2590,
      "▁inst": 2591,
      "▁services": 2592,
      "itch": 2593,
      "▁emb": 2594,
      "~": 2595,
      "uh": 2596,
      "▁displ": 2597,
      "▁proper": 2598,
      "▁pros": 2599,
      "-": 2600,
      "▁talking": 2601,
      "▁prep": 2602,
      "▁knew": 2603,
      "ato": 2604,
      "ithstanding": 2605,
      "▁remain": 2606,
      "▁na": 2607,
      "▁makes": 2608,
      "▁visit": 2609,
      "▁issu": 2610,
      "▁plans": 2611,
      "vel": 2612,
      "▁save": 2613,
      "▁apart": 2614,
      "qu": 2615,
      "li": 2616,
      "▁tree": 2617,
      "1": 2618,
      "▁isl": 2619,
      "▁officials": 2620,
      "▁return": 2621,
      "iff": 2622,
      "▁customers": 2623,
      "ik": 2624,
      "▁par": 2625,
      "ock": 2626,
      "out": 2627,
      "▁guar": 2628,
      "▁piece": 2629,
      "!!!": 2630,
      "▁regar": 2631,
      "▁yesterday": 2632,
      "▁notice": 2633,
      "▁appearance": 2634,
      "board": 2635,
      "▁only": 2636,
      "gle": 2637,
      "▁hav": 2638,
      "▁improve": 2639,
      "enting": 2640,
      "▁ques": 2641,
      "▁behin": 2642,
      "▁forth": 2643,
      "aded": 2644,
      "▁ahead": 2645,
      "▁quite": 2646,
      "ords": 2647,
      "▁ability": 2648,
      "▁uncle": 2649,
      "▁office": 2650,
      "my": 2651,
      "tee": 2652,
      "side": 2653,
      "og": 2654,
      "▁speaking": 2655,
      "▁summer": 2656,
      "▁n’t": 2657,
      "▁apartment": 2658,
      "▁anybody": 2659,
      "▁_______": 2660,
      "ner": 2661,
      "▁carried": 2662,
      "▁emer": 2663,
      "▁sho": 2664,
      "▁bee": 2665,
      "af": 2666,
      "▁scale": 2667,
      "▁grew": 2668,
      "ises": 2669,
      "▁qu": 2670,
      "ticip": 2671,
      "▁manner": 2672,
      "ra": 2673,
      "ching": 2674,
      "eng": 2675,
      "▁?!": 2676,
      "▁---": 2677,
      "▁import": 2678,
      "▁ren": 2679,
      "▁meaning": 2680,
      "ger": 2681,
      "▁chees": 2682,
      "ong": 2683,
      "▁propos": 2684,
      "▁swe": 2685,
      "▁community": 2686,
      "▁guy": 2687,
      "▁having": 2688,
      "aign": 2689,
      "phere": 2690,
      "▁ants": 2691,
      "y": 2692,
      "▁bedroom": 2693,
      "cent": 2694,
      "ont": 2695,
      "▁eye": 2696,
      "▁cor": 2697,
      "ues": 2698,
      "▁see": 2699,
      "▁hos": 2700,
      "en": 2701,
      "tors": 2702,
      "▁like": 2703,
      "ou": 2704,
      "▁ben": 2705,
      "▁all": 2706,
      "▁alongside": 2707,
      "▁story": 2708,
      "▁-----------------": 2709,
      "▁,": 2710,
      "▁november": 2711,
      "igh": 2712,
      "▁languages": 2713,
      "▁visa": 2714,
      "▁inter": 2715,
      "ath": 2716,
      "▁environ": 2717,
      "ool": 2718,
      "▁president": 2719,
      "--------------------------------": 2720,
      "eti": 2721,
      "▁shape": 2722,
      "▁breath": 2723,
      "or": 2724,
      "▁ai": 2725,
      "▁series": 2726,
      "nd": 2727,
      "▁deter": 2728,
      "ude": 2729,
      "▁?": 2730,
      "▁meal": 2731,
      "ists": 2732,
      "ements": 2733,
      "▁note": 2734,
      "▁won": 2735,
      "▁techn": 2736,
      "▁pri": 2737,
      "▁effort": 2738,
      "ll": 2739,
      "▁belon": 2740,
      "▁option": 2741,
      "aster": 2742,
      "▁police": 2743,
      "▁response": 2744,
      "hip": 2745,
      "______": 2746,
      "▁where": 2747,
      "▁never": 2748,
      "ati": 2749,
      "ex": 2750,
      "▁the": 2751,
      "▁consid": 2752,
      "ration": 2753,
      "▁rad": 2754,
      "▁located": 2755,
      "▁bom": 2756,
      "▁himself": 2757,
      "▁eggs": 2758,
      "▁balt": 2759,
      "▁sw": 2760,
      "▁200": 2761,
      "room": 2762,
      "▁dinner": 2763,
      "alt": 2764,
      "▁record": 2765,
      "▁sales": 2766,
      "▁mi": 2767,
      "ept": 2768,
      "▁love": 2769,
      "urs": 2770,
      "▁land": 2771,
      "▁names": 2772,
      "▁behind": 2773,
      "▁training": 2774,
      "ilos": 2775,
      "▁dad": 2776,
      "▁ide": 2777,
      "▁fin": 2778,
      "▁resp": 2779,
      "▁amend": 2780,
      "▁spent": 2781,
      "▁preven": 2782,
      "ills": 2783,
      "▁loan": 2784,
      "▁>": 2785,
      "▁pre": 2786,
      "▁focus": 2787,
      "▁underneath": 2788,
      "ause": 2789,
      "ugh": 2790,
      "▁thank": 2791,
      "aft": 2792,
      "▁manager": 2793,
      "▁eff": 2794,
      "▁believe": 2795,
      "▁technology": 2796,
      "▁crack": 2797,
      "▁morn": 2798,
      "▁failed": 2799,
      "▁facts": 2800,
      "▁reasons": 2801,
      "▁travel": 2802,
      "e": 2803,
      "▁arm": 2804,
      "▁seek": 2805,
      "ud": 2806,
      "▁wit": 2807,
      "derst": 2808,
      "▁island": 2809,
      "▁tape": 2810,
      "▁media": 2811,
      "▁lo": 2812,
      "▁luck": 2813,
      "▁tu": 2814,
      "▁spe": 2815,
      "ware": 2816,
      "▁make": 2817,
      "▁writers": 2818,
      "isation": 2819,
      "▁an": 2820,
      "—": 2821,
      "▁table": 2822,
      "br": 2823,
      "ark": 2824,
      "▁opinion": 2825,
      "▁trouble": 2826,
      "▁non": 2827,
      "ili": 2828,
      "▁section": 2829,
      "uff": 2830,
      "▁goes": 2831,
      "olog": 2832,
      "ers": 2833,
      "▁roll": 2834,
      "▁cycle": 2835,
      "▁transport": 2836,
      "fare": 2837,
      "oned": 2838,
      "unch": 2839,
      "▁temperature": 2840,
      "▁describ": 2841,
      "ows": 2842,
      "▁prin": 2843,
      "▁participants": 2844,
      "▁!!!!!!!!!!": 2845,
      "▁pushed": 2846,
      "▁york": 2847,
      "isted": 2848,
      "▁june": 2849,
      "oul": 2850,
      "▁res": 2851,
      "▁government": 2852,
      "gg": 2853,
      "▁adv": 2854,
      "raph": 2855,
      "duction": 2856,
      "▁tie": 2857,
      "▁military": 2858,
      "▁fell": 2859,
      "▁while": 2860,
      "▁gard": 2861,
      "▁seems": 2862,
      "anges": 2863,
      "port": 2864,
      "▁paid": 2865,
      "▁her": 2866,
      "res": 2867,
      "▁mag": 2868,
      "­": 2869,
      "▁ones": 2870,
      "▁challen": 2871,
      "▁hand": 2872,
      "▁am": 2873,
      "▁respond": 2874,
      "isd": 2875,
      "▁menu": 2876,
      "like": 2877,
      "▁someone": 2878,
      "▁develop": 2879,
      "▁----": 2880,
      "▁ship": 2881,
      "oup": 2882,
      "chen": 2883,
      "▁sold": 2884,
      "w": 2885,
      "ific": 2886,
      "▁efforts": 2887,
      "▁half": 2888,
      "▁sea": 2889,
      "▁throw": 2890,
      "▁dog": 2891,
      "▁mix": 2892,
      "▁when": 2893,
      "sul": 2894,
      "ature": 2895,
      "▁...............": 2896,
      "♥": 2897,
      "▁concl": 2898,
      "irt": 2899,
      "▁care": 2900,
      "▁hit": 2901,
      "▁snow": 2902,
      "▁eyes": 2903,
      "▁bar": 2904,
      "▁serves": 2905,
      "▁beyond": 2906,
      "▁str": 2907,
      "▁cases": 2908,
      "ail": 2909,
      "lication": 2910,
      "▁offic": 2911,
      "▁airlines": 2912,
      "º": 2913,
      "▁wee": 2914,
      "▁peace": 2915,
      "▁litt": 2916,
      "▁bike": 2917,
      "rel": 2918,
      "▁insp": 2919,
      "▁camera": 2920,
      "▁organ": 2921,
      "▁cereal": 2922,
      "▁b": 2923,
      "β": 2924,
      "ering": 2925,
      "▁le": 2926,
      "ision": 2927,
      "▁?!?": 2928,
      "▁conn": 2929,
      "▁gave": 2930,
      "▁trans": 2931,
      "ɔ": 2932,
      "▁expos": 2933,
      "ze": 2934,
      "▁n't": 2935,
      "▁item": 2936,
      "▁one": 2937,
      "izing": 2938,
      "+": 2939,
      ";": 2940,
      "▁repres": 2941,
      "!": 2942,
      "▁happ": 2943,
      "ss": 2944,
      "▁bed": 2945,
      "▁wall": 2946,
      "▁chec": 2947,
      "▁chocol": 2948,
      "ien": 2949,
      "▁sus": 2950,
      "oc": 2951,
      "▁sup": 2952,
      "▁subject": 2953,
      "▁laugh": 2954,
      "▁estim": 2955,
      "▁fol": 2956,
      "]": 2957,
      "▁drink": 2958,
      "▁colleag": 2959,
      "▁obs": 2960,
      "ing": 2961,
      "▁through": 2962,
      "ole": 2963,
      "ruc": 2964,
      "▁trave": 2965,
      "▁heat": 2966,
      "▁bos": 2967,
      "▁very": 2968,
      "▁ar": 2969,
      "▁hurt": 2970,
      "▁joke": 2971,
      "▁oper": 2972,
      "▁gen": 2973,
      "place": 2974,
      "▁aboard": 2975,
      "wor": 2976,
      "ycle": 2977,
      "▁em": 2978,
      "aged": 2979,
      "▁part": 2980,
      "py": 2981,
      "ines": 2982,
      "▁press": 2983,
      "ai": 2984,
      "▁ans": 2985,
      "▁groups": 2986,
      "▁committee": 2987,
      "▁coord": 2988,
      "▁**********": 2989,
      "▁sur": 2990,
      "▁beg": 2991,
      "▁--": 2992,
      "▁damage": 2993,
      "ome": 2994,
      "x": 2995,
      "▁friend": 2996,
      "ace": 2997,
      "▁mur": 2998,
      "▁decades": 2999,
      "ked": 3000,
      "▁student": 3001,
      "▁thinking": 3002,
      "▁living": 3003,
      "▁traffic": 3004,
      "▁gir": 3005,
      "▁dogg": 3006,
      "▁identi": 3007,
      "ɛ": 3008,
      "▁arr": 3009,
      "▁check": 3010,
      "▁those": 3011,
      "▁includes": 3012,
      "▁produce": 3013,
      "▁document": 3014,
      "be": 3015,
      "ound": 3016,
      "ident": 3017,
      "▁rub": 3018,
      "eted": 3019,
      "omp": 3020,
      "▁growth": 3021,
      "▁restric": 3022,
      "▁give": 3023,
      "vision": 3024,
      "▁kind": 3025,
      "▁forwar": 3026,
      "▁secon": 3027,
      "▁mist": 3028,
      "▁favor": 3029,
      "▁elect": 3030,
      "▁bro": 3031,
      "air": 3032,
      "▁**": 3033,
      "m": 3034,
      "red": 3035,
      "▁database": 3036,
      "▁fro": 3037,
      "▁trade": 3038,
      "▁attend": 3039,
      "lions": 3040,
      "▁lic": 3041,
      "▁mail": 3042,
      "▁running": 3043,
      "man": 3044,
      "▁published": 3045,
      "▁states": 3046,
      "ashington": 3047,
      "ity": 3048,
      "eration": 3049,
      "▁dre": 3050,
      "ession": 3051,
      "▁don": 3052,
      "▁wil": 3053,
      "mos": 3054,
      "▁mummy": 3055,
      "lem": 3056,
      "▁oak": 3057,
      "▁sa": 3058,
      "▁state": 3059,
      "▁walk": 3060,
      "▁mechan": 3061,
      "▁continue": 3062,
      "'t": 3063,
      "▁beh": 3064,
      "▁relations": 3065,
      ".d": 3066,
      "alu": 3067,
      "▁knoc": 3068,
      "▁actions": 3069,
      "▁percent": 3070,
      "j": 3071,
      "nesday": 3072,
      "▁ac": 3073,
      "▁risk": 3074,
      "▁tank": 3075,
      "▁cris": 3076,
      "▁bo": 3077,
      "pped": 3078,
      "ret": 3079,
      "▁(": 3080,
      "▁sn": 3081,
      "▁princip": 3082,
      "▁column": 3083,
      "ir": 3084,
      "row": 3085,
      "▁sign": 3086,
      "▁enter": 3087,
      "▁individ": 3088,
      "▁foods": 3089,
      "▁ed": 3090,
      "ur": 3091,
      "▁surprise": 3092,
      "ott": 3093,
      "▁is": 3094,
      "▁working": 3095,
      "▁++++": 3096,
      "▁boxes": 3097,
      "lu": 3098,
      "▁types": 3099,
      "▁fac": 3100,
      "▁est": 3101,
      "▁bulld": 3102,
      "resent": 3103,
      "▁st": 3104,
      "et": 3105,
      "▁piv": 3106,
      "▁notic": 3107,
      "▁equ": 3108,
      "▁caused": 3109,
      "▁pat": 3110,
      "ored": 3111,
      "▁demonstr": 3112,
      "▁requirements": 3113,
      "▁review": 3114,
      "▁matter": 3115,
      "jo": 3116,
      "itled": 3117,
      "▁counterparty": 3118,
      "ding": 3119,
      "▁trip": 3120,
      "▁:": 3121,
      "▁towards": 3122,
      "▁wr": 3123,
      "▁banana": 3124,
      "▁fl": 3125,
      "▁chocolate": 3126,
      "▁player": 3127,
      "▁or": 3128,
      "▁dollars": 3129,
      "▁butt": 3130,
      "mes": 3131,
      "▁claim": 3132,
      "▁init": 3133,
      "▁constit": 3134,
      "▁er": 3135,
      "▁arti": 3136,
      "▁treated": 3137,
      "ered": 3138,
      "▁college": 3139,
      "▁catch": 3140,
      "▁climb": 3141,
      "▁arch": 3142,
      "▁ep": 3143,
      "▁material": 3144,
      "ms": 3145,
      "tures": 3146,
      "cro": 3147,
      "▁___________": 3148,
      "tride": 3149,
      "▁horses": 3150,
      "▁cheap": 3151,
      "aring": 3152,
      "▁design": 3153,
      "▁-----------------------------------------------------------------------": 3154,
      "ighb": 3155,
      "▁mos": 3156,
      "▁haf": 3157,
      "whether": 3158,
      "on": 3159,
      "▁till": 3160,
      "alk": 3161,
      "key": 3162,
      "▁for": 3163,
      "▁result": 3164,
      "▁bottom": 3165,
      "▁enjambment": 3166,
      "▁coff": 3167,
      "▁speak": 3168,
      "▁.!": 3169,
      "▁lunch": 3170,
      "▁mathematics": 3171,
      "▁protection": 3172,
      "▁right": 3173,
      "▁!!!!!!!!!!!!!": 3174,
      "▁": 3175,
      "▁sh": 3176,
      "▁min": 3177,
      "▁cities": 3178,
      "▁mrs": 3179,
      "read": 3180,
      "▁model": 3181,
      "#": 3182,
      "▁do": 3183,
      "▁hum": 3184,
      "▁vers": 3185,
      "▁loved": 3186,
      "▁fut": 3187,
      "▁poet": 3188,
      "▁assu": 3189,
      "▁pages": 3190,
      "▁ter": 3191,
      "▁finding": 3192,
      "self": 3193,
      "▁how": 3194,
      "▁forgot": 3195,
      "ands": 3196,
      "▁mot": 3197,
      "▁boom": 3198,
      "omet": 3199,
      "▁accident": 3200,
      "acy": 3201,
      "▁events": 3202,
      "▁circle": 3203,
      "alth": 3204,
      "▁base": 3205,
      "use": 3206,
      "▁settle": 3207,
      "▁discussed": 3208,
      "tic": 3209,
      "ap": 3210,
      "▁daddy": 3211,
      "▁price": 3212,
      "▁deb": 3213,
      "▁rem": 3214,
      "▁comed": 3215,
      "▁leave": 3216,
      "▁soldi": 3217,
      "▁<<": 3218,
      "▁pup": 3219,
      "▁blan": 3220,
      "▁pour": 3221,
      "▁gi": 3222,
      "▁institutions": 3223,
      "▁practice": 3224,
      "▁fire": 3225,
      "▁experi": 3226,
      "▁-------------------------------------------------": 3227,
      "▁draft": 3228,
      "ish": 3229,
      "▁trou": 3230,
      "▁fight": 3231,
      "▁mistake": 3232,
      "ains": 3233,
      "▁dese": 3234,
      "g": 3235,
      "▁provides": 3236,
      "▁title": 3237,
      "▁us": 3238,
      "▁arrives": 3239,
      "ax": 3240,
      "▁environment": 3241,
      "light": 3242,
      "▁resour": 3243,
      "▁bottle": 3244,
      "▁close": 3245,
      "▁kitt": 3246,
      "▁ta": 3247,
      "ories": 3248,
      "▁imag": 3249,
      "▁!!!!!!": 3250,
      "▁bab": 3251,
      "▁bir": 3252,
      "ault": 3253,
      "▁offer": 3254,
      "▁fall": 3255,
      "▁means": 3256,
      "▁success": 3257,
      "ie": 3258,
      "▁birds": 3259,
      "ov": 3260,
      "▁fit": 3261,
      "owed": 3262,
      "▁data": 3263,
      "▁labor": 3264,
      "▁e-m": 3265,
      "▁'": 3266,
      "ø": 3267,
      "▁play": 3268,
      "▁its": 3269,
      "▁murder": 3270,
      "bur": 3271,
      "▁used": 3272,
      "rib": 3273,
      "▁self": 3274,
      "eared": 3275,
      "yst": 3276,
      "mal": 3277,
      "▁astride": 3278,
      "▁made": 3279,
      "▁owners": 3280,
      "▁repl": 3281,
      "idents": 3282,
      "▁area": 3283,
      "▁cru": 3284,
      "▁dust": 3285,
      "ious": 3286,
      "est": 3287,
      "▁decide": 3288,
      "▁rabbit": 3289,
      "▁maint": 3290,
      "ˈ": 3291,
      "zation": 3292,
      "▁reports": 3293,
      "▁sol": 3294,
      "▁off": 3295,
      "▁mouth": 3296,
      "▁users": 3297,
      "▁ban": 3298,
      "▁energy": 3299,
      "ff": 3300,
      "▁saturday": 3301,
      "lan": 3302,
      "ke": 3303,
      "▁ag": 3304,
      "▁light": 3305,
      "ite": 3306,
      "acket": 3307,
      "▁datab": 3308,
      "work": 3309,
      "▁keeping": 3310,
      "ere": 3311,
      "▁hours": 3312,
      "aced": 3313,
      "▁{": 3314,
      "▁und": 3315,
      "▁step": 3316,
      "ording": 3317,
      "ook": 3318,
      "▁exc": 3319,
      "▁unlike": 3320,
      "app": 3321,
      "▁walking": 3322,
      "ital": 3323,
      "▁sky": 3324,
      "▁dark": 3325,
      "nec": 3326,
      "▁yours": 3327,
      "▁bea": 3328,
      "ents": 3329,
      "▁need": 3330,
      "▁betw": 3331,
      "▁vi": 3332,
      "roduc": 3333,
      "ority": 3334,
      "anded": 3335,
      "▁out": 3336,
      "▁other": 3337,
      "▁telling": 3338,
      "▁lot": 3339,
      "▁arriving": 3340,
      "▁covered": 3341,
      "▁af": 3342,
      "▁r": 3343,
      "▁cards": 3344,
      "▁mad": 3345,
      "▁cab": 3346,
      "▁imm": 3347,
      "ception": 3348,
      "▁ya": 3349,
      "▁scen": 3350,
      "▁proce": 3351,
      "▁flying": 3352,
      "▁requ": 3353,
      "jects": 3354,
      "▁fe": 3355,
      "▁gre": 3356,
      "▁wrote": 3357,
      "▁september": 3358,
      "▁version": 3359,
      "·": 3360,
      "▁educ": 3361,
      "▁turning": 3362,
      "ional": 3363,
      "▁fear": 3364,
      "ha": 3365,
      "[": 3366,
      "ince": 3367,
      "▁field": 3368,
      "▁pack": 3369,
      "▁aspects": 3370,
      "▁tell": 3371,
      "▁flight": 3372,
      "▁analysis": 3373,
      "**********************************": 3374,
      "nding": 3375,
      "ating": 3376,
      "▁app": 3377,
      "ave": 3378,
      "▁attemp": 3379,
      "▁too": 3380,
      "▁aircraft": 3381,
      "cing": 3382,
      "lights": 3383,
      "▁pos": 3384,
      "(": 3385,
      "al": 3386,
      "▁buildings": 3387,
      "▁cheese": 3388,
      "▁block": 3389,
      "▁barn": 3390,
      "ologies": 3391,
      "▁americ": 3392,
      "▁dinosaur": 3393,
      "ial": 3394,
      "▁touch": 3395,
      "ended": 3396,
      "▁cowboy": 3397,
      "▁set": 3398,
      "▁horse": 3399,
      "outs": 3400,
      "▁rain": 3401,
      "▁established": 3402,
      "▁statement": 3403,
      "▁inc": 3404,
      "▁string": 3405,
      "▁required": 3406,
      "acts": 3407,
      "▁coast": 3408,
      "eg": 3409,
      "ulture": 3410,
      "wh": 3411,
      "▁commit": 3412,
      "ozer": 3413,
      "▁region": 3414,
      "here": 3415,
      "▁meet": 3416,
      "▁team": 3417,
      "utation": 3418,
      "▁be": 3419,
      "inc": 3420,
      "▁camer": 3421,
      "action": 3422,
      "▁mention": 3423,
      "ab": 3424,
      "ointment": 3425,
      "ons": 3426,
      "ren": 3427,
      "▁city": 3428,
      "▁monday": 3429,
      "▁sto": 3430,
      "▁~": 3431,
      "▁case": 3432,
      "▁via": 3433,
      "▁signed": 3434,
      "▁intended": 3435,
      "ette": 3436,
      "▁round": 3437,
      "orth": 3438,
      "▁months": 3439,
      "▁language": 3440,
      "▁push": 3441,
      "▁products": 3442,
      "▁foc": 3443,
      "▁spir": 3444,
      "▁it's": 3445,
      "▁thing": 3446,
      "▁more": 3447,
      "▁super": 3448,
      "4": 3449,
      "ctions": 3450,
      "▁research": 3451,
      "otes": 3452,
      "▁morning": 3453,
      "ator": 3454,
      "▁mil": 3455,
      "▁maj": 3456,
      "▁quar": 3457,
      "▁garage": 3458,
      "▁up": 3459,
      "▁gold": 3460,
      "▁tw": 3461,
      "▁.?": 3462,
      "▁take": 3463,
      "ush": 3464,
      "▁sum": 3465,
      "▁fares": 3466,
      "▁intern": 3467,
      "ign": 3468,
      "7": 3469,
      "▁desk": 3470,
      "▁program": 3471,
      "▁film": 3472,
      "tives": 3473,
      "▁invest": 3474,
      "▁phil": 3475,
      "▁!!!!!!!!!!!!!!!!!!!": 3476,
      "▁object": 3477,
      "▁then": 3478,
      "ft": 3479,
      "fe": 3480,
      "▁disc": 3481,
      "ety": 3482,
      "▁tomorrow": 3483,
      "▁assistance": 3484,
      "▁played": 3485,
      "▁brain": 3486,
      "war": 3487,
      "alities": 3488,
      "ning": 3489,
      "[MASK]": 3490,
      "rit": 3491,
      "▁char": 3492,
      "▁partic": 3493,
      "▁situation": 3494,
      "▁passed": 3495,
      "▁citizens": 3496,
      "▁importance": 3497,
      "▁asp": 3498,
      "ways": 3499,
      "▁gas": 3500,
      "▁vs": 3501,
      "bly": 3502,
      "▁foot": 3503,
      "▁attempt": 3504,
      "▁center": 3505,
      "▁maintain": 3506,
      "▁exch": 3507,
      "▁anoder": 3508,
      "ular": 3509,
      "▁being": 3510,
      "▁val": 3511,
      "▁-": 3512,
      "▁name": 3513,
      "▁thurs": 3514,
      "▁letter": 3515,
      "▁act": 3516,
      "ider": 3517,
      "▁capital": 3518,
      "▁cal": 3519,
      "▁departing": 3520,
      "▁led": 3521,
      "▁science": 3522,
      "▁pool": 3523,
      "▁regard": 3524,
      "▁baltimore": 3525,
      "▁they": 3526,
      "ride": 3527,
      "ats": 3528,
      "▁pizza": 3529,
      "?": 3530,
      "gency": 3531,
      "▁''": 3532,
      "▁sal": 3533,
      "▁results": 3534,
      "▁mount": 3535,
      "'re": 3536,
      "el": 3537,
      "▁word": 3538,
      "▁written": 3539,
      "th": 3540,
      "▁day": 3541,
      "▁wearing": 3542,
      "i": 3543,
      "▁over": 3544,
      "▁i": 3545,
      "▁les": 3546,
      "▁lea": 3547,
      "▁auth": 3548,
      "▁underst": 3549,
      "uzz": 3550,
      "▁box": 3551,
      "▁grand": 3552,
      "▁lear": 3553,
      "▁class": 3554,
      "▁chair": 3555,
      "▁bunch": 3556,
      "▁glasses": 3557,
      "▁custom": 3558,
      "▁some": 3559,
      "ligh": 3560,
      "ri": 3561,
      "▁lack": 3562,
      "▁issue": 3563,
      "lications": 3564,
      "▁fact": 3565,
      "▁per": 3566,
      "▁territ": 3567,
      "_": 3568,
      "▁enem": 3569,
      "uro": 3570,
      "ests": 3571,
      "yp": 3572,
      "▁tre": 3573,
      "s": 3574,
      "ards": 3575,
      "▁cock": 3576,
      "▁!": 3577,
      "ency": 3578,
      "▁filter": 3579,
      "▁ing": 3580,
      "▁…": 3581,
      "▁boo": 3582,
      "oun": 3583,
      "▁cand": 3584,
      "▁left": 3585,
      "▁bre": 3586,
      "▁enj": 3587,
      "▁doctor": 3588,
      "ill": 3589,
      "▁vet": 3590,
      "▁street": 3591,
      "▁conditions": 3592,
      "ants": 3593,
      "ory": 3594,
      "▁member": 3595,
      "aries": 3596,
      "▁challenges": 3597,
      "▁hund": 3598,
      "mber": 3599,
      "▁every": 3600,
      "ition": 3601,
      "▁che": 3602,
      "▁smal": 3603,
      "mit": 3604,
      "f": 3605,
      "▁pass": 3606,
      "ament": 3607,
      "▁whether": 3608,
      "velop": 3609,
      "▁s/he": 3610,
      "▁leaders": 3611,
      "▁cry": 3612,
      "▁---------------------------------------------------------------------": 3613,
      "▁regards": 3614,
      "▁gro": 3615,
      "ib": 3616,
      "▁members": 3617,
      "▁conference": 3618,
      "▁since": 3619,
      "iated": 3620,
      "▁lar": 3621,
      "▁changing": 3622,
      "▁inte": 3623,
      "▁contr": 3624,
      "aves": 3625,
      "▁weekend": 3626,
      "▁delive": 3627,
      "acked": 3628,
      "ine": 3629,
      "▁ourselves": 3630,
      "iv": 3631,
      "▁los": 3632,
      "▁env": 3633,
      "ence": 3634,
      "ert": 3635,
      "▁week": 3636,
      "▁babies": 3637,
      "airs": 3638,
      "▁influence": 3639,
      "▁grandmother": 3640,
      "ι": 3641,
      "ches": 3642,
      "▁mom": 3643,
      "ibility": 3644,
      "\"": 3645,
      "▁ho": 3646,
      "▁economy": 3647,
      "▁rabb": 3648,
      "▁forg": 3649,
      "▁basis": 3650,
      "a": 3651,
      "▁bring": 3652,
      "▁rec": 3653,
      "▁cont": 3654,
      "▁ham": 3655,
      "▁fing": 3656,
      "▁compl": 3657,
      "▁kid": 3658,
      "▁point": 3659,
      "▁|--------+----------------": 3660,
      "▁m": 3661,
      "▁both": 3662,
      "dit": 3663,
      "aff": 3664,
      "▁customer": 3665,
      "lling": 3666,
      "ads": 3667,
      "▁understanding": 3668,
      "▁drug": 3669,
      "▁wednesday": 3670,
      "▁[": 3671,
      "[UNK]": 3672,
      "▁have": 3673,
      "▁nonstop": 3674,
      "▁administration": 3675,
      "▁achieve": 3676,
      "▁yester": 3677,
      "ake": 3678,
      "tiv": 3679,
      "▁fiel": 3680,
      "▁show": 3681,
      "ɑ": 3682,
      "▁edit": 3683,
      "▁drive": 3684,
      "▁thought": 3685,
      "ational": 3686,
      "alists": 3687,
      "▁sheet": 3688,
      "uly": 3689,
      "▁partners": 3690,
      "▁ve": 3691,
      "mp": 3692,
      "ched": 3693,
      "icide": 3694,
      "▁lips": 3695,
      "▁power": 3696,
      "eness": 3697,
      "amb": 3698,
      "▁mode": 3699,
      "ork": 3700,
      "▁consider": 3701,
      "▁wou": 3702,
      "▁conflic": 3703,
      "▁views": 3704,
      "▁w/": 3705,
      "▁might": 3706,
      "▁/": 3707,
      "▁scr": 3708,
      "▁banan": 3709,
      "▁capacity": 3710,
      "6": 3711,
      "ember": 3712,
      "ared": 3713,
      "rap": 3714,
      "▁******************************************************************": 3715,
      "▁mouse": 3716,
      "▁coll": 3717,
      "ops": 3718,
      "ght": 3719,
      "▁pupp": 3720,
      "▁g": 3721,
      "▁saw": 3722,
      "edom": 3723,
      "▁straw": 3724,
      "▁assist": 3725,
      "erated": 3726,
      "▁repair": 3727,
      "▁......": 3728,
      "▁ears": 3729,
      "▁laun": 3730,
      "▁skills": 3731,
      "▁hel": 3732,
      "▁stood": 3733,
      "ves": 3734,
      "▁memory": 3735,
      "▁rul": 3736,
      "▁elections": 3737,
      "ogn": 3738,
      "ait": 3739,
      "▁bur": 3740,
      "▁dist": 3741,
      "▁open": 3742,
      "▁!!!!!!!!!!!": 3743,
      "sh": 3744,
      "▁voice": 3745,
      "ount": 3746,
      "▁’re": 3747,
      "▁animal": 3748,
      "augh": 3749,
      "▁pan": 3750,
      "▁building": 3751,
      "▁'re": 3752,
      "▁book": 3753,
      "wic": 3754,
      "▁ver": 3755,
      "acks": 3756,
      "▁counc": 3757,
      "ary": 3758,
      "▁grass": 3759,
      "om": 3760,
      "▁spot": 3761,
      "▁bath": 3762,
      "▁eat": 3763,
      "▁[...": 3764,
      "▁met": 3765,
      "▁soc": 3766,
      "▁pieces": 3767,
      "▁problem": 3768,
      "riage": 3769,
      "▁ordered": 3770,
      "face": 3771,
      "aste": 3772,
      "pl": 3773,
      "▁perform": 3774,
      "jwww": 3775,
      "kers": 3776,
      "@": 3777,
      "▁sense": 3778,
      "▁movement": 3779,
      "ens": 3780,
      "▁top": 3781,
      "arly": 3782,
      "▁couple": 3783,
      "▁territory": 3784,
      "▁vacation": 3785,
      "uc": 3786,
      "ether": 3787,
      "▁requi": 3788,
      "▁relationship": 3789,
      "▁budget": 3790,
      "ottable": 3791,
      "▁==----": 3792,
      "used": 3793,
      "▁dom": 3794,
      "▁new": 3795,
      "▁bod": 3796,
      "▁har": 3797,
      "ations": 3798,
      "▁purpose": 3799,
      "rup": 3800,
      "▁children": 3801,
      "▁sp": 3802,
      "ative": 3803,
      "▁mean": 3804,
      "ar": 3805,
      "▁'em": 3806,
      "▁dall": 3807,
      "▁“": 3808,
      "ocks": 3809,
      "▁ch": 3810,
      "ker": 3811,
      "inks": 3812,
      "▁etc.": 3813,
      "▁al": 3814,
      "ʁ": 3815,
      "▁wed": 3816,
      "▁guess": 3817,
      "▁cam": 3818,
      "▁recog": 3819,
      "ith": 3820,
      "▁allow": 3821,
      "▁su": 3822,
      "phia": 3823,
      "▁dere": 3824,
      "pping": 3825,
      "▁cheapest": 3826,
      "▁pers": 3827,
      "uth": 3828,
      "aps": 3829,
      "ase": 3830,
      "▁fly": 3831,
      "...": 3832,
      "ocr": 3833,
      "▁grow": 3834,
      "▁bought": 3835,
      "▁kids": 3836,
      "▁him": 3837,
      "▁progr": 3838,
      "▁harry": 3839,
      "▁jokes": 3840,
      "ourn": 3841,
      "▁according": 3842,
      "▁month": 3843,
      "ports": 3844,
      "▁who": 3845,
      "±": 3846,
      "acters": 3847,
      "œ": 3848,
      "▁train": 3849,
      "▁.....": 3850,
      "▁games": 3851,
      "▁applied": 3852,
      "epend": 3853,
      "▁refl": 3854,
      "▁appro": 3855,
      "▁hus": 3856,
      "??": 3857,
      "▁named": 3858,
      "▁pin": 3859,
      "▁what": 3860,
      "▁stories": 3861,
      "<": 3862,
      "n": 3863,
      "ical": 3864,
      "▁interest": 3865,
      "▁century": 3866,
      "▁instruc": 3867,
      "▁sounds": 3868,
      "▁differences": 3869,
      "ivid": 3870,
      "oor": 3871,
      "▁bugs": 3872,
      "ery": 3873,
      "▁potty": 3874,
      "▁ret": 3875,
      "olution": 3876,
      "▁pain": 3877,
      "▁!!!": 3878,
      "phone": 3879,
      "der": 3880,
      "▁source": 3881,
      "▁toys": 3882,
      "▁o'clock": 3883,
      "▁developed": 3884,
      "▁bl": 3885,
      "▁seeing": 3886,
      "iting": 3887,
      "inate": 3888,
      "▁none": 3889,
      "▁ele": 3890,
      "▁example": 3891,
      "▁license": 3892,
      "▁belie": 3893,
      "vailable": 3894,
      "▁added": 3895,
      "▁prices": 3896,
      "nly": 3897,
      "▁iss": 3898,
      "▁)": 3899,
      "▁gender": 3900,
      "▁no": 3901,
      "ti": 3902,
      "ic": 3903,
      "▁wife": 3904,
      "▁streets": 3905,
      "▁d'": 3906,
      "urday": 3907,
      "▁iodine": 3908,
      "uck": 3909,
      "anc": 3910,
      "------": 3911,
      "▁apply": 3912,
      "▁protect": 3913,
      "▁herself": 3914,
      "▁??": 3915,
      "ob": 3916,
      "▁small": 3917,
      "▁to": 3918,
      "▁earth": 3919,
      "----------": 3920,
      "▁weather": 3921,
      "▁lights": 3922,
      "ognition": 3923,
      "▁e": 3924,
      "▁decided": 3925,
      "▁studying": 3926,
      "▁recogn": 3927,
      "▁just": 3928,
      "▁was": 3929,
      "▁avoid": 3930,
      "▁director": 3931,
      "▁experience": 3932,
      "iety": 3933,
      "▁fork": 3934,
      "both": 3935,
      "▁computer": 3936,
      "body": 3937,
      "▁tuesday": 3938,
      "▁dinos": 3939,
      "▁pean": 3940,
      "▁cer": 3941,
      "our": 3942,
      "acted": 3943,
      "▁airplane": 3944,
      "▁c": 3945,
      "▁forget": 3946,
      "iver": 3947,
      "an": 3948,
      "ured": 3949,
      "ag": 3950,
      "▁moment": 3951,
      "▁application": 3952,
      "lish": 3953,
      "▁'ve": 3954,
      "mar": 3955,
      "▁learning": 3956,
      "c": 3957,
      "tually": 3958,
      "ts": 3959,
      "am": 3960,
      "▁cur": 3961,
      "▁oakland": 3962,
      "▁certain": 3963,
      "▁furniture": 3964,
      "▁pair": 3965,
      "▁cash": 3966,
      "ties": 3967,
      "▁teacher": 3968,
      "med": 3969,
      "oods": 3970,
      "▁turned": 3971,
      "▁amongst": 3972,
      "▁pillow": 3973,
      "int": 3974,
      "▁sept": 3975,
      "able": 3976,
      "erv": 3977,
      "▁percentage": 3978,
      "▁included": 3979,
      ".m": 3980,
      "▁wal": 3981,
      "icul": 3982,
      "▁context": 3983,
      "▁langu": 3984,
      "par": 3985,
      "▁difference": 3986,
      "▁school": 3987,
      "ʃ": 3988,
      "ension": 3989,
      "ww": 3990,
      "▁polic": 3991,
      "ology": 3992,
      "▁idea": 3993,
      "▁tonight": 3994,
      "▁seemed": 3995,
      "▁exam": 3996,
      "▁however": 3997,
      "▁noone": 3998,
      "▁?????": 3999,
      "bably": 4000,
      "▁behavior": 4001,
      "▁learn": 4002,
      "▁compan": 4003,
      "‘": 4004,
      "oved": 4005,
      "▁deli": 4006,
      "▁heard": 4007,
      "▁poc": 4008,
      "▁work": 4009,
      "ality": 4010,
      "eb": 4011,
      "▁task": 4012,
      "urch": 4013,
      "cr": 4014,
      "▁cour": 4015,
      "▁op": 4016,
      "▁ticket": 4017,
      "ler": 4018,
      "▁something": 4019,
      "cle": 4020,
      "ump": 4021,
      "▁his": 4022,
      "▁sound": 4023,
      "▁hot": 4024,
      "ateg": 4025,
      "▁moon": 4026,
      "ute": 4027,
      "right": 4028,
      "▁actually": 4029,
      "iti": 4030,
      "▁present": 4031,
      "▁on": 4032,
      "▁]": 4033,
      "▁cars": 4034,
      "ground": 4035,
      "▁contract": 4036,
      "ged": 4037,
      "▁blow": 4038,
      "portun": 4039,
      "▁philadel": 4040,
      "ter": 4041,
      "▁opportun": 4042,
      "aining": 4043,
      "men": 4044,
      "▁laur": 4045,
      "▁washington": 4046,
      "▁z": 4047,
      "▁answ": 4048,
      "ouse": 4049,
      "▁keep": 4050,
      "h": 4051,
      "▁carry": 4052,
      "▁bank": 4053,
      "▁evening": 4054,
      "μ": 4055,
      "▁feels": 4056,
      "rew": 4057,
      "▁cut": 4058,
      "▁by": 4059,
      "ping": 4060,
      "▁honey": 4061,
      "▁&am": 4062,
      "▁’ve": 4063,
      "▁mis": 4064,
      "her": 4065,
      "land": 4066,
      "▁broke": 4067,
      "▁likes": 4068,
      "▁maybe": 4069,
      "▁whom": 4070,
      "▁tv": 4071,
      "▁happen": 4072,
      "▁piz": 4073,
      "▁nothing": 4074,
      "▁born": 4075,
      "ung": 4076,
      "▁lived": 4077,
      "▁millions": 4078,
      "▁bor": 4079,
      "▁conse": 4080,
      "yone": 4081,
      "ich": 4082,
      "▁leading": 4083,
      "▁ple": 4084,
      "xt": 4085,
      "▁far": 4086,
      "ife": 4087,
      "ple": 4088,
      "▁time": 4089,
      "▁position": 4090,
      "▁secret": 4091,
      "▁port": 4092,
      "isco": 4093,
      "ank": 4094,
      "▁debate": 4095
    },
    "merges": [
      [
        "in",
        "ts"
      ],
      [
        "▁dem",
        "onstr"
      ],
      [
        "▁ha",
        "f"
      ],
      [
        "▁gu",
        "ess"
      ],
      [
        "▁chang",
        "ed"
      ],
      [
        "▁show",
        "n"
      ],
      [
        "ad",
        "es"
      ],
      [
        "▁ha",
        "ve"
      ],
      [
        "▁eff",
        "ect"
      ],
      [
        "▁qu",
        "ery"
      ],
      [
        "▁ab",
        "ility"
      ],
      [
        "▁d",
        "ri"
      ],
      [
        "▁answ",
        "er"
      ],
      [
        "****",
        "****"
      ],
      [
        "▁",
        "cause"
      ],
      [
        "▁star",
        "t"
      ],
      [
        "e",
        "x"
      ],
      [
        "u",
        "re"
      ],
      [
        "▁lad",
        "y"
      ],
      [
        "▁air",
        "ports"
      ],
      [
        "*",
        "*"
      ],
      [
        "▁",
        "m"
      ],
      [
        "▁th",
        "en"
      ],
      [
        "b",
        "ably"
      ],
      [
        "▁h",
        "ope"
      ],
      [
        "▁n",
        "um"
      ],
      [
        "▁pro",
        "v"
      ],
      [
        "▁te",
        "eth"
      ],
      [
        "o",
        "ke"
      ],
      [
        "▁med",
        "ia"
      ],
      [
        "▁fil",
        "ter"
      ],
      [
        "o",
        "ut"
      ],
      [
        "▁b",
        "/"
      ],
      [
        "▁oc",
        "c"
      ],
      [
        "▁mr",
        "s"
      ],
      [
        "an",
        "d"
      ],
      [
        "ph",
        "one"
      ],
      [
        "▁look",
        "s"
      ],
      [
        "o",
        "s"
      ],
      [
        "▁d",
        "et"
      ],
      [
        "ab",
        "ility"
      ],
      [
        "▁w",
        "ould"
      ],
      [
        "▁cer",
        "tain"
      ],
      [
        "▁m",
        "aint"
      ],
      [
        "i",
        "lity"
      ],
      [
        "▁..",
        "."
      ],
      [
        "ct",
        "ion"
      ],
      [
        "▁p",
        "it"
      ],
      [
        "▁is",
        "s"
      ],
      [
        "▁-",
        "--"
      ],
      [
        "▁f",
        "ut"
      ],
      [
        "▁w",
        "ere"
      ],
      [
        "▁h",
        "er"
      ],
      [
        "▁ki",
        "ll"
      ],
      [
        "▁a",
        "cross"
      ],
      [
        "▁sc",
        "en"
      ],
      [
        "▁dec",
        "isions"
      ],
      [
        "l",
        "ish"
      ],
      [
        "▁",
        "’"
      ],
      [
        "▁",
        "z"
      ],
      [
        "▁me",
        "als"
      ],
      [
        "▁re",
        "nt"
      ],
      [
        "▁manag",
        "er"
      ],
      [
        "is",
        "d"
      ],
      [
        "▁f",
        "ight"
      ],
      [
        "ec",
        "ts"
      ],
      [
        "▁st",
        "y"
      ],
      [
        "▁w",
        "or"
      ],
      [
        "▁no",
        "vel"
      ],
      [
        "▁ad",
        "ults"
      ],
      [
        "i",
        "ence"
      ],
      [
        "t",
        "her"
      ],
      [
        "▁ma",
        "ss"
      ],
      [
        "▁wa",
        "it"
      ],
      [
        "ov",
        "e"
      ],
      [
        "▁f",
        "o"
      ],
      [
        "is",
        "ing"
      ],
      [
        "▁follow",
        "ed"
      ],
      [
        "▁inf",
        "l"
      ],
      [
        "ort",
        "ed"
      ],
      [
        "▁princ",
        "ip"
      ],
      [
        "pl",
        "ace"
      ],
      [
        "▁dogg",
        "ie"
      ],
      [
        "▁c",
        "are"
      ],
      [
        "▁**",
        "*"
      ],
      [
        "▁n",
        "either"
      ],
      [
        "res",
        "sed"
      ],
      [
        "▁consid",
        "er"
      ],
      [
        "▁n",
        "e"
      ],
      [
        "ow",
        "l"
      ],
      [
        "▁hal",
        "f"
      ],
      [
        "▁cove",
        "red"
      ],
      [
        "▁...................",
        "."
      ],
      [
        "▁se",
        "at"
      ],
      [
        "▁me",
        "an"
      ],
      [
        "g",
        "et"
      ],
      [
        "ate",
        "g"
      ],
      [
        "▁fir",
        "st"
      ],
      [
        "a",
        "king"
      ],
      [
        "▁bod",
        "y"
      ],
      [
        "k",
        "et"
      ],
      [
        "▁p",
        "il"
      ],
      [
        "▁v",
        "ol"
      ],
      [
        "▁",
        "r"
      ],
      [
        "▁w",
        "an"
      ],
      [
        "s",
        "pite"
      ],
      [
        "▁vide",
        "o"
      ],
      [
        "oun",
        "t"
      ],
      [
        "▁mod",
        "e"
      ],
      [
        "▁a",
        "d"
      ],
      [
        "▁fam",
        "ili"
      ],
      [
        "▁lear",
        "n"
      ],
      [
        "▁produc",
        "t"
      ],
      [
        "al",
        "t"
      ],
      [
        "m",
        "ed"
      ],
      [
        "▁me",
        "al"
      ],
      [
        "▁sold",
        "i"
      ],
      [
        "▁mo",
        "on"
      ],
      [
        "t",
        "ered"
      ],
      [
        "a",
        "se"
      ],
      [
        "▁",
        "id"
      ],
      [
        "▁sec",
        "urity"
      ],
      [
        "▁kn",
        "ow"
      ],
      [
        "ee",
        "ds"
      ],
      [
        "▁w",
        "al"
      ],
      [
        "▁park",
        "ing"
      ],
      [
        "▁b",
        "all"
      ],
      [
        "▁ha",
        "ving"
      ],
      [
        "▁ser",
        "ve"
      ],
      [
        "▁r",
        "ound"
      ],
      [
        "▁ret",
        "urned"
      ],
      [
        "▁traff",
        "ic"
      ],
      [
        "▁pa",
        "ul"
      ],
      [
        "▁h",
        "el"
      ],
      [
        "▁b",
        "ur"
      ],
      [
        "▁a",
        "ny"
      ],
      [
        "a",
        "ce"
      ],
      [
        "▁col",
        "l"
      ],
      [
        "▁fri",
        "day"
      ],
      [
        "▁po",
        "li"
      ],
      [
        "▁s",
        "outh"
      ],
      [
        "▁h",
        "om"
      ],
      [
        "▁mos",
        "qu"
      ],
      [
        "z",
        "z"
      ],
      [
        "an",
        "ces"
      ],
      [
        "▁a",
        "ir"
      ],
      [
        "▁t",
        "om"
      ],
      [
        "▁m",
        "eth"
      ],
      [
        "▁e",
        "x"
      ],
      [
        "▁char",
        "acter"
      ],
      [
        "c",
        "ause"
      ],
      [
        "▁m",
        "ov"
      ],
      [
        "▁s",
        "ea"
      ],
      [
        "▁was",
        "h"
      ],
      [
        "▁coo",
        "k"
      ],
      [
        "▁bre",
        "ad"
      ],
      [
        "▁co",
        "me"
      ],
      [
        "ti",
        "me"
      ],
      [
        "▁lear",
        "ned"
      ],
      [
        "▁infl",
        "u"
      ],
      [
        "r",
        "up"
      ],
      [
        "er",
        "y"
      ],
      [
        "u",
        "es"
      ],
      [
        "▁us",
        "e"
      ],
      [
        "▁play",
        "ed"
      ],
      [
        "▁n",
        "or"
      ],
      [
        "i",
        "en"
      ],
      [
        "▁rul",
        "es"
      ],
      [
        "▁know",
        "ledge"
      ],
      [
        "l",
        "f"
      ],
      [
        "▁",
        "/"
      ],
      [
        "le",
        "m"
      ],
      [
        "▁commun",
        "ity"
      ],
      [
        "y",
        "m"
      ],
      [
        "d",
        "ers"
      ],
      [
        "a",
        "x"
      ],
      [
        "▁o",
        "ak"
      ],
      [
        "▁est",
        "ab"
      ],
      [
        "▁te",
        "am"
      ],
      [
        "▁w",
        "it"
      ],
      [
        "▁ele",
        "v"
      ],
      [
        "▁an",
        "oth"
      ],
      [
        "▁estim",
        "ated"
      ],
      [
        "▁sel",
        "f"
      ],
      [
        "▁l",
        "ad"
      ],
      [
        "▁cour",
        "se"
      ],
      [
        "▁m",
        "ission"
      ],
      [
        "▁tre",
        "es"
      ],
      [
        "▁re",
        "le"
      ],
      [
        "▁sto",
        "pped"
      ],
      [
        "or",
        "ity"
      ],
      [
        "▁estab",
        "lish"
      ],
      [
        "▁datab",
        "ase"
      ],
      [
        "▁ra",
        "ised"
      ],
      [
        "▁con",
        "v"
      ],
      [
        "▁ex",
        "per"
      ],
      [
        "▁a",
        "ct"
      ],
      [
        "m",
        "e"
      ],
      [
        "ac",
        "e"
      ],
      [
        "▁supp",
        "ort"
      ],
      [
        "al",
        "s"
      ],
      [
        "▁re",
        "p"
      ],
      [
        "▁in",
        "st"
      ],
      [
        "l",
        "ic"
      ],
      [
        "▁",
        "end"
      ],
      [
        "as",
        "h"
      ],
      [
        "▁s",
        "et"
      ],
      [
        "▁h",
        "und"
      ],
      [
        "▁mon",
        "day"
      ],
      [
        "▁re",
        "g"
      ],
      [
        "▁ne",
        "ed"
      ],
      [
        "▁su",
        "per"
      ],
      [
        "▁eff",
        "ort"
      ],
      [
        "▁r",
        "ug"
      ],
      [
        "▁v",
        "ote"
      ],
      [
        "▁mon",
        "th"
      ],
      [
        "▁s",
        "ch"
      ],
      [
        "in",
        "ce"
      ],
      [
        "i",
        "fe"
      ],
      [
        "********************************",
        "**"
      ],
      [
        "▁get",
        "s"
      ],
      [
        "▁",
        ">"
      ],
      [
        "▁********************************",
        "**********************************"
      ],
      [
        "ur",
        "es"
      ],
      [
        "▁d",
        "oor"
      ],
      [
        "▁fr",
        "anc"
      ],
      [
        "▁al",
        "ong"
      ],
      [
        "c",
        "akes"
      ],
      [
        "▁---------------------------------",
        "--------------------------------"
      ],
      [
        "e",
        "en"
      ],
      [
        "▁fligh",
        "ts"
      ],
      [
        "▁achie",
        "ve"
      ],
      [
        "▁e",
        "qu"
      ],
      [
        "▁atmos",
        "phere"
      ],
      [
        "▁child",
        "ren"
      ],
      [
        "▁s",
        "ome"
      ],
      [
        "▁w",
        "il"
      ],
      [
        "▁f",
        "ri"
      ],
      [
        "a",
        "ged"
      ],
      [
        "t",
        "ers"
      ],
      [
        "▁sc",
        "ience"
      ],
      [
        "▁.......",
        ".."
      ],
      [
        "▁sh",
        "orts"
      ],
      [
        "l",
        "l"
      ],
      [
        "tiv",
        "es"
      ],
      [
        "▁sp",
        "ec"
      ],
      [
        "▁le",
        "ad"
      ],
      [
        "olog",
        "y"
      ],
      [
        "▁disc",
        "us"
      ],
      [
        "▁conf",
        "ir"
      ],
      [
        "▁sh",
        "ower"
      ],
      [
        "el",
        "ly"
      ],
      [
        "▁!!!",
        "?"
      ],
      [
        "▁sp",
        "ent"
      ],
      [
        "▁g",
        "ame"
      ],
      [
        "▁employ",
        "ment"
      ],
      [
        "▁per",
        "iod"
      ],
      [
        "▁direc",
        "tive"
      ],
      [
        "▁d",
        "ark"
      ],
      [
        "▁imple",
        "mentation"
      ],
      [
        "cl",
        "ock"
      ],
      [
        "▁bath",
        "room"
      ],
      [
        "▁ti",
        "c"
      ],
      [
        "ic",
        "i"
      ],
      [
        "e",
        "w"
      ],
      [
        "▁see",
        "m"
      ],
      [
        "▁",
        "ex"
      ],
      [
        "ri",
        "ght"
      ],
      [
        "oul",
        "d"
      ],
      [
        "▁f",
        "aith"
      ],
      [
        "▁h",
        "igh"
      ],
      [
        "▁b",
        "oard"
      ],
      [
        "▁h",
        "olding"
      ],
      [
        "▁h",
        "is"
      ],
      [
        "is",
        "m"
      ],
      [
        "▁in",
        "tern"
      ],
      [
        "▁so",
        "me"
      ],
      [
        "lan",
        "d"
      ],
      [
        "▁",
        "ur"
      ],
      [
        "et",
        "s"
      ],
      [
        "▁int",
        "e"
      ],
      [
        "▁pro",
        "pos"
      ],
      [
        "is",
        "ted"
      ],
      [
        "c",
        "ro"
      ],
      [
        "▁imp",
        "lem"
      ],
      [
        "▁des",
        "crib"
      ],
      [
        "▁c",
        "a"
      ],
      [
        "▁produc",
        "tion"
      ],
      [
        "f",
        "o"
      ],
      [
        "olog",
        "ies"
      ],
      [
        "▁w",
        "ent"
      ],
      [
        "▁su",
        "gg"
      ],
      [
        "▁",
        "li"
      ],
      [
        "▁cl",
        "osed"
      ],
      [
        "▁ca",
        "use"
      ],
      [
        "▁i",
        "s"
      ],
      [
        "p",
        "ers"
      ],
      [
        "▁dec",
        "ades"
      ],
      [
        "▁o",
        "ught"
      ],
      [
        "o",
        "cr"
      ],
      [
        "▁ter",
        "ms"
      ],
      [
        "▁mar",
        "ket"
      ],
      [
        "▁min",
        "e"
      ],
      [
        "****************",
        "****************"
      ],
      [
        "▁o",
        "ver"
      ],
      [
        "▁break",
        "f"
      ],
      [
        "▁par",
        "ties"
      ],
      [
        "▁conf",
        "lic"
      ],
      [
        "▁con",
        "n"
      ],
      [
        "b",
        "e"
      ],
      [
        "▁dec",
        "ision"
      ],
      [
        "m",
        "an"
      ],
      [
        "ec",
        "tions"
      ],
      [
        "▁he",
        "ad"
      ],
      [
        "▁custom",
        "ers"
      ],
      [
        "a",
        "z"
      ],
      [
        "▁ever",
        "yone"
      ],
      [
        "▁m",
        "ad"
      ],
      [
        "▁an",
        "yone"
      ],
      [
        "▁per",
        "s"
      ],
      [
        "▁ti",
        "e"
      ],
      [
        "▁=",
        "---"
      ],
      [
        "....",
        "...."
      ],
      [
        "w",
        "hether"
      ],
      [
        "ro",
        "te"
      ],
      [
        "▁ac",
        "cess"
      ],
      [
        "▁a",
        "m"
      ],
      [
        "=",
        "----"
      ],
      [
        "▁con",
        "c"
      ],
      [
        "▁im",
        "p"
      ],
      [
        "▁to",
        "o"
      ],
      [
        "▁reg",
        "ard"
      ],
      [
        "▁att",
        "ached"
      ],
      [
        "▁a",
        "f"
      ],
      [
        "▁v",
        "ide"
      ],
      [
        "m",
        "al"
      ],
      [
        "▁resp",
        "ect"
      ],
      [
        "????",
        "????"
      ],
      [
        "▁dog",
        "s"
      ],
      [
        "▁rel",
        "ations"
      ],
      [
        "▁t",
        "ool"
      ],
      [
        "a",
        "ult"
      ],
      [
        "o",
        "mp"
      ],
      [
        "on",
        "y"
      ],
      [
        "▁m",
        "ama"
      ],
      [
        "fri",
        "end"
      ],
      [
        "▁on",
        "to"
      ],
      [
        "▁s",
        "igned"
      ],
      [
        "▁sch",
        "ed"
      ],
      [
        "s",
        "el"
      ],
      [
        "is",
        "l"
      ],
      [
        "▁their",
        "s"
      ],
      [
        "▁begin",
        "ning"
      ],
      [
        "▁ch",
        "urch"
      ],
      [
        "▁m",
        "iss"
      ],
      [
        "▁sur",
        "round"
      ],
      [
        "▁work",
        "ing"
      ],
      [
        "ac",
        "ts"
      ],
      [
        "▁s",
        "ame"
      ],
      [
        "▁ho",
        "me"
      ],
      [
        "▁dat",
        "ab"
      ],
      [
        "▁ind",
        "ust"
      ],
      [
        "▁da",
        "d"
      ],
      [
        "▁gr",
        "ass"
      ],
      [
        "▁",
        "–"
      ],
      [
        "▁!",
        "?"
      ],
      [
        "▁p",
        "m"
      ],
      [
        "▁cre",
        "ating"
      ],
      [
        "▁po",
        "ll"
      ],
      [
        "▁meet",
        "ing"
      ],
      [
        "a",
        "nd"
      ],
      [
        "en",
        "ds"
      ],
      [
        "i",
        "des"
      ],
      [
        "▁in",
        "side"
      ],
      [
        "▁j",
        "ourn"
      ],
      [
        "▁d",
        "e"
      ],
      [
        "▁in",
        "ter"
      ],
      [
        "▁m",
        "ention"
      ],
      [
        "▁resul",
        "ts"
      ],
      [
        "on",
        "d"
      ],
      [
        "m",
        "it"
      ],
      [
        "▁f",
        "orm"
      ],
      [
        "o",
        "ds"
      ],
      [
        "▁h",
        "ist"
      ],
      [
        "rap",
        "h"
      ],
      [
        "▁us",
        "er"
      ],
      [
        "▁m",
        "em"
      ],
      [
        "▁!!!",
        "!!!"
      ],
      [
        "ish",
        "ed"
      ],
      [
        "▁chang",
        "ing"
      ],
      [
        "▁how",
        "ever"
      ],
      [
        "▁m",
        "oon"
      ],
      [
        "▁p",
        "ower"
      ],
      [
        "▁a",
        "l"
      ],
      [
        "▁n",
        "ever"
      ],
      [
        "▁a",
        "ug"
      ],
      [
        "▁’",
        "s"
      ],
      [
        "▁s",
        "ave"
      ],
      [
        "ou",
        "l"
      ],
      [
        "▁qu",
        "es"
      ],
      [
        "▁d",
        "'"
      ],
      [
        "▁help",
        "ed"
      ],
      [
        "▁att",
        "ention"
      ],
      [
        "ou",
        "r"
      ],
      [
        "▁s",
        "uc"
      ],
      [
        "d",
        "uc"
      ],
      [
        "▁proble",
        "ms"
      ],
      [
        "▁att",
        "em"
      ],
      [
        "▁tr",
        "ans"
      ],
      [
        "▁",
        "h"
      ],
      [
        "us",
        "h"
      ],
      [
        "▁hour",
        "s"
      ],
      [
        "▁tal",
        "king"
      ],
      [
        "ti",
        "ty"
      ],
      [
        "a",
        "w"
      ],
      [
        "▁bott",
        "le"
      ],
      [
        "▁requi",
        "red"
      ],
      [
        "▁pe",
        "p"
      ],
      [
        "▁",
        "whether"
      ],
      [
        "▁for",
        "ce"
      ],
      [
        "h",
        "e"
      ],
      [
        "▁acc",
        "ep"
      ],
      [
        "er",
        "ve"
      ],
      [
        "▁ide",
        "as"
      ],
      [
        "▁anal",
        "ys"
      ],
      [
        "▁char",
        "acters"
      ],
      [
        "▁har",
        "ry"
      ],
      [
        "▁sh",
        "eet"
      ],
      [
        "▁turn",
        "ing"
      ],
      [
        "y",
        "ond"
      ],
      [
        "▁d",
        "ere"
      ],
      [
        "▁p",
        "ath"
      ],
      [
        "▁cand",
        "id"
      ],
      [
        "▁li",
        "ked"
      ],
      [
        "▁conse",
        "qu"
      ],
      [
        "▁p",
        "r"
      ],
      [
        "ak",
        "es"
      ],
      [
        "▁coup",
        "le"
      ],
      [
        "▁c",
        "ake"
      ],
      [
        "▁ab",
        "out"
      ],
      [
        "l",
        "es"
      ],
      [
        "end",
        "ed"
      ],
      [
        "ol",
        "ution"
      ],
      [
        "▁b",
        "alt"
      ],
      [
        "▁v",
        "oice"
      ],
      [
        "▁tele",
        "phone"
      ],
      [
        "▁p",
        "oll"
      ],
      [
        "▁o",
        "u"
      ],
      [
        "▁a",
        "re"
      ],
      [
        "!!",
        "!"
      ],
      [
        "▁tw",
        "o"
      ],
      [
        "▁him",
        "self"
      ],
      [
        "▁b",
        "o"
      ],
      [
        "▁for",
        "ces"
      ],
      [
        "▁st",
        "ates"
      ],
      [
        "t",
        "ain"
      ],
      [
        "▁r",
        "iver"
      ],
      [
        "▁bl",
        "an"
      ],
      [
        "▁pl",
        "ate"
      ],
      [
        "▁u",
        "s"
      ],
      [
        "▁s",
        "n"
      ],
      [
        "▁ch",
        "ild"
      ],
      [
        "▁go",
        "od"
      ],
      [
        "▁w",
        "ind"
      ],
      [
        "▁s",
        "um"
      ],
      [
        "ke",
        "ts"
      ],
      [
        "st",
        "ances"
      ],
      [
        "▁",
        "le"
      ],
      [
        "▁t",
        "ummy"
      ],
      [
        "ill",
        "s"
      ],
      [
        "▁res",
        "ult"
      ],
      [
        "▁wait",
        "ing"
      ],
      [
        "▁me",
        "m"
      ],
      [
        "▁wom",
        "an"
      ],
      [
        "▁go",
        "t"
      ],
      [
        "▁det",
        "er"
      ],
      [
        "▁s",
        "c"
      ],
      [
        "h",
        "ere"
      ],
      [
        "m",
        "ent"
      ],
      [
        "▁w",
        "ine"
      ],
      [
        "▁comp",
        "etition"
      ],
      [
        "▁",
        "p"
      ],
      [
        "▁m",
        "ade"
      ],
      [
        "er",
        "ence"
      ],
      [
        "p",
        "lus"
      ],
      [
        "▁webs",
        "ite"
      ],
      [
        "▁look",
        "ed"
      ],
      [
        "▁",
        "g"
      ],
      [
        "▁j",
        "un"
      ],
      [
        "▁pu",
        "b"
      ],
      [
        "▁fi",
        "ght"
      ],
      [
        "▁en",
        "d"
      ],
      [
        "m",
        "ing"
      ],
      [
        "ot",
        "t"
      ],
      [
        "ti",
        "t"
      ],
      [
        "▁sec",
        "ret"
      ],
      [
        "w",
        "or"
      ],
      [
        "▁s",
        "ell"
      ],
      [
        "▁f",
        "ligh"
      ],
      [
        "▁some",
        "one"
      ],
      [
        "▁do",
        "c"
      ],
      [
        "ali",
        "ties"
      ],
      [
        "▁ed",
        "it"
      ],
      [
        "▁und",
        "er"
      ],
      [
        "▁fr",
        "ont"
      ],
      [
        "▁relations",
        "hip"
      ],
      [
        "▁co",
        "ll"
      ],
      [
        "▁o",
        "cc"
      ],
      [
        "f",
        "ul"
      ],
      [
        "if",
        "ic"
      ],
      [
        "i",
        "od"
      ],
      [
        "▁peop",
        "les"
      ],
      [
        "ro",
        "n"
      ],
      [
        "ac",
        "king"
      ],
      [
        "ect",
        "ive"
      ],
      [
        "▁e",
        "very"
      ],
      [
        "o",
        "c"
      ],
      [
        "▁among",
        "st"
      ],
      [
        "▁b",
        "us"
      ],
      [
        "re",
        "ad"
      ],
      [
        "▁t",
        "urned"
      ],
      [
        "▁s",
        "ee"
      ],
      [
        "▁y",
        "ester"
      ],
      [
        "i",
        "t"
      ],
      [
        "▁b",
        "at"
      ],
      [
        "oun",
        "ds"
      ],
      [
        "oun",
        "ced"
      ],
      [
        "▁s",
        "e"
      ],
      [
        "▁de",
        "v"
      ],
      [
        "▁st",
        "ill"
      ],
      [
        "▁",
        "round"
      ],
      [
        "▁",
        "on"
      ],
      [
        "um",
        "p"
      ],
      [
        "▁ques",
        "tion"
      ],
      [
        "al",
        "k"
      ],
      [
        "▁sp",
        "r"
      ],
      [
        "▁t",
        "old"
      ],
      [
        "ist",
        "s"
      ],
      [
        "in",
        "ess"
      ],
      [
        "▁be",
        "hin"
      ],
      [
        "▁c",
        "iti"
      ],
      [
        "▁at",
        "op"
      ],
      [
        "▁see",
        "k"
      ],
      [
        "▁trad",
        "e"
      ],
      [
        "▁bel",
        "on"
      ],
      [
        "▁li",
        "st"
      ],
      [
        "is",
        "es"
      ],
      [
        "▁le",
        "aves"
      ],
      [
        "▁as",
        "p"
      ],
      [
        "▁mount",
        "ain"
      ],
      [
        "▁for",
        "m"
      ],
      [
        "ca",
        "use"
      ],
      [
        "▁th",
        "at"
      ],
      [
        "▁anim",
        "als"
      ],
      [
        "▁conn",
        "ection"
      ],
      [
        "▁num",
        "ber"
      ],
      [
        "▁im",
        "age"
      ],
      [
        "fic",
        "ation"
      ],
      [
        "om",
        "et"
      ],
      [
        "▁w",
        "r"
      ],
      [
        "▁",
        "jo"
      ],
      [
        "a",
        "ge"
      ],
      [
        "selve",
        "s"
      ],
      [
        "▁am",
        "eric"
      ],
      [
        "▁b",
        "ig"
      ],
      [
        "ul",
        "t"
      ],
      [
        "▁piz",
        "za"
      ],
      [
        "st",
        "r"
      ],
      [
        "▁h",
        "ear"
      ],
      [
        "us",
        "s"
      ],
      [
        "▁m",
        "aster"
      ],
      [
        "▁",
        "ne"
      ],
      [
        "▁str",
        "ing"
      ],
      [
        "▁i",
        "mp"
      ],
      [
        "▁s",
        "ens"
      ],
      [
        "ac",
        "tions"
      ],
      [
        "▁balt",
        "imore"
      ],
      [
        "▁",
        "++++"
      ],
      [
        "▁t",
        "aking"
      ],
      [
        "▁t",
        "ie"
      ],
      [
        "▁mot",
        "or"
      ],
      [
        "▁at",
        "t"
      ],
      [
        "g",
        "ation"
      ],
      [
        "▁grandm",
        "other"
      ],
      [
        "▁l",
        "ab"
      ],
      [
        "▁d",
        "own"
      ],
      [
        "nd",
        "ing"
      ],
      [
        "▁whe",
        "ther"
      ],
      [
        "▁",
        "o"
      ],
      [
        "▁bom",
        "b"
      ],
      [
        "▁sched",
        "ule"
      ],
      [
        "i",
        "de"
      ],
      [
        "▁though",
        "t"
      ],
      [
        "▁|--------+----------------",
        "------->"
      ],
      [
        "▁co",
        "o"
      ],
      [
        "at",
        "h"
      ],
      [
        "▁y",
        "ear"
      ],
      [
        "▁st",
        "aff"
      ],
      [
        "▁",
        ";"
      ],
      [
        "e",
        "ll"
      ],
      [
        "▁e",
        "tc"
      ],
      [
        "▁like",
        "s"
      ],
      [
        "it",
        "led"
      ],
      [
        "▁p",
        "ur"
      ],
      [
        "▁din",
        "ner"
      ],
      [
        "▁a",
        "ft"
      ],
      [
        "▁",
        "&"
      ],
      [
        "i",
        "s"
      ],
      [
        "▁ap",
        "art"
      ],
      [
        "▁anim",
        "al"
      ],
      [
        "▁w",
        "ith"
      ],
      [
        "ders",
        "t"
      ],
      [
        "▁allow",
        "ed"
      ],
      [
        "u",
        "ff"
      ],
      [
        "o",
        "ck"
      ],
      [
        "▁mar",
        "kets"
      ],
      [
        "▁conflic",
        "t"
      ],
      [
        "▁whe",
        "re"
      ],
      [
        "▁m",
        "atch"
      ],
      [
        "pl",
        "y"
      ],
      [
        "li",
        "ty"
      ],
      [
        "es",
        "ts"
      ],
      [
        "▁t",
        "est"
      ],
      [
        "▁sp",
        "end"
      ],
      [
        "y",
        "p"
      ],
      [
        "▁w",
        "/"
      ],
      [
        "▁b",
        "os"
      ],
      [
        "▁t",
        "hen"
      ],
      [
        "▁,",
        "?"
      ],
      [
        "▁c",
        "ap"
      ],
      [
        "g",
        "er"
      ],
      [
        "▁mo",
        "st"
      ],
      [
        "a",
        "ched"
      ],
      [
        "ta",
        "in"
      ],
      [
        "o",
        "or"
      ],
      [
        "▁d",
        "ec"
      ],
      [
        "▁",
        "ign"
      ],
      [
        "gh",
        "t"
      ],
      [
        "k",
        "er"
      ],
      [
        "--------",
        "----"
      ],
      [
        "at",
        "ion"
      ],
      [
        "oc",
        "ol"
      ],
      [
        "▁re",
        "ached"
      ],
      [
        "al",
        "ed"
      ],
      [
        "▁cost",
        "s"
      ],
      [
        "▁compan",
        "y"
      ],
      [
        "********",
        "********"
      ],
      [
        "e",
        "ment"
      ],
      [
        "▁",
        "cha"
      ],
      [
        "▁",
        "us"
      ],
      [
        "a",
        "h"
      ],
      [
        "▁s",
        "ort"
      ],
      [
        "▁",
        "of"
      ],
      [
        "▁",
        "*"
      ],
      [
        "r",
        "u"
      ],
      [
        "▁re",
        "ad"
      ],
      [
        "▁pay",
        "ment"
      ],
      [
        "▁",
        "at"
      ],
      [
        "▁ac",
        "tually"
      ],
      [
        "am",
        "p"
      ],
      [
        "▁r",
        "out"
      ],
      [
        "▁de",
        "c"
      ],
      [
        "▁c",
        "am"
      ],
      [
        "e",
        "s"
      ],
      [
        "▁school",
        "s"
      ],
      [
        "▁o",
        "ff"
      ],
      [
        "▁serve",
        "s"
      ],
      [
        "il",
        "os"
      ],
      [
        "▁inclu",
        "des"
      ],
      [
        "re",
        "n"
      ],
      [
        "ou",
        "ld"
      ],
      [
        "r",
        "a"
      ],
      [
        "▁bo",
        "at"
      ],
      [
        "or",
        "s"
      ],
      [
        "▁comp",
        "an"
      ],
      [
        "it",
        "h"
      ],
      [
        "▁t",
        "ail"
      ],
      [
        "▁no",
        "one"
      ],
      [
        "▁",
        "****"
      ],
      [
        "▁ele",
        "ments"
      ],
      [
        "l",
        "a"
      ],
      [
        "▁bab",
        "ies"
      ],
      [
        "v",
        "ed"
      ],
      [
        "▁e",
        "le"
      ],
      [
        "▁f",
        "an"
      ],
      [
        "▁des",
        "ign"
      ],
      [
        "i",
        "tion"
      ],
      [
        "▁pur",
        "pos"
      ],
      [
        "▁ch",
        "oice"
      ],
      [
        "▁h",
        "ot"
      ],
      [
        "▁to",
        "ast"
      ],
      [
        "▁con",
        "cl"
      ],
      [
        "▁cur",
        "r"
      ],
      [
        "an",
        "g"
      ],
      [
        "▁eng",
        "ine"
      ],
      [
        "▁the",
        "ir"
      ],
      [
        "▁wind",
        "ows"
      ],
      [
        "▁bas",
        "is"
      ],
      [
        "▁gu",
        "ar"
      ],
      [
        "▁li",
        "ter"
      ],
      [
        "▁ref",
        "er"
      ],
      [
        "▁regar",
        "d"
      ],
      [
        "▁hum",
        "an"
      ],
      [
        "os",
        "s"
      ],
      [
        "▁we",
        "b"
      ],
      [
        "▁vis",
        "it"
      ],
      [
        "▁con",
        "ce"
      ],
      [
        "al",
        "e"
      ],
      [
        "▁w",
        "all"
      ],
      [
        "b",
        "and"
      ],
      [
        "et",
        "ed"
      ],
      [
        "▁produc",
        "e"
      ],
      [
        "▁kit",
        "chen"
      ],
      [
        "▁la",
        "b"
      ],
      [
        "og",
        "n"
      ],
      [
        "it",
        "ion"
      ],
      [
        "▁",
        "cer"
      ],
      [
        "▁p",
        "h"
      ],
      [
        "▁ag",
        "ain"
      ],
      [
        "▁in",
        "f"
      ],
      [
        "▁s",
        "er"
      ],
      [
        "d",
        "er"
      ],
      [
        "/",
        "he"
      ],
      [
        "▁regar",
        "ding"
      ],
      [
        "▁own",
        "ers"
      ],
      [
        "n",
        "y"
      ],
      [
        "▁h",
        "op"
      ],
      [
        "s",
        "es"
      ],
      [
        "▁doc",
        "tor"
      ],
      [
        "a",
        "ll"
      ],
      [
        "▁sci",
        "ence"
      ],
      [
        "▁prov",
        "ides"
      ],
      [
        "▁apar",
        "t"
      ],
      [
        "ult",
        "ure"
      ],
      [
        "▁re",
        "qui"
      ],
      [
        "▁un",
        "to"
      ],
      [
        "▁pie",
        "ce"
      ],
      [
        "▁env",
        "iron"
      ],
      [
        "▁s",
        "il"
      ],
      [
        "▁f",
        "it"
      ],
      [
        "▁en",
        "sure"
      ],
      [
        "▁organiz",
        "ation"
      ],
      [
        "t",
        "y"
      ],
      [
        "v",
        "e"
      ],
      [
        "▁re",
        "st"
      ],
      [
        "▁particip",
        "ants"
      ],
      [
        "is",
        "co"
      ],
      [
        "▁stre",
        "ets"
      ],
      [
        "r",
        "ou"
      ],
      [
        "▁c",
        "iv"
      ],
      [
        "▁",
        "’s"
      ],
      [
        "▁conf",
        "erence"
      ],
      [
        "is",
        "on"
      ],
      [
        "ou",
        "p"
      ],
      [
        "▁vac",
        "ation"
      ],
      [
        "i",
        "med"
      ],
      [
        "at",
        "o"
      ],
      [
        "▁w",
        "ater"
      ],
      [
        "▁cent",
        "er"
      ],
      [
        "▁of",
        "f"
      ],
      [
        "▁t",
        "u"
      ],
      [
        "▁po",
        "int"
      ],
      [
        "ocr",
        "acy"
      ],
      [
        "▁b",
        "ite"
      ],
      [
        "▁sal",
        "es"
      ],
      [
        "one",
        "y"
      ],
      [
        "▁ch",
        "arl"
      ],
      [
        "▁d",
        "ose"
      ],
      [
        "r",
        "i"
      ],
      [
        "▁tr",
        "ad"
      ],
      [
        "▁spec",
        "ies"
      ],
      [
        "▁cour",
        "t"
      ],
      [
        "▁kn",
        "ew"
      ],
      [
        "▁ch",
        "oo"
      ],
      [
        "▁m",
        "ag"
      ],
      [
        "▁mean",
        "s"
      ],
      [
        "p",
        "ts"
      ],
      [
        "ow",
        "ers"
      ],
      [
        "▁p",
        "le"
      ],
      [
        "el",
        "t"
      ],
      [
        "▁t",
        "a"
      ],
      [
        "et",
        "e"
      ],
      [
        "▁chall",
        "en"
      ],
      [
        "l",
        "i"
      ],
      [
        "▁s",
        "ec"
      ],
      [
        "n",
        "ing"
      ],
      [
        "ath",
        "er"
      ],
      [
        "▁wed",
        "ding"
      ],
      [
        "i",
        "ous"
      ],
      [
        "ep",
        "end"
      ],
      [
        "in",
        "g"
      ],
      [
        "▁ar",
        "ound"
      ],
      [
        "▁down",
        "town"
      ],
      [
        "at",
        "ional"
      ],
      [
        "▁_____",
        "__"
      ],
      [
        "▁",
        "one"
      ],
      [
        "▁up",
        "d"
      ],
      [
        "▁su",
        "b"
      ],
      [
        "▁s",
        "ent"
      ],
      [
        "id",
        "e"
      ],
      [
        "a",
        "s"
      ],
      [
        "▁mat",
        "ter"
      ],
      [
        "i",
        "ch"
      ],
      [
        "▁h",
        "app"
      ],
      [
        "▁re",
        "as"
      ],
      [
        "▁a",
        "round"
      ],
      [
        "▁ans",
        "w"
      ],
      [
        "▁comm",
        "it"
      ],
      [
        "▁fing",
        "er"
      ],
      [
        "▁c",
        "ount"
      ],
      [
        "op",
        "s"
      ],
      [
        "------",
        "-"
      ],
      [
        "▁bl",
        "ood"
      ],
      [
        "▁m",
        "om"
      ],
      [
        "qu",
        "i"
      ],
      [
        "ll",
        "ow"
      ],
      [
        "en",
        "d"
      ],
      [
        "▁dec",
        "ide"
      ],
      [
        "▁ad",
        "op"
      ],
      [
        "▁butt",
        "on"
      ],
      [
        "▁ret",
        "urn"
      ],
      [
        "▁coun",
        "ter"
      ],
      [
        "▁to",
        "day"
      ],
      [
        "ar",
        "ity"
      ],
      [
        "▁el",
        "ected"
      ],
      [
        "▁no",
        "ise"
      ],
      [
        "o",
        "d"
      ],
      [
        "en",
        "ing"
      ],
      [
        "rib",
        "ution"
      ],
      [
        "▁gen",
        "er"
      ],
      [
        "p",
        "er"
      ],
      [
        "on",
        "es"
      ],
      [
        "▁r",
        "ow"
      ],
      [
        "▁",
        "fir"
      ],
      [
        "▁c",
        "ell"
      ],
      [
        "▁",
        ","
      ],
      [
        "▁open",
        "ed"
      ],
      [
        "▁h",
        "our"
      ],
      [
        "▁co",
        "mp"
      ],
      [
        "▁fo",
        "c"
      ],
      [
        "ec",
        "t"
      ],
      [
        "▁w",
        "h"
      ],
      [
        "▁inter",
        "est"
      ],
      [
        "ad",
        "e"
      ],
      [
        "b",
        "r"
      ],
      [
        "▁res",
        "p"
      ],
      [
        "en",
        "ti"
      ],
      [
        "▁ca",
        "used"
      ],
      [
        "▁produc",
        "ts"
      ],
      [
        "▁custom",
        "er"
      ],
      [
        "▁c",
        "ase"
      ],
      [
        "▁the",
        "m"
      ],
      [
        "ee",
        "l"
      ],
      [
        "▁f",
        "ing"
      ],
      [
        "rib",
        "uted"
      ],
      [
        "▁e",
        "at"
      ],
      [
        "el",
        "s"
      ],
      [
        "▁b",
        "ub"
      ],
      [
        "▁",
        "use"
      ],
      [
        "▁happ",
        "en"
      ],
      [
        "▁o",
        "thers"
      ],
      [
        "l",
        "ow"
      ],
      [
        "om",
        "e"
      ],
      [
        "▁no",
        "tice"
      ],
      [
        "▁ar",
        "r"
      ],
      [
        "le",
        "ction"
      ],
      [
        "▁diff",
        "erence"
      ],
      [
        "▁fe",
        "el"
      ],
      [
        "▁your",
        "selves"
      ],
      [
        "▁mov",
        "ement"
      ],
      [
        "▁p",
        "ut"
      ],
      [
        "in",
        "ated"
      ],
      [
        "▁with",
        "in"
      ],
      [
        "h",
        "ood"
      ],
      [
        "v",
        "al"
      ],
      [
        "▁pos",
        "ition"
      ],
      [
        "▁pro",
        "ject"
      ],
      [
        "▁fun",
        "ds"
      ],
      [
        "▁vs",
        "."
      ],
      [
        "▁f",
        "ir"
      ],
      [
        "▁stud",
        "ent"
      ],
      [
        "anc",
        "ing"
      ],
      [
        "▁po",
        "st"
      ],
      [
        "u",
        "ro"
      ],
      [
        "▁diff",
        "erent"
      ],
      [
        "▁b",
        "ack"
      ],
      [
        "in",
        "o"
      ],
      [
        "▁b",
        "ro"
      ],
      [
        "▁to",
        "ys"
      ],
      [
        "ic",
        "ation"
      ],
      [
        "em",
        "ber"
      ],
      [
        "▁t",
        "i"
      ],
      [
        "▁!!!",
        "!"
      ],
      [
        "uc",
        "h"
      ],
      [
        "▁w",
        "rit"
      ],
      [
        "▁y",
        "o"
      ],
      [
        "▁p",
        "o"
      ],
      [
        "un",
        "ch"
      ],
      [
        "▁sw",
        "im"
      ],
      [
        "▁comm",
        "ent"
      ],
      [
        "▁se",
        "x"
      ],
      [
        "ro",
        "duction"
      ],
      [
        "▁step",
        "s"
      ],
      [
        "..",
        ".."
      ],
      [
        "▁s",
        "ense"
      ],
      [
        "▁sh",
        "ow"
      ],
      [
        "▁l",
        "oss"
      ],
      [
        "er",
        "t"
      ],
      [
        "▁cir",
        "cle"
      ],
      [
        "▁d",
        "r"
      ],
      [
        "amp",
        "les"
      ],
      [
        "ol",
        "ding"
      ],
      [
        "▁regard",
        "s"
      ],
      [
        "l",
        "ers"
      ],
      [
        "ei",
        "ther"
      ],
      [
        "lic",
        "ation"
      ],
      [
        "▁wh",
        "ich"
      ],
      [
        "▁kit",
        "ty"
      ],
      [
        "i",
        "k"
      ],
      [
        "ation",
        "s"
      ],
      [
        "▁rec",
        "og"
      ],
      [
        "▁d",
        "oll"
      ],
      [
        "▁s",
        "and"
      ],
      [
        "w",
        "ic"
      ],
      [
        "▁n",
        "ot"
      ],
      [
        "▁m",
        "is"
      ],
      [
        "▁exper",
        "i"
      ],
      [
        "▁sugg",
        "est"
      ],
      [
        "ligh",
        "t"
      ],
      [
        "r",
        "ous"
      ],
      [
        "u",
        "n"
      ],
      [
        "▁a",
        "i"
      ],
      [
        "ack",
        "et"
      ],
      [
        "▁d",
        "id"
      ],
      [
        "▁ha",
        "v"
      ],
      [
        "▁cre",
        "am"
      ],
      [
        "▁t",
        "ake"
      ],
      [
        "o",
        "ved"
      ],
      [
        "y",
        "one"
      ],
      [
        "▁gro",
        "up"
      ],
      [
        "r",
        "et"
      ],
      [
        "▁loc",
        "ated"
      ],
      [
        "▁h",
        "at"
      ],
      [
        "▁tr",
        "ade"
      ],
      [
        "▁ph",
        "one"
      ],
      [
        "▁isl",
        "and"
      ],
      [
        "▁watch",
        "ed"
      ],
      [
        "▁b",
        "as"
      ],
      [
        "▁cl",
        "ose"
      ],
      [
        "▁pl",
        "aces"
      ],
      [
        "▁acc",
        "ident"
      ],
      [
        "▁pre",
        "ven"
      ],
      [
        "▁prot",
        "ect"
      ],
      [
        "in",
        "us"
      ],
      [
        "▁as",
        "k"
      ],
      [
        "▁sept",
        "ember"
      ],
      [
        "▁co",
        "ast"
      ],
      [
        "▁year",
        "s"
      ],
      [
        "s",
        "u"
      ],
      [
        "▁",
        "iss"
      ],
      [
        "▁f",
        "ac"
      ],
      [
        "a",
        "ble"
      ],
      [
        "ist",
        "ed"
      ],
      [
        "t",
        "ly"
      ],
      [
        ".d",
        "oc"
      ],
      [
        "▁w",
        "on"
      ],
      [
        "▁peop",
        "le"
      ],
      [
        "▁p",
        "at"
      ],
      [
        "▁re",
        "memb"
      ],
      [
        "▁along",
        "side"
      ],
      [
        "▁ass",
        "oc"
      ],
      [
        "s",
        "t"
      ],
      [
        "▁s",
        "qu"
      ],
      [
        "▁",
        "im"
      ],
      [
        "▁=",
        "=----"
      ],
      [
        "▁pa",
        "id"
      ],
      [
        "▁d",
        "aughter"
      ],
      [
        "oun",
        "d"
      ],
      [
        "▁c",
        "ateg"
      ],
      [
        "▁the",
        "ory"
      ],
      [
        "ul",
        "ar"
      ],
      [
        "▁as",
        "ked"
      ],
      [
        "▁o",
        "n"
      ],
      [
        "▁me",
        "ans"
      ],
      [
        "ur",
        "n"
      ],
      [
        "ave",
        "s"
      ],
      [
        "▁ins",
        "tit"
      ],
      [
        "▁an",
        "im"
      ],
      [
        "▁dep",
        "artment"
      ],
      [
        "▁the",
        "re"
      ],
      [
        "'",
        "re"
      ],
      [
        "as",
        "ter"
      ],
      [
        "or",
        "ds"
      ],
      [
        "▁op",
        "ening"
      ],
      [
        "or",
        "k"
      ],
      [
        "▁rele",
        "ased"
      ],
      [
        "▁lead",
        "ing"
      ],
      [
        "▁for",
        "g"
      ],
      [
        "▁sound",
        "s"
      ],
      [
        "▁sw",
        "ee"
      ],
      [
        "▁fligh",
        "t"
      ],
      [
        "▁",
        "ide"
      ],
      [
        "ol",
        "ved"
      ],
      [
        "▁g",
        "en"
      ],
      [
        "▁doll",
        "ars"
      ],
      [
        "a",
        "ch"
      ],
      [
        "▁rec",
        "ip"
      ],
      [
        "us",
        "ed"
      ],
      [
        "▁kit",
        "t"
      ],
      [
        "▁sw",
        "e"
      ],
      [
        "▁!",
        "!"
      ],
      [
        "▁h",
        "ea"
      ],
      [
        "ot",
        "ed"
      ],
      [
        "▁m",
        "inus"
      ],
      [
        "r",
        "ap"
      ],
      [
        "b",
        "all"
      ],
      [
        "id",
        "er"
      ],
      [
        "ort",
        "h"
      ],
      [
        "▁fr",
        "i"
      ],
      [
        "▁sal",
        "t"
      ],
      [
        "▁build",
        "ing"
      ],
      [
        "▁p",
        "ig"
      ],
      [
        "▁bre",
        "ak"
      ],
      [
        "▁news",
        "p"
      ],
      [
        "▁t",
        "ea"
      ],
      [
        "ec",
        "tion"
      ],
      [
        "b",
        "ur"
      ],
      [
        "alt",
        "h"
      ],
      [
        "p",
        "ly"
      ],
      [
        "▁may",
        "be"
      ],
      [
        "▁temper",
        "ature"
      ],
      [
        "▁gr",
        "and"
      ],
      [
        "▁mom",
        "ent"
      ],
      [
        "a",
        "tive"
      ],
      [
        "▁leg",
        "os"
      ],
      [
        "-",
        "-"
      ],
      [
        "▁e",
        "duc"
      ],
      [
        "▁a",
        "ff"
      ],
      [
        "iv",
        "ing"
      ],
      [
        "▁r",
        "ad"
      ],
      [
        "▁enj",
        "ambment"
      ],
      [
        "▁co",
        "st"
      ],
      [
        "▁o",
        "pp"
      ],
      [
        "ti",
        "c"
      ],
      [
        "▁thurs",
        "day"
      ],
      [
        "▁agre",
        "ement"
      ],
      [
        "▁f",
        "ind"
      ],
      [
        "o",
        "m"
      ],
      [
        "en",
        "ted"
      ],
      [
        "▁comm",
        "and"
      ],
      [
        "▁enc",
        "our"
      ],
      [
        "▁ca",
        "l"
      ],
      [
        "i",
        "ed"
      ],
      [
        "▁f",
        "ood"
      ],
      [
        "▁breakf",
        "ast"
      ],
      [
        "ur",
        "ned"
      ],
      [
        "▁de",
        "ce"
      ],
      [
        "▁g",
        "ard"
      ],
      [
        "▁pos",
        "t"
      ],
      [
        "▁dro",
        "p"
      ],
      [
        "▁resour",
        "ces"
      ],
      [
        "▁pr",
        "om"
      ],
      [
        "ac",
        "h"
      ],
      [
        "▁to",
        "y"
      ],
      [
        "▁say",
        "s"
      ],
      [
        "os",
        "ite"
      ],
      [
        "▁f",
        "ound"
      ],
      [
        "▁reg",
        "ar"
      ],
      [
        "i",
        "um"
      ],
      [
        "▁qu",
        "ar"
      ],
      [
        "ast",
        "e"
      ],
      [
        "▁c",
        "ab"
      ],
      [
        "▁ser",
        "v"
      ],
      [
        "▁e",
        "gg"
      ],
      [
        "▁li",
        "m"
      ],
      [
        "ap",
        "ers"
      ],
      [
        "▁e",
        "mp"
      ],
      [
        "▁...",
        "."
      ],
      [
        "i",
        "c"
      ],
      [
        "▁conc",
        "lu"
      ],
      [
        "▁as",
        "ide"
      ],
      [
        "ow",
        "n"
      ],
      [
        "▁bir",
        "ds"
      ],
      [
        "▁li",
        "ve"
      ],
      [
        "c",
        "es"
      ],
      [
        "▁ind",
        "epend"
      ],
      [
        "▁p",
        "os"
      ],
      [
        "▁d",
        "oc"
      ],
      [
        "▁d",
        "all"
      ],
      [
        "▁?",
        "?"
      ],
      [
        "▁off",
        "ic"
      ],
      [
        "us",
        "e"
      ],
      [
        "id",
        "ent"
      ],
      [
        "▁h",
        "ome"
      ],
      [
        "▁b",
        "oo"
      ],
      [
        "▁th",
        "an"
      ],
      [
        "▁",
        "as"
      ],
      [
        "ot",
        "e"
      ],
      [
        "▁pic",
        "tures"
      ],
      [
        "▁c",
        "er"
      ],
      [
        "▁ey",
        "e"
      ],
      [
        "▁ti",
        "mes"
      ],
      [
        "ti",
        "e"
      ],
      [
        "▁gr",
        "ound"
      ],
      [
        "f",
        "ir"
      ],
      [
        "ch",
        "ing"
      ],
      [
        "▁q",
        "u"
      ],
      [
        "▁show",
        "s"
      ],
      [
        "s",
        "i"
      ],
      [
        "▁dat",
        "a"
      ],
      [
        "a",
        "mp"
      ],
      [
        "ent",
        "ed"
      ],
      [
        "▁maint",
        "ain"
      ],
      [
        "▁ha",
        "pp"
      ],
      [
        "▁m",
        "orn"
      ],
      [
        "▁",
        "th"
      ],
      [
        "d",
        "en"
      ],
      [
        "▁cos",
        "ts"
      ],
      [
        "▁add",
        "ress"
      ],
      [
        "▁r",
        "ub"
      ],
      [
        "▁r",
        "ock"
      ],
      [
        "▁r",
        "ide"
      ],
      [
        "▁un",
        "e"
      ],
      [
        "or",
        "ed"
      ],
      [
        "▁an",
        "th"
      ],
      [
        "▁stat",
        "e"
      ],
      [
        "▁bo",
        "th"
      ],
      [
        "o",
        "r"
      ],
      [
        "ve",
        "n"
      ],
      [
        "is",
        "ions"
      ],
      [
        "▁a",
        "vailable"
      ],
      [
        "i",
        "e"
      ],
      [
        "▁r",
        "ain"
      ],
      [
        "m",
        "p"
      ],
      [
        "▁n",
        "ight"
      ],
      [
        "▁cont",
        "e"
      ],
      [
        "▁",
        "`s"
      ],
      [
        "▁ac",
        "tions"
      ],
      [
        "▁underst",
        "and"
      ],
      [
        "▁f",
        "l"
      ],
      [
        "e",
        "st"
      ],
      [
        "▁stand",
        "ards"
      ],
      [
        "in",
        "ks"
      ],
      [
        "▁n",
        "o"
      ],
      [
        "▁wi",
        "ll"
      ],
      [
        "▁st",
        "uff"
      ],
      [
        "▁jo",
        "ined"
      ],
      [
        "▁pos",
        "s"
      ],
      [
        "o",
        "nd"
      ],
      [
        "▁ma",
        "j"
      ],
      [
        "a",
        "k"
      ],
      [
        "▁f",
        "r"
      ],
      [
        "a",
        "ds"
      ],
      [
        "▁un",
        "like"
      ],
      [
        "▁abo",
        "ve"
      ],
      [
        "r",
        "uc"
      ],
      [
        "▁s",
        "pr"
      ],
      [
        "o",
        "ther"
      ],
      [
        "▁s",
        "w"
      ],
      [
        "enc",
        "y"
      ],
      [
        "▁beside",
        "s"
      ],
      [
        "▁someth",
        "ing"
      ],
      [
        "oth",
        "er"
      ],
      [
        "▁)",
        ")"
      ],
      [
        "▁resul",
        "t"
      ],
      [
        "▁oak",
        "land"
      ],
      [
        "os",
        "ed"
      ],
      [
        "▁le",
        "ft"
      ],
      [
        "ait",
        "h"
      ],
      [
        "▁----",
        "=="
      ],
      [
        "▁dis",
        "c"
      ],
      [
        "▁ar",
        "eas"
      ],
      [
        "▁att",
        "acks"
      ],
      [
        "li",
        "ament"
      ],
      [
        "ec",
        "tive"
      ],
      [
        "▁sour",
        "ces"
      ],
      [
        "▁la",
        "ugh"
      ],
      [
        "▁through",
        "out"
      ],
      [
        "u",
        "ation"
      ],
      [
        "▁e-m",
        "ail"
      ],
      [
        "igh",
        "b"
      ],
      [
        "i",
        "gh"
      ],
      [
        "▁ye",
        "ar"
      ],
      [
        "m",
        "on"
      ],
      [
        "as",
        "ing"
      ],
      [
        "▁c",
        "om"
      ],
      [
        "e",
        "e"
      ],
      [
        "▁j",
        "ump"
      ],
      [
        "derst",
        "and"
      ],
      [
        "▁s",
        "end"
      ],
      [
        "▁rep",
        "e"
      ],
      [
        "res",
        "ted"
      ],
      [
        "▁th",
        "row"
      ],
      [
        "▁del",
        "ive"
      ],
      [
        "▁ma",
        "y"
      ],
      [
        "▁bo",
        "ys"
      ],
      [
        "▁hist",
        "ory"
      ],
      [
        "y",
        "st"
      ],
      [
        "u",
        "mb"
      ],
      [
        "▁jo",
        "b"
      ],
      [
        "▁p",
        "ay"
      ],
      [
        "▁?",
        "????"
      ],
      [
        "▁put",
        "ting"
      ],
      [
        "▁b",
        "y"
      ],
      [
        "o",
        "ices"
      ],
      [
        "is",
        "ting"
      ],
      [
        "▁f",
        "re"
      ],
      [
        "!",
        "!"
      ],
      [
        "▁li",
        "ving"
      ],
      [
        "▁app",
        "ear"
      ],
      [
        "ro",
        "w"
      ],
      [
        "e",
        "th"
      ],
      [
        "▁---",
        "-"
      ],
      [
        "▁air",
        "plan"
      ],
      [
        "▁mem",
        "ory"
      ],
      [
        "▁num",
        "bers"
      ],
      [
        "▁go",
        "al"
      ],
      [
        "▁sm",
        "o"
      ],
      [
        "▁",
        ".."
      ],
      [
        "in",
        "k"
      ],
      [
        "in",
        "ds"
      ],
      [
        "▁t",
        "ried"
      ],
      [
        "▁as",
        "tride"
      ],
      [
        "or",
        "th"
      ],
      [
        "▁h",
        "ar"
      ],
      [
        "▁pres",
        "ence"
      ],
      [
        "?",
        "?"
      ],
      [
        "▁hea",
        "ds"
      ],
      [
        "▁t",
        "v"
      ],
      [
        "▁",
        "al"
      ],
      [
        "b",
        "le"
      ],
      [
        "▁t",
        "urn"
      ],
      [
        "ess",
        "ion"
      ],
      [
        "▁thre",
        "at"
      ],
      [
        "▁be",
        "en"
      ],
      [
        "▁t",
        "ar"
      ],
      [
        "▁open",
        "ing"
      ],
      [
        "me",
        "mb"
      ],
      [
        "p",
        "en"
      ],
      [
        "▁mov",
        "ies"
      ],
      [
        "▁conc",
        "er"
      ],
      [
        "▁fi",
        "x"
      ],
      [
        "▁j",
        "ud"
      ],
      [
        "▁pro",
        "s"
      ],
      [
        "▁em",
        "p"
      ],
      [
        "il",
        "y"
      ],
      [
        "▁an",
        "al"
      ],
      [
        "▁spr",
        "ing"
      ],
      [
        "o",
        "ss"
      ],
      [
        "▁pas",
        "s"
      ],
      [
        "▁ri",
        "ght"
      ],
      [
        "▁li",
        "ps"
      ],
      [
        "▁thir",
        "d"
      ],
      [
        "ar",
        "t"
      ],
      [
        "▁af",
        "t"
      ],
      [
        "u",
        "b"
      ],
      [
        "▁s",
        "olution"
      ],
      [
        "▁",
        "-"
      ],
      [
        "▁h",
        "oney"
      ],
      [
        "▁w",
        "ol"
      ],
      [
        "▁sha",
        "ll"
      ],
      [
        "▁s",
        "ur"
      ],
      [
        "▁t",
        "em"
      ],
      [
        "▁",
        "ident"
      ],
      [
        "ati",
        "ve"
      ],
      [
        "y",
        "th"
      ],
      [
        "▁im",
        "ag"
      ],
      [
        "▁pl",
        "ants"
      ],
      [
        "▁a",
        "v"
      ],
      [
        "av",
        "es"
      ],
      [
        "▁dem",
        "ocracy"
      ],
      [
        "▁des",
        "pite"
      ],
      [
        "▁ar",
        "g"
      ],
      [
        "▁or",
        "gan"
      ],
      [
        "▁s",
        "li"
      ],
      [
        "▁mili",
        "t"
      ],
      [
        "▁sup",
        "er"
      ],
      [
        "▁fo",
        "und"
      ],
      [
        "▁st",
        "ar"
      ],
      [
        "▁b",
        "unch"
      ],
      [
        "f",
        "f"
      ],
      [
        "▁mil",
        "lions"
      ],
      [
        "▁b",
        "ir"
      ],
      [
        "▁egg",
        "s"
      ],
      [
        "r",
        "e"
      ],
      [
        "ec",
        "k"
      ],
      [
        "▁enjo",
        "y"
      ],
      [
        "▁f",
        "oods"
      ],
      [
        "▁g",
        "ot"
      ],
      [
        "h",
        "ead"
      ],
      [
        "men",
        "ts"
      ],
      [
        "x",
        "t"
      ],
      [
        "▁th",
        "ing"
      ],
      [
        "▁ou",
        "t"
      ],
      [
        "▁describ",
        "ed"
      ],
      [
        "a",
        "st"
      ],
      [
        "b",
        "on"
      ],
      [
        "a",
        "lly"
      ],
      [
        "▁sk",
        "in"
      ],
      [
        "▁is",
        "su"
      ],
      [
        "o",
        "ur"
      ],
      [
        "▁mo",
        "ving"
      ],
      [
        "▁br",
        "ain"
      ],
      [
        "▁l",
        "itt"
      ],
      [
        "▁p",
        "ast"
      ],
      [
        "ver",
        "y"
      ],
      [
        "▁arr",
        "ang"
      ],
      [
        "▁acc",
        "ording"
      ],
      [
        "▁re",
        "f"
      ],
      [
        "▁f",
        "oc"
      ],
      [
        "▁f",
        "all"
      ],
      [
        "f",
        "ic"
      ],
      [
        "▁t",
        "ape"
      ],
      [
        "▁work",
        "ers"
      ],
      [
        "▁re",
        "ach"
      ],
      [
        "▁re",
        "ve"
      ],
      [
        "▁th",
        "ir"
      ],
      [
        "▁own",
        "er"
      ],
      [
        "▁s",
        "www"
      ],
      [
        "t",
        "ie"
      ],
      [
        "▁ob",
        "t"
      ],
      [
        "▁p",
        "red"
      ],
      [
        "▁territ",
        "ory"
      ],
      [
        "▁",
        "@"
      ],
      [
        "▁belon",
        "g"
      ],
      [
        "▁min",
        "ut"
      ],
      [
        "▁",
        "+"
      ],
      [
        "▁w",
        "ay"
      ],
      [
        "mit",
        "ted"
      ],
      [
        "▁ex",
        "cept"
      ],
      [
        "▁'",
        "ll"
      ],
      [
        "row",
        "s"
      ],
      [
        "▁som",
        "eth"
      ],
      [
        "ar",
        "s"
      ],
      [
        "▁we",
        "ather"
      ],
      [
        "▁who",
        "ever"
      ],
      [
        "▁ca",
        "ught"
      ],
      [
        "c",
        "t"
      ],
      [
        "▁",
        "y"
      ],
      [
        "c",
        "a"
      ],
      [
        "▁watch",
        "ing"
      ],
      [
        "▁cre",
        "ation"
      ],
      [
        "▁not",
        "ic"
      ],
      [
        "▁ev",
        "ening"
      ],
      [
        "▁let",
        "ters"
      ],
      [
        "f",
        "l"
      ],
      [
        "▁incl",
        "uding"
      ],
      [
        "▁p",
        "ub"
      ],
      [
        "op",
        "e"
      ],
      [
        "▁l",
        "a"
      ],
      [
        "▁c",
        "ode"
      ],
      [
        "▁ever",
        "y"
      ],
      [
        "▁lea",
        "ve"
      ],
      [
        "▁bo",
        "y"
      ],
      [
        "▁lo",
        "an"
      ],
      [
        "▁ques",
        "tions"
      ],
      [
        "▁counc",
        "il"
      ],
      [
        "b",
        "o"
      ],
      [
        "▁artic",
        "le"
      ],
      [
        "▁pl",
        "aced"
      ],
      [
        "▁p",
        "ain"
      ],
      [
        "r",
        "or"
      ],
      [
        "▁d",
        "on"
      ],
      [
        "▁g",
        "u"
      ],
      [
        "are",
        "d"
      ],
      [
        "▁s",
        "ister"
      ],
      [
        "▁w",
        "ild"
      ],
      [
        "▁so",
        "uth"
      ],
      [
        "▁",
        "2"
      ],
      [
        "er",
        "v"
      ],
      [
        "▁n",
        "one"
      ],
      [
        "▁beg",
        "an"
      ],
      [
        "▁supp",
        "osed"
      ],
      [
        "▁describ",
        "e"
      ],
      [
        "cro",
        "ss"
      ],
      [
        "▁fun",
        "d"
      ],
      [
        "re",
        "w"
      ],
      [
        "▁re",
        "l"
      ],
      [
        "▁govern",
        "ments"
      ],
      [
        "▁comp",
        "uter"
      ],
      [
        "om",
        "m"
      ],
      [
        "▁p",
        "ack"
      ],
      [
        "▁month",
        "s"
      ],
      [
        "▁",
        "d"
      ],
      [
        "▁sur",
        "v"
      ],
      [
        "▁t",
        "ell"
      ],
      [
        "▁i",
        "r"
      ],
      [
        "▁inclu",
        "ded"
      ],
      [
        "▁a",
        "n"
      ],
      [
        "▁",
        "“"
      ],
      [
        "▁s",
        "ched"
      ],
      [
        "▁m",
        "ili"
      ],
      [
        "▁col",
        "umn"
      ],
      [
        "▁",
        "b"
      ],
      [
        "lic",
        "ations"
      ],
      [
        "▁ex",
        "pl"
      ],
      [
        "▁behavi",
        "or"
      ],
      [
        "▁an",
        "d"
      ],
      [
        "▁know",
        "n"
      ],
      [
        "a",
        "ck"
      ],
      [
        "▁",
        "ing"
      ],
      [
        "▁f",
        "ire"
      ],
      [
        "ag",
        "ed"
      ],
      [
        "▁mid",
        "dle"
      ],
      [
        "▁s",
        "h"
      ],
      [
        "▁atlan",
        "ta"
      ],
      [
        "▁h",
        "e"
      ],
      [
        "▁con",
        "s"
      ],
      [
        "ith",
        "st"
      ],
      [
        "▁le",
        "t"
      ],
      [
        "▁arri",
        "ve"
      ],
      [
        "u",
        "tions"
      ],
      [
        "▁le",
        "a"
      ],
      [
        "▁pro",
        "ble"
      ],
      [
        "or",
        "row"
      ],
      [
        "▁un",
        "d"
      ],
      [
        "amp",
        "le"
      ],
      [
        "uc",
        "k"
      ],
      [
        "▁th",
        "ose"
      ],
      [
        "▁min",
        "us"
      ],
      [
        "▁",
        "ti"
      ],
      [
        "▁prac",
        "tice"
      ],
      [
        "▁inn",
        "ov"
      ],
      [
        "▁",
        "ir"
      ],
      [
        "i",
        "ent"
      ],
      [
        "▁d",
        "o"
      ],
      [
        "▁cont",
        "ent"
      ],
      [
        "i",
        "ght"
      ],
      [
        "▁blan",
        "ket"
      ],
      [
        "es",
        "sed"
      ],
      [
        "▁int",
        "ended"
      ],
      [
        "▁contr",
        "act"
      ],
      [
        "▁an",
        "ti"
      ],
      [
        "▁cre",
        "ate"
      ],
      [
        "▁ch",
        "ick"
      ],
      [
        "▁c",
        "ity"
      ],
      [
        "▁ha",
        "lf"
      ],
      [
        "▁m",
        "in"
      ],
      [
        "▁st",
        "ore"
      ],
      [
        "▁p",
        "as"
      ],
      [
        "▁f",
        "avor"
      ],
      [
        "er",
        "gy"
      ],
      [
        "▁’",
        "’"
      ],
      [
        "o",
        "h"
      ],
      [
        "▁",
        "lights"
      ],
      [
        "eth",
        "er"
      ],
      [
        "▁pre",
        "t"
      ],
      [
        "▁bac",
        "k"
      ],
      [
        "▁gre",
        "at"
      ],
      [
        "▁seem",
        "s"
      ],
      [
        "▁imp",
        "act"
      ],
      [
        "▁so",
        "il"
      ],
      [
        "▁sp",
        "oon"
      ],
      [
        "▁pr",
        "ess"
      ],
      [
        "▁exp",
        "ected"
      ],
      [
        "▁st",
        "e"
      ],
      [
        "▁ec",
        "onom"
      ],
      [
        "tion",
        "s"
      ],
      [
        "▁de",
        "li"
      ],
      [
        "▁tem",
        "per"
      ],
      [
        "▁val",
        "ue"
      ],
      [
        "l",
        "ation"
      ],
      [
        "ti",
        "ce"
      ],
      [
        "▁m",
        "u"
      ],
      [
        "▁s",
        "le"
      ],
      [
        "▁par",
        "ents"
      ],
      [
        "▁m",
        "od"
      ],
      [
        "ut",
        "ation"
      ],
      [
        "eng",
        "th"
      ],
      [
        "▁leave",
        "s"
      ],
      [
        "▁tal",
        "k"
      ],
      [
        "▁c",
        "ha"
      ],
      [
        "k",
        "s"
      ],
      [
        "▁l",
        "i"
      ],
      [
        "▁lea",
        "ving"
      ],
      [
        "e",
        "d"
      ],
      [
        "ag",
        "e"
      ],
      [
        "▁inter",
        "v"
      ],
      [
        "pl",
        "oy"
      ],
      [
        "▁m",
        "a"
      ],
      [
        "ir",
        "st"
      ],
      [
        "▁u",
        "m"
      ],
      [
        "▁s",
        "mal"
      ],
      [
        "▁h",
        "or"
      ],
      [
        "g",
        "o"
      ],
      [
        "▁gu",
        "id"
      ],
      [
        "▁ev",
        "ery"
      ],
      [
        "▁dec",
        "l"
      ],
      [
        "ll",
        "ing"
      ],
      [
        "▁experien",
        "ce"
      ],
      [
        "le",
        "y"
      ],
      [
        "ac",
        "ks"
      ],
      [
        "▁par",
        "tic"
      ],
      [
        "or",
        "d"
      ],
      [
        "▁cop",
        "y"
      ],
      [
        "▁mon",
        "key"
      ],
      [
        "▁f",
        "ather"
      ],
      [
        "or",
        "ies"
      ],
      [
        "▁la",
        "un"
      ],
      [
        "i",
        "ce"
      ],
      [
        "ron",
        "g"
      ],
      [
        "▁pro",
        "duc"
      ],
      [
        "▁minut",
        "e"
      ],
      [
        "▁f",
        "irst"
      ],
      [
        "er",
        "c"
      ],
      [
        "o",
        "le"
      ],
      [
        "▁hi",
        "gh"
      ],
      [
        "▁in",
        "to"
      ],
      [
        "▁",
        "bo"
      ],
      [
        "▁w",
        "ork"
      ],
      [
        "or",
        "ing"
      ],
      [
        "it",
        "al"
      ],
      [
        "e",
        "ti"
      ],
      [
        "lik",
        "e"
      ],
      [
        "▁a",
        "llow"
      ],
      [
        "c",
        "tion"
      ],
      [
        "▁san",
        "d"
      ],
      [
        "▁s",
        "ha"
      ],
      [
        "l",
        "er"
      ],
      [
        "o",
        "p"
      ],
      [
        "▁te",
        "xt"
      ],
      [
        "▁‘",
        "’"
      ],
      [
        "▁imp",
        "ort"
      ],
      [
        "r",
        "il"
      ],
      [
        "o",
        "g"
      ],
      [
        "▁arri",
        "ving"
      ],
      [
        "▁in",
        "iti"
      ],
      [
        "▁elect",
        "ric"
      ],
      [
        "▁b",
        "l"
      ],
      [
        "▁c",
        "ard"
      ],
      [
        "un",
        "d"
      ],
      [
        "▁m",
        "other"
      ],
      [
        "a",
        "it"
      ],
      [
        "▁accep",
        "t"
      ],
      [
        "▁ind",
        "ic"
      ],
      [
        "▁up",
        "on"
      ],
      [
        "▁a",
        "way"
      ],
      [
        "ab",
        "les"
      ],
      [
        "▁v",
        "i"
      ],
      [
        "i",
        "x"
      ],
      [
        "▁you",
        "r"
      ],
      [
        "▁ch",
        "eck"
      ],
      [
        "▁who",
        "m"
      ],
      [
        "i",
        "ved"
      ],
      [
        "▁chec",
        "k"
      ],
      [
        "u",
        "ally"
      ],
      [
        "ce",
        "ed"
      ],
      [
        "▁h",
        "al"
      ],
      [
        "▁for",
        "war"
      ],
      [
        "▁hosp",
        "ital"
      ],
      [
        "t",
        "t"
      ],
      [
        "t",
        "a"
      ],
      [
        "▁reas",
        "on"
      ],
      [
        "y",
        "ing"
      ],
      [
        "▁doc",
        "ument"
      ],
      [
        "os",
        "ing"
      ],
      [
        "▁str",
        "ength"
      ],
      [
        "▁o",
        "nly"
      ],
      [
        "▁me",
        "as"
      ],
      [
        "▁siz",
        "e"
      ],
      [
        "▁fl",
        "ag"
      ],
      [
        "▁air",
        "port"
      ],
      [
        "▁attem",
        "pt"
      ],
      [
        "is",
        "ts"
      ],
      [
        "▁u",
        "r"
      ],
      [
        "▁whe",
        "n"
      ],
      [
        "▁---------------------------------",
        "----------------"
      ],
      [
        "l",
        "an"
      ],
      [
        "▁",
        "min"
      ],
      [
        "▁w",
        "as"
      ],
      [
        "o",
        "on"
      ],
      [
        "▁p",
        "al"
      ],
      [
        "▁ne",
        "ws"
      ],
      [
        "▁r",
        "el"
      ],
      [
        "ac",
        "k"
      ],
      [
        "il",
        "l"
      ],
      [
        "d",
        "s"
      ],
      [
        "▁bir",
        "d"
      ],
      [
        "wor",
        "k"
      ],
      [
        "▁mess",
        "age"
      ],
      [
        "▁bea",
        "uty"
      ],
      [
        "duc",
        "tion"
      ],
      [
        "▁inst",
        "ead"
      ],
      [
        "am",
        "b"
      ],
      [
        "▁u",
        "nd"
      ],
      [
        "▁con",
        "cer"
      ],
      [
        "▁s",
        "alt"
      ],
      [
        "ch",
        "es"
      ],
      [
        "a",
        "il"
      ],
      [
        "t",
        "ures"
      ],
      [
        "▁s",
        "o"
      ],
      [
        "at",
        "ing"
      ],
      [
        "▁h",
        "it"
      ],
      [
        "▁sy",
        "stem"
      ],
      [
        "▁b",
        "re"
      ],
      [
        "▁inter",
        "n"
      ],
      [
        "▁li",
        "on"
      ],
      [
        "▁co",
        "m"
      ],
      [
        "▁do",
        "ne"
      ],
      [
        "li",
        "ef"
      ],
      [
        "ti",
        "m"
      ],
      [
        "▁m",
        "i"
      ],
      [
        "▁",
        "f"
      ],
      [
        "▁sc",
        "r"
      ],
      [
        "p",
        "t"
      ],
      [
        "▁teach",
        "er"
      ],
      [
        "▁",
        "ve"
      ],
      [
        "▁lear",
        "ning"
      ],
      [
        "▁in",
        "te"
      ],
      [
        "ac",
        "ked"
      ],
      [
        "▁",
        "up"
      ],
      [
        "▁e",
        "d"
      ],
      [
        "ch",
        "ie"
      ],
      [
        "▁st",
        "ories"
      ],
      [
        "i",
        "qu"
      ],
      [
        "ation",
        "al"
      ],
      [
        "▁f",
        "elt"
      ],
      [
        "▁birth",
        "day"
      ],
      [
        "▁tom",
        "orrow"
      ],
      [
        "▁ro",
        "ad"
      ],
      [
        "▁p",
        "ost"
      ],
      [
        "f",
        "are"
      ],
      [
        "o",
        "ne"
      ],
      [
        "▁sh",
        "ip"
      ],
      [
        "▁st",
        "ation"
      ],
      [
        "it",
        "y"
      ],
      [
        "▁meth",
        "od"
      ],
      [
        "▁gr",
        "oup"
      ],
      [
        "▁cru",
        "ise"
      ],
      [
        "▁th",
        "re"
      ],
      [
        "▁c",
        "ook"
      ],
      [
        "▁ju",
        "ice"
      ],
      [
        "o",
        "o"
      ],
      [
        "▁t",
        "er"
      ],
      [
        "▁pr",
        "ot"
      ],
      [
        "a",
        "d"
      ],
      [
        "▁st",
        "ud"
      ],
      [
        "▁t",
        "own"
      ],
      [
        "▁pittsbur",
        "gh"
      ],
      [
        "▁ter",
        "m"
      ],
      [
        "▁c",
        "ond"
      ],
      [
        "▁rec",
        "omm"
      ],
      [
        "▁see",
        "ing"
      ],
      [
        "▁l",
        "et"
      ],
      [
        "▁d",
        "ol"
      ],
      [
        "▁m",
        "ake"
      ],
      [
        "▁g",
        "ri"
      ],
      [
        "▁sandwic",
        "h"
      ],
      [
        "u",
        "me"
      ],
      [
        "▁beh",
        "avi"
      ],
      [
        "▁l",
        "ink"
      ],
      [
        "▁mus",
        "ic"
      ],
      [
        "▁d",
        "one"
      ],
      [
        "▁techn",
        "ology"
      ],
      [
        "▁for",
        "th"
      ],
      [
        "▁ser",
        "ved"
      ],
      [
        "▁aut",
        "h"
      ],
      [
        "▁us",
        "ed"
      ],
      [
        "▁cli",
        "mate"
      ],
      [
        "▁s",
        "at"
      ],
      [
        "ap",
        "er"
      ],
      [
        "▁con",
        "duc"
      ],
      [
        "t",
        "i"
      ],
      [
        "it",
        "ies"
      ],
      [
        "▁right",
        "s"
      ],
      [
        "as",
        "es"
      ],
      [
        "ord",
        "ers"
      ],
      [
        "▁",
        "l"
      ],
      [
        "a",
        "ti"
      ],
      [
        "▁airlin",
        "e"
      ],
      [
        "▁",
        "3"
      ],
      [
        "▁stop",
        "over"
      ],
      [
        "i",
        "z"
      ],
      [
        "▁cr",
        "ack"
      ],
      [
        "▁g",
        "et"
      ],
      [
        "a",
        "ir"
      ],
      [
        "em",
        "a"
      ],
      [
        "▁v",
        "ers"
      ],
      [
        "▁b",
        "ill"
      ],
      [
        "▁ch",
        "a"
      ],
      [
        "▁con",
        "vers"
      ],
      [
        "▁.",
        "?"
      ],
      [
        "▁co",
        "r"
      ],
      [
        "it",
        "ing"
      ],
      [
        "ar",
        "k"
      ],
      [
        "et",
        "h"
      ],
      [
        "ar",
        "ds"
      ],
      [
        "▁p",
        "enc"
      ],
      [
        "▁pr",
        "op"
      ],
      [
        "▁view",
        "s"
      ],
      [
        "▁pr",
        "in"
      ],
      [
        "oo",
        "t"
      ],
      [
        "e",
        "m"
      ],
      [
        "p",
        "s"
      ],
      [
        "ac",
        "ed"
      ],
      [
        "▁a",
        "b"
      ],
      [
        "▁sch",
        "ol"
      ],
      [
        "tic",
        "ip"
      ],
      [
        "▁bor",
        "n"
      ],
      [
        "▁en",
        "em"
      ],
      [
        "re",
        "t"
      ],
      [
        "for",
        "med"
      ],
      [
        "▁in",
        "v"
      ],
      [
        "▁e",
        "-m"
      ],
      [
        "l",
        "ly"
      ],
      [
        "▁think",
        "ing"
      ],
      [
        "t",
        "on"
      ],
      [
        "or",
        "m"
      ],
      [
        "▁r",
        "is"
      ],
      [
        "▁par",
        "t"
      ],
      [
        "▁v",
        "et"
      ],
      [
        "▁1",
        "9"
      ],
      [
        "in",
        "d"
      ],
      [
        "▁st",
        "ate"
      ],
      [
        "▁m",
        "outh"
      ],
      [
        "▁r",
        "ights"
      ],
      [
        "▁law",
        "s"
      ],
      [
        "▁laur",
        "a"
      ],
      [
        "▁d",
        "ay"
      ],
      [
        "ic",
        "t"
      ],
      [
        "▁rep",
        "orts"
      ],
      [
        "▁s",
        "uit"
      ],
      [
        "i",
        "r"
      ],
      [
        "▁o",
        "w"
      ],
      [
        "er",
        "ation"
      ],
      [
        "▁cont",
        "r"
      ],
      [
        "▁ac",
        "t"
      ],
      [
        "▁un",
        "ivers"
      ],
      [
        "▁tu",
        "esday"
      ],
      [
        "str",
        "uc"
      ],
      [
        "▁********",
        "**"
      ],
      [
        "▁tr",
        "aff"
      ],
      [
        "in",
        "ing"
      ],
      [
        "v",
        "ision"
      ],
      [
        "▁in",
        "struc"
      ],
      [
        "▁cons",
        "tit"
      ],
      [
        "l",
        "ik"
      ],
      [
        "ligh",
        "ts"
      ],
      [
        "▁w",
        "atch"
      ],
      [
        "▁_____",
        "______"
      ],
      [
        "▁",
        "re"
      ],
      [
        "▁mention",
        "ed"
      ],
      [
        "tern",
        "oon"
      ],
      [
        "▁independ",
        "ence"
      ],
      [
        "▁op",
        "in"
      ],
      [
        "▁off",
        "ered"
      ],
      [
        "▁recomm",
        "ended"
      ],
      [
        "▁---------------------------------------------------------------------",
        "-"
      ],
      [
        "o",
        "wn"
      ],
      [
        "get",
        "her"
      ],
      [
        "▁su",
        "ff"
      ],
      [
        "ib",
        "ilities"
      ],
      [
        "▁menti",
        "oned"
      ],
      [
        "▁de",
        "s"
      ],
      [
        "▁counterpar",
        "ty"
      ],
      [
        "▁ve",
        "hic"
      ],
      [
        "▁instit",
        "utions"
      ],
      [
        "▁airplan",
        "e"
      ],
      [
        "▁f",
        "ig"
      ],
      [
        "▁inclu",
        "ding"
      ],
      [
        "e",
        "l"
      ],
      [
        "▁adop",
        "ted"
      ],
      [
        "▁rep",
        "l"
      ],
      [
        "▁pre",
        "fer"
      ],
      [
        "w",
        "ay"
      ],
      [
        "▁ke",
        "y"
      ],
      [
        "s",
        "ts"
      ],
      [
        "▁m",
        "et"
      ],
      [
        "e",
        "r"
      ],
      [
        "▁develop",
        "ment"
      ],
      [
        "▁milit",
        "ary"
      ],
      [
        "p",
        "tion"
      ],
      [
        "▁pres",
        "s"
      ],
      [
        "▁be",
        "at"
      ],
      [
        "▁?",
        "!"
      ],
      [
        "▁",
        "("
      ],
      [
        "▁pro",
        "jects"
      ],
      [
        "▁en",
        "ded"
      ],
      [
        "n",
        "ers"
      ],
      [
        "▁r",
        "ice"
      ],
      [
        "▁grow",
        "th"
      ],
      [
        "re",
        "s"
      ],
      [
        "▁c",
        "ash"
      ],
      [
        "▁d",
        "ad"
      ],
      [
        "▁choo",
        "se"
      ],
      [
        "▁pl",
        "e"
      ],
      [
        "▁fi",
        "le"
      ],
      [
        "▁ow",
        "n"
      ],
      [
        "▁",
        "—"
      ],
      [
        "▁-",
        "--------------------------------"
      ],
      [
        "▁colle",
        "ge"
      ],
      [
        "e",
        "ther"
      ],
      [
        "▁c",
        "over"
      ],
      [
        "▁writ",
        "ing"
      ],
      [
        "ul",
        "ations"
      ],
      [
        "▁l",
        "ar"
      ],
      [
        "ic",
        "s"
      ],
      [
        "ar",
        "ed"
      ],
      [
        "if",
        "y"
      ],
      [
        "er",
        "ate"
      ],
      [
        "▁wh",
        "o"
      ],
      [
        "▁post",
        "ed"
      ],
      [
        "ou",
        "se"
      ],
      [
        "▁c",
        "op"
      ],
      [
        "▁we",
        "ap"
      ],
      [
        "▁b",
        "est"
      ],
      [
        "▁c",
        "ry"
      ],
      [
        "▁in",
        "n"
      ],
      [
        "▁c",
        "ust"
      ],
      [
        "▁cons",
        "um"
      ],
      [
        "▁fri",
        "ends"
      ],
      [
        "▁poc",
        "ket"
      ],
      [
        "▁e",
        "m"
      ],
      [
        "▁dog",
        "g"
      ],
      [
        "▁com",
        "ed"
      ],
      [
        "▁fam",
        "ily"
      ],
      [
        "an",
        "ted"
      ],
      [
        "e",
        "re"
      ],
      [
        "▁k",
        "ind"
      ],
      [
        "▁fi",
        "ll"
      ],
      [
        "i",
        "ss"
      ],
      [
        "▁g",
        "ar"
      ],
      [
        "▁m",
        "ass"
      ],
      [
        "▁e",
        "ach"
      ],
      [
        "▁ch",
        "ang"
      ],
      [
        "▁ap",
        "artment"
      ],
      [
        "▁h",
        "and"
      ],
      [
        "▁tech",
        "n"
      ],
      [
        "▁far",
        "e"
      ],
      [
        "▁",
        "'s"
      ],
      [
        "▁",
        "oc"
      ],
      [
        "ri",
        "b"
      ],
      [
        "▁men",
        "u"
      ],
      [
        "a",
        "m"
      ],
      [
        "▁bl",
        "ock"
      ],
      [
        "▁m",
        "ap"
      ],
      [
        "▁fe",
        "et"
      ],
      [
        "▁r",
        "ates"
      ],
      [
        "o",
        "ol"
      ],
      [
        "om",
        "p"
      ],
      [
        "lin",
        "e"
      ],
      [
        "▁sp",
        "ir"
      ],
      [
        "g",
        "ency"
      ],
      [
        "▁f",
        "ace"
      ],
      [
        "▁f",
        "ol"
      ],
      [
        "▁j",
        "www"
      ],
      [
        "▁g",
        "ave"
      ],
      [
        "▁op",
        "portun"
      ],
      [
        "▁m",
        "ix"
      ],
      [
        "▁u",
        "h"
      ],
      [
        "▁n",
        "'t"
      ],
      [
        "▁aft",
        "er"
      ],
      [
        "▁notw",
        "ithstanding"
      ],
      [
        "ar",
        "e"
      ],
      [
        "▁langu",
        "ages"
      ],
      [
        "▁wh",
        "at"
      ],
      [
        "▁",
        "es"
      ],
      [
        "▁ev",
        "ents"
      ],
      [
        "▁-",
        "----"
      ],
      [
        "ro",
        "duc"
      ],
      [
        "▁belie",
        "ved"
      ],
      [
        "e",
        "ss"
      ],
      [
        "▁be",
        "low"
      ],
      [
        "▁underst",
        "anding"
      ],
      [
        "▁st",
        "and"
      ],
      [
        "ic",
        "tion"
      ],
      [
        "▁pur",
        "ch"
      ],
      [
        "▁to",
        "gether"
      ],
      [
        "▁obs",
        "erved"
      ],
      [
        "▁ac",
        "tion"
      ],
      [
        "r",
        "en"
      ],
      [
        "▁st",
        "art"
      ],
      [
        "▁d",
        "ro"
      ],
      [
        "▁jo",
        "in"
      ],
      [
        "▁e",
        "l"
      ],
      [
        "i",
        "li"
      ],
      [
        "▁’",
        "ll"
      ],
      [
        "▁l",
        "ed"
      ],
      [
        "▁e",
        "r"
      ],
      [
        "ing",
        "ing"
      ],
      [
        "▁jo",
        "bs"
      ],
      [
        "▁as",
        "su"
      ],
      [
        "▁depar",
        "t"
      ],
      [
        "▁hel",
        "p"
      ],
      [
        "▁s",
        "k"
      ],
      [
        "▁po",
        "p"
      ],
      [
        "c",
        "c"
      ],
      [
        "▁ton",
        "ight"
      ],
      [
        "▁phil",
        "adel"
      ],
      [
        "a",
        "l"
      ],
      [
        "▁wind",
        "ow"
      ],
      [
        "igh",
        "t"
      ],
      [
        "▁ex",
        "am"
      ],
      [
        "▁bel",
        "ie"
      ],
      [
        "▁proce",
        "d"
      ],
      [
        "et",
        "her"
      ],
      [
        "g",
        "ed"
      ],
      [
        "▁id",
        "ea"
      ],
      [
        "▁c",
        "our"
      ],
      [
        "a",
        "r"
      ],
      [
        "▁m",
        "ar"
      ],
      [
        "▁whe",
        "el"
      ],
      [
        "▁s",
        "ite"
      ],
      [
        "▁dam",
        "age"
      ],
      [
        "k",
        "ed"
      ],
      [
        "▁aud",
        "ience"
      ],
      [
        "▁l",
        "eg"
      ],
      [
        "▁c",
        "ut"
      ],
      [
        "ali",
        "sm"
      ],
      [
        "▁rep",
        "air"
      ],
      [
        "▁w",
        "om"
      ],
      [
        "um",
        "ents"
      ],
      [
        "▁prov",
        "ided"
      ],
      [
        "i",
        "led"
      ],
      [
        "▁tic",
        "ket"
      ],
      [
        "▁rememb",
        "er"
      ],
      [
        "w",
        "ork"
      ],
      [
        "▁p",
        "up"
      ],
      [
        "▁u",
        "p"
      ],
      [
        "▁ki",
        "lled"
      ],
      [
        "▁",
        "orders"
      ],
      [
        "▁show",
        "ing"
      ],
      [
        "▁",
        "est"
      ],
      [
        "▁",
        "”"
      ],
      [
        "c",
        "ase"
      ],
      [
        "▁c",
        "ities"
      ],
      [
        "er",
        "ved"
      ],
      [
        "▁w",
        "ish"
      ],
      [
        "▁restaur",
        "ant"
      ],
      [
        "▁c",
        "o"
      ],
      [
        "▁m",
        "oney"
      ],
      [
        "▁sun",
        "day"
      ],
      [
        "▁ter",
        "ror"
      ],
      [
        "▁",
        "ver"
      ],
      [
        "▁'",
        "'"
      ],
      [
        "at",
        "ure"
      ],
      [
        "▁dr",
        "ink"
      ],
      [
        "▁read",
        "ing"
      ],
      [
        "▁mar",
        "ried"
      ],
      [
        "▁al",
        "t"
      ],
      [
        "▁p",
        "ic"
      ],
      [
        "▁typ",
        "e"
      ],
      [
        "o",
        "int"
      ],
      [
        "▁sec",
        "t"
      ],
      [
        "▁spe",
        "ed"
      ],
      [
        "▁l",
        "iving"
      ],
      [
        "▁ris",
        "k"
      ],
      [
        "▁etc",
        "."
      ],
      [
        "▁l",
        "e"
      ],
      [
        "▁en",
        "j"
      ],
      [
        "a",
        "re"
      ],
      [
        "r",
        "ess"
      ],
      [
        "▁der",
        "e"
      ],
      [
        "▁ma",
        "t"
      ],
      [
        "▁girl",
        "s"
      ],
      [
        "u",
        "t"
      ],
      [
        "▁r",
        "es"
      ],
      [
        "▁p",
        "ool"
      ],
      [
        "▁bu",
        "il"
      ],
      [
        "▁b",
        "a"
      ],
      [
        "▁app",
        "earance"
      ],
      [
        "ot",
        "h"
      ],
      [
        "en",
        "ting"
      ],
      [
        "▁fail",
        "ed"
      ],
      [
        "▁t",
        "alk"
      ],
      [
        "▁f",
        "am"
      ],
      [
        "▁lead",
        "ers"
      ],
      [
        "▁new",
        "s"
      ],
      [
        "▁no",
        "t"
      ],
      [
        "▁disc",
        "uss"
      ],
      [
        "g",
        "e"
      ],
      [
        "▁",
        "q"
      ],
      [
        "▁p",
        "l"
      ],
      [
        "▁g",
        "iving"
      ],
      [
        "k",
        "e"
      ],
      [
        "▁o",
        "bs"
      ],
      [
        "▁d",
        "uck"
      ],
      [
        "▁mat",
        "ch"
      ],
      [
        "m",
        "y"
      ],
      [
        "▁jo",
        "ke"
      ],
      [
        "way",
        "s"
      ],
      [
        "▁",
        "yet"
      ],
      [
        "▁j",
        "u"
      ],
      [
        "▁d",
        "irt"
      ],
      [
        "▁b",
        "ought"
      ],
      [
        "▁in",
        "j"
      ],
      [
        "▁m",
        "ed"
      ],
      [
        "le",
        "dge"
      ],
      [
        "▁mach",
        "ine"
      ],
      [
        "▁b",
        "un"
      ],
      [
        "▁c",
        "at"
      ],
      [
        "▁follow",
        "ing"
      ],
      [
        "iv",
        "ers"
      ],
      [
        "d",
        "ed"
      ],
      [
        "▁ver",
        "sus"
      ],
      [
        "on",
        "om"
      ],
      [
        "▁m",
        "ount"
      ],
      [
        "▁mod",
        "el"
      ],
      [
        "m",
        "ber"
      ],
      [
        "▁ch",
        "ap"
      ],
      [
        "▁en",
        "ab"
      ],
      [
        "a",
        "ss"
      ],
      [
        "▁bu",
        "d"
      ],
      [
        "n",
        "esday"
      ],
      [
        "us",
        "ion"
      ],
      [
        "▁b",
        "ott"
      ],
      [
        "▁thous",
        "ands"
      ],
      [
        "▁us",
        "ing"
      ],
      [
        "▁u",
        "ne"
      ],
      [
        "▁par",
        "ticip"
      ],
      [
        "▁be",
        "ar"
      ],
      [
        "▁th",
        "ought"
      ],
      [
        "▁d",
        "rop"
      ],
      [
        "p",
        "ar"
      ],
      [
        "▁di",
        "ff"
      ],
      [
        "▁do",
        "ub"
      ],
      [
        "at",
        "ors"
      ],
      [
        "▁sp",
        "orts"
      ],
      [
        "ti",
        "le"
      ],
      [
        "ic",
        "ul"
      ],
      [
        "▁m",
        "ember"
      ],
      [
        "port",
        "un"
      ],
      [
        "it",
        "ure"
      ],
      [
        "▁ren",
        "t"
      ],
      [
        "u",
        "de"
      ],
      [
        "if",
        "f"
      ],
      [
        "j",
        "ects"
      ],
      [
        "▁t",
        "w"
      ],
      [
        "▁mil",
        "k"
      ],
      [
        "am",
        "es"
      ],
      [
        "▁co",
        "p"
      ],
      [
        "▁",
        "?"
      ],
      [
        "m",
        "b"
      ],
      [
        "▁t",
        "ouch"
      ],
      [
        "▁grow",
        "ing"
      ],
      [
        "f",
        "ace"
      ],
      [
        "at",
        "es"
      ],
      [
        "▁wan",
        "ted"
      ],
      [
        "▁p",
        "re"
      ],
      [
        "▁ro",
        "b"
      ],
      [
        "▁ca",
        "n"
      ],
      [
        "▁tr",
        "ou"
      ],
      [
        "u",
        "s"
      ],
      [
        "▁adv",
        "ice"
      ],
      [
        "▁avo",
        "id"
      ],
      [
        "at",
        "ive"
      ],
      [
        "▁st",
        "ory"
      ],
      [
        "▁ter",
        "rit"
      ],
      [
        "▁or",
        "ig"
      ],
      [
        "▁m",
        "ore"
      ],
      [
        "i",
        "le"
      ],
      [
        "▁tr",
        "av"
      ],
      [
        "and",
        "ed"
      ],
      [
        "▁n",
        "ames"
      ],
      [
        "▁n",
        "ose"
      ],
      [
        "▁wal",
        "king"
      ],
      [
        "a",
        "ur"
      ],
      [
        "▁bun",
        "ny"
      ],
      [
        "i",
        "p"
      ],
      [
        "o",
        "st"
      ],
      [
        "▁camp",
        "aign"
      ],
      [
        "▁m",
        "e"
      ],
      [
        "ig",
        "n"
      ],
      [
        "▁ha",
        "t"
      ],
      [
        "a",
        "li"
      ],
      [
        "i",
        "g"
      ],
      [
        "fo",
        "r"
      ],
      [
        "▁b",
        "i"
      ],
      [
        "d",
        "e"
      ],
      [
        "▁re",
        "pe"
      ],
      [
        "▁f",
        "ro"
      ],
      [
        "▁off",
        "ici"
      ],
      [
        "▁",
        "<"
      ],
      [
        "g",
        "an"
      ],
      [
        "▁su",
        "c"
      ],
      [
        "▁inc",
        "re"
      ],
      [
        "ithst",
        "anding"
      ],
      [
        "▁c",
        "ri"
      ],
      [
        "ti",
        "on"
      ],
      [
        "oo",
        "k"
      ],
      [
        "t",
        "c"
      ],
      [
        "oo",
        "ds"
      ],
      [
        "▁se",
        "as"
      ],
      [
        "▁struc",
        "ture"
      ],
      [
        "▁_",
        "____"
      ],
      [
        "▁o",
        "ut"
      ],
      [
        "!",
        "?"
      ],
      [
        "▁play",
        "ing"
      ],
      [
        "▁r",
        "ail"
      ],
      [
        "▁sh",
        "are"
      ],
      [
        "i",
        "ll"
      ],
      [
        "▁add",
        "ition"
      ],
      [
        "ur",
        "s"
      ],
      [
        "▁",
        "a"
      ],
      [
        "ke",
        "y"
      ],
      [
        "▁langu",
        "age"
      ],
      [
        "▁",
        "out"
      ],
      [
        "▁ord",
        "ered"
      ],
      [
        "ter",
        "y"
      ],
      [
        "▁",
        "ans"
      ],
      [
        "ic",
        "k"
      ],
      [
        "▁pro",
        "ce"
      ],
      [
        "▁su",
        "pp"
      ],
      [
        "▁ro",
        "om"
      ],
      [
        "▁go",
        "ne"
      ],
      [
        "▁sec",
        "tion"
      ],
      [
        "▁respon",
        "se"
      ],
      [
        "au",
        "se"
      ],
      [
        "▁p",
        "ill"
      ],
      [
        "▁h",
        "all"
      ],
      [
        "il",
        "i"
      ],
      [
        "▁sl",
        "eep"
      ],
      [
        "▁de",
        "gre"
      ],
      [
        "e",
        "p"
      ],
      [
        "▁h",
        "ur"
      ],
      [
        "▁require",
        "ments"
      ],
      [
        "▁t",
        "ook"
      ],
      [
        "ig",
        "ned"
      ],
      [
        "u",
        "tion"
      ],
      [
        "e",
        "g"
      ],
      [
        "ar",
        "d"
      ],
      [
        "t",
        "ee"
      ],
      [
        "u",
        "res"
      ],
      [
        "▁app",
        "ointment"
      ],
      [
        "ar",
        "ies"
      ],
      [
        "0",
        "s"
      ],
      [
        "▁",
        "un"
      ],
      [
        "▁r",
        "ule"
      ],
      [
        "t",
        "e"
      ],
      [
        "▁circ",
        "um"
      ],
      [
        "o",
        "th"
      ],
      [
        "▁betw",
        "een"
      ],
      [
        "▁eff",
        "orts"
      ],
      [
        "▁em",
        "b"
      ],
      [
        "▁wou",
        "d"
      ],
      [
        "es",
        "ter"
      ],
      [
        "b",
        "b"
      ],
      [
        "▁hos",
        "p"
      ],
      [
        "▁p",
        "oc"
      ],
      [
        "▁p",
        "air"
      ],
      [
        "▁stud",
        "ying"
      ],
      [
        "▁m",
        "or"
      ],
      [
        "an",
        "ger"
      ],
      [
        "c",
        "er"
      ],
      [
        "▁m",
        "enti"
      ],
      [
        "▁pi",
        "eces"
      ],
      [
        "▁fut",
        "ure"
      ],
      [
        "▁reg",
        "ion"
      ],
      [
        "▁s",
        "ince"
      ],
      [
        "▁con",
        "nec"
      ],
      [
        "ain",
        "t"
      ],
      [
        "▁plan",
        "ning"
      ],
      [
        "▁ha",
        "s"
      ],
      [
        "ter",
        "ing"
      ],
      [
        "▁d",
        "og"
      ],
      [
        "▁co",
        "py"
      ],
      [
        "i",
        "ated"
      ],
      [
        "in",
        "es"
      ],
      [
        "▁sur",
        "pr"
      ],
      [
        "▁dad",
        "dy"
      ],
      [
        "▁int",
        "el"
      ],
      [
        "ow",
        "s"
      ],
      [
        "▁l",
        "angu"
      ],
      [
        "▁ou",
        "ght"
      ],
      [
        "i",
        "o"
      ],
      [
        "▁g",
        "row"
      ],
      [
        "▁the",
        "y"
      ],
      [
        "oint",
        "ment"
      ],
      [
        "un",
        "g"
      ],
      [
        "▁ex",
        "pos"
      ],
      [
        "ol",
        "e"
      ],
      [
        "▁ar",
        "ti"
      ],
      [
        "▁s",
        "an"
      ],
      [
        "▁'",
        "d"
      ],
      [
        "▁in",
        "cl"
      ],
      [
        ".c",
        "om"
      ],
      [
        "p",
        "e"
      ],
      [
        "▁innov",
        "ation"
      ],
      [
        "▁no",
        "body"
      ],
      [
        "▁bab",
        "y"
      ],
      [
        "l",
        "in"
      ],
      [
        "▁",
        "both"
      ],
      [
        "▁con",
        "d"
      ],
      [
        "▁air",
        "l"
      ],
      [
        "▁disc",
        "overed"
      ],
      [
        "▁!!!",
        "!!"
      ],
      [
        "▁r",
        "a"
      ],
      [
        "▁repres",
        "ent"
      ],
      [
        "▁",
        "\""
      ],
      [
        "▁ho",
        "le"
      ],
      [
        "ul",
        "ated"
      ],
      [
        "op",
        "h"
      ],
      [
        "▁s",
        "al"
      ],
      [
        "▁p",
        "iz"
      ],
      [
        "▁develop",
        "ed"
      ],
      [
        "▁",
        "i"
      ],
      [
        "▁organ",
        "iz"
      ],
      [
        "ord",
        "er"
      ],
      [
        "▁rep",
        "resent"
      ],
      [
        "▁h",
        "ouse"
      ],
      [
        "l",
        "u"
      ],
      [
        "a",
        "q"
      ],
      [
        "▁ho",
        "p"
      ],
      [
        "▁v",
        "er"
      ],
      [
        "▁part",
        "ners"
      ],
      [
        "ve",
        "s"
      ],
      [
        "▁live",
        "s"
      ],
      [
        "bo",
        "dy"
      ],
      [
        "▁n",
        "’t"
      ],
      [
        "re",
        "c"
      ],
      [
        "▁",
        "ended"
      ],
      [
        "ac",
        "ted"
      ],
      [
        "▁franc",
        "isco"
      ],
      [
        "▁r",
        "un"
      ],
      [
        "▁b/",
        "c"
      ],
      [
        "le",
        "t"
      ],
      [
        "▁chick",
        "en"
      ],
      [
        "▁w",
        "ill"
      ],
      [
        "▁re",
        "v"
      ],
      [
        "▁di",
        "v"
      ],
      [
        "▁pro",
        "m"
      ],
      [
        "rou",
        "nd"
      ],
      [
        "▁ch",
        "ance"
      ],
      [
        "▁expl",
        "ain"
      ],
      [
        "u",
        "ch"
      ],
      [
        "▁e",
        "p"
      ],
      [
        "li",
        "g"
      ],
      [
        "▁ac",
        "c"
      ],
      [
        "▁program",
        "me"
      ],
      [
        "▁s",
        "it"
      ],
      [
        "▁t",
        "yp"
      ],
      [
        "d",
        "it"
      ],
      [
        "▁h",
        "ead"
      ],
      [
        "▁chees",
        "e"
      ],
      [
        "▁non",
        "stop"
      ],
      [
        "a",
        "le"
      ],
      [
        "v",
        "ement"
      ],
      [
        "▁",
        "jwww"
      ],
      [
        "▁av",
        "o"
      ],
      [
        "▁c",
        "ar"
      ],
      [
        "▁t",
        "h"
      ],
      [
        "▁transport",
        "ation"
      ],
      [
        "▁pill",
        "ow"
      ],
      [
        "▁ele",
        "ct"
      ],
      [
        "▁pain",
        "t"
      ],
      [
        "▁po",
        "ints"
      ],
      [
        "ce",
        "ss"
      ],
      [
        "▁hot",
        "el"
      ],
      [
        "lo",
        "w"
      ],
      [
        "ure",
        "d"
      ],
      [
        "a",
        "p"
      ],
      [
        "ang",
        "es"
      ],
      [
        "k",
        "ing"
      ],
      [
        "▁f",
        "ax"
      ],
      [
        "am",
        "a"
      ],
      [
        "a",
        "g"
      ],
      [
        "▁sh",
        "a"
      ],
      [
        "▁pe",
        "ace"
      ],
      [
        "▁commit",
        "tee"
      ],
      [
        "▁m",
        "er"
      ],
      [
        "▁fun",
        "ction"
      ],
      [
        "▁wi",
        "l"
      ],
      [
        "id",
        "ed"
      ],
      [
        "▁s",
        "uch"
      ],
      [
        "▁wh",
        "e"
      ],
      [
        "▁conc",
        "ept"
      ],
      [
        "ri",
        "es"
      ],
      [
        "augh",
        "ter"
      ],
      [
        "al",
        "th"
      ],
      [
        "u",
        "zz"
      ],
      [
        "ber",
        "ry"
      ],
      [
        "h",
        "ip"
      ],
      [
        "▁it",
        "'s"
      ],
      [
        "▁",
        "ow"
      ],
      [
        "▁far",
        "m"
      ],
      [
        "▁plan",
        "e"
      ],
      [
        "ic",
        "e"
      ],
      [
        "ur",
        "ch"
      ],
      [
        "▁t",
        "op"
      ],
      [
        "--",
        "-"
      ],
      [
        "▁m",
        "il"
      ],
      [
        "▁",
        "********************************"
      ],
      [
        "▁ach",
        "ie"
      ],
      [
        "▁tell",
        "ing"
      ],
      [
        "▁imp",
        "le"
      ],
      [
        "▁legisl",
        "ation"
      ],
      [
        "▁activ",
        "ity"
      ],
      [
        "an",
        "t"
      ],
      [
        "▁!",
        "!!"
      ],
      [
        "▁attemp",
        "t"
      ],
      [
        "▁vis",
        "ited"
      ],
      [
        "r",
        "ight"
      ],
      [
        "p",
        "ort"
      ],
      [
        "l",
        "s"
      ],
      [
        "▁>",
        ">"
      ],
      [
        "▁again",
        "st"
      ],
      [
        "▁r",
        "i"
      ],
      [
        "c",
        "tions"
      ],
      [
        "▁disp",
        "l"
      ],
      [
        "▁.",
        "!"
      ],
      [
        "i",
        "ble"
      ],
      [
        "r",
        "o"
      ],
      [
        "▁show",
        "ed"
      ],
      [
        "▁al",
        "ways"
      ],
      [
        "n",
        "er"
      ],
      [
        "▁mean",
        "ing"
      ],
      [
        "▁hor",
        "se"
      ],
      [
        "▁asp",
        "ects"
      ],
      [
        "u",
        "mp"
      ],
      [
        "ec",
        "h"
      ],
      [
        "▁",
        "ov"
      ],
      [
        "is",
        "t"
      ],
      [
        "ad",
        "ed"
      ],
      [
        "▁st",
        "op"
      ],
      [
        "▁p",
        "ages"
      ],
      [
        "t",
        "er"
      ],
      [
        "▁id",
        "enti"
      ],
      [
        "▁conce",
        "pt"
      ],
      [
        "a",
        "nding"
      ],
      [
        "▁hous",
        "e"
      ],
      [
        "▁din",
        "os"
      ],
      [
        "t",
        "own"
      ],
      [
        "o",
        "y"
      ],
      [
        "▁ar",
        "m"
      ],
      [
        "▁re",
        "n"
      ],
      [
        "▁com",
        "m"
      ],
      [
        "▁fin",
        "ished"
      ],
      [
        "▁her",
        "self"
      ],
      [
        "end",
        "ing"
      ],
      [
        "▁ball",
        "oon"
      ],
      [
        "▁serv",
        "ice"
      ],
      [
        "▁math",
        "ema"
      ],
      [
        "▁l",
        "and"
      ],
      [
        "▁butt",
        "ons"
      ],
      [
        "▁s",
        "ing"
      ],
      [
        "▁sho",
        "e"
      ],
      [
        "▁c",
        "oun"
      ],
      [
        "at",
        "her"
      ],
      [
        "▁pop",
        "ulation"
      ],
      [
        "▁nov",
        "el"
      ],
      [
        "▁rep",
        "orted"
      ],
      [
        "▁a",
        "t"
      ],
      [
        "▁rec",
        "ord"
      ],
      [
        "▁...",
        ".."
      ],
      [
        "▁w",
        "hen"
      ],
      [
        "c",
        "les"
      ],
      [
        "▁wor",
        "king"
      ],
      [
        "ou",
        "t"
      ],
      [
        "▁de",
        "al"
      ],
      [
        "▁.",
        ".."
      ],
      [
        "▁s",
        "ti"
      ],
      [
        "for",
        "ce"
      ],
      [
        "▁ho",
        "us"
      ],
      [
        "▁fri",
        "end"
      ],
      [
        "▁do",
        "ing"
      ],
      [
        "▁ba",
        "ck"
      ],
      [
        "▁'",
        "m"
      ],
      [
        "▁chang",
        "es"
      ],
      [
        "▁stre",
        "t"
      ],
      [
        "▁mil",
        "it"
      ],
      [
        "th",
        "in"
      ],
      [
        "▁wil",
        "d"
      ],
      [
        "▁concer",
        "n"
      ],
      [
        "o",
        "b"
      ],
      [
        "▁'",
        "ve"
      ],
      [
        "▁stud",
        "y"
      ],
      [
        "n",
        "el"
      ],
      [
        "▁look",
        "ing"
      ],
      [
        "ic",
        "an"
      ],
      [
        "▁count",
        "ry"
      ],
      [
        "▁tr",
        "ave"
      ],
      [
        "▁t",
        "our"
      ],
      [
        "▁buil",
        "d"
      ],
      [
        "is",
        "s"
      ],
      [
        "▁arrive",
        "s"
      ],
      [
        "▁gro",
        "und"
      ],
      [
        "▁t",
        "oy"
      ],
      [
        "▁tow",
        "ard"
      ],
      [
        "▁p",
        "a"
      ],
      [
        "▁a",
        "cc"
      ],
      [
        "ic",
        "al"
      ],
      [
        "▁v",
        "is"
      ],
      [
        "a",
        "ign"
      ],
      [
        "▁c",
        "e"
      ],
      [
        "tic",
        "s"
      ],
      [
        "pp",
        "ed"
      ],
      [
        "▁th",
        "rew"
      ],
      [
        "▁rabb",
        "it"
      ],
      [
        "▁b",
        "uc"
      ],
      [
        "▁h",
        "o"
      ],
      [
        "▁par",
        "ts"
      ],
      [
        "▁v",
        "iew"
      ],
      [
        "c",
        "ally"
      ],
      [
        "▁pres",
        "ident"
      ],
      [
        "▁give",
        "s"
      ],
      [
        "▁inclu",
        "de"
      ],
      [
        "ear",
        "ance"
      ],
      [
        "▁pe",
        "an"
      ],
      [
        "▁t",
        "o"
      ],
      [
        "▁stud",
        "ies"
      ],
      [
        "▁buil",
        "ding"
      ],
      [
        "y",
        "cle"
      ],
      [
        "ag",
        "on"
      ],
      [
        "▁g",
        "ood"
      ],
      [
        "▁appear",
        "s"
      ],
      [
        "▁cond",
        "itions"
      ],
      [
        "ol",
        "d"
      ],
      [
        "▁neighb",
        "or"
      ],
      [
        "ap",
        "s"
      ],
      [
        "----",
        "--"
      ],
      [
        "!!!!",
        "!!!!"
      ],
      [
        "s",
        "h"
      ],
      [
        "it",
        "her"
      ],
      [
        "se",
        "l"
      ],
      [
        "y",
        "body"
      ],
      [
        "▁a",
        "s"
      ],
      [
        "ant",
        "ed"
      ],
      [
        "▁seas",
        "on"
      ],
      [
        "▁r",
        "ocks"
      ],
      [
        "ww",
        "w"
      ],
      [
        "▁ex",
        "ample"
      ],
      [
        "▁know",
        "s"
      ],
      [
        "▁l",
        "ist"
      ],
      [
        "??",
        "??"
      ],
      [
        "▁c",
        "ould"
      ],
      [
        "▁r",
        "et"
      ],
      [
        "▁sect",
        "or"
      ],
      [
        "i",
        "ds"
      ],
      [
        "▁admin",
        "ist"
      ],
      [
        "h",
        "ic"
      ],
      [
        "▁hur",
        "t"
      ],
      [
        "▁st",
        "o"
      ],
      [
        "▁c",
        "ere"
      ],
      [
        "▁he",
        "art"
      ],
      [
        "est",
        "ed"
      ],
      [
        "▁d",
        "iff"
      ],
      [
        "▁toward",
        "s"
      ],
      [
        "▁thou",
        "gh"
      ],
      [
        "ir",
        "on"
      ],
      [
        "▁forg",
[...]
