{
  "version": "1.0",
  "truncation": null,
  "padding": null,
  "added_tokens": [
    {
      "id": 2813,
      "content": "[CLS]",
      "single_word": false,
      "lstrip": false,
      "rstrip": false,
      "normalized": false,
      "special": true
    },
    {
      "id": 5500,
      "content": "[MASK]",
      "single_word": false,
      "lstrip": false,
      "rstrip": false,
      "normalized": false,
      "special": true
    },
    {
      "id": 11165,
      "content": "[PAD]",
      "single_word": false,
      "lstrip": false,
      "rstrip": false,
      "normalized": false,
      "special": true
    },
    {
      "id": 11943,
      "content": "[UNK]",
      "single_word": false,
      "lstrip": false,
      "rstrip": false,
      "normalized": false,
      "special": true
    },
    {
      "id": 15810,
      "content": "[SEP]",
      "single_word": false,
      "lstrip": false,
      "rstrip": false,
      "normalized": false,
      "special": true
    }
  ],
  "normalizer": {
    "type": "Sequence",
    "normalizers": [
      {
        "type": "NFD"
      },
      {
        "type": "Lowercase"
      },
      {
        "type": "StripAccents"
      }
    ]
  },
  "pre_tokenizer": {
    "type": "Sequence",
    "pretokenizers": [
      {
        "type": "Metaspace",
        "replacement": "▁",
        "prepend_scheme": "always",
        "split": true
      }
    ]
  },
  "post_processor": {
    "type": "TemplateProcessing",
    "single": [
      {
        "SpecialToken": {
          "id": "[CLS]",
          "type_id": 0
        }
      },
      {
        "Sequence": {
          "id": "A",
          "type_id": 0
        }
      },
      {
        "SpecialToken": {
          "id": "[SEP]",
          "type_id": 0
        }
      }
    ],
    "pair": [
      {
        "SpecialToken": {
          "id": "[CLS]",
          "type_id": 0
        }
      },
      {
        "Sequence": {
          "id": "A",
          "type_id": 0
        }
      },
      {
        "SpecialToken": {
          "id": "[SEP]",
          "type_id": 0
        }
      },
      {
        "Sequence": {
          "id": "B",
          "type_id": 1
        }
      },
      {
        "SpecialToken": {
          "id": "[SEP]",
          "type_id": 1
        }
      }
    ],
    "special_tokens": {
      "[CLS]": {
        "id": "[CLS]",
        "ids": [
          2813
        ],
        "tokens": [
          "[CLS]"
        ]
      },
      "[SEP]": {
        "id": "[SEP]",
        "ids": [
          15810
        ],
        "tokens": [
          "[SEP]"
        ]
      }
    }
  },
  "decoder": {
    "type": "Metaspace",
    "replacement": "▁",
    "prepend_scheme": "always",
    "split": true
  },
  "model": {
    "type": "Unigram",
    "unk_id": 11943,
    "vocab": [
      [
        "dium",
        -10.838006378605712
      ],
      [
        "▁social",
        -12.330713606096023
      ],
      [
        "▁brigade",
        -11.292093142048362
      ],
      [
        "▁democrat",
        -7.7140240841918475
      ],
      [
        "▁dry",
        -8.577557739989558
      ],
      [
        "▁carrier",
        -10.323578302865405
      ],
      [
        "▁bug",
        -12.097885785189261
      ],
      [
        "▁hock",
        -9.957976075226146
      ],
      [
        "▁eight",
        -5.45617522748721
      ],
      [
        "▁156",
        -7.879850703654892
      ],
      [
        "▁hub",
        -10.332679164874493
      ],
      [
        "▁ke",
        -10.9669963874515
      ],
      [
        "▁tupperw",
        -11.150624162301106
      ],
      [
        "▁blink",
        -11.816143123733198
      ],
      [
        "▁generat",
        -10.558627311455178
      ],
      [
        "mmmm",
        -9.225782903933089
      ],
      [
        "▁ancestor",
        -10.690981814623337
      ],
      [
        "▁genital",
        -10.703850128887401
      ],
      [
        "▁enhanc",
        -10.858349100700668
      ],
      [
        "▁fluid",
        -9.755466248895644
      ],
      [
        "▁de",
        -8.377010357385638
      ],
      [
        "▁outsider",
        -10.694543791875287
      ],
      [
        "▁paw",
        -10.722862283591233
      ],
      [
        "▁vegetarian",
        -11.351597519982523
      ],
      [
        "ten-",
        -11.801518103434546
      ],
      [
        "▁clo",
        -11.029219302223288
      ],
      [
        "▁simplifie",
        -10.959628500232803
      ],
      [
        "▁than",
        -5.888803821775666
      ],
      [
        "baby",
        -12.244878418318631
      ],
      [
        "▁hop",
        -8.4796290412475
      ],
      [
        "pher",
        -8.737102869535764
      ],
      [
        "▁defector",
        -11.27451381099662
      ],
      [
        "▁bet",
        -8.494679605789244
      ],
      [
        "▁conclusion",
        -8.750172020761742
      ],
      [
        "husband",
        -12.215119779198767
      ],
      [
        "▁pre",
        -8.299396862235882
      ],
      [
        "▁mother",
        -6.8281255199826285
      ],
      [
        "▁$",
        -10.420841597570922
      ],
      [
        "▁shake",
        -8.986524122660615
      ],
      [
        "strip",
        -12.39217622001192
      ],
      [
        "▁custom",
        -9.081274969876445
      ],
      [
        "ersey",
        -8.7858632933725
      ],
      [
        "▁day",
        -5.570418310890737
      ],
      [
        "▁postpone",
        -10.306181433786158
      ],
      [
        "ride",
        -10.16911119030568
      ],
      [
        "▁p",
        -9.237570785962834
      ],
      [
        "diversi",
        -12.867602429762579
      ],
      [
        "▁reinforce",
        -10.457313139922562
      ],
      [
        "information",
        -8.887801906034447
      ],
      [
        "creator",
        -12.648894949377414
      ],
      [
        "+",
        -9.617509529322007
      ],
      [
        "▁net",
        -9.365535381669474
      ],
      [
        "▁peas",
        -10.845890461278652
      ],
      [
        "▁dinosaur",
        -7.876558825132092
      ],
      [
        "▁biologist",
        -10.336368488191843
      ],
      [
        "ne",
        -8.843921880900673
      ],
      [
        "▁nav",
        -9.539052999956402
      ],
      [
        "cycle",
        -11.555610024892605
      ],
      [
        "eat",
        -11.441211517824456
      ],
      [
        "tention",
        -11.588299762585251
      ],
      [
        "▁res",
        -11.726415804460142
      ],
      [
        "bid",
        -12.421003272020144
      ],
      [
        "repo",
        -10.303844163125708
      ],
      [
        "▁per",
        -8.96305404109391
      ],
      [
        "▁man",
        -6.292499675396728
      ],
      [
        "▁waiter",
        -9.461898341802646
      ],
      [
        "▁ba",
        -9.810970998698211
      ],
      [
        "▁long",
        -10.428135060899182
      ],
      [
        "▁cane",
        -10.518565084559839
      ],
      [
        "korea",
        -7.720141021545691
      ],
      [
        "▁plurali",
        -11.882523733768199
      ],
      [
        "▁every",
        -8.138839326173517
      ],
      [
        "▁shal",
        -7.0325008928194634
      ],
      [
        "▁tablet",
        -10.748786266874852
      ],
      [
        "▁tel",
        -10.065799689057256
      ],
      [
        "▁resi",
        -10.213875719606417
      ],
      [
        "▁pip",
        -11.305097464035375
      ],
      [
        "▁naturalis",
        -10.195417667230224
      ],
      [
        "avation",
        -11.29569480483778
      ],
      [
        "▁rack",
        -11.01350010011951
      ],
      [
        "tibi",
        -12.817401457275004
      ],
      [
        "igator",
        -9.088023251123804
      ],
      [
        "▁den",
        -5.046594407009629
      ],
      [
        "▁sent",
        -7.317329916154069
      ],
      [
        "▁shin",
        -10.038787646127918
      ],
      [
        "▁tri",
        -8.25020254601136
      ],
      [
        "▁contest",
        -10.37565670942262
      ],
      [
        "▁stee",
        -10.383549793503548
      ],
      [
        "▁ph",
        -8.86167094262122
      ],
      [
        "▁wan",
        -5.44162962435048
      ],
      [
        "▁settle",
        -12.746113217223495
      ],
      [
        "attle",
        -12.642555388460236
      ],
      [
        "nd",
        -9.236601350363305
      ],
      [
        "cious",
        -9.14674675574774
      ],
      [
        "mom",
        -12.836550624467348
      ],
      [
        "ers",
        -8.863334231704632
      ],
      [
        "ing",
        -7.042262489258168
      ],
      [
        "▁imagine",
        -7.707056211457395
      ],
      [
        "ment",
        -8.426674424199724
      ],
      [
        "▁reference",
        -9.376456987727982
      ],
      [
        "▁licen",
        -12.648975593012182
      ],
      [
        "vir",
        -9.396149843951825
      ],
      [
        "null",
        -11.540705257852109
      ],
      [
        "▁curv",
        -11.847025086157569
      ],
      [
        "▁up",
        -8.396970942037346
      ],
      [
        "gger",
        -11.58992064748307
      ],
      [
        "ou",
        -10.303329679541383
      ],
      [
        "▁seat",
        -7.925298794869216
      ],
      [
        "ig",
        -12.430798285189168
      ],
      [
        "▁formatt",
        -11.499914104187454
      ],
      [
        "▁http://www.",
        -6.947532056671932
      ],
      [
        "▁witness",
        -9.633822607438336
      ],
      [
        "▁pose",
        -10.975631087843187
      ],
      [
        "▁whole",
        -9.58260281957762
      ],
      [
        "▁tyran",
        -10.941690199317412
      ],
      [
        "▁yield",
        -9.868829274536594
      ],
      [
        "▁pr",
        -8.535186751009446
      ],
      [
        "▁bask",
        -11.035832233991156
      ],
      [
        "▁mob",
        -10.736590192558007
      ],
      [
        "▁aw",
        -8.032608869412483
      ],
      [
        "▁forgot",
        -7.758661021247899
      ],
      [
        "gerate",
        -10.630341867991998
      ],
      [
        "▁publisher",
        -10.181419952692904
      ],
      [
        "▁lid",
        -10.251715857878107
      ],
      [
        "world",
        -7.30639530194455
      ],
      [
        "▁hi",
        -7.87038307567777
      ],
      [
        "to-",
        -12.73016723222297
      ],
      [
        "80",
        -7.852494351719939
      ],
      [
        "me",
        -10.274051840607468
      ],
      [
        "wake",
        -12.853262927196969
      ],
      [
        "▁error",
        -8.489158777488774
      ],
      [
        "▁jenn",
        -8.678488919356827
      ],
      [
        "volut",
        -8.705670340632793
      ],
      [
        "▁tub",
        -11.022811390401184
      ],
      [
        "equalit",
        -10.003434738607204
      ],
      [
        "▁thin",
        -11.220569838788867
      ],
      [
        "▁enl",
        -11.684530057484038
      ],
      [
        "giere",
        -8.590973921814253
      ],
      [
        "stop",
        -8.066404970105456
      ],
      [
        "int",
        -12.698580064899264
      ],
      [
        "▁dread",
        -11.22386601987737
      ],
      [
        "▁haul",
        -11.278867034755056
      ],
      [
        "▁poo",
        -9.644573121750733
      ],
      [
        "▁s",
        -8.61476903183521
      ],
      [
        "▁list",
        -7.0996243821911404
      ],
      [
        "▁dictator",
        -10.873468731890775
      ],
      [
        "▁greate",
        -7.738053124962482
      ],
      [
        "uh",
        -5.177654103719439
      ],
      [
        "▁clos",
        -8.852234879791947
      ],
      [
        "▁admira",
        -11.93083406740389
      ],
      [
        "▁edit",
        -9.605350210097471
      ],
      [
        "▁study",
        -7.4287601947056805
      ],
      [
        "f",
        -10.765301919425882
      ],
      [
        "no",
        -6.8358683297991245
      ],
      [
        "american",
        -12.5344588579552
      ],
      [
        "▁pupil",
        -11.774414090512789
      ],
      [
        "ode",
        -11.720177194751857
      ],
      [
        "▁inspect",
        -10.958776398040069
      ],
      [
        "▁exemp",
        -12.772299112652547
      ],
      [
        "en",
        -8.960701284908302
      ],
      [
        "▁subsidiari",
        -11.346402683744426
      ],
      [
        "own",
        -10.46591813096114
      ],
      [
        "▁impe",
        -12.331353225962511
      ],
      [
        "th",
        -6.309957278833341
      ],
      [
        "▁confidant",
        -10.939950778591275
      ],
      [
        "▁spectr",
        -11.049593313214967
      ],
      [
        "nnais",
        -12.616489081872256
      ],
      [
        "group",
        -11.57685727448456
      ],
      [
        "prospect",
        -12.535895119979195
      ],
      [
        "kind",
        -9.832921148471623
      ],
      [
        "uffer",
        -12.903980470718082
      ],
      [
        "neur",
        -11.401491644097998
      ],
      [
        "▁antonio",
        -8.689224698608719
      ],
      [
        "▁ad",
        -10.163539640848882
      ],
      [
        "▁frolick",
        -11.459158584072595
      ],
      [
        "und",
        -12.224573276697853
      ],
      [
        "shot",
        -12.17553200448917
      ],
      [
        "▁calculate",
        -9.310419178133518
      ],
      [
        "▁talks",
        -9.80940741558043
      ],
      [
        "ev",
        -12.690008886723533
      ],
      [
        "▁maul",
        -11.464325990644275
      ],
      [
        "ial",
        -6.617192983272803
      ],
      [
        "▁y",
        -12.564790908332268
      ],
      [
        "▁tha",
        -2.389866280899322
      ],
      [
        "d",
        -4.022794636205143
      ],
      [
        "tes",
        -11.5034871577144
      ],
      [
        "▁bu",
        -10.818330010476224
      ],
      [
        "▁park",
        -9.212673940397465
      ],
      [
        "uspic",
        -11.23041203421634
      ],
      [
        "▁opposite",
        -9.96884649416458
      ],
      [
        "room",
        -11.473186397732578
      ],
      [
        "develope",
        -13.312147796120716
      ],
      [
        "mina",
        -9.592494346156599
      ],
      [
        "▁anyway",
        -6.660623151807425
      ],
      [
        "▁associate",
        -8.574150142076096
      ],
      [
        "adelphi",
        -5.284187108245264
      ],
      [
        "head",
        -7.109249811403601
      ],
      [
        "▁stal",
        -13.84226063957496
      ],
      [
        "▁pakistan",
        -7.4668823396345685
      ],
      [
        "*****",
        -11.55114666431147
      ],
      [
        "▁flavo",
        -12.75396123032619
      ],
      [
        "▁borrow",
        -9.86903619898803
      ],
      [
        "▁know",
        -8.84449533443465
      ],
      [
        "▁mix",
        -9.946737930659177
      ],
      [
        "nd",
        -12.576931147096683
      ],
      [
        "w",
        -3.847734666333153
      ],
      [
        "stay",
        -11.153657876601315
      ],
      [
        "▁cleans",
        -13.468930726423684
      ],
      [
        "}",
        -12.810278406305976
      ],
      [
        "▁dear",
        -12.177577302613294
      ],
      [
        "▁convict",
        -10.68804512844265
      ],
      [
        "they",
        -7.005894765477494
      ],
      [
        "▁renewa",
        -10.689916823279187
      ],
      [
        "▁ridicul",
        -11.181058091316736
      ],
      [
        "▁rev",
        -11.5019519173915
      ],
      [
        "▁hu",
        -8.345124675098507
      ],
      [
        "▁qa",
        -7.1343382679065215
      ],
      [
        "▁adjust",
        -8.81943056587951
      ],
      [
        "▁creator",
        -10.709302939196505
      ],
      [
        "▁normal",
        -11.406613508428881
      ],
      [
        "sting",
        -12.827353208911125
      ],
      [
        "▁second",
        -8.630368830389557
      ],
      [
        "▁response",
        -7.803604107352536
      ],
      [
        "▁what",
        -4.999866406006407
      ],
      [
        "▁proceeding",
        -10.059509357038294
      ],
      [
        "▁acquir",
        -9.511154169961484
      ],
      [
        "▁smooth",
        -9.734346849495914
      ],
      [
        "itis",
        -11.909088160700675
      ],
      [
        "▁ch",
        -10.895776834788457
      ],
      [
        "qui",
        -12.684558413205028
      ],
      [
        "▁baby",
        -6.461380664283651
      ],
      [
        "▁invoice",
        -9.951879272132283
      ],
      [
        "▁ya",
        -10.057489520944594
      ],
      [
        "▁none",
        -9.70526889188054
      ],
      [
        "vere",
        -12.178866016467435
      ],
      [
        "ex",
        -7.917704102461412
      ],
      [
        "▁opt",
        -12.453055511880804
      ],
      [
        "eduction",
        -10.010586534299897
      ],
      [
        "▁mac",
        -11.425948057826924
      ],
      [
        "▁authori",
        -12.59741131845001
      ],
      [
        "▁deal",
        -7.6621603068830595
      ],
      [
        "▁influ",
        -11.437982597790057
      ],
      [
        "▁scandal",
        -11.273256538153712
      ],
      [
        "▁trend",
        -9.282217511376858
      ],
      [
        "ing",
        -4.9877837272561685
      ],
      [
        "de",
        -8.108129855542625
      ],
      [
        "▁dis",
        -7.68685599157579
      ],
      [
        "▁cas",
        -11.607408678374961
      ],
      [
        "▁strong",
        -6.705735057937477
      ],
      [
        "▁socks",
        -9.153188260913874
      ],
      [
        "▁endure",
        -10.262424684064626
      ],
      [
        "angar",
        -10.808734276611478
      ],
      [
        "folder",
        -12.716058629332355
      ],
      [
        "▁face",
        -8.031543205840347
      ],
      [
        "▁gnome",
        -10.180407059433005
      ],
      [
        "▁landing",
        -9.431308837283826
      ],
      [
        "▁ult",
        -8.866987916797545
      ],
      [
        "▁histor",
        -7.513289980217617
      ],
      [
        "istic",
        -7.463813450001007
      ],
      [
        "▁act",
        -8.135830080680929
      ],
      [
        "some",
        -9.9663454453169
      ],
      [
        "▁misfortune",
        -10.939950145267304
      ],
      [
        "▁slight",
        -8.52176239364481
      ],
      [
        "▁transpose",
        -11.45937845498653
      ],
      [
        "▁rectif",
        -10.970555379032861
      ],
      [
        "▁system",
        -6.959812591418187
      ],
      [
        "▁statement",
        -8.254858334354724
      ],
      [
        "▁clear",
        -11.284198656220008
      ],
      [
        "jiha",
        -8.768272352100915
      ],
      [
        "domin",
        -12.422028656954694
      ],
      [
        "leopard",
        -12.645641879744318
      ],
      [
        "!!!!!!!!!!!!!!",
        -12.258495128023615
      ],
      [
        "▁devise",
        -10.151868310973128
      ],
      [
        "▁commu",
        -11.46411832325718
      ],
      [
        "▁publishe",
        -8.041078949278049
      ],
      [
        "▁mature",
        -10.375526164268171
      ],
      [
        "▁burst",
        -10.49139249248848
      ],
      [
        "▁effect",
        -7.602810578728906
      ],
      [
        "▁gods",
        -11.097440325407694
      ],
      [
        "versa",
        -8.685645324624527
      ],
      [
        "lonialis",
        -12.772822498118504
      ],
      [
        "se",
        -8.62084743016618
      ],
      [
        "interference",
        -12.570702949417347
      ],
      [
        "▁imp",
        -11.375652807395394
      ],
      [
        "▁body",
        -7.66192103483644
      ],
      [
        "▁complication",
        -10.689938074911442
      ],
      [
        "set",
        -10.747412217883141
      ],
      [
        "▁outs",
        -12.240550687981216
      ],
      [
        "da",
        -11.222074835862148
      ],
      [
        "▁click",
        -10.323884904523835
      ],
      [
        "▁pixel",
        -10.965900054983441
      ],
      [
        "matic",
        -7.748052528941689
      ],
      [
        "▁sec",
        -8.764226674567574
      ],
      [
        "▁rap",
        -11.667773224124275
      ],
      [
        "hair",
        -12.046336338204648
      ],
      [
        "▁rud",
        -10.317784421723584
      ],
      [
        "▁zo",
        -10.51174749707842
      ],
      [
        "c",
        -4.327503421637194
      ],
      [
        "6:00",
        -8.192154946984985
      ],
      [
        "licit",
        -11.827632319565808
      ],
      [
        "chise",
        -12.65637278882014
      ],
      [
        "able",
        -4.583743775946479
      ],
      [
        "ache",
        -11.04154312443983
      ],
      [
        "x",
        -6.712065527360178
      ],
      [
        "▁intent",
        -11.285413903395451
      ],
      [
        "ting",
        -8.041881264475997
      ],
      [
        "fer",
        -12.467221204698541
      ],
      [
        "runner",
        -12.614871329547453
      ],
      [
        "odd",
        -8.367472074936865
      ],
      [
        "call",
        -11.523315542197565
      ],
      [
        "te",
        -9.340799971988401
      ],
      [
        "blic",
        -8.001689013329223
      ],
      [
        "▁relationship",
        -8.259158282817943
      ],
      [
        "▁collaboration",
        -9.755843953673974
      ],
      [
        "▁wol",
        -8.482091720432784
      ],
      [
        "tri",
        -11.308753405015638
      ],
      [
        "▁grow",
        -7.907490227422229
      ],
      [
        "▁a.k.a",
        -10.310817233232275
      ],
      [
        "▁research",
        -7.633961914211906
      ],
      [
        "‘",
        -9.32263420951717
      ],
      [
        "▁imm",
        -10.710225304513976
      ],
      [
        "onto",
        -6.635313634482095
      ],
      [
        "h",
        -4.3664505913828435
      ],
      [
        "strate",
        -11.608350371874982
      ],
      [
        "▁soc",
        -8.698566430622954
      ],
      [
        "▁cent",
        -9.310483283339794
      ],
      [
        "▁skyscraper",
        -11.773238331931259
      ],
      [
        "▁side",
        -7.038753884437146
      ],
      [
        "ly",
        -6.045208521205439
      ],
      [
        "essential",
        -8.030097004760375
      ],
      [
        "ast",
        -8.046489252248223
      ],
      [
        "amon",
        -10.569478169768761
      ],
      [
        "ence",
        -7.262106878699569
      ],
      [
        "▁battle",
        -9.115012429847276
      ],
      [
        "▁frost",
        -11.006712828599838
      ],
      [
        "n",
        -4.701494973042648
      ],
      [
        "▁acc",
        -8.655995196591189
      ],
      [
        "▁sati",
        -10.117304001181171
      ],
      [
        "li",
        -9.32818683383322
      ],
      [
        "▁fi",
        -9.316203081132292
      ],
      [
        "▁mann",
        -8.83614677774347
      ],
      [
        "ng",
        -7.785275701114573
      ],
      [
        "▁techn",
        -7.4262975788531485
      ],
      [
        "▁loa",
        -10.991053117070965
      ],
      [
        "▁orienta",
        -12.772257334279923
      ],
      [
        "▁chill",
        -9.868840989712089
      ],
      [
        "▁h",
        -9.88687233925407
      ],
      [
        "▁hav",
        -6.718104064181433
      ],
      [
        "▁metabol",
        -11.773304098229483
      ],
      [
        "shape",
        -12.25140260377465
      ],
      [
        "▁wail",
        -10.765240434870135
      ],
      [
        "▁inhabit",
        -10.625392670092056
      ],
      [
        "▁12",
        -5.2458269485953
      ],
      [
        "play",
        -9.488572692942682
      ],
      [
        "▁sevent",
        -7.6509946733125345
      ],
      [
        "like",
        -8.617602280843219
      ],
      [
        "▁suit",
        -9.442799361406374
      ],
      [
        "gon",
        -9.842355029236305
      ],
      [
        "▁strip",
        -10.995640987748855
      ],
      [
        "▁break",
        -7.4288678891284174
      ],
      [
        "ung",
        -8.648774681482486
      ],
      [
        "▁mailing",
        -9.779238622942898
      ],
      [
        "▁pres",
        -8.41671137336538
      ],
      [
        "▁delic",
        -10.163287687958336
      ],
      [
        "reign",
        -10.426554609238739
      ],
      [
        "driv",
        -13.776930213099494
      ],
      [
        "rude",
        -11.390308373367477
      ],
      [
        "▁earlie",
        -6.343694260173169
      ],
      [
        "▁deals",
        -9.87833647781776
      ],
      [
        "iden",
        -13.250112504346138
      ],
      [
        "yo",
        -13.477506734468584
      ],
      [
        "▁boo",
        -11.004743243563265
      ],
      [
        "▁toga",
        -11.791145772690019
      ],
      [
        "▁price",
        -10.430137417473734
      ],
      [
        "thi",
        -6.816229796495275
      ],
      [
        "rry",
        -8.56351071326019
      ],
      [
        "▁tummy",
        -8.782869429642387
      ],
      [
        "▁d",
        -9.912457131010228
      ],
      [
        "!!!!!!!!!!!!!!!",
        -11.726744569091506
      ],
      [
        "▁oppress",
        -10.958757495163
      ],
      [
        "▁conform",
        -9.744589627943448
      ],
      [
        "▁slamm",
        -10.009632995353966
      ],
      [
        "▁injure",
        -9.869002843732643
      ],
      [
        "▁semi",
        -11.274819537388309
      ],
      [
        "▁movement",
        -8.32358601662969
      ],
      [
        "▁consci",
        -8.580369592918158
      ],
      [
        "▁fec",
        -12.01216420733392
      ],
      [
        "▁guard",
        -8.545701960962212
      ],
      [
        "▁regular",
        -11.774164640520674
      ],
      [
        "▁buck",
        -12.424200331175623
      ],
      [
        "▁lev",
        -10.665075671172794
      ],
      [
        "▁comedian",
        -10.692303176469112
      ],
      [
        "▁dilution",
        -11.773484521986923
      ],
      [
        "▁staff",
        -7.41792980350268
      ],
      [
        "ond",
        -9.458937709762106
      ],
      [
        "▁spend",
        -7.795473079364302
      ],
      [
        "▁af",
        -7.921499307680733
      ],
      [
        "liabilit",
        -11.10451066491118
      ],
      [
        "▁festival",
        -9.281362711480751
      ],
      [
        "▁diver",
        -10.879771635979155
      ],
      [
        "▁runn",
        -7.605528184991227
      ],
      [
        "▁wak",
        -11.003849233935952
      ],
      [
        "▁specializ",
        -10.453495390656661
      ],
      [
        "▁alum",
        -12.2238653193502
      ],
      [
        "▁",
        -1.879078986922659
      ],
      [
        "vate",
        -12.814660336773548
      ],
      [
        "▁discomf",
        -12.092987862202921
      ],
      [
        "▁177",
        -7.499662890905288
      ],
      [
        "o.",
        -11.018188995045202
      ],
      [
        "▁teaching",
        -9.395762843977545
      ],
      [
        "▁713-853-3",
        -7.430279499064863
      ],
      [
        "ate",
        -7.545575350373912
      ],
      [
        "▁stretch",
        -8.470534988847277
      ],
      [
        "df",
        -10.018261060085859
      ],
      [
        "▁ser",
        -10.368396104614892
      ],
      [
        "47",
        -11.273841400201047
      ],
      [
        "▁pink",
        -9.654717178859133
      ],
      [
        "▁drizzl",
        -12.047798436140326
      ],
      [
        "▁propel",
        -11.463453774946506
      ],
      [
        "a",
        -1.8416649220847514
      ],
      [
        "unda",
        -9.031100778509199
      ],
      [
        "feel",
        -11.258047734466343
      ],
      [
        "pers",
        -10.086400916882669
      ],
      [
        "icion",
        -10.603074151731494
      ],
      [
        "with",
        -12.677198164544448
      ],
      [
        "▁patro",
        -11.771742283442148
      ],
      [
        "ell",
        -8.488196824400344
      ],
      [
        "▁restrain",
        -10.959718847391551
      ],
      [
        "▁hope",
        -6.850381843185085
      ],
      [
        "▁success",
        -8.426858743832414
      ],
      [
        "dden",
        -9.234145617308972
      ],
      [
        "lande",
        -12.437091890013587
      ],
      [
        "▁route",
        -8.759602378495323
      ],
      [
        "▁spon",
        -11.254916109534053
      ],
      [
        "in",
        -5.972258428642649
      ],
      [
        "▁coincid",
        -11.940438844552665
      ],
      [
        "▁wha",
        -8.988824741698975
      ],
      [
        "▁cola",
        -11.842363607991311
      ],
      [
        "▁supplie",
        -9.356384929205083
      ],
      [
        "▁42",
        -7.946360349099017
      ],
      [
        "▁comb",
        -10.52175565700534
      ],
      [
        "ch",
        -6.965200618973387
      ],
      [
        "▁rib",
        -10.394919727692624
      ],
      [
        "gence",
        -9.503568808276817
      ],
      [
        "p",
        -12.303800120175861
      ],
      [
        "▁accord",
        -9.395340003001035
      ],
      [
        "▁upd",
        -12.100385584027702
      ],
      [
        "▁indicator",
        -10.323523045315099
      ],
      [
        "▁candidate",
        -8.815548141421404
      ],
      [
        "lada",
        -12.024950678094003
      ],
      [
        "▁sha",
        -7.984547637263841
      ],
      [
        "throw",
        -10.710202676939108
      ],
      [
        "▁36",
        -7.450209700463729
      ],
      [
        "▁vomit",
        -9.533771709172859
      ],
      [
        "▁cost",
        -7.2244428688781985
      ],
      [
        "▁he",
        -9.421582144268825
      ],
      [
        "▁pa",
        -7.778262954335982
      ],
      [
        "▁updat",
        -10.536455177965196
      ],
      [
        "▁hel",
        -7.2456770289592685
      ],
      [
        "▁rad",
        -11.023343816538008
      ],
      [
        "ssion",
        -10.67220306730987
      ],
      [
        "▁tr",
        -10.3790802763936
      ],
      [
        "▁newb",
        -11.78081287100948
      ],
      [
        "▁delet",
        -11.90154448316368
      ],
      [
        "▁twink",
        -10.974217608451905
      ],
      [
        "▁register",
        -9.083751068424034
      ],
      [
        "▁hope",
        -8.979295819010217
      ],
      [
        "tradition",
        -11.213274100087009
      ],
      [
        "▁hamm",
        -11.319540875347588
      ],
      [
        "▁accent",
        -10.490479966896586
      ],
      [
        "90",
        -9.547947300466138
      ],
      [
        "m",
        -4.954919790462547
      ],
      [
        "▁stain",
        -11.027819935390541
      ],
      [
        "▁con",
        -7.391996245884695
      ],
      [
        "▁rot",
        -10.730843473631925
      ],
      [
        "▁wing",
        -9.384897173207051
      ],
      [
        "▁stillman",
        -7.2671747695291975
      ],
      [
        "▁passenger",
        -9.17895244881194
      ],
      [
        "▁observer",
        -10.492177300608848
      ],
      [
        "▁nam",
        -9.606888969482533
      ],
      [
        "arm",
        -11.271789674248378
      ],
      [
        "▁surprise",
        -8.360904124977845
      ],
      [
        "▁incapacitate",
        -10.95872562344799
      ],
      [
        "************",
        -12.973373201788785
      ],
      [
        "dicate",
        -11.204004181634602
      ],
      [
        "▁you",
        -12.858193045384432
      ],
      [
        "▁displace",
        -10.182889128318747
      ],
      [
        "▁flip",
        -11.864354924804168
      ],
      [
        "▁bless",
        -9.745754466589428
      ],
      [
        "▁works",
        -8.60668855118841
      ],
      [
        "▁confi",
        -10.375219821549663
      ],
      [
        "▁laws",
        -8.862877220151027
      ],
      [
        "▁simulat",
        -12.115479468232397
      ],
      [
        "air",
        -9.395900082370439
      ],
      [
        "▁bark",
        -11.485431764147364
      ],
      [
        "acture",
        -12.27228974830092
      ],
      [
        "▁refin",
        -10.629002319716383
      ],
      [
        "▁kik",
        -10.968587484398528
      ],
      [
        "▁seat",
        -10.18696325285451
      ],
      [
        "▁r",
        -9.969176708666446
      ],
      [
        "▁handl",
        -12.413257316318813
      ],
      [
        "▁forty",
        -7.559384069455755
      ],
      [
        "hole",
        -10.424607696349936
      ],
      [
        "▁jud",
        -12.597238170489529
      ],
      [
        "ame",
        -5.336550110322487
      ],
      [
        "▁beckon",
        -10.95878742003047
      ],
      [
        "mmy",
        -12.078546454054177
      ],
      [
        "▁multipl",
        -11.791543091556955
      ],
      [
        "▁dra",
        -13.320602956228731
      ],
      [
        "▁freez",
        -9.373485835187363
      ],
      [
        "elf",
        -11.328804916266929
      ],
      [
        "▁roug",
        -12.79360011686537
      ],
      [
        "▁flop",
        -11.4092439338293
      ],
      [
        "▁oct",
        -7.176494753301544
      ],
      [
        "rialize",
        -12.20272814833832
      ],
      [
        "gu",
        -12.812334395845994
      ],
      [
        "▁witness",
        -9.851972198093666
      ],
      [
        "▁cliff",
        -9.595459586668166
      ],
      [
        "mesh",
        -11.76349499656178
      ],
      [
        "▁clun",
        -11.637628332936673
      ],
      [
        "▁definition",
        -8.928968390511578
      ],
      [
        "▁girl",
        -6.672321988464917
      ],
      [
        "▁mullah",
        -11.773239305386936
      ],
      [
        "▁couple",
        -7.4792659887400115
      ],
      [
        "▁flutter",
        -11.459437633950406
      ],
      [
        "04",
        -7.6715494943736875
      ],
      [
        "▁curl",
        -10.74505132895345
      ],
      [
        "▁n",
        -6.357557291452977
      ],
      [
        "_",
        -4.8283611448919315
      ],
      [
        "enter",
        -10.999995049483243
      ],
      [
        "▁m",
        -7.860570558349283
      ],
      [
        "shi",
        -11.237804591700867
      ],
      [
        "op",
        -13.547856159039037
      ],
      [
        "▁sad",
        -7.6620558953530065
      ],
      [
        "▁gain",
        -8.357524823784749
      ],
      [
        "▁remora",
        -11.274294239888606
      ],
      [
        "▁decade",
        -8.131334412794684
      ],
      [
        "▁maca",
        -9.398793096173772
      ],
      [
        "-a-",
        -12.620117289335601
      ],
      [
        "▁sunn",
        -7.90078657461334
      ],
      [
        "▁jo",
        -10.246959192234968
      ],
      [
        "ou",
        -6.775908924918317
      ],
      [
        "▁draw",
        -10.064703343706622
      ],
      [
        "tima",
        -11.802039053428658
      ],
      [
        "▁towe",
        -9.689024425197355
      ],
      [
        "▁chance",
        -7.889975670985233
      ],
      [
        "▁gr",
        -10.148813696744098
      ],
      [
        "▁anemone",
        -10.323240114980283
      ],
      [
        "u",
        -6.759958710825652
      ],
      [
        "had",
        -6.878629606664507
      ],
      [
        "▁relative",
        -7.900067868839787
      ],
      [
        "people",
        -8.687031762784272
      ],
      [
        "▁extrem",
        -12.727095946774071
      ],
      [
        "▁under",
        -6.340505141486626
      ],
      [
        "▁xm",
        -7.158057925075196
      ],
      [
        "▁wo",
        -7.267365822071614
      ],
      [
        "▁moth",
        -10.507662615322317
      ],
      [
        "migration",
        -12.301824399210327
      ],
      [
        "▁gree",
        -11.299347076550161
      ],
      [
        "▁glisten",
        -10.973733501686242
      ],
      [
        "%",
        -2.8879974470677894
      ],
      [
        "sound",
        -13.660105926742565
      ],
      [
        "guis",
        -12.543810400604471
      ],
      [
        "than",
        -8.760961957451034
      ],
      [
        "▁betray",
        -10.625406250415974
      ],
      [
        "▁steak",
        -9.59544447915474
      ],
      [
        "nom",
        -11.734029593109168
      ],
      [
        "▁pedest",
        -11.773428413725341
      ],
      [
        "right",
        -7.817217271791335
      ],
      [
        "el",
        -12.650221016248612
      ],
      [
        "▁desire",
        -9.432100138663028
      ],
      [
        "▁sympathizer",
        -10.93991012381378
      ],
      [
        "▁apron",
        -10.490670558629855
      ],
      [
        "trip",
        -10.860259394785121
      ],
      [
        "sistenc",
        -11.045781477297552
      ],
      [
        "struction",
        -9.565931729104996
      ],
      [
        "▁inn",
        -11.698303575911531
      ],
      [
        "▁momm",
        -8.143304999341096
      ],
      [
        "p",
        -6.261203873790647
      ],
      [
        "log",
        -11.766407609645983
      ],
      [
        "kne",
        -13.220074574826846
      ],
      [
        "▁val",
        -8.737501280996032
      ],
      [
        "▁gate",
        -9.348686127291923
      ],
      [
        "h",
        -3.294768851479734
      ],
      [
        "rogen",
        -11.430037824704574
      ],
      [
        "oxi",
        -11.71711521913389
      ],
      [
        "table",
        -12.334547072875399
      ],
      [
        "co",
        -10.244617530655784
      ],
      [
        "▁heal",
        -10.150695393489766
      ],
      [
        "v",
        -7.00087887227294
      ],
      [
        "easure",
        -9.329749115571392
      ],
      [
        "t",
        -2.4878868855370015
      ],
      [
        "too",
        -10.466901582781876
      ],
      [
        "▁plug",
        -10.944425457974457
      ],
      [
        "▁behavior",
        -8.42787362091789
      ],
      [
        "▁acqu",
        -11.42983689116527
      ],
      [
        "▁pinpoint",
        -11.458798311086086
      ],
      [
        "▁supplement",
        -10.625392290116027
      ],
      [
        "▁toast",
        -7.949871417357507
      ],
      [
        "y",
        -7.355774168791566
      ],
      [
        "sept",
        -9.019880579845758
      ],
      [
        "▁harvest",
        -9.744591996457313
      ],
      [
        "▁pan-democrat",
        -11.273238229206903
      ],
      [
        "▁component",
        -8.575874753413924
      ],
      [
        "▁pleas",
        -7.594931591423149
      ],
      [
        "▁conquer",
        -9.869148430134826
      ],
      [
        "ug",
        -9.374652433782213
      ],
      [
        "▁cata",
        -12.492055162176108
      ],
      [
        "▁mimick",
        -10.964834729923123
      ],
      [
        "side",
        -7.369361114905498
      ],
      [
        "▁the",
        -4.368852518839425
      ],
      [
        "th",
        -8.909901913858775
      ],
      [
        "▁dump",
        -10.323636228627171
      ],
      [
        "▁pee",
        -10.733221532500405
      ],
      [
        "io",
        -11.127298370443429
      ],
      [
        "60",
        -12.577850097129675
      ],
      [
        "▁ill",
        -8.605820693585127
      ],
      [
        "▁t",
        -8.151778055974344
      ],
      [
        "▁demand",
        -8.376691249688534
      ],
      [
        "▁o",
        -7.106158376632667
      ],
      [
        "▁prepa",
        -12.368982636589443
      ],
      [
        "▁eight",
        -8.005479420499876
      ],
      [
        "▁bus",
        -6.093146094794691
      ],
      [
        "▁hand",
        -8.589309441076455
      ],
      [
        "▁spil",
        -11.43931131463016
      ],
      [
        "▁destin",
        -9.754402379291285
      ],
      [
        "▁n",
        -10.462743634385387
      ],
      [
        "pea",
        -10.042667724102373
      ],
      [
        "▁pipe",
        -9.051232880612975
      ],
      [
        "▁starfighter",
        -10.940058893983055
      ],
      [
        "▁reass",
        -12.44344266547707
      ],
      [
        "▁ranger",
        -11.41782904201714
      ],
      [
        "oft",
        -8.189491322782379
      ],
      [
        "▁guard",
        -10.570907859473822
      ],
      [
        "▁ob",
        -13.260444324112411
      ],
      [
        "k",
        -6.601882593626262
      ],
      [
        "ress",
        -13.571476286207469
      ],
      [
        "▁personal",
        -7.73883688352381
      ],
      [
        "▁steer",
        -10.377419313835233
      ],
      [
        "▁isle",
        -10.732672140386116
      ],
      [
        "▁experiment",
        -9.744843305436728
      ],
      [
        "▁i",
        -8.414006726853913
      ],
      [
        "▁organ",
        -11.271942731340047
      ],
      [
        "▁al",
        -6.408490632627888
      ],
      [
        "▁re-",
        -8.721355501734267
      ],
      [
        "oggi",
        -13.114991304587004
      ],
      [
        "sume",
        -12.620606358871541
      ],
      [
        "▁display",
        -9.395743140437938
      ],
      [
        "▁cover",
        -7.530766538554042
      ],
      [
        "▁redesign",
        -10.626120152468657
      ],
      [
        "▁g",
        -8.25510992877247
      ],
      [
        "▁thrash",
        -11.458880290136792
      ],
      [
        "humanit",
        -12.526782178945254
      ],
      [
        "head",
        -8.947415373691765
      ],
      [
        "▁po",
        -8.845977414981867
      ],
      [
        "▁touche",
        -11.32792920082905
      ],
      [
        "cour",
        -7.539159453764968
      ],
      [
        "▁drought",
        -11.773255363341102
      ],
      [
        "ffici",
        -7.440923749614953
      ],
      [
        "▁sal",
        -9.615449541188497
      ],
      [
        "▁represent",
        -7.84192061450014
      ],
      [
        "▁be",
        -5.640815374565242
      ],
      [
        "stage",
        -12.523054129521686
      ],
      [
        "▁laud",
        -11.523371755060518
      ],
      [
        "wash",
        -10.870230378507422
      ],
      [
        "▁galler",
        -9.314446263981672
      ],
      [
        "▁uhh",
        -6.002948122038999
      ],
      [
        "n",
        -11.31025614719772
      ],
      [
        "▁wash",
        -7.504951731329325
      ],
      [
        "▁casino",
        -11.773575850598915
      ],
      [
        "▁puree",
        -10.65186179012632
      ],
      [
        "▁war",
        -11.326494076480563
      ],
      [
        "▁layo",
        -9.92935422874201
      ],
      [
        "tha",
        -9.346659201024885
      ],
      [
        "▁charles",
        -8.372667936952666
      ],
      [
        "▁serve",
        -6.80670337700455
      ],
      [
        "▁wheez",
        -10.958925858465303
      ],
      [
        "▁hotel",
        -7.570652255761841
      ],
      [
        "tel",
        -10.961474627925877
      ],
      [
        "▁miracle",
        -9.846318530969398
      ],
      [
        "▁dursley",
        -8.254337504901756
      ],
      [
        "▁tend",
        -8.614622362102224
      ],
      [
        "▁impr",
        -9.640881819993131
      ],
      [
        "ishment",
        -12.475147949399746
      ],
      [
        "▁them",
        -5.092080749922367
      ],
      [
        "rate",
        -9.627194773452135
      ],
      [
        "j",
        -7.504078469675665
      ],
      [
        "▁quiet",
        -7.850034831659617
      ],
      [
        "▁steward",
        -11.77233878930749
      ],
      [
        "belt",
        -12.49276997895538
      ],
      [
        "one",
        -8.36886201174637
      ],
      [
        "▁sale",
        -9.464144502944947
      ],
      [
        "▁capt",
        -13.030468450980152
      ],
      [
        "▁basic",
        -7.651982902971502
      ],
      [
        "▁o",
        -5.5051082632013175
      ],
      [
        "▁disc",
        -11.380702105787039
      ],
      [
        "▁micros",
        -8.25618327902604
      ],
      [
        "▁exclaim",
        -10.011733413715644
      ],
      [
        "▁l",
        -6.757555797196762
      ],
      [
        "▁module",
        -10.940504582240333
      ],
      [
        "▁village",
        -9.178831566700104
      ],
      [
        "▁accommodation",
        -9.672710786721364
      ],
      [
        "▁definit",
        -7.014693227758429
      ],
      [
        "▁inf",
        -10.243930448735448
      ],
      [
        "html",
        -8.780028593509847
      ],
      [
        "cil",
        -8.125382901305478
      ],
      [
        "▁jewel",
        -10.49079534458328
      ],
      [
        "z",
        -8.474407620128483
      ],
      [
        "let",
        -10.752078585487032
      ],
      [
        "▁weep",
        -10.6371667924686
      ],
      [
        "rate",
        -7.566553718926961
      ],
      [
        "oot",
        -10.638484927662859
      ],
      [
        "hua",
        -11.026757919424321
      ],
      [
        "▁wea",
        -10.862787046391801
      ],
      [
        "▁modulate",
        -11.458728335989921
      ],
      [
        "▁buckl",
        -10.635303392634972
      ],
      [
        "▁over",
        -5.746199670579694
      ],
      [
        "▁rollercoaster",
        -11.773238248180864
      ],
      [
        "▁shortc",
        -12.652500959460836
      ],
      [
        "▁dep",
        -12.436950373133385
      ],
      [
        "▁double",
        -11.273974809572712
      ],
      [
        "cent",
        -7.652589887132629
      ],
      [
        "▁young",
        -11.772948514788904
      ],
      [
        "▁pre",
        -9.008752601000232
      ],
      [
        "▁hairstyl",
        -11.725143771309643
      ],
      [
        "▁tap",
        -10.854487862826728
      ],
      [
        "very",
        -8.143274354969591
      ],
      [
        "▁phase",
        -9.470527821688089
      ],
      [
        "▁hover",
        -10.37642554524435
      ],
      [
        "▁**",
        -12.566425383930483
      ],
      [
        "▁minorit",
        -9.946177792883864
      ],
      [
        "▁conspira",
        -10.489908918163803
      ],
      [
        "▁csa",
        -12.365782220551267
      ],
      [
        "skat",
        -11.416433829534629
      ],
      [
        "▁rolle",
        -10.204789143604735
      ],
      [
        "▁diar",
        -10.203448905135481
      ],
      [
        "▁strangle",
        -11.458790070423893
      ],
      [
        "▁contract",
        -10.17540483979669
      ],
      [
        "▁hunche",
        -11.462310226421735
      ],
      [
        "mur",
        -11.846667715398391
      ],
      [
        "lump",
        -11.291039358672533
      ],
      [
        "▁inhal",
        -12.065857959122352
      ],
      [
        "ch",
        -10.038999779297551
      ],
      [
        "▁skate",
        -11.909075788411801
      ],
      [
        "▁move",
        -6.640303779448729
      ],
      [
        "generalization",
        -12.639829069884252
      ],
      [
        "cca",
        -8.52979912112865
      ],
      [
        "gant",
        -8.758087245915043
      ],
      [
        "▁extract",
        -10.077824015475802
      ],
      [
        "▁but",
        -12.419852661321622
      ],
      [
        "gestion",
        -10.947005013722679
      ],
      [
        "▁cau",
        -11.757024942771615
      ],
      [
        "▁repos",
        -11.527572729572405
      ],
      [
        "▁answe",
        -12.37337923755599
      ],
      [
        "▁chang",
        -8.008629503993417
      ],
      [
        "▁k",
        -7.000291889236062
      ],
      [
        "▁to",
        -8.426954044671415
      ],
      [
        "▁-",
        -7.106383807340567
      ],
      [
        "▁substan",
        -10.95897965901706
      ],
      [
        "▁cano",
        -11.728167011582068
      ],
      [
        "ual",
        -6.36502189831647
      ],
      [
        "▁charl",
        -7.222016558532926
      ],
      [
        "▁dand",
        -12.099691319529498
      ],
      [
        "▁citi",
        -9.144792283717441
      ],
      [
        "on",
        -6.870845246803458
      ],
      [
        "▁where",
        -4.295607078995645
      ],
      [
        "her",
        -6.563763909055743
      ],
      [
        "▁toe",
        -9.522374601824131
      ],
      [
        "tress",
        -10.86198341178973
      ],
      [
        "k",
        -4.824478571806009
      ],
      [
        "r",
        -6.214075330236204
      ],
      [
        "▁matche",
        -10.01697968965513
      ],
      [
        "▁export",
        -8.573721919488909
      ],
      [
        "a-",
        -8.821022953096769
      ],
      [
        "▁actress",
        -9.946318195976945
      ],
      [
        "▁slow",
        -7.370680472423794
      ],
      [
        "qu",
        -12.742838599490407
      ],
      [
        "start",
        -11.085274568306424
      ],
      [
        "din",
        -12.664089624097777
      ],
      [
        "ratche",
        -12.476294151365925
      ],
      [
        "▁order",
        -7.583793869267323
      ],
      [
        "▁a",
        -6.12190624464488
      ],
      [
        "▁char",
        -10.249796448788063
      ],
      [
        "feeling",
        -12.315311135901332
      ],
      [
        "▁comfort",
        -7.7326495420772865
      ],
      [
        "▁lobster",
        -10.18038404506909
      ],
      [
        "▁fine",
        -6.622671821318005
      ],
      [
        "▁square",
        -8.855141080505938
      ],
      [
        "▁pac",
        -12.501920185866485
      ],
      [
        "tter",
        -6.783327446752775
      ],
      [
        "▁librar",
        -9.252806860895012
      ],
      [
        "found",
        -10.741834212598295
      ],
      [
        "▁task",
        -8.404413634962584
      ],
      [
        "▁context",
        -8.474541872629535
      ],
      [
        "ormit",
        -10.524825861747647
      ],
      [
        "▁memorize",
        -10.625426217963572
      ],
      [
        "▁coordinator",
        -10.181498889903523
      ],
      [
        "▁pale",
        -7.989148235664324
      ],
      [
        "lativ",
        -8.53672055218997
      ],
      [
        "▁creati",
        -7.923815891017407
      ],
      [
        "▁tons",
        -9.709572006173236
      ],
      [
        "▁craw",
        -10.694225727566819
      ],
      [
        "gold",
        -11.621291938377288
      ],
      [
        "▁refuge",
        -11.691238759325921
      ],
      [
        "walk",
        -12.273698759655865
      ],
      [
        "▁compound",
        -10.375576661577485
      ],
      [
        "▁ins",
        -12.230261583899573
      ],
      [
        "▁shine",
        -10.254725073612573
      ],
      [
        "represent",
        -13.133123378671998
      ],
      [
        "▁great",
        -5.158725407219528
      ],
      [
        "ta",
        -10.013667681464051
      ],
      [
        "▁climate",
        -8.360823258272308
      ],
      [
        "ves",
        -8.384121393324815
      ],
      [
        "▁friday",
        -6.956060737935167
      ],
      [
        "▁hard",
        -6.981459197999821
      ],
      [
        "che",
        -11.960837310637285
      ],
      [
        "▁lind",
        -8.646663439148835
      ],
      [
        "▁ridiculi",
        -13.818228890828383
      ],
      [
        "▁ec",
        -8.277647629504392
      ],
      [
        "▁dyna",
        -12.734952630013078
      ],
      [
        "▁ner",
        -12.519571357512078
      ],
      [
        "cat",
        -10.291165953640707
      ],
      [
        "▁poop",
        -9.622106969472634
      ],
      [
        "▁revisit",
        -10.631252763409883
      ],
      [
        "▁success",
        -8.22835123492166
      ],
      [
        "▁newsgroup",
        -10.49152364424671
      ],
      [
        "▁bond",
        -9.860428493769295
      ],
      [
        "▁#",
        -3.833302545614116
      ],
      [
        "***",
        -10.264982179695927
      ],
      [
        "▁activist",
        -10.497421952179861
      ],
      [
        "ulat",
        -11.243332247337403
      ],
      [
        "▁endowment",
        -11.27324267599731
      ],
      [
        "erry",
        -11.487827848010864
      ],
      [
        "▁fir",
        -9.79574731693776
      ],
      [
        "▁qu",
        -10.263586211553452
      ],
      [
        "v",
        -9.394206695612269
      ],
      [
        "▁insight",
        -9.090233551693094
      ],
      [
        "▁where",
        -5.614914026485336
      ],
      [
        "oration",
        -10.144592791079322
      ],
      [
        "ay",
        -7.506375717695027
      ],
      [
        "pi",
        -11.801566064510904
      ],
      [
        "▁depend",
        -7.769878710648066
      ],
      [
        "▁scru",
        -10.933474737781639
      ],
      [
        "▁overlap",
        -11.795178365743567
      ],
      [
        "▁ed",
        -12.245926015556895
      ],
      [
        "▁wool",
        -10.919391969815248
      ],
      [
        "purpose",
        -12.458082686682781
      ],
      [
        "▁stati",
        -13.632783203501534
      ],
      [
        "▁us",
        -6.5218719918286725
      ],
      [
        "antom",
        -11.151226975577174
      ],
      [
        "▁cpi",
        -11.295097704707626
      ],
      [
        "back",
        -8.500899665186376
      ],
      [
        "▁obligation",
        -9.672608918041444
      ],
      [
        "!!!!!!!!!!!!!",
        -12.159030662584136
      ],
      [
        "▁repl",
        -9.938027662388718
      ],
      [
        "▁ce",
        -9.540787268965282
      ],
      [
        "▁link",
        -8.421431361608825
      ],
      [
        "▁interval",
        -9.67254830195308
      ],
      [
        "holes",
        -10.231843753730484
      ],
      [
        "ca",
        -9.635969791590878
      ],
      [
        "▁formula",
        -10.490003354583301
      ],
      [
        "▁punctu",
        -11.463932877187496
      ],
      [
        "ff",
        -10.309621572094049
      ],
      [
        "▁sup",
        -12.563251891970072
      ],
      [
        "abl",
        -5.607246216433183
      ],
      [
        "ulti",
        -9.07837522565108
      ],
      [
        "parag",
        -11.79140005898507
      ],
      [
        "lar",
        -8.411756771182056
      ],
      [
        "on",
        -10.14240032102932
      ],
      [
        "usion",
        -11.209847994760384
      ],
      [
        "▁woman",
        -7.490717483086611
      ],
      [
        "▁fa",
        -8.19876560582096
      ],
      [
        "▁dsl",
        -10.52306637714506
      ],
      [
        "▁eas",
        -12.421827182530187
      ],
      [
        "▁restriction",
        -8.782347040449988
      ],
      [
        "▁tol",
        -6.346755550568246
      ],
      [
        "▁i",
        -7.352216322514234
      ],
      [
        "▁atheis",
        -10.940240792930641
      ],
      [
        "▁reconcil",
        -11.95560332961848
      ],
      [
        "▁beam",
        -10.82748484525468
      ],
      [
        "t.",
        -8.570285217357583
      ],
      [
        "▁genre",
        -10.691942556166012
      ],
      [
        "▁description",
        -8.885766420067249
      ],
      [
        "dust",
        -11.529450086905996
      ],
      [
        "▁scrap",
        -10.726274855521616
      ],
      [
        "▁know",
        -10.94028369200102
      ],
      [
        "c",
        -5.811834898890697
      ],
      [
        "▁opposit",
        -10.105588657602782
      ],
      [
        "▁confine",
        -10.01031553379752
      ],
      [
        "▁overcharge",
        -11.459148532997183
      ],
      [
        "▁drums",
        -11.15551395485286
      ],
      [
        "el",
        -7.571730869574101
      ],
      [
        "▁deduction",
        -11.277166131348142
      ],
      [
        "pt",
        -9.482845693749683
      ],
      [
        "▁soli",
        -12.766489206794112
      ],
      [
        "▁kind",
        -6.281756110445684
      ],
      [
        "pul",
        -11.892216386556417
      ],
      [
        "▁sweet",
        -8.827290332796789
      ],
      [
        "▁rub",
        -12.682899314475746
      ],
      [
        "▁train",
        -6.998971955526451
      ],
      [
        "▁living",
        -8.606385582743833
      ],
      [
        "▁corn",
        -10.0371943012966
      ],
      [
        "▁rej",
        -12.370988165240512
      ],
      [
        "ominate",
        -10.358807714120648
      ],
      [
        ".com",
        -10.940525493319383
      ],
      [
        "▁diso",
        -12.225379060828825
      ],
      [
        "▁fast",
        -7.855287843304761
      ],
      [
        "▁includ",
        -6.833177670588736
      ],
      [
        "rent",
        -11.037617359250897
      ],
      [
        "▁north",
        -8.50620785573341
      ],
      [
        "▁what",
        -9.596570129206697
      ],
      [
        "oeuvr",
        -12.771851157811314
      ],
      [
        "▁aro",
        -13.094208024730627
      ],
      [
        "▁je",
        -9.523857047716103
      ],
      [
        "ier",
        -12.024310590840324
      ],
      [
        "▁tracer",
        -11.293383557931419
      ],
      [
        "▁desir",
        -11.546724080352606
      ],
      [
        "ations",
        -10.703784906498932
      ],
      [
        "love",
        -11.664106201790764
      ],
      [
        "▁bulldo",
        -8.360931237317764
      ],
      [
        "▁dwarf",
        -11.773261345249963
      ],
      [
        "▁apple",
        -8.578334110967061
      ],
      [
        "▁jun",
        -7.994260311478372
      ],
      [
        "▁monster",
        -8.689279323908629
      ],
      [
        "uffin",
        -10.97897481242274
      ],
      [
        "▁twirl",
        -9.868804640226257
      ],
      [
        "▁website",
        -7.775916881245989
      ],
      [
        "ie",
        -8.369306723337473
      ],
      [
        "▁trust",
        -8.12134502943936
      ],
      [
        "▁gl",
        -10.850815778431189
      ],
      [
        "y",
        -4.983554208410508
      ],
      [
        "gnific",
        -8.754127670888721
      ],
      [
        "▁su",
        -7.756380231105966
      ],
      [
        "give",
        -9.670984598781121
      ],
      [
        "▁descend",
        -9.869185119250728
      ],
      [
        "mic",
        -10.119714563142718
      ],
      [
        "▁divers",
        -12.288133454539791
      ],
      [
        "six",
        -8.207948330641019
      ],
      [
        "▁entr",
        -9.229108140711464
      ],
      [
        "trans",
        -12.535552335362103
      ],
      [
        "▁ii",
        -6.7287787636930885
      ],
      [
        "son",
        -11.926039698717645
      ],
      [
        "lapse",
        -10.65405080993284
      ],
      [
        "revision",
        -11.635339438833519
      ],
      [
        "-hundred-",
        -11.773500769744926
      ],
      [
        "rumbl",
        -11.455820190639344
      ],
      [
        "▁game",
        -8.83211450709
      ],
      [
        "eluc",
        -11.480973949906286
      ],
      [
        "▁further",
        -7.053770262695196
      ],
      [
        "▁char",
        -6.868648216008517
      ],
      [
        "▁roads",
        -10.297202899554811
      ],
      [
        "▁contest",
        -9.953743216449208
      ],
      [
        "los",
        -11.133893137226078
      ],
      [
        "▁posses",
        -12.398412633799408
      ],
      [
        "▁y",
        -11.402737183913269
      ],
      [
        "▁tun",
        -10.465068209857588
      ],
      [
        "▁popul",
        -11.854595868702514
      ],
      [
        "ght",
        -13.843806434183607
      ],
      [
        "lonel",
        -12.530476496461983
      ],
      [
        "▁cross",
        -8.458026529841618
      ],
      [
        "▁alley",
        -11.229343223213668
      ],
      [
        "love",
        -11.735701332818751
      ],
      [
        "▁rhin",
        -11.780230726391018
      ],
      [
        "▁pav",
        -12.121505195634713
      ],
      [
        "rruption",
        -10.497123241685365
      ],
      [
        "▁thes",
        -5.533559998489873
      ],
      [
        "▁ques",
        -11.237247756873401
      ],
      [
        "▁over",
        -9.078225487752855
      ],
      [
        "▁oh",
        -3.2899133699130756
      ],
      [
        "▁stung",
        -9.877622477097226
      ],
      [
        "▁princes",
        -12.728507710034231
      ],
      [
        "▁conc",
        -11.881538413064451
      ],
      [
        "▁fra",
        -10.352212809871425
      ],
      [
        "9",
        -4.443752773287558
      ],
      [
        "▁geograph",
        -10.939938383735866
      ],
      [
        "▁perceiv",
        -10.551918828734166
      ],
      [
        "duct",
        -12.4557090145683
      ],
      [
        "▁see",
        -4.551308700229445
      ],
      [
        "▁walk",
        -6.515052717435402
      ],
      [
        "▁medi",
        -12.742182037151402
      ],
      [
        "▁transformation",
        -9.861597079844334
      ],
      [
        "▁gener",
        -8.827935720149044
      ],
      [
        "▁theater",
        -9.337088700105163
      ],
      [
        "ivat",
        -12.498085325067928
      ],
      [
        "▁jack",
        -7.897609624453495
      ],
      [
        "▁ga",
        -9.703023709009663
      ],
      [
        "▁vowel",
        -11.273302752077784
      ],
      [
        "▁desp",
        -10.797482093568739
      ],
      [
        "▁affiliat",
        -11.72375353603304
      ],
      [
        "al",
        -5.95872636162754
      ],
      [
        "▁thrill",
        -10.958774338081941
      ],
      [
        "▁neighbour",
        -9.178860207109013
      ],
      [
        "▁glor",
        -12.374598293388434
      ],
      [
        "▁shi",
        -8.212771638578904
      ],
      [
        "and",
        -9.577211531171667
      ],
      [
        "▁worry",
        -8.610892468635155
      ],
      [
        "rabilit",
        -11.911284799167245
      ],
      [
        "▁temple",
        -9.531898361989775
      ],
      [
        "▁advocate",
        -11.458725961477867
      ],
      [
        "▁encounter",
        -10.180409228217268
      ],
      [
        "ect",
        -7.2808766303213615
      ],
      [
        "▁vot",
        -10.792142186818554
      ],
      [
        "rot",
        -12.021505862479792
      ],
      [
        "▁nursie",
        -9.535142975458008
      ],
      [
        "were",
        -7.167827169458954
      ],
      [
        "ba",
        -13.591742627784996
      ],
      [
        "brace",
        -12.10403301571309
      ],
      [
        "▁requir",
        -9.106318260961466
      ],
      [
        "▁coron",
        -11.301571789976515
      ],
      [
        "▁democrat",
        -8.966074854285312
      ],
      [
        "▁hyp",
        -12.46151565261142
      ],
      [
        "crimin",
        -12.674812544105597
      ],
      [
        "▁zone",
        -9.879017153560365
      ],
      [
        "f",
        -11.770631529841472
      ],
      [
        "▁spe",
        -11.019567938286174
      ],
      [
        "-wa",
        -11.664597319223608
      ],
      [
        "mike",
        -7.23155041718899
      ],
      [
        "▁detain",
        -10.626643839436582
      ],
      [
        "catch",
        -13.692096544082272
      ],
      [
        "hm",
        -8.212943245658627
      ],
      [
        "▁paste",
        -11.152475712327192
      ],
      [
        "▁saw",
        -11.178634673289515
      ],
      [
        "pertain",
        -11.373697747802087
      ],
      [
        "▁easter",
        -10.69496645363726
      ],
      [
        "res",
        -10.150917423092839
      ],
      [
        "remain",
        -12.686186664379093
      ],
      [
        "▁bull",
        -9.729254291192028
      ],
      [
        "▁detail",
        -10.626634897885598
      ],
      [
        "state",
        -13.012893372477944
      ],
      [
        "'",
        -8.499553026792348
      ],
      [
        "▁lemon",
        -9.336638002418972
      ],
      [
        "▁spokes",
        -9.595775736360453
      ],
      [
        "▁examin",
        -11.784356521932777
      ],
      [
        "▁back",
        -8.43778236464935
      ],
      [
        "▁end",
        -7.739997475527316
      ],
      [
        "palestinians",
        -8.687436656246312
      ],
      [
        "▁logg",
        -11.008689371677296
      ],
      [
        "bring",
        -11.854258044810992
      ],
      [
        "mind",
        -12.46290592536144
      ],
      [
        "▁dive",
        -12.689422565787854
      ],
      [
        "▁consumer",
        -9.005271056704327
      ],
      [
        "▁swor",
        -10.386282584561297
      ],
      [
        "rap",
        -11.804249669736695
      ],
      [
        "▁relativi",
        -10.28988612621023
      ],
      [
        "onym",
        -10.716842001313587
      ],
      [
        "it",
        -7.789365466663519
      ],
      [
        "▁blind",
        -8.740435884048365
      ],
      [
        "▁establishe",
        -8.806470403235926
      ],
      [
        "ank",
        -12.715132825980108
      ],
      [
        "▁skip",
        -9.439206609939403
      ],
      [
        "▁implement",
        -8.187586598347401
      ],
      [
        "▁individual",
        -8.52402295162673
      ],
      [
        "▁criminal",
        -9.847077760801614
      ],
      [
        "▁reflect",
        -7.854759970925008
      ],
      [
        "g",
        -10.925660239071423
      ],
      [
        "▁mosquito",
        -9.000931247044475
      ],
      [
        "=---",
        -11.804144771854496
      ],
      [
        "▁terrorist",
        -8.894776890349846
      ],
      [
        "▁g",
        -7.240861415586582
      ],
      [
        "▁prepare",
        -7.995917764946754
      ],
      [
        "▁gotte",
        -9.31265395207345
      ],
      [
        "fect",
        -10.172550138150612
      ],
      [
        "▁sculpture",
        -10.323293148143621
      ],
      [
        "▁surger",
        -9.050438483094187
      ],
      [
        "▁york",
        -5.901220339808723
      ],
      [
        "▁lee",
        -7.7902069844663355
      ],
      [
        "▁be",
        -6.418192732652731
      ],
      [
        "▁800",
        -7.735225124743468
      ],
      [
        "▁fireman",
        -10.18482935185616
      ],
      [
        "▁preservati",
        -11.459441605368239
      ],
      [
        "▁/",
        -2.4036502751317004
      ],
      [
        "set",
        -11.18134212648503
      ],
      [
        "▁bu",
        -9.024466543669934
      ],
      [
        "▁validate",
        -11.525104689371256
      ],
      [
        "▁sprint",
        -11.52774968556755
      ],
      [
        "▁doin",
        -9.639391062832008
      ],
      [
        "der",
        -12.560644650932698
      ],
      [
        "▁load",
        -9.475426092019175
      ],
      [
        "▁balanc",
        -11.791902672568025
      ],
      [
        "tus",
        -11.99916295242264
      ],
      [
        "▁attitude",
        -9.08596872512258
      ],
      [
        "▁liaison",
        -11.77324123561004
      ],
      [
        "▁rating",
        -10.094382670135058
      ],
      [
        "’",
        -6.26611087511166
      ],
      [
        "▁threaten",
        -8.917157554625366
      ],
      [
        "ten",
        -6.696279519574173
      ],
      [
        "wish",
        -12.508965928082846
      ],
      [
        "▁bypass",
        -11.45874532650748
      ],
      [
        "ursu",
        -8.539111494722263
      ],
      [
        "cuff",
        -11.005836979163902
      ],
      [
        "▁dealership",
        -10.180968943307139
      ],
      [
        "▁return",
        -6.980570236197516
      ],
      [
        "▁sweet",
        -7.823057984112986
      ],
      [
        "▁per",
        -11.244378115706253
      ],
      [
        "▁rock",
        -8.023324125928163
      ],
      [
        "phone",
        -12.77473193340385
      ],
      [
        "est",
        -5.834993291504394
      ],
      [
        "▁bumblebee",
        -10.939932197886403
      ],
      [
        "▁hmmmm",
        -9.375494104063407
      ],
      [
        "claim",
        -12.15816144078339
      ],
      [
        "▁4",
        -4.753496389042687
      ],
      [
        "nning",
        -12.532421506061336
      ],
      [
        "mount",
        -12.441743842225296
      ],
      [
        "▁avo",
        -11.83571388810655
      ],
      [
        "ive",
        -7.661082023090708
      ],
      [
        "▁tupper",
        -12.025281044459915
      ],
      [
        "▁right",
        -6.890340287553575
      ],
      [
        "▁pizza",
        -8.202275232138575
      ],
      [
        "▁male",
        -8.800949858511196
      ],
      [
        "▁turk",
        -9.446159889016336
      ],
      [
        "▁snitch",
        -9.04236582073256
      ],
      [
        "▁curve",
        -10.495058724617806
      ],
      [
        "▁vega",
        -6.645067716131138
      ],
      [
        "▁splash",
        -10.958736273218793
      ],
      [
        "▁broad",
        -7.998462488971848
      ],
      [
        "chart",
        -10.376458087479929
      ],
      [
        "▁glo",
        -11.995090105480978
      ],
      [
        "omes",
        -12.88331294064893
      ],
      [
        "▁decid",
        -9.515190966093694
      ],
      [
        "p",
        -12.707635305583393
      ],
      [
        "▁epit",
        -12.060086335150174
      ],
      [
        "▁wil",
        -10.327329674474207
      ],
      [
        "▁magne",
        -10.988488602918478
      ],
      [
        "▁west",
        -7.364491912356218
      ],
      [
        "▁paus",
        -10.330554930313813
      ],
      [
        "umor",
        -11.948756137183336
      ],
      [
        "▁counterfeit",
        -9.086110733571727
      ],
      [
        "▁ant",
        -8.123136505665142
      ],
      [
        "cano",
        -11.216945410719907
      ],
      [
        "difference",
        -11.29490785919385
      ],
      [
        "▁outs",
        -13.252542245268513
      ],
      [
        "east",
        -8.071832511211177
      ],
      [
        "▁drum",
        -10.375662977742826
      ],
      [
        "▁revol",
        -12.458343237971933
      ],
      [
        "▁me",
        -7.7476855616082805
      ],
      [
        "▁expand",
        -8.318777532004205
      ],
      [
        "▁bedroom",
        -8.661050574088472
      ],
      [
        "▁got",
        -7.758129679899486
      ],
      [
        "▁dispers",
        -10.939292153018057
      ],
      [
        "▁obey",
        -10.625427026840482
      ],
      [
        "ware",
        -8.882144408954652
      ],
      [
        "▁lantern",
        -9.946094225782183
      ],
      [
        "▁lover",
        -9.831691456486574
      ],
      [
        "o",
        -6.490936696991558
      ],
      [
        "▁continu",
        -10.323651103574067
      ],
      [
        "scope",
        -9.132119036756176
      ],
      [
        "▁litter",
        -10.071877568296074
      ],
      [
        "ordin",
        -9.977955007550246
      ],
      [
        "▁priva",
        -9.527093462042476
      ],
      [
        "▁basket",
        -8.922404872565838
      ],
      [
        "bec",
        -10.57414379054094
      ],
      [
        "▁stu",
        -11.591802397483622
      ],
      [
        "_",
        -4.431513891457677
      ],
      [
        "▁he",
        -4.9588869558818445
      ],
      [
        "▁psychologist",
        -10.941045740662563
      ],
      [
        "▁superst",
        -11.57793978835037
      ],
      [
        "▁matur",
        -11.788287661817751
      ],
      [
        "ep",
        -13.600363912095466
      ],
      [
        "i",
        -6.571173088739063
      ],
      [
        "ful",
        -10.214173596185605
      ],
      [
        "security",
        -8.469289774207184
      ],
      [
        "▁e-mail",
        -8.498746604085238
      ],
      [
        "▁sad",
        -10.870184907770316
      ],
      [
        "nami",
        -11.474129430023995
      ],
      [
        "m",
        -4.633343155688267
      ],
      [
        "▁credential",
        -11.458725626649791
      ],
      [
        "pl",
        -12.115325527155342
      ],
      [
        "nia",
        -7.784660523221543
      ],
      [
        "▁bc",
        -10.030823083387792
      ],
      [
        "burg",
        -8.803695721498759
      ],
      [
        "▁corporation",
        -9.756411178035254
      ],
      [
        "ball",
        -10.48814541215298
      ],
      [
        "vote",
        -13.549191932608725
      ],
      [
        "paper",
        -10.123352895485976
      ],
      [
        "▁north",
        -7.051222331089207
      ],
      [
        "▁verifie",
        -10.375418645198057
      ],
      [
        "▁aggre",
        -11.163834419602672
      ],
      [
        "ful",
        -5.211743761945356
      ],
      [
        "▁video",
        -7.695921902330124
      ],
      [
        "formulate",
        -10.62542919896698
      ],
      [
        "uction",
        -11.019883479435903
      ],
      [
        "▁lab",
        -9.072089609692217
      ],
      [
        "▁construct",
        -9.750349557429862
      ],
      [
        "▁out",
        -4.814863351036433
      ],
      [
        "▁afterward",
        -8.136140019234482
      ],
      [
        "cum",
        -12.109432871698822
      ],
      [
        "▁separate",
        -8.89988291275871
      ],
      [
        "▁straw",
        -10.490281925430413
      ],
      [
        "▁tick",
        -11.448733902089998
      ],
      [
        "▁stemm",
        -10.971927140284624
      ],
      [
        "▁crop",
        -12.455096683188597
      ],
      [
        "▁encl",
        -12.479340668701083
      ],
      [
        "dere",
        -12.719531916305986
      ],
      [
        "▁absor",
        -11.274499738156091
      ],
      [
        "▁lov",
        -8.870696865944382
      ],
      [
        "▁enron",
        -6.684014898675318
      ],
      [
        "▁fund",
        -8.889089241995938
      ],
      [
        "▁dung",
        -10.494555526606884
      ],
      [
        "▁alarm",
        -9.846305669359623
      ],
      [
        "▁client",
        -8.781999973403217
      ],
      [
        "▁parad",
        -11.715334389986669
      ],
      [
        "▁comparison",
        -9.086067963781046
      ],
      [
        "lil",
        -11.684299772488664
      ],
      [
        "▁bas",
        -8.497951332467174
      ],
      [
        "de",
        -9.08516857860757
      ],
      [
        "▁law",
        -7.2598499240689
      ],
      [
        "do",
        -8.922653752225703
      ],
      [
        "▁investigator",
        -11.273238355294895
      ],
      [
        "▁cheap",
        -6.93449626107068
      ],
      [
        "▁th",
        -8.495762721524017
      ],
      [
        "▁saddam",
        -8.379250120062583
      ],
      [
        "struct",
        -8.786187071254844
      ],
      [
        "▁antiquit",
        -10.489994645375356
      ],
      [
        "▁instan",
        -10.970672433307296
      ],
      [
        "▁sell",
        -7.902661868973678
      ],
      [
        "▁close",
        -9.463172932684817
      ],
      [
        "▁eyeglass",
        -11.279610539893335
      ],
      [
        "endi",
        -10.243672828300106
      ],
      [
        "▁christ",
        -7.369766448325079
      ],
      [
        "▁shak",
        -10.315322505285643
      ],
      [
        "anza",
        -10.947296214994505
      ],
      [
        "hold",
        -11.684695396075272
      ],
      [
        "initi",
        -8.114636936740103
      ],
      [
        "▁challenge",
        -8.450837528438921
      ],
      [
        "▁trail",
        -9.090026894575548
      ],
      [
        "▁arriv",
        -6.450778941158019
      ],
      [
        "craft",
        -7.537952161352331
      ],
      [
        "▁audit",
        -9.34476225631601
      ],
      [
        "▁potter",
        -12.013812884182435
      ],
      [
        "mend",
        -10.733043506709068
      ],
      [
        "more",
        -7.0924871061843655
      ],
      [
        "▁foundation",
        -9.395631353456388
      ],
      [
        "▁squea",
        -12.46633556498446
      ],
      [
        "▁shr",
        -12.665907682473662
      ],
      [
        "▁balloon",
        -8.33967294075982
      ],
      [
        "▁heads",
        -9.510725413319811
      ],
      [
        "b",
        -10.475491467591677
      ],
      [
        "▁chas",
        -9.420418471900824
      ],
      [
        "icide",
        -8.730645540287147
      ],
      [
        "▁mirror",
        -9.1787003585915
      ],
      [
        "▁ron",
        -7.8218912874426145
      ],
      [
        "!?!?",
        -12.27640857922021
      ],
      [
        "▁spray",
        -9.745447734097315
      ],
      [
        "▁surrender",
        -10.011711133218197
      ],
      [
        "▁general",
        -6.982809582124102
      ],
      [
        "▁count",
        -7.582183729913577
      ],
      [
        "▁script",
        -11.355553511807184
      ],
      [
        "ppy",
        -8.834896968247076
      ],
      [
        "▁line",
        -6.750621531341381
      ],
      [
        "▁visa",
        -8.57718838533101
      ],
      [
        "out",
        -8.560726202953632
      ],
      [
        "▁mum",
        -12.475727476606773
      ],
      [
        "▁estimate",
        -8.098732058245107
      ],
      [
        "rtain",
        -10.287759140691445
      ],
      [
        "iddi",
        -10.918917136567458
      ],
      [
        "▁alt",
        -9.487612630453464
      ],
      [
        "▁liber",
        -11.693943901365575
      ],
      [
        "et",
        -7.922763757749793
      ],
      [
        "▁provider",
        -9.84636914944487
      ],
      [
        "▁manuscript",
        -9.846482695561303
      ],
      [
        "ruden",
        -12.246765154561121
      ],
      [
        "na",
        -7.799181810914703
      ],
      [
        "▁adorn",
        -10.627364208440655
      ],
      [
        "fore",
        -6.806894281632575
      ],
      [
        "se",
        -5.848595306507164
      ],
      [
        "escend",
        -11.907073468062611
      ],
      [
        "▁dom",
        -8.508771283202908
      ],
      [
        "ption",
        -10.190898884159544
      ],
      [
        "almon",
        -11.026437294999695
      ],
      [
        "▁peek",
        -11.119839796572087
      ],
      [
        "par",
        -11.867739522695942
      ],
      [
        "▁fl",
        -8.818865307513212
      ],
      [
        "ere",
        -8.9394830435864
      ],
      [
        "▁before",
        -6.6514196137008295
      ],
      [
        "▁dwelling",
        -11.27718255132606
      ],
      [
        "iance",
        -10.922254415490118
      ],
      [
        "▁interna",
        -6.979968294030549
      ],
      [
        "▁performance",
        -8.283039964435465
      ],
      [
        "fish",
        -10.000668910738607
      ],
      [
        "▁pal",
        -10.447778914381022
      ],
      [
        "▁trumpe",
        -11.458775519366618
      ],
      [
        "-d",
        -11.64062631738345
      ],
      [
        "▁mush",
        -12.850183752476605
      ],
      [
        "▁ah",
        -6.656152075760504
      ],
      [
        "▁news",
        -7.84378269223095
      ],
      [
        "▁pur",
        -10.606553171974634
      ],
      [
        "▁tail",
        -10.982044069338869
      ],
      [
        "ll",
        -10.466913703496358
      ],
      [
        "▁envi",
        -9.992277201179983
      ],
      [
        "nside",
        -10.445755577588109
      ],
      [
        "▁leadership",
        -9.17990678758106
      ],
      [
        "▁meow",
        -9.460176114514324
      ],
      [
        "▁fear",
        -8.503066828716294
      ],
      [
        "▁iso",
        -8.645593120046918
      ],
      [
        "▁pseudonym",
        -10.689905159515858
      ],
      [
        "▁wal",
        -8.383361728462893
      ],
      [
        "▁bolt",
        -11.602026812524826
      ],
      [
        "e",
        -9.262538749109531
      ],
      [
        "▁reaction",
        -9.180400212209104
      ],
      [
        "ehouse",
        -11.187899598849338
      ],
      [
        "▁award",
        -9.340104188335406
      ],
      [
        "▁the",
        -6.346201117748008
      ],
      [
        "arm",
        -10.622733502795473
      ],
      [
        "▁breath",
        -9.653386112499978
      ],
      [
        "▁cre",
        -13.711565349128406
      ],
      [
        "▁doctor",
        -8.574817295185577
      ],
      [
        "17",
        -7.287185677457776
      ],
      [
        "▁fold",
        -8.89888426895811
      ],
      [
        "▁refus",
        -9.153500385357804
      ],
      [
        "▁ginggo",
        -11.773324033448878
      ],
      [
        "▁adju",
        -12.473813127795733
      ],
      [
        "titude",
        -10.30523759844928
      ],
      [
        "ga",
        -8.674938862434413
      ],
      [
        "▁in",
        -4.970792382408093
      ],
      [
        "▁jihad",
        -10.3171177874839
      ],
      [
        "▁ascetic",
        -11.773239846577228
      ],
      [
        "▁anthropolog",
        -10.323795384582985
      ],
      [
        "▁oo",
        -8.352707490942041
      ],
      [
        "inform",
        -11.975984751002738
      ],
      [
        "▁harmon",
        -10.341851374117104
      ],
      [
        "▁district",
        -9.336797797194594
      ],
      [
        "▁whit",
        -11.630022993169522
      ],
      [
        "vention",
        -9.748394474544408
      ],
      [
        "ther",
        -8.47414026107005
      ],
      [
        "▁pediatrician",
        -11.773238221279405
      ],
      [
        "▁junction",
        -10.942293907902172
      ],
      [
        "▁her",
        -10.297070253012619
      ],
      [
        "▁r",
        -8.142366563006792
      ],
      [
        "▁financi",
        -12.267971462810053
      ],
      [
        "▁milita",
        -11.767395968370929
      ],
      [
        "▁clair",
        -8.647269628497483
      ],
      [
        "▁beg",
        -7.530272615901482
      ],
      [
        "uff",
        -10.541467713248156
      ],
      [
        "▁taper",
        -11.304980994921396
      ],
      [
        "▁project",
        -9.443500858672703
      ],
      [
        "▁stand",
        -6.848706666330537
      ],
      [
        "▁schedule",
        -8.64038540932323
      ],
      [
        "▁literal",
        -8.331896185523426
      ],
      [
        "un",
        -10.508594093995242
      ],
      [
        "▁venue",
        -10.948537115503102
      ],
      [
        "▁separati",
        -12.313593056266038
      ],
      [
        "▁sle",
        -10.878155465394816
      ],
      [
        "2",
        -3.9783356324857158
      ],
      [
        "▁needle",
        -10.08114296171805
      ],
      [
        "ar",
        -7.075727222635783
      ],
      [
        "▁aristocrat",
        -10.952952124045996
      ],
      [
        "▁bam",
        -11.563498917531115
      ],
      [
        "▁believer",
        -11.77365854579654
      ],
      [
        "▁degu",
        -10.94103581482314
      ],
      [
        "▁timing",
        -9.872212698062476
      ],
      [
        "▁christian",
        -11.27332395068453
      ],
      [
        "▁tactic",
        -9.946013463539868
      ],
      [
        "thank",
        -12.526097132015128
      ],
      [
        "▁flatten",
        -10.96795236992276
      ],
      [
        "▁volume",
        -9.524272313860527
      ],
      [
        "the",
        -7.024914228420359
      ],
      [
        "speci",
        -6.56809779980563
      ],
      [
        "▁store",
        -7.066828353664575
      ],
      [
        "shed",
        -9.252416951702074
      ],
      [
        "▁demonstration",
        -9.946468046726121
      ],
      [
        "▁blast",
        -10.62637932951731
      ],
      [
        "▁int",
        -10.49929977371091
      ],
      [
        "▁canoe",
        -11.310855135944944
      ],
      [
        "▁convict",
        -10.375395575998983
      ],
      [
        "ail",
        -10.208429149825038
      ],
      [
        "orrow",
        -7.111495200076467
      ],
      [
        "▁gathering",
        -10.939975552174772
      ],
      [
        "tali",
        -12.152982191559895
      ],
      [
        "▁u",
        -8.682362710875948
      ],
      [
        "▁sl",
        -9.644130469898581
      ],
      [
        "der",
        -8.850443205223883
      ],
      [
        "▁realize",
        -8.060523133677941
      ],
      [
        "admissi",
        -12.815916303349217
      ],
      [
        "soft",
        -12.55391114553226
      ],
      [
        "ar",
        -7.063891730229105
      ],
      [
        "▁administrat",
        -9.84646867813641
      ],
      [
        "▁experience",
        -8.330738398453974
      ],
      [
        "▁hr",
        -10.887977235561804
      ],
      [
        "▁mathematic",
        -8.81556127111695
      ],
      [
        "need",
        -9.922703557848802
      ],
      [
        "▁headline",
        -9.47295928621828
      ],
      [
        "▁pine",
        -10.361247039061237
      ],
      [
        "▁modes",
        -10.72111552725346
      ],
      [
        "over",
        -8.61529201880396
      ],
      [
        "▁1",
        -10.931602993117998
      ],
      [
        "▁exacerbat",
        -12.112721987021636
      ],
      [
        "aka",
        -9.039284950163992
      ],
      [
        "▁valu",
        -8.673911650113023
      ],
      [
        "▁as",
        -12.586899384709026
      ],
      [
        "appen",
        -13.383296095900588
      ],
      [
        "for",
        -4.020786215354944
      ],
      [
        "over",
        -9.325858778150465
      ],
      [
        "▁increas",
        -8.445564122283802
      ],
      [
        "▁killing",
        -10.49300941384866
      ],
      [
        "▁middle",
        -7.4367583756290685
      ],
      [
        "▁competenc",
        -10.402248298800403
      ],
      [
        "▁extra",
        -10.869534518261583
      ],
      [
        "▁rbi",
        -10.980013446484355
      ],
      [
        "▁gut",
        -11.114249352125501
      ],
      [
        "▁chin",
        -11.20421329443356
      ],
      [
        "t",
        -4.811399238543653
      ],
      [
        "houl",
        -11.807582595963563
      ],
      [
        "china",
        -12.065386119925883
      ],
      [
        "▁near",
        -11.48820308838556
      ],
      [
        "▁affection",
        -10.690504889049908
      ],
      [
        "▁vegeta",
        -11.275045018827027
      ],
      [
        "jo",
        -12.705555210323364
      ],
      [
        "▁holl",
        -12.793894105644139
      ],
      [
        "▁googl",
        -11.1188390729175
      ],
      [
        "▁constraint",
        -11.273273018529384
      ],
      [
        "▁n",
        -6.624622057253102
      ],
      [
        "▁merc",
        -9.987280237277725
      ],
      [
        "▁total",
        -7.535130883252613
      ],
      [
        "▁cor",
        -10.749413686738622
      ],
      [
        "▁creak",
        -11.491040125749564
      ],
      [
        "▁plot",
        -9.473991721065113
      ],
      [
        "▁something",
        -8.427759155559437
      ],
      [
        "▁creditor",
        -10.959988161198543
      ],
      [
        "watt",
        -10.679828815885543
      ],
      [
        "▁prejudice",
        -10.939906505114461
      ],
      [
        "▁determina",
        -12.726099082136736
      ],
      [
        "▁jett",
        -11.4591744165544
      ],
      [
        "▁embo",
        -11.758825980091618
      ],
      [
        "▁jame",
        -7.865659626642096
      ],
      [
        "▁summ",
        -10.558781031981201
      ],
      [
        "sta",
        -12.01682993749571
      ],
      [
        "▁poop",
        -9.94967065200018
      ],
      [
        "nic",
        -10.121180355176998
      ],
      [
        "▁fragment",
        -10.6900305295976
      ],
      [
        "os",
        -11.13636828648121
      ],
      [
        "▁motion",
        -9.159136467008661
      ],
      [
        "▁cham",
        -12.10462996102073
      ],
      [
        "▁handi",
        -11.92829495717851
      ],
      [
        "rust",
        -11.88905127966491
      ],
      [
        "ze",
        -7.030389614728964
      ],
      [
        "▁aunt",
        -8.968395866570082
      ],
      [
        "▁desp",
        -9.041631433887265
      ],
      [
        "▁rubb",
        -10.626989484605271
      ],
      [
        "nd",
        -9.289802796372587
      ],
      [
        "▁crap",
        -9.77025305539043
      ],
      [
        "▁solv",
        -10.188698364166166
      ],
      [
        "shor",
        -9.683157785239645
      ],
      [
        "▁bop",
        -11.15226026641651
      ],
      [
        "▁title",
        -8.690610474589954
      ],
      [
        "ali",
        -11.90116460819677
      ],
      [
        "▁solution",
        -8.124155898744544
      ],
      [
        "▁investigation",
        -9.458105270611673
      ],
      [
        "▁til",
        -7.702134073707958
      ],
      [
        "▁love",
        -7.789452447450026
      ],
      [
        "▁quadra",
        -11.518329936181923
      ],
      [
        "▁vlog",
        -10.008831551294959
      ],
      [
        "v",
        -8.604412996669458
      ],
      [
        "▁diagnose",
        -10.375392351337378
      ],
      [
        "▁interest",
        -9.025089984849822
      ],
      [
        "▁institution",
        -8.319041500593142
      ],
      [
        "ma",
        -6.566378326898288
      ],
      [
        "inism",
        -10.966667688545531
      ],
      [
        "▁sensation",
        -10.498163079541897
      ],
      [
        "bl",
        -9.179896686415974
      ],
      [
        "▁statu",
        -8.852933816445724
      ],
      [
        "▁paragraph",
        -9.76606056333037
      ],
      [
        "▁double",
        -10.799787139692455
      ],
      [
        "▁phy",
        -12.008378954029116
      ],
      [
        "▁mille",
        -11.059359798295535
      ],
      [
        "▁dismiss",
        -10.270601876005362
      ],
      [
        "▁decline",
        -9.11707460588914
      ],
      [
        "play",
        -10.555305629937449
      ],
      [
        "▁’",
        -11.653797199629468
      ],
      [
        "▁80",
        -7.0989916286574335
      ],
      [
        "tines",
        -11.600759518192463
      ],
      [
        "▁eng",
        -12.375671528159776
      ],
      [
        "▁compet",
        -8.513554706630579
      ],
      [
        "▁slave",
        -9.34296762762439
      ],
      [
        "▁abstract",
        -10.94614540531963
      ],
      [
        "▁1.5",
        -7.392708969603497
      ],
      [
        "▁admitt",
        -9.049564673083047
      ],
      [
        "▁boss",
        -10.0816362826284
      ],
      [
        "▁will",
        -8.437137350096636
      ],
      [
        "▁x3",
        -10.267169971198781
      ],
      [
        "▁trace",
        -10.717160728374063
      ],
      [
        "▁generaliza",
        -10.93840142428117
      ],
      [
        "ge",
        -8.118621365486504
      ],
      [
        "rise",
        -11.162792124906755
      ],
      [
        "▁squirt",
        -9.288686004311
      ],
      [
        "▁custod",
        -11.275018182118275
      ],
      [
        "abili",
        -12.412363869873591
      ],
      [
        "a",
        -4.730462131174871
      ],
      [
        "▁fee",
        -11.996927822398899
      ],
      [
        "▁civi",
        -8.708599649525716
      ],
      [
        "▁found",
        -6.336787716580186
      ],
      [
        "▁sn",
        -11.803023627410822
      ],
      [
        "▁societ",
        -7.570821814282559
      ],
      [
        "▁f",
        -8.485186623721773
      ],
      [
        "▁150",
        -7.82447938505182
      ],
      [
        "field",
        -10.5800032918885
      ],
      [
        "▁costume",
        -9.846453360926926
      ],
      [
        "beat",
        -11.935551709515126
      ],
      [
        "mas",
        -12.22899532644844
      ],
      [
        "▁quack",
        -10.055722378081986
      ],
      [
        "▁captain",
        -9.67243583661241
      ],
      [
        "▁antenn",
        -12.764453964329087
      ],
      [
        "▁budge",
        -10.968841933105917
      ],
      [
        "ize",
        -8.304864937360726
      ],
      [
        "▁riso",
        -12.622621966817862
      ],
      [
        "offer",
        -12.417086767762186
      ],
      [
        "intif",
        -12.811021988540638
      ],
      [
        "▁cri",
        -11.74221102198122
      ],
      [
        "▁nineteenth",
        -11.2744814501075
      ],
      [
        "▁say",
        -12.166569390621476
      ],
      [
        "▁rall",
        -11.477454323961883
      ],
      [
        "▁widow",
        -11.773560838421878
      ],
      [
        "language",
        -10.910810370442759
      ],
      [
        "▁carpe",
        -11.944378803222993
      ],
      [
        "hoop",
        -10.977196262808912
      ],
      [
        "▁horseshoe",
        -11.275248897537224
      ],
      [
        "▁confirmation",
        -10.493369336730986
      ],
      [
        "▁escalat",
        -11.276266083353223
      ],
      [
        "ng",
        -8.371015105561044
      ],
      [
        "▁incu",
        -11.458402326419753
      ],
      [
        "▁bar",
        -10.05648783414817
      ],
      [
        "▁dut",
        -8.917009551859062
      ],
      [
        "im",
        -10.905428956183558
      ],
      [
        "▁hol",
        -8.134813184387486
      ],
      [
        "fluent",
        -8.741066935644238
      ],
      [
        "data",
        -12.627250686379544
      ],
      [
        "cize",
        -12.497182688274453
      ],
      [
        "▁hyp",
        -10.903656787039893
      ],
      [
        "▁wr",
        -11.456728045680489
      ],
      [
        "ay",
        -9.58424050121083
      ],
      [
        "ring",
        -9.566715109808538
      ],
      [
        "vation",
        -11.24165283649071
      ],
      [
        "himi",
        -11.948753346831122
      ],
      [
        "▁start",
        -8.164510247724277
      ],
      [
        "▁25",
        -5.938692828601146
      ],
      [
        "▁da",
        -8.040044555721593
      ],
      [
        "▁cod",
        -10.761078616570959
      ],
      [
        "serv",
        -12.88785399358967
      ],
      [
        "done",
        -6.783452192464882
      ],
      [
        "▁debtor",
        -10.947007744445063
      ],
      [
        "▁da",
        -9.010993074084006
      ],
      [
        "▁structure",
        -10.030556818710727
      ],
      [
        "in",
        -6.948635492397802
      ],
      [
        "smith",
        -11.604820023773105
      ],
      [
        "▁distincti",
        -12.77177978708498
      ],
      [
        "evi",
        -9.582254520882788
      ],
      [
        "▁appointment",
        -8.72440413194546
      ],
      [
        "▁love",
        -8.1508193856858
      ],
      [
        "▁vi",
        -8.818224574880654
      ],
      [
        "▁apply",
        -7.699492334367162
      ],
      [
        "u",
        -5.226039066423351
      ],
      [
        "▁fail",
        -7.908578032639164
      ],
      [
        "add",
        -11.331096065203447
      ],
      [
        "▁finish",
        -7.390927051909596
      ],
      [
        "fight",
        -13.623220271293825
      ],
      [
        "▁overr",
        -13.69816749075017
      ],
      [
        "▁on",
        -5.361902469050708
      ],
      [
        "▁invit",
        -9.374430122357591
      ],
      [
        "▁'",
        -8.111149863688397
      ],
      [
        "ston",
        -4.686983756932236
      ],
      [
        "sai",
        -10.119414593848777
      ],
      [
        "▁scar",
        -10.69003828946456
      ],
      [
        "eport",
        -11.428827932357395
      ],
      [
        "urb",
        -8.655591935862995
      ],
      [
        "▁wood",
        -8.886742733243969
      ],
      [
        "ten",
        -7.555046472329298
      ],
      [
        "ius",
        -8.748623522810085
      ],
      [
        "▁seven",
        -5.479252271885461
      ],
      [
        "▁discourag",
        -9.869337980415718
      ],
      [
        "▁conquest",
        -10.940264951321074
      ],
      [
        "elder",
        -11.918526528527307
      ],
      [
        "formi",
        -12.374256234165424
      ],
      [
        "▁rever",
        -10.906863246522285
      ],
      [
        "▁income",
        -8.751849331826673
      ],
      [
        "▁dial",
        -10.733699400850739
      ],
      [
        "▁ramp",
        -11.1309748914945
      ],
      [
        "▁awa",
        -7.587143893947385
      ],
      [
        "versa",
        -9.980082852855903
      ],
      [
        "▁language",
        -6.962798351709503
      ],
      [
        "ritis",
        -10.878777097669328
      ],
      [
        "▁laborator",
        -11.273629896821621
      ],
      [
        "▁bend",
        -11.830623759054307
      ],
      [
        "▁detr",
        -7.449546577722736
      ],
      [
        "▁calcul",
        -12.723326817569397
      ],
      [
        "bou",
        -12.737773600011664
      ],
      [
        "ough",
        -10.913230474980764
      ],
      [
        "▁formalize",
        -11.45971209242632
      ],
      [
        "▁plu",
        -11.90754702774345
      ],
      [
        "▁twi",
        -12.42832908353897
      ],
      [
        "m",
        -5.883160371593358
      ],
      [
        "▁cit",
        -6.729612885917478
      ],
      [
        "▁atlant",
        -4.990864790618718
      ],
      [
        "▁john",
        -6.4794274574831725
      ],
      [
        "▁food",
        -6.224548414494005
      ],
      [
        "]",
        -6.107285657565928
      ],
      [
        "formation",
        -6.36703874890915
      ],
      [
        "▁buffet",
        -10.940449047498609
      ],
      [
        "fil",
        -11.540062374614369
      ],
      [
        "on",
        -11.079524852188499
      ],
      [
        "nis",
        -10.40908776221206
      ],
      [
        "▁shave",
        -13.381459646946938
      ],
      [
        "▁hu",
        -12.215878984043723
      ],
      [
        "▁satisf",
        -8.522034435067411
      ],
      [
        "▁cross-",
        -11.776093482725123
      ],
      [
        "▁phenomen",
        -9.524512084242547
      ],
      [
        "▁interfer",
        -11.295583025342504
      ],
      [
        "a",
        -1.784802076090795
      ],
      [
        "▁modu",
        -11.795339816191124
      ],
      [
        "200",
        -6.130731310496135
      ],
      [
        "king",
        -8.249554393006754
      ],
      [
        "▁apples",
        -10.011937317391363
      ],
      [
        "ite",
        -11.01993439914959
      ],
      [
        "tha",
        -8.930932078915008
      ],
      [
        "▁vin",
        -11.262369802727427
      ],
      [
        "ut",
        -10.337520946372628
      ],
      [
        "anism",
        -11.342086991263436
      ],
      [
        "n",
        -1.763362936029182
      ],
      [
        "▁mind",
        -8.62897434810612
      ],
      [
        "▁deserve",
        -9.026390977354469
      ],
      [
        "▁kent",
        -8.232110235261036
      ],
      [
        "▁misse",
        -9.445020434371589
      ],
      [
        "rice",
        -9.078466786685382
      ],
      [
        "▁get",
        -10.791606080712125
      ],
      [
        "serial",
        -11.846678999607569
      ],
      [
        "▁brass",
        -9.873485682126143
      ],
      [
        "murderer",
        -12.555490741560718
      ],
      [
        "▁goat",
        -8.88678769132553
      ],
      [
        "▁licens",
        -10.35561339211345
      ],
      [
        "vious",
        -7.665292336190957
      ],
      [
        "ins",
        -11.063350019509015
      ],
      [
        "▁accompany",
        -10.966940165383411
      ],
      [
        "▁turtle",
        -9.457741240689232
      ],
      [
        "▁fre",
        -8.015331486317137
      ],
      [
        "▁refuse",
        -8.380345088153414
      ],
      [
        "▁sur",
        -8.43324878242829
      ],
      [
        "▁bur",
        -10.932804930669953
      ],
      [
        "▁anticipate",
        -9.646716422950211
      ],
      [
        "cal",
        -13.197329825053766
      ],
      [
        "▁cho",
        -13.15419898715337
      ],
      [
        "ala",
        -10.602663603178703
      ],
      [
        "▁flex",
        -10.959981625412063
      ],
      [
        "conced",
        -12.307515465595042
      ],
      [
        "▁issue",
        -7.020976742071823
      ],
      [
        "▁la",
        -8.644930468398599
      ],
      [
        "▁brain",
        -10.962840961094752
      ],
      [
        "eflect",
        -12.64561247250783
      ],
      [
        "▁glow",
        -9.67868386879415
      ],
      [
        "▁ringle",
        -11.269552787646875
      ],
      [
        "w",
        -6.1509534707865186
      ],
      [
        "ember",
        -6.19960919668259
      ],
      [
        "espondenc",
        -12.77337192209232
      ],
      [
        "▁fe",
        -9.865529364780567
      ],
      [
        "ard",
        -10.783635794113795
      ],
      [
        "---=",
        -11.805652056917825
      ],
      [
        "▁phone",
        -10.678461662260656
      ],
      [
        "owe",
        -11.377686670406305
      ],
      [
        "▁drip",
        -11.213261426414757
      ],
      [
        "▁stor",
        -8.040939807252249
      ],
      [
        "think",
        -12.498688973761432
      ],
      [
        "▁firm",
        -8.508222602148178
      ],
      [
        "▁opening",
        -9.346164612703248
      ],
      [
        "▁part",
        -10.03944651384946
      ],
      [
        "grow",
        -11.139856779020445
      ],
      [
        "ain",
        -11.675299876279881
      ],
      [
        "▁channel",
        -11.458876164502428
      ],
      [
        "which",
        -9.187918605841523
      ],
      [
        "depart",
        -12.78758966176672
      ],
      [
        "▁temper",
        -9.79480888536954
      ],
      [
        "▁attache",
        -7.394647312444762
      ],
      [
        "▁disorder",
        -10.18187632299297
      ],
      [
        "▁offens",
        -10.388492663931878
      ],
      [
        "▁purport",
        -10.958738920687969
      ],
      [
        "▁bride",
        -11.80561490618695
      ],
      [
        "▁avert",
        -11.461669260301733
      ],
      [
        "s.",
        -10.569632624460121
      ],
      [
        "▁dislike",
        -10.489944418050033
      ],
      [
        "▁trans",
        -10.363901662118927
      ],
      [
        "▁want",
        -4.408770320777204
      ],
      [
        "▁de",
        -5.4095669255746035
      ],
      [
        "▁tall",
        -7.972269742217482
      ],
      [
        "bbl",
        -12.550610727784196
      ],
      [
        "▁wis",
        -10.724653782746133
      ],
      [
        "o",
        -10.13682536586598
      ],
      [
        "ven",
        -11.70381445684044
      ],
      [
        "▁sweatshirt",
        -11.273372673928824
      ],
      [
        "immers",
        -12.576527861697471
      ],
      [
        "▁further",
        -10.175394279011858
      ],
      [
        "▁share",
        -7.958676915142011
      ],
      [
        "▁belt",
        -9.096381250908228
      ],
      [
        "ize",
        -10.360224280629453
      ],
      [
        "▁assh",
        -12.805360810840543
      ],
      [
        "▁car",
        -9.983080030822263
      ],
      [
        "emerg",
        -12.28878720871548
      ],
      [
        "▁calc",
        -11.83768069194605
      ],
      [
        "▁storefront",
        -11.783090290248198
      ],
      [
        "ie",
        -6.916092074009498
      ],
      [
        "▁suf",
        -8.858138993364994
      ],
      [
        "witz",
        -8.826510089463111
      ],
      [
        "▁knights",
        -11.005240802459834
      ],
      [
        "▁ideolog",
        -10.690037009093249
      ],
      [
        "▁sense",
        -7.775219659448193
      ],
      [
        "▁sett",
        -10.051318922042409
      ],
      [
        "▁recom",
        -11.387249267350347
      ],
      [
        "▁check",
        -8.264553467287518
      ],
      [
        "ounce",
        -11.500262422935004
      ],
      [
        "▁depart",
        -7.211735076250526
      ],
      [
        "▁inter",
        -9.716854702644246
      ],
      [
        "▁die",
        -7.49905714446423
      ],
      [
        "▁14",
        -6.303665993373418
      ],
      [
        "▁look",
        -4.774514457323837
      ],
      [
        "▁assa",
        -11.440141142306956
      ],
      [
        "▁allot",
        -11.564561919047016
      ],
      [
        "x",
        -7.781863502192991
      ],
      [
        "k",
        -12.810278406305976
      ],
      [
        "▁require",
        -7.255971108646589
      ],
      [
        "▁frighten",
        -9.371537629658254
      ],
      [
        "afternoon",
        -11.312780358660001
      ],
      [
        "▁idol",
        -11.773946054600279
      ],
      [
        "▁common",
        -6.83188665264987
      ],
      [
        "▁musician",
        -9.846649844926292
      ],
      [
        "▁boutique",
        -11.27324922893834
      ],
      [
        "▁with",
        -11.319200089635018
      ],
      [
        "▁limit",
        -9.843470076072217
      ],
      [
        "▁nylon",
        -10.339759041373807
      ],
      [
        "act",
        -8.695652131641488
      ],
      [
        "▁initiate",
        -8.949744924277967
      ],
      [
        "▁analyze",
        -9.71548030644654
      ],
      [
        "▁1",
        -4.047171860870493
      ],
      [
        "▁hom",
        -11.60523779923148
      ],
      [
        "▁cler",
        -12.64664516267671
      ],
      [
        "▁complete",
        -7.888096531461802
      ],
      [
        "g",
        -5.178950778187783
      ],
      [
        "▁twist",
        -9.28344110355502
      ],
      [
        "▁def",
        -10.515031584064438
      ],
      [
        "▁up",
        -5.004285843445531
      ],
      [
        "▁argue",
        -8.347926044747924
      ],
      [
        "▁flicke",
        -11.444539218653981
      ],
      [
        "owner",
        -11.94730736906279
      ],
      [
        "▁sandal",
        -10.493191411543886
      ],
      [
        "▁void",
        -11.483188906159878
      ],
      [
        "▁punche",
        -12.011043947984145
      ],
      [
        "▁feed",
        -7.955860455662812
      ],
      [
        "▁author",
        -11.408643165089345
      ],
      [
        "▁organization",
        -8.18864466569211
      ],
      [
        "▁cook",
        -9.187747095685538
      ],
      [
        "▁bewilder",
        -11.458726085686715
      ],
      [
        "sheet",
        -9.336808715271683
      ],
      [
        "aging",
        -9.886894023725464
      ],
      [
        "▁premi",
        -11.459660913938746
      ],
      [
        "▁slant",
        -11.471616151319813
      ],
      [
        "▁scoot",
        -11.308062772251148
      ],
      [
        "ze",
        -8.940827213205667
      ],
      [
        "bar",
        -11.083546444827096
      ],
      [
        "grain",
        -12.224965345963994
      ],
      [
        "▁prototype",
        -10.32330791757321
      ],
      [
        "got",
        -10.98607480809809
      ],
      [
        "rop",
        -12.2888295749617
      ],
      [
        "ent",
        -8.941715321130912
      ],
      [
        "▁80",
        -10.709385565490038
      ],
      [
        "ag",
        -12.784750909866375
      ],
      [
        "▁jolt",
        -11.458932705343795
      ],
      [
        "▁us",
        -7.3584463314768165
      ],
      [
        "sale",
        -11.091503265415572
      ],
      [
        "▁roman",
        -11.783881416823453
      ],
      [
        "+b",
        -11.908123729127022
      ],
      [
        "ectan",
        -11.954237818049316
      ],
      [
        "tat",
        -12.36974087204453
      ],
      [
        "▁difficult",
        -8.602876504054217
      ],
      [
        "▁c",
        -9.920615539229933
      ],
      [
        "▁doctorate",
        -10.943633481869917
      ],
      [
        "go",
        -9.538047429375718
      ],
      [
        "▁toil",
        -11.470881295424489
      ],
      [
        "▁twe",
        -11.119893638106959
      ],
      [
        "▁ri",
        -10.819887071530056
      ],
      [
        "honor",
        -12.258137304991857
      ],
      [
        "rior",
        -8.799721617949062
      ],
      [
        "▁fist",
        -10.523872249403944
      ],
      [
        "▁pussy",
        -10.94218065730931
      ],
      [
        "kle",
        -11.018312937680763
      ],
      [
        ";",
        -11.773238221275866
      ],
      [
        "▁minist",
        -8.452821465938646
      ],
      [
        "hickie",
        -12.389062799032672
      ],
      [
        "▁portra",
        -10.945794568166919
      ],
      [
        "▁telephone",
        -8.66217121956061
      ],
      [
        "uckle",
        -11.676107403628597
      ],
      [
        "angst",
        -12.80724799266038
      ],
      [
        "y",
        -9.93729819650814
      ],
      [
        "▁ide",
        -12.595781229837458
      ],
      [
        "▁ar",
        -6.245121969360562
      ],
      [
        "▁hijacker",
        -10.939904892292835
      ],
      [
        "▁uh",
        -7.780351736788767
      ],
      [
        "vert",
        -10.99616963314148
      ],
      [
        "▁two",
        -10.656220327765238
      ],
      [
        "▁cop",
        -10.712685840043992
      ],
      [
        "▁si",
        -9.685769216740752
      ],
      [
        "▁shrugg",
        -10.177679289386054
      ],
      [
        "▁hers",
        -11.553708895953593
      ],
      [
        "▁important",
        -8.994454849100647
      ],
      [
        "put",
        -9.176596761033803
      ],
      [
        "▁combat",
        -10.376987570466618
      ],
      [
        "uild",
        -12.890474669037271
      ],
      [
        "el",
        -9.001369088845152
      ],
      [
        "▁wea",
        -10.587463788077407
      ],
      [
        "enjoy",
        -12.383477079257474
      ],
      [
        "▁uncertaint",
        -9.755796808727052
      ],
      [
        "▁proceed",
        -8.649307116413167
      ],
      [
        "▁kim",
        -8.112522777988788
      ],
      [
        "way",
        -8.424156877829656
      ],
      [
        "man",
        -12.257297264127812
      ],
      [
        "▁accumulat",
        -10.635424592949057
      ],
      [
        "l.p",
        -11.316741487319192
      ],
      [
        "disease",
        -12.394810977326609
      ],
      [
        "scat",
        -11.480244162096684
      ],
      [
        "▁dese",
        -11.972234656677083
      ],
      [
        "▁earth",
        -7.984353915178017
      ],
      [
        "ls",
        -10.444717906610103
      ],
      [
        "▁postpon",
        -11.69202203854374
      ],
      [
        "▁d",
        -8.413431136522464
      ],
      [
        "▁ba",
        -7.679762023073684
      ],
      [
        "▁victor",
        -8.889907777134042
      ],
      [
        "phen",
        -12.849174747504215
      ],
      [
        "▁invoic",
        -10.625396699451397
      ],
      [
        "▁pesticide",
        -11.773747632298402
      ],
      [
        "▁super",
        -12.457544891337038
      ],
      [
        "novate",
        -12.459542085071194
      ],
      [
        "ir",
        -11.95034171450305
      ],
      [
        "▁eggs",
        -7.942445074499696
      ],
      [
        "▁fred",
        -7.890434715571899
      ],
      [
        "nest",
        -12.744338836461877
      ],
      [
        "▁infer",
        -12.845423092239699
      ],
      [
        "tiation",
        -10.74064196558383
      ],
      [
        "▁old",
        -10.157699202206416
      ],
      [
        "▁kni",
        -9.084764267801837
      ],
      [
        "▁enhancement",
        -11.273238240270087
      ],
      [
        "glass",
        -10.27787576501205
      ],
      [
        "▁cancellation",
        -10.68990511295895
      ],
      [
        "▁alt.animals.dog",
        -11.274886593231166
      ],
      [
        "▁fusion",
        -11.77414025516689
      ],
      [
        "rbit",
        -11.978541153778611
      ],
      [
        "fit",
        -11.447645903918097
      ],
      [
        "inst",
        -6.754258181145743
      ],
      [
        "▁wiggl",
        -10.00883140088853
      ],
      [
        "d",
        -7.194719984116379
      ],
      [
        "▁shatter",
        -10.625402828284264
      ],
      [
        "▁chop",
        -11.283890807901546
      ],
      [
        "lous",
        -11.337348785003538
      ],
      [
        "▁cough",
        -10.377202847459262
      ],
      [
        "grade",
        -10.948146868368823
      ],
      [
        "▁playhouse",
        -11.795604741912168
      ],
      [
        "▁slid",
        -8.839298793469695
      ],
      [
        "ide",
        -12.621504606815648
      ],
      [
        "▁penn",
        -8.084053756858605
      ],
      [
        "fication",
        -9.549303767249407
      ],
      [
        "▁10,000",
        -8.124538738361975
      ],
      [
        "fuge",
        -11.778766632259403
      ],
      [
        "measure",
        -12.284763893080802
      ],
      [
        "th",
        -6.262439557465997
      ],
      [
        "▁dream",
        -8.583057975467803
      ],
      [
        "▁snow",
        -8.485608213939331
      ],
      [
        "▁whip",
        -12.010951709154977
      ],
      [
        "▁sight",
        -11.572538019683549
      ],
      [
        "▁thriv",
        -12.366225331493592
      ],
      [
        "times",
        -12.816893546633786
      ],
      [
        "▁dal",
        -9.986478844713103
      ],
      [
        "▁supplement",
        -10.490248859472919
      ],
      [
        "▁roa",
        -11.672428126526384
      ],
      [
        "about",
        -11.172965359855436
      ],
      [
        "▁ca",
        -8.639878754911013
      ],
      [
        "▁email",
        -9.283670887663895
      ],
      [
        "▁holiday",
        -8.84988425030599
      ],
      [
        "▁tumbl",
        -10.401256496060585
      ],
      [
        "eleph",
        -12.459889386150074
      ],
      [
        "▁parakeet",
        -9.524446078957537
      ],
      [
        "person",
        -10.145670172414256
      ],
      [
        "on",
        -8.11601923243092
      ],
      [
        "▁sat",
        -7.888505393270265
      ],
      [
        "▁picnic",
        -9.94602809131198
      ],
      [
        "phi",
        -7.256567440791214
      ],
      [
        "appearance",
        -10.216192959385191
      ],
      [
        "/",
        -13.872570526381192
      ],
      [
        "elt",
        -12.683947390538172
      ],
      [
        "o",
        -4.793831298333827
      ],
      [
        "▁fax",
        -8.38742290047573
      ],
      [
        "bat",
        -12.045725489513815
      ],
      [
        "ild",
        -11.370816149807544
      ],
      [
        "▁persu",
        -11.459688017046007
      ],
      [
        "affe",
        -12.340640645841114
      ],
      [
        "▁helicopter",
        -9.395635991207396
      ],
      [
        "sit",
        -9.383504073805348
      ],
      [
        "ct",
        -8.657546139744671
      ],
      [
        "▁impri",
        -10.891833047356078
      ],
      [
        "▁star",
        -7.938153470256906
      ],
      [
        "▁record",
        -7.560625084791284
      ],
      [
        "▁jen",
        -8.699936609149582
      ],
      [
        "▁worr",
        -10.404805248160711
      ],
      [
        "▁dec",
        -9.035062239781396
      ],
      [
        "▁defeat",
        -9.024964534526536
      ],
      [
        "▁inject",
        -10.625392292705785
      ],
      [
        "▁c",
        -7.37472823847548
      ],
      [
        "mor",
        -11.508306938844667
      ],
      [
        "▁road",
        -7.660813858943145
      ],
      [
        "reek",
        -12.092040902193745
      ],
      [
        "▁replacement",
        -9.846534439799173
      ],
      [
        "▁lake",
        -10.33990018124596
      ],
      [
        "s",
        -5.850145103808338
      ],
      [
        "▁stem",
        -9.988864381608641
      ],
      [
        "▁whoo",
        -11.272359172380016
      ],
      [
        "sburg",
        -5.015707450531428
      ],
      [
        "▁boil",
        -9.868877784661217
      ],
      [
        "▁trunk",
        -9.52414979712743
      ],
      [
        "▁crie",
        -8.680881358113988
      ],
      [
        "▁effort",
        -7.600477884729759
      ],
      [
        "▁oop",
        -8.87023140230395
      ],
      [
        "ver",
        -10.035555650788583
      ],
      [
        "ith",
        -10.93844610480004
      ],
      [
        "▁promise",
        -8.237400325629473
      ],
      [
        "pinn",
        -11.553762417748892
      ],
      [
        "eau",
        -8.592925312736675
      ],
      [
        "▁pall",
        -10.830926641638763
      ],
      [
        "▁tourist",
        -8.365996894970621
      ],
      [
        "▁comp",
        -11.268328528001742
      ],
      [
        "▁scheduler",
        -12.182845524130608
      ],
      [
        "▁minor",
        -12.862175725642809
      ],
      [
        "▁ears",
        -8.815700812254917
      ],
      [
        "▁hap",
        -10.025493549919657
      ],
      [
        "▁feel",
        -10.105479133214303
      ],
      [
        "▁circu",
        -12.497321290686381
      ],
      [
        "▁ep",
        -9.85341899092866
      ],
      [
        "▁pear",
        -11.46675699330677
      ],
      [
        "▁extra",
        -12.468694884251308
      ],
      [
        "▁confront",
        -10.011629133664483
      ],
      [
        "rands",
        -11.305455831342025
      ],
      [
        "omit",
        -12.240046775433377
      ],
      [
        "hand",
        -9.809640820083452
      ],
      [
        "▁raci",
        -11.760804105279545
      ],
      [
        "are",
        -8.684886959207569
      ],
      [
        "▁tramp",
        -10.958757797444138
      ],
      [
        "▁root",
        -10.63104711627929
      ],
      [
        "▁senator",
        -9.672518872657482
      ],
      [
        "logi",
        -8.913501846412334
      ],
      [
        "▁review",
        -8.033199575130796
      ],
      [
        "▁aw",
        -7.781751081820624
      ],
      [
        "err",
        -12.583100016776102
      ],
      [
        "▁miss",
        -7.4404016868154
      ],
      [
        "▁bet",
        -8.661264295031007
      ],
      [
        "▁enthusiast",
        -10.976508242305929
      ],
      [
        "▁mor",
        -9.572450812581945
      ],
      [
        "▁suspect",
        -8.610884333859165
      ],
      [
        "▁adjust",
        -10.938886680631935
      ],
      [
        "strain",
        -12.143732104393894
      ],
      [
        "i",
        -6.127650800356663
      ],
      [
        "▁promot",
        -9.449713659538773
      ],
      [
        "▁neo",
        -11.9627134849096
      ],
      [
        "▁bear",
        -7.377920124535902
      ],
      [
        "▁mind",
        -7.430582898168495
      ],
      [
        "▁tutor",
        -10.496281449019337
      ],
      [
        "▁strap",
        -9.458457629179978
      ],
      [
        "co.",
        -11.469867101309077
      ],
      [
        "▁wrestl",
        -11.273317929381024
      ],
      [
        "stoo",
        -10.869723171068461
      ],
      [
        "bank",
        -11.867406017672632
      ],
      [
        "▁first",
        -4.829267318650501
      ],
      [
        "vin",
        -12.53700662176233
      ],
      [
        "▁constituen",
        -12.747303403987754
      ],
      [
        "▁cc",
        -8.855541716675706
      ],
      [
        "▁rip",
        -9.553219506168208
      ],
      [
        "▁astonish",
        -11.458725787052574
      ],
      [
        "▁brushe",
        -12.003883863710389
      ],
      [
        "try",
        -10.80661403702378
      ],
      [
        "▁common",
        -10.942993668354362
      ],
      [
        "5",
        -3.9349924025881604
      ],
      [
        "devi",
        -12.469358170431853
      ],
      [
        "ellow",
        -8.767057372980306
      ],
      [
        "▁",
        -1.4271932053481233
      ],
      [
        "▁foster",
        -10.175418455188806
      ],
      [
        "▁nodd",
        -10.186384732923182
      ],
      [
        "▁suprema",
        -11.773241300640775
      ],
      [
        "piece",
        -10.239203404312903
      ],
      [
        "▁overhea",
        -11.715940740869847
      ],
      [
        "▁pe",
        -9.687700066072738
      ],
      [
        "ton",
        -10.51076596723694
      ],
      [
        "wait",
        -10.934915171382631
      ],
      [
        "▁orb",
        -11.94027173945902
      ],
      [
        "▁protect",
        -7.6478212800122485
      ],
      [
        "▁date",
        -9.442067739645166
      ],
      [
        "▁admirer",
        -11.783405527850544
      ],
      [
        "▁evi",
        -10.09501951052522
      ],
      [
        "transport",
        -12.227300274942044
      ],
      [
        "generate",
        -11.213571371304985
      ],
      [
        "inche",
        -12.452419425447316
      ],
      [
        "▁clause",
        -9.75640303685518
      ],
      [
        "ing",
        -6.494497185030072
      ],
      [
        "▁tent",
        -8.867953393120562
      ],
      [
        "▁admire",
        -10.246452068704638
      ],
      [
        "trophy",
        -10.494416176685263
      ],
      [
        "▁crumbl",
        -11.378566987764277
      ],
      [
        "▁deli",
        -8.933498924876666
      ],
      [
        "▁heav",
        -12.82030072324218
      ],
      [
        "▁tha",
        -6.391787174921178
      ],
      [
        "▁dressing-",
        -11.773585398935113
      ],
      [
        "▁topic",
        -8.92352575399677
      ],
      [
        "▁stink",
        -11.274535857887942
      ],
      [
        "ustrate",
        -11.466086150541726
      ],
      [
        "▁de",
        -4.941992651973221
      ],
      [
        "▁synthes",
        -11.275363238887607
      ],
      [
        "▁position",
        -7.579356834870441
      ],
      [
        "▁advance",
        -9.410256147462524
      ],
      [
        "ha",
        -9.035947903990632
      ],
      [
        "▁destination",
        -9.011454571729102
      ],
      [
        "▁memori",
        -12.458908578158816
      ],
      [
        "▁c",
        -7.464378526851302
      ],
      [
        "▁supplie",
        -10.008725627222375
      ],
      [
        "sional",
        -8.704326575182758
      ],
      [
        "▁justice",
        -9.31417166046789
      ],
      [
        "▁de",
        -7.219112376193933
      ],
      [
        "lope",
        -8.384813019016754
      ],
      [
        "button",
        -12.291005833882908
      ],
      [
        "▁marry",
        -9.461707458073025
      ],
      [
        "▁gel",
        -9.476361560586705
      ],
      [
        "▁mass",
        -13.418469681279626
      ],
      [
        "fel",
        -11.953301592077409
      ],
      [
        "▁hall",
        -8.855445944178545
      ],
      [
        "or",
        -7.377789459946553
      ],
      [
        "▁sha",
        -13.23449182350222
      ],
      [
        "put",
        -10.781200059836035
      ],
      [
        "▁sub",
        -8.231630870223405
      ],
      [
        "▁value",
        -7.239929170484043
      ],
      [
        "▁fear",
        -9.030068234004945
      ],
      [
        "orbi",
        -11.461601020160963
      ],
      [
        "x",
        -6.8356093943361715
      ],
      [
        "nservati",
        -12.74351317455647
      ],
      [
        "▁professor",
        -9.178930936811941
      ],
      [
        "▁have",
        -4.097231545014155
      ],
      [
        "▁2",
        -8.163736453031273
      ],
      [
        "▁countryside",
        -10.330118997509686
      ],
      [
        "inst",
        -8.782413885317776
      ],
      [
        "es",
        -6.876952332114524
      ],
      [
        "v",
        -5.575747967194122
      ],
      [
        "ubs",
        -12.660181948199693
      ],
      [
        "▁e",
        -12.287137526989683
      ],
      [
        "▁inform",
        -8.411798429957743
      ],
      [
        "▁s",
        -5.346467888196825
      ],
      [
        "(",
        -10.930122639685507
      ],
      [
        "u",
        -7.326417313986891
      ],
      [
        "▁upr",
        -11.866760068603263
      ],
      [
        "▁hydro",
        -10.37858946034409
      ],
      [
        "order",
        -10.786333523389494
      ],
      [
        "predict",
        -12.64953787839986
      ],
      [
        "/10/200",
        -8.183245178085231
      ],
      [
        "inl",
        -7.892834437052884
      ],
      [
        "▁fragilit",
        -10.689926843011078
      ],
      [
        "hel",
        -11.551646698713872
      ],
      [
        "%",
        -10.68990488798249
      ],
      [
        "uh",
        -8.899447168239837
      ],
      [
        "pariti",
        -11.483018144191709
      ],
      [
        "▁redw",
        -12.726828042331547
      ],
      [
        "+",
        -4.96382852617071
      ],
      [
        "▁appliance",
        -10.323381908323872
      ],
      [
        "▁diamond",
        -11.773287365347645
      ],
      [
        "▁???",
        -12.710326831142815
      ],
      [
        "itor",
        -11.78254499304376
      ],
      [
        "▁forc",
        -10.3571372013002
      ],
      [
        "▁dynamic",
        -10.490396083943613
      ],
      [
        ".",
        -7.015451316975299
      ],
      [
        "▁turbine",
        -10.32330650441661
      ],
      [
        "▁feeling",
        -8.530054710238607
      ],
      [
        "e",
        -2.2184347982162924
      ],
      [
        "s.p",
        -12.543268593819175
      ],
      [
        "▁reconcile",
        -10.741917937257249
      ],
      [
        "arch",
        -12.535767110958828
      ],
      [
        "isation",
        -10.120397595362329
      ],
      [
        "ization",
        -10.093288099723118
      ],
      [
        "▁forecast",
        -10.323261697784549
      ],
      [
        "er",
        -5.796954965642905
      ],
      [
        "▁diminish",
        -10.99513113359774
      ],
      [
        "▁shift",
        -9.402350525192476
      ],
      [
        "um",
        -11.058978476488804
      ],
      [
        "operate",
        -12.19807333807505
      ],
      [
        "▁answer",
        -7.948120084470887
      ],
      [
        "ra",
        -11.60778135932465
      ],
      [
        "▁dream",
        -8.880148528208505
      ],
      [
        "ipple",
        -10.8132333574415
      ],
      [
        "aint",
        -12.011855629250247
      ],
      [
        "t",
        -1.4210259656718716
      ],
      [
        "▁led",
        -11.039400757153043
      ],
      [
        "▁marketplace",
        -11.29551120457728
      ],
      [
        "▁younge",
        -8.36751820915536
      ],
      [
        "▁beatle",
        -8.42477710767422
      ],
      [
        "tribution",
        -11.376176932092571
      ],
      [
        "presentation",
        -9.125919258814198
      ],
      [
        "ak",
        -12.527705933798373
      ],
      [
        "luste",
        -12.123970111098684
      ],
      [
        "pass",
        -10.666494512214095
      ],
      [
        "▁budd",
        -9.84951585231263
      ],
      [
        "▁steal",
        -9.2840917300488
      ],
      [
        "▁trot",
        -10.330778480228515
      ],
      [
        "▁ve",
        -11.902709906128013
      ],
      [
        "▁lower",
        -7.7163377428889
      ],
      [
        "▁house-el",
        -11.27345515102613
      ],
      [
        "▁crow",
        -8.754880995809442
      ],
      [
        "ar",
        -7.490341792618617
      ],
      [
        "▁ted",
        -8.82763390570456
      ],
      [
        ":",
        -5.121007365794226
      ],
      [
        "▁broker",
        -10.335052784365056
      ],
      [
        "▁una",
        -9.58033815336934
      ],
      [
        "▁programmer",
        -12.2988531018254
      ],
      [
        "th",
        -6.985667254388133
      ],
      [
        "▁dea",
        -11.505207162389922
      ],
      [
        "tione",
        -12.532475102360571
      ],
      [
        "estos",
        -12.047170582464798
      ],
      [
        "▁labour",
        -11.45875452667877
      ],
      [
        "organise",
        -12.339018516815557
      ],
      [
        "▁indicate",
        -8.34885140451932
      ],
      [
        "obe",
        -12.35958707721005
      ],
      [
        "▁twin",
        -10.054968131896914
      ],
      [
        "▁real",
        -4.874120198670135
      ],
      [
        "g",
        -5.086823106981542
      ],
      [
        "▁red",
        -9.213178624848169
      ],
      [
        "▁freight",
        -11.26937357640829
      ],
      [
        "▁ferri",
        -11.218431343025852
      ],
      [
        "▁source",
        -7.600890067305296
      ],
      [
        "▁ballot",
        -10.7017581329367
      ],
      [
        "▁crumble",
        -11.011607321949205
      ],
      [
        "▁simulate",
        -11.060237928041802
      ],
      [
        "▁bun",
        -9.568657790649363
      ],
      [
        "nd",
        -8.976832477837341
      ],
      [
        "▁l",
        -8.4489258758925
      ],
      [
        "▁wa",
        -8.830583634829402
      ],
      [
        "▁forego",
        -11.475550233945398
      ],
      [
        "ro",
        -9.323176805322918
      ],
      [
        "▁warning",
        -9.338245119787947
      ],
      [
        "▁pray",
        -10.794733881109828
      ],
      [
        "▁massacr",
        -11.458732553834398
      ],
      [
        "speaker",
        -12.319901074605676
      ],
      [
        "▁recogniz",
        -10.609386640142517
      ],
      [
        "▁l.",
        -11.87660361189585
      ],
      [
        "▁compel",
        -10.341109751648144
      ],
      [
        "▁fo",
        -11.546334560947004
      ],
      [
        "animals",
        -7.841295129042008
      ],
      [
        "fresh",
        -10.56499164930568
      ],
      [
        "minister",
        -12.458454643749906
      ],
      [
        "▁evacuation",
        -10.490144022301306
      ],
      [
        "look",
        -8.924097104575832
      ],
      [
        "▁tar",
        -10.99855952697752
      ],
      [
        "▁no",
        -8.902092130890027
      ],
      [
        "undra",
        -12.814195957199304
      ],
      [
        "j",
        -11.770631529841472
      ],
      [
        "▁herd",
        -11.504721229027925
      ],
      [
        "venge",
        -10.675728166569105
      ],
      [
        "come",
        -12.452255681122287
      ],
      [
        "gravi",
        -10.725743712008326
      ],
      [
        "o",
        -1.7919375046051371
      ],
      [
        "▁condition",
        -10.625393748482953
      ],
      [
        "▁pri",
        -12.817685641408797
      ],
      [
        "▁stor",
        -10.15565120335638
      ],
      [
        "ca",
        -7.141411780500674
      ],
      [
        "▁instant",
        -9.995354115437578
      ],
      [
        "▁di",
        -9.109167418298744
      ],
      [
        "▁washing",
        -10.726103945187983
      ],
      [
        "▁sai",
        -5.08691055481988
      ],
      [
        "▁creati",
        -12.291265203062894
      ],
      [
        "stop",
        -11.946312119771028
      ],
      [
        "alti",
        -7.546480764570468
      ],
      [
        "▁agree",
        -7.253405628739583
      ],
      [
        "▁endeavor",
        -10.056254017967913
      ],
      [
        "▁collector",
        -10.323280684660578
      ],
      [
        "▁index",
        -10.958754927642678
      ],
      [
        "▁queries",
        -9.136376243564426
      ],
      [
        "▁make",
        -10.12547565745522
      ],
      [
        "98",
        -7.379829568726602
      ],
      [
        "▁stamp",
        -10.96195961506429
      ],
      [
        "▁experience",
        -7.053898156757531
      ],
      [
        "▁resid",
        -12.031032820208356
      ],
      [
        "▁mang",
        -11.309723590523355
      ],
      [
        "▁de",
        -8.13898466470365
      ],
      [
        "we",
        -11.275208440188432
      ],
      [
        "communication",
        -11.513155179286944
      ],
      [
        "ef",
        -11.725790258395246
      ],
      [
        "bia",
        -10.671844274407995
      ],
      [
        "▁arab",
        -7.922878414017
      ],
      [
        "other",
        -10.901670798031047
      ],
      [
        "▁mani",
        -12.269781236426791
      ],
      [
        "micro",
        -12.358651905291016
      ],
      [
        "▁valu",
        -10.742818018737335
      ],
      [
        "▁hot",
        -10.296160554753452
      ],
      [
        "assemble",
        -12.244397984394327
      ],
      [
        "k",
        -6.263707711466564
      ],
      [
        "▁fift",
        -7.892158422901294
      ],
      [
        "oxy",
        -11.067037123936286
      ],
      [
        "▁u",
        -8.213000187770898
      ],
      [
        "▁deck",
        -9.862851386476672
      ],
      [
        "hose",
        -12.74266986650579
      ],
      [
        "▁chaser",
        -10.960060385248289
      ],
      [
        "▁rul",
        -10.472777959189516
      ],
      [
        "▁pho",
        -10.214144831984234
      ],
      [
        "▁mil",
        -11.407433740469912
      ],
      [
        "’",
        -10.78153641900687
      ],
      [
        "▁ju",
        -7.097350754222773
      ],
      [
        "**************",
        -12.31917194045622
      ],
      [
        "nc",
        -11.283104262126058
      ],
      [
        "▁eta",
        -11.898042135851732
      ],
      [
        "▁south",
        -6.850119517151502
      ],
      [
        "activit",
        -10.887335191639753
      ],
      [
        "▁competition",
        -8.630823985428336
      ],
      [
        "▁neocon",
        -12.504207221434495
      ],
      [
        "alate",
        -11.038784199849628
      ],
      [
        "▁attack",
        -8.166821387077388
      ],
      [
        "▁secur",
        -10.280816398202107
      ],
      [
        "▁v",
        -10.549009922820545
      ],
      [
        "▁pirate",
        -9.755870540456248
      ],
      [
        "▁idea",
        -6.928620350178422
      ],
      [
        "▁master",
        -8.767629982126625
      ],
      [
        "ut",
        -10.56696934815741
      ],
      [
        "03",
        -11.23411032380532
      ],
      [
        "umm",
        -8.74986232994868
      ],
      [
        "wrap",
        -12.236029894761748
      ],
      [
        "goe",
        -13.267517313985918
      ],
      [
        "▁rational",
        -11.775151308777357
      ],
      [
        "▁stall",
        -10.395554706651971
      ],
      [
        "▁scarce",
        -10.310818860248073
      ],
      [
        "ding",
        -10.433604694103902
      ],
      [
        "sta",
        -8.488319103450568
      ],
      [
        "▁market",
        -7.223288385187966
      ],
      [
        "os",
        -8.52066154669418
      ],
      [
        "▁travell",
        -9.466626765177278
      ],
      [
        "▁anticipat",
        -10.591663673672695
      ],
      [
        "download",
        -12.203390515547623
      ],
      [
        "▁pressur",
        -10.226033921580116
      ],
      [
        "▁sew",
        -10.208832463836742
      ],
      [
        "confirm",
        -11.82935719516562
      ],
      [
        "▁truck",
        -7.440402334510807
      ],
      [
        "▁mouth",
        -7.675388974221699
      ],
      [
        "in",
        -8.591787719139312
      ],
      [
        "sphere",
        -8.28516894859234
      ],
      [
        "ist",
        -12.481274171985032
      ],
      [
        "▁tower",
        -10.192621817809204
      ],
      [
        "▁size",
        -8.006729527181818
      ],
      [
        "▁sentiment",
        -10.180391833880348
      ],
      [
        "▁man",
        -8.235183809723088
      ],
      [
        "▁interpret",
        -9.041564964558665
      ],
      [
        "▁patient",
        -9.054981465162111
      ],
      [
        "itie",
        -10.181644865265586
      ],
      [
        "▁reaffirm",
        -10.375444832346888
      ],
      [
        "▁27",
        -7.027180110542156
      ],
      [
        "▁regard",
        -7.5181281910160465
      ],
      [
        "garit",
        -12.860294909161558
      ],
      [
        "▁plea",
        -11.870527469771366
      ],
      [
        "▁scheme",
        -9.601522398618275
      ],
      [
        "iv",
        -11.20418361392029
      ],
      [
        "ern",
        -6.849387477125366
      ],
      [
        "▁settle",
        -8.543389365197694
      ],
      [
        "▁justif",
        -11.45666646587378
      ],
      [
        "painting",
        -12.331893385394933
      ],
      [
        "▁hint",
        -9.525188688417236
      ],
      [
        "tant",
        -10.987386353457927
      ],
      [
        "▁procedure",
        -8.45083740779557
      ],
      [
        "▁hoax",
        -10.323975223369196
      ],
      [
        "18",
        -7.911211141822168
      ],
      [
        "▁spurt",
        -11.800524541530917
      ],
      [
        "itter",
        -10.754230326396293
      ],
      [
        "▁bleach",
        -10.490176034605723
      ],
      [
        "▁de",
        -7.133759330193251
      ],
      [
        "▁mode",
        -9.985740828317674
      ],
      [
        "ew",
        -11.370652604706304
      ],
      [
        "▁mill",
        -5.806332795739784
      ],
      [
        "▁pleas",
        -11.76748542195875
      ],
      [
        "▁unpack",
        -11.459040203378136
      ],
      [
        "▁spit",
        -10.4085289097874
      ],
      [
        "▁substitut",
        -11.729437533071945
      ],
      [
        "▁ko",
        -8.88256413711596
      ],
      [
        "▁limb",
        -9.29794097847633
      ],
      [
        "▁sleep",
        -7.3867615725125875
      ],
      [
        "ate",
        -6.574916599541596
      ],
      [
        "▁puff",
        -10.944993082888118
      ],
      [
        "▁father",
        -11.459555863519647
      ],
      [
        "▁repres",
        -11.545956386126488
      ],
      [
        "▁write",
        -12.749547706358213
      ],
      [
        "▁measur",
        -10.83993132701803
      ],
      [
        "▁positi",
        -11.529911704914376
      ],
      [
        "▁slap",
        -12.456072562561175
      ],
      [
        "▁tag",
        -9.028384148317294
      ],
      [
        "▁yellow",
        -10.940084592697358
      ],
      [
        "▁mud",
        -9.549341066770332
      ],
      [
        "▁con",
        -10.216181715726997
      ],
      [
        "constitution",
        -8.687510659531688
      ],
      [
        "pione",
        -10.975510032117564
      ],
      [
        "nine",
        -8.16271665564711
      ],
      [
        "▁penetrate",
        -10.958726050468238
      ],
      [
        "▁smack",
        -10.958761714101747
      ],
      [
        "▁browse",
        -12.801771522424612
      ],
      [
        "▁bound",
        -9.29915380952337
      ],
      [
        "▁lawyer",
        -9.131838516621936
      ],
      [
        "▁with",
        -4.952485445949646
      ],
      [
        "▁raccoon",
        -10.180381658066043
      ],
      [
        "▁again",
        -5.055600915647587
      ],
      [
        "▁intell",
        -8.838304803692107
      ],
      [
        "▁transfer",
        -9.228781223834197
      ],
      [
        "▁tapp",
        -10.63256093317306
      ],
      [
        "▁moto",
        -12.816003238889367
      ],
      [
        "▁me",
        -8.45496468368825
      ],
      [
        "▁permeate",
        -10.95872609628101
      ],
      [
        "pull",
        -12.629878531285032
      ],
      [
        "+cr",
        -12.722590487123098
      ],
      [
        "arl",
        -8.199382488274523
      ],
      [
        "▁feed",
        -8.885567324675758
      ],
      [
        "▁cara",
        -8.506186870775215
      ],
      [
        "▁opinon",
        -11.773260880848762
      ],
      [
        "▁connection",
        -7.631412726336607
      ],
      [
        "rough",
        -11.157308279009753
      ],
      [
        "rudg",
        -12.017474901370726
      ],
      [
        "ional",
        -6.668489374221226
      ],
      [
        "▁candle",
        -9.525306503921104
      ],
      [
        "▁air",
        -6.741659790868792
      ],
      [
        "earn",
        -11.562739416088954
      ],
      [
        "▁mop",
        -12.517571288500049
      ],
      [
        "▁delete",
        -8.995020198938137
      ],
      [
        "▁i",
        -5.301129070997394
      ],
      [
        "ivit",
        -9.47341467720574
      ],
      [
        "her",
        -11.026842601000084
      ],
      [
        "▁strea",
        -11.488092687198197
      ],
      [
        "8",
        -4.553569007344787
      ],
      [
        "integrate",
        -12.168469901473717
      ],
      [
        "rug",
        -11.957277039262102
      ],
      [
        "▁pincher",
        -11.787224796076613
      ],
      [
        "▁gon",
        -5.350338757148288
      ],
      [
        "a",
        -6.023131457559766
      ],
      [
        "▁pen",
        -11.375118215562912
      ],
      [
        "▁rep",
        -12.187519938283701
      ],
      [
        "art",
        -10.58363326829349
      ],
      [
        "writ",
        -11.105464757728814
      ],
      [
        "per",
        -12.466656066095815
      ],
      [
        "▁k",
        -8.889296218159476
      ],
      [
        "staff",
        -10.785013348230391
      ],
      [
        "▁neuro",
        -9.84703786518391
      ],
      [
        "▁tutorial",
        -10.940024903397449
      ],
      [
        "count",
        -11.727632235797536
      ],
      [
        "▁ty",
        -11.998214915210841
      ],
      [
        "▁newsletter",
        -11.779166333162104
      ],
      [
        "-s",
        -12.132725967088756
      ],
      [
        "ext.",
        -11.478329782094184
      ],
      [
        "▁oblig",
        -10.174579693673177
      ],
      [
        "rial",
        -11.094729522503691
      ],
      [
        "▁rule",
        -7.577576878307023
      ],
      [
        "▁ac",
        -10.393516477022443
      ],
      [
        "▁expe",
        -12.863744676742613
      ],
      [
        "▁para",
        -9.757925177699484
      ],
      [
        "▁surgeon",
        -9.847586643479058
      ],
      [
        "▁lin",
        -11.545292672408488
      ],
      [
        "▁supervise",
        -11.458725918223283
      ],
      [
        "▁jul",
        -6.995721538684821
      ],
      [
        "▁islamist",
        -9.395539681710845
      ],
      [
        "▁nest",
        -9.174715586920634
      ],
      [
        "▁emp",
        -8.965802136832414
      ],
      [
        "▁inde",
        -10.820240255469278
      ],
      [
        "▁butter",
        -8.36418786880354
      ],
      [
        "▁conflict",
        -10.625433580788764
      ],
      [
        "▁mill",
        -10.474988655358763
      ],
      [
        "include",
        -12.471714646082704
      ],
      [
        "▁hippop",
        -10.058104809336061
      ],
      [
        "▁donat",
        -11.692482295662332
      ],
      [
        "▁pattern",
        -9.002089556323522
      ],
      [
        "▁shelter",
        -10.175393356959152
      ],
      [
        "▁soft",
        -7.795608770514
      ],
      [
        "▁enrich",
        -10.625395698497055
      ],
      [
        "valid",
        -8.836547063358307
      ],
      [
        "▁par",
        -8.955352051088164
      ],
      [
        "▁detector",
        -10.93999780025486
      ],
      [
        "▁house",
        -9.746431345849032
      ],
      [
        "▁may",
        -5.707054092143263
      ],
      [
        "ger",
        -10.186883430477256
      ],
      [
        "▁plead",
        -10.975846507607086
      ],
      [
        "▁ama",
        -12.680732236028843
      ],
      [
        "hold",
        -10.892694620397984
      ],
      [
        "giv",
        -13.312536820949148
      ],
      [
        "live",
        -9.89933851013537
      ],
      [
        "litter",
        -11.017855584570047
      ],
      [
        "▁abo",
        -7.800414812845981
      ],
      [
        "▁nick",
        -8.293953963458549
      ],
      [
        "▁russia",
        -7.618708357732326
      ],
      [
        "nify",
        -10.805720705720818
      ],
      [
        "first",
        -9.810548828389914
      ],
      [
        "lunder",
        -12.267978443004603
      ],
      [
        "▁database",
        -8.47468412112337
      ],
      [
        "▁garner",
        -10.9587468079376
      ],
      [
        "secure",
        -12.394907607891394
      ],
      [
        "ti",
        -5.501925538707061
      ],
      [
        "deration",
        -12.320869198668504
      ],
      [
        "decide",
        -12.638070548640876
      ],
      [
        "▁flirt",
        -9.63363385320415
      ],
      [
        "▁climb",
        -10.520960692371313
      ],
      [
        "▁emission",
        -9.403016541453326
      ],
      [
        "thin",
        -5.708700200719424
      ],
      [
        "rolle",
        -11.471166298962483
      ],
      [
        "avoc",
        -9.63661625670214
      ],
      [
        "▁stream",
        -10.17670891606647
      ],
      [
        "co",
        -7.935002140716886
      ],
      [
        "▁mega",
        -10.490493654884189
      ],
      [
        "ooz",
        -11.375569077823867
      ],
      [
        "▁irr",
        -12.45194826792605
      ],
      [
        "▁tha",
        -6.431820319444924
      ],
      [
        "▁arm",
        -10.372080532130106
      ],
      [
        "▁?!?",
        -13.944841065246216
      ],
      [
        "▁participant",
        -8.659397932494656
      ],
      [
        "▁furnace",
        -10.689926997739125
      ],
      [
        "▁flood",
        -8.86012346609835
      ],
      [
        "median",
        -9.750852586712625
      ],
      [
        "▁barr",
        -11.061785543932618
      ],
      [
        "▁h",
        -7.4395809246627005
      ],
      [
        "eball",
        -12.393268934114166
      ],
      [
        "▁concert",
        -9.854866954941404
      ],
      [
        "heel",
        -12.906575998463737
      ],
      [
        "▁lawma",
        -12.25964475060915
      ],
      [
        "▁possession",
        -9.336934224150792
      ],
      [
        "▁airline",
        -6.995136667885089
      ],
      [
        "ttle",
        -12.38577875347731
      ],
      [
        "▁non",
        -8.674722093820106
      ],
      [
        "▁num",
        -12.063999843060612
      ],
      [
        "▁pilot",
        -8.78237212644001
      ],
      [
        "▁delegation",
        -11.273732992546362
      ],
      [
        "▁brick",
        -9.846291247150814
      ],
      [
        "▁dot",
        -10.116998873458188
      ],
      [
        "▁8",
        -5.378483124250874
      ],
      [
        "▁phrase",
        -9.336626195711522
      ],
      [
        "▁trick",
        -9.398617452179373
      ],
      [
        "▁soccer",
        -9.946016880510246
      ],
      [
        "▁tackl",
        -9.87108400684445
      ],
      [
        "▁weak",
        -12.801091663414105
      ],
      [
        "shed",
        -11.909753636160774
      ],
      [
        "ensure",
        -13.731412774209478
      ],
      [
        "▁exha",
        -10.96432229473037
      ],
      [
        "▁observation",
        -9.337421458983359
      ],
      [
        "▁speculator",
        -11.777534011080427
      ],
      [
        "▁prox",
        -11.803157458527776
      ],
      [
        "ness",
        -6.852226344624777
      ],
      [
        "weed",
        -11.39905320091316
      ],
      [
        "iali",
        -11.759695741039545
      ],
      [
        "▁undert",
        -13.191705893875074
      ],
      [
        "▁thir",
        -6.7330901287301295
      ],
      [
        "roache",
        -12.11842675011021
      ],
      [
        "▁bed",
        -7.134243541746692
      ],
      [
        "▁consi",
        -9.58112823406974
      ],
      [
        "▁abuse",
        -9.675213658413572
      ],
      [
        "▁provis",
        -12.77001891735009
      ],
      [
        "▁queen",
        -10.490662001786884
      ],
      [
        "▁transport",
        -6.568154164070046
      ],
      [
        "▁cast",
        -9.774640419155302
      ],
      [
        "usage",
        -10.195312461987003
      ],
      [
        "nk",
        -11.752845989940543
      ],
      [
        "▁wiggle",
        -9.281174628275641
      ],
      [
        "move",
        -11.010131706693507
      ],
      [
        "volu",
        -8.076313296341922
      ],
      [
        "▁whipp",
        -10.376521779303514
      ],
      [
        "ana",
        -11.553862126321507
      ],
      [
        "rsed",
        -11.053916195218566
      ],
      [
        "▁sub-",
        -11.280182868402571
      ],
      [
        "us",
        -9.443230358655107
      ],
      [
        "x",
        -11.810278406305976
      ],
      [
        "▁drive",
        -9.284519382482094
      ],
      [
        "muel",
        -8.64335027281226
      ],
      [
        "st",
        -12.50667684532212
      ],
      [
        "▁plac",
        -9.760617275800493
      ],
      [
        "▁ko",
        -10.812951791275022
      ],
      [
        "even",
        -6.785405311067583
      ],
      [
        "@",
        -7.670182493857345
      ],
      [
        "▁performer",
        -10.9439942762294
      ],
      [
        "▁thr",
        -4.171737371864407
      ],
      [
        "embarrass",
        -12.271808004272504
      ],
      [
        "integr",
        -11.190045168683996
      ],
      [
        "▁initiative",
        -8.815618867769002
      ],
      [
        "▁psycho",
        -11.285176360288366
      ],
      [
        "▁ho",
        -8.35891931327636
      ],
      [
        "▁pledge",
        -9.950432742257854
      ],
      [
        "▁tower",
        -8.889977295455717
      ],
      [
        "▁sci",
        -9.085787905632637
      ],
      [
        "▁lion",
        -8.746521660896473
      ],
      [
        "▁villa",
        -11.27392273450248
      ],
      [
        "p",
        -7.377066839702568
      ],
      [
        "▁d",
        -4.918347704636542
      ],
      [
        "▁mail",
        -9.454912541174075
      ],
      [
        "▁coffee",
        -7.812281557205294
      ],
      [
        "▁cann",
        -10.728253680964112
      ],
      [
        "man",
        -6.863842658812742
      ],
      [
        "▁entre",
        -9.934151617397035
      ],
      [
        "±",
        -11.925660239071421
      ],
      [
        "▁veg",
        -8.677315902481418
      ],
      [
        "▁empt",
        -12.262602058700429
      ],
      [
        "▁coin",
        -9.438185311740016
      ],
      [
        "rough",
        -7.871226518929168
      ],
      [
        "▁poll",
        -12.465405961663341
      ],
      [
        "die",
        -13.230603186937966
      ],
      [
        "nny",
        -8.326151973080616
      ],
      [
        "▁vote",
        -8.18340838201718
      ],
      [
        "▁preceden",
        -10.690121421395652
      ],
      [
        "law",
        -11.037782025692607
      ],
      [
        "▁version",
        -8.232219169003454
      ],
      [
        "ustria",
        -12.835556178418207
      ],
      [
        "▁cool",
        -10.015080797584833
      ],
      [
        "▁car",
        -5.927052410094823
      ],
      [
        "▁concern",
        -7.949998834708551
      ],
      [
        "▁her",
        -8.795030697821929
      ],
      [
        "ongo",
        -8.619095877807528
      ],
      [
        "▁!!!!!!!",
        -11.846846990791377
      ],
      [
        "▁co-op",
        -11.748710984259699
      ],
      [
        "▁alt.animals.f",
        -12.82787610347656
      ],
      [
        "▁evict",
        -12.220881176962255
      ],
      [
        "believe",
        -12.772261670478693
      ],
      [
        "▁pave",
        -11.833782515878449
      ],
      [
        "▁recip",
        -11.7315484991408
      ],
      [
        "▁spaces",
        -11.557032473960929
      ],
      [
        "▁sales",
        -8.470568019133683
      ],
      [
        "▁phil",
        -5.252027465571708
      ],
      [
        "euv",
        -12.210710988521726
      ],
      [
        "m",
        -6.820629931865918
      ],
      [
        "▁wed",
        -8.608641864059434
      ],
      [
        "yours",
        -12.142066938395672
      ],
      [
        "dale",
        -8.68314930450326
      ],
      [
        "▁experi",
        -12.861465888298572
      ],
      [
        "▁debutan",
        -11.797799039526224
      ],
      [
        "▁m",
        -6.457115228975116
      ],
      [
        "▁recover",
        -9.084213408520743
      ],
      [
        "think",
        -9.762177751474606
      ],
      [
        "rvation",
        -11.788183779168754
      ],
      [
        "player",
        -11.259602368667473
      ],
      [
        "▁examin",
        -9.377013372104653
      ],
      [
        "▁whe",
        -11.304023993356399
      ],
      [
        "▁produc",
        -10.850259609154476
      ],
      [
        "▁propert",
        -7.376521064327124
      ],
      [
        "▁peacekeep",
        -10.704139099937375
      ],
      [
        "internet",
        -7.721423258524314
      ],
      [
        "lope",
        -11.75660273551041
      ],
      [
        "lie",
        -11.926210206863955
      ],
      [
        "ax",
        -8.402734768756602
      ],
      [
        "iller",
        -10.42465813419095
      ],
      [
        "▁guid",
        -9.710435315340659
      ],
      [
        "b",
        -4.738268993203795
      ],
      [
        "ubble",
        -11.676629907210158
      ],
      [
        "▁fixation",
        -11.274979716569208
      ],
      [
        "▁cool",
        -11.372183010074039
      ],
      [
        "▁hand",
        -10.235065825969624
      ],
      [
        "ne",
        -7.824128334692739
      ],
      [
        "side",
        -8.997724203738915
      ],
      [
        "▁outer",
        -8.268389324646616
      ],
      [
        "▁embass",
        -10.323785271617847
      ],
      [
        "▁le",
        -7.706648196198184
      ],
      [
        "▁lett",
        -10.067533673874332
      ],
      [
        "▁brows",
        -11.758076052113593
      ],
      [
        "bill",
        -12.32922586066818
      ],
      [
        "▁flee",
        -10.98157081085025
      ],
      [
        "▁nineteen",
        -12.770375533631782
      ],
      [
        "▁da",
        -5.612932598072543
      ],
      [
        "nic",
        -8.989530190194408
      ],
      [
        "▁respect",
        -8.972298099146272
      ],
      [
        "▁pitch",
        -10.3644328933484
      ],
      [
        "ation",
        -7.644780144348214
      ],
      [
        "alia",
        -12.59272598914648
      ],
      [
        "▁garr",
        -12.577491183332246
      ],
      [
        "▁cancel",
        -8.969339575900687
      ],
      [
        "▁grid",
        -9.759254230300451
      ],
      [
        "ama",
        -8.787044640908926
      ],
      [
        "sky",
        -11.77877117496045
      ],
      [
        "▁key",
        -8.14409345474584
      ],
      [
        "flect",
        -12.329302429905296
      ],
      [
        "▁mai",
        -10.137099700861565
      ],
      [
        "lin",
        -11.778384295864928
      ],
      [
        "lot",
        -10.182216580450943
      ],
      [
        "▁receiv",
        -8.281500766022912
      ],
      [
        "!!!!!!!!!!",
        -11.368032386117479
      ],
      [
        "u",
        -3.4498478262533245
      ],
      [
        "▁step",
        -7.500447223510241
      ],
      [
        "▁prevent",
        -8.187350387670167
      ],
      [
        "▁vibrat",
        -11.997398259138215
      ],
      [
        "a",
        -4.761978571806004
      ],
      [
        "▁ob",
        -11.630487166173966
      ],
      [
        "▁zoo",
        -8.95195618231025
      ],
      [
        "zation",
        -9.884697978862171
      ],
      [
        "▁ground",
        -6.581083138299489
      ],
      [
        "▁monkey",
        -8.630704980637633
      ],
      [
        "▁buy",
        -6.587746264825932
      ],
      [
        "▁appeal",
        -9.556580493539533
      ],
      [
        "▁disclose",
        -10.175851081647977
      ],
      [
        "▁o",
        -8.679273466658742
      ],
      [
        "▁toil",
        -11.8255916302661
      ],
      [
        "inera",
        -11.877812515612073
      ],
      [
        "▁bul",
        -11.543252702181917
      ],
      [
        "▁alcoholi",
        -11.7932484986414
      ],
      [
        "▁partners",
        -9.569835597116983
      ],
      [
        "▁migration",
        -10.211751256579971
      ],
      [
        "▁ver",
        -9.365781145034882
      ],
      [
        "butter",
        -12.348373530600508
      ],
      [
        "▁obsess",
        -10.958727059840609
      ],
      [
        "ale",
        -11.258916502743812
      ],
      [
        "▁camps",
        -11.579402508966139
      ],
      [
        "hoops",
        -12.425429939392355
      ],
      [
        "panc",
        -11.000930599860974
      ],
      [
        "ike",
        -3.964776749538939
      ],
      [
        "cog",
        -12.581357311213583
      ],
      [
        "r",
        -7.4178480080912665
      ],
      [
        "▁influence",
        -9.142093804611847
      ],
      [
        "ver",
        -9.445832164934295
      ],
      [
        "lic",
        -11.218495195317338
      ],
      [
        "▁lime",
        -10.100163789644508
      ],
      [
        "▁starter",
        -11.063974026323052
      ],
      [
        "imm",
        -12.332772440536946
      ],
      [
        "ari",
        -7.987987158299443
      ],
      [
        "▁fast",
        -8.083856862974404
      ],
      [
        "▁optimize",
        -11.458814787491649
      ],
      [
        "▁basi",
        -8.21558593598727
      ],
      [
        "ro",
        -8.564654299679264
      ],
      [
        "▁show",
        -7.720672780257837
      ],
      [
        "▁lock",
        -10.087857412942707
      ],
      [
        "▁spotlight",
        -11.7860584366708
      ],
      [
        "▁wi",
        -10.73011299306763
      ],
      [
        "follow",
        -11.460282352086114
      ],
      [
        "▁juror",
        -11.277313091402572
      ],
      [
        "▁undo",
        -10.607936811956868
      ],
      [
        "rtment",
        -11.034628495317413
      ],
      [
        "▁quote",
        -8.924778309674233
      ],
      [
        "_",
        -4.628726667259624
      ],
      [
        "▁plunder",
        -11.774346875318248
      ],
      [
        "▁professional",
        -9.22965234931517
      ],
      [
        "▁driv",
        -7.581844739198957
      ],
      [
        "eeding",
        -11.73466705955413
      ],
      [
        "▁gall",
        -9.815934369441802
      ],
      [
        "▁'",
        -6.425214222828881
      ],
      [
        "▁mus",
        -7.898406140039114
      ],
      [
        "▁f",
        -6.831058922367424
      ],
      [
        "▁extrem",
        -8.45140807663197
      ],
      [
        "▁calm",
        -11.013616802382058
      ],
      [
        "cultur",
        -7.255618199138741
      ],
      [
        "most",
        -5.889693681307584
      ],
      [
        "▁match",
        -8.694037083861629
      ],
      [
        "▁oversee",
        -11.46737677385162
      ],
      [
        "▁am",
        -11.743607291920835
      ],
      [
        "▁questi",
        -12.45802374843698
      ],
      [
        "icken",
        -10.990812951251096
      ],
      [
        "apacit",
        -12.797301427896178
      ],
      [
        "▁peek",
        -10.38250772454571
      ],
      [
        "▁clue",
        -10.349609316576641
      ],
      [
        "▁38",
        -7.132700050543493
      ],
      [
        "▁acco",
        -7.520476654430368
      ],
      [
        "▁inventor",
        -12.743312662685897
      ],
      [
        "pop",
        -10.861779171918512
      ],
      [
        "▁frid",
        -9.293243911368
      ],
      [
        "▁undermine",
        -10.040094498451264
      ],
      [
        "▁co",
        -9.556969197361926
      ],
      [
        "▁perse",
        -10.855389667695754
      ],
      [
        "▁sla",
        -11.962927060267825
      ],
      [
        "imate",
        -7.97804560746793
      ],
      [
        "▁devis",
        -10.417779703652418
      ],
      [
        "▁mar",
        -9.423044126393673
      ],
      [
        "▁challenge",
        -9.903584821016157
      ],
      [
        "▁ginger",
        -9.755635073783306
      ],
      [
        "▁per",
        -7.430482432399975
      ],
      [
        "sign",
        -10.85374428824906
      ],
      [
        "ill",
        -6.113903373785595
      ],
      [
        "id",
        -9.150834025689743
      ],
      [
        "▁`",
        -11.296918948688285
      ],
      [
        "▁bait",
        -10.519992910513892
      ],
      [
        "?",
        -3.0869681674060505
      ],
      [
        "▁sold",
        -8.854102639208472
      ],
      [
        "s",
        -3.3173752150766376
      ],
      [
        "▁praise",
        -10.51909953368974
      ],
      [
        "▁attribution",
        -11.273721451108694
      ],
      [
        "itive",
        -11.160527987346029
      ],
      [
        "▁speculat",
        -10.958779334588954
      ],
      [
        "wau",
        -6.368985496007429
      ],
      [
        "rou",
        -13.078869863422529
      ],
      [
        "re",
        -11.340506330349147
      ],
      [
        "▁cl",
        -7.526922842352787
      ],
      [
        "rigi",
        -12.165814929529999
      ],
      [
        "thm",
        -12.496921772719498
      ],
      [
        "▁exposure",
        -8.688481596309432
      ],
      [
        "▁16",
        -5.674082561475753
      ],
      [
        "us",
        -7.639303254902502
      ],
      [
        "rapist",
        -12.79563191567944
      ],
      [
        "▁competiti",
        -11.272088772543835
      ],
      [
        "ther",
        -6.293876075097796
      ],
      [
        "▁sausage",
        -10.490131298843846
      ],
      [
        "▁wh",
        -11.28246861509878
      ],
      [
        "▁particle",
        -9.283098940350554
      ],
      [
        "your",
        -7.282301018614932
      ],
      [
        "▁act",
        -8.354462346394513
      ],
      [
        "▁w",
        -7.847448350576819
      ],
      [
        "irc",
        -11.913768256648972
      ],
      [
        "▁illu",
        -11.775722352939813
      ],
      [
        "▁join",
        -12.800384744821356
      ],
      [
        "urb",
        -11.761131568877513
      ],
      [
        "m",
        -3.7542502650210796
      ],
      [
        "...@",
        -8.456906970418492
      ],
      [
        "▁canape",
        -11.773653979859759
      ],
      [
        "▁den",
        -11.594019007773749
      ],
      [
        "▁clutch",
        -11.773564651250545
      ],
      [
        "re",
        -7.818351387913545
      ],
      [
        "▁shop-",
        -11.80168543927914
      ],
      [
        "ever",
        -5.359099294543228
      ],
      [
        "sula",
        -8.162791166802986
      ],
      [
        "ail",
        -10.41383685862511
      ],
      [
        "▁jingle",
        -10.324142070022758
      ],
      [
        "▁mary",
        -8.010221585186871
      ],
      [
        "▁excess",
        -8.889480808802679
      ],
      [
        "▁remnant",
        -10.939906261664891
      ],
      [
        "to",
        -10.134533362040383
      ],
      [
        "▁revis",
        -10.146352344537158
      ],
      [
        "life",
        -9.071346437163726
      ],
      [
        "▁sta",
        -10.324857998028987
      ],
      [
        "▁pedi",
        -12.793224411868021
      ],
      [
        "▁any",
        -6.200640577973125
      ],
      [
        "▁tin",
        -10.721255538778763
      ],
      [
        "▁layer",
        -10.350120020368768
      ],
      [
        "▁break",
        -8.581557196418885
      ],
      [
        "▁how",
        -3.9468069168529585
      ],
      [
        "▁insecurit",
        -11.279848358450126
      ],
      [
        "▁governor",
        -8.961161656594157
      ],
      [
        "▁short",
        -10.481665591767538
      ],
      [
        "artridge",
        -12.582807713158559
      ],
      [
        "▁force",
        -7.594359900173943
      ],
      [
        "▁indonesia",
        -8.889313687140646
      ],
      [
        "▁i",
        -9.583171477760345
      ],
      [
        "▁abid",
        -12.202613383479726
      ],
      [
        "▁persuad",
        -10.624452776707885
      ],
      [
        "icit",
        -10.919733181341032
      ],
      [
        "armac",
        -10.494616005111888
      ],
      [
        "▁house",
        -7.5534511169958165
      ],
      [
        "▁kit",
        -12.87856161578826
      ],
      [
        "-",
        -7.370494258630908
      ],
      [
        "▁sauce",
        -9.466798708998715
      ],
      [
        "noram",
        -11.540257315064855
      ],
      [
        "mat",
        -9.758962187148395
      ],
      [
        "educ",
        -12.776964271539747
      ],
      [
        "▁issu",
        -10.119700466224014
      ],
      [
        "ion",
        -6.373511379681319
      ],
      [
        "▁democra",
        -8.226778940271453
      ],
      [
        "▁home",
        -6.822900762943623
      ],
      [
        "▁sway",
        -9.869892786801692
      ],
      [
        "▁souvenir",
        -11.773238255582603
      ],
      [
        "▁scar",
        -9.416393743772574
      ],
      [
        "ve",
        -6.027772946699521
      ],
      [
        "lamp",
        -12.45193127988631
      ],
      [
        "▁broc",
        -10.589481296168598
      ],
      [
        "▁subdu",
        -11.459828765152116
      ],
      [
        "▁hands",
        -7.653048427068458
      ],
      [
        "lt",
        -12.458189556847
      ],
      [
        "▁vote",
        -8.191384363135551
      ],
      [
        "▁educat",
        -8.031260880393173
      ],
      [
        "???????????????",
        -11.531210826536753
      ],
      [
        "night",
        -8.08595813080191
      ],
      [
        "▁walrus",
        -11.77336221055086
      ],
      [
        "▁basil",
        -8.503577702494232
      ],
      [
        "▁forbidd",
        -10.224083047320606
      ],
      [
        "▁comp.sources.",
        -10.689904925465097
      ],
      [
        "▁gam",
        -11.330784336224413
      ],
      [
        "▁repeal",
        -11.501298611578614
      ],
      [
        "si",
        -12.266694468816516
      ],
      [
        "▁demonstrat",
        -10.908466487076097
      ],
      [
        "▁paint",
        -8.410390060706064
      ],
      [
        "▁probabilit",
        -10.489996732417112
      ],
      [
        "ny",
        -8.703134424558206
      ],
      [
        "stor",
        -11.243841332080525
      ],
      [
        "▁exemplifie",
        -10.958725671529868
      ],
      [
        "bed",
        -11.745597630281058
      ],
      [
        "ine",
        -10.178659188625435
      ],
      [
        "▁customi",
        -12.484525132769063
      ],
      [
        "▁diversi",
        -9.045361915002609
      ],
      [
        "▁induc",
        -11.776834013043857
      ],
      [
        "▁pan",
        -11.497646978224981
      ],
      [
        "ral",
        -8.016779290424799
      ],
      [
        "sium",
        -12.278771003903431
      ],
      [
        "▁subject",
        -10.175392290465146
      ],
      [
        "igg",
        -12.685534681946189
      ],
      [
        "▁poke",
        -10.394302352299231
      ],
      [
        "expe",
        -9.783331714271304
      ],
      [
        "▁bow",
        -9.339169673929911
      ],
      [
        "▁bake",
        -9.58180832209959
      ],
      [
        "▁ord",
        -12.095388610198066
      ],
      [
        "▁centrali",
        -12.457933384372925
      ],
      [
        "▁conversation",
        -8.16653864933867
      ],
      [
        "tual",
        -7.506818670346741
      ],
      [
        "n",
        -5.486893563346862
      ],
      [
        "▁a",
        -5.967256489737387
      ],
      [
        "▁ev",
        -8.426293831337182
      ],
      [
        "▁rebuil",
        -12.326106616136915
      ],
      [
        "▁..........",
        -12.830818015419348
      ],
      [
        "▁vapo",
        -12.798584133353703
      ],
      [
        "ayoff",
        -11.900927846813179
      ],
      [
        "broke",
        -12.495020631055036
      ],
      [
        "ve",
        -4.657267170543397
      ],
      [
        "▁archive",
        -10.696024153041762
      ],
      [
        "▁reha",
        -12.011551954621092
      ],
      [
        "gree",
        -11.701713950007028
      ],
      [
        "onde",
        -12.462393078084517
      ],
      [
        "▁declare",
        -8.58821911898314
      ],
      [
        "tape",
        -11.041707927779205
      ],
      [
        "fall",
        -10.380079650271687
      ],
      [
        "flower",
        -10.48145491377042
      ],
      [
        "▁muss",
        -12.261868927477838
      ],
      [
        "▁hol",
        -10.48713402676507
      ],
      [
        "▁trad",
        -10.855223293350779
      ],
      [
        "▁new",
        -11.465991543150803
      ],
      [
        "msel",
        -8.064757822162456
      ],
      [
        "▁kidnapp",
        -10.958726178160614
      ],
      [
        "rent",
        -9.213600623642177
      ],
      [
        "til",
        -7.784555654766264
      ],
      [
        "▁rank",
        -9.576864093643009
      ],
      [
        "▁snak",
        -12.59078342367417
      ],
      [
        "▁foli",
        -11.620060556167937
      ],
      [
        "lleg",
        -9.642426920353603
      ],
      [
        "▁ingredient",
        -9.042653629100036
      ],
      [
        "▁cool",
        -7.446992243631039
      ],
      [
        "here",
        -5.7267247990743835
      ],
      [
        "▁need",
        -4.9754309386742674
      ],
      [
        "▁mole",
        -10.64805368578658
      ],
      [
        "teur",
        -11.092693942348484
      ],
      [
        "▁mass",
        -8.732274128229438
      ],
      [
        "▁spiral",
        -11.458777107004735
      ],
      [
        "[CLS]",
        0.0
      ],
      [
        "▁navigat",
        -12.045782792871076
      ],
      [
        "▁approval",
        -9.085958991536206
      ],
      [
        "-war",
        -11.899617463192248
      ],
      [
        "▁california",
        -7.008845010886844
      ],
      [
        "jective",
        -12.773837504325275
      ],
      [
        "▁consume",
        -9.570369821399881
      ],
      [
        "▁vessel",
        -9.67235240127594
      ],
      [
        "gar",
        -10.02430443526572
      ],
      [
        "▁tha",
        -10.86236937007242
      ],
      [
        "▁j",
        -9.265827567971623
      ],
      [
        "▁saving",
        -9.94841198858912
      ],
      [
        "▁varie",
        -9.44308354851523
      ],
      [
        "▁vac",
        -12.70738834070751
      ],
      [
        "▁label",
        -9.849402403090842
      ],
      [
        "tiona",
        -8.235513430961776
      ],
      [
        "ladder",
        -10.862065103719518
      ],
      [
        "▁rim",
        -12.349381693124352
      ],
      [
        "▁resolve",
        -9.642685334669686
      ],
      [
        "▁env",
        -11.488182132418682
      ],
      [
        ".",
        -5.9479447200951965
      ],
      [
        "▁stone",
        -8.864242688939608
      ],
      [
        "▁profile",
        -9.756268150149182
      ],
      [
        "'t",
        -11.956910442027295
      ],
      [
        "▁newspaper",
        -8.474831834522206
      ],
      [
        "ion",
        -7.363737488373702
      ],
      [
        "bedien",
        -11.433691521387365
      ],
      [
        "▁bobb",
        -11.45925806723834
      ],
      [
        "teenth",
        -12.790003094093924
      ],
      [
        "rench",
        -7.337084724346421
      ],
      [
        "▁crowd",
        -8.922752956175966
      ],
      [
        "▁yoursel",
        -11.298076311955574
      ],
      [
        "▁margari",
        -11.773926636733748
      ],
      [
        "paint",
        -12.551267659402473
      ],
      [
        "utilize",
        -10.625463411992387
      ],
      [
        "nishment",
        -11.934120925171475
      ],
      [
        "▁ha",
        -7.686680376696135
      ],
      [
        "▁germinat",
        -11.458839699644116
      ],
      [
        "how",
        -6.8343150304575
      ],
      [
        "breed",
        -12.247430085353976
      ],
      [
        "shock",
        -11.210737578569136
      ],
      [
        "metal",
        -12.389754639605174
      ],
      [
        "box",
        -9.953703905533507
      ],
      [
        "▁rat",
        -8.197304579622816
      ],
      [
        "▁arm",
        -8.226424566562017
      ],
      [
        "▁cook",
        -7.633903245864477
      ],
      [
        "▁sound",
        -7.578300442165294
      ],
      [
        "cialize",
        -11.919731668974407
      ],
      [
        "▁recess",
        -12.18643142590539
      ],
      [
        "▁tables",
        -9.644720740298895
      ],
      [
        "▁rag",
        -11.652246509335459
      ],
      [
        "ilit",
        -11.793986143500675
      ],
      [
        "▁stu",
        -7.8063665800430275
      ],
      [
        "scape",
        -12.00401158010463
      ],
      [
        "▁batte",
        -10.931811951172309
      ],
      [
        "currenc",
        -11.242727624346818
      ],
      [
        "inti",
        -12.724935062040647
      ],
      [
        "▁ruin",
        -9.946334420690988
      ],
      [
        "▁stray",
        -11.461187654433697
      ],
      [
        "reju",
        -12.561761909903082
      ],
      [
        "▁requirement",
        -8.148900803841759
      ],
      [
        "wi",
        -8.362087501052017
      ],
      [
        "ple",
        -11.125222066321479
      ],
      [
        "balanc",
        -11.231409541198657
      ],
      [
        "a",
        -4.130361687978229
      ],
      [
        "▁generat",
        -9.778603541877125
      ],
      [
        "▁mumm",
        -8.308236560832473
      ],
      [
        "shire",
        -8.824234239091167
      ],
      [
        "▁handle",
        -8.361116241446648
      ],
      [
        "▁lamp",
        -9.85523904916291
      ],
      [
        "to",
        -7.034425037071648
      ],
      [
        "▁calm",
        -8.503779563561382
      ],
      [
        "▁wil",
        -7.499379054981185
      ],
      [
        "▁gu",
        -12.56222665739358
      ],
      [
        "ks",
        -11.38078317497385
      ],
      [
        "▁ba",
        -8.420061631058005
      ],
      [
        "▁interest",
        -7.287781118285221
      ],
      [
        "▁smug",
        -12.774481981543554
      ],
      [
        "▁cropp",
        -10.960789094767643
      ],
      [
        "▁5",
        -4.72417599646302
      ],
      [
        "▁extra",
        -7.540099437940393
      ],
      [
        "▁height",
        -9.396648032097618
      ],
      [
        "se",
        -9.772779987905816
      ],
      [
        "list",
        -10.205038939263645
      ],
      [
        "▁repos",
        -12.039645112077848
      ],
      [
        "▁smi",
        -12.455926901947953
      ],
      [
        "▁we",
        -8.206342723049602
      ],
      [
        "▁je",
        -8.382911921986594
      ],
      [
        "▁i",
        -10.479643150831814
      ],
      [
        "`",
        -11.770631529841472
      ],
      [
        "▁overload",
        -11.45884338137545
      ],
      [
        "▁bump",
        -10.056726153633488
      ],
      [
        "velo",
        -10.906757534306175
      ],
      [
        "▁spoil",
        -10.626059361372155
      ],
      [
        "▁impede",
        -10.99022529595463
      ],
      [
        "▁dove",
        -10.955864307067591
      ],
      [
        "▁favor",
        -7.406009021840105
      ],
      [
        "▁application",
        -7.764160325483211
      ],
      [
        "▁favourite",
        -11.774067342580615
      ],
      [
        "sis",
        -12.33362332752501
      ],
      [
        "▁perpetuate",
        -11.45872856457169
      ],
      [
        "cho",
        -12.59511705036341
      ],
      [
        "▁censor",
        -10.375392531818095
      ],
      [
        "▁here",
        -4.079579998525942
      ],
      [
        "▁tr",
        -10.93430946495939
      ],
      [
        "mber",
        -12.998691490710932
      ],
      [
        "▁wand",
        -9.755235062880187
      ],
      [
        "▁lb",
        -10.049595650972275
      ],
      [
        "ult",
        -8.881242005085936
      ],
      [
        "▁astronomer",
        -11.277677621589811
      ],
      [
        "▁spell",
        -9.134634042975526
      ],
      [
        "▁setup",
        -9.946746747419258
      ],
      [
        "c",
        -5.089017709022673
      ],
      [
        "▁sink",
        -9.14696015504483
      ],
      [
        "rick",
        -11.28758224537978
      ],
      [
        "▁finaliz",
        -10.632792941184837
      ],
      [
        "▁squeal",
        -10.940095678174995
      ],
      [
        "ny",
        -8.961470442677221
      ],
      [
        "credit",
        -12.41133100103179
      ],
      [
        "▁kn",
        -10.370620844843758
      ],
      [
        "▁developi",
        -12.44940059768799
      ],
      [
        "w",
        -11.841782454984505
      ],
      [
        "▁tanker",
        -10.224391501812118
      ],
      [
        "bio",
        -10.9410428808823
      ],
      [
        "▁dee",
        -11.558243070559435
      ],
      [
        "▁subsidi",
        -11.767471685286985
      ],
      [
        "▁kn",
        -10.925516565317587
      ],
      [
        "ory",
        -11.45114824394768
      ],
      [
        "erv",
        -8.185324989543384
      ],
      [
        "▁fold",
        -9.962316045606551
      ],
      [
        "▁impress",
        -9.443579547563832
      ],
      [
        "fresh",
        -12.618982660141056
      ],
      [
        "▁son",
        -7.977283129869918
      ],
      [
        "▁revitali",
        -11.782476799585332
      ],
      [
        "act",
        -10.680303424290246
      ],
      [
        "▁creature",
        -9.846563628454726
      ],
      [
        "other",
        -7.551296391859834
      ],
      [
        "nize",
        -12.22417180330408
      ],
      [
        "▁fr",
        -9.178475421506082
      ],
      [
        "▁alleg",
        -11.774789623181194
      ],
      [
        "▁pron",
        -10.546664191799444
      ],
      [
        "▁briefcase",
        -10.940322223103664
      ],
      [
        "▁payer",
        -11.075806483951132
      ],
      [
        "fundi",
        -11.909291367702561
      ],
      [
        "▁hul",
        -11.287321523285003
      ],
      [
        "▁casse",
        -11.446420468990688
      ],
      [
        "▁urin",
        -10.394376711181991
      ],
      [
        "▁clam",
        -11.64637734758631
      ],
      [
        "▁diver",
        -12.471536701573099
      ],
      [
        "▁gram",
        -10.758391127624332
      ],
      [
        "▁function",
        -8.646029726182327
      ],
      [
        "▁ta",
        -7.870359405251639
      ],
      [
        "▁c",
        -10.380640146314105
      ],
      [
        "▁gulp",
        -11.458803442655284
      ],
      [
        "▁tende",
        -11.786423736811766
      ],
      [
        "▁armature",
        -11.77878431582819
      ],
      [
        "▁neu",
        -11.912237649069006
      ],
      [
        "t",
        -4.296542088812356
      ],
      [
        "▁uncle",
        -8.575485046568254
      ],
      [
        "▁erect",
        -10.625758497566927
      ],
      [
        "ced",
        -8.279326456157447
      ],
      [
        "▁safe",
        -8.102997644649717
      ],
      [
        "▁twist",
        -9.603900525284322
      ],
      [
        "▁minimiz",
        -10.95907359392936
      ],
      [
        "respond",
        -13.37447453084416
      ],
      [
        "▁tasting",
        -10.325065481125854
      ],
      [
        "▁addi",
        -7.638614242434942
      ],
      [
        "▁dig",
        -7.768620976451955
      ],
      [
        "▁sack",
        -12.112345530577002
      ],
      [
        "▁beer",
        -8.70435365843826
      ],
      [
        "rit",
        -9.236481563490631
      ],
      [
        "▁petunia",
        -8.817908409057184
      ],
      [
        "▁spark",
        -10.498949559249123
      ],
      [
        "▁found",
        -8.773743516303433
      ],
      [
        "trial",
        -12.285601589460505
      ],
      [
        "▁1",
        -10.310817735385482
      ],
      [
        "▁sunday",
        -7.402835553955805
      ],
      [
        "▁flick",
        -11.01812710914472
      ],
      [
        "▁mustach",
        -12.711747081981086
      ],
      [
        "▁wizard",
        -9.228625535426493
      ],
      [
        "▁bos",
        -6.975922854039541
      ],
      [
        "▁participa",
        -9.000811245195026
      ],
      [
        "▁gam",
        -10.337262284830139
      ],
      [
        "▁appro",
        -10.037278287844646
      ],
      [
        "▁cash",
        -8.410967071348512
      ],
      [
        "▁employ",
        -8.846389778995292
      ],
      [
        "▁boo",
        -10.065877710819345
      ],
      [
        "▁venture",
        -10.231979618466998
      ],
      [
        "lf",
        -11.199065031434
      ],
      [
        "▁reconcili",
        -9.524530611075939
      ],
      [
        "ar",
        -8.992498660980536
      ],
      [
        ".p",
        -9.962417490258542
      ],
      [
        "▁hig",
        -8.658204806111069
      ],
      [
        "tor",
        -12.484019335357505
      ],
      [
        "▁cle",
        -7.327974443364051
      ],
      [
        "▁fishe",
        -10.983579944757892
      ],
      [
        "▁pers",
        -11.636574970602013
      ],
      [
        "it",
        -7.725689044960996
      ],
      [
        "▁torrent",
        -11.773309323209226
      ],
      [
        "▁bobo",
        -8.699255251545013
      ],
      [
        "vious",
        -12.782769503009398
      ],
      [
        "▁div",
        -10.721929211675489
      ],
      [
        "▁sub",
        -9.659288312934274
      ],
      [
        "▁scrape",
        -10.115874190852734
      ],
      [
        "▁insert",
        -10.175394578197603
      ],
      [
        "▁rec",
        -7.0072767537993075
      ],
      [
        "unk",
        -12.638987039581604
      ],
      [
        "▁tra",
        -9.149014187201788
      ],
      [
        "▁access",
        -9.360592997055347
      ],
      [
        "▁crushe",
        -10.479608123907656
      ],
      [
        "▁tan",
        -12.39846807720389
      ],
      [
        "sa",
        -11.322730172469772
      ],
      [
        "▁aud",
        -11.87977385011548
      ],
      [
        "etic",
        -7.70145686085319
      ],
      [
        "▁indi",
        -9.657665884150525
      ],
      [
        "▁affect",
        -7.947152464864956
      ],
      [
        "▁cry",
        -8.09243984520767
      ],
      [
        "▁alr",
        -8.353446800509932
      ],
      [
        "▁invad",
        -11.088857959479437
      ],
      [
        "▁young",
        -6.413958168445247
      ],
      [
        "▁ip",
        -8.338626428926949
      ],
      [
        "cup",
        -11.247449447933134
      ],
      [
        "▁wel",
        -5.239750120745514
      ],
      [
        "▁she",
        -8.874428171868672
      ],
      [
        "p",
        -6.3265717530164025
      ],
      [
        "▁wif",
        -7.403964771298578
      ],
      [
        "wallow",
        -13.049982851821623
      ],
      [
        "eave",
        -12.135336417050318
      ],
      [
        "cade",
        -11.596549339733526
      ],
      [
        "▁cho",
        -8.86901696584468
      ],
      [
        "▁temptation",
        -10.490005258156176
      ],
      [
        "accept",
        -13.088952057938531
      ],
      [
        "▁don",
        -8.50084933823956
      ],
      [
        "strophe",
        -11.880779215604168
      ],
      [
        "▁pet",
        -8.397488593363303
      ],
      [
        "▁president",
        -7.414806105559046
      ],
      [
        "30",
        -6.555718143802548
      ],
      [
        "▁prepayment",
        -11.273546952938595
      ],
      [
        "fusion",
        -9.375442601799302
      ],
      [
        "dr.",
        -7.45858248707449
      ],
      [
        "▁ban",
        -10.428852256605357
      ],
      [
        "▁revers",
        -10.315604921411614
      ],
      [
        "until",
        -9.092093599441547
      ],
      [
        "▁reservation",
        -9.402879539143246
      ],
      [
        "oo",
        -10.17104285961209
      ],
      [
        "▁repo",
        -12.474366524925632
      ],
      [
        "und",
        -6.2572005688377095
      ],
      [
        "▁just",
        -8.903929971191891
      ],
      [
        "▁dec",
        -7.553317938997741
      ],
      [
        "▁cripple",
        -11.45896504318915
      ],
      [
        "atic",
        -8.682824045030863
      ],
      [
        "per",
        -9.697416804939591
      ],
      [
        "▁bri",
        -7.255424553734033
      ],
      [
        "alem",
        -8.645398494897476
      ],
      [
        "▁magn",
        -10.813882209138482
      ],
      [
        "▁industrialist",
        -10.939967269786003
      ],
      [
        "▁inte",
        -11.70999674799584
      ],
      [
        "real",
        -10.839548383867031
      ],
      [
        "▁aid",
        -12.622523239316408
      ],
      [
        "▁wentz",
        -8.522029225660734
      ],
      [
        "▁&",
        -7.590436870188816
      ],
      [
        "▁pois",
        -11.070801805211996
      ],
      [
        "4",
        -12.653795411026692
      ],
      [
        "▁standardi",
        -10.959097431087734
      ],
      [
        "st",
        -4.586035877960723
      ],
      [
        "▁sock",
        -9.663083684811776
      ],
      [
        "▁sir",
        -9.700521743921463
      ],
      [
        "citation",
        -11.969184908618628
      ],
      [
        "▁kno",
        -12.253650942670747
      ],
      [
        "▁micro",
        -8.07431796304851
      ],
      [
        "oena",
        -11.290414901956236
      ],
      [
        "▁bye",
        -9.123401722140029
      ],
      [
        "ro",
        -11.2202639666164
      ],
      [
        "▁developer",
        -9.595757923429725
      ],
      [
        "o",
        -3.5173493339713584
      ],
      [
        "▁approx",
        -8.091803092171334
      ],
      [
        "▁sprout",
        -10.180404696224015
      ],
      [
        "cas",
        -11.932902395105252
      ],
      [
        "▁backpack",
        -10.180493727241366
      ],
      [
        "▁groan",
        -11.78051218033084
      ],
      [
        "▁resort",
        -10.958984321094622
      ],
      [
        "▁auto",
        -9.467524732364067
      ],
      [
        "▁tramp",
        -11.77712005235705
      ],
      [
        "▁guess",
        -7.080943056021663
      ],
      [
        "cargill",
        -8.520483983598021
      ],
      [
        "▁visi",
        -12.671778468589476
      ],
      [
        "▁hop",
        -9.196908107766554
      ],
      [
        "ower",
        -12.333753802251586
      ],
      [
        "▁individual",
        -8.102255875311638
      ],
      [
        "▁plag",
        -13.511597157029575
      ],
      [
        "▁instance",
        -8.689607682387404
      ],
      [
        "▁reco",
        -11.924224303209021
      ],
      [
        "e-g",
        -12.589714381657316
      ],
      [
        "elong",
        -12.572602706219062
      ],
      [
        "rup",
        -9.988314415214312
      ],
      [
        "▁ph.",
        -11.281989900072375
      ],
      [
        "▁sport",
        -11.507621853077076
      ],
      [
        "▁skat",
        -11.597937283101178
      ],
      [
        "▁travel",
        -8.403827925793596
      ],
      [
        "team",
        -12.119869240197074
      ],
      [
        "▁smil",
        -9.379714844081331
      ],
      [
        "ing",
        -2.512639074192263
      ],
      [
        "▁orientation",
        -9.957928422466777
      ],
      [
        "vacu",
        -10.061146267605958
      ],
      [
        "▁mountain",
        -8.278648658838396
      ],
      [
        "▁agenc",
        -8.966840024233248
      ],
      [
        "▁194",
        -7.162299874896345
      ],
      [
        "▁curl",
        -10.433978993793176
      ],
      [
        "▁de",
        -12.371289160620995
      ],
      [
        "▁dualit",
        -11.777163450961728
      ],
      [
        "tastic",
        -7.836222454254486
      ],
      [
        "▁burner",
        -11.277288738371773
      ],
      [
        "▁collect",
        -7.953103109768135
      ],
      [
        "▁s&",
        -11.827302935919548
      ],
      [
        "▁plac",
        -11.950078563978877
      ],
      [
        "▁brows",
        -10.640354212315016
      ],
      [
        "▁2",
        -4.236268747166906
      ],
      [
        "▁yield",
        -10.055587670713962
      ],
      [
        "▁over-",
        -11.780491533062088
      ],
      [
        "▁weak",
        -8.65990126974428
      ],
      [
        "▁policem",
        -12.451139787409815
      ],
      [
        "unn",
        -12.80439418136995
      ],
      [
        "▁plate",
        -8.45662093362909
      ],
      [
        "abb",
        -11.709150505837615
      ],
      [
        "▁ray",
        -9.43675196358463
      ],
      [
        "unkie",
        -11.850074378877537
      ],
      [
        "'",
        -6.595685338835673
      ],
      [
        "▁rodent",
        -10.940102079811407
      ],
      [
        "▁plat",
        -11.923703433550228
      ],
      [
        "thought",
        -12.089246573508381
      ],
      [
        "▁for",
        -3.676327704226436
      ],
      [
        "typic",
        -8.429230465170226
      ],
      [
        "▁patien",
        -9.645623644007173
      ],
      [
        "▁bec",
        -7.4976419712532465
      ],
      [
        "▁arr",
        -12.210178088974233
      ],
      [
        "▁expe",
        -10.29727691418903
      ],
      [
        "▁introduc",
        -9.281475121368487
      ],
      [
        "▁hon",
        -12.027403339765764
      ],
      [
        "▁llm",
        -9.950875826317219
      ],
      [
        "▁enter",
        -7.664202702451771
      ],
      [
        "ur",
        -7.36540612252362
      ],
      [
        "▁da",
        -11.509576907405616
      ],
      [
        "_",
        -4.735940816345124
      ],
      [
        "consumers",
        -11.046714322324094
      ],
      [
        "▁1,",
        -7.575071215317383
      ],
      [
        "▁respond",
        -8.077348590338405
      ],
      [
        "▁app",
        -11.797266152471385
      ],
      [
        "▁augment",
        -10.375393417984494
      ],
      [
        "▁paddistocksh",
        -10.939905104503351
      ],
      [
        "iday",
        -11.310764414540772
      ],
      [
        "▁sh",
        -9.731195872392286
      ],
      [
        "40",
        -11.085695331253563
      ],
      [
        "test",
        -12.18380420244228
      ],
      [
        "▁th",
        -6.672497760393618
      ],
      [
        "▁disabilit",
        -9.67445379532555
      ],
      [
        "her",
        -5.452626015079912
      ],
      [
        "get",
        -10.22512405160739
      ],
      [
        "▁ideal",
        -10.84458086298723
      ],
      [
        "▁high-",
        -11.775753422624973
      ],
      [
        "▁termina",
        -12.556686281368098
      ],
      [
        "som",
        -12.718045653824428
      ],
      [
        "▁acquis",
        -10.114356730570051
      ],
      [
        "▁197",
        -6.181383886766783
      ],
      [
        "▁roam",
        -10.378747183888766
      ],
      [
        "▁bodi",
        -9.351309241767684
      ],
      [
        "▁crust",
        -10.724646995629792
      ],
      [
        "▁do",
        -3.6858831645663166
      ],
      [
        "▁refresh",
        -10.375392792310329
      ],
      [
        "▁chatter",
        -11.778634222145273
      ],
      [
        "▁du",
        -6.791389539449149
      ],
      [
        "▁transi",
        -11.339111151919385
      ],
      [
        "▁niece",
        -10.489988279265123
      ],
      [
        "▁greg",
        -8.804930699624865
      ],
      [
        "▁invita",
        -12.779531189630527
      ],
      [
        "paren",
        -10.455123021721956
      ],
      [
        "oth",
        -9.503413161983584
      ],
      [
        "▁resource",
        -8.261327467282946
      ],
      [
        "▁supersed",
        -9.869360950619363
      ],
      [
        "▁pit",
        -10.890067827635743
      ],
      [
        "▁settler",
        -9.525733279784951
      ],
      [
        "▁filter",
[...]
