{
  "version": "1.0",
  "truncation": null,
  "padding": null,
  "added_tokens": [
    {
      "id": 2713,
      "content": "[PAD]",
      "single_word": false,
      "lstrip": false,
      "rstrip": false,
      "normalized": false,
      "special": true
    },
    {
      "id": 3060,
      "content": "[UNK]",
      "single_word": false,
      "lstrip": false,
      "rstrip": false,
      "normalized": false,
      "special": true
    },
    {
      "id": 3269,
      "content": "[SEP]",
      "single_word": false,
      "lstrip": false,
      "rstrip": false,
      "normalized": false,
      "special": true
    },
    {
      "id": 5323,
      "content": "[CLS]",
      "single_word": false,
      "lstrip": false,
      "rstrip": false,
      "normalized": false,
      "special": true
    },
    {
      "id": 6609,
      "content": "[MASK]",
      "single_word": false,
      "lstrip": false,
      "rstrip": false,
      "normalized": false,
      "special": true
    }
  ],
  "normalizer": {
    "type": "Sequence",
    "normalizers": [
      {
        "type": "NFD"
      },
      {
        "type": "Lowercase"
      },
      {
        "type": "StripAccents"
      }
    ]
  },
  "pre_tokenizer": {
    "type": "Sequence",
    "pretokenizers": [
      {
        "type": "Metaspace",
        "replacement": "▁",
        "prepend_scheme": "always",
        "split": true
      }
    ]
  },
  "post_processor": {
    "type": "TemplateProcessing",
    "single": [
      {
        "SpecialToken": {
          "id": "[CLS]",
          "type_id": 0
        }
      },
      {
        "Sequence": {
          "id": "A",
          "type_id": 0
        }
      },
      {
        "SpecialToken": {
          "id": "[SEP]",
          "type_id": 0
        }
      }
    ],
    "pair": [
      {
        "SpecialToken": {
          "id": "[CLS]",
          "type_id": 0
        }
      },
      {
        "Sequence": {
          "id": "A",
          "type_id": 0
        }
      },
      {
        "SpecialToken": {
          "id": "[SEP]",
          "type_id": 0
        }
      },
      {
        "Sequence": {
          "id": "B",
          "type_id": 1
        }
      },
      {
        "SpecialToken": {
          "id": "[SEP]",
          "type_id": 1
        }
      }
    ],
    "special_tokens": {
      "[CLS]": {
        "id": "[CLS]",
        "ids": [
          5323
        ],
        "tokens": [
          "[CLS]"
        ]
      },
      "[SEP]": {
        "id": "[SEP]",
        "ids": [
          3269
        ],
        "tokens": [
          "[SEP]"
        ]
      }
    }
  },
  "decoder": {
    "type": "Metaspace",
    "replacement": "▁",
    "prepend_scheme": "always",
    "split": true
  },
  "model": {
    "type": "BPE",
    "dropout": null,
    "unk_token": "[UNK]",
    "continuing_subword_prefix": null,
    "end_of_word_suffix": null,
    "fuse_unk": false,
    "byte_fallback": false,
    "ignore_merges": false,
    "vocab": {
      "apolis": 0,
      "▁imple": 1,
      "▁rapporte": 2,
      "▁pri": 3,
      "▁exchang": 4,
      "▁shape": 5,
      "▁calc": 6,
      "▁inequ": 7,
      "▁meals": 8,
      "▁doctors": 9,
      "urop": 10,
      "▁cartoons": 11,
      "▁relax": 12,
      "ler": 13,
      "ads": 14,
      "▁names": 15,
      "▁headed": 16,
      "oc": 17,
      "isco": 18,
      "erating": 19,
      "▁math": 20,
      "▁stuck": 21,
      "▁against": 22,
      "▁mich": 23,
      "▁becomes": 24,
      "▁great": 25,
      "▁least": 26,
      "eted": 27,
      "▁discount": 28,
      "▁fee": 29,
      "kers": 30,
      "▁players": 31,
      "▁describing": 32,
      "!!!": 33,
      "▁expansion": 34,
      "encies": 35,
      "ective": 36,
      "▁young": 37,
      "▁corn": 38,
      "pp": 39,
      "nia": 40,
      "alsa": 41,
      "▁plane": 42,
      "------------": 43,
      "▁defeated": 44,
      "▁had": 45,
      "▁susp": 46,
      "▁leaders": 47,
      "▁guid": 48,
      "▁uniform": 49,
      "▁clinics": 50,
      "ract": 51,
      "▁apprec": 52,
      "▁ag": 53,
      "ization": 54,
      "▁responsibility": 55,
      "▁influenced": 56,
      "▁modified": 57,
      "▁squeeze": 58,
      "▁chicken": 59,
      "▁letting": 60,
      "ince": 61,
      "▁paul": 62,
      "▁format": 63,
      "▁nov": 64,
      "ly": 65,
      "▁last": 66,
      "▁visit": 67,
      "▁shut": 68,
      "ru": 69,
      "oked": 70,
      "▁presents": 71,
      "▁mike": 72,
      "ps": 73,
      "▁she": 74,
      "loyed": 75,
      "▁hamb": 76,
      "▁origin": 77,
      "▁techniqu": 78,
      "▁confirmed": 79,
      "▁again": 80,
      "▁told": 81,
      "▁oc": 82,
      "▁papers": 83,
      "iency": 84,
      "▁struck": 85,
      "▁tack": 86,
      "▁hi": 87,
      "▁****": 88,
      "▁dis": 89,
      "▁seesaw": 90,
      "▁charged": 91,
      "ns": 92,
      "▁conse": 93,
      "▁containers": 94,
      "▁believes": 95,
      "▁pit": 96,
      "▁continued": 97,
      "ained": 98,
      "llow": 99,
      "▁nobody": 100,
      "▁manner": 101,
      "r": 102,
      "ager": 103,
      "▁whil": 104,
      "▁pup": 105,
      "▁bell": 106,
      "lions": 107,
      "▁substance": 108,
      "▁official": 109,
      "▁involved": 110,
      "▁recr": 111,
      "▁wilt": 112,
      "▁file": 113,
      "▁driving": 114,
      "▁chall": 115,
      "▁garden": 116,
      "▁not": 117,
      "vel": 118,
      "▁tha": 119,
      "lled": 120,
      "ue": 121,
      "▁withdraw": 122,
      "▁lin": 123,
      "▁organiz": 124,
      "▁laugh": 125,
      "▁straw": 126,
      "▁)": 127,
      "rism": 128,
      "band": 129,
      "▁them": 130,
      "▁ex": 131,
      "▁dishes": 132,
      "forcement": 133,
      "▁.!": 134,
      "anced": 135,
      "▁farm": 136,
      "▁interpret": 137,
      "▁rug": 138,
      "w": 139,
      "▁lip": 140,
      "▁fallen": 141,
      "ge": 142,
      "▁wondering": 143,
      "▁gas": 144,
      "▁fung": 145,
      "▁dough": 146,
      "▁lion": 147,
      "▁taxes": 148,
      "▁aim": 149,
      "▁chat": 150,
      "▁debate": 151,
      "▁rabbit": 152,
      "▁bringing": 153,
      "▁examine": 154,
      "▁hasid": 155,
      "▁batteries": 156,
      "ess": 157,
      "▁story": 158,
      "▁organ": 159,
      "form": 160,
      "cery": 161,
      "▁fa": 162,
      "ise": 163,
      "ways": 164,
      "um": 165,
      "ax": 166,
      "▁into": 167,
      "ocks": 168,
      "▁wh": 169,
      "▁case": 170,
      "▁phenom": 171,
      "▁broken": 172,
      "▁calend": 173,
      "fish": 174,
      "▁majority": 175,
      "ey": 176,
      "▁legend": 177,
      "▁=": 178,
      "▁accomplish": 179,
      "▁scenes": 180,
      "▁lear": 181,
      "▁foreign": 182,
      "urt": 183,
      "aws": 184,
      "▁activ": 185,
      "wh": 186,
      "tee": 187,
      "▁state": 188,
      "▁perhap": 189,
      "▁know": 190,
      "▁writing": 191,
      "▁tons": 192,
      "ately": 193,
      "▁flex": 194,
      "▁proc": 195,
      "▁listing": 196,
      "▁substances": 197,
      "▁psychology": 198,
      "▁ba": 199,
      "gin": 200,
      "▁achievements": 201,
      "▁drugs": 202,
      "uma": 203,
      "▁sh": 204,
      "ih": 205,
      "▁forget": 206,
      "acted": 207,
      "▁soccer": 208,
      "enti": 209,
      "▁chocol": 210,
      "xim": 211,
      "formed": 212,
      "▁joke": 213,
      "ounts": 214,
      "▁first": 215,
      "▁journals": 216,
      "♥": 217,
      "▁estate": 218,
      "▁sav": 219,
      "▁mechan": 220,
      "▁responsibilities": 221,
      "▁festival": 222,
      "▁bathroom": 223,
      "▁camel": 224,
      "atched": 225,
      "▁property": 226,
      "▁pockets": 227,
      "▁identi": 228,
      "▁clear": 229,
      "▁pledged": 230,
      "▁letters": 231,
      "zac": 232,
      "▁tre": 233,
      "▁all": 234,
      "▁ev": 235,
      "▁innov": 236,
      "▁memory": 237,
      "▁role": 238,
      "pping": 239,
      "lo": 240,
      "▁beer": 241,
      "▁january": 242,
      "▁cli": 243,
      "▁?????": 244,
      "▁talks": 245,
      "▁response": 246,
      "port": 247,
      "▁forgotten": 248,
      "▁spoke": 249,
      "▁am": 250,
      "▁become": 251,
      "▁believed": 252,
      "▁unem": 253,
      "▁standing": 254,
      "▁airline": 255,
      "inist": 256,
      "▁income": 257,
      "▁arrest": 258,
      "alt": 259,
      "▁cred": 260,
      "ace": 261,
      "▁foc": 262,
      "▁washing": 263,
      "▁foreigners": 264,
      "▁bul": 265,
      "▁surpr": 266,
      "▁rum": 267,
      "▁dere": 268,
      "ured": 269,
      "▁influ": 270,
      "▁invented": 271,
      "nding": 272,
      "▁lands": 273,
      "▁recording": 274,
      "▁participation": 275,
      "▁restrictions": 276,
      "ops": 277,
      "▁airl": 278,
      "▁queries": 279,
      "▁;": 280,
      "▁sheet": 281,
      "uce": 282,
      "▁cowboy": 283,
      "alization": 284,
      "▁compete": 285,
      "ο": 286,
      "ang": 287,
      "at": 288,
      "ach": 289,
      "▁seas": 290,
      "▁arti": 291,
      "▁magn": 292,
      "omed": 293,
      "▁access": 294,
      "▁tomato": 295,
      "▁sky": 296,
      "▁destroy": 297,
      "▁harmonisation": 298,
      "en": 299,
      "▁patterns": 300,
      "uggle": 301,
      "rol": 302,
      "▁n’t": 303,
      "▁del": 304,
      "▁color": 305,
      "ell": 306,
      "ature": 307,
      "▁lying": 308,
      "▁wizard": 309,
      "▁enter": 310,
      "otyp": 311,
      "▁california": 312,
      "ives": 313,
      "▁customers": 314,
      "▁suspect": 315,
      "▁tasted": 316,
      "ment": 317,
      "▁ways": 318,
      "au": 319,
      "▁court": 320,
      "▁third": 321,
      "▁talent": 322,
      "▁wear": 323,
      "▁figure": 324,
      "▁chim": 325,
      "▁sweater": 326,
      "ender": 327,
      "ball": 328,
      "▁special": 329,
      "▁refri": 330,
      "▁moves": 331,
      "▁winter": 332,
      "ial": 333,
      "▁pas": 334,
      "ne": 335,
      "▁adam": 336,
      "▁agencies": 337,
      "▁doll": 338,
      "▁some": 339,
      "▁licenses": 340,
      "▁takes": 341,
      "▁miam": 342,
      "ind": 343,
      "▁transit": 344,
      "▁leash": 345,
      "stit": 346,
      "▁draw": 347,
      "▁pony": 348,
      "▁regime": 349,
      "▁rush": 350,
      "▁blame": 351,
      "▁islands": 352,
      "▁ans": 353,
      "▁jumped": 354,
      "orter": 355,
      "▁kitt": 356,
      "▁update": 357,
      "▁appreciate": 358,
      "▁cookies": 359,
      "▁nephew": 360,
      "▁adult": 361,
      "▁allig": 362,
      "▁europe": 363,
      "▁arrival": 364,
      "▁facility": 365,
      "▁mist": 366,
      "▁roared": 367,
      "▁banana": 368,
      "▁data": 369,
      "ere": 370,
      "▁legs": 371,
      "▁changes": 372,
      "▁prev": 373,
      "▁doc": 374,
      "▁personal": 375,
      "▁threatened": 376,
      "▁its": 377,
      "▁objec": 378,
      "▁race": 379,
      "eak": 380,
      "tt": 381,
      "▁interpretation": 382,
      "ries": 383,
      "▁coff": 384,
      "ressing": 385,
      "▁nature": 386,
      "▁could": 387,
      "sus": 388,
      "▁tol": 389,
      "▁tem": 390,
      "▁outside": 391,
      "▁five": 392,
      "co": 393,
      "▁session": 394,
      "▁baseball": 395,
      "▁structures": 396,
      "▁meter": 397,
      "come": 398,
      "▁military": 399,
      "▁combination": 400,
      "▁dam": 401,
      "▁increasing": 402,
      "ε": 403,
      "▁rolling": 404,
      "tc": 405,
      "▁capture": 406,
      "▁build": 407,
      "▁posted": 408,
      "▁beliefs": 409,
      "▁aug": 410,
      "of": 411,
      "cle": 412,
      "▁poli": 413,
      "▁dancing": 414,
      "▁modify": 415,
      "▁art": 416,
      "arch": 417,
      "ime": 418,
      "▁proposals": 419,
      "ards": 420,
      "ellow": 421,
      "▁ripped": 422,
      "▁hiking": 423,
      "ril": 424,
      "▁handle": 425,
      "▁showed": 426,
      "▁defining": 427,
      "▁ps": 428,
      "▁gel": 429,
      "okes": 430,
      "▁addition": 431,
      "sing": 432,
      "▁positions": 433,
      "▁penc": 434,
      "▁permission": 435,
      "▁interested": 436,
      "▁isl": 437,
      "ishing": 438,
      "▁deter": 439,
      "▁needed": 440,
      "▁determine": 441,
      "▁cro": 442,
      "▁ladder": 443,
      "ay": 444,
      "▁breaking": 445,
      "ists": 446,
      "▁sym": 447,
      "▁poems": 448,
      "ough": 449,
      "▁incl": 450,
      "▁duty": 451,
      "▁gym": 452,
      "▁supp": 453,
      "▁invitation": 454,
      "▁pyram": 455,
      "▁reve": 456,
      "ver": 457,
      "▁---=": 458,
      "ayed": 459,
      "▁powder": 460,
      "gue": 461,
      "▁surge": 462,
      "dge": 463,
      "▁supper": 464,
      "▁individ": 465,
      "▁analy": 466,
      "iam": 467,
      "▁creating": 468,
      "▁identifying": 469,
      "owled": 470,
      "▁gall": 471,
      "uit": 472,
      "▁fash": 473,
      "▁fuel": 474,
      "ive": 475,
      "▁stopover": 476,
      "lem": 477,
      "▁belongs": 478,
      "urity": 479,
      "▁twenty": 480,
      "▁tech": 481,
      "gers": 482,
      "▁emer": 483,
      "oured": 484,
      "▁crack": 485,
      "▁concerns": 486,
      "▁past": 487,
      "▁fact": 488,
      "▁elect": 489,
      "▁inviting": 490,
      "▁dollie": 491,
      "▁comedy": 492,
      "▁fre": 493,
      "▁metal": 494,
      "▁cave": 495,
      "▁nonstop": 496,
      "▁mid": 497,
      "▁prison": 498,
      "ory": 499,
      "▁afford": 500,
      "▁equival": 501,
      "▁partnership": 502,
      "eor": 503,
      "pop": 504,
      "ys": 505,
      "▁mess": 506,
      "▁coll": 507,
      "usted": 508,
      "▁shame": 509,
      "▁ceiling": 510,
      "▁asyl": 511,
      "▁beyond": 512,
      "▁parake": 513,
      "▁courses": 514,
      "▁cri": 515,
      "▁talk": 516,
      "▁tac": 517,
      "operation": 518,
      "ient": 519,
      "▁command": 520,
      "aff": 521,
      "▁wrong": 522,
      "▁discover": 523,
      "▁match": 524,
      "#693": 525,
      "▁say": 526,
      "astic": 527,
      "▁invest": 528,
      "▁dinos": 529,
      "ʊ": 530,
      "res": 531,
      "▁airport": 532,
      "▁comments": 533,
      "ili": 534,
      "▁mystery": 535,
      "ond": 536,
      "▁inches": 537,
      "▁activities": 538,
      "▁vegetables": 539,
      "▁monkey": 540,
      "▁jury": 541,
      "▁roar": 542,
      "▁everything": 543,
      "▁puzzle": 544,
      "▁oppose": 545,
      "iz": 546,
      "tly": 547,
      "▁anticip": 548,
      "▁probably": 549,
      "▁sa": 550,
      "▁repa": 551,
      "▁a": 552,
      "▁value": 553,
      "kle": 554,
      "ide": 555,
      "▁mids": 556,
      "▁just": 557,
      "ruc": 558,
      "▁fol": 559,
      "▁rather": 560,
      "▁&": 561,
      "▁block": 562,
      "▁must": 563,
      "ation": 564,
      "▁persons": 565,
      "▁rope": 566,
      "▁oh": 567,
      "▁_______": 568,
      "▁involvement": 569,
      "orum": 570,
      "▁balzac": 571,
      "iration": 572,
      "▁controls": 573,
      "▁entities": 574,
      "▁display": 575,
      "teries": 576,
      "▁toes": 577,
      "▁prevail": 578,
      "▁ever": 579,
      "▁daily": 580,
      "▁behavior": 581,
      "▁collection": 582,
      "icking": 583,
      "▁jeans": 584,
      "▁bus": 585,
      "▁detective": 586,
      "▁q": 587,
      "orted": 588,
      "▁orig": 589,
      "▁provide": 590,
      "▁def": 591,
      ".com": 592,
      "ea": 593,
      "keep": 594,
      "▁cloth": 595,
      "▁hair": 596,
      "▁glow": 597,
      "▁forb": 598,
      "▁excellent": 599,
      "▁poin": 600,
      "bs": 601,
      "▁documents": 602,
      "▁gras": 603,
      "▁okay": 604,
      "▁decl": 605,
      "▁video": 606,
      "ults": 607,
      "▁licen": 608,
      "▁resear": 609,
      "▁?": 610,
      "▁profit": 611,
      "▁down": 612,
      "▁move": 613,
      "uro": 614,
      "has": 615,
      "▁denti": 616,
      "▁notion": 617,
      "▁strong": 618,
      "▁connected": 619,
      "▁entering": 620,
      "▁homeopath": 621,
      "▁18": 622,
      "▁once": 623,
      "▁finds": 624,
      "sent": 625,
      "▁woud": 626,
      "edness": 627,
      "als": 628,
      "▁ten": 629,
      "▁snow": 630,
      "eli": 631,
      "▁realized": 632,
      "▁fat": 633,
      "ter": 634,
      "aries": 635,
      "▁practices": 636,
      "▁appreciation": 637,
      "▁feedback": 638,
      "▁sand": 639,
      "istence": 640,
      "▁sk": 641,
      "▁17": 642,
      "▁guacamole": 643,
      "▁exh": 644,
      "rong": 645,
      "▁wil": 646,
      "▁campaign": 647,
      "▁kil": 648,
      "ilities": 649,
      "▁coincidence": 650,
      "▁12": 651,
      "▁comed": 652,
      "▁quar": 653,
      "▁ren": 654,
      "eled": 655,
      "▁sunlight": 656,
      "▁drawn": 657,
      "▁answers": 658,
      "ceed": 659,
      "▁tick": 660,
      "▁stirrup": 661,
      "++": 662,
      "00": 663,
      "▁scholars": 664,
      "▁regist": 665,
      "▁practice": 666,
      "▁sectors": 667,
      "▁penny": 668,
      "ribution": 669,
      "▁loc": 670,
      "▁heav": 671,
      "▁city": 672,
      "gy": 673,
      "inea": 674,
      "driver": 675,
      "uling": 676,
      "itled": 677,
      "▁quickly": 678,
      "struc": 679,
      "▁sor": 680,
      "ange": 681,
      "fo": 682,
      "▁firms": 683,
      "▁vol": 684,
      "▁bears": 685,
      "▁what": 686,
      "▁ignorance": 687,
      "▁'m": 688,
      "▁aircraft": 689,
      "▁har": 690,
      "▁farrier": 691,
      "▁divers": 692,
      "------->": 693,
      "▁leader": 694,
      "0": 695,
      "▁dar": 696,
      "educ": 697,
      "▁dreamed": 698,
      "▁esc": 699,
      "ument": 700,
      "▁sar": 701,
      "ping": 702,
      "▁gardens": 703,
      "▁struc": 704,
      "pa": 705,
      "▁h": 706,
      "iel": 707,
      "isms": 708,
      "▁lost": 709,
      "wi": 710,
      "ography": 711,
      "▁diaper": 712,
      "▁keeping": 713,
      "▁required": 714,
      "pre": 715,
      "▁unto": 716,
      "att": 717,
      "▁’’": 718,
      "▁sleeve": 719,
      "▁failure": 720,
      "▁grand": 721,
      "▁yellow": 722,
      "▁balloons": 723,
      "▁inter": 724,
      "ye": 725,
      "▁spea": 726,
      "▁wit": 727,
      "▁desk": 728,
      "▁responses": 729,
      "load": 730,
      "ression": 731,
      "▁characteristics": 732,
      "ade": 733,
      "8": 734,
      "▁tens": 735,
      "▁crayon": 736,
      "▁relation": 737,
      "ych": 738,
      "▁prosp": 739,
      "▁nav": 740,
      "▁negoti": 741,
      "▁199": 742,
      "▁fall": 743,
      "▁trained": 744,
      "▁t": 745,
      ".pd": 746,
      "▁allocated": 747,
      "▁family": 748,
      "osen": 749,
      "▁went": 750,
      "apers": 751,
      "2": 752,
      "▁methods": 753,
      "▁pyr": 754,
      "ully": 755,
      "”": 756,
      "▁organizations": 757,
      "▁program": 758,
      "▁although": 759,
      "not": 760,
      "▁amendments": 761,
      "▁cer": 762,
      "▁succeed": 763,
      "▁accommod": 764,
      "▁dies": 765,
      "attered": 766,
      "▁lord": 767,
      "▁santorum": 768,
      "▁tickets": 769,
      "tally": 770,
      "ises": 771,
      "vail": 772,
      "lent": 773,
      "▁assured": 774,
      "▁brooms": 775,
      "peare": 776,
      "▁itself": 777,
      "▁coc": 778,
      "▁major": 779,
      "▁civ": 780,
      "▁secret": 781,
      "▁newark": 782,
      "▁to": 783,
      "▁puts": 784,
      "▁rib": 785,
      "▁tic": 786,
      "essions": 787,
      "▁real": 788,
      "▁gdp": 789,
      "illed": 790,
      "▁weekday": 791,
      "igg": 792,
      "▁east": 793,
      "▁shore": 794,
      "▁prosperity": 795,
      "▁jelly": 796,
      "▁cheese": 797,
      "▁independence": 798,
      "▁bean": 799,
      "▁thy": 800,
      "▁reduced": 801,
      "▁estimated": 802,
      "pathy": 803,
      "▁expense": 804,
      "▁knee": 805,
      "▁can": 806,
      "▁childhood": 807,
      "ensity": 808,
      "▁doing": 809,
      "▁warning": 810,
      "▁determ": 811,
      "▁asc": 812,
      "▁strain": 813,
      "ours": 814,
      "bre": 815,
      "egr": 816,
      "unction": 817,
      "▁recorder": 818,
      "▁pie": 819,
      "ild": 820,
      "▁treat": 821,
      "▁language": 822,
      "▁football": 823,
      "▁despite": 824,
      "▁priv": 825,
      "??": 826,
      "▁died": 827,
      "▁dealer": 828,
      "▁---": 829,
      "▁winds": 830,
      "ean": 831,
      "▁oil": 832,
      "▁scissors": 833,
      "▁three": 834,
      "▁faces": 835,
      "owl": 836,
      "▁shirts": 837,
      "▁poverty": 838,
      "▁islam": 839,
      "▁pray": 840,
      "[": 841,
      "▁ship": 842,
      "▁cabin": 843,
      "▁rights": 844,
      "▁wal": 845,
      "▁danger": 846,
      "▁editor": 847,
      "▁suggests": 848,
      "▁sun": 849,
      "<": 850,
      "as": 851,
      "▁horn": 852,
      "ject": 853,
      "▁s’": 854,
      "▁concluded": 855,
      "▁landed": 856,
      "▁horror": 857,
      "▁fig": 858,
      "▁alco": 859,
      "mented": 860,
      "0s": 861,
      "▁mind": 862,
      "ease": 863,
      "▁yesterday": 864,
      "▁recognized": 865,
      "▁mr.": 866,
      "▁murder": 867,
      "▁departure": 868,
      "▁licensor": 869,
      "rous": 870,
      "▁notebook": 871,
      "▁reduce": 872,
      "▁posts": 873,
      "▁tex": 874,
      "itting": 875,
      "▁perio": 876,
      "▁oakland": 877,
      "▁partner": 878,
      "▁sme": 879,
      "▁people": 880,
      "▁cleaning": 881,
      "▁confir": 882,
      "ticip": 883,
      "ooks": 884,
      "▁hospital": 885,
      "▁cere": 886,
      "▁pat": 887,
      "▁respon": 888,
      "▁happened": 889,
      "▁series": 890,
      "▁robo": 891,
      "▁samples": 892,
      "▁tummy": 893,
      "▁spe": 894,
      "anim": 895,
      "▁priority": 896,
      "▁blood": 897,
      "▁smoke": 898,
      "▁introduce": 899,
      "▁ourselves": 900,
      "▁swa": 901,
      "▁cult": 902,
      "▁roman": 903,
      "▁fail": 904,
      "▁concer": 905,
      "▁relationships": 906,
      "▁hard": 907,
      "▁restriction": 908,
      "▁proof": 909,
      "nch": 910,
      "▁represents": 911,
      "▁landing": 912,
      "▁near": 913,
      "▁captured": 914,
      "▁mr": 915,
      "boat": 916,
      "▁ol": 917,
      "timate": 918,
      "▁shopping": 919,
      "ano": 920,
      "ocked": 921,
      "▁forth": 922,
      "▁current": 923,
      "chie": 924,
      "▁groups": 925,
      "▁categ": 926,
      "▁buildings": 927,
      "▁quinn": 928,
      ".m": 929,
      "▁civili": 930,
      "▁inv": 931,
      "▁ask": 932,
      "ork": 933,
      "▁dan": 934,
      "plan": 935,
      "▁delta": 936,
      "ot": 937,
      "laim": 938,
      "▁aud": 939,
      "▁hay": 940,
      "▁server": 941,
      "ipping": 942,
      "▁sit": 943,
      "▁magazine": 944,
      "▁occur": 945,
      "▁claims": 946,
      "▁cliff": 947,
      "▁management": 948,
      "yst": 949,
      "▁bent": 950,
      "▁lego": 951,
      "▁at": 952,
      "▁identified": 953,
      "▁signed": 954,
      "▁greet": 955,
      "abit": 956,
      "▁spa": 957,
      "▁rabb": 958,
      "ther": 959,
      "izing": 960,
      "▁click": 961,
      "imore": 962,
      "par": 963,
      "▁core": 964,
      "▁frequ": 965,
      "▁temples": 966,
      "▁acts": 967,
      "▁equip": 968,
      "nis": 969,
      "▁prep": 970,
      "▁detroit": 971,
      "yone": 972,
      "▁(": 973,
      "▁half": 974,
      "▁database": 975,
      "▁few": 976,
      "lications": 977,
      "ancers": 978,
      "▁tutor": 979,
      "▁anybody": 980,
      "▁tags": 981,
      "op": 982,
      "▁horse": 983,
      "▁presence": 984,
      "▁v": 985,
      "▁upside": 986,
      "????????????????": 987,
      "▁visits": 988,
      "inu": 989,
      "▁formed": 990,
      "▁mutation": 991,
      "lection": 992,
      "▁stepping": 993,
      "▁solution": 994,
      "▁forms": 995,
      "▁fed": 996,
      "▁predators": 997,
      "ale": 998,
      "▁reinfor": 999,
      "▁shower": 1000,
      "▁grow": 1001,
      "agement": 1002,
      "▁201": 1003,
      "uty": 1004,
      "cri": 1005,
      "▁dragon": 1006,
      "fer": 1007,
      "▁insects": 1008,
      "▁versus": 1009,
      "▁adver": 1010,
      "arks": 1011,
      "▁denied": 1012,
      "▁requirement": 1013,
      "olution": 1014,
      "ait": 1015,
      "▁==----": 1016,
      "▁fac": 1017,
      "▁treatments": 1018,
      "▁disease": 1019,
      "▁doggie": 1020,
      "▁suppose": 1021,
      "▁cell": 1022,
      "iqu": 1023,
      "osite": 1024,
      "▁expanding": 1025,
      "▁commit": 1026,
      "▁companies": 1027,
      "▁experiment": 1028,
      "▁explore": 1029,
      "▁laura": 1030,
      "▁panel": 1031,
      "oy": 1032,
      "ambment": 1033,
      "▁living": 1034,
      "lly": 1035,
      "▁shadow": 1036,
      "asm": 1037,
      "(": 1038,
      "▁jar": 1039,
      "▁pets": 1040,
      "ri": 1041,
      "▁ingredients": 1042,
      "eline": 1043,
      "▁party": 1044,
      "set": 1045,
      "**********************************": 1046,
      "▁advertising": 1047,
      "▁yogurt": 1048,
      "▁foundation": 1049,
      "▁behin": 1050,
      "ific": 1051,
      "▁held": 1052,
      "▁enj": 1053,
      "where": 1054,
      "▁suck": 1055,
      "▁patient": 1056,
      "▁quality": 1057,
      "▁orders": 1058,
      "▁inquiry": 1059,
      "▁roo": 1060,
      "---------------": 1061,
      "▁contacts": 1062,
      "▁evening": 1063,
      "▁dow": 1064,
      "elf": 1065,
      "▁record": 1066,
      "!!!!": 1067,
      "lium": 1068,
      "▁feature": 1069,
      "▁univers": 1070,
      "▁manufacturers": 1071,
      "▁punch": 1072,
      "▁limited": 1073,
      "ategy": 1074,
      "▁san": 1075,
      "▁fle": 1076,
      "▁balances": 1077,
      "▁u": 1078,
      "▁call": 1079,
      "▁gram": 1080,
      "▁flu": 1081,
      "▁bumble": 1082,
      "ility": 1083,
      "▁describ": 1084,
      "iated": 1085,
      "▁&am": 1086,
      "ibility": 1087,
      "▁sake": 1088,
      "ded": 1089,
      "▁consum": 1090,
      "bers": 1091,
      "▁drawer": 1092,
      "▁obtained": 1093,
      "▁recon": 1094,
      "@": 1095,
      "▁peace": 1096,
      "▁.?": 1097,
      "▁conduct": 1098,
      "▁functions": 1099,
      "▁cooked": 1100,
      "▁nest": 1101,
      "▁sure": 1102,
      "▁cocktail": 1103,
      "unct": 1104,
      "▁future": 1105,
      "uter": 1106,
      "tw": 1107,
      "▁favorite": 1108,
      "▁gon": 1109,
      "tch": 1110,
      "▁agreements": 1111,
      "▁stability": 1112,
      "▁resp": 1113,
      "ukee": 1114,
      "ears": 1115,
      "ibilities": 1116,
      "▁comple": 1117,
      "ric": 1118,
      "▁flavor": 1119,
      "▁wait": 1120,
      "▁creates": 1121,
      "izes": 1122,
      "▁deaths": 1123,
      "ɔ": 1124,
      "▁alone": 1125,
      "▁mixture": 1126,
      "▁cinnamon": 1127,
      "▁cincinnati": 1128,
      "▁underst": 1129,
      "▁basil": 1130,
      "ino": 1131,
      "▁depth": 1132,
      "▁cries": 1133,
      "▁technologies": 1134,
      "liance": 1135,
      "▁cows": 1136,
      "▁chose": 1137,
      "inning": 1138,
      "ruption": 1139,
      "▁madam": 1140,
      "anger": 1141,
      "▁scienti": 1142,
      "▁became": 1143,
      ".m.": 1144,
      "ow": 1145,
      "agraph": 1146,
      "▁follows": 1147,
      "▁beings": 1148,
      "inction": 1149,
      "aid": 1150,
      "▁listed": 1151,
      "▁proved": 1152,
      "▁poles": 1153,
      "sed": 1154,
      "▁dry": 1155,
      "▁saw": 1156,
      "▁recipe": 1157,
      "ican": 1158,
      "▁defin": 1159,
      "▁mi": 1160,
      "▁banan": 1161,
      "▁minut": 1162,
      "▁uncer": 1163,
      "▁transl": 1164,
      "▁derived": 1165,
      "▁consciousness": 1166,
      "▁flat": 1167,
      "igrants": 1168,
      "▁instance": 1169,
      "▁decided": 1170,
      "▁please": 1171,
      "▁company": 1172,
      "▁years": 1173,
      "▁shuttle": 1174,
      "▁different": 1175,
      "▁mechanics": 1176,
      "▁international": 1177,
      "▁belon": 1178,
      "▁profession": 1179,
      "▁be": 1180,
      "▁category": 1181,
      "▁witn": 1182,
      "▁bedroom": 1183,
      "▁important": 1184,
      "▁bye": 1185,
      "▁keeps": 1186,
      "alf": 1187,
      "acter": 1188,
      "ake": 1189,
      "▁agree": 1190,
      "▁contributions": 1191,
      "ky": 1192,
      "light": 1193,
      "enc": 1194,
      "▁quartile": 1195,
      "▁looking": 1196,
      "play": 1197,
      "ert": 1198,
      "▁ent": 1199,
      "▁sites": 1200,
      "▁guil": 1201,
      "▁pad": 1202,
      "act": 1203,
      "▁rece": 1204,
      "▁iod": 1205,
      "▁lawy": 1206,
      "pts": 1207,
      "▁indianapolis": 1208,
      "▁indicates": 1209,
      "jec": 1210,
      "▁issu": 1211,
      "eda": 1212,
      "▁wednesday": 1213,
      "ension": 1214,
      "▁think": 1215,
      "▁cigarette": 1216,
      "▁demanding": 1217,
      "ites": 1218,
      "▁prec": 1219,
      "▁hurry": 1220,
      "ened": 1221,
      "▁words": 1222,
      "▁outs": 1223,
      "▁guard": 1224,
      "▁drug": 1225,
      "▁correspond": 1226,
      "▁good": 1227,
      "gle": 1228,
      "▁pursue": 1229,
      "▁gis": 1230,
      "▁purple": 1231,
      "▁coord": 1232,
      "▁touched": 1233,
      "▁knocked": 1234,
      "oder": 1235,
      "▁centuries": 1236,
      "▁nut": 1237,
      "▁sir": 1238,
      "▁nashville": 1239,
      "▁purpose": 1240,
      "cr": 1241,
      "▁documented": 1242,
      "▁sent": 1243,
      "▁prepare": 1244,
      "▁discovery": 1245,
      "▁....................": 1246,
      "▁chew": 1247,
      "▁using": 1248,
      "▁industry": 1249,
      "▁administ": 1250,
      "▁paused": 1251,
      "▁poor": 1252,
      "▁large": 1253,
      "▁scen": 1254,
      "▁muse": 1255,
      "▁implementation": 1256,
      "▁--": 1257,
      "▁wid": 1258,
      "▁plants": 1259,
      "▁significance": 1260,
      "her": 1261,
      "▁diseas": 1262,
      "▁streets": 1263,
      "▁************************************************": 1264,
      "ports": 1265,
      "▁jih": 1266,
      "▁ext": 1267,
      "cally": 1268,
      "▁nights": 1269,
      "▁beaches": 1270,
      "▁tool": 1271,
      "▁amid": 1272,
      "med": 1273,
      "▁bun": 1274,
      "▁child": 1275,
      "▁doubt": 1276,
      "▁kids": 1277,
      "▁minute": 1278,
      "▁citiz": 1279,
      "▁give": 1280,
      "▁roll": 1281,
      "▁saying": 1282,
      "▁median": 1283,
      "▁forgot": 1284,
      "aking": 1285,
      "▁den": 1286,
      "aughter": 1287,
      "▁rule": 1288,
      "▁abuse": 1289,
      "▁knowing": 1290,
      "▁opposite": 1291,
      "▁account": 1292,
      "tification": 1293,
      "▁works": 1294,
      "▁ple": 1295,
      "▁sides": 1296,
      "▁tab": 1297,
      "▁”": 1298,
      "▁context": 1299,
      "▁sugges": 1300,
      "oul": 1301,
      "▁shakes": 1302,
      "ching": 1303,
      "▁recorded": 1304,
      "▁datash": 1305,
      "▁mornings": 1306,
      "▁known": 1307,
      "▁deli": 1308,
      "▁couch": 1309,
      "▁beach": 1310,
      "ima": 1311,
      "▁phenomenon": 1312,
      "▁changing": 1313,
      "▁retired": 1314,
      "sh": 1315,
      "▁jo": 1316,
      "▁attitude": 1317,
      "▁fi": 1318,
      "yet": 1319,
      "mate": 1320,
      "▁dialog": 1321,
      "ployment": 1322,
      "▁finished": 1323,
      "▁dead": 1324,
      "▁receiving": 1325,
      "://": 1326,
      "▁com": 1327,
      "▁ye": 1328,
      "▁recognize": 1329,
      "▁anal": 1330,
      "cience": 1331,
      "▁doctor": 1332,
      "▁montreal": 1333,
      "▁!!!": 1334,
      "▁airplan": 1335,
      "uf": 1336,
      "ses": 1337,
      "▁latest": 1338,
      "▁tr": 1339,
      "▁reputation": 1340,
      "▁covering": 1341,
      "ansion": 1342,
      "▁smal": 1343,
      "el": 1344,
      "portun": 1345,
      "▁prevent": 1346,
      "utes": 1347,
      "▁continue": 1348,
      "▁datab": 1349,
      "orts": 1350,
      "▁paper": 1351,
      "ability": 1352,
      "c": 1353,
      "▁inspection": 1354,
      "▁success": 1355,
      "▁·": 1356,
      "▁missiles": 1357,
      "▁expertise": 1358,
      "aft": 1359,
      "▁smiling": 1360,
      "▁writ": 1361,
      "▁elephant": 1362,
      "tiv": 1363,
      "▁intern": 1364,
      "▁fungi": 1365,
      "▁arrive": 1366,
      "▁basketball": 1367,
      "com": 1368,
      "▁dro": 1369,
      "▁statute": 1370,
      "▁lay": 1371,
      "pletely": 1372,
      "▁min": 1373,
      "▁subjects": 1374,
      "asts": 1375,
      "▁lik": 1376,
      "▁airports": 1377,
      "▁prote": 1378,
      "▁player": 1379,
      "▁returned": 1380,
      "▁technology": 1381,
      "▁forward": 1382,
      "▁runs": 1383,
      "▁laun": 1384,
      "▁intelligence": 1385,
      "▁trip": 1386,
      "bing": 1387,
      "▁installing": 1388,
      "▁suggesting": 1389,
      "oice": 1390,
      "akes": 1391,
      "▁deliver": 1392,
      "▁unless": 1393,
      "▁security": 1394,
      "▁shoo": 1395,
      "ern": 1396,
      "urned": 1397,
      "▁roc": 1398,
      "▁xml": 1399,
      "ud": 1400,
      "▁initiated": 1401,
      "▁principles": 1402,
      "▁legacy": 1403,
      "bol": 1404,
      "oss": 1405,
      "▁truth": 1406,
      "▁straps": 1407,
      "▁…": 1408,
      "▁hosting": 1409,
      "▁conf": 1410,
      "▁highly": 1411,
      "ali": 1412,
      "agon": 1413,
      "▁jos": 1414,
      "ner": 1415,
      "▁distric": 1416,
      "▁ne": 1417,
      "▁taxi": 1418,
      "▁cle": 1419,
      "leum": 1420,
      "▁mama": 1421,
      "ds": 1422,
      "pensive": 1423,
      "▁listened": 1424,
      "▁clos": 1425,
      "▁measures": 1426,
      "▁:?": 1427,
      "▁um": 1428,
      "aining": 1429,
      "▁swallow": 1430,
      "ressed": 1431,
      "pl": 1432,
      "!?": 1433,
      "ann": 1434,
      "▁cam": 1435,
      "▁clothes": 1436,
      "▁dey": 1437,
      "▁descriptions": 1438,
      "▁set": 1439,
      "▁reason": 1440,
      "▁directive": 1441,
      "▁remain": 1442,
      "▁course": 1443,
      "▁lar": 1444,
      "▁name": 1445,
      "aring": 1446,
      "▁meow": 1447,
      "is": 1448,
      "6": 1449,
      "▁jew": 1450,
      "▁un": 1451,
      "▁alar": 1452,
      "▁...": 1453,
      "▁killed": 1454,
      "▁conclude": 1455,
      "▁fixed": 1456,
      "▁quino": 1457,
      "▁’re": 1458,
      "▁holds": 1459,
      "▁purch": 1460,
      "▁abbre": 1461,
      "scope": 1462,
      "▁hus": 1463,
      "▁putting": 1464,
      "▁come": 1465,
      "▁driven": 1466,
      "▁linked": 1467,
      "otte": 1468,
      "▁press": 1469,
      "▁banks": 1470,
      "▁fold": 1471,
      "oll": 1472,
      "▁have": 1473,
      "▁enemy": 1474,
      "▁closing": 1475,
      "▁pir": 1476,
      "pri": 1477,
      "▁perf": 1478,
      "▁readers": 1479,
      "ogn": 1480,
      "▁receive": 1481,
      "▁rice": 1482,
      "▁how": 1483,
      "▁bel": 1484,
      "▁furniture": 1485,
      "▁abo": 1486,
      "▁network": 1487,
      "▁inves": 1488,
      "▁wife": 1489,
      "▁contain": 1490,
      "‘": 1491,
      "▁ties": 1492,
      "▁pull": 1493,
      "▁trib": 1494,
      "mos": 1495,
      "▁conte": 1496,
      "▁cock": 1497,
      "▁pled": 1498,
      "▁reminder": 1499,
      "▁tolerate": 1500,
      "▁playing": 1501,
      "▁indian": 1502,
      "old": 1503,
      "enance": 1504,
      "▁moment": 1505,
      "▁iodised": 1506,
      "▁res": 1507,
      "ains": 1508,
      "▁poll": 1509,
      "▁filter": 1510,
      "▁jump": 1511,
      "▁rapporteur": 1512,
      "▁`": 1513,
      "▁fans": 1514,
      "▁cre": 1515,
      "▁inn": 1516,
      "▁dign": 1517,
      "ur": 1518,
      "ledge": 1519,
      "▁institutions": 1520,
      "▁ears": 1521,
      "rectly": 1522,
      "▁dress": 1523,
      "▁!!!!!!!!!!!!!!!": 1524,
      "inter": 1525,
      "▁dessert": 1526,
      "▁concentration": 1527,
      "▁obtain": 1528,
      "clock": 1529,
      "▁stem": 1530,
      "▁ignor": 1531,
      "▁dim": 1532,
      "▁1970s": 1533,
      "eets": 1534,
      "▁replaced": 1535,
      "½": 1536,
      "▁often": 1537,
      "▁dism": 1538,
      "▁mel": 1539,
      "▁proper": 1540,
      "▁settlement": 1541,
      "▁shoulder": 1542,
      "ize": 1543,
      "gging": 1544,
      "▁mode": 1545,
      "zation": 1546,
      "/200": 1547,
      "▁occ": 1548,
      "▁cats": 1549,
      "hered": 1550,
      "▁statement": 1551,
      "▁flew": 1552,
      "ulture": 1553,
      "▁laur": 1554,
      "▁loves": 1555,
      "▁affect": 1556,
      "▁attack": 1557,
      "▁contents": 1558,
      "iff": 1559,
      "▁ou": 1560,
      "cles": 1561,
      "▁conviction": 1562,
      "▁references": 1563,
      "urch": 1564,
      "▁claim": 1565,
      "▁----": 1566,
      "chang": 1567,
      "--------": 1568,
      "▁ran": 1569,
      "rim": 1570,
      "`s": 1571,
      "▁scene": 1572,
      "gl": 1573,
      "▁tur": 1574,
      "▁his": 1575,
      "▁crying": 1576,
      "off": 1577,
      "▁jeep": 1578,
      "▁pop": 1579,
      "ories": 1580,
      "▁bos": 1581,
      "eting": 1582,
      "▁hat": 1583,
      "▁managers": 1584,
      "wic": 1585,
      "▁syrup": 1586,
      "▁separate": 1587,
      "▁mummy": 1588,
      "▁bones": 1589,
      "ocracy": 1590,
      "ients": 1591,
      "▁tou": 1592,
      "▁receip": 1593,
      "ations": 1594,
      "▁gre": 1595,
      "▁ad": 1596,
      "▁greetings": 1597,
      "▁observation": 1598,
      "▁neighbour": 1599,
      "ə": 1600,
      "▁bandaid": 1601,
      "▁cincinn": 1602,
      "▁door": 1603,
      "unch": 1604,
      "arian": 1605,
      "▁shed": 1606,
      "tit": 1607,
      "ottable": 1608,
      "▁mum": 1609,
      "▁ended": 1610,
      "▁july": 1611,
      "****************": 1612,
      "olve": 1613,
      "▁gallery": 1614,
      "▁entered": 1615,
      "ically": 1616,
      "oir": 1617,
      "usions": 1618,
      "ecess": 1619,
      "▁nt": 1620,
      "▁proced": 1621,
      "▁declined": 1622,
      "ol": 1623,
      "ula": 1624,
      "▁planet": 1625,
      "▁ensuring": 1626,
      "▁mir": 1627,
      "met": 1628,
      "▁bodies": 1629,
      "▁hist": 1630,
      "▁supplies": 1631,
      "sure": 1632,
      "▁seconds": 1633,
      "▁bronze": 1634,
      "▁plenty": 1635,
      "▁bucket": 1636,
      "▁ai": 1637,
      "▁understanding": 1638,
      "put": 1639,
      "▁journey": 1640,
      "▁doubts": 1641,
      "▁expanded": 1642,
      "▁nap": 1643,
      "ticks": 1644,
      "▁uvb": 1645,
      "▁tal": 1646,
      "▁searching": 1647,
      "rons": 1648,
      "▁candid": 1649,
      "▁volume": 1650,
      "ements": 1651,
      "▁appl": 1652,
      "▁surface": 1653,
      "▁grad": 1654,
      "▁temp": 1655,
      "▁shipped": 1656,
      "▁fill": 1657,
      "▁jose": 1658,
      "av": 1659,
      "aly": 1660,
      "asis": 1661,
      "ad": 1662,
      "▁committed": 1663,
      "▁homes": 1664,
      "▁depar": 1665,
      "▁weapons": 1666,
      "ilosoph": 1667,
      "▁requi": 1668,
      "▁forest": 1669,
      "vil": 1670,
      "▁ignored": 1671,
      "▁busy": 1672,
      "ero": 1673,
      "inking": 1674,
      "▁pursu": 1675,
      "▁vehic": 1676,
      "▁delete": 1677,
      "▁added": 1678,
      "▁tonight": 1679,
      "▁enterpr": 1680,
      "▁pancakes": 1681,
      "how": 1682,
      "vert": 1683,
      "ati": 1684,
      "▁require": 1685,
      "▁brand": 1686,
      "▁belly": 1687,
      "asi": 1688,
      "▁inch": 1689,
      "▁oak": 1690,
      "▁acqui": 1691,
      "▁based": 1692,
      "rate": 1693,
      "▁hand": 1694,
      "▁bub": 1695,
      "▁asks": 1696,
      "▁mentioned": 1697,
      "▁grammar": 1698,
      "▁cow": 1699,
      "▁unles": 1700,
      "rows": 1701,
      "▁disappeared": 1702,
      "town": 1703,
      "▁himself": 1704,
      "▁sen": 1705,
      "▁lemon": 1706,
      "▁conflict": 1707,
      "▁sometimes": 1708,
      "▁vict": 1709,
      "▁breast": 1710,
      "▁treatment": 1711,
      "▁apol": 1712,
      "▁philadelphia": 1713,
      "▁sequ": 1714,
      "▁cover": 1715,
      "tity": 1716,
      "it": 1717,
      "▁arm": 1718,
      "▁toys": 1719,
      "ml": 1720,
      "▁conn": 1721,
      "▁locations": 1722,
      "ership": 1723,
      "on": 1724,
      "▁body": 1725,
      "▁less": 1726,
      "ghts": 1727,
      "▁everyone": 1728,
      "▁represent": 1729,
      "▁baking": 1730,
      "▁copy": 1731,
      "con": 1732,
      "▁observed": 1733,
      "▁nurs": 1734,
      "▁squir": 1735,
      "▁cooking": 1736,
      "▁rainbow": 1737,
      "▁medic": 1738,
      "imum": 1739,
      "▁boil": 1740,
      "ily": 1741,
      "▁scientists": 1742,
      "▁obt": 1743,
      "▁rememb": 1744,
      "ict": 1745,
      "irts": 1746,
      "▁smelled": 1747,
      "orized": 1748,
      "▁>>": 1749,
      "▁fil": 1750,
      "▁disl": 1751,
      "▁percentiles": 1752,
      "▁sum": 1753,
      "▁husband": 1754,
      "▁mater": 1755,
      "aming": 1756,
      "▁overcome": 1757,
      "▁pages": 1758,
      "▁novelist": 1759,
      "▁fighting": 1760,
      "▁tunnel": 1761,
      "umin": 1762,
      "iring": 1763,
      "▁langu": 1764,
      "▁communities": 1765,
      "▁products": 1766,
      "ologies": 1767,
      "▁colour": 1768,
      "▁monit": 1769,
      "▁preferred": 1770,
      "inn": 1771,
      "uation": 1772,
      "▁grown": 1773,
      "▁becom": 1774,
      "ligence": 1775,
      "▁make": 1776,
      "ything": 1777,
      "▁1": 1778,
      "▁catch": 1779,
      "tainty": 1780,
      "▁abandoned": 1781,
      "▁lantern": 1782,
      "▁department": 1783,
      "▁advice": 1784,
      "▁vill": 1785,
      "cape": 1786,
      "rel": 1787,
      "▁teachers": 1788,
      "h": 1789,
      "▁offers": 1790,
      "▁killing": 1791,
      "▁charge": 1792,
      "ber": 1793,
      "▁lose": 1794,
      "▁drops": 1795,
      "5": 1796,
      "▁policy": 1797,
      "▁pl": 1798,
      "▁id": 1799,
      "▁adj": 1800,
      "▁attemp": 1801,
      "▁consideration": 1802,
      "▁accomm": 1803,
      "iece": 1804,
      "ine": 1805,
      "▁reconciliation": 1806,
      "areness": 1807,
      "▁him": 1808,
      "▁ap": 1809,
      "▁send": 1810,
      "back": 1811,
      "▁stat": 1812,
      "aced": 1813,
      "led": 1814,
      "▁change": 1815,
      "▁incorp": 1816,
      "▁turns": 1817,
      "▁measured": 1818,
      "for": 1819,
      "▁wild": 1820,
      "▁keep": 1821,
      "▁afternoon": 1822,
      "▁necess": 1823,
      "▁sleeping": 1824,
      "▁cand": 1825,
      "king": 1826,
      "▁victims": 1827,
      "▁n't": 1828,
      "▁religion": 1829,
      "▁members": 1830,
      "▁shift": 1831,
      "▁dating": 1832,
      "aint": 1833,
      "tices": 1834,
      "▁inhabit": 1835,
      "gu": 1836,
      "iting": 1837,
      "▁business": 1838,
      "ington": 1839,
      "▁representatives": 1840,
      "▁desire": 1841,
      "ride": 1842,
      "▁vs": 1843,
      "▁yourselves": 1844,
      "▁designs": 1845,
      "or": 1846,
      "▁towed": 1847,
      "▁exam": 1848,
      "ting": 1849,
      "▁10": 1850,
      "▁seem": 1851,
      "oin": 1852,
      "▁mood": 1853,
      "ta": 1854,
      "lication": 1855,
      "lights": 1856,
      "▁boo": 1857,
      "ian": 1858,
      "▁bi": 1859,
      "▁war": 1860,
      "▁sel": 1861,
      "ed": 1862,
      "ply": 1863,
      "▁encouraged": 1864,
      "▁explanation": 1865,
      "val": 1866,
      "▁hund": 1867,
      "▁beginning": 1868,
      "r.": 1869,
      "▁’s": 1870,
      "▁shad": 1871,
      "▁dinosaurs": 1872,
      "▁renew": 1873,
      "▁hav": 1874,
      "▁flowers": 1875,
      "▁sant": 1876,
      "▁grandmother": 1877,
      "▁ve": 1878,
      "▁because": 1879,
      "▁trading": 1880,
      "▁reef": 1881,
      "▁hey": 1882,
      "▁sal": 1883,
      "▁ver": 1884,
      "▁transform": 1885,
      "top": 1886,
      "▁temperature": 1887,
      "▁enjoy": 1888,
      "nic": 1889,
      "▁appreciated": 1890,
      "▁took": 1891,
      "arly": 1892,
      "▁cross": 1893,
      "aks": 1894,
      "▁ruin": 1895,
      "▁co": 1896,
      "▁diff": 1897,
      "▁jungle": 1898,
      "▁dolph": 1899,
      "▁during": 1900,
      "▁tested": 1901,
      "ling": 1902,
      "▁engage": 1903,
      "▁dest": 1904,
      "▁hum": 1905,
      "▁monks": 1906,
      "arked": 1907,
      "▁particip": 1908,
      "▁ch": 1909,
      "▁gives": 1910,
      "▁throwing": 1911,
      "▁threw": 1912,
      "ograph": 1913,
      "▁curves": 1914,
      "▁sp": 1915,
      "▁destro": 1916,
      "▁fan": 1917,
      "▁however": 1918,
      "▁cust": 1919,
      "ission": 1920,
      "▁components": 1921,
      "os": 1922,
      "▁chap": 1923,
      "▁legos": 1924,
      "▁pover": 1925,
      "ʃ": 1926,
      "▁encour": 1927,
      "▁depend": 1928,
      "▁fam": 1929,
      "▁compar": 1930,
      "▁eas": 1931,
      "▁enab": 1932,
      "▁ju": 1933,
      "▁fab": 1934,
      "▁average": 1935,
      "▁qu": 1936,
      "▁specific": 1937,
      "▁lights": 1938,
      "ribb": 1939,
      "▁cin": 1940,
      "ummy": 1941,
      "▁right": 1942,
      "ce": 1943,
      "eness": 1944,
      "my": 1945,
      "▁machine": 1946,
      "▁engineering": 1947,
      "head": 1948,
      "▁welf": 1949,
      "▁on": 1950,
      "lan": 1951,
      "use": 1952,
      "rier": 1953,
      "▁tips": 1954,
      "▁laser": 1955,
      "▁represented": 1956,
      "ice": 1957,
      "▁lets": 1958,
      "hib": 1959,
      "▁administr": 1960,
      "structed": 1961,
      "▁suggestion": 1962,
      "▁legislation": 1963,
      "▁belief": 1964,
      "▁disability": 1965,
      "▁notice": 1966,
      "▁iron": 1967,
      "▁grid": 1968,
      "phis": 1969,
      "▁.....": 1970,
      "▁route": 1971,
      "▁era": 1972,
      "▁gulf": 1973,
      "▁cradle": 1974,
      "▁wednesdays": 1975,
      "▁attempting": 1976,
      "▁coup": 1977,
      "▁inspired": 1978,
      "▁said": 1979,
      "▁employment": 1980,
      "▁ang": 1981,
      "▁arrang": 1982,
      "▁neg": 1983,
      "▁correc": 1984,
      "▁cutting": 1985,
      "▁experience": 1986,
      "▁domain": 1987,
      "▁friendly": 1988,
      "ff": 1989,
      "cope": 1990,
      "▁ab": 1991,
      "ipl": 1992,
      "▁computers": 1993,
      "▁teacher": 1994,
      "ounced": 1995,
      "▁periods": 1996,
      "▁behaviors": 1997,
      "▁brass": 1998,
      "▁in": 1999,
      "▁steak": 2000,
      "ums": 2001,
      "orp": 2002,
      "▁pee": 2003,
      "▁fever": 2004,
      "▁coordin": 2005,
      "▁away": 2006,
      "▁sli": 2007,
      "μ": 2008,
      "▁lan": 2009,
      "▁vote": 2010,
      "▁confidence": 2011,
      "▁hopes": 2012,
      "▁code": 2013,
      "ows": 2014,
      "▁refused": 2015,
      "▁crap": 2016,
      "nesday": 2017,
      "▁memoir": 2018,
      "ette": 2019,
      "▁princip": 2020,
      "▁targets": 2021,
      "ft": 2022,
      "▁quite": 2023,
      "▁establish": 2024,
      "▁revers": 2025,
      "▁fare": 2026,
      "▁!!!!": 2027,
      "▁image": 2028,
      "▁fishing": 2029,
      "aging": 2030,
      "▁cooperation": 2031,
      "▁pe": 2032,
      "▁econom": 2033,
      "fications": 2034,
      "▁spoken": 2035,
      "▁funeral": 2036,
      "▁relations": 2037,
      "▁congratulations": 2038,
      "▁applications": 2039,
      "ented": 2040,
      "ile": 2041,
      "▁slide": 2042,
      "▁'ve": 2043,
      "▁points": 2044,
      "▁web": 2045,
      "▁meeting": 2046,
      "▁slipped": 2047,
      "▁phr": 2048,
      "▁lawyer": 2049,
      "pite": 2050,
      "▁bec": 2051,
      "cc": 2052,
      "▁values": 2053,
      "▁bits": 2054,
      "▁locked": 2055,
      "▁chapter": 2056,
      "▁er": 2057,
      "▁environment": 2058,
      "▁imp": 2059,
      "eignty": 2060,
      "▁br": 2061,
      "▁cups": 2062,
      "▁regulations": 2063,
      "▁warming": 2064,
      "▁reception": 2065,
      "een": 2066,
      "▁miracle": 2067,
      "▁located": 2068,
      "▁rescue": 2069,
      "▁smo": 2070,
      "▁example": 2071,
      "▁festiv": 2072,
      "▁nose": 2073,
      "▁sing": 2074,
      "▁factory": 2075,
      "▁opposition": 2076,
      "▁fro": 2077,
      "▁survive": 2078,
      "▁powers": 2079,
      "y": 2080,
      "ots": 2081,
      "▁temper": 2082,
      "▁oven": 2083,
      "▁collaboration": 2084,
      "▁let": 2085,
      "▁fault": 2086,
      "uge": 2087,
      "▁soy": 2088,
      "ear": 2089,
      "▁exist": 2090,
      "▁occasion": 2091,
      "▁mines": 2092,
      "rax": 2093,
      "ers": 2094,
      "les": 2095,
      "rying": 2096,
      "▁co-": 2097,
      "ngth": 2098,
      "▁environ": 2099,
      "▁women": 2100,
      "▁opportunity": 2101,
      "▁anim": 2102,
      "▁act": 2103,
      "▁concerning": 2104,
      "▁[": 2105,
      "▁crayons": 2106,
      "▁pret": 2107,
      "▁song": 2108,
      "▁diego": 2109,
      "▁height": 2110,
      "▁dri": 2111,
      "fort": 2112,
      "▁categories": 2113,
      "▁de": 2114,
      "▁listen": 2115,
      "oves": 2116,
      "▁movements": 2117,
      "▁gir": 2118,
      "oot": 2119,
      "▁rul": 2120,
      "▁illust": 2121,
      "▁human": 2122,
      "▁entertainment": 2123,
      "▁screen": 2124,
      "ʒ": 2125,
      "▁times": 2126,
      "orders": 2127,
      "▁fut": 2128,
      "'s": 2129,
      "▁actually": 2130,
      "▁joh": 2131,
      "▁built": 2132,
      "iron": 2133,
      "▁distribution": 2134,
      "▁j": 2135,
      "▁welc": 2136,
      "ause": 2137,
      "▁offered": 2138,
      "▁surprise": 2139,
      "omic": 2140,
      "jected": 2141,
      "▁drinks": 2142,
      "▁webs": 2143,
      "erc": 2144,
      "▁replacement": 2145,
      "▁oz": 2146,
      "x": 2147,
      "▁spl": 2148,
      "▁inside": 2149,
      "▁vess": 2150,
      "2d-": 2151,
      "▁raised": 2152,
      "▁consequences": 2153,
      "▁tele": 2154,
      "=": 2155,
      "ants": 2156,
      "irus": 2157,
      "▁laughter": 2158,
      "▁testing": 2159,
      "▁stone": 2160,
      "▁don": 2161,
      "▁spokesman": 2162,
      "▁father": 2163,
      "▁mic": 2164,
      "▁mos": 2165,
      "4": 2166,
      "▁whatever": 2167,
      "▁particularly": 2168,
      "▁si": 2169,
      "iced": 2170,
      "▁commission": 2171,
      "▁gifts": 2172,
      "▁audience": 2173,
      "▁ret": 2174,
      "ential": 2175,
      "▁anyone": 2176,
      "▁boot": 2177,
      "▁wolf": 2178,
      "▁rules": 2179,
      "▁pi": 2180,
      "▁tourism": 2181,
      "rates": 2182,
      "oil": 2183,
      "▁if": 2184,
      "▁interesting": 2185,
      "▁e": 2186,
      "▁assoc": 2187,
      "time": 2188,
      "▁sheep": 2189,
      "land": 2190,
      "▁extrem": 2191,
      "rely": 2192,
      "verage": 2193,
      "▁television": 2194,
      "▁noon": 2195,
      "▁mountain": 2196,
      "▁luck": 2197,
      "▁use": 2198,
      "mal": 2199,
      "▁convin": 2200,
      "▁9": 2201,
      "▁pur": 2202,
      "▁shoe": 2203,
      "▁wig": 2204,
      "orting": 2205,
      "ishment": 2206,
      "enda": 2207,
      "▁!!!?": 2208,
      "oint": 2209,
      "▁lat": 2210,
      "very": 2211,
      "▁|--------+----------------------->": 2212,
      "▁happen": 2213,
      "▁prefer": 2214,
      "ished": 2215,
      "▁quantity": 2216,
      "▁ld2d-#693": 2217,
      "ci": 2218,
      "▁fair": 2219,
      "▁universities": 2220,
      "▁pean": 2221,
      "▁elev": 2222,
      "tions": 2223,
      "ais": 2224,
      "outh": 2225,
      "▁ho": 2226,
      "▁bulb": 2227,
      "▁method": 2228,
      "▁defend": 2229,
      "g": 2230,
      "▁continent": 2231,
      "--------+----------------": 2232,
      "▁developments": 2233,
      "▁cells": 2234,
      "▁very": 2235,
      "▁far": 2236,
      "▁,": 2237,
      "▁level": 2238,
      "▁exploration": 2239,
      "▁board": 2240,
      "▁pencil": 2241,
      "here": 2242,
      "rit": 2243,
      "▁reveal": 2244,
      "▁age": 2245,
      "▁like": 2246,
      "▁than": 2247,
      "▁tractor": 2248,
      "▁email": 2249,
      "▁judg": 2250,
      "▁none": 2251,
      "eal": 2252,
      "▁acquis": 2253,
      "▁knew": 2254,
      "▁seats": 2255,
      "▁stret": 2256,
      "▁[...": 2257,
      "▁paths": 2258,
      "▁waiver": 2259,
      "isting": 2260,
      "▁promise": 2261,
      "▁instructor": 2262,
      "▁concent": 2263,
      "▁salt": 2264,
      "▁trying": 2265,
      "▁obsf": 2266,
      "▁dail": 2267,
      "art": 2268,
      "▁portr": 2269,
      "▁circles": 2270,
      "▁w": 2271,
      "▁wind": 2272,
      "nel": 2273,
      "▁ursula": 2274,
      "itated": 2275,
      "▁discovered": 2276,
      "▁pocketbook": 2277,
      "▁lacking": 2278,
      "▁recip": 2279,
      "▁philosoph": 2280,
      "▁arrives": 2281,
      "▁net": 2282,
      "eding": 2283,
      "scrib": 2284,
      "▁loo": 2285,
      "-m": 2286,
      "▁bee": 2287,
      "titude": 2288,
      "▁welfare": 2289,
      "▁lot": 2290,
      "▁execution": 2291,
      "▁pass": 2292,
      "arily": 2293,
      "oration": 2294,
      "▁discussions": 2295,
      "ulars": 2296,
      "▁efficiency": 2297,
      "hing": 2298,
      "▁tennis": 2299,
      "ral": 2300,
      "▁resist": 2301,
      "▁stayed": 2302,
      "ables": 2303,
      "▁dogg": 2304,
      "▁silence": 2305,
      "▁ensure": 2306,
      "▁through": 2307,
      "▁flooding": 2308,
      "▁clar": 2309,
      "▁birthday": 2310,
      "ptions": 2311,
      "▁condem": 2312,
      "ference": 2313,
      "▁spear": 2314,
      "ust": 2315,
      "▁spacetime": 2316,
      "▁repl": 2317,
      "▁hotels": 2318,
      "▁entity": 2319,
      "▁beans": 2320,
      "▁filed": 2321,
      "▁engine": 2322,
      "▁!!!!!!!!!!": 2323,
      "▁vodka": 2324,
      "▁counterfeit": 2325,
      "▁hy": 2326,
      "▁carry": 2327,
      "▁lips": 2328,
      "▁forwarded": 2329,
      "▁profits": 2330,
      "▁skill": 2331,
      "▁produc": 2332,
      "▁feel": 2333,
      "▁mor": 2334,
      "cing": 2335,
      "▁teasp": 2336,
      "ored": 2337,
      "▁techn": 2338,
      "▁opposed": 2339,
      "▁building": 2340,
      "ideration": 2341,
      "▁fence": 2342,
      "pe": 2343,
      "case": 2344,
      "▁skills": 2345,
      "▁rag": 2346,
      "▁background": 2347,
      "▁drinking": 2348,
      "▁sweep": 2349,
      "essed": 2350,
      "bby": 2351,
      "▁army": 2352,
      "▁newspapers": 2353,
      "▁strip": 2354,
      "asp": 2355,
      "▁diss": 2356,
      "ti": 2357,
      "orm": 2358,
      "▁taste": 2359,
      "rem": 2360,
      "▁resulted": 2361,
      "▁crossed": 2362,
      "rent": 2363,
      "▁period": 2364,
      "▁boats": 2365,
      "▁premium": 2366,
      "▁remaining": 2367,
      "▁rise": 2368,
      "▁up": 2369,
      "ably": 2370,
      "roleum": 2371,
      "▁he": 2372,
      "▁impression": 2373,
      "▁local": 2374,
      "umn": 2375,
      "ley": 2376,
      "amples": 2377,
      "▁vendors": 2378,
      "▁girlfriend": 2379,
      "▁seattle": 2380,
      "acters": 2381,
      "idence": 2382,
      "▁facing": 2383,
      "▁details": 2384,
      "▁seized": 2385,
      "aph": 2386,
      "▁boys": 2387,
      "river": 2388,
      "ents": 2389,
      "thers": 2390,
      "▁coffee": 2391,
      "▁publish": 2392,
      "ec": 2393,
      "▁heart": 2394,
      "▁operating": 2395,
      "▁puzz": 2396,
      "▁temperatures": 2397,
      "▁explanations": 2398,
      "▁occasions": 2399,
      "▁bom": 2400,
      "▁other": 2401,
      "▁pick": 2402,
      "out": 2403,
      "▁depart": 2404,
      "▁associ": 2405,
      "ont": 2406,
      "▁error": 2407,
      "▁hambur": 2408,
      "'re": 2409,
      "▁arrange": 2410,
      "rael": 2411,
      "▁track": 2412,
      "▁versions": 2413,
      "▁devoted": 2414,
      "▁topic": 2415,
      "▁vacc": 2416,
      "▁bran": 2417,
      "▁difference": 2418,
      "????": 2419,
      "▁accept": 2420,
      "▁scored": 2421,
      "wor": 2422,
      "▁factor": 2423,
      "ls": 2424,
      "ma": 2425,
      "abb": 2426,
      "ensions": 2427,
      "▁traveled": 2428,
      "▁dropped": 2429,
      "▁read": 2430,
      "▁te": 2431,
      "▁gave": 2432,
      "▁woke": 2433,
      "phia": 2434,
      "appy": 2435,
      "▁india": 2436,
      "▁---------------------------------": 2437,
      "▁contact": 2438,
      "hibited": 2439,
      "▁pride": 2440,
      "▁supported": 2441,
      "▁attempted": 2442,
      "ible": 2443,
      "nt": 2444,
      "▁office": 2445,
      ";": 2446,
      "craft": 2447,
      "ton": 2448,
      "▁leaf": 2449,
      "▁characteris": 2450,
      "▁yog": 2451,
      "▁dna": 2452,
      "ume": 2453,
      "▁bug": 2454,
      "cept": 2455,
      "▁pay": 2456,
      "▁product": 2457,
      "isd": 2458,
      "▁performance": 2459,
      "▁sci": 2460,
      "▁strive": 2461,
      "▁instit": 2462,
      "oth": 2463,
      "▁climbed": 2464,
      "▁dallas": 2465,
      "▁rub": 2466,
      "tles": 2467,
      "rors": 2468,
      "gan": 2469,
      "▁traveler": 2470,
      "▁privacy": 2471,
      "▁dignity": 2472,
      "▁leave": 2473,
      "ments": 2474,
      "oices": 2475,
      "▁polic": 2476,
      "▁archit": 2477,
      "esday": 2478,
      "▁dr": 2479,
      "▁officers": 2480,
      "▁headquarters": 2481,
      "▁april": 2482,
      "▁uhh": 2483,
      "▁couple": 2484,
      "▁instr": 2485,
      "▁wants": 2486,
      "▁happ": 2487,
      "▁laws": 2488,
      "ondon": 2489,
      "▁old": 2490,
      "▁ground": 2491,
      "▁imprisoned": 2492,
      "icide": 2493,
      "▁med": 2494,
      "are": 2495,
      "▁-----------------------------------------------------------------------": 2496,
      "sts": 2497,
      "acks": 2498,
      "▁space": 2499,
      "•": 2500,
      "▁_____": 2501,
      "▁tric": 2502,
      "▁solve": 2503,
      "▁secure": 2504,
      "▁[...]": 2505,
      "▁profess": 2506,
      "▁paperwork": 2507,
      "▁expl": 2508,
      "asa": 2509,
      "iful": 2510,
      "iss": 2511,
      "tsbur": 2512,
      "ences": 2513,
      "▁env": 2514,
      "▁3": 2515,
      "▁prin": 2516,
      "▁employees": 2517,
      "▁integration": 2518,
      "▁airplane": 2519,
      "▁preparing": 2520,
      "sters": 2521,
      "▁passport": 2522,
      "mpl": 2523,
      "▁establishment": 2524,
      "▁stamp": 2525,
      "▁exper": 2526,
      "▁cut": 2527,
      "▁global": 2528,
      "▁films": 2529,
      "▁shr": 2530,
      "▁sched": 2531,
      "▁transp": 2532,
      "thing": 2533,
      "▁hoping": 2534,
      "▁av": 2535,
      "==": 2536,
      "▁ackn": 2537,
      "▁altern": 2538,
      "7": 2539,
      "▁love": 2540,
      "ok": 2541,
      "▁justice": 2542,
      "eers": 2543,
      "▁bro": 2544,
      "▁passion": 2545,
      "icing": 2546,
      "▁pho": 2547,
      "anded": 2548,
      "se": 2549,
      "▁should": 2550,
      "▁correspondence": 2551,
      "▁agre": 2552,
      "▁sorry": 2553,
      "▁negotiated": 2554,
      "▁wond": 2555,
      "▁friendship": 2556,
      "▁oblig": 2557,
      "lin": 2558,
      "▁pipeline": 2559,
      "▁appeared": 2560,
      "adel": 2561,
      "ainly": 2562,
      "ding": 2563,
      "▁tip": 2564,
      "▁circumstances": 2565,
      "acting": 2566,
      "▁bother": 2567,
      "▁hurts": 2568,
      "’t": 2569,
      "▁connections": 2570,
      "pos": 2571,
      "▁mathema": 2572,
      "▁ele": 2573,
      "▁rain": 2574,
      "▁compos": 2575,
      "▁recommended": 2576,
      "▁under": 2577,
      "iousness": 2578,
      "qual": 2579,
      "▁lap": 2580,
      "▁plate": 2581,
      "uate": 2582,
      "▁adults": 2583,
      "▁pitch": 2584,
      "▁fing": 2585,
      "▁guerrillas": 2586,
      "▁does": 2587,
      "n": 2588,
      "▁injury": 2589,
      "▁dav": 2590,
      "imp": 2591,
      "▁will": 2592,
      "▁{": 2593,
      "▁selected": 2594,
      "▁stress": 2595,
      "▁reduces": 2596,
      "▁grain": 2597,
      "phone": 2598,
      "▁expect": 2599,
      "▁fell": 2600,
      "▁improved": 2601,
      "▁lawyers": 2602,
      "▁initial": 2603,
      "fin": 2604,
      "▁remember": 2605,
      "▁protected": 2606,
      "▁limous": 2607,
      "▁hur": 2608,
      "▁eval": 2609,
      "ilos": 2610,
      "▁revision": 2611,
      "▁left": 2612,
      "▁promotion": 2613,
      "▁ac": 2614,
      "▁celeb": 2615,
      "▁mushroom": 2616,
      "▁ste": 2617,
      "▁area": 2618,
      "rs": 2619,
      "ou": 2620,
      "▁morning": 2621,
      "▁transactions": 2622,
      "wise": 2623,
      "ody": 2624,
      "oon": 2625,
      "▁conducted": 2626,
      "atures": 2627,
      "▁following": 2628,
      "nesses": 2629,
      "▁reaching": 2630,
      "ins": 2631,
      "▁watch": 2632,
      "▁enem": 2633,
      "und": 2634,
      "▁http": 2635,
      "▁journ": 2636,
      "▁before": 2637,
      "irt": 2638,
      "attle": 2639,
      "olis": 2640,
      "▁barn": 2641,
      "▁remarks": 2642,
      "▁squirt": 2643,
      "▁faculty": 2644,
      "▁dra": 2645,
      "cut": 2646,
      "▁wildlife": 2647,
      "▁fish": 2648,
      "▁ketchup": 2649,
      "▁playw": 2650,
      "▁payments": 2651,
      "ov": 2652,
      "▁ins": 2653,
      "▁touch": 2654,
      "]": 2655,
      "▁assessing": 2656,
      "▁looks": 2657,
      "▁parti": 2658,
      "▁pair": 2659,
      "▁sup": 2660,
      "▁evaluation": 2661,
      "▁cord": 2662,
      "▁symbol": 2663,
      "▁researchers": 2664,
      "tims": 2665,
      "????????????????????????????????": 2666,
      "▁pricing": 2667,
      "▁learned": 2668,
      "▁here": 2669,
      "▁june": 2670,
      "▁struggle": 2671,
      "▁focusing": 2672,
      "▁top": 2673,
      "enix": 2674,
      "▁pow": 2675,
      "▁relief": 2676,
      "$": 2677,
      "▁offici": 2678,
      "inging": 2679,
      "▁support": 2680,
      "▁start": 2681,
      "▁sweetie": 2682,
      "▁expressed": 2683,
      "▁submitted": 2684,
      "et": 2685,
      "stop": 2686,
      "▁requires": 2687,
      "▁scheduled": 2688,
      "▁census": 2689,
      "▁etc.": 2690,
      "▁coach": 2691,
      "▁continues": 2692,
      "▁partic": 2693,
      "▁contacted": 2694,
      "▁crime": 2695,
      "▁allow": 2696,
      "▁mayonna": 2697,
      "▁emissions": 2698,
      "▁barrel": 2699,
      "▁interests": 2700,
      "enings": 2701,
      "▁implem": 2702,
      "v": 2703,
      "▁houses": 2704,
      "▁cart": 2705,
      "nec": 2706,
      "▁pile": 2707,
      "▁toast": 2708,
      "▁uses": 2709,
      "▁fighter": 2710,
      "▁marshmall": 2711,
      "▁staying": 2712,
      "[PAD]": 2713,
      "mon": 2714,
      "▁arab": 2715,
      "▁yelling": 2716,
      "aping": 2717,
      "▁opening": 2718,
      "▁continuing": 2719,
      "▁available": 2720,
      "▁robot": 2721,
      "▁aw": 2722,
      "▁hitting": 2723,
      "akistan": 2724,
      "▁horsie": 2725,
      "▁citizens": 2726,
      "▁congratulate": 2727,
      "▁carrot": 2728,
      "▁programs": 2729,
      "▁wiz": 2730,
      "▁tells": 2731,
      "uits": 2732,
      "▁fears": 2733,
      "▁francisco": 2734,
      "▁survived": 2735,
      "▁reviews": 2736,
      "▁stories": 2737,
      "▁opinion": 2738,
      "▁dirt": 2739,
      "▁together": 2740,
      "ement": 2741,
      "▁principle": 2742,
      "▁upd": 2743,
      "aser": 2744,
      "▁integr": 2745,
      "▁club": 2746,
      "icated": 2747,
      "▁goose": 2748,
      "▁soldiers": 2749,
      "▁distingu": 2750,
      "mes": 2751,
      "▁kn": 2752,
      "▁see": 2753,
      "▁london": 2754,
      "tially": 2755,
      "▁picking": 2756,
      "▁look": 2757,
      "▁never": 2758,
      "▁funds": 2759,
      "jects": 2760,
      "▁erase": 2761,
      "▁consequ": 2762,
      "▁argued": 2763,
      "ant": 2764,
      "ils": 2765,
      "ration": 2766,
      "▁che": 2767,
      "▁pin": 2768,
      "▁broad": 2769,
      "▁considered": 2770,
      "▁potential": 2771,
      "▁governments": 2772,
      "uting": 2773,
      "▁trad": 2774,
      "▁days": 2775,
      "iry": 2776,
      "▁traged": 2777,
      "▁dining": 2778,
      "▁contr": 2779,
      "▁as": 2780,
      "▁pointed": 2781,
      "▁tracks": 2782,
      "▁end": 2783,
      "bles": 2784,
      "etition": 2785,
      "93": 2786,
      "▁actions": 2787,
      "view": 2788,
      "&": 2789,
      "▁filters": 2790,
      "▁deny": 2791,
      "▁percentage": 2792,
      "enth": 2793,
      "▁conflic": 2794,
      "bur": 2795,
      "erve": 2796,
      "ema": 2797,
      "▁terr": 2798,
      "-w": 2799,
      "▁august": 2800,
      "▁hed": 2801,
      "▁em": 2802,
      "▁weap": 2803,
      "es": 2804,
      "▁ic": 2805,
      "▁explained": 2806,
      "▁invol": 2807,
      "▁obst": 2808,
      "aded": 2809,
      "elt": 2810,
      "▁train": 2811,
      "tainly": 2812,
      "▁dc": 2813,
      "▁applying": 2814,
      "▁loans": 2815,
      "▁go": 2816,
      "▁stated": 2817,
      "ith": 2818,
      "esty": 2819,
      "▁poster": 2820,
      "▁laundry": 2821,
      "#6": 2822,
      "▁-----------------------------------------------------------------": 2823,
      "▁ri": 2824,
      "?": 2825,
      "ix": 2826,
      "▁hide": 2827,
      "orded": 2828,
      "▁rel": 2829,
      "▁morn": 2830,
      "▁mother": 2831,
      "▁surrounded": 2832,
      "▁attach": 2833,
      "▁neighbors": 2834,
      "▁count": 2835,
      "▁conserv": 2836,
      "▁customs": 2837,
      "▁hon": 2838,
      "▁traff": 2839,
      "▁kitten": 2840,
      "▁print": 2841,
      "▁**": 2842,
      "▁possibility": 2843,
      "ares": 2844,
      "▁potato": 2845,
      "▁encourage": 2846,
      "…": 2847,
      "▁spir": 2848,
      "ugg": 2849,
      "▁casual": 2850,
      "▁called": 2851,
      "▁asking": 2852,
      "ensus": 2853,
      "▁terms": 2854,
      "▁unf": 2855,
      "▁several": 2856,
      "▁chairman": 2857,
      "▁town": 2858,
      "▁pupp": 2859,
      "▁taught": 2860,
      "▁cases": 2861,
      "▁paint": 2862,
      "ipped": 2863,
      "▁journal": 2864,
      "get": 2865,
      "▁spaces": 2866,
      "▁sword": 2867,
      "▁tri": 2868,
      "inks": 2869,
      "▁branch": 2870,
      "▁donkey": 2871,
      "▁common": 2872,
      "ocated": 2873,
      "yed": 2874,
      "▁responded": 2875,
      "▁china": 2876,
      "▁ce": 2877,
      "wn": 2878,
      "30": 2879,
      "▁impl": 2880,
      "▁title": 2881,
      "▁stops": 2882,
      "▁games": 2883,
      "▁outf": 2884,
      "apes": 2885,
      "▁spider": 2886,
      "▁burden": 2887,
      "▁places": 2888,
      "▁cas": 2889,
      "▁kiss": 2890,
      "▁difficult": 2891,
      "tiles": 2892,
      "▁dollars": 2893,
      "▁y": 2894,
      "▁obl": 2895,
      "▁fired": 2896,
      "▁recover": 2897,
      "▁bon": 2898,
      "▁wire": 2899,
      "▁brothers": 2900,
      "▁sugar": 2901,
      "▁earthqu": 2902,
      "▁summer": 2903,
      "!!!!!!!!": 2904,
      "▁evolving": 2905,
      "▁free": 2906,
      "▁behind": 2907,
      "unic": 2908,
      "▁something": 2909,
      "▁ris": 2910,
      "l": 2911,
      "▁arguments": 2912,
      "▁fellows": 2913,
      "▁flav": 2914,
      "▁advis": 2915,
      "▁cartoon": 2916,
      "▁belie": 2917,
      "▁sharing": 2918,
      "▁national": 2919,
      "▁ordered": 2920,
      "▁damage": 2921,
      "ider": 2922,
      "▁blow": 2923,
      "ah": 2924,
      "▁characters": 2925,
      "▁generate": 2926,
      "kets": 2927,
      "▁picked": 2928,
      "▁room": 2929,
      "▁thought": 2930,
      "▁worked": 2931,
      "▁cleaned": 2932,
      "▁licensed": 2933,
      "▁ticket": 2934,
      "lando": 2935,
      "▁swung": 2936,
      "ful": 2937,
      "-": 2938,
      "even": 2939,
      "▁vehicle": 2940,
      "▁intrigu": 2941,
      "▁reference": 2942,
      "▁girl": 2943,
      "+": 2944,
      "▁monday": 2945,
      "▁chips": 2946,
      "▁prot": 2947,
      "▁amer": 2948,
      "▁control": 2949,
      "inus": 2950,
      "lish": 2951,
      "gation": 2952,
      "▁ach": 2953,
      "▁educated": 2954,
      "iture": 2955,
      "▁myce": 2956,
      "▁oper": 2957,
      "▁gu": 2958,
      "▁enh": 2959,
      "▁fri": 2960,
      "▁|": 2961,
      "*": 2962,
      "issors": 2963,
      "acket": 2964,
      "▁operation": 2965,
      "▁dall": 2966,
      "▁junk": 2967,
      "▁owned": 2968,
      "▁tires": 2969,
      "▁********": 2970,
      "▁pic": 2971,
      "–": 2972,
      "aper": 2973,
      "erry": 2974,
      "▁refl": 2975,
      "night": 2976,
      "▁mosque": 2977,
      "▁adding": 2978,
      "▁episode": 2979,
      "▁that": 2980,
      "▁numerous": 2981,
      "▁chic": 2982,
      "eared": 2983,
      "▁cab": 2984,
      "▁strength": 2985,
      "▁fit": 2986,
      "▁girls": 2987,
      "▁teen": 2988,
      "▁experien": 2989,
      "▁gl": 2990,
      "▁lack": 2991,
      "▁amidst": 2992,
      "▁som": 2993,
      "▁joined": 2994,
      "veland": 2995,
      "▁flights": 2996,
      "▁frost": 2997,
      "ra": 2998,
      "▁chees": 2999,
      "▁commun": 3000,
      "▁–": 3001,
      "▁put": 3002,
      "alities": 3003,
      "▁quinoa": 3004,
      "²": 3005,
      "▁moth": 3006,
      "▁initiative": 3007,
      "▁page": 3008,
      "▁sou": 3009,
      "ocol": 3010,
      "▁gotten": 3011,
      "ier": 3012,
      "▁destiny": 3013,
      "▁quarter": 3014,
      "dly": 3015,
      "▁thoughts": 3016,
      "▁arts": 3017,
      "▁invite": 3018,
      "▁adapt": 3019,
      "▁conclusion": 3020,
      "▁fir": 3021,
      "▁place": 3022,
      "▁jwww": 3023,
      "▁artists": 3024,
      "iliation": 3025,
      "acing": 3026,
      "igh": 3027,
      "▁licens": 3028,
      "▁pounds": 3029,
      "▁non": 3030,
      "▁pollution": 3031,
      "▁site": 3032,
      "▁six": 3033,
      "vening": 3034,
      "▁cir": 3035,
      "▁attem": 3036,
      "q": 3037,
      "▁thanks": 3038,
      "▁agreed": 3039,
      "▁geomet": 3040,
      "▁airlines": 3041,
      "▁exceed": 3042,
      "selve": 3043,
      "aked": 3044,
      "ct": 3045,
      "▁natural": 3046,
      "œ": 3047,
      "dle": 3048,
      "▁viewed": 3049,
      "▁hearing": 3050,
      "ran": 3051,
      "uted": 3052,
      "▁sac": 3053,
      "ributing": 3054,
      "▁society": 3055,
      "▁parts": 3056,
      "▁custom": 3057,
      "▁dealt": 3058,
      "▁ind": 3059,
      "[UNK]": 3060,
      "▁ladies": 3061,
      "▁extension": 3062,
      "war": 3063,
      "mentation": 3064,
      "▁currently": 3065,
      "▁tail": 3066,
      "▁direc": 3067,
      "▁waited": 3068,
      "▁wed": 3069,
      "▁upon": 3070,
      "▁produces": 3071,
      "▁bang": 3072,
      "▁sale": 3073,
      "oring": 3074,
      "ept": 3075,
      "▁sounds": 3076,
      "▁event": 3077,
      "▁tap": 3078,
      "▁feathers": 3079,
      "▁tooth": 3080,
      "▁receipt": 3081,
      "he": 3082,
      "ased": 3083,
      "▁defense": 3084,
      "▁gift": 3085,
      "olves": 3086,
      "im": 3087,
      "▁students": 3088,
      "▁sett": 3089,
      "▁judge": 3090,
      "▁included": 3091,
      "eral": 3092,
      "▁aut": 3093,
      "ł": 3094,
      "▁e-m": 3095,
      "▁ahead": 3096,
      "▁grape": 3097,
      "▁d": 3098,
      "▁running": 3099,
      "▁mud": 3100,
      "▁snitch": 3101,
      "▁roles": 3102,
      "▁motorc": 3103,
      "▁cris": 3104,
      "▁prov": 3105,
      "▁….": 3106,
      "▁female": 3107,
      "huh": 3108,
      "▁dy": 3109,
      "-c": 3110,
      "alk": 3111,
      "▁levels": 3112,
      "▁range": 3113,
      "▁chief": 3114,
      "ighter": 3115,
      "▁labor": 3116,
      "▁moisture": 3117,
      "▁productivity": 3118,
      "▁throu": 3119,
      "▁peanuts": 3120,
      "▁secon": 3121,
      "ning": 3122,
      "▁chair": 3123,
      "eds": 3124,
      "▁constituency": 3125,
      "▁bit": 3126,
      "▁meth": 3127,
      "▁buy": 3128,
      "▁risk": 3129,
      "▁": 3130,
      "▁beneath": 3131,
      "▁corner": 3132,
      "▁bull": 3133,
      "▁....": 3134,
      "▁compli": 3135,
      "ɛ": 3136,
      "▁saved": 3137,
      "▁---------------------------------------------------------------------------": 3138,
      "za": 3139,
      "▁colon": 3140,
      "▁connec": 3141,
      "▁choices": 3142,
      "erv": 3143,
      "goti": 3144,
      "▁ess": 3145,
      "ufact": 3146,
      "▁knight": 3147,
      "overed": 3148,
      "▁sees": 3149,
      "ʻ": 3150,
      "igned": 3151,
      "▁baltimore": 3152,
      "▁th": 3153,
      "▁playwright": 3154,
      "▁popcorn": 3155,
      "an": 3156,
      "▁corners": 3157,
      "ures": 3158,
      "▁attorn": 3159,
      "▁mil": 3160,
      "▁nasa": 3161,
      "▁boyfriend": 3162,
      "eys": 3163,
      "▁soli": 3164,
      "▁technique": 3165,
      "▁repe": 3166,
      "▁term": 3167,
      "▁extent": 3168,
      "eric": 3169,
      "rif": 3170,
      "▁propose": 3171,
      "▁phone": 3172,
      "▁certificate": 3173,
      "▁exception": 3174,
      "▁interviews": 3175,
      "ort": 3176,
      "▁rec": 3177,
      "▁phys": 3178,
      "▁starts": 3179,
      "▁p.m.": 3180,
      "▁it's": 3181,
      "▁sm": 3182,
      "▁electric": 3183,
      "▁screwdriver": 3184,
      "ifies": 3185,
      "▁youth": 3186,
      "▁.........": 3187,
      "derst": 3188,
      "▁school": 3189,
      "▁restaurant": 3190,
      "iety": 3191,
      "▁chocolate": 3192,
      "▁scam": 3193,
      "alls": 3194,
      "▁bite": 3195,
      "▁stood": 3196,
      "▁candidates": 3197,
      "▁bill": 3198,
      "ird": 3199,
      "▁join": 3200,
      "aster": 3201,
      "igration": 3202,
      "▁cos": 3203,
      "rition": 3204,
      "▁8": 3205,
      "▁designed": 3206,
      "di": 3207,
      "▁lean": 3208,
      "▁processing": 3209,
      "asses": 3210,
      "mall": 3211,
      "▁suspected": 3212,
      "▁destruction": 3213,
      "▁designer": 3214,
      "asing": 3215,
      "▁power": 3216,
      "▁hel": 3217,
      "ght": 3218,
      "▁note": 3219,
      "▁rot": 3220,
      "waukee": 3221,
      "▁hams": 3222,
      "▁being": 3223,
      "▁availability": 3224,
      "▁mul": 3225,
      "▁sod": 3226,
      "▁transfer": 3227,
      "▁transaction": 3228,
      "▁**********": 3229,
      "lite": 3230,
      "▁jeff": 3231,
      "▁managing": 3232,
      "▁they": 3233,
      "▁articles": 3234,
      "▁dust": 3235,
      "▁eyes": 3236,
      "▁reven": 3237,
      "▁volley": 3238,
      "ove": 3239,
      "▁mer": 3240,
      "▁remembered": 3241,
      "▁figures": 3242,
      "▁satel": 3243,
      "▁muscles": 3244,
      "▁columns": 3245,
      "▁tools": 3246,
      "▁intervention": 3247,
      "▁anth": 3248,
      "▁vlog": 3249,
      "mping": 3250,
      "▁underm": 3251,
      "▁tire": 3252,
      "▁four": 3253,
      "▁att": 3254,
      "▁ending": 3255,
      "▁lif": 3256,
      "urn": 3257,
      "▁appearance": 3258,
      "▁kar": 3259,
      "▁aims": 3260,
      "▁angel": 3261,
      "▁governor": 3262,
      "zations": 3263,
      "▁bird": 3264,
      "ging": 3265,
      "▁!!": 3266,
      "▁flower": 3267,
      "▁divisions": 3268,
      "[SEP]": 3269,
      "▁bright": 3270,
      "▁fore": 3271,
      "▁themes": 3272,
      "▁reviewed": 3273,
      "▁missed": 3274,
      "▁library": 3275,
      "▁hr": 3276,
      "▁caught": 3277,
      "onally": 3278,
      "▁exa": 3279,
      "omer": 3280,
      "icked": 3281,
      "▁cried": 3282,
      "▁electricity": 3283,
      "▁slip": 3284,
      "▁mis": 3285,
      "▁bew": 3286,
      "ut": 3287,
      "lation": 3288,
      "▁leg": 3289,
      "▁----==": 3290,
      "▁mat": 3291,
      "icult": 3292,
      "▁aqu": 3293,
      "▁en": 3294,
      "▁jokes": 3295,
      "▁nail": 3296,
      "▁establishing": 3297,
      "ither": 3298,
      "▁blown": 3299,
      "▁resour": 3300,
      "titudes": 3301,
      "▁mac": 3302,
      "▁house": 3303,
      "▁mo": 3304,
      "si": 3305,
      "'clock": 3306,
      "ame": 3307,
      "-b": 3308,
      "lities": 3309,
      "▁ob": 3310,
      "▁import": 3311,
      "▁drive": 3312,
      "most": 3313,
      "90s": 3314,
      "down": 3315,
      "▁teh": 3316,
      "ects": 3317,
      "▁ki": 3318,
      "▁bench": 3319,
      "▁terrorists": 3320,
      "▁promp": 3321,
      "▁kitchen": 3322,
      "▁across": 3323,
      "▁edit": 3324,
      "▁remains": 3325,
      "owers": 3326,
      "▁making": 3327,
      "▁infrastructure": 3328,
      "crib": 3329,
      "ternoon": 3330,
      "ator": 3331,
      "▁wagon": 3332,
      "ister": 3333,
      "▁opened": 3334,
      "fic": 3335,
      "▁downtown": 3336,
      "▁earth": 3337,
      "▁fin": 3338,
      "▁entry": 3339,
      "▁crew": 3340,
      "▁cele": 3341,
      "rating": 3342,
      "▁memphis": 3343,
      "▁figured": 3344,
      "▁aband": 3345,
      "▁used": 3346,
      "▁jam": 3347,
      "▁license": 3348,
      "▁limitations": 3349,
      "▁examples": 3350,
      "▁insight": 3351,
      "▁purchased": 3352,
      "em": 3353,
      "▁potatoes": 3354,
      "▁ped": 3355,
      "aged": 3356,
      "▁guards": 3357,
      "cp": 3358,
      "▁30": 3359,
      "▁science": 3360,
      "▁hoc": 3361,
      "▁financ": 3362,
      "▁travel": 3363,
      "▁wel": 3364,
      "▁counterfeiting": 3365,
      "gency": 3366,
      "▁created": 3367,
      "▁alligator": 3368,
      "▁fame": 3369,
      "▁acknowledge": 3370,
      "uses": 3371,
      "▁calling": 3372,
      "▁select": 3373,
      "▁throughout": 3374,
      "▁her": 3375,
      "▁run": 3376,
      "▁stick": 3377,
      "▁***": 3378,
      "▁challen": 3379,
      "▁switched": 3380,
      "▁sink": 3381,
      "▁document": 3382,
      "earch": 3383,
      "▁subs": 3384,
      "▁plastic": 3385,
      "pse": 3386,
      "list": 3387,
      "▁aboard": 3388,
      "▁life": 3389,
      "▁origins": 3390,
      "▁referred": 3391,
      "▁verse": 3392,
      "▁procedures": 3393,
      "▁sister": 3394,
      "orities": 3395,
      "▁discre": 3396,
      "book": 3397,
      "▁provides": 3398,
      "▁spos": 3399,
      "▁pud": 3400,
      "/he": 3401,
      "▁answer": 3402,
      "▁internet": 3403,
      "▁with": 3404,
      "▁offer": 3405,
      "▁staff": 3406,
      "▁describes": 3407,
      "▁hole": 3408,
      "la": 3409,
      "▁compared": 3410,
      "ely": 3411,
      "▁benefit": 3412,
      "oma": 3413,
      "▁checking": 3414,
      "▁uk": 3415,
      "▁funded": 3416,
      "tered": 3417,
      "▁pu": 3418,
      "▁independ": 3419,
      "▁wanted": 3420,
      "▁obs": 3421,
      "▁ought": 3422,
      "▁landscape": 3423,
      "▁manuscri": 3424,
      "▁plot": 3425,
      "▁dentist": 3426,
      "▁whale": 3427,
      "pol": 3428,
      "▁det": 3429,
      "▁drove": 3430,
      "▁hate": 3431,
      "▁matter": 3432,
      "▁dire": 3433,
      "▁continental": 3434,
      "j": 3435,
      "▁sandwiches": 3436,
      "▁so": 3437,
      "▁equals": 3438,
      "▁reasons": 3439,
      "▁post": 3440,
      "▁investigation": 3441,
      "▁cat": 3442,
      "icke": 3443,
      "▁tug": 3444,
      "▁conform": 3445,
      "▁bulldozer": 3446,
      "▁sunday": 3447,
      "ic": 3448,
      "ium": 3449,
      "▁strategy": 3450,
      "▁subst": 3451,
      "▁head": 3452,
      "▁try": 3453,
      "▁pasta": 3454,
      "iation": 3455,
      "▁reserv": 3456,
      "▁fashion": 3457,
      "▁declaration": 3458,
      "▁impro": 3459,
      "▁agent": 3460,
      "▁colleagues": 3461,
      "▁savings": 3462,
      "▁surp": 3463,
      "▁rental": 3464,
      "row": 3465,
      "▁tam": 3466,
      "▁declar": 3467,
      "▁define": 3468,
      "work": 3469,
      "▁dollar": 3470,
      "cha": 3471,
      "▁group": 3472,
      "▁charl": 3473,
      "▁terrorism": 3474,
      "ø": 3475,
      "ounded": 3476,
      "▁incre": 3477,
      "▁front": 3478,
      "▁mosqu": 3479,
      "▁strateg": 3480,
      "▁window": 3481,
      "▁why": 3482,
      "▁legislature": 3483,
      "oph": 3484,
      "▁models": 3485,
      "▁one": 3486,
      "▁toll": 3487,
      "▁missing": 3488,
      "sp": 3489,
      "▁america": 3490,
      "▁paragraph": 3491,
      "▁row": 3492,
      "▁radiation": 3493,
      "▁training": 3494,
      "▁brings": 3495,
      "▁initiatives": 3496,
      "tures": 3497,
      "▁veget": 3498,
      "▁muscle": 3499,
      "▁suite": 3500,
      "▁extr": 3501,
      "▁enti": 3502,
      "▁passing": 3503,
      "▁notch": 3504,
      "▁oatmeal": 3505,
      "▁alth": 3506,
      "cl": 3507,
      "▁l": 3508,
      "▁astride": 3509,
      "▁news": 3510,
      "▁garbage": 3511,
      "▁kidding": 3512,
      "▁motorcycle": 3513,
      "▁indicated": 3514,
      "tingu": 3515,
      "mar": 3516,
      "▁total": 3517,
      "▁buses": 3518,
      "erving": 3519,
      "▁eating": 3520,
      "▁written": 3521,
      "itive": 3522,
      "▁ocean": 3523,
      "▁meat": 3524,
      "▁exposure": 3525,
      "▁writers": 3526,
      "▁rising": 3527,
      "▁reserve": 3528,
      "▁sang": 3529,
      "rest": 3530,
      "▁americ": 3531,
      "▁associate": 3532,
      "▁amounts": 3533,
      "ces": 3534,
      "ology": 3535,
      "▁manual": 3536,
      "▁provision": 3537,
      "▁battle": 3538,
      "board": 3539,
      "unc": 3540,
      "ug": 3541,
      "orated": 3542,
      "▁radio": 3543,
      "▁artic": 3544,
      "▁males": 3545,
      "▁sonnets": 3546,
      "▁woman": 3547,
      "▁hanging": 3548,
      "▁vision": 3549,
      "▁belt": 3550,
      "▁thous": 3551,
      "▁becoming": 3552,
      "▁qaeda": 3553,
      "▁hor": 3554,
      "gets": 3555,
      "ones": 3556,
      "▁scale": 3557,
      "▁tried": 3558,
      "▁bri": 3559,
      "..": 3560,
      "▁sting": 3561,
      "▁assets": 3562,
      "▁tragedies": 3563,
      "▁st.": 3564,
      "▁reads": 3565,
      "▁removed": 3566,
      "ether": 3567,
      "ulating": 3568,
      "reds": 3569,
      "▁pushing": 3570,
      "▁arri": 3571,
      "pped": 3572,
      "pd": 3573,
      "▁die": 3574,
      "▁warned": 3575,
      "▁))": 3576,
      "▁participating": 3577,
      "ι": 3578,
      "action": 3579,
      "▁ski": 3580,
      "ger": 3581,
      "▁!": 3582,
      "▁stay": 3583,
      "▁trou": 3584,
      "▁maybe": 3585,
      "erate": 3586,
      "▁proceed": 3587,
      "umes": 3588,
      "▁exclu": 3589,
      "▁peanut": 3590,
      "so": 3591,
      "pan": 3592,
      "ved": 3593,
      "▁increased": 3594,
      "▁pocket": 3595,
      "▁fate": 3596,
      "▁ours": 3597,
      "▁rene": 3598,
      "sually": 3599,
      "▁isd": 3600,
      "▁possession": 3601,
      "▁mys": 3602,
      "▁food": 3603,
      "▁addressed": 3604,
      "read": 3605,
      "▁soldi": 3606,
      "æ": 3607,
      "tering": 3608,
      "▁ports": 3609,
      "______": 3610,
      "▁ign": 3611,
      "▁capability": 3612,
      "▁dates": 3613,
      "▁ear": 3614,
      "▁beetle": 3615,
      "▁yo": 3616,
      "▁corpor": 3617,
      "berry": 3618,
      "▁owe": 3619,
      "▁hall": 3620,
      "tai": 3621,
      "▁study": 3622,
      "une": 3623,
      "▁sec": 3624,
      "▁seal": 3625,
      "▁mosquito": 3626,
      "right": 3627,
      "▁comb": 3628,
      "ife": 3629,
      "▁clean": 3630,
      "▁advertis": 3631,
      "▁litter": 3632,
      "▁mathematics": 3633,
      "▁drag": 3634,
      "reat": 3635,
      "lig": 3636,
      "▁oct": 3637,
      "ghting": 3638,
      "▁bring": 3639,
      "▁dr.": 3640,
      "abilities": 3641,
      "▁iraq": 3642,
      "▁photos": 3643,
      "▁fund": 3644,
      "▁maint": 3645,
      "▁attracted": 3646,
      "▁sarah": 3647,
      "▁dose": 3648,
      "▁general": 3649,
      "▁reservation": 3650,
      "▁mont": 3651,
      "ness": 3652,
      "▁performed": 3653,
      "▁fli": 3654,
      "▁colle": 3655,
      "▁besides": 3656,
      "▁browser": 3657,
      "chen": 3658,
      "▁concepts": 3659,
      "▁comment": 3660,
      "ashing": 3661,
      "▁ozone": 3662,
      "▁line": 3663,
      "▁soap": 3664,
      "▁trave": 3665,
      "▁heel": 3666,
      "onto": 3667,
      "▁diseases": 3668,
      "▁conferences": 3669,
      "▁existed": 3670,
      "▁wood": 3671,
      "▁diapers": 3672,
      "▁re": 3673,
      "▁along": 3674,
      "▁kinds": 3675,
      "▁raining": 3676,
      "▁happy": 3677,
      "▁polar": 3678,
      "selves": 3679,
      "▁trash": 3680,
      "▁clin": 3681,
      "▁bar": 3682,
      "▁communication": 3683,
      "ville": 3684,
      "▁refin": 3685,
      "hol": 3686,
      "▁events": 3687,
      "▁cous": 3688,
      "▁merc": 3689,
      "▁roads": 3690,
      "▁transportation": 3691,
      "▁thinks": 3692,
      "▁risks": 3693,
      "▁climbing": 3694,
      "▁holding": 3695,
      "▁roof": 3696,
      "▁~": 3697,
      "▁apply": 3698,
      "ification": 3699,
      "▁deteri": 3700,
      "▁ll": 3701,
      "▁occupation": 3702,
      "▁regarded": 3703,
      "▁swim": 3704,
      "▁trav": 3705,
      "▁antiqu": 3706,
      "▁discip": 3707,
      "▁ton": 3708,
      "iv": 3709,
      "▁rags": 3710,
      "ats": 3711,
      "le": 3712,
      "▁par": 3713,
      "▁shoulders": 3714,
      "enef": 3715,
      "ty": 3716,
      "▁loved": 3717,
      "▁dwww": 3718,
      "▁mouth": 3719,
      "▁those": 3720,
      "▁consid": 3721,
      "igr": 3722,
      "▁appro": 3723,
      "▁adv": 3724,
      "▁recently": 3725,
      "▁mon": 3726,
      "▁screw": 3727,
      "▁today": 3728,
      "epend": 3729,
      "▁chan": 3730,
      "▁get": 3731,
      "▁parakeet": 3732,
      "▁equality": 3733,
      "▁euro": 3734,
      "▁restri": 3735,
      "▁riding": 3736,
      "▁difficulty": 3737,
      "▁yourself": 3738,
      "▁influence": 3739,
      "▁practicing": 3740,
      "▁involving": 3741,
      "▁user": 3742,
      "▁mile": 3743,
      "▁fiction": 3744,
      "▁jus": 3745,
      "▁shade": 3746,
      "▁inform": 3747,
      "▁government": 3748,
      "▁subscrib": 3749,
      "ack": 3750,
      "▁rat": 3751,
      "emic": 3752,
      "▁from": 3753,
      "▁challenges": 3754,
      "▁standards": 3755,
      "▁legisl": 3756,
      "▁tag": 3757,
      "▁approach": 3758,
      "anda": 3759,
      "▁these": 3760,
      "augh": 3761,
      "ato": 3762,
      "ee": 3763,
      "▁genius": 3764,
      "▁intel": 3765,
      "▁bow": 3766,
      "▁resulting": 3767,
      "▁nation": 3768,
      "▁recommend": 3769,
      "duc": 3770,
      "▁tiny": 3771,
      "ified": 3772,
      "▁tribe": 3773,
      "/2": 3774,
      "▁iss": 3775,
      "nd": 3776,
      "▁theater": 3777,
      "cre": 3778,
      "▁poc": 3779,
      "▁intend": 3780,
      "▁thing": 3781,
      "▁decide": 3782,
      "ip": 3783,
      "ald": 3784,
      "▁°": 3785,
      "▁bone": 3786,
      "▁feels": 3787,
      "▁rep": 3788,
      "▁purse": 3789,
      "issions": 3790,
      "▁intentions": 3791,
      "▁agric": 3792,
      "▁’d": 3793,
      "▁tables": 3794,
      "▁emerged": 3795,
      "▁already": 3796,
      "▁rocks": 3797,
      "▁statements": 3798,
      "▁preparation": 3799,
      "▁basis": 3800,
      "▁exists": 3801,
      "▁/": 3802,
      "▁crowd": 3803,
      "bably": 3804,
      "▁craw": 3805,
      "ularity": 3806,
      "▁month": 3807,
      "▁medium": 3808,
      "▁businesses": 3809,
      "▁best": 3810,
      "▁team": 3811,
      "▁speed": 3812,
      "yn": 3813,
      "oking": 3814,
      "▁conversation": 3815,
      "▁est": 3816,
      "yl": 3817,
      "▁generations": 3818,
      "▁but": 3819,
      "▁anything": 3820,
      "▁interview": 3821,
      "▁opens": 3822,
      "ig": 3823,
      "▁territory": 3824,
      "▁world": 3825,
      "▁alt": 3826,
      "▁supply": 3827,
      "▁tasks": 3828,
      "▁virus": 3829,
      "▁contracts": 3830,
      "lic": 3831,
      "arters": 3832,
      "▁neighbor": 3833,
      "cross": 3834,
      "▁agenda": 3835,
      "▁spoon": 3836,
      "▁caused": 3837,
      "▁vide": 3838,
      "vers": 3839,
      "▁......": 3840,
      "▁economic": 3841,
      "▁o'clock": 3842,
      "▁unity": 3843,
      "▁chang": 3844,
      "ael": 3845,
      "ously": 3846,
      "▁tot": 3847,
      "▁tell": 3848,
      "▁wip": 3849,
      "ple": 3850,
      "mer": 3851,
      "▁visitors": 3852,
      "alog": 3853,
      "ici": 3854,
      "▁uni": 3855,
      "icate": 3856,
      "▁’": 3857,
      "▁buttons": 3858,
      "man": 3859,
      "▁death": 3860,
      "▁tv": 3861,
      "▁economists": 3862,
      "▁pizza": 3863,
      "▁sauce": 3864,
      "▁turb": 3865,
      "ele": 3866,
      "▁kept": 3867,
      "riendly": 3868,
      "▁slice": 3869,
      "mit": 3870,
      "▁congress": 3871,
      "▁are": 3872,
      "▁among": 3873,
      "erful": 3874,
      "000": 3875,
      "▁launch": 3876,
      "sets": 3877,
      "▁skip": 3878,
      "▁universe": 3879,
      "▁magic": 3880,
      "▁lessons": 3881,
      "inoc": 3882,
      "▁big": 3883,
      "zer": 3884,
      "▁racing": 3885,
      "▁estim": 3886,
      "▁follow": 3887,
      "▁developer": 3888,
      "ived": 3889,
      "▁book": 3890,
      "bow": 3891,
      "▁mailings": 3892,
      "ters": 3893,
      "▁kansas": 3894,
      "▁november": 3895,
      "▁rabbits": 3896,
      "▁lots": 3897,
      "▁stillman": 3898,
      "▁displayed": 3899,
      "▁ti": 3900,
      "men": 3901,
      "▁full": 3902,
      "arity": 3903,
      "▁knoc": 3904,
      "▁reproduc": 3905,
      "▁families": 3906,
      "▁emerging": 3907,
      "▁concerned": 3908,
      "inity": 3909,
      "vision": 3910,
      "▁composition": 3911,
      "▁scar": 3912,
      "▁cond": 3913,
      "▁do": 3914,
      "derstand": 3915,
      "▁lou": 3916,
      "▁cheapest": 3917,
      "▁collecting": 3918,
      "ages": 3919,
      "oke": 3920,
      "▁spons": 3921,
      "▁organized": 3922,
      "gre": 3923,
      "▁dist": 3924,
      "▁-----------------": 3925,
      "▁'": 3926,
      "ring": 3927,
      "▁cook": 3928,
      "tie": 3929,
      "▁received": 3930,
      "▁minimum": 3931,
      "▁relating": 3932,
      "▁jun": 3933,
      "▁noone": 3934,
      "▁likes": 3935,
      "▁proble": 3936,
      "▁pointing": 3937,
      "▁gone": 3938,
      "▁root": 3939,
      "orage": 3940,
      "▁extre": 3941,
      "tive": 3942,
      "▁cy": 3943,
      "oxide": 3944,
      "▁objects": 3945,
      "formation": 3946,
      "tling": 3947,
      "▁cage": 3948,
      "▁alleged": 3949,
      "▁b": 3950,
      "ming": 3951,
      "▁explos": 3952,
      "▁live": 3953,
      "▁asp": 3954,
      "▁aunt": 3955,
      "▁council": 3956,
      "▁housing": 3957,
      "▁bugs": 3958,
      "▁gap": 3959,
      "ails": 3960,
      "▁wheat": 3961,
      "ints": 3962,
      "’s": 3963,
      "▁no": 3964,
      "▁washington": 3965,
      "▁ed": 3966,
      "▁ignore": 3967,
      "▁cabbage": 3968,
      "▁actor": 3969,
      "▁hundreds": 3970,
      "▁mouse": 3971,
      "▁generation": 3972,
      "utation": 3973,
      "▁acceptance": 3974,
      "▁gained": 3975,
      "▁complete": 3976,
      "▁offic": 3977,
      "▁device": 3978,
      "▁demonstrate": 3979,
      "▁eggs": 3980,
      "▁counterfe": 3981,
      "▁helicopters": 3982,
      "▁http://www": 3983,
      "▁it": 3984,
      "▁authors": 3985,
      "inate": 3986,
      "▁quest": 3987,
      "▁camp": 3988,
      "▁operator": 3989,
      "www": 3990,
      "▁palace": 3991,
      "▁rom": 3992,
      "▁pill": 3993,
      "▁tar": 3994,
      "qu": 3995,
      "▁drink": 3996,
      "▁came": 3997,
      "gr": 3998,
      "▁heading": 3999,
      "▁fles": 4000,
      "▁decre": 4001,
      "▁reflected": 4002,
      "▁philadel": 4003,
      "▁col": 4004,
      "▁finding": 4005,
      "▁silk": 4006,
      "▁prem": 4007,
      "▁short": 4008,
      "ivid": 4009,
      "▁climate": 4010,
      "▁date": 4011,
      "▁favor": 4012,
      "▁impris": 4013,
      "▁goat": 4014,
      "▁well": 4015,
      "▁stairs": 4016,
      "gry": 4017,
      "▁neither": 4018,
      "whether": 4019,
      "▁flying": 4020,
      "▁measure": 4021,
      "▁mount": 4022,
      "▁menti": 4023,
      "▁determined": 4024,
      "our": 4025,
      "▁toile": 4026,
      "ashed": 4027,
      "▁programme": 4028,
      "bal": 4029,
      "▁desert": 4030,
      "▁revealed": 4031,
      "▁le": 4032,
      "ination": 4033,
      "▁teams": 4034,
      "▁shock": 4035,
      "idden": 4036,
      "▁pra": 4037,
      "riend": 4038,
      "▁pen": 4039,
      "▁explain": 4040,
      "▁found": 4041,
      "ssi": 4042,
      "inated": 4043,
      "▁mad": 4044,
      "▁turn": 4045,
      "▁digging": 4046,
      "▁easy": 4047,
      "yp": 4048,
      "▁fruit": 4049,
      "▁waves": 4050,
      "ked": 4051,
      "▁fiel": 4052,
      "▁established": 4053,
      "▁graduate": 4054,
      "▁described": 4055,
      "mission": 4056,
      "▁outcome": 4057,
      "cinn": 4058,
      "▁having": 4059,
      "▁soc": 4060,
      "▁residents": 4061,
      "▁gar": 4062,
      "ead": 4063,
      "▁pil": 4064,
      "▁beef": 4065,
      "▁franc": 4066,
      "▁negot": 4067,
      "▁bunch": 4068,
      "3": 4069,
      "▁pattern": 4070,
      "etter": 4071,
      "▁estimate": 4072,
      "su": 4073,
      "▁length": 4074,
      "▁blanket": 4075,
      "▁behalf": 4076,
      "ouse": 4077,
      "uring": 4078,
      "▁emb": 4079,
      "▁position": 4080,
      "▁issues": 4081,
      "▁country": 4082,
      "▁knowledge": 4083,
      "ety": 4084,
      "▁breakfast": 4085,
      "ugh": 4086,
      "▁interference": 4087,
      "ign": 4088,
      "tiveness": 4089,
      "▁enjambment": 4090,
      "▁environments": 4091,
      "▁spending": 4092,
      "ays": 4093,
      "▁gets": 4094,
      "▁stepped": 4095,
      "▁treated": 4096,
      "▁visiting": 4097,
      "▁cler": 4098,
      "▁shared": 4099,
      "▁soil": 4100,
      "▁tomorrow": 4101,
      "▁men": 4102,
      "▁errors": 4103,
      "eries": 4104,
      "▁sto": 4105,
      "▁kittens": 4106,
      "▁passed": 4107,
      "▁hea": 4108,
      "artment": 4109,
      "asters": 4110,
      "gery": 4111,
      "ww": 4112,
      "▁calls": 4113,
      "▁walking": 4114,
      "▁describe": 4115,
      "▁george": 4116,
      "ales": 4117,
      "ie": 4118,
      "uropean": 4119,
      "porte": 4120,
      "▁!!!!!!!!!!!!!!!!!!!": 4121,
      "▁sections": 4122,
      "▁shakespeare": 4123,
      "▁da": 4124,
      "▁fortune": 4125,
      "e": 4126,
      "▁sect": 4127,
      "▁quan": 4128,
      "▁vers": 4129,
      "▁laid": 4130,
      "▁tro": 4131,
      "▁settled": 4132,
      "▁knows": 4133,
      "care": 4134,
      "▁alongside": 4135,
      "▁card": 4136,
      "▁hear": 4137,
      "▁coat": 4138,
      "▁suffer": 4139,
      "▁red": 4140,
      "▁targ": 4141,
      "▁bars": 4142,
      "lished": 4143,
      "▁survey": 4144,
      "▁ceo": 4145,
      "if": 4146,
      "▁back": 4147,
      "▁projected": 4148,
      "▁adopted": 4149,
      "▁theories": 4150,
      "ron": 4151,
      "▁tour": 4152,
      "▁ro": 4153,
      "▁tw": 4154,
      "▁sticks": 4155,
      "▁forg": 4156,
      "▁-------------------------------------------------": 4157,
      "▁n": 4158,
      "▁return": 4159,
      "▁key": 4160,
      "▁manager": 4161,
      "▁married": 4162,
      "▁bubble": 4163,
      "ually": 4164,
      "▁momma": 4165,
      "▁studying": 4166,
      "uated": 4167,
      "arians": 4168,
      "erved": 4169,
      "▁compl": 4170,
      "earance": 4171,
      "onds": 4172,
      "▁que": 4173,
      "ular": 4174,
      "▁credit": 4175,
      "▁creation": 4176,
      "aled": 4177,
      "ground": 4178,
      "box": 4179,
      "ober": 4180,
      "▁artworks": 4181,
      "▁progress": 4182,
      "▁economy": 4183,
      "³": 4184,
      "▁etc": 4185,
      "▁interp": 4186,
      "▁query": 4187,
      "raph": 4188,
      "▁own": 4189,
      "▁argument": 4190,
      "▁day": 4191,
      "▁vi": 4192,
      "▁famili": 4193,
      "▁potty": 4194,
      "▁main": 4195,
      "▁capital": 4196,
      "▁almost": 4197,
      "ablish": 4198,
      "tail": 4199,
      "entions": 4200,
      "p": 4201,
      "▁mommy": 4202,
      "▁drew": 4203,
      "▁approved": 4204,
      "▁community": 4205,
      "oving": 4206,
      "▁regar": 4207,
      "▁resistance": 4208,
      "▁ar": 4209,
      "erences": 4210,
      "▁dog": 4211,
      "▁ball": 4212,
      "▁communic": 4213,
      "▁realize": 4214,
      "▁european": 4215,
      "▁overalls": 4216,
      "▁lover": 4217,
      "▁facilities": 4218,
      "▁htt": 4219,
      "▁carbon": 4220,
      "▁banj": 4221,
      "▁buc": 4222,
      "▁push": 4223,
      "▁miles": 4224,
      "▁pajamas": 4225,
      "▁guest": 4226,
      "▁priest": 4227,
      "▁’m": 4228,
      "ical": 4229,
      "▁hun": 4230,
      "▁message": 4231,
      "ater": 4232,
      "▁toronto": 4233,
      "▁=---": 4234,
      "ams": 4235,
      "▁soldier": 4236,
      "▁centre": 4237,
      "▁grant": 4238,
      "▁sover": 4239,
      "▁wo": 4240,
      "▁spill": 4241,
      "▁performances": 4242,
      "▁i": 4243,
      "▁compens": 4244,
      "angu": 4245,
      "oe": 4246,
      "▁ge": 4247,
      "uggles": 4248,
      "▁source": 4249,
      "stances": 4250,
      "alism": 4251,
      "▁initi": 4252,
      "gg": 4253,
      "▁fulf": 4254,
      "▁approval": 4255,
      "▁transport": 4256,
      "▁angeles": 4257,
      "▁su": 4258,
      "▁l2": 4259,
      "round": 4260,
      "▁participate": 4261,
      "▁hidden": 4262,
      "ians": 4263,
      "works": 4264,
      "▁constit": 4265,
      "un": 4266,
      "▁plat": 4267,
      "enting": 4268,
      "▁cruise": 4269,
      "▁chosen": 4270,
      "ies": 4271,
      "▁highligh": 4272,
      "▁gn": 4273,
      "ick": 4274,
      "▁escaped": 4275,
      "▁grandma": 4276,
      "avery": 4277,
      "▁service": 4278,
      "nut": 4279,
      "er": 4280,
      "▁attacked": 4281,
      "▁ribbon": 4282,
      "▁satisf": 4283,
      "▁bottles": 4284,
      "afts": 4285,
      "▁vit": 4286,
      "imb": 4287,
      "▁consu": 4288,
      "▁blocks": 4289,
      "ceived": 4290,
      "tics": 4291,
      "▁threat": 4292,
      "▁allies": 4293,
      "ouch": 4294,
      "▁leaves": 4295,
      "olding": 4296,
      "▁extremely": 4297,
      "▁contribution": 4298,
      "▁presentation": 4299,
      "essment": 4300,
      "▁frozen": 4301,
      "eces": 4302,
      "▁rip": 4303,
      "▁delivery": 4304,
      "▁weapon": 4305,
      "uly": 4306,
      "▁investig": 4307,
      "▁individual": 4308,
      "▁moral": 4309,
      "▁countries": 4310,
      "▁achieving": 4311,
      "▁freezer": 4312,
      "▁storm": 4313,
      "▁tun": 4314,
      "▁media": 4315,
      "lik": 4316,
      "▁bo": 4317,
      "▁sound": 4318,
      "▁conclu": 4319,
      "ders": 4320,
      "▁recent": 4321,
      "▁interv": 4322,
      "▁dece": 4323,
      "ore": 4324,
      "▁bicycle": 4325,
      "urs": 4326,
      "▁biting": 4327,
      "▁poodle": 4328,
      "▁dem": 4329,
      "▁convinced": 4330,
      "ka": 4331,
      "▁certi": 4332,
      "either": 4333,
      "▁programmes": 4334,
      "▁promoted": 4335,
      "▁observ": 4336,
      "▁avo": 4337,
      "▁wik": 4338,
      "▁discus": 4339,
      "▁version": 4340,
      "▁kid": 4341,
      "▁mosques": 4342,
      "ib": 4343,
      "▁patients": 4344,
      "▁dep": 4345,
      "▁congrat": 4346,
      "irst": 4347,
      "▁banjo": 4348,
      "iac": 4349,
      "▁climb": 4350,
      "▁ta": 4351,
      "onal": 4352,
      "▁‘’": 4353,
      "▁mention": 4354,
      "▁confusion": 4355,
      "▁cuck": 4356,
      "amole": 4357,
      "▁suffered": 4358,
      "▁committee": 4359,
      "▁cheek": 4360,
      "▁confirm": 4361,
      "▁assume": 4362,
      "▁surr": 4363,
      "til": 4364,
      "ician": 4365,
      "▁islamists": 4366,
      "▁decline": 4367,
      "▁class": 4368,
      "ances": 4369,
      "▁returning": 4370,
      "▁gang": 4371,
      "▁pref": 4372,
      "▁u.": 4373,
      "▁rob": 4374,
      "ware": 4375,
      "estiv": 4376,
      "▁moving": 4377,
      "▁soul": 4378,
      "▁long": 4379,
      "▁polaroids": 4380,
      "▁...............": 4381,
      "▁crimes": 4382,
      "▁mom": 4383,
      "▁did": 4384,
      "▁ir": 4385,
      "avor": 4386,
      "xts": 4387,
      "▁usually": 4388,
      "▁wake": 4389,
      "mped": 4390,
      "ker": 4391,
      "▁|--------+----------------": 4392,
      "ei": 4393,
      "▁intervening": 4394,
      "▁declare": 4395,
      "aw": 4396,
      "▁trips": 4397,
      "▁broke": 4398,
      "ify": 4399,
      "▁chances": 4400,
      "amus": 4401,
      "ffic": 4402,
      "des": 4403,
      "▁cray": 4404,
      "▁waters": 4405,
      "▁century": 4406,
      "▁exchange": 4407,
      "-1.doc": 4408,
      "lers": 4409,
      "▁enjoyed": 4410,
      "▁says": 4411,
      "ational": 4412,
      "▁rap": 4413,
      "▁sss": 4414,
      "▁peoples": 4415,
      "ional": 4416,
      "ode": 4417,
      "▁facil": 4418,
      "▁seekers": 4419,
      "▁installed": 4420,
      ".pdf": 4421,
      "▁carol": 4422,
      "▁too": 4423,
      "▁mem": 4424,
      "b": 4425,
      "▁gro": 4426,
      "atives": 4427,
      "▁anti": 4428,
      "▁refriger": 4429,
      "osing": 4430,
      "▁directed": 4431,
      "▁enjo": 4432,
      "▁harry": 4433,
      "orti": 4434,
      "▁hippop": 4435,
      "▁pig": 4436,
      "ched": 4437,
      "▁crawl": 4438,
      "▁enough": 4439,
      "▁close": 4440,
      "▁tea": 4441,
      "fro": 4442,
      "▁docum": 4443,
      "ength": 4444,
      "▁frag": 4445,
      "▁photography": 4446,
      "ub": 4447,
      "▁shall": 4448,
      "▁boots": 4449,
      "▁drank": 4450,
      "▁citizen": 4451,
      "▁number": 4452,
      "ozer": 4453,
      "▁director": 4454,
      "▁seating": 4455,
      "▁round": 4456,
      "▁walk": 4457,
      "▁show": 4458,
      "▁languages": 4459,
      "▁reflection": 4460,
      "ˈ": 4461,
      "ticians": 4462,
      "▁sim": 4463,
      "▁tension": 4464,
      "▁agreement": 4465,
      "▁granted": 4466,
      "▁has": 4467,
      "▁played": 4468,
      "▁yester": 4469,
      "owing": 4470,
      "▁wiggle": 4471,
      "▁huge": 4472,
      "▁concern": 4473,
      "▁difficulties": 4474,
      "▁definition": 4475,
      "dered": 4476,
      "▁adap": 4477,
      "▁purs": 4478,
      "▁folks": 4479,
      "▁thrown": 4480,
      "▁bott": 4481,
      "▁counsel": 4482,
      "▁animal": 4483,
      "▁sust": 4484,
      "▁wrote": 4485,
      "inating": 4486,
      "▁sons": 4487,
      "▁small": 4488,
      "▁was": 4489,
      "▁theme": 4490,
      "▁burn": 4491,
      "ult": 4492,
      "▁info": 4493,
      "▁sept": 4494,
      "▁..........": 4495,
      "▁applied": 4496,
      "▁routes": 4497,
      "▁decision": 4498,
      "▁ther": 4499,
      "one": 4500,
      "▁results": 4501,
      "▁arriving": 4502,
      "ycle": 4503,
      "iction": 4504,
      "▁dolphins": 4505,
      "arl": 4506,
      "▁ban": 4507,
      "▁accomp": 4508,
      "▁pepper": 4509,
      "thy": 4510,
      "-------": 4511,
      "▁serve": 4512,
      "▁recogn": 4513,
      "ison": 4514,
      "▁invited": 4515,
      "eeze": 4516,
      "▁tom": 4517,
      "▁flag": 4518,
      "ector": 4519,
      "▁ambul": 4520,
      "▁falling": 4521,
      "ancy": 4522,
      "▁trials": 4523,
      "hea": 4524,
      "ined": 4525,
      "▁properties": 4526,
      "uscri": 4527,
      "▁appe": 4528,
      "ault": 4529,
      "▁destruc": 4530,
      "▁noted": 4531,
      "lined": 4532,
      "▁analysis": 4533,
      "ien": 4534,
      "▁load": 4535,
      "▁weake": 4536,
      "ast": 4537,
      "▁butter": 4538,
      "▁grass": 4539,
      "ass": 4540,
      "#": 4541,
      "▁routine": 4542,
      "▁suffering": 4543,
      "respond": 4544,
      "▁libr": 4545,
      "▁neighborhood": 4546,
      "cess": 4547,
      "▁happening": 4548,
      "▁hearings": 4549,
      "▁regret": 4550,
      "▁draft": 4551,
      "anc": 4552,
      "▁thre": 4553,
      "▁vegas": 4554,
      "▁wish": 4555,
      "▁envelop": 4556,
      "▁towards": 4557,
      "to": 4558,
      "▁worksh": 4559,
      "ym": 4560,
      "ist": 4561,
      "▁especially": 4562,
      "▁donations": 4563,
      "mited": 4564,
      "▁cup": 4565,
      "▁parad": 4566,
      "ws": 4567,
      "▁worn": 4568,
      "▁reached": 4569,
      "▁mm": 4570,
      "▁?!?": 4571,
      "▁survival": 4572,
      "▁singing": 4573,
      "▁sex": 4574,
      "aith": 4575,
      "▁theirs": 4576,
      "antee": 4577,
      "▁seventh": 4578,
      "▁accepted": 4579,
      "icul": 4580,
      "▁bed": 4581,
      "house": 4582,
      "▁>": 4583,
      "▁boston": 4584,
      "riage": 4585,
      "ception": 4586,
      "▁violation": 4587,
      "▁innovation": 4588,
      "ied": 4589,
      "ten": 4590,
      "▁taking": 4591,
      "cause": 4592,
      "orrow": 4593,
      "▁supermarket": 4594,
      "▁leadership": 4595,
      "est": 4596,
      "igning": 4597,
      "▁planned": 4598,
      "oud": 4599,
      "▁jur": 4600,
      "ention": 4601,
      "ph": 4602,
      "itical": 4603,
      "enn": 4604,
      "▁cereal": 4605,
      "▁view": 4606,
      "fts": 4607,
      "▁brain": 4608,
      "▁string": 4609,
      "▁for": 4610,
      "▁guide": 4611,
      "▁steam": 4612,
      "▁im": 4613,
      "▁whose": 4614,
      "▁ships": 4615,
      "▁lad": 4616,
      "▁neighb": 4617,
      "▁transf": 4618,
      "▁replication": 4619,
      "▁wall": 4620,
      "▁sc": 4621,
      "▁befor": 4622,
      "▁bric": 4623,
      "▁******************************************************************": 4624,
      "▁grapes": 4625,
      "▁pa": 4626,
      "▁gentle": 4627,
      "▁path": 4628,
      "▁russ": 4629,
      "▁beauty": 4630,
      "be": 4631,
      "ioned": 4632,
      "▁default": 4633,
      "eng": 4634,
      "▁officer": 4635,
      "▁saturday": 4636,
      "▁begin": 4637,
      "▁text": 4638,
      "ole": 4639,
      "▁style": 4640,
      "lus": 4641,
      "▁shoes": 4642,
      "▁stopping": 4643,
      "▁goals": 4644,
      "▁is": 4645,
      "▁pract": 4646,
      "acy": 4647,
      "▁looked": 4648,
      "▁officials": 4649,
      "▁non-": 4650,
      "▁play+": 4651,
      "▁flood": 4652,
      "▁beh": 4653,
      "▁les": 4654,
      "▁workers": 4655,
      "ends": 4656,
      "▁parents": 4657,
      "ence": 4658,
      "▁scenar": 4659,
      "ches": 4660,
      "in": 4661,
      "▁september": 4662,
      "▁amend": 4663,
      "▁showing": 4664,
      "ik": 4665,
      "▁vacuum": 4666,
      "▁machines": 4667,
      "ve": 4668,
      "▁songs": 4669,
      "▁consult": 4670,
      "ark": 4671,
      "▁taken": 4672,
      "▁analyst": 4673,
      "gether": 4674,
      "▁sour": 4675,
      "▁hammer": 4676,
      "pen": 4677,
      "istan": 4678,
      "▁div": 4679,
      "▁interface": 4680,
      "unk": 4681,
      "▁espec": 4682,
      "▁artwork": 4683,
      "aches": 4684,
      "ado": 4685,
      "▁rebuil": 4686,
      "▁tray": 4687,
      "▁smoking": 4688,
      "{": 4689,
      "▁rubber": 4690,
      "▁expected": 4691,
      "ators": 4692,
      "▁impact": 4693,
      "▁neph": 4694,
      "warded": 4695,
      "▁map": 4696,
      "▁ter": 4697,
      "▁concept": 4698,
      "9": 4699,
      "▁export": 4700,
      "....": 4701,
      "▁factors": 4702,
      "ht": 4703,
      "▁volunte": 4704,
      "▁clay": 4705,
      "▁festivals": 4706,
      "xt": 4707,
      "▁7": 4708,
      "********": 4709,
      "▁rein": 4710,
      "▁dried": 4711,
      "▁airfare": 4712,
      "▁while": 4713,
      "ceptions": 4714,
      "▁audit": 4715,
      "▁knife": 4716,
      "▁depends": 4717,
      "ousness": 4718,
      "▁representative": 4719,
      "▁inh": 4720,
      "▁turning": 4721,
      "▁hous": 4722,
      "mitted": 4723,
      "eet": 4724,
      "over": 4725,
      "▁users": 4726,
      "▁parks": 4727,
      "velop": 4728,
      "▁piv": 4729,
      "uss": 4730,
      "▁huh": 4731,
      "ines": 4732,
      "▁incident": 4733,
      "▁project": 4734,
      "▁vaccine": 4735,
      "▁popularity": 4736,
      "▁blan": 4737,
      "▁offering": 4738,
      "▁convers": 4739,
      "▁serves": 4740,
      "▁movies": 4741,
      "▁storage": 4742,
      "▁gal": 4743,
      "▁isda": 4744,
      "▁computer": 4745,
      "ulations": 4746,
      "▁paris": 4747,
      "▁millions": 4748,
      "▁certific": 4749,
      "▁unemployment": 4750,
      "▁demon": 4751,
      "▁develop": 4752,
      "otw": 4753,
      "oo": 4754,
      "▁situation": 4755,
      "▁avoiding": 4756,
      "fe": 4757,
      "▁definitely": 4758,
      "ks": 4759,
      "▁cla": 4760,
      "▁dream": 4761,
      "inder": 4762,
      "▁bank": 4763,
      "forming": 4764,
      "▁nur": 4765,
      "ill": 4766,
      "▁democracy": 4767,
      "▁cream": 4768,
      "▁inc": 4769,
      "▁swee": 4770,
      "____": 4771,
      "onna": 4772,
      ".xls": 4773,
      "▁prepared": 4774,
      "▁juice": 4775,
      "▁conde": 4776,
      "uations": 4777,
      "▁save": 4778,
      "▁mirror": 4779,
      "▁tragedy": 4780,
      "umb": 4781,
      "▁except": 4782,
      "▁multipl": 4783,
      "▁vet": 4784,
      "▁yes": 4785,
      "▁year": 4786,
      "▁laying": 4787,
      "▁effect": 4788,
      "ooth": 4789,
      "▁basket": 4790,
      "▁conversations": 4791,
      "▁amongst": 4792,
      "▁hop": 4793,
      "▁pros": 4794,
      "tim": 4795,
      "▁begins": 4796,
      "▁photograph": 4797,
      "▁ga": 4798,
      "eg": 4799,
      "able": 4800,
      "ap": 4801,
      "oup": 4802,
      "▁means": 4803,
      "▁arg": 4804,
      "▁consumer": 4805,
      "▁balance": 4806,
      "▁discuss": 4807,
      "▁surf": 4808,
      "▁witch": 4809,
      "▁bearing": 4810,
      "▁named": 4811,
      "▁sn": 4812,
      "▁towel": 4813,
      "▁califor": 4814,
      "po": 4815,
      "▁boxes": 4816,
      "▁'d": 4817,
      "clo": 4818,
      "▁exposed": 4819,
      "ertain": 4820,
      "▁iv": 4821,
      "▁yoga": 4822,
      "▁north": 4823,
      "▁lun": 4824,
      "▁teach": 4825,
      "▁microscope": 4826,
      "▁keys": 4827,
      "▁pumpkin": 4828,
      "▁atlanta": 4829,
      "acles": 4830,
      "ony": 4831,
      "itation": 4832,
      "▁achieve": 4833,
      "▁border": 4834,
      "▁spre": 4835,
      "azed": 4836,
      "▁implications": 4837,
      "▁revenue": 4838,
      "▁educ": 4839,
      "▁ate": 4840,
      "▁direction": 4841,
      "▁scenario": 4842,
      "▁high": 4843,
      "▁provided": 4844,
      "▁bombs": 4845,
      "▁apolog": 4846,
      "▁accord": 4847,
      "▁efforts": 4848,
      "▁chasing": 4849,
      "▁phenomen": 4850,
      "▁waiter": 4851,
      "▁via": 4852,
      "esaw": 4853,
      "▁translated": 4854,
      "▁toward": 4855,
      "enced": 4856,
      "▁though": 4857,
      "▁van": 4858,
      "like": 4859,
      "▁provisions": 4860,
      "▁snakes": 4861,
      "ash": 4862,
      "▁elected": 4863,
      "▁till": 4864,
      "▁mult": 4865,
      "▁identifies": 4866,
      "▁napkin": 4867,
      "▁objectives": 4868,
      "spec": 4869,
      "▁experienced": 4870,
      "engers": 4871,
      "▁plant": 4872,
      "▁nash": 4873,
      "ortant": 4874,
      "aurs": 4875,
      "ever": 4876,
      "▁accompanied": 4877,
      "▁intended": 4878,
      "▁seeking": 4879,
      "oney": 4880,
      "inc": 4881,
      "▁pet": 4882,
      "▁exch": 4883,
      "▁whis": 4884,
      "unt": 4885,
      "▁station": 4886,
      "▁dese": 4887,
      "▁texas": 4888,
      "▁pub": 4889,
      "▁cheap": 4890,
      "ourn": 4891,
      "▁painting": 4892,
      "▁approve": 4893,
      "ged": 4894,
      "ar": 4895,
      "▁gum": 4896,
      "▁force": 4897,
      "▁hobby": 4898,
      "▁happiness": 4899,
      "▁earli": 4900,
      "ab": 4901,
      "▁updates": 4902,
      "▁minutes": 4903,
      "▁strugg": 4904,
      "▁http://": 4905,
      "▁interaction": 4906,
      "▁coordination": 4907,
      "▁attract": 4908,
      "▁flight": 4909,
      "aste": 4910,
      "▁stage": 4911,
      "▁eff": 4912,
      "▁hoped": 4913,
      "▁bomb": 4914,
      "▁certain": 4915,
      "▁longer": 4916,
      "▁eat": 4917,
      "▁information": 4918,
      "ster": 4919,
      "▁hang": 4920,
      "▁meal": 4921,
      "arg": 4922,
      "▁slope": 4923,
      "▁focused": 4924,
      "▁affairs": 4925,
      "▁spent": 4926,
      "▁report": 4927,
      "▁lesson": 4928,
      "▁above": 4929,
      "▁thro": 4930,
      "▁split": 4931,
      "▁bab": 4932,
      "iders": 4933,
      "aped": 4934,
      "minated": 4935,
      "▁transformation": 4936,
      "aling": 4937,
      "▁demand": 4938,
      "▁lead": 4939,
      "erves": 4940,
      "▁bulld": 4941,
      "▁heads": 4942,
      "▁4": 4943,
      "ics": 4944,
      "▁pr": 4945,
      "▁vanilla": 4946,
      "▁campus": 4947,
      "▁consumption": 4948,
      "▁filled": 4949,
      "▁most": 4950,
      "utor": 4951,
      "▁phase": 4952,
      "▁create": 4953,
      "▁backed": 4954,
      "▁init": 4955,
      "ep": 4956,
      "▁regards": 4957,
      "ood": 4958,
      "▁elephants": 4959,
      "▁grandm": 4960,
      "▁ready": 4961,
      "▁hiding": 4962,
      "aughters": 4963,
      "▁imag": 4964,
      "▁backs": 4965,
      "▁police": 4966,
      "▁fries": 4967,
      "▁sle": 4968,
      "▁gover": 4969,
      "▁sisters": 4970,
      "//": 4971,
      "▁inj": 4972,
      "cend": 4973,
      "▁presented": 4974,
      "aur": 4975,
      "▁crops": 4976,
      "▁concre": 4977,
      "▁b/c": 4978,
      "▁stri": 4979,
      "▁surgery": 4980,
      "▁delive": 4981,
      "ners": 4982,
      "▁po": 4983,
      "▁-----": 4984,
      "▁acknowled": 4985,
      "▁items": 4986,
      "▁gri": 4987,
      "s.": 4988,
      "pond": 4989,
      "▁occup": 4990,
      "▁target": 4991,
      "▁remove": 4992,
      "eav": 4993,
      "▁many": 4994,
      "▁surround": 4995,
      "▁rank": 4996,
      "▁acquired": 4997,
      "vely": 4998,
      "▁*****": 4999,
      "▁adds": 5000,
      "▁the": 5001,
      "ν": 5002,
      "ina": 5003,
      "▁bad": 5004,
      "worms": 5005,
      "▁someth": 5006,
      "▁dad": 5007,
      "▁pink": 5008,
      "▁burst": 5009,
      "▁q1": 5010,
      "▁surve": 5011,
      "otion": 5012,
      "▁perceived": 5013,
      "west": 5014,
      "▁alt.": 5015,
      "▁steps": 5016,
      "face": 5017,
      "▁standard": 5018,
      "▁proposal": 5019,
      "▁problems": 5020,
      "▁would": 5021,
      "▁champ": 5022,
      "▁referen": 5023,
      "am": 5024,
      "▁bags": 5025,
      "eland": 5026,
      "▁vom": 5027,
      "ocado": 5028,
      "ould": 5029,
      "▁college": 5030,
      "▁middle": 5031,
      "▁coast": 5032,
      "▁moments": 5033,
      "▁eaten": 5034,
      "lu": 5035,
      "otes": 5036,
      "▁pennies": 5037,
      "▁‘": 5038,
      "▁solutions": 5039,
      "▁fix": 5040,
      "▁prop": 5041,
      "ades": 5042,
      "ended": 5043,
      "▁lettuce": 5044,
      "▁twist": 5045,
      "▁hire": 5046,
      "tes": 5047,
      "bed": 5048,
      "ction": 5049,
      "▁stand": 5050,
      "▁gun": 5051,
      "▁consc": 5052,
      "▁customer": 5053,
      "uality": 5054,
      "p;": 5055,
      "▁finger": 5056,
      "▁leaving": 5057,
      "▁owl": 5058,
      "▁’ve": 5059,
      "▁there": 5060,
      "▁including": 5061,
      "iveness": 5062,
      "▁materials": 5063,
      "lies": 5064,
      "bout": 5065,
      "▁monitor": 5066,
      "▁`s": 5067,
      "▁somebody": 5068,
      "▁development": 5069,
      "▁dev": 5070,
      "▁persp": 5071,
      "ete": 5072,
      "ome": 5073,
      "▁second": 5074,
      "▁telephone": 5075,
      "▁until": 5076,
      "▁word": 5077,
      "▁followed": 5078,
      "▁++++": 5079,
      "▁over": 5080,
      "▁sug": 5081,
      "▁satur": 5082,
      "▁freedoms": 5083,
      "▁vic": 5084,
      "ave": 5085,
      "tives": 5086,
      "▁changed": 5087,
      "▁drop": 5088,
      "▁smell": 5089,
      "plus": 5090,
      "▁avoid": 5091,
      "▁filtered": 5092,
      "▁hearts": 5093,
      "▁frid": 5094,
      "▁anyth": 5095,
      "used": 5096,
      "enture": 5097,
      "▁municip": 5098,
      "▁bre": 5099,
      "▁channel": 5100,
      "utions": 5101,
      "ope": 5102,
      "▁percent": 5103,
      "▁watching": 5104,
      "▁glove": 5105,
      "▁kind": 5106,
      "vailable": 5107,
      "▁advance": 5108,
      "▁cleveland": 5109,
      "▁bubbles": 5110,
      "eel": 5111,
      "oods": 5112,
      "▁forwar": 5113,
      "▁provin": 5114,
      "ro": 5115,
      "▁copies": 5116,
      "▁helping": 5117,
      "▁refusing": 5118,
      "▁reality": 5119,
      "less": 5120,
      "▁cig": 5121,
      "▁undertake": 5122,
      "▁x3": 5123,
      "▁further": 5124,
      "ected": 5125,
      "▁check": 5126,
      "▁population": 5127,
      "aus": 5128,
      "▁ep": 5129,
      "entiality": 5130,
      "▁texts": 5131,
      "▁traffic": 5132,
      "usion": 5133,
      "▁tos": 5134,
      "▁feed": 5135,
      "▁consul": 5136,
      "nuts": 5137,
      "▁ham": 5138,
      "idents": 5139,
      "▁networks": 5140,
      "real": 5141,
      "▁culture": 5142,
      "▁airlin": 5143,
      "wa": 5144,
      "▁shoot": 5145,
      "▁ke": 5146,
      "▁planning": 5147,
      "▁critic": 5148,
      "▁thou": 5149,
      "▁notic": 5150,
      "▁bottle": 5151,
      "▁ser": 5152,
      "▁as400": 5153,
      "▁assist": 5154,
      "▁pushed": 5155,
      "▁advantage": 5156,
      "▁accum": 5157,
      "▁chance": 5158,
      "▁areas": 5159,
      "▁generated": 5160,
      "rog": 5161,
      "▁package": 5162,
      "▁spears": 5163,
      "▁identity": 5164,
      "▁stands": 5165,
      "▁thinking": 5166,
      "▁mix": 5167,
      "▁forced": 5168,
      "que": 5169,
      "▁dark": 5170,
      "▁box": 5171,
      "▁night": 5172,
      "▁ml": 5173,
      "ests": 5174,
      "▁leads": 5175,
      "▁novels": 5176,
      "▁about": 5177,
      "▁market": 5178,
      "▁coinc": 5179,
      "▁qa": 5180,
      "▁mechanic": 5181,
      "▁stir": 5182,
      "▁packed": 5183,
      "▁soup": 5184,
      "ure": 5185,
      "▁dre": 5186,
      "▁nearly": 5187,
      "▁attitudes": 5188,
      "▁guidelines": 5189,
      "uration": 5190,
      "oting": 5191,
      "▁ok": 5192,
      "▁resume": 5193,
      "▁failed": 5194,
      "jamas": 5195,
      "▁afric": 5196,
      "▁washed": 5197,
      "▁squirrel": 5198,
      "order": 5199,
      "▁populations": 5200,
      "▁trial": 5201,
      "▁displ": 5202,
      "▁withd": 5203,
      "▁op": 5204,
      "ustration": 5205,
      "▁morality": 5206,
      "▁conc": 5207,
      "▁sol": 5208,
      "▁...................": 5209,
      "▁king": 5210,
      "▁type": 5211,
      "▁lined": 5212,
      "▁maintain": 5213,
      "its": 5214,
      "▁transition": 5215,
      "▁location": 5216,
      "▁enc": 5217,
      "▁reminded": 5218,
      "▁turned": 5219,
      "erest": 5220,
      "▁reduction": 5221,
      "ree": 5222,
      "thin": 5223,
      "▁fun": 5224,
      "▁production": 5225,
      "iver": 5226,
      "cent": 5227,
      "▁thir": 5228,
      "▁criteria": 5229,
      "▁help": 5230,
      "▁wine": 5231,
      "▁holiday": 5232,
      "▁swit": 5233,
      "▁tests": 5234,
      "▁hip": 5235,
      "▁enjoying": 5236,
      "▁<<": 5237,
      "▁vari": 5238,
      "▁chemicals": 5239,
      "▁every": 5240,
      "▁locom": 5241,
      "▁education": 5242,
      "▁table": 5243,
      "▁milk": 5244,
      ",": 5245,
      "ought": 5246,
      "▁inf": 5247,
      ",000": 5248,
      "▁interf": 5249,
      "▁impacts": 5250,
      "gest": 5251,
      "anges": 5252,
      "▁piece": 5253,
      "liday": 5254,
      "ost": 5255,
      "▁captain": 5256,
      "tuce": 5257,
      "▁fear": 5258,
      "▁contrib": 5259,
      "▁distributed": 5260,
      "▁las": 5261,
      "▁.......": 5262,
      "▁milwaukee": 5263,
      "▁operate": 5264,
      "▁atmosphere": 5265,
      "▁rem": 5266,
      "me": 5267,
      "▁marriage": 5268,
      "tile": 5269,
      "▁-": 5270,
      "eth": 5271,
      "▁writes": 5272,
      "φ": 5273,
      "▁eth": 5274,
      "▁tas": 5275,
      "▁commitment": 5276,
      "▁container": 5277,
      "▁completed": 5278,
      "▁alcohol": 5279,
      "▁butterfl": 5280,
      "▁owner": 5281,
      "ada": 5282,
      "rop": 5283,
      "±": 5284,
      "▁!!!!!!!!!!!": 5285,
      "amed": 5286,
      "▁flir": 5287,
      "▁chairs": 5288,
      "▁stic": 5289,
      "ho": 5290,
      "▁trail": 5291,
      "▁participants": 5292,
      "▁trends": 5293,
      "cro": 5294,
      "▁awarded": 5295,
      "▁divid": 5296,
      "▁lic": 5297,
      "▁apple": 5298,
      "▁whole": 5299,
      "▁boat": 5300,
      "ally": 5301,
      "▁giving": 5302,
      "ority": 5303,
      "▁united": 5304,
      "▁!.": 5305,
      "▁leading": 5306,
      "▁gold": 5307,
      "▁alliance": 5308,
      "▁voted": 5309,
      "ose": 5310,
      "▁weight": 5311,
      "▁hour": 5312,
      "▁memories": 5313,
      "utiful": 5314,
      "▁plain": 5315,
      "▁address": 5316,
      "▁closed": 5317,
      "▁union": 5318,
      "ections": 5319,
      "▁deficiency": 5320,
      "▁reconc": 5321,
      "▁floor": 5322,
      "[CLS]": 5323,
      "ney": 5324,
      "ions": 5325,
      "avi": 5326,
      "’": 5327,
      "sel": 5328,
      "▁wash": 5329,
      "▁pretty": 5330,
      "▁suc": 5331,
      "▁policies": 5332,
      "ars": 5333,
      "▁letter": 5334,
      "▁software": 5335,
      "▁sussex": 5336,
      "iating": 5337,
      "▁tear": 5338,
      "err": 5339,
      "▁exec": 5340,
      "▁reading": 5341,
      "▁strawberry": 5342,
      "ida": 5343,
      "▁enthusi": 5344,
      "▁existing": 5345,
      "▁procedure": 5346,
      "▁mu": 5347,
      "▁@": 5348,
      "▁placed": 5349,
      "+----------------": 5350,
      "▁amount": 5351,
      "ember": 5352,
      "▁ice": 5353,
      "▁loss": 5354,
      "▁wave": 5355,
      "lie": 5356,
      "▁discipline": 5357,
      "▁hal": 5358,
      "▁systems": 5359,
      "▁allows": 5360,
      "▁canc": 5361,
      "▁dated": 5362,
      "▁ling": 5363,
      "ailed": 5364,
      "▁requested": 5365,
      "▁agency": 5366,
      "▁demonstr": 5367,
      "▁tale": 5368,
      "▁oath": 5369,
      "antly": 5370,
      "▁solid": 5371,
      "side": 5372,
      "▁epis": 5373,
      "▁platform": 5374,
      "▁es": 5375,
      "▁vine": 5376,
      "▁meetings": 5377,
      "corn": 5378,
      "ris": 5379,
      "▁uv": 5380,
      "▁stop": 5381,
      "▁'ll": 5382,
      "ck": 5383,
      "qui": 5384,
      "▁recipient": 5385,
      "eti": 5386,
      "▁component": 5387,
      "▁dreams": 5388,
      "1": 5389,
      "▁apartment": 5390,
      "▁<": 5391,
      "▁jobs": 5392,
      "▁tiger": 5393,
      "ative": 5394,
      "▁counter": 5395,
      "▁onto": 5396,
      "▁ec": 5397,
      "▁unit": 5398,
      "▁laughing": 5399,
      "▁elevator": 5400,
      "▁pron": 5401,
      "py": 5402,
      "▁rock": 5403,
      "▁earned": 5404,
      "▁sunsh": 5405,
      "▁job": 5406,
      "▁sounded": 5407,
      "ced": 5408,
      "▁carro": 5409,
      "ank": 5410,
      "ox": 5411,
      "▁seed": 5412,
      "▁sector": 5413,
      "▁counterparty": 5414,
      "-s": 5415,
      "▁parliament": 5416,
      "▁costs": 5417,
      "▁zero": 5418,
      "▁yeah": 5419,
      "▁light": 5420,
      "tors": 5421,
      "▁char": 5422,
      "ided": 5423,
      "▁grumb": 5424,
      "▁any": 5425,
      "▁status": 5426,
      "▁comput": 5427,
      "▁clock": 5428,
      "▁boom": 5429,
      "▁released": 5430,
      "▁veg": 5431,
      "▁recruit": 5432,
      "▁whom": 5433,
      "elled": 5434,
      "▁wi": 5435,
      "▁extend": 5436,
      "▁sump": 5437,
      "▁veter": 5438,
      "▁soon": 5439,
      "▁certainly": 5440,
      "ecting": 5441,
      "▁kissed": 5442,
      "▁apar": 5443,
      ".doc": 5444,
      "▁agents": 5445,
      "iny": 5446,
      "▁we": 5447,
      "▁feelings": 5448,
      "▁progr": 5449,
      "ativity": 5450,
      "ributed": 5451,
      "▁foods": 5452,
      "isture": 5453,
      "▁********************************": 5454,
      "60s": 5455,
      "▁growing": 5456,
      "▁church": 5457,
      "nies": 5458,
      "▁repeated": 5459,
      "▁particular": 5460,
      "▁worms": 5461,
      "▁article": 5462,
      "ights": 5463,
      "▁our": 5464,
      "▁----------------------------------------------------------------------": 5465,
      "▁lines": 5466,
      "▁signing": 5467,
      "▁pictures": 5468,
      "▁shops": 5469,
      "▁hold": 5470,
      "bit": 5471,
      "ren": 5472,
      "▁tomatoes": 5473,
      "▁mov": 5474,
      "▁newspaper": 5475,
      "▁contro": 5476,
      "▁organize": 5477,
      "▁passes": 5478,
      "▁spotted": 5479,
      "????????": 5480,
      "▁vot": 5481,
      "▁shown": 5482,
      "▁wrest": 5483,
      "▁sty": 5484,
      "nam": 5485,
      "ised": 5486,
      "elling": 5487,
      "▁therap": 5488,
      "▁posed": 5489,
      "▁el": 5490,
      "▁cycle": 5491,
      "▁celebr": 5492,
      "▁revolution": 5493,
      "▁speak": 5494,
      "▁transmed": 5495,
      "▁elim": 5496,
      "ture": 5497,
      "▁petersburg": 5498,
      "ven": 5499,
      "illa": 5500,
      "▁who": 5501,
      "▁cognition": 5502,
      "▁filtering": 5503,
      "aces": 5504,
      "▁break": 5505,
      "ire": 5506,
      "▁election": 5507,
      "inental": 5508,
      "▁pants": 5509,
      "icals": 5510,
      "▁order": 5511,
      "▁''": 5512,
      "ields": 5513,
      "▁philosophy": 5514,
      "▁who's": 5515,
      "▁planes": 5516,
      "----------------": 5517,
      "▁soda": 5518,
      "▁accordance": 5519,
      "▁find": 5520,
      "▁femur": 5521,
      "▁funny": 5522,
      "enders": 5523,
      "▁discussed": 5524,
      "▁chr": 5525,
      "▁talking": 5526,
      "▁20": 5527,
      "▁care": 5528,
      "▁time": 5529,
      "ule": 5530,
      "br": 5531,
      "▁hoo": 5532,
      "▁handed": 5533,
      "▁babies": 5534,
      "▁ginger": 5535,
      "▁prayer": 5536,
      "▁possibilities": 5537,
      "▁harmon": 5538,
      "▁center": 5539,
      "▁brother": 5540,
      "▁anthrax": 5541,
      "▁lie": 5542,
      "ront": 5543,
      "▁dioxide": 5544,
      "vement": 5545,
      "perity": 5546,
      "▁cast": 5547,
      "▁commitments": 5548,
      "▁attended": 5549,
      "idding": 5550,
      "▁poet": 5551,
      "▁writer": 5552,
      "▁contribute": 5553,
      "▁surrounding": 5554,
      "ak": 5555,
      "od": 5556,
      "▁tickle": 5557,
      "ior": 5558,
      "▁photo": 5559,
      "▁chec": 5560,
      "▁cafe": 5561,
      "▁oatme": 5562,
      "▁american": 5563,
      "▁piano": 5564,
      "▁earlier": 5565,
      "▁compon": 5566,
      "▁male": 5567,
      "ate": 5568,
      "hic": 5569,
      "▁hell": 5570,
      "▁opin": 5571,
      "ms": 5572,
      "ary": 5573,
      "▁issue": 5574,
      "▁strengthen": 5575,
      "▁arrived": 5576,
      "▁carried": 5577,
      "▁employed": 5578,
      "▁legal": 5579,
      "▁tu": 5580,
      "▁review": 5581,
      "▁reducing": 5582,
      "day": 5583,
      "▁wines": 5584,
      "▁notwithstanding": 5585,
      "▁point": 5586,
      "▁kitty": 5587,
      "▁milit": 5588,
      "▁resolution": 5589,
      "▁folio": 5590,
      "▁outfit": 5591,
      "derstanding": 5592,
      "▁stretch": 5593,
      "ite": 5594,
      "d": 5595,
      "▁monarch": 5596,
      "▁children": 5597,
      "▁hill": 5598,
      "ointed": 5599,
      "▁mine": 5600,
      "ha": 5601,
      "olved": 5602,
      "▁sort": 5603,
      "rently": 5604,
      "▁15": 5605,
      "▁ow": 5606,
      "▁documentation": 5607,
      "▁improvement": 5608,
      "overs": 5609,
      "nect": 5610,
      "ality": 5611,
      "itement": 5612,
      "▁marketing": 5613,
      "▁experts": 5614,
      "▁meet": 5615,
      "▁clothing": 5616,
      "▁features": 5617,
      "▁visited": 5618,
      "▁christ": 5619,
      "ull": 5620,
      "▁framework": 5621,
      "asion": 5622,
      "▁wished": 5623,
      "▁uncertainty": 5624,
      "▁'re": 5625,
      "▁rate": 5626,
      "▁mili": 5627,
      "▁evac": 5628,
      "acle": 5629,
      "▁stopped": 5630,
      "^": 5631,
      "▁stol": 5632,
      "otch": 5633,
      "▁design": 5634,
      "▁dig": 5635,
      "\"": 5636,
      "▁judgments": 5637,
      "▁variety": 5638,
      "▁circum": 5639,
      "▁classes": 5640,
      "▁cor": 5641,
      "▁entitled": 5642,
      "▁dolphin": 5643,
      "▁globe": 5644,
      "▁cold": 5645,
      "▁plans": 5646,
      "▁handling": 5647,
      "▁s/he": 5648,
      "▁lil": 5649,
      "▁sail": 5650,
      "▁views": 5651,
      "▁trans": 5652,
      "ulate": 5653,
      "▁declared": 5654,
      "▁mechanism": 5655,
      "animals": 5656,
      "liament": 5657,
      "▁implement": 5658,
      "▁tampa": 5659,
      "▁typ": 5660,
      "▁material": 5661,
      "▁opinions": 5662,
      "▁nice": 5663,
      "▁politicians": 5664,
      "▁profile": 5665,
      "▁poop": 5666,
      "inds": 5667,
      "▁affected": 5668,
      "▁author": 5669,
      "oted": 5670,
      "den": 5671,
      "▁repeat": 5672,
      "tr": 5673,
      "▁master": 5674,
      "▁respond": 5675,
      "▁star": 5676,
      "`": 5677,
      "▁baby": 5678,
      "▁booked": 5679,
      "▁mag": 5680,
      "▁fly": 5681,
      "▁chee": 5682,
      "▁introduc": 5683,
      "▁minister": 5684,
      "▁spirit": 5685,
      "▁duties": 5686,
      "▁missile": 5687,
      "▁list": 5688,
      "“": 5689,
      "▁founded": 5690,
      "▁repair": 5691,
      "▁portion": 5692,
      "▁artist": 5693,
      "▁fellow": 5694,
      "▁recognition": 5695,
      "▁defined": 5696,
      "tured": 5697,
      "issed": 5698,
      "▁coming": 5699,
      "▁district": 5700,
      "▁tank": 5701,
      "raction": 5702,
      "▁learning": 5703,
      "▁loan": 5704,
      "rated": 5705,
      "▁produced": 5706,
      "▁policeman": 5707,
      "ience": 5708,
      "ink": 5709,
      "▁theat": 5710,
      "▁gard": 5711,
      "▁adoption": 5712,
      "▁awa": 5713,
      "ying": 5714,
      "▁setup": 5715,
      "▁phil": 5716,
      "▁assuming": 5717,
      "▁dinner": 5718,
      "▁truck": 5719,
      "▁after": 5720,
      "▁rac": 5721,
      "▁perhaps": 5722,
      "▁remind": 5723,
      "▁around": 5724,
      "▁e-mail": 5725,
      "▁sending": 5726,
      "▁more": 5727,
      "▁experim": 5728,
      "▁sev": 5729,
      "low": 5730,
      "▁bottom": 5731,
      "▁nothing": 5732,
      "ets": 5733,
      "▁cracker": 5734,
      "▁audio": 5735,
      "▁signific": 5736,
      "▁noticed": 5737,
      "▁carrying": 5738,
      "▁hes": 5739,
      "▁introduced": 5740,
      "▁pro": 5741,
      "edom": 5742,
      "▁scre": 5743,
      "▁increase": 5744,
      "▁cities": 5745,
      "▁mot": 5746,
      "▁habit": 5747,
      "ribute": 5748,
      "iciency": 5749,
      "uth": 5750,
      "▁exp": 5751,
      "▁gate": 5752,
      "▁realism": 5753,
      "and": 5754,
      "▁notes": 5755,
      "▁shark": 5756,
      "▁distinguish": 5757,
      "▁square": 5758,
      "ving": 5759,
      "actor": 5760,
      "▁persu": 5761,
      "▁bot": 5762,
      "-1": 5763,
      "▁venture": 5764,
      "mp": 5765,
      "▁cl": 5766,
      "mm": 5767,
      "isl": 5768,
      "▁assault": 5769,
      "▁la": 5770,
      "ago": 5771,
      "▁manufact": 5772,
      "▁worth": 5773,
      "▁take": 5774,
      "▁separ": 5775,
      "▁polaro": 5776,
      "▁wol": 5777,
      "▁involve": 5778,
      "$$": 5779,
      "▁wat": 5780,
      "outs": 5781,
      "▁rebuild": 5782,
      "▁lasted": 5783,
      "ike": 5784,
      "ackers": 5785,
      "----------": 5786,
      "ish": 5787,
      "oned": 5788,
      "▁generators": 5789,
      "ourse": 5790,
      "▁zone": 5791,
      "▁lies": 5792,
      "cean": 5793,
      "▁infrastruc": 5794,
      "β": 5795,
      "ulation": 5796,
      "▁much": 5797,
      "▁dess": 5798,
      "▁next": 5799,
      "▁crop": 5800,
      "▁late": 5801,
      "▁studied": 5802,
      "jwww": 5803,
      "▁capac": 5804,
      "▁mixed": 5805,
      "▁settle": 5806,
      "ortion": 5807,
      "▁dinosaur": 5808,
      "'t": 5809,
      "▁dispute": 5810,
      "▁astr": 5811,
      "▁smile": 5812,
      "inally": 5813,
      "▁---------------------------------------------------------------------": 5814,
      "▁silver": 5815,
      "▁kicked": 5816,
      "▁funding": 5817,
      "▁cupboard": 5818,
      "roduc": 5819,
      "▁int": 5820,
      "▁wolves": 5821,
      "▁increases": 5822,
      "▁tourists": 5823,
      "▁mayor": 5824,
      "▁manip": 5825,
      "▁gr": 5826,
      "▁prepar": 5827,
      "▁public": 5828,
      "▁expert": 5829,
      "▁evolution": 5830,
      "▁car": 5831,
      "▁social": 5832,
      "▁citi": 5833,
      "body": 5834,
      "▁island": 5835,
      "▁assigned": 5836,
      "▁cott": 5837,
      "ition": 5838,
      "▁restaurants": 5839,
      "jection": 5840,
      "bb": 5841,
      "▁shows": 5842,
      "▁picture": 5843,
      "▁doub": 5844,
      "u": 5845,
      "!": 5846,
      "▁suggest": 5847,
      "ung": 5848,
      "▁bat": 5849,
      "▁balt": 5850,
      "room": 5851,
      "▁god": 5852,
      "erts": 5853,
      "s": 5854,
      "▁such": 5855,
      "▁pilg": 5856,
      "▁unc": 5857,
      "▁di": 5858,
      "▁size": 5859,
      "alized": 5860,
      "▁coun": 5861,
      "▁maj": 5862,
      "ocent": 5863,
      "▁ld2d-": 5864,
      "iving": 5865,
      "▁cour": 5866,
      "▁coverage": 5867,
      "▁english": 5868,
      "▁rin": 5869,
      "do": 5870,
      "rou": 5871,
      "ultural": 5872,
      "▁processes": 5873,
      "▁bound": 5874,
      "▁walked": 5875,
      "▁wou": 5876,
      "▁surv": 5877,
      "▁purchasing": 5878,
      "▁handled": 5879,
      "ees": 5880,
      "▁plaintiff": 5881,
      "etro": 5882,
      "auc": 5883,
      "▁inst": 5884,
      "▁arr": 5885,
      "▁personality": 5886,
      "apped": 5887,
      "▁fer": 5888,
      "▁shorts": 5889,
      "th": 5890,
      "ivers": 5891,
      "ges": 5892,
      "bon": 5893,
      "ening": 5894,
      "▁bil": 5895,
      "▁dat": 5896,
      "alists": 5897,
      "▁foll": 5898,
      "▁magaz": 5899,
      "wood": 5900,
      "▁maintaining": 5901,
      "iod": 5902,
      "om": 5903,
      "▁home": 5904,
      "▁pep": 5905,
      "▁protect": 5906,
      "str": 5907,
      "ound": 5908,
      "▁their": 5909,
      "▁limit": 5910,
      "▁doors": 5911,
      "'": 5912,
      "ounds": 5913,
      "▁hedge": 5914,
      "▁recommendation": 5915,
      "atch": 5916,
      "▁fees": 5917,
      "▁restric": 5918,
      "ito": 5919,
      "▁crimin": 5920,
      "▁choo": 5921,
      "▁shot": 5922,
      "▁pres": 5923,
      "▁stomach": 5924,
      "eria": 5925,
      "▁lit": 5926,
      "iew": 5927,
      "z": 5928,
      "▁drama": 5929,
      "both": 5930,
      "▁vs.": 5931,
      "▁then": 5932,
      "ashington": 5933,
      "▁dying": 5934,
      "▁model": 5935,
      "▁duel": 5936,
      "▁mas": 5937,
      "▁dec": 5938,
      "cake": 5939,
      "uries": 5940,
      "▁mech": 5941,
      "id": 5942,
      "▁structure": 5943,
      "▁task": 5944,
      "▁“": 5945,
      "▁uhhuh": 5946,
      "▁colleag": 5947,
      "▁spread": 5948,
      "ication": 5949,
      "icians": 5950,
      "▁apples": 5951,
      "▁comparison": 5952,
      "log": 5953,
      "fted": 5954,
      "▁camer": 5955,
      "ai": 5956,
      "▁household": 5957,
      "atisfaction": 5958,
      "store": 5959,
      "▁weekends": 5960,
      "▁gent": 5961,
      "▁purchase": 5962,
      ".com/": 5963,
      "▁files": 5964,
      "tivity": 5965,
      "ion": 5966,
      "▁forces": 5967,
      "▁low": 5968,
      "▁assu": 5969,
      "▁fav": 5970,
      "▁intercon": 5971,
      "▁accep": 5972,
      "▁propaganda": 5973,
      "▁glass": 5974,
      "▁password": 5975,
      "hus": 5976,
      "▁rev": 5977,
      "ithstanding": 5978,
      "gage": 5979,
      "ower": 5980,
      "▁insur": 5981,
      "ret": 5982,
      "ord": 5983,
      "▁attacks": 5984,
      "uding": 5985,
      "▁nor": 5986,
      "▁sear": 5987,
      "ts": 5988,
      "edly": 5989,
      "ury": 5990,
      "▁made": 5991,
      "▁budget": 5992,
      "▁moon": 5993,
      "▁things": 5994,
      "▁tax": 5995,
      "▁thru": 5996,
      "▁sy": 5997,
      "▁highl": 5998,
      "rib": 5999,
      "▁dragged": 6000,
      "uled": 6001,
      "▁poo": 6002,
      "▁consider": 6003,
      "▁stars": 6004,
      ".d": 6005,
      "▁uti": 6006,
      "▁aspect": 6007,
      "▁battery": 6008,
      "▁orange": 6009,
      "▁societies": 6010,
      "▁con": 6011,
      "▁thursday": 6012,
      "aos": 6013,
      "lief": 6014,
      "oli": 6015,
      "aganda": 6016,
      "▁cove": 6017,
      "▁application": 6018,
      "itate": 6019,
      "▁charm": 6020,
      "▁crackers": 6021,
      "▁sales": 6022,
      "▁paying": 6023,
      "▁destin": 6024,
      "▁argue": 6025,
      "▁naima": 6026,
      "▁seam": 6027,
      "ev": 6028,
      "▁conclusions": 6029,
      "▁marry": 6030,
      "▁switch": 6031,
      "▁voice": 6032,
      "▁,?": 6033,
      "oor": 6034,
      "▁authorities": 6035,
      "▁traditions": 6036,
      "isation": 6037,
      "▁elbow": 6038,
      "▁ca": 6039,
      "▁which": 6040,
      "ense": 6041,
      "ized": 6042,
      "▁emails": 6043,
      "▁thread": 6044,
      "▁disapp": 6045,
      "▁collap": 6046,
      "friend": 6047,
      "illas": 6048,
      "rigu": 6049,
      "▁oneself": 6050,
      "ologists": 6051,
      "▁assumed": 6052,
      "sul": 6053,
      "resent": 6054,
      "▁bu": 6055,
      "zen": 6056,
      "irl": 6057,
      "▁moun": 6058,
      "uffs": 6059,
      "▁offices": 6060,
      "ance": 6061,
      "ache": 6062,
      "▁humans": 6063,
      "▁pati": 6064,
      "▁ide": 6065,
      "▁hos": 6066,
      "▁causes": 6067,
      "▁li": 6068,
      "▁dish": 6069,
      "ague": 6070,
      "ounce": 6071,
      "oodle": 6072,
      "▁wee": 6073,
      "▁spray": 6074,
      "rote": 6075,
      "—": 6076,
      "▁arrow": 6077,
      "▁foot": 6078,
      "lity": 6079,
      "▁brush": 6080,
      "▁combined": 6081,
      "▁insurance": 6082,
      "viously": 6083,
      "▁founder": 6084,
      "▁absence": 6085,
      "▁resc": 6086,
      "º": 6087,
      "▁se": 6088,
      "affle": 6089,
      "▁]": 6090,
      "▁newsp": 6091,
      "ane": 6092,
      "▁micro": 6093,
      "▁2": 6094,
      "▁want": 6095,
      "▁partners": 6096,
      "▁jews": 6097,
      "▁foli": 6098,
      "▁black": 6099,
      "▁achievement": 6100,
      "▁coo": 6101,
      "70s": 6102,
      "a": 6103,
      "▁breathe": 6104,
      "▁happens": 6105,
      "▁orient": 6106,
      "▁approached": 6107,
      "▁saving": 6108,
      "▁carriage": 6109,
      "▁whoever": 6110,
      "uh": 6111,
      "▁affair": 6112,
      "▁refers": 6113,
      "▁hom": 6114,
      "▁respons": 6115,
      "ous": 6116,
      "▁hamster": 6117,
      "▁vehicles": 6118,
      "▁colors": 6119,
      "▁talked": 6120,
      "ially": 6121,
      "▁tongue": 6122,
      "▁avocado": 6123,
      "▁menu": 6124,
      "▁rail": 6125,
      "▁appropri": 6126,
      "▁floating": 6127,
      "oard": 6128,
      "▁attachment": 6129,
      "▁hours": 6130,
      "▁settings": 6131,
      "▁debated": 6132,
      "▁little": 6133,
      "▁awareness": 6134,
      "▁jail": 6135,
      "▁avoided": 6136,
      "▁prett": 6137,
      "iate": 6138,
      "itations": 6139,
      "▁finally": 6140,
      "▁pack": 6141,
      "▁occurred": 6142,
      "▁contained": 6143,
      "▁sho": 6144,
      "▁wealth": 6145,
      "▁descri": 6146,
      "▁elements": 6147,
      "▁lab": 6148,
      "quarters": 6149,
      "▁paid": 6150,
      "▁speci": 6151,
      "▁parties": 6152,
      "▁layout": 6153,
      "▁yea": 6154,
      "▁bush": 6155,
      "▁minds": 6156,
      "▁score": 6157,
      "▁crossing": 6158,
      "▁rang": 6159,
      "pt": 6160,
      "ining": 6161,
      "********************************": 6162,
      "age": 6163,
      "▁borders": 6164,
      "▁cont": 6165,
      "tician": 6166,
      "▁amended": 6167,
      "▁advise": 6168,
      "▁helic": 6169,
      "▁ring": 6170,
      "▁squ": 6171,
      "▁orlando": 6172,
      "▁ber": 6173,
      "ia": 6174,
      "yr": 6175,
      "ection": 6176,
      "▁bal": 6177,
      "ca": 6178,
      "aq": 6179,
      "▁evidence": 6180,
      "▁refuse": 6181,
      "▁spend": 6182,
      "lar": 6183,
      "▁statistics": 6184,
      "▁jihad": 6185,
      "dit": 6186,
      "▁*": 6187,
      "▁preven": 6188,
      "▁viol": 6189,
      ".s": 6190,
      "▁shel": 6191,
      "▁division": 6192,
      "apping": 6193,
      "ested": 6194,
      "▁advant": 6195,
      "ew": 6196,
      "▁guy": 6197,
      "ings": 6198,
      "▁boss": 6199,
      "▁concl": 6200,
      "▁appears": 6201,
      "▁cupcake": 6202,
      "80s": 6203,
      "▁vegetable": 6204,
      "plet": 6205,
      "▁salad": 6206,
      ".ht": 6207,
      "▁images": 6208,
      "▁chick": 6209,
      "▁defe": 6210,
      "▁snake": 6211,
      "ctive": 6212,
      "▁mrs": 6213,
      "ological": 6214,
      "omach": 6215,
      "▁reported": 6216,
      "▁alternative": 6217,
      "eck": 6218,
      "▁attributed": 6219,
      "▁wor": 6220,
      ".x": 6221,
      "▁supermar": 6222,
      "▁simply": 6223,
      "▁lunch": 6224,
      "▁each": 6225,
      "▁attr": 6226,
      "▁true": 6227,
      "▁beautiful": 6228,
      "▁spec": 6229,
      "▁translation": 6230,
      "▁phrase": 6231,
      "▁charges": 6232,
      "ight": 6233,
      "ich": 6234,
      "▁raise": 6235,
      "ligh": 6236,
      "▁chess": 6237,
      "▁novel": 6238,
      "▁ants": 6239,
      "hood": 6240,
      "m": 6241,
      "▁crash": 6242,
      "▁throw": 6243,
      "tle": 6244,
      "▁months": 6245,
      "air": 6246,
      "▁professor": 6247,
      "▁nat": 6248,
      "▁cry": 6249,
      "▁tube": 6250,
      "▁suff": 6251,
      "▁cupcakes": 6252,
      "▁actors": 6253,
      "▁purpos": 6254,
      "▁ago": 6255,
      "▁eats": 6256,
      ":": 6257,
      "st": 6258,
      "▁relig": 6259,
      "af": 6260,
      "tick": 6261,
      "▁departing": 6262,
      "vation": 6263,
      "▁eleph": 6264,
      "▁understand": 6265,
      "isions": 6266,
      "▁mig": 6267,
      "adas": 6268,
      "▁effects": 6269,
      "▁expectations": 6270,
      "}": 6271,
      "▁assemb": 6272,
      "▁spot": 6273,
      "▁benef": 6274,
      "lines": 6275,
      "▁breath": 6276,
      "▁reports": 6277,
      "orld": 6278,
      "▁shelf": 6279,
      "▁moved": 6280,
      "▁sitting": 6281,
      "ption": 6282,
      "▁architect": 6283,
      "gh": 6284,
      "▁studies": 6285,
      "▁stre": 6286,
      "▁cycl": 6287,
      "▁humanity": 6288,
      "ocity": 6289,
      "▁govern": 6290,
      "▁psych": 6291,
      "▁investigate": 6292,
      "▁mop": 6293,
      "ech": 6294,
      "astruc": 6295,
      "▁gath": 6296,
      "▁cancel": 6297,
      "▁reas": 6298,
      "go": 6299,
      "▁liter": 6300,
      "▁manufactur": 6301,
      "▁confid": 6302,
      "▁5": 6303,
      "▁now": 6304,
      "▁ma": 6305,
      "ores": 6306,
      "▁instructions": 6307,
      "der": 6308,
      "▁air": 6309,
      "▁bear": 6310,
      "▁'em": 6311,
      "▁pot": 6312,
      "raw": 6313,
      "▁sushi": 6314,
      "▁december": 6315,
      "▁valu": 6316,
      "▁refer": 6317,
      "lect": 6318,
      "▁parent": 6319,
      "▁sold": 6320,
      "▁abilities": 6321,
      "▁slept": 6322,
      "▁selling": 6323,
      "▁seven": 6324,
      "▁object": 6325,
      "▁imagined": 6326,
      "▁p": 6327,
      "▁’ll": 6328,
      "▁occas": 6329,
      "▁won": 6330,
      "▁swimming": 6331,
      "▁sens": 6332,
      "▁columb": 6333,
      "▁apr": 6334,
      "ors": 6335,
      "▁stones": 6336,
      "▁grew": 6337,
      "▁or": 6338,
      "▁mus": 6339,
      "▁israel": 6340,
      "anks": 6341,
      "ates": 6342,
      "▁growth": 6343,
      "▁tort": 6344,
      "▁acted": 6345,
      "▁adventure": 6346,
      "▁pix": 6347,
      "▁evenings": 6348,
      "ush": 6349,
      "▁working": 6350,
      "▁mut": 6351,
      "ped": 6352,
      "▁membership": 6353,
      "▁this": 6354,
      "uzz": 6355,
      "▁reb": 6356,
      "▁advised": 6357,
      "itch": 6358,
      "▁launched": 6359,
      "nets": 6360,
      "rap": 6361,
      "▁patience": 6362,
      "eros": 6363,
      "▁resources": 6364,
      "erted": 6365,
      "▁blew": 6366,
      "▁assass": 6367,
      "▁accused": 6368,
      "▁litt": 6369,
      "▁pivottable": 6370,
      "▁meant": 6371,
      "quis": 6372,
      "▁eng": 6373,
      "▁fingers": 6374,
      "▁ass": 6375,
      "▁coop": 6376,
      "asy": 6377,
      "▁manage": 6378,
      "end": 6379,
      "▁proce": 6380,
      "▁geor": 6381,
      "▁early": 6382,
      "▁hero": 6383,
      "▁welcomed": 6384,
      "▁saf": 6385,
      "▁assess": 6386,
      "sex": 6387,
      "▁everybody": 6388,
      "▁neck": 6389,
      "▁friends": 6390,
      "ising": 6391,
      "▁ann": 6392,
      "▁mice": 6393,
      "▁f": 6394,
      "uts": 6395,
      "▁ingred": 6396,
      "force": 6397,
      "▁passengers": 6398,
      "▁:": 6399,
      "sm": 6400,
      "▁pos": 6401,
      "▁expensive": 6402,
      "▁write": 6403,
      "cakes": 6404,
      "▁analyses": 6405,
      "▁requ": 6406,
      "▁microphone": 6407,
      "▁congr": 6408,
      "▁syn": 6409,
      "▁compan": 6410,
      "▁rocket": 6411,
      "▁comp": 6412,
      "▁thri": 6413,
      "ival": 6414,
      "▁instruc": 6415,
      "▁river": 6416,
      "ans": 6417,
      "▁contract": 6418,
      "▁limb": 6419,
      "roph": 6420,
      "▁vis": 6421,
      "▁frame": 6422,
      "▁cultures": 6423,
      "us": 6424,
      "▁executed": 6425,
      "▁heels": 6426,
      "▁cash": 6427,
      "orms": 6428,
      "▁incom": 6429,
      "ingly": 6430,
      "▁goes": 6431,
      "▁win": 6432,
      "arr": 6433,
      "▁narr": 6434,
      "▁fought": 6435,
      "▁serv": 6436,
      "▁continu": 6437,
      "▁wr": 6438,
      "▁jumping": 6439,
      "▁econ": 6440,
      "▁attempt": 6441,
      "▁expecting": 6442,
      "umbled": 6443,
      "▁interconnect": 6444,
      "own": 6445,
      "ect": 6446,
      "▁strike": 6447,
      "▁til": 6448,
      "arture": 6449,
      "▁produce": 6450,
      "▁stro": 6451,
      "▁ya": 6452,
      "▁me": 6453,
      "▁president": 6454,
      "▁shar": 6455,
      "fact": 6456,
      "▁disc": 6457,
      "▁bacon": 6458,
      "▁connecting": 6459,
      "enty": 6460,
      "▁implemented": 6461,
      "▁cookie": 6462,
      "▁stream": 6463,
      "ail": 6464,
      "atic": 6465,
      "ama": 6466,
      "▁facul": 6467,
      "chup": 6468,
      "pet": 6469,
      "▁listening": 6470,
      "▁midnight": 6471,
      "▁ey": 6472,
      "........": 6473,
      "▁managed": 6474,
      "▁sometime": 6475,
      "▁started": 6476,
      "▁you": 6477,
      "▁explo": 6478,
      "▁monaster": 6479,
      "▁explan": 6480,
      "▁shit": 6481,
      "▁equ": 6482,
      "▁monster": 6483,
      "▁collapsed": 6484,
      "▁hurt": 6485,
      "▁kit": 6486,
      "▁cars": 6487,
      "▁both": 6488,
      "the": 6489,
      "▁af": 6490,
      "▁wearing": 6491,
      "ording": 6492,
      "opath": 6493,
      "▁due": 6494,
      "aker": 6495,
      "ips": 6496,
      "▁welcome": 6497,
      "▁!?": 6498,
      "~": 6499,
      "▁excuse": 6500,
      "▁drill": 6501,
      "▁giant": 6502,
      "▁valley": 6503,
      "▁satellite": 6504,
      "▁character": 6505,
      "▁situations": 6506,
      "▁street": 6507,
      "▁charlotte": 6508,
      "▁vod": 6509,
      "▁_": 6510,
      "▁sight": 6511,
      "▁candle": 6512,
      "▁delivered": 6513,
      "bility": 6514,
      "▁absorb": 6515,
      "▁respect": 6516,
      "ocation": 6517,
      "▁traders": 6518,
      "▁my": 6519,
      "▁ph": 6520,
      "▁subject": 6521,
      "▁when": 6522,
      "ials": 6523,
      "▁soft": 6524,
      "▁extended": 6525,
      "isted": 6526,
      "▁cha": 6527,
      "ape": 6528,
      "▁confidentiality": 6529,
      "▁violence": 6530,
      "▁stretched": 6531,
      "▁deals": 6532,
      "▁sources": 6533,
      "▁promoting": 6534,
      "f": 6535,
      "▁energy": 6536,
      "erated": 6537,
      "arm": 6538,
      "oms": 6539,
      "▁lake": 6540,
      "ires": 6541,
      "▁interact": 6542,
      "▁units": 6543,
      "▁clo": 6544,
      "▁giraff": 6545,
      "tor": 6546,
      "▁cod": 6547,
      "▁circle": 6548,
      "▁!!!!!!": 6549,
      "****": 6550,
      "ld": 6551,
      "vol": 6552,
      "▁introduction": 6553,
      "▁pieces": 6554,
      "▁acting": 6555,
      "▁crit": 6556,
      "▁friend": 6557,
      "▁swe": 6558,
      "▁fe": 6559,
      "acked": 6560,
      "az": 6561,
      "▁bor": 6562,
      "▁links": 6563,
      "alist": 6564,
      "▁politics": 6565,
      "▁mur": 6566,
      "oses": 6567,
      "berries": 6568,
      "▁website": 6569,
      "anted": 6570,
      "▁shell": 6571,
      "▁fr": 6572,
      "▁driver": 6573,
      "orn": 6574,
      "▁0": 6575,
      "▁.": 6576,
      "▁wan": 6577,
      "▁lick": 6578,
      "essing": 6579,
      "eb": 6580,
      "▁detail": 6581,
      "▁distribute": 6582,
      "iles": 6583,
      "▁actress": 6584,
      "▁submit": 6585,
      "▁poetry": 6586,
      "▁hosp": 6587,
      "▁anoder": 6588,
      "▁uncle": 6589,
      "------": 6590,
      "gth": 6591,
      "▁still": 6592,
      "▁green": 6593,
      "▁u.s.": 6594,
      "▁facilitate": 6595,
      "lets": 6596,
      "t": 6597,
      "▁cher": 6598,
      "▁arguing": 6599,
      "▁compare": 6600,
      "mely": 6601,
      "▁student": 6602,
      "▁individuals": 6603,
      "▁below": 6604,
      "▁suggested": 6605,
      "ɑ": 6606,
      "▁collected": 6607,
      "▁award": 6608,
      "[MASK]": 6609,
      "σ": 6610,
      "▁safety": 6611,
      "▁cfl": 6612,
      "▁wom": 6613,
      "son": 6614,
      "▁candidate": 6615,
      "▁constitution": 6616,
      "▁tuesday": 6617,
      "▁deployed": 6618,
      "ror": 6619,
      "▁reform": 6620,
      "▁alright": 6621,
      "▁wore": 6622,
      "▁checks": 6623,
      "rops": 6624,
      "▁neuro": 6625,
      "▁authority": 6626,
      "bly": 6627,
      "tride": 6628,
      "iously": 6629,
      "▁us": 6630,
      "▁column": 6631,
      "▁bridge": 6632,
      "▁hot": 6633,
      "%": 6634,
      "sc": 6635,
      "▁secretary": 6636,
      "▁k": 6637,
      "up": 6638,
      "boy": 6639,
      "▁fits": 6640,
      "▁adopt": 6641,
      "▁political": 6642,
      "ending": 6643,
      "ted": 6644,
      "▁undert": 6645,
      "▁macaroni": 6646,
      "▁lifesty": 6647,
      "▁bea": 6648,
      "▁cabb": 6649,
      "▁effort": 6650,
      "▁app": 6651,
      "▁person": 6652,
      "▁fl": 6653,
      "▁analys": 6654,
      "▁allowing": 6655,
      "ock": 6656,
      "▁son": 6657,
      "▁soci": 6658,
      "▁shop": 6659,
      "▁seeds": 6660,
      "oun": 6661,
      "▁quack": 6662,
      "key": 6663,
      "▁arrangement": 6664,
      "▁ld": 6665,
      "zing": 6666,
      "▁remained": 6667,
      "▁protection": 6668,
      "▁aven": 6669,
      "▁fantasy": 6670,
      "▁vint": 6671,
      "▁ident": 6672,
      "▁liquid": 6673,
      "▁piz": 6674,
      "▁harm": 6675,
      "▁suicide": 6676,
      "▁librarians": 6677,
      "li": 6678,
      "alty": 6679,
      "▁dom": 6680,
      "▁literature": 6681,
      "ural": 6682,
      "▁understood": 6683,
      "▁since": 6684,
      "▁difficul": 6685,
      "▁degrees": 6686,
      "▁farmers": 6687,
      "▁contains": 6688,
      "▁val": 6689,
      "▁detro": 6690,
      "▁mass": 6691,
      "ision": 6692,
      "▁guinea": 6693,
      "▁bunny": 6694,
      "app": 6695,
      "▁perspective": 6696,
      "▁faith": 6697,
      "▁economies": 6698,
      "▁worry": 6699,
      "▁waste": 6700,
      "▁momm": 6701,
      "▁cards": 6702,
      "▁guests": 6703,
      "▁munic": 6704,
      "▁uh": 6705,
      "▁expand": 6706,
      "ship": 6707,
      "▁dump": 6708,
      "▁guit": 6709,
      "▁victory": 6710,
      "bir": 6711,
      "▁autumn": 6712,
      "▁debt": 6713,
      "anding": 6714,
      "▁process": 6715,
      "▁attempts": 6716,
      "lf": 6717,
      "▁recomm": 6718,
      "▁sovereignty": 6719,
      "▁windows": 6720,
      "▁out": 6721,
      "▁enforcement": 6722,
      "▁ha": 6723,
      "▁test": 6724,
      "▁reply": 6725,
      "▁mountains": 6726,
      "▁fields": 6727,
      "▁tow": 6728,
      "▁share": 6729,
      "▁claimed": 6730,
      "▁recommendations": 6731,
      "▁served": 6732,
      "▁mach": 6733,
      "ansas": 6734,
      "ssible": 6735,
      "▁socks": 6736,
      "eeds": 6737,
      "jo": 6738,
      "▁pool": 6739,
      "▁bread": 6740,
      "▁aimed": 6741,
      "▁deck": 6742,
      "▁action": 6743,
      "▁function": 6744,
      "▁tours": 6745,
      "tern": 6746,
      "▁bac": 6747,
      "ybody": 6748,
      "▁step": 6749,
      "▁argu": 6750,
      "▁circ": 6751,
      "▁mission": 6752,
      "ologist": 6753,
      "▁gamb": 6754,
      "▁corp": 6755,
      "fication": 6756,
      "▁chem": 6757,
      "▁spell": 6758,
      "ude": 6759,
      "▁seemed": 6760,
      "▁problem": 6761,
      "▁galleries": 6762,
      "▁else": 6763,
      "▁claiming": 6764,
      "▁finance": 6765,
      "▁telling": 6766,
      "▁innovations": 6767,
      "▁guessed": 6768,
      "▁brows": 6769,
      "▁depos": 6770,
      "▁selection": 6771,
      "▁nations": 6772,
      "▁also": 6773,
      "▁rolled": 6774,
      "▁dressed": 6775,
      "▁200": 6776,
      "▁sur": 6777,
      "▁whe": 6778,
      "▁palm": 6779,
      "▁mistake": 6780,
      "tled": 6781,
      "▁regard": 6782,
      "oles": 6783,
      "▁bron": 6784,
      "▁z": 6785,
      "▁rif": 6786,
      "▁printed": 6787,
      "▁better": 6788,
      "lling": 6789,
      "▁description": 6790,
      "▁regions": 6791,
      "▁wiki": 6792,
      "let": 6793,
      "▁elections": 6794,
      "▁copied": 6795,
      "▁glasses": 6796,
      "▁crush": 6797,
      "ightly": 6798,
      "▁collect": 6799,
      "▁seeing": 6800,
      "▁beard": 6801,
      "▁indicate": 6802,
      "▁health": 6803,
      "▁incen": 6804,
      "ecks": 6805,
      "▁option": 6806,
      "▁fort": 6807,
      "▁\"": 6808,
      "▁chart": 6809,
      "▁priorities": 6810,
      "▁refuge": 6811,
      "ke": 6812,
      "▁checked": 6813,
      "way": 6814,
      "▁constitu": 6815,
      "ictions": 6816,
      "▁flow": 6817,
      "▁form": 6818,
      "▁endeav": 6819,
      "▁only": 6820,
      "ickness": 6821,
      "▁11": 6822,
      "ached": 6823,
      "▁mid-": 6824,
      "▁suppl": 6825,
      "▁questioned": 6826,
      "▁payment": 6827,
      "acking": 6828,
      "▁inte": 6829,
      "apse": 6830,
      "▁degree": 6831,
      "▁beside": 6832,
      "▁cake": 6833,
      "▁heat": 6834,
      "▁beet": 6835,
      "▁supporting": 6836,
      "---": 6837,
      "orth": 6838,
      "ateg": 6839,
      "▁play": 6840,
      "▁challenge": 6841,
      "▁workforce": 6842,
      "▁duck": 6843,
      "▁install": 6844,
      "▁emphas": 6845,
      "ief": 6846,
      "▁industries": 6847,
      "▁met": 6848,
      "▁sus": 6849,
      "▁butt": 6850,
      "▁york": 6851,
      "ef": 6852,
      "­": 6853,
      "▁daughter": 6854,
      "io": 6855,
      "▁trees": 6856,
      "rup": 6857,
      "▁lamp": 6858,
      "▁crow": 6859,
      "▁section": 6860,
      "▁pip": 6861,
      "▁fight": 6862,
      "gar": 6863,
      "▁mathematician": 6864,
      "▁chef": 6865,
      "▁tourist": 6866,
      "▁avail": 6867,
      "▁may": 6868,
      "▁former": 6869,
      "▁ceremony": 6870,
      "▁village": 6871,
      "▁ones": 6872,
      "▁resource": 6873,
      "all": 6874,
      "equ": 6875,
      "▁thank": 6876,
      "▁tape": 6877,
      "▁distance": 6878,
      "isf": 6879,
      "▁lighting": 6880,
      "▁ben": 6881,
      "▁iodine": 6882,
      "▁off": 6883,
      "cer": 6884,
      "▁b/": 6885,
      "▁hors": 6886,
      "isters": 6887,
      "▁specify": 6888,
      "▁19": 6889,
      "▁appear": 6890,
      "▁jan": 6891,
      "▁enable": 6892,
      "ress": 6893,
      "▁cages": 6894,
      "ong": 6895,
      "▁investment": 6896,
      "▁connect": 6897,
      "memb": 6898,
      "atme": 6899,
      "▁white": 6900,
      "ester": 6901,
      "▁estab": 6902,
      "▁arrangements": 6903,
      "▁informed": 6904,
      "▁sticker": 6905,
      "▁phones": 6906,
      "▁publication": 6907,
      "▁employ": 6908,
      "▁blue": 6909,
      "og": 6910,
      "▁plaster": 6911,
      "itt": 6912,
      "otted": 6913,
      "nce": 6914,
      "enience": 6915,
      "▁ens": 6916,
      "▁sil": 6917,
      "▁bl": 6918,
      "▁dipl": 6919,
      "▁egg": 6920,
      "urday": 6921,
      "▁sizes": 6922,
      "▁specialist": 6923,
      "400": 6924,
      "▁forehead": 6925,
      "▁producers": 6926,
      "▁helps": 6927,
      "▁fox": 6928,
      "▁strategies": 6929,
      "▁gain": 6930,
      "red": 6931,
      "hen": 6932,
      "▁south": 6933,
      "▁females": 6934,
      "▁'s": 6935,
      "stem": 6936,
      "▁ket": 6937,
      "▁consumers": 6938,
      "▁cargo": 6939,
      "▁birth": 6940,
      "▁shares": 6941,
      "▁rais": 6942,
      "▁aesthe": 6943,
      "▁sell": 6944,
      "▁affects": 6945,
      "▁speaking": 6946,
      "▁projects": 6947,
      "tice": 6948,
      "▁spokes": 6949,
      "▁sock": 6950,
      "▁freedom": 6951,
      "▁theatre": 6952,
      "aze": 6953,
      "ency": 6954,
      "▁aside": 6955,
      "▁examination": 6956,
      "unte": 6957,
      "▁wa": 6958,
      "▁makes": 6959,
      "▁pour": 6960,
      "▁expression": 6961,
      "▁amb": 6962,
      "▁emergency": 6963,
      "▁signature": 6964,
      "▁wanting": 6965,
      "uis": 6966,
      "▁whether": 6967,
      "▁???": 6968,
      "▁ends": 6969,
      "ertainly": 6970,
      "▁mistakes": 6971,
      "uck": 6972,
      "▁shadows": 6973,
      "inal": 6974,
      "itals": 6975,
      "tiff": 6976,
      "▁und": 6977,
      "kin": 6978,
      "irc": 6979,
      "gs": 6980,
      "▁criticism": 6981,
      "ag": 6982,
      "ery": 6983,
      "▁bag": 6984,
      "▁tor": 6985,
      "▁schedule": 6986,
      "ilar": 6987,
      "▁present": 6988,
      "ared": 6989,
      "▁competition": 6990,
      "▁sights": 6991,
      "▁studio": 6992,
      "▁opportun": 6993,
      "▁towns": 6994,
      "▁diplom": 6995,
      "uments": 6996,
      "▁drawing": 6997,
      "idd": 6998,
      "▁execute": 6999,
      "▁accounts": 7000,
      "▁examining": 7001,
      "▁lobby": 7002,
      "▁mod": 7003,
      "▁regarding": 7004,
      "▁concrete": 7005,
      "0's": 7006,
      "ital": 7007,
      "▁without": 7008,
      "teen": 7009,
      "▁str": 7010,
      "▁negotiations": 7011,
      "▁pain": 7012,
      "▁vice": 7013,
      "▁contributed": 7014,
      "▁worm": 7015,
      "ket": 7016,
      "▁feeling": 7017,
      "▁published": 7018,
      "iness": 7019,
      "▁buil": 7020,
      "▁dividends": 7021,
      "▁open": 7022,
      "▁reduc": 7023,
      "▁abe": 7024,
      "▁motion": 7025,
      "▁possible": 7026,
      "▁lived": 7027,
      "▁realised": 7028,
      "onom": 7029,
      "▁spring": 7030,
      "▁decade": 7031,
      "▁pun": 7032,
      "▁passage": 7033,
      "▁receives": 7034,
      "▁mean": 7035,
      "▁losing": 7036,
      "▁hope": 7037,
      "▁prom": 7038,
      "·": 7039,
      "▁cr": 7040,
      "▁counterpar": 7041,
      "▁attend": 7042,
      "tise": 7043,
      "▁hotel": 7044,
      "uch": 7045,
      "▁going": 7046,
      "▁plus": 7047,
      "▁link": 7048,
      "▁turkey": 7049,
      "▁rooms": 7050,
      "▁eigh": 7051,
      "13": 7052,
      "▁a.m.": 7053,
      "▁chalk": 7054,
      "▁differences": 7055,
      "▁tied": 7056,
      "▁log": 7057,
      "▁demonstrated": 7058,
      "▁existence": 7059,
      "▁lim": 7060,
      "▁num": 7061,
      "▁result": 7062,
      "▁bands": 7063,
      "▁bills": 7064,
      "▁resul": 7065,
      "▁clou": 7066,
      "▁began": 7067,
      "word": 7068,
      "ain": 7069,
      "▁cons": 7070,
      "▁movie": 7071,
      "▁lifetime": 7072,
      "▁requests": 7073,
      "re": 7074,
      "▁peters": 7075,
      "▁hands": 7076,
      "ognition": 7077,
      "aves": 7078,
      "▁rolls": 7079,
      "▁construction": 7080,
      "▁prove": 7081,
      "▁alter": 7082,
      "▁assistant": 7083,
      "▁appointed": 7084,
      "▁speech": 7085,
      "▁distur": 7086,
      "▁deb": 7087,
      "▁experi": 7088,
      "osed": 7089,
      "▁voices": 7090,
      "▁getting": 7091,
      "▁dou": 7092,
      "▁techniques": 7093,
      "▁pressure": 7094,
      "▁construc": 7095,
      "▁allowed": 7096,
      "▁requirements": 7097,
      "ctly": 7098,
      "▁recog": 7099,
      "makers": 7100,
      "hes": 7101,
      "▁and": 7102,
      "▁per": 7103,
      "▁grit": 7104,
      "▁statis": 7105,
      "▁messages": 7106,
      "ious": 7107,
      "▁prices": 7108,
      "▁supposed": 7109,
      "ulf": 7110,
      "▁shake": 7111,
      "▁conver": 7112,
      "▁work": 7113,
      "ul": 7114,
      "▁pittsburgh": 7115,
      "▁walls": 7116,
      "▁scan": 7117,
      "▁honey": 7118,
      "▁earliest": 7119,
      "▁unlike": 7120,
      "▁by": 7121,
      "ves": 7122,
      "▁pittsbur": 7123,
      "els": 7124,
      "eas": 7125,
      "▁broom": 7126,
      "▁divided": 7127,
      "▁achie": 7128,
      "esthe": 7129,
      "▁sea": 7130,
      "▁conditions": 7131,
      "uff": 7132,
      "▁way": 7133,
      "-d": 7134,
      "inded": 7135,
      "roduction": 7136,
      "ing": 7137,
      "mo": 7138,
      "▁exhib": 7139,
      "▁learn": 7140,
      "▁minn": 7141,
      "▁pump": 7142,
      "▁express": 7143,
      "▁manuf": 7144,
      "eren": 7145,
      "▁kick": 7146,
      "▁destroyed": 7147,
      "omp": 7148,
      "▁pretend": 7149,
      "▁button": 7150,
      "▁lives": 7151,
      "▁infr": 7152,
      "ʁ": 7153,
      "▁puppy": 7154,
      "▁princ": 7155,
      "▁marked": 7156,
      "▁s": 7157,
      "▁dogs": 7158,
      "▁coupons": 7159,
      "▁bath": 7160,
      "▁adm": 7161,
      "▁sat": 7162,
      "▁grav": 7163,
      "ugged": 7164,
      "▁tub": 7165,
      "▁facts": 7166,
      "ir": 7167,
      "▁lamb": 7168,
      "eep": 7169,
      "▁question": 7170,
      "▁cohes": 7171,
      "int": 7172,
      "ount": 7173,
      "ering": 7174,
      "▁cigar": 7175,
      "▁bought": 7176,
      "▁hung": 7177,
      "▁exerc": 7178,
      "▁fruits": 7179,
      "using": 7180,
      "tion": 7181,
      "ated": 7182,
      "uc": 7183,
      "▁signs": 7184,
      "▁ru": 7185,
      "▁ride": 7186,
      "/": 7187,
      "▁mush": 7188,
      "▁oppos": 7189,
      "▁turtle": 7190,
      "▁shirt": 7191,
      "▁diversity": 7192,
      "▁england": 7193,
      "▁weekend": 7194,
      "▁liqu": 7195,
      "**": 7196,
      "▁others": 7197,
      "▁manag": 7198,
      "▁really": 7199,
      "▁always": 7200,
      "hin": 7201,
      "▁ing": 7202,
      "▁pm": 7203,
      "▁ov": 7204,
      "▁contest": 7205,
      "▁ideas": 7206,
      "▁brief": 7207,
      "▁connection": 7208,
      "▁guess": 7209,
      "ited": 7210,
      "▁rates": 7211,
      "▁holes": 7212,
      "▁admit": 7213,
      "▁tel": 7214,
      "▁reg": 7215,
      "other": 7216,
      "▁fork": 7217,
      "▁pers": 7218,
      "▁wipe": 7219,
      "▁might": 7220,
      "▁dealing": 7221,
      "▁deal": 7222,
      "▁guerr": 7223,
      "▁crisis": 7224,
      "▁yoy": 7225,
      "▁edge": 7226,
      "▁regulation": 7227,
      "▁branches": 7228,
      "▁park": 7229,
      "▁directions": 7230,
      "nly": 7231,
      "▁abs": 7232,
      "▁tree": 7233,
      "▁qui": 7234,
      "▁ques": 7235,
      "▁equipment": 7236,
      "itions": 7237,
      "▁noise": 7238,
      "▁grounds": 7239,
      "▁includes": 7240,
      "▁owners": 7241,
      "▁somewhere": 7242,
      "fl": 7243,
      "▁hyp": 7244,
      "▁notw": 7245,
      "▁conference": 7246,
      "▁season": 7247,
      "▁cultural": 7248,
      "▁history": 7249,
      "mber": 7250,
      "▁game": 7251,
      "▁starting": 7252,
      "ism": 7253,
      "▁!!!!!": 7254,
      "▁accident": 7255,
      "akers": 7256,
      "▁outc": 7257,
      "▁sandwich": 7258,
      "overn": 7259,
      "▁na": 7260,
      "▁museum": 7261,
      "wear": 7262,
      "▁bananas": 7263,
      "▁percenti": 7264,
      "ase": 7265,
      "▁been": 7266,
      "▁audi": 7267,
      "▁cali": 7268,
      "▁murders": 7269,
      "▁verif": 7270,
      "yond": 7271,
      "▁improving": 7272,
      "ρ": 7273,
      "▁assassination": 7274,
      "▁statue": 7275,
      "▁diet": 7276,
      "d-": 7277,
      "namon": 7278,
      "de": 7279,
      "phere": 7280,
      "▁duckie": 7281,
      "▁gh": 7282,
      "▁slee": 7283,
      "o": 7284,
      "▁idea": 7285,
      "▁quoted": 7286,
      "▁disaster": 7287,
      "ω": 7288,
      "erent": 7289,
      "▁seen": 7290,
      "ploy": 7291,
      "▁summary": 7292,
      "ward": 7293,
      "▁exhibit": 7294,
      "▁tradition": 7295,
      "lit": 7296,
      "▁nails": 7297,
      "▁trouble": 7298,
      "ties": 7299,
      "▁pilot": 7300,
      "▁inqu": 7301,
      "imed": 7302,
      "▁zoo": 7303,
      "ros": 7304,
      "▁darkness": 7305,
      "▁needs": 7306,
      "▁vacation": 7307,
      "▁bod": 7308,
      "acamole": 7309,
      "▁discussion": 7310,
      ">": 7311,
      "▁settlers": 7312,
      "▁implementing": 7313,
      "▁financial": 7314,
      "▁later": 7315,
      "▁scribb": 7316,
      "▁containing": 7317,
      "aying": 7318,
      "▁speaker": 7319,
      "heet": 7320,
      "▁recru": 7321,
      "▁face": 7322,
      "rested": 7323,
      "▁penalty": 7324,
      "▁rad": 7325,
      "cularly": 7326,
      "▁topics": 7327,
      "▁spiders": 7328,
      "▁exactly": 7329,
      "▁winning": 7330,
      "▁wand": 7331,
      "▁bud": 7332,
      "▁suit": 7333,
      "▁minus": 7334,
      "temp": 7335,
      "▁preserve": 7336,
      "▁edition": 7337,
      "▁salon": 7338,
      "oni": 7339,
      "ather": 7340,
      "▁pan": 7341,
      "amas": 7342,
      "▁faced": 7343,
      "ual": 7344,
      "▁destination": 7345,
      "eign": 7346,
      "▁tra": 7347,
      "▁der": 7348,
      "▁stranger": 7349,
      "▁cru": 7350,
      "▁sports": 7351,
      "omm": 7352,
      "▁types": 7353,
      "▁wheels": 7354,
      "▁records": 7355,
      "ighb": 7356,
      "uals": 7357,
      "▁heard": 7358,
      "▁ded": 7359,
      "sely": 7360,
      "faction": 7361,
      "▁ducks": 7362,
      "▁sad": 7363,
      "▁infl": 7364,
      "▁incorporated": 7365,
      "▁wing": 7366,
      "lor": 7367,
      "▁your": 7368,
      "▁dolly": 7369,
      "▁agriculture": 7370,
      "amp": 7371,
      "ens": 7372,
      "▁rout": 7373,
      "oved": 7374,
      "▁books": 7375,
      "▁super": 7376,
      "▁examined": 7377,
      "▁same": 7378,
      "▁trust": 7379,
      "▁senators": 7380,
      "adle": 7381,
      "▁led": 7382,
      "▁ord": 7383,
      "tic": 7384,
      "▁clown": 7385,
      "▁worship": 7386,
      "▁permitted": 7387,
      "▁answ": 7388,
      "pful": 7389,
      "▁seek": 7390,
      "▁blog": 7391,
      "▁myself": 7392,
      "▁pod": 7393,
      "▁?!": 7394,
      "▁wars": 7395,
      "▁bet": 7396,
      "▁acc": 7397,
      "ieties": 7398,
      "ss": 7399,
      "▁thurs": 7400,
      "▁fligh": 7401,
      "itional": 7402,
      "oral": 7403,
      "▁sandwic": 7404,
      "▁schem": 7405,
      "▁cohesion": 7406,
      "▁supports": 7407,
      "umble": 7408,
      "▁sw": 7409,
      "tually": 7410,
      "▁restaur": 7411,
      "▁thousands": 7412,
      "na": 7413,
      "▁cost": 7414,
      "fting": 7415,
      "▁snack": 7416,
      "omination": 7417,
      "▁dol": 7418,
      "▁cur": 7419,
      "▁therefore": 7420,
      "▁gains": 7421,
      "▁road": 7422,
      "▁___________": 7423,
      "▁rent": 7424,
      "▁self": 7425,
      "▁attention": 7426,
      "▁prac": 7427,
      "▁beat": 7428,
      "▁spr": 7429,
      "▁opp": 7430,
      "inger": 7431,
      "▁swing": 7432,
      "ently": 7433,
      "▁organization": 7434,
      "▁tastes": 7435,
      "▁iran": 7436,
      "▁fem": 7437,
      "emb": 7438,
      "lion": 7439,
      "▁hoof": 7440,
      "▁sch": 7441,
      "▁stud": 7442,
      "▁..": 7443,
      "oh": 7444,
      "▁pillow": 7445,
      "▁fabric": 7446,
      "amb": 7447,
      "▁new": 7448,
      "▁6": 7449,
      "▁excel": 7450,
      "▁knees": 7451,
      "▁focus": 7452,
      "▁associated": 7453,
      "owed": 7454,
      "▁adapted": 7455,
      "icular": 7456,
      "▁videos": 7457,
      "▁skin": 7458,
      "▁chicago": 7459,
      "▁goal": 7460,
      "ilize": 7461,
      "▁exercise": 7462,
      "▁repres": 7463,
      "▁gathered": 7464,
      "▁theory": 7465,
      "itely": 7466,
      "0th": 7467,
      "alize": 7468,
      "enom": 7469,
      "▁funnel": 7470,
      "▁greeted": 7471,
      "▁guns": 7472,
      "▁classroom": 7473,
      "▁pleasure": 7474,
      "▁escape": 7475,
      "▁matters": 7476,
      "path": 7477,
      "▁degre": 7478,
      "▁interviewed": 7479,
      "coon": 7480,
      "▁boy": 7481,
      "▁nine": 7482,
      "▁km": 7483,
      "tis": 7484,
      "▁port": 7485,
      "ool": 7486,
      "▁replace": 7487,
      "▁stock": 7488,
      "▁atop": 7489,
      "zed": 7490,
      "▁movement": 7491,
      "▁need": 7492,
      "ze": 7493,
      "▁epm": 7494,
      "▁man": 7495,
      "▁promote": 7496,
      "▁miami": 7497,
      "fully": 7498,
      "▁services": 7499,
      "ady": 7500,
      "▁w/": 7501,
      "▁attorney": 7502,
      "vest": 7503,
      "▁arms": 7504,
      "▁m": 7505,
      "alth": 7506,
      "▁swinging": 7507,
      "▁st": 7508,
      "k": 7509,
      "▁interest": 7510,
      "▁request": 7511,
      "▁content": 7512,
      "iding": 7513,
      "▁chickens": 7514,
      "▁nove": 7515,
      "▁band": 7516,
      "▁university": 7517,
      "▁fo": 7518,
      "▁host": 7519,
      "▁arrested": 7520,
      "▁experiences": 7521,
      ".": 7522,
      "atis": 7523,
      "▁auth": 7524,
      "▁camera": 7525,
      "▁aid": 7526,
      "tain": 7527,
      "hold": 7528,
      "ump": 7529,
      "▁helicop": 7530,
      "▁sem": 7531,
      "▁rays": 7532,
      "▁within": 7533,
      "▁anywhere": 7534,
      "▁exc": 7535,
      "▁finish": 7536,
      "ample": 7537,
      "▁choice": 7538,
      "▁wrap": 7539,
      "ote": 7540,
      "▁sense": 7541,
      "▁aff": 7542,
      "▁options": 7543,
      "▁week": 7544,
      "▁member": 7545,
      "▁supporters": 7546,
      "▁birds": 7547,
      "ifying": 7548,
      "veral": 7549,
      "▁gener": 7550,
      "uk": 7551,
      "▁rever": 7552,
      "▁condition": 7553,
      "▁timing": 7554,
      "ac": 7555,
      "▁plays": 7556,
      "▁belong": 7557,
      "▁candy": 7558,
      "!!": 7559,
      "fore": 7560,
      "al": 7561,
      "▁sew": 7562,
      "▁activity": 7563,
      "▁+": 7564,
      "kes": 7565,
      "overy": 7566,
      "▁west": 7567,
      "▁je": 7568,
      "▁nume": 7569,
      "▁re-": 7570,
      "▁garage": 7571,
      "▁goo": 7572,
      "ularly": 7573,
      "▁phoenix": 7574,
      "▁sha": 7575,
      "aign": 7576,
      "▁revised": 7577,
      "option": 7578,
      "eration": 7579,
      "ancing": 7580,
      "▁cal": 7581,
      "▁enron": 7582,
      "=----": 7583,
      "omet": 7584,
      "▁holidays": 7585,
      "istic": 7586,
      "▁flo": 7587,
      "ede": 7588,
      "hip": 7589,
      "ried": 7590,
      "▁preserved": 7591,
      "▁giraffe": 7592,
      "▁bowl": 7593,
      "uary": 7594,
      "ords": 7595,
      "▁guar": 7596,
      "▁dresses": 7597,
      "▁decisions": 7598,
      "ods": 7599,
      "▁racket": 7600,
      "▁cap": 7601,
      "▁tops": 7602,
      "ught": 7603,
      "ading": 7604,
      "▁ven": 7605,
      "▁sentence": 7606,
      "▁developing": 7607,
      "pec": 7608,
      "▁des": 7609,
      "▁siz": 7610,
      "_": 7611,
      "▁copyright": 7612,
      "▁dw": 7613,
      "▁trains": 7614,
      "bo": 7615,
      "▁eye": 7616,
      "▁mold": 7617,
      "▁subscri": 7618,
      "ny": 7619,
      "▁brought": 7620,
      "▁release": 7621,
      "▁gcp": 7622,
      "ession": 7623,
      "▁terror": 7624,
      "▁fax": 7625,
      "zz": 7626,
      "▁sleep": 7627,
      "ble": 7628,
      "▁part": 7629,
      "il": 7630,
      "illing": 7631,
      "▁haf": 7632,
      "▁betw": 7633,
      "▁falls": 7634,
      "ases": 7635,
      "▁firm": 7636,
      "▁ability": 7637,
      "illion": 7638,
      "▁adop": 7639,
      "▁themselves": 7640,
      "▁pops": 7641,
      "▁yet": 7642,
      "▁fares": 7643,
      "▁performing": 7644,
      "▁maintained": 7645,
      "▁comes": 7646,
      "▁buck": 7647,
      "▁lists": 7648,
      "▁sush": 7649,
      "gel": 7650,
      "ills": 7651,
      "▁surprised": 7652,
      "eer": 7653,
      "▁quote": 7654,
      "▁discussing": 7655,
      "++++": 7656,
      "▁mar": 7657,
      "▁item": 7658,
      "actions": 7659,
      "▁evolved": 7660,
      "rance": 7661,
      "▁furn": 7662,
      "▁cent": 7663,
      "▁imm": 7664,
      "centi": 7665,
      "▁knock": 7666,
      "ands": 7667,
      "ered": 7668,
      "▁traveling": 7669,
      "▁search": 7670,
      "▁were": 7671,
      "▁pal": 7672,
      "▁por": 7673,
      "--": 7674,
      "▁tast": 7675,
      "udes": 7676,
      "▁alt.animals.": 7677,
      "▁relationship": 7678,
      "▁gender": 7679,
      "▁blink": 7680,
      "ana": 7681,
      "place": 7682,
      "▁sub": 7683,
      "▁goods": 7684,
      "▁aft": 7685,
      "ating": 7686,
      "▁entertain": 7687,
      "▁guys": 7688,
      "▁dun": 7689,
      "▁done": 7690,
      "▁herself": 7691,
      "▁chain": 7692,
      ")": 7693,
      "▁cros": 7694,
      "▁lock": 7695,
      "▁fur": 7696,
      "▁waiting": 7697,
      "▁prof": 7698,
      "▁pred": 7699,
      "▁cited": 7700,
      "▁atmos": 7701,
      "athers": 7702,
      "spite": 7703,
      "▁film": 7704,
      "▁alle": 7705,
      "▁immigration": 7706,
      "▁admitted": 7707,
      "min": 7708,
      "▁ah": 7709,
      "▁administrator": 7710,
      "▁rose": 7711,
      "▁grill": 7712,
      "▁particles": 7713,
      "▁instead": 7714,
      "▁jul": 7715,
      "erm": 7716,
      "▁system": 7717,
      "line": 7718,
      "▁peop": 7719,
      "▁horses": 7720,
      "▁interpre": 7721,
      "▁petroleum": 7722,
      "rew": 7723,
      "▁din": 7724,
      "ament": 7725,
      "▁schema": 7726,
      "yth": 7727,
      "▁une": 7728,
      "▁walks": 7729,
      "▁daddy": 7730,
      "▁opportunities": 7731,
      "▁waitress": 7732,
      "▁doughnut": 7733,
      "▁schools": 7734,
      "▁editors": 7735,
      "▁mail": 7736,
      "▁scr": 7737,
      "▁adjust": 7738,
      "▁flies": 7739,
      "▁suitcase": 7740,
      "▁law": 7741,
      "▁troops": 7742,
      "ity": 7743,
      "acts": 7744,
      "▁complex": 7745,
      "▁addiction": 7746,
      "▁tend": 7747,
      "▁land": 7748,
      "▁rode": 7749,
      "▁flash": 7750,
      "▁interpreted": 7751,
      "▁glo": 7752,
      "▁expos": 7753,
      "▁wondered": 7754,
      "▁navy": 7755,
      "▁two": 7756,
      "▁tie": 7757,
      "▁cancer": 7758,
      "▁feat": 7759,
      "▁given": 7760,
      "▁leaned": 7761,
      "▁poss": 7762,
      "▁either": 7763,
      "cently": 7764,
      "▁c": 7765,
      "▁cause": 7766,
      "olving": 7767,
      "▁g": 7768,
      "▁trag": 7769,
      "▁dal": 7770,
      "▁registered": 7771,
      "ctions": 7772,
      "▁carries": 7773,
      "▁&amp;": 7774,
      "▁sign": 7775,
      "asure": 7776,
      "▁incitement": 7777,
      "▁phot": 7778,
      "ules": 7779,
      "ius": 7780,
      "▁sep": 7781,
      "▁cerem": 7782,
      "nels": 7783,
      "ued": 7784,
      "▁breakf": 7785,
      "▁yard": 7786,
      "▁commissioner": 7787,
      "▁maps": 7788,
      "▁spin": 7789,
      "ons": 7790,
      "onents": 7791,
      "▁jud": 7792,
      "▁numbers": 7793,
      "odes": 7794,
      "ities": 7795,
      "▁nursies": 7796,
      "▁propos": 7797,
      "▁enthus": 7798,
      "ointment": 7799,
      "▁refrigerator": 7800,
      "▁evalu": 7801,
      "▁eliminate": 7802,
      "▁gradu": 7803,
      "pr": 7804,
      "tery": 7805,
      "▁price": 7806,
      "-p": 7807,
      "▁asked": 7808,
      "▁career": 7809,
      "▁eur": 7810,
      "aps": 7811,
      "▁codes": 7812,
      "▁developed": 7813,
      "▁mark": 7814,
      "▁weather": 7815,
      "▁include": 7816,
      "▁paintings": 7817,
      "▁another": 7818,
      "▁vend": 7819,
      "pers": 7820,
      "▁ballet": 7821,
      "▁scul": 7822,
      "hap": 7823,
      "ex": 7824,
      "▁research": 7825,
      "▁comm": 7826,
      "▁meas": 7827,
      "▁region": 7828,
      "▁canada": 7829,
      "▁pulling": 7830,
      "ulated": 7831,
      "▁meaning": 7832,
      "▁http://www.": 7833,
      "ift": 7834,
      "▁appointment": 7835,
      "ς": 7836,
      "laimed": 7837,
      "▁serving": 7838,
      "▁choose": 7839,
      "iling": 7840,
      "ield": 7841,
      "vements": 7842,
      "ener": 7843,
      "▁got": 7844,
      "▁rats": 7845,
      "▁ill": 7846,
      "°": 7847,
      "▁gd": 7848,
      "ard": 7849,
      "▁hug": 7850,
      "▁kill": 7851,
      "te": 7852,
      "ott": 7853,
      "▁reflects": 7854,
      "▁imagine": 7855,
      "icted": 7856,
      "▁stair": 7857,
      "▁vessel": 7858,
      "ch": 7859,
      "▁field": 7860,
      "▁balloon": 7861,
      "▁arranged": 7862,
      "▁sugg": 7863,
      "▁covered": 7864,
      "▁fu": 7865,
      "▁wheel": 7866,
      "neath": 7867,
      "▁maintenance": 7868,
      "▁suggestions": 7869,
      "▁lifted": 7870,
      "▁liber": 7871,
      "▁causing": 7872,
      "▁where": 7873,
      "uil": 7874,
      "▁rh": 7875,
      "▁lea": 7876,
      "▁sin": 7877,
      "▁terrorist": 7878,
      "▁promised": 7879,
      "▁jellyfish": 7880,
      "▁prohibited": 7881,
      "▁americans": 7882,
      "▁houston": 7883,
      "▁scientist": 7884,
      "▁territ": 7885,
      "▁begun": 7886,
      "cked": 7887,
      "▁r": 7888,
      "auce": 7889,
      "▁importance": 7890,
      "▁of": 7891,
      "▁farmer": 7892,
      "▁cop": 7893,
      "▁los": 7894,
      "▁motiv": 7895,
      "▁sti": 7896,
      "▁operators": 7897,
      "rec": 7898,
      "▁recall": 7899,
      "▁sample": 7900,
      "▁complaint": 7901,
      "▁analysts": 7902,
      "alu": 7903,
      "▁grows": 7904,
      "▁bir": 7905,
      "▁ra": 7906,
      "▁louis": 7907,
      "gement": 7908,
      "▁reserves": 7909,
      "▁pronounced": 7910,
      "▁amendment": 7911,
      "▁accompan": 7912,
      "▁assistance": 7913,
      "▁john": 7914,
      "ergy": 7915,
      "▁poem": 7916,
      "▁sentences": 7917,
      "▁travelling": 7918,
      "▁conv": 7919,
      "▁architecture": 7920,
      "dy": 7921,
      "▁swww": 7922,
      "▁conduc": 7923,
      "▁setting": 7924,
      "▁beds": 7925,
      "ob": 7926,
      "▁base": 7927,
      "▁votes": 7928,
      "▁states": 7929,
      "▁!!!!!!!": 7930,
      "▁indust": 7931,
      "▁insights": 7932,
      "▁motor": 7933,
      "▁regre": 7934,
      "▁bic": 7935,
      "▁haircut": 7936,
      "fare": 7937,
      "▁??": 7938,
      "▁fine": 7939,
      "▁du": 7940,
      "▁believe": 7941,
      "▁scribble": 7942,
      "▁mycelium": 7943,
      "▁toilet": 7944,
      "▁announced": 7945,
      "▁beg": 7946,
      "▁able": 7947,
      "iti": 7948,
      "▁counc": 7949,
      "▁limousine": 7950,
      "▁distinction": 7951,
      "▁laund": 7952,
      "▁requiring": 7953,
      "▁lo": 7954,
      "▁currency": 7955,
      "▁addressing": 7956,
      "▁fire": 7957,
      "▁urs": 7958,
      "▁ref": 7959,
      "ution": 7960,
      "▁store": 7961,
      "▁reviewing": 7962,
      "▁behavi": 7963,
      "▁cabinet": 7964,
      "▁calendar": 7965,
      "▁questions": 7966,
      "▁retail": 7967,
      "▁hit": 7968,
      "▁attached": 7969,
      "ned": 7970,
      "ucks": 7971,
      "life": 7972,
      "orate": 7973,
      "▁prod": 7974,
      "▁wedding": 7975,
      "ues": 7976,
      "fir": 7977,
      "▁favour": 7978,
      "▁watched": 7979,
      "▁inclu": 7980,
      "leg": 7981,
      "▁laughed": 7982,
      "▁throat": 7983,
      "▁pipe": 7984,
      "▁tent": 7985,
      "ired": 7986,
      "▁medicine": 7987,
      "per": 7988,
      "▁fright": 7989,
      "atory": 7990,
      "▁teaching": 7991,
      "▁feet": 7992,
      "▁considering": 7993,
      "ook": 7994,
      "▁defic": 7995,
      "eapolis": 7996,
      "olog": 7997,
      "υ": 7998,
      "▁introducing": 7999,
      "▁purposes": 8000,
      "ath": 8001,
      "▁improve": 8002,
      "▁—": 8003,
      "▁quick": 8004,
      "▁absor": 8005,
      "▁findings": 8006,
      "▁pace": 8007,
      "▁even": 8008,
      "elly": 8009,
      "▁yours": 8010,
      "▁toy": 8011,
      "▁reflect": 8012,
      "▁depending": 8013,
      "▁operations": 8014,
      "▁plan": 8015,
      "▁curr": 8016,
      "▁x": 8017,
      "▁pre": 8018,
      "▁an": 8019,
      "▁bike": 8020,
      "▁visa": 8021,
      "▁side": 8022,
      "▁march": 8023,
      "▁apart": 8024,
      "▁pulled": 8025,
      "▁seems": 8026,
      "▁answered": 8027,
      "▁mou": 8028,
      "▁insp": 8029,
      "▁october": 8030,
      "▁anoth": 8031,
      "▁dance": 8032,
      "▁lady": 8033,
      "▁summ": 8034,
      "▁sl": 8035,
      "__": 8036,
      "▁teeth": 8037,
      "...": 8038,
      "▁trade": 8039,
      "▁providing": 8040,
      "ent": 8041,
      "▁arch": 8042,
      "mans": 8043,
      "▁sought": 8044,
      ".c": 8045,
      "airs": 8046,
      "duction": 8047,
      "▁felt": 8048,
      "ides": 8049,
      "▁disp": 8050,
      "ices": 8051,
      "▁d'": 8052,
      "▁imagination": 8053,
      "ids": 8054,
      "▁miss": 8055,
      "▁animals": 8056,
      "ident": 8057,
      "▁pol": 8058,
      "ry": 8059,
      "▁16": 8060,
      "ithst": 8061,
      "▁weeks": 8062,
      "▁grab": 8063,
      "esh": 8064,
      "books": 8065,
      "▁conce": 8066,
      "▁bas": 8067,
      "▁benefits": 8068,
      "▁reaction": 8069,
      "▁inven": 8070,
      "▁money": 8071,
      "▁wonder": 8072,
      "kn": 8073,
      "hether": 8074,
      "▁gen": 8075,
      "▁rele": 8076,
      "▁element": 8077,
      "▁pretending": 8078,
      "▁essence": 8079,
      "▁hers": 8080,
      "▁chest": 8081,
      "▁jacket": 8082,
      "----": 8083,
      "--------------------------------": 8084,
      "i": 8085,
      "erence": 8086,
      "▁o": 8087,
      "▁client": 8088,
      "▁schol": 8089,
      "|": 8090,
      "self": 8091,
      "▁al": 8092,
      "▁decades": 8093,
      "▁species": 8094,
      "elines": 8095,
      "▁stuff": 8096,
      "▁between": 8097,
      "▁capacity": 8098,
      "burg": 8099,
      "▁alread": 8100,
      "▁ur": 8101,
      "▁liked": 8102,
      "▁music": 8103,
      "▁buying": 8104,
      "▁contrast": 8105,
      "ute": 8106,
      "▁admin": 8107,
      "▁indic": 8108,
      "▁staring": 8109,
      "▁rich": 8110,
      "▁assessment": 8111,
      "▁cousin": 8112,
      "▁jurisd": 8113,
      "▁garb": 8114,
      "▁gol": 8115,
      "▁issued": 8116,
      "▁identify": 8117,
      "▁balls": 8118,
      "▁proposed": 8119,
      "▁marsh": 8120,
      "▁trader": 8121,
      "ocr": 8122,
      "▁underneath": 8123,
      "uum": 8124,
      "▁gather": 8125,
      "no": 8126,
      "▁prosec": 8127,
      "aroni": 8128,
      "▁water": 8129,
      "▁aspects": 8130,
      "▁guarant": 8131,
      "▁trunk": 8132,
      "▁atlan": 8133,
      "▁emp": 8134,
      "▁convention": 8135,
      "▁asylum": 8136,
      "ll": 8137,
      "▁representation": 8138,
      "▁helped": 8139,
      "keys": 8140,
      "▁gi": 8141,
      "▁alt.animals": 8142,
      "▁critics": 8143,
      "onstr": 8144,
      "▁according": 8145,
      "▁youn": 8146,
      "placement": 8147,
      "▁perform": 8148,
      "▁inflation": 8149,
      "▁vac": 8150,
      "▁administration": 8151,
      "oop": 8152,
      "▁add": 8153,
      "ios": 8154,
      "▁denver": 8155,
      "▁var": 8156,
      "▁squi": 8157,
      "▁gallon": 8158,
      "▁investi": 8159,
      "▁reach": 8160,
      "lim": 8161,
      "▁fant": 8162,
      "▁dilem": 8163,
      "▁parking": 8164,
      "▁born": 8165,
      "▁caps": 8166,
      "▁bur": 8167,
      "▁markets": 8168,
      "▁applies": 8169,
      "▁rest": 8170,
      "▁ble": 8171,
      "fri": 8172,
      "▁stores": 8173,
      "esting": 8174,
      "▁achieved": 8175,
      "▁friday": 8176,
      "▁ant": 8177,
      "▁guarantee": 8178,
      "iled": 8179,
      "▁capt": 8180,
      "▁someone": 8181,
      "mb": 8182,
      "▁contin": 8183,
      "▁collab": 8184,
      "▁guidance": 8185,
      "loy": 8186,
      "ental": 8187,
      "ames": 8188,
      "sive": 8189,
      "▁!!!!!!!!!!!!!": 8190,
      "▁seat": 8191
    },
    "merges": [
      [
        "▁econom",
        "y"
      ],
      [
        "▁tre",
        "es"
      ],
      [
        "▁cri",
        "tic"
      ],
      [
        "ic",
        "ult"
      ],
      [
        "▁",
        "iron"
      ],
      [
        "▁ch",
        "ange"
      ],
      [
        "▁jo",
        "bs"
      ],
      [
        "▁gr",
        "ound"
      ],
      [
        "i",
        "ff"
      ],
      [
        "▁di",
        "vers"
      ],
      [
        "▁pret",
        "end"
      ],
      [
        "▁hom",
        "es"
      ],
      [
        "u",
        "l"
      ],
      [
        "▁fi",
        "el"
      ],
      [
        "▁g",
        "um"
      ],
      [
        "est",
        "ing"
      ],
      [
        "▁ant",
        "iqu"
      ],
      [
        "in",
        "ea"
      ],
      [
        "▁pop",
        "ularity"
      ],
      [
        "ee",
        "ze"
      ],
      [
        "▁trans",
        "f"
      ],
      [
        "ll",
        "y"
      ],
      [
        "▁airplan",
        "e"
      ],
      [
        "ac",
        "le"
      ],
      [
        "en",
        "tions"
      ],
      [
        "▁stud",
        "y"
      ],
      [
        "▁[",
        "..."
      ],
      [
        "anc",
        "y"
      ],
      [
        "▁infl",
        "ation"
      ],
      [
        "▁vis",
        "it"
      ],
      [
        "ec",
        "tion"
      ],
      [
        "▁research",
        "ers"
      ],
      [
        "vil",
        "le"
      ],
      [
        "▁.",
        "!"
      ],
      [
        "▁a",
        "bout"
      ],
      [
        "▁sec",
        "t"
      ],
      [
        "o",
        "ned"
      ],
      [
        "▁it",
        "'s"
      ],
      [
        "▁da",
        "ily"
      ],
      [
        "▁j",
        "uly"
      ],
      [
        "▁maj",
        "ority"
      ],
      [
        "▁h",
        "om"
      ],
      [
        "▁dep",
        "loyed"
      ],
      [
        "▁cr",
        "ap"
      ],
      [
        "▁int",
        "end"
      ],
      [
        "▁le",
        "an"
      ],
      [
        "▁bel",
        "on"
      ],
      [
        "▁l",
        "ess"
      ],
      [
        "▁cont",
        "inental"
      ],
      [
        "▁ref",
        "use"
      ],
      [
        "▁straw",
        "berry"
      ],
      [
        "ai",
        "led"
      ],
      [
        "▁ev",
        "enings"
      ],
      [
        "it",
        "s"
      ],
      [
        "▁to",
        "urs"
      ],
      [
        "▁kit",
        "chen"
      ],
      [
        "ter",
        "ies"
      ],
      [
        "▁acqui",
        "red"
      ],
      [
        "▁contin",
        "ued"
      ],
      [
        "▁be",
        "en"
      ],
      [
        "o",
        "ked"
      ],
      [
        "tiv",
        "es"
      ],
      [
        "▁o",
        "bs"
      ],
      [
        "▁st",
        "art"
      ],
      [
        "▁ins",
        "ects"
      ],
      [
        "▁2",
        "0"
      ],
      [
        "▁reduc",
        "e"
      ],
      [
        "▁sw",
        "a"
      ],
      [
        "▁prom",
        "ise"
      ],
      [
        "▁f",
        "lies"
      ],
      [
        "u",
        "led"
      ],
      [
        "▁exp",
        "er"
      ],
      [
        "▁num",
        "ber"
      ],
      [
        "▁s",
        "even"
      ],
      [
        "▁ro",
        "t"
      ],
      [
        "▁fir",
        "m"
      ],
      [
        "▁look",
        "s"
      ],
      [
        "▁cur",
        "r"
      ],
      [
        "▁appro",
        "ach"
      ],
      [
        "▁pl",
        "ant"
      ],
      [
        "▁st",
        "o"
      ],
      [
        "▁prof",
        "ess"
      ],
      [
        "▁th",
        "row"
      ],
      [
        "▁p",
        "ol"
      ],
      [
        "▁f",
        "oll"
      ],
      [
        "▁ste",
        "am"
      ],
      [
        "▁20",
        "1"
      ],
      [
        "▁see",
        "ing"
      ],
      [
        "▁e",
        "ast"
      ],
      [
        "▁cl",
        "imb"
      ],
      [
        "▁tour",
        "ism"
      ],
      [
        "▁a",
        "ble"
      ],
      [
        "▁st",
        "orm"
      ],
      [
        "▁s",
        "mal"
      ],
      [
        "▁pet",
        "roleum"
      ],
      [
        "▁oc",
        "t"
      ],
      [
        "ri",
        "end"
      ],
      [
        "▁b",
        "ank"
      ],
      [
        "▁i",
        "f"
      ],
      [
        "▁enem",
        "y"
      ],
      [
        "▁m",
        "ys"
      ],
      [
        "an",
        "ted"
      ],
      [
        "ec",
        "ts"
      ],
      [
        "▁breath",
        "e"
      ],
      [
        "p",
        "a"
      ],
      [
        "n",
        "a"
      ],
      [
        "▁val",
        "ue"
      ],
      [
        "▁h",
        "appy"
      ],
      [
        "▁s",
        "ide"
      ],
      [
        "▁sw",
        "ing"
      ],
      [
        "▁pri",
        "orities"
      ],
      [
        "ire",
        "d"
      ],
      [
        "iss",
        "ors"
      ],
      [
        "▁whe",
        "el"
      ],
      [
        "▁dis",
        "play"
      ],
      [
        "▁",
        "outs"
      ],
      [
        "▁b",
        "ill"
      ],
      [
        "ond",
        "on"
      ],
      [
        "▁licens",
        "or"
      ],
      [
        "▁mix",
        "ture"
      ],
      [
        "▁bel",
        "ow"
      ],
      [
        ".c",
        "om"
      ],
      [
        "▁nap",
        "kin"
      ],
      [
        "▁cheap",
        "est"
      ],
      [
        "▁st",
        "ate"
      ],
      [
        "▁b",
        "acked"
      ],
      [
        "o",
        "und"
      ],
      [
        "▁an",
        "oder"
      ],
      [
        "▁subs",
        "cri"
      ],
      [
        "▁en",
        "sure"
      ],
      [
        "▁sa",
        "ving"
      ],
      [
        "ro",
        "u"
      ],
      [
        "▁l",
        "l"
      ],
      [
        "▁fl",
        "o"
      ],
      [
        "▁3",
        "0"
      ],
      [
        "▁li",
        "fted"
      ],
      [
        "▁drink",
        "s"
      ],
      [
        "at",
        "s"
      ],
      [
        "▁f",
        "ro"
      ],
      [
        "▁intern",
        "et"
      ],
      [
        "▁c",
        "ave"
      ],
      [
        "▁",
        "********************************"
      ],
      [
        "▁h",
        "ere"
      ],
      [
        "em",
        "ber"
      ],
      [
        "n",
        "ing"
      ],
      [
        "p",
        "ing"
      ],
      [
        "▁comp",
        "ut"
      ],
      [
        "▁d",
        "r."
      ],
      [
        "▁welc",
        "omed"
      ],
      [
        "▁ho",
        "us"
      ],
      [
        "▁p",
        "our"
      ],
      [
        "▁cond",
        "ition"
      ],
      [
        "il",
        "l"
      ],
      [
        "ro",
        "ph"
      ],
      [
        "ri",
        "ver"
      ],
      [
        "▁inter",
        "view"
      ],
      [
        "▁lad",
        "der"
      ],
      [
        "▁civ",
        "ili"
      ],
      [
        "▁park",
        "ing"
      ],
      [
        "▁ele",
        "ph"
      ],
      [
        "er",
        "n"
      ],
      [
        "o",
        "ught"
      ],
      [
        "▁cr",
        "ash"
      ],
      [
        "▁pl",
        "aster"
      ],
      [
        "o",
        "x"
      ],
      [
        "▁re",
        "ad"
      ],
      [
        "▁assoc",
        "iated"
      ],
      [
        "▁c",
        "odes"
      ],
      [
        "▁f",
        "e"
      ],
      [
        "▁of",
        "f"
      ],
      [
        "▁ro",
        "ads"
      ],
      [
        "▁con",
        "t"
      ],
      [
        "▁ext",
        "ent"
      ],
      [
        "▁la",
        "ugh"
      ],
      [
        "▁mechan",
        "ics"
      ],
      [
        "r",
        "e"
      ],
      [
        "▁inv",
        "ite"
      ],
      [
        "▁g",
        "ain"
      ],
      [
        "ous",
        "ly"
      ],
      [
        "▁s",
        "u"
      ],
      [
        "▁v",
        "et"
      ],
      [
        "▁alth",
        "ough"
      ],
      [
        "▁ye",
        "s"
      ],
      [
        "▁e",
        "m"
      ],
      [
        "▁th",
        "an"
      ],
      [
        "▁poc",
        "ket"
      ],
      [
        "▁fin",
        "e"
      ],
      [
        "▁lar",
        "ge"
      ],
      [
        "▁deal",
        "t"
      ],
      [
        "▁je",
        "ans"
      ],
      [
        "▁mechan",
        "ism"
      ],
      [
        "▁cell",
        "s"
      ],
      [
        "▁under",
        "m"
      ],
      [
        "▁relations",
        "hip"
      ],
      [
        "▁for",
        "th"
      ],
      [
        "rib",
        "b"
      ],
      [
        "u",
        "b"
      ],
      [
        "▁re",
        "ef"
      ],
      [
        "k",
        "s"
      ],
      [
        "▁l",
        "ength"
      ],
      [
        "▁sou",
        "th"
      ],
      [
        "il",
        "led"
      ],
      [
        "▁engine",
        "ering"
      ],
      [
        "▁the",
        "re"
      ],
      [
        "▁fact",
        "or"
      ],
      [
        "▁exp",
        "ressed"
      ],
      [
        "amp",
        "le"
      ],
      [
        "▁pri",
        "v"
      ],
      [
        "▁ec",
        "onom"
      ],
      [
        "▁mov",
        "es"
      ],
      [
        "▁lawy",
        "er"
      ],
      [
        "▁document",
        "ation"
      ],
      [
        "▁j",
        "oh"
      ],
      [
        "▁americ",
        "an"
      ],
      [
        "▁ter",
        "r"
      ],
      [
        "▁pre",
        "c"
      ],
      [
        "▁d",
        "ipl"
      ],
      [
        "▁feed",
        "back"
      ],
      [
        "▁ed",
        "ge"
      ],
      [
        "▁phot",
        "o"
      ],
      [
        "▁invol",
        "vement"
      ],
      [
        "o",
        "t"
      ],
      [
        "▁l",
        "uck"
      ],
      [
        "er",
        "o"
      ],
      [
        "▁st",
        "eak"
      ],
      [
        "gh",
        "ts"
      ],
      [
        "▁d",
        "ad"
      ],
      [
        "ders",
        "t"
      ],
      [
        "ing",
        "s"
      ],
      [
        "▁st",
        "r"
      ],
      [
        "▁repe",
        "at"
      ],
      [
        "▁le",
        "ss"
      ],
      [
        "▁r",
        "ace"
      ],
      [
        "go",
        "ti"
      ],
      [
        "▁p",
        "air"
      ],
      [
        "c",
        "enti"
      ],
      [
        "▁whe",
        "re"
      ],
      [
        "p",
        "ite"
      ],
      [
        "▁ha",
        "lf"
      ],
      [
        "▁conc",
        "er"
      ],
      [
        "a",
        "l"
      ],
      [
        "▁din",
        "ing"
      ],
      [
        "▁fam",
        "ily"
      ],
      [
        "i",
        "gh"
      ],
      [
        "▁kit",
        "ty"
      ],
      [
        "anc",
        "ers"
      ],
      [
        "y",
        "m"
      ],
      [
        "▁l",
        "in"
      ],
      [
        "▁bea",
        "utiful"
      ],
      [
        "▁ass",
        "ess"
      ],
      [
        "▁exp",
        "ense"
      ],
      [
        "▁re",
        "alism"
      ],
      [
        "▁wh",
        "ale"
      ],
      [
        "▁sp",
        "ons"
      ],
      [
        "ion",
        "ed"
      ],
      [
        "▁ton",
        "ight"
      ],
      [
        "an",
        "c"
      ],
      [
        "▁",
        "ar"
      ],
      [
        "▁tr",
        "ue"
      ],
      [
        "▁down",
        "town"
      ],
      [
        "▁grandm",
        "other"
      ],
      [
        "ar",
        "m"
      ],
      [
        "▁en",
        "forcement"
      ],
      [
        "▁je",
        "ws"
      ],
      [
        "ll",
        "ing"
      ],
      [
        "ra",
        "x"
      ],
      [
        "er",
        "ate"
      ],
      [
        "ad",
        "o"
      ],
      [
        "v",
        "ision"
      ],
      [
        "▁y",
        "ard"
      ],
      [
        "▁o",
        "h"
      ],
      [
        "anc",
        "ing"
      ],
      [
        "▁play",
        "er"
      ],
      [
        "▁newsp",
        "aper"
      ],
      [
        "▁ser",
        "v"
      ],
      [
        "▁t",
        "urned"
      ],
      [
        "▁g",
        "l"
      ],
      [
        "▁activ",
        "ity"
      ],
      [
        "o",
        "ol"
      ],
      [
        "ri",
        "b"
      ],
      [
        "▁beet",
        "le"
      ],
      [
        "▁air",
        "fare"
      ],
      [
        "▁",
        "right"
      ],
      [
        "▁prepar",
        "ation"
      ],
      [
        "▁r",
        "ag"
      ],
      [
        ".",
        "."
      ],
      [
        "▁li",
        "ber"
      ],
      [
        "▁potato",
        "es"
      ],
      [
        "▁cl",
        "osed"
      ],
      [
        "9",
        "0s"
      ],
      [
        "▁p",
        "u"
      ],
      [
        "▁n",
        "eck"
      ],
      [
        "▁refl",
        "ected"
      ],
      [
        "▁stic",
        "ker"
      ],
      [
        "▁chees",
        "e"
      ],
      [
        "▁t",
        "he"
      ],
      [
        "o",
        "kes"
      ],
      [
        "▁ren",
        "t"
      ],
      [
        "▁p",
        "ic"
      ],
      [
        "▁sept",
        "ember"
      ],
      [
        "▁dogg",
        "ie"
      ],
      [
        "▁",
        "if"
      ],
      [
        "ur",
        "e"
      ],
      [
        "▁sw",
        "it"
      ],
      [
        "▁pr",
        "a"
      ],
      [
        "▁imp",
        "acts"
      ],
      [
        "es",
        "ting"
      ],
      [
        "▁guar",
        "ant"
      ],
      [
        "▁co",
        "st"
      ],
      [
        "▁th",
        "at"
      ],
      [
        "▁be",
        "side"
      ],
      [
        "▁opp",
        "osite"
      ],
      [
        "le",
        "d"
      ],
      [
        "▁lead",
        "er"
      ],
      [
        "▁lab",
        "or"
      ],
      [
        "▁ab",
        "ove"
      ],
      [
        "▁co",
        "de"
      ],
      [
        "c",
        "akes"
      ],
      [
        "▁visit",
        "ors"
      ],
      [
        "ate",
        "gy"
      ],
      [
        "▁ident",
        "ified"
      ],
      [
        "▁hang",
        "ing"
      ],
      [
        "▁walk",
        "ing"
      ],
      [
        "it",
        "o"
      ],
      [
        "▁plan",
        "t"
      ],
      [
        "▁a",
        "round"
      ],
      [
        "▁crack",
        "er"
      ],
      [
        "▁as",
        "su"
      ],
      [
        "▁cont",
        "ain"
      ],
      [
        "end",
        "er"
      ],
      [
        "▁obs",
        "erved"
      ],
      [
        "d",
        "ers"
      ],
      [
        "▁f",
        "ood"
      ],
      [
        "▁inv",
        "itation"
      ],
      [
        "▁r",
        "an"
      ],
      [
        "▁se",
        "pt"
      ],
      [
        "▁l",
        "ink"
      ],
      [
        "▁exec",
        "ute"
      ],
      [
        "▁",
        "ending"
      ],
      [
        "▁d",
        "aughter"
      ],
      [
        "i",
        "a"
      ],
      [
        "▁lands",
        "cape"
      ],
      [
        "▁fund",
        "s"
      ],
      [
        "▁h",
        "alf"
      ],
      [
        "▁s",
        "ect"
      ],
      [
        "▁fin",
        "ished"
      ],
      [
        "▁fi",
        "ve"
      ],
      [
        "▁sy",
        "rup"
      ],
      [
        "▁n",
        "'t"
      ],
      [
        "▁f",
        "ishing"
      ],
      [
        "p",
        "ri"
      ],
      [
        "▁so",
        "il"
      ],
      [
        "▁inv",
        "olving"
      ],
      [
        "▁respon",
        "ded"
      ],
      [
        "▁con",
        "f"
      ],
      [
        "▁",
        "at"
      ],
      [
        "it",
        "ate"
      ],
      [
        "er",
        "r"
      ],
      [
        "▁p",
        "ub"
      ],
      [
        "▁pe",
        "p"
      ],
      [
        "r",
        "ying"
      ],
      [
        "▁",
        "y"
      ],
      [
        "▁t",
        "ot"
      ],
      [
        "▁",
        "4"
      ],
      [
        "c",
        "ape"
      ],
      [
        "▁sp",
        "ider"
      ],
      [
        "▁dev",
        "ice"
      ],
      [
        "▁rain",
        "bow"
      ],
      [
        "▁aut",
        "h"
      ],
      [
        "▁stre",
        "ets"
      ],
      [
        "▁poin",
        "t"
      ],
      [
        "▁rock",
        "s"
      ],
      [
        "▁ne",
        "goti"
      ],
      [
        "form",
        "ation"
      ],
      [
        "▁res",
        "ult"
      ],
      [
        "▁press",
        "ure"
      ],
      [
        "▁bul",
        "l"
      ],
[...]
