{
  "version": "1.0",
  "truncation": null,
  "padding": null,
  "added_tokens": [
    {
      "id": 1064,
      "content": "[MASK]",
      "single_word": false,
      "lstrip": false,
      "rstrip": false,
      "normalized": false,
      "special": true
    },
    {
      "id": 1382,
      "content": "[PAD]",
      "single_word": false,
      "lstrip": false,
      "rstrip": false,
      "normalized": false,
      "special": true
    },
    {
      "id": 2104,
      "content": "[UNK]",
      "single_word": false,
      "lstrip": false,
      "rstrip": false,
      "normalized": false,
      "special": true
    },
    {
      "id": 2553,
      "content": "[SEP]",
      "single_word": false,
      "lstrip": false,
      "rstrip": false,
      "normalized": false,
      "special": true
    },
    {
      "id": 2571,
      "content": "[CLS]",
      "single_word": false,
      "lstrip": false,
      "rstrip": false,
      "normalized": false,
      "special": true
    }
  ],
  "normalizer": {
    "type": "Sequence",
    "normalizers": [
      {
        "type": "NFD"
      },
      {
        "type": "Lowercase"
      },
      {
        "type": "StripAccents"
      }
    ]
  },
  "pre_tokenizer": {
    "type": "Sequence",
    "pretokenizers": [
      {
        "type": "Metaspace",
        "replacement": "▁",
        "prepend_scheme": "always",
        "split": true
      }
    ]
  },
  "post_processor": {
    "type": "TemplateProcessing",
    "single": [
      {
        "SpecialToken": {
          "id": "[CLS]",
          "type_id": 0
        }
      },
      {
        "Sequence": {
          "id": "A",
          "type_id": 0
        }
      },
      {
        "SpecialToken": {
          "id": "[SEP]",
          "type_id": 0
        }
      }
    ],
    "pair": [
      {
        "SpecialToken": {
          "id": "[CLS]",
          "type_id": 0
        }
      },
      {
        "Sequence": {
          "id": "A",
          "type_id": 0
        }
      },
      {
        "SpecialToken": {
          "id": "[SEP]",
          "type_id": 0
        }
      },
      {
        "Sequence": {
          "id": "B",
          "type_id": 1
        }
      },
      {
        "SpecialToken": {
          "id": "[SEP]",
          "type_id": 1
        }
      }
    ],
    "special_tokens": {
      "[CLS]": {
        "id": "[CLS]",
        "ids": [
          2571
        ],
        "tokens": [
          "[CLS]"
        ]
      },
      "[SEP]": {
        "id": "[SEP]",
        "ids": [
          2553
        ],
        "tokens": [
          "[SEP]"
        ]
      }
    }
  },
  "decoder": {
    "type": "Metaspace",
    "replacement": "▁",
    "prepend_scheme": "always",
    "split": true
  },
  "model": {
    "type": "BPE",
    "dropout": null,
    "unk_token": "[UNK]",
    "continuing_subword_prefix": null,
    "end_of_word_suffix": null,
    "fuse_unk": false,
    "byte_fallback": false,
    "ignore_merges": false,
    "vocab": {
      "▁imple": 0,
      "▁pri": 1,
      "▁philadel": 2,
      "▁shape": 3,
      "▁coo": 4,
      "▁meals": 5,
      "▁col": 6,
      "a": 7,
      "een": 8,
      "▁happens": 9,
      "▁finding": 10,
      "ivid": 11,
      "▁located": 12,
      "▁smo": 13,
      "▁climate": 14,
      "▁example": 15,
      "ler": 16,
      "ads": 17,
      "▁date": 18,
      "▁favor": 19,
      "▁names": 20,
      "▁well": 21,
      "▁nose": 22,
      "▁whoever": 23,
      "uh": 24,
      "oc": 25,
      "▁sing": 26,
      "▁neither": 27,
      "▁hom": 28,
      "isco": 29,
      "▁respons": 30,
      "ous": 31,
      "▁math": 32,
      "▁fro": 33,
      "whether": 34,
      "▁flying": 35,
      "▁mount": 36,
      "▁against": 37,
      "▁menti": 38,
      "our": 39,
      "▁great": 40,
      "y": 41,
      "eted": 42,
      "ashed": 43,
      "▁temper": 44,
      "ots": 45,
      "▁programme": 46,
      "▁let": 47,
      "kers": 48,
      "!!!": 49,
      "ear": 50,
      "▁le": 51,
      "ination": 52,
      "idden": 53,
      "▁menu": 54,
      "▁exist": 55,
      "encies": 56,
      "rax": 57,
      "ective": 58,
      "▁pen": 59,
      "▁explain": 60,
      "▁rail": 61,
      "ers": 62,
      "▁found": 63,
      "▁corn": 64,
      "pp": 65,
      "les": 66,
      "rying": 67,
      "oard": 68,
      "inated": 69,
      "▁mad": 70,
      "▁turn": 71,
      "▁hours": 72,
      "yp": 73,
      "------------": 74,
      "▁environ": 75,
      "▁plane": 76,
      "▁women": 77,
      "▁had": 78,
      "▁susp": 79,
      "▁little": 80,
      "ked": 81,
      "▁fiel": 82,
      "▁leaders": 83,
      "▁established": 84,
      "▁opportunity": 85,
      "▁anim": 86,
      "▁act": 87,
      "▁described": 88,
      "▁[": 89,
      "▁pret": 90,
      "▁guid": 91,
      "▁song": 92,
      "▁apprec": 93,
      "▁ag": 94,
      "iate": 95,
      "▁dri": 96,
      "▁responsibility": 97,
      "▁having": 98,
      "▁soc": 99,
      "▁pack": 100,
      "▁gar": 101,
      "▁chicken": 102,
      "ead": 103,
      "▁de": 104,
      "▁pil": 105,
      "ince": 106,
      "▁format": 107,
      "▁paul": 108,
      "▁franc": 109,
      "▁nov": 110,
      "▁listen": 111,
      "▁bunch": 112,
      "ly": 113,
      "3": 114,
      "▁last": 115,
      "▁sho": 116,
      "▁visit": 117,
      "▁gir": 118,
      "▁shut": 119,
      "ru": 120,
      "oot": 121,
      "▁rul": 122,
      "▁descri": 123,
      "su": 124,
      "▁elements": 125,
      "▁blanket": 126,
      "▁human": 127,
      "▁lab": 128,
      "▁paid": 129,
      "ouse": 130,
      "▁speci": 131,
      "▁parties": 132,
      "▁screen": 133,
      "▁bush": 134,
      "ps": 135,
      "ʒ": 136,
      "▁times": 137,
      "orders": 138,
      "uring": 139,
      "▁position": 140,
      "▁emb": 141,
      "▁issues": 142,
      "pt": 143,
      "▁she": 144,
      "▁fut": 145,
      "▁country": 146,
      "ining": 147,
      "'s": 148,
      "▁actually": 149,
      "********************************": 150,
      "age": 151,
      "ety": 152,
      "▁knowledge": 153,
      "▁techniqu": 154,
      "▁breakfast": 155,
      "▁cont": 156,
      "ugh": 157,
      "▁again": 158,
      "▁told": 159,
      "▁oc": 160,
      "ign": 161,
      "iron": 162,
      "▁built": 163,
      "▁squ": 164,
      "▁enjambment": 165,
      "▁j": 166,
      "▁hi": 167,
      "ia": 168,
      "▁****": 169,
      "ause": 170,
      "▁offered": 171,
      "▁dis": 172,
      "▁surprise": 173,
      "ays": 174,
      "▁gets": 175,
      "ection": 176,
      "▁bal": 177,
      "ca": 178,
      "▁webs": 179,
      "erc": 180,
      "▁conse": 181,
      "▁treated": 182,
      "aq": 183,
      "▁soil": 184,
      "x": 185,
      "▁tomorrow": 186,
      "▁pit": 187,
      "▁men": 188,
      "▁evidence": 189,
      "▁continued": 190,
      "eries": 191,
      "▁inside": 192,
      "▁sto": 193,
      "▁doub": 194,
      "ained": 195,
      "llow": 196,
      "▁spend": 197,
      "▁nobody": 198,
      "ung": 199,
      "lar": 200,
      "▁hea": 201,
      "▁passed": 202,
      "dit": 203,
      "▁*": 204,
      "▁preven": 205,
      "artment": 206,
      "▁raised": 207,
      "▁manner": 208,
      "r": 209,
      "▁viol": 210,
      "▁pup": 211,
      "▁tele": 212,
      "=": 213,
      "lions": 214,
      "▁involved": 215,
      "▁wilt": 216,
      "ants": 217,
      "▁file": 218,
      "▁driving": 219,
      "▁chall": 220,
      "ested": 221,
      "▁advant": 222,
      "ww": 223,
      "▁describe": 224,
      "▁walking": 225,
      "▁garden": 226,
      "▁not": 227,
      "ie": 228,
      "ew": 229,
      "vel": 230,
      "▁tha": 231,
      "▁!!!!!!!!!!!!!!!!!!!": 232,
      "lled": 233,
      "▁don": 234,
      "▁da": 235,
      "ue": 236,
      "▁father": 237,
      "▁mic": 238,
      "▁mos": 239,
      "▁guy": 240,
      "4": 241,
      "e": 242,
      "ings": 243,
      "▁sect": 244,
      "▁organiz": 245,
      "▁vers": 246,
      "▁whatever": 247,
      "▁tro": 248,
      "▁laugh": 249,
      "▁straw": 250,
      "▁knows": 251,
      "▁)": 252,
      "▁concl": 253,
      "▁alongside": 254,
      "▁commission": 255,
      "▁appears": 256,
      "▁card": 257,
      "▁audience": 258,
      "band": 259,
      "▁them": 260,
      "▁ex": 261,
      "▁hear": 262,
      "▁ret": 263,
      "anced": 264,
      "▁.!": 265,
      "▁farm": 266,
      "▁fan": 267,
      "▁salad": 268,
      "▁rug": 269,
      "w": 270,
      "▁anyone": 271,
      "▁chick": 272,
      "▁reported": 273,
      "▁mrs": 274,
      "▁rules": 275,
      "lished": 276,
      "▁snake": 277,
      "ge": 278,
      "eck": 279,
      "▁pi": 280,
      "▁gas": 281,
      "▁dough": 282,
      "▁lion": 283,
      "▁wor": 284,
      "▁debate": 285,
      "if": 286,
      "▁if": 287,
      "▁rabbit": 288,
      "▁e": 289,
      "▁lunch": 290,
      "▁assoc": 291,
      "▁back": 292,
      "▁adopted": 293,
      "ess": 294,
      "▁story": 295,
      "▁organ": 296,
      "time": 297,
      "form": 298,
      "▁each": 299,
      "ron": 300,
      "▁attr": 301,
      "ise": 302,
      "ways": 303,
      "um": 304,
      "ax": 305,
      "▁into": 306,
      "land": 307,
      "▁wh": 308,
      "▁ro": 309,
      "▁case": 310,
      "▁tw": 311,
      "▁spec": 312,
      "▁tour": 313,
      "ocks": 314,
      "▁broken": 315,
      "▁noon": 316,
      "▁television": 317,
      "▁forg": 318,
      "▁mountain": 319,
      "▁majority": 320,
      "ey": 321,
      "▁luck": 322,
      "▁use": 323,
      "▁=": 324,
      "▁-------------------------------------------------": 325,
      "ight": 326,
      "ich": 327,
      "mal": 328,
      "▁lear": 329,
      "▁n": 330,
      "ligh": 331,
      "▁return": 332,
      "▁key": 333,
      "▁manager": 334,
      "▁married": 335,
      "▁novel": 336,
      "▁ants": 337,
      "hood": 338,
      "▁activ": 339,
      "wh": 340,
      "tee": 341,
      "m": 342,
      "ually": 343,
      "▁state": 344,
      "▁pur": 345,
      "▁shoe": 346,
      "▁momma": 347,
      "▁know": 348,
      "▁writing": 349,
      "erved": 350,
      "▁studying": 351,
      "▁compl": 352,
      "▁throw": 353,
      "earance": 354,
      "tle": 355,
      "orting": 356,
      "▁months": 357,
      "air": 358,
      "▁!!!?": 359,
      "ular": 360,
      "oint": 361,
      "▁cry": 362,
      "▁credit": 363,
      "▁lat": 364,
      "▁ba": 365,
      "gin": 366,
      "▁suff": 367,
      "very": 368,
      "▁creation": 369,
      "▁|--------+----------------------->": 370,
      "▁happen": 371,
      "▁prefer": 372,
      "ished": 373,
      "aled": 374,
      "▁sh": 375,
      "▁purpos": 376,
      "▁forget": 377,
      "acted": 378,
      "enti": 379,
      "ground": 380,
      "▁ago": 381,
      ":": 382,
      "▁chocol": 383,
      "▁pean": 384,
      "st": 385,
      "formed": 386,
      "▁economy": 387,
      "▁progress": 388,
      "³": 389,
      "tions": 390,
      "af": 391,
      "▁etc": 392,
      "outh": 393,
      "▁ho": 394,
      "▁departing": 395,
      "▁relig": 396,
      "▁elev": 397,
      "▁query": 398,
      "▁joke": 399,
      "raph": 400,
      "▁method": 401,
      "▁first": 402,
      "ounts": 403,
      "g": 404,
      "▁own": 405,
      "▁eleph": 406,
      "--------+----------------": 407,
      "▁argument": 408,
      "▁understand": 409,
      "▁day": 410,
      "isions": 411,
      "▁vi": 412,
      "♥": 413,
      "▁effects": 414,
      "▁famili": 415,
      "▁very": 416,
      "}": 417,
      "▁potty": 418,
      "▁spot": 419,
      "▁far": 420,
      "▁,": 421,
      "▁benef": 422,
      "▁mechan": 423,
      "▁capital": 424,
      "▁level": 425,
      "▁board": 426,
      "▁pencil": 427,
      "here": 428,
      "rit": 429,
      "▁age": 430,
      "▁breath": 431,
      "▁reports": 432,
      "▁bathroom": 433,
      "▁camel": 434,
      "▁moved": 435,
      "▁like": 436,
      "▁property": 437,
      "▁than": 438,
      "▁identi": 439,
      "p": 440,
      "▁sitting": 441,
      "ption": 442,
      "▁email": 443,
      "▁letters": 444,
      "gh": 445,
      "▁studies": 446,
      "▁stre": 447,
      "▁none": 448,
      "▁mommy": 449,
      "▁community": 450,
      "▁govern": 451,
      "▁psych": 452,
      "▁knew": 453,
      "▁regar": 454,
      "▁tre": 455,
      "▁all": 456,
      "ech": 457,
      "▁stret": 458,
      "▁[...": 459,
      "▁ev": 460,
      "▁innov": 461,
      "isting": 462,
      "▁memory": 463,
      "▁ar": 464,
      "▁reas": 465,
      "erences": 466,
      "▁dog": 467,
      "go": 468,
      "▁liter": 469,
      "▁salt": 470,
      "▁trying": 471,
      "▁role": 472,
      "pping": 473,
      "lo": 474,
      "▁ball": 475,
      "art": 476,
      "▁?????": 477,
      "▁cli": 478,
      "▁now": 479,
      "▁response": 480,
      "port": 481,
      "▁w": 482,
      "▁wind": 483,
      "nel": 484,
      "▁ma": 485,
      "▁discovered": 486,
      "ores": 487,
      "▁buc": 488,
      "▁recip": 489,
      "der": 490,
      "▁spoke": 491,
      "▁am": 492,
      "▁air": 493,
      "▁push": 494,
      "▁arrives": 495,
      "▁miles": 496,
      "▁net": 497,
      "▁become": 498,
      "▁believed": 499,
      "▁bear": 500,
      "▁’m": 501,
      "▁'em": 502,
      "▁standing": 503,
      "ical": 504,
      "▁pot": 505,
      "▁message": 506,
      "▁airline": 507,
      "ater": 508,
      "-m": 509,
      "▁bee": 510,
      "▁december": 511,
      "alt": 512,
      "▁=---": 513,
      "▁refer": 514,
      "▁lot": 515,
      "ams": 516,
      "▁sold": 517,
      "▁wo": 518,
      "ace": 519,
      "▁foc": 520,
      "▁i": 521,
      "▁pass": 522,
      "angu": 523,
      "oration": 524,
      "▁bul": 525,
      "▁source": 526,
      "▁object": 527,
      "▁surpr": 528,
      "▁dere": 529,
      "ured": 530,
      "alism": 531,
      "▁initi": 532,
      "gg": 533,
      "▁influ": 534,
      "▁p": 535,
      "stances": 536,
      "nding": 537,
      "▁’ll": 538,
      "▁transport": 539,
      "▁stayed": 540,
      "▁won": 541,
      "▁su": 542,
      "▁dogg": 543,
      "ables": 544,
      "round": 545,
      "▁ensure": 546,
      "▁sens": 547,
      "ians": 548,
      "ors": 549,
      "▁through": 550,
      "works": 551,
      "ops": 552,
      "▁airl": 553,
      "▁constit": 554,
      "▁or": 555,
      "▁;": 556,
      "un": 557,
      "▁mus": 558,
      "▁grew": 559,
      "▁sheet": 560,
      "▁birthday": 561,
      "▁cowboy": 562,
      "anks": 563,
      "ates": 564,
      "▁growth": 565,
      "ust": 566,
      "ush": 567,
      "▁working": 568,
      "▁repl": 569,
      "enting": 570,
      "▁cruise": 571,
      "▁this": 572,
      "ang": 573,
      "ο": 574,
      "at": 575,
      "ach": 576,
      "uzz": 577,
      "▁seas": 578,
      "ies": 579,
      "▁engine": 580,
      "itch": 581,
      "ick": 582,
      "rap": 583,
      "▁!!!!!!!!!!": 584,
      "▁resources": 585,
      "▁service": 586,
      "nut": 587,
      "▁arti": 588,
      "▁carry": 589,
      "er": 590,
      "▁lips": 591,
      "▁access": 592,
      "▁sky": 593,
      "▁produc": 594,
      "▁litt": 595,
      "▁feel": 596,
      "▁mor": 597,
      "en": 598,
      "cing": 599,
      "▁pivottable": 600,
      "ored": 601,
      "▁n’t": 602,
      "rol": 603,
      "▁del": 604,
      "▁techn": 605,
      "imb": 606,
      "▁meant": 607,
      "▁eng": 608,
      "▁color": 609,
      "▁fingers": 610,
      "ell": 611,
      "▁ass": 612,
      "ature": 613,
      "▁building": 614,
      "tics": 615,
      "▁threat": 616,
      "▁enter": 617,
      "ouch": 618,
      "▁leaves": 619,
      "end": 620,
      "▁proce": 621,
      "olding": 622,
      "▁customers": 623,
      "pe": 624,
      "case": 625,
      "ment": 626,
      "▁skills": 627,
      "▁ways": 628,
      "au": 629,
      "▁saf": 630,
      "▁everybody": 631,
      "▁neck": 632,
      "▁court": 633,
      "▁drinking": 634,
      "▁third": 635,
      "essed": 636,
      "▁friends": 637,
      "▁army": 638,
      "eces": 639,
      "▁delivery": 640,
      "uly": 641,
      "ising": 642,
      "▁wear": 643,
      "▁ann": 644,
      "▁countries": 645,
      "▁f": 646,
      "ender": 647,
      "ball": 648,
      "ti": 649,
      "uts": 650,
      "orm": 651,
      "force": 652,
      "▁storm": 653,
      "▁:": 654,
      "lik": 655,
      "▁bo": 656,
      "▁period": 657,
      "sm": 658,
      "▁media": 659,
      "▁sound": 660,
      "▁up": 661,
      "ably": 662,
      "▁winter": 663,
      "ial": 664,
      "▁he": 665,
      "▁pos": 666,
      "▁write": 667,
      "▁pas": 668,
      "ders": 669,
      "cakes": 670,
      "ne": 671,
      "▁adam": 672,
      "▁interv": 673,
      "▁dece": 674,
      "▁requ": 675,
      "▁doll": 676,
      "▁some": 677,
      "umn": 678,
      "ore": 679,
      "amples": 680,
      "urs": 681,
      "▁takes": 682,
      "ley": 683,
      "▁compan": 684,
      "▁comp": 685,
      "ival": 686,
      "▁dem": 687,
      "▁instruc": 688,
      "ind": 689,
      "ka": 690,
      "▁river": 691,
      "acters": 692,
      "ans": 693,
      "▁draw": 694,
      "either": 695,
      "▁contract": 696,
      "idence": 697,
      "▁details": 698,
      "▁islands": 699,
      "▁observ": 700,
      "▁vis": 701,
      "▁ans": 702,
      "▁avo": 703,
      "▁discus": 704,
      "▁version": 705,
      "▁kid": 706,
      "ib": 707,
      "▁kitt": 708,
      "▁boys": 709,
      "ents": 710,
      "us": 711,
      "thers": 712,
      "▁cookies": 713,
      "▁dep": 714,
      "▁coffee": 715,
      "irst": 716,
      "▁climb": 717,
      "▁cash": 718,
      "ec": 719,
      "▁ta": 720,
      "▁‘’": 721,
      "▁heart": 722,
      "▁goes": 723,
      "▁mist": 724,
      "▁banana": 725,
      "▁mention": 726,
      "▁data": 727,
      "▁win": 728,
      "ere": 729,
      "▁legs": 730,
      "▁committee": 731,
      "▁changes": 732,
      "▁serv": 733,
      "▁doc": 734,
      "▁continu": 735,
      "▁wr": 736,
      "til": 737,
      "▁attempt": 738,
      "▁class": 739,
      "ances": 740,
      "▁its": 741,
      "▁bom": 742,
      "▁objec": 743,
      "own": 744,
      "▁other": 745,
      "▁pick": 746,
      "ect": 747,
      "▁til": 748,
      "out": 749,
      "▁rob": 750,
      "ware": 751,
      "▁depart": 752,
      "▁produce": 753,
      "▁moving": 754,
      "▁ya": 755,
      "▁me": 756,
      "tt": 757,
      "ries": 758,
      "ont": 759,
      "▁long": 760,
      "▁president": 761,
      "▁coff": 762,
      "▁nature": 763,
      "▁...............": 764,
      "▁disc": 765,
      "▁could": 766,
      "▁mom": 767,
      "sus": 768,
      "▁did": 769,
      "avor": 770,
      "▁ir": 771,
      "'re": 772,
      "▁tem": 773,
      "▁outside": 774,
      "co": 775,
      "enty": 776,
      "▁wake": 777,
      "ker": 778,
      "▁track": 779,
      "▁military": 780,
      "▁dam": 781,
      "▁|--------+----------------": 782,
      "▁difference": 783,
      "ei": 784,
      "ail": 785,
      "ε": 786,
      "aw": 787,
      "ama": 788,
      "tc": 789,
      "????": 790,
      "▁build": 791,
      "▁broke": 792,
      "ify": 793,
      "▁ey": 794,
      "........": 795,
      "▁accept": 796,
      "▁posted": 797,
      "▁started": 798,
      "▁aug": 799,
      "of": 800,
      "▁you": 801,
      "cle": 802,
      "wor": 803,
      "▁poli": 804,
      "▁equ": 805,
      "des": 806,
      "ls": 807,
      "▁art": 808,
      "ma": 809,
      "abb": 810,
      "▁dropped": 811,
      "▁read": 812,
      "▁hurt": 813,
      "▁kit": 814,
      "▁century": 815,
      "▁te": 816,
      "▁cars": 817,
      "▁both": 818,
      "ards": 819,
      "▁af": 820,
      "▁gave": 821,
      "▁wearing": 822,
      "lers": 823,
      "▁enjoyed": 824,
      "phia": 825,
      "ording": 826,
      "ril": 827,
      "▁says": 828,
      "ational": 829,
      "▁---------------------------------": 830,
      "▁contact": 831,
      "▁peoples": 832,
      "ional": 833,
      "ode": 834,
      "▁showed": 835,
      "▁!?": 836,
      "~": 837,
      "▁ps": 838,
      "▁too": 839,
      "▁mem": 840,
      "b": 841,
      "▁gro": 842,
      "▁addition": 843,
      "atives": 844,
      "sing": 845,
      "ible": 846,
      "▁penc": 847,
      "osing": 848,
      "▁anti": 849,
      "nt": 850,
      "▁character": 851,
      "▁office": 852,
      ";": 853,
      "ton": 854,
      "▁enjo": 855,
      "▁isl": 856,
      "craft": 857,
      "▁street": 858,
      "▁harry": 859,
      "▁yog": 860,
      "▁pig": 861,
      "▁deter": 862,
      "▁needed": 863,
      "▁_": 864,
      "ched": 865,
      "▁cro": 866,
      "ume": 867,
      "▁tea": 868,
      "cept": 869,
      "▁bug": 870,
      "▁respect": 871,
      "▁pay": 872,
      "▁my": 873,
      "▁product": 874,
      "▁ph": 875,
      "▁close": 876,
      "ay": 877,
      "ists": 878,
      "▁sym": 879,
      "▁subject": 880,
      "ength": 881,
      "isd": 882,
      "▁when": 883,
      "ough": 884,
      "▁incl": 885,
      "ub": 886,
      "▁performance": 887,
      "ials": 888,
      "▁sci": 889,
      "▁shall": 890,
      "▁supp": 891,
      "▁number": 892,
      "▁instit": 893,
      "ozer": 894,
      "isted": 895,
      "oth": 896,
      "▁cha": 897,
      "▁reve": 898,
      "▁dallas": 899,
      "ape": 900,
      "ver": 901,
      "▁director": 902,
      "▁round": 903,
      "▁---=": 904,
      "▁rub": 905,
      "▁walk": 906,
      "gan": 907,
      "▁show": 908,
      "▁languages": 909,
      "dge": 910,
      "ˈ": 911,
      "▁individ": 912,
      "▁leave": 913,
      "▁agreement": 914,
      "▁sources": 915,
      "▁has": 916,
      "▁played": 917,
      "f": 918,
      "ments": 919,
      "▁energy": 920,
      "▁yester": 921,
      "▁creating": 922,
      "erated": 923,
      "oices": 924,
      "▁polic": 925,
      "▁gall": 926,
      "uit": 927,
      "esday": 928,
      "ive": 929,
      "▁dr": 930,
      "tor": 931,
      "▁concern": 932,
      "▁stopover": 933,
      "▁april": 934,
      "▁bott": 935,
      "▁circle": 936,
      "urity": 937,
      "▁!!!!!!": 938,
      "▁couple": 939,
      "****": 940,
      "lem": 941,
      "▁tech": 942,
      "▁animal": 943,
      "ld": 944,
      "▁wrote": 945,
      "▁pieces": 946,
      "▁emer": 947,
      "▁friend": 948,
      "▁swe": 949,
      "▁crack": 950,
      "▁small": 951,
      "▁was": 952,
      "▁fe": 953,
      "▁happ": 954,
      "▁laws": 955,
      "▁past": 956,
      "ult": 957,
      "▁fact": 958,
      "▁old": 959,
      "▁wants": 960,
      "acked": 961,
      "▁elect": 962,
      "▁..........": 963,
      "▁ground": 964,
      "▁applied": 965,
      "▁sept": 966,
      "az": 967,
      "▁fre": 968,
      "▁decision": 969,
      "▁bor": 970,
      "▁metal": 971,
      "alist": 972,
      "icide": 973,
      "▁nonstop": 974,
      "▁med": 975,
      "▁mid": 976,
      "▁mur": 977,
      "are": 978,
      "▁-----------------------------------------------------------------------": 979,
      "sts": 980,
      "one": 981,
      "▁results": 982,
      "▁arriving": 983,
      "acks": 984,
      "▁space": 985,
      "▁website": 986,
      "ory": 987,
      "•": 988,
      "iction": 989,
      "ycle": 990,
      "▁_____": 991,
      "anted": 992,
      "arl": 993,
      "▁[...]": 994,
      "▁ban": 995,
      "▁fr": 996,
      "▁driver": 997,
      "orn": 998,
      "ys": 999,
      "▁.": 1000,
      "▁wan": 1001,
      "▁mess": 1002,
      "-------": 1003,
      "▁coll": 1004,
      "▁expl": 1005,
      "▁serve": 1006,
      "eb": 1007,
      "iss": 1008,
      "▁recogn": 1009,
      "▁detail": 1010,
      "ison": 1011,
      "tsbur": 1012,
      "ences": 1013,
      "▁beyond": 1014,
      "▁env": 1015,
      "▁tom": 1016,
      "▁flag": 1017,
      "▁3": 1018,
      "▁prin": 1019,
      "▁employees": 1020,
      "▁hosp": 1021,
      "▁anoder": 1022,
      "▁airplane": 1023,
      "▁uncle": 1024,
      "------": 1025,
      "▁cri": 1026,
      "▁still": 1027,
      "▁talk": 1028,
      "operation": 1029,
      "ient": 1030,
      "▁exper": 1031,
      "▁command": 1032,
      "▁cut": 1033,
      "ined": 1034,
      "aff": 1035,
      "t": 1036,
      "▁match": 1037,
      "▁say": 1038,
      "ault": 1039,
      "▁sched": 1040,
      "thing": 1041,
      "▁invest": 1042,
      "▁analysis": 1043,
      "ien": 1044,
      "▁av": 1045,
      "▁dinos": 1046,
      "==": 1047,
      "▁below": 1048,
      "ʊ": 1049,
      "▁student": 1050,
      "ast": 1051,
      "7": 1052,
      "▁love": 1053,
      "res": 1054,
      "▁butter": 1055,
      "▁grass": 1056,
      "ass": 1057,
      "▁airport": 1058,
      "▁comments": 1059,
      "#": 1060,
      "ɑ": 1061,
      "▁bro": 1062,
      "ili": 1063,
      "[MASK]": 1064,
      "ond": 1065,
      "anded": 1066,
      "σ": 1067,
      "▁safety": 1068,
      "se": 1069,
      "▁should": 1070,
      "▁libr": 1071,
      "▁wom": 1072,
      "▁agre": 1073,
      "cess": 1074,
      "▁happening": 1075,
      "▁tuesday": 1076,
      "▁activities": 1077,
      "▁wond": 1078,
      "▁monkey": 1079,
      "▁draft": 1080,
      "anc": 1081,
      "▁thre": 1082,
      "ror": 1083,
      "▁everything": 1084,
      "lin": 1085,
      "▁towards": 1086,
      "to": 1087,
      "iz": 1088,
      "▁wish": 1089,
      "▁appeared": 1090,
      "ist": 1091,
      "ym": 1092,
      "fact": 1093,
      "tly": 1094,
      "adel": 1095,
      "ding": 1096,
      "▁sa": 1097,
      "▁cup": 1098,
      "▁a": 1099,
      "▁value": 1100,
      "ide": 1101,
      "’t": 1102,
      "ws": 1103,
      "▁just": 1104,
      "pos": 1105,
      "▁mathema": 1106,
      "ruc": 1107,
      "bly": 1108,
      "▁fol": 1109,
      "▁&": 1110,
      "▁block": 1111,
      "▁ele": 1112,
      "▁reached": 1113,
      "▁must": 1114,
      "▁?!?": 1115,
      "▁rain": 1116,
      "tride": 1117,
      "ation": 1118,
      "▁us": 1119,
      "▁under": 1120,
      "▁recommended": 1121,
      "▁column": 1122,
      "▁bridge": 1123,
      "▁oh": 1124,
      "▁_______": 1125,
      "▁hot": 1126,
      "▁plate": 1127,
      "%": 1128,
      "▁k": 1129,
      "up": 1130,
      "▁sex": 1131,
      "boy": 1132,
      "▁display": 1133,
      "aith": 1134,
      "▁adults": 1135,
      "▁theirs": 1136,
      "ending": 1137,
      "ted": 1138,
      "▁fing": 1139,
      "▁does": 1140,
      "▁bea": 1141,
      "n": 1142,
      "▁effort": 1143,
      "▁ever": 1144,
      "imp": 1145,
      "▁app": 1146,
      "▁accepted": 1147,
      "▁will": 1148,
      "▁person": 1149,
      "icul": 1150,
      "▁fl": 1151,
      "▁{": 1152,
      "▁behavior": 1153,
      "▁bed": 1154,
      "▁bus": 1155,
      "▁analys": 1156,
      "▁>": 1157,
      "▁boston": 1158,
      "riage": 1159,
      "phone": 1160,
      "ception": 1161,
      "ock": 1162,
      "▁expect": 1163,
      "▁q": 1164,
      "▁son": 1165,
      "▁fell": 1166,
      "orted": 1167,
      "▁orig": 1168,
      "▁provide": 1169,
      "ied": 1170,
      "▁def": 1171,
      "▁innovation": 1172,
      "▁remember": 1173,
      "ten": 1174,
      "▁taking": 1175,
      "cause": 1176,
      "▁hur": 1177,
      "▁shop": 1178,
      "orrow": 1179,
      ".com": 1180,
      "ea": 1181,
      "ilos": 1182,
      "oun": 1183,
      "▁cloth": 1184,
      "▁left": 1185,
      "key": 1186,
      "est": 1187,
      "▁hair": 1188,
      "▁ac": 1189,
      "▁poin": 1190,
      "bs": 1191,
      "▁area": 1192,
      "ention": 1193,
      "ph": 1194,
      "▁protection": 1195,
      "▁ste": 1196,
      "▁cereal": 1197,
      "ou": 1198,
      "▁morning": 1199,
      "▁view": 1200,
      "▁video": 1201,
      "▁decl": 1202,
      "▁brain": 1203,
      "▁ident": 1204,
      "▁piz": 1205,
      "▁string": 1206,
      "▁for": 1207,
      "▁suicide": 1208,
      "oon": 1209,
      "li": 1210,
      "atures": 1211,
      "▁following": 1212,
      "▁im": 1213,
      "▁whose": 1214,
      "▁watch": 1215,
      "ins": 1216,
      "ults": 1217,
      "▁ships": 1218,
      "▁lad": 1219,
      "▁enem": 1220,
      "und": 1221,
      "▁dom": 1222,
      "▁neighb": 1223,
      "▁?": 1224,
      "▁replication": 1225,
      "ural": 1226,
      "▁journ": 1227,
      "▁down": 1228,
      "▁before": 1229,
      "▁since": 1230,
      "irt": 1231,
      "▁difficul": 1232,
      "▁move": 1233,
      "▁wall": 1234,
      "uro": 1235,
      "▁barn": 1236,
      "▁sc": 1237,
      "▁val": 1238,
      "▁befor": 1239,
      "▁mass": 1240,
      "ision": 1241,
      "▁******************************************************************": 1242,
      "▁bunny": 1243,
      "▁pa": 1244,
      "app": 1245,
      "▁path": 1246,
      "▁beauty": 1247,
      "be": 1248,
      "▁faith": 1249,
      "▁fish": 1250,
      "▁woud": 1251,
      "eng": 1252,
      "▁saturday": 1253,
      "▁cards": 1254,
      "als": 1255,
      "▁begin": 1256,
      "▁text": 1257,
      "▁snow": 1258,
      "▁uh": 1259,
      "ov": 1260,
      "▁ins": 1261,
      "▁touch": 1262,
      "ole": 1263,
      "]": 1264,
      "ter": 1265,
      "▁style": 1266,
      "lus": 1267,
      "▁looks": 1268,
      "aries": 1269,
      "▁shoes": 1270,
      "▁pair": 1271,
      "▁sup": 1272,
      "▁sand": 1273,
      "▁is": 1274,
      "▁sk": 1275,
      "▁exh": 1276,
      "acy": 1277,
      "rong": 1278,
      "▁wil": 1279,
      "▁campaign": 1280,
      "????????????????????????????????": 1281,
      "ilities": 1282,
      "anding": 1283,
      "▁here": 1284,
      "▁process": 1285,
      "▁june": 1286,
      "▁officials": 1287,
      "▁looked": 1288,
      "▁learned": 1289,
      "▁quar": 1290,
      "lf": 1291,
      "▁ren": 1292,
      "▁recomm": 1293,
      "▁comed": 1294,
      "▁beh": 1295,
      "▁les": 1296,
      "▁windows": 1297,
      "▁out": 1298,
      "ceed": 1299,
      "▁ha": 1300,
      "++": 1301,
      "00": 1302,
      "▁test": 1303,
      "▁workers": 1304,
      "▁practice": 1305,
      "ends": 1306,
      "▁top": 1307,
      "▁parents": 1308,
      "▁fields": 1309,
      "▁tow": 1310,
      "▁share": 1311,
      "$": 1312,
      "ence": 1313,
      "▁offici": 1314,
      "ribution": 1315,
      "▁loc": 1316,
      "▁start": 1317,
      "▁support": 1318,
      "▁mach": 1319,
      "▁served": 1320,
      "inging": 1321,
      "▁city": 1322,
      "gy": 1323,
      "ches": 1324,
      "in": 1325,
      "et": 1326,
      "jo": 1327,
      "stop": 1328,
      "ik": 1329,
      "▁amend": 1330,
      "eeds": 1331,
      "▁showing": 1332,
      "itled": 1333,
      "▁pool": 1334,
      "▁september": 1335,
      "ve": 1336,
      "ange": 1337,
      "struc": 1338,
      "▁bread": 1339,
      "▁etc.": 1340,
      "fo": 1341,
      "ark": 1342,
      "▁vol": 1343,
      "▁partic": 1344,
      "gether": 1345,
      "▁sour": 1346,
      "▁taken": 1347,
      "▁what": 1348,
      "▁allow": 1349,
      "pen": 1350,
      "▁action": 1351,
      "▁function": 1352,
      "▁'m": 1353,
      "tern": 1354,
      "▁bac": 1355,
      "▁aircraft": 1356,
      "▁har": 1357,
      "▁div": 1358,
      "ybody": 1359,
      "▁interests": 1360,
      "▁step": 1361,
      "▁implem": 1362,
      "v": 1363,
      "▁cart": 1364,
      "------->": 1365,
      "▁leader": 1366,
      "nec": 1367,
      "0": 1368,
      "▁argu": 1369,
      "{": 1370,
      "▁toast": 1371,
      "▁circ": 1372,
      "▁uses": 1373,
      "educ": 1374,
      "▁expected": 1375,
      "ators": 1376,
      "▁impact": 1377,
      "▁mission": 1378,
      "▁esc": 1379,
      "ument": 1380,
      "ping": 1381,
      "[PAD]": 1382,
      "fication": 1383,
      "mon": 1384,
      "▁spell": 1385,
      "▁map": 1386,
      "ude": 1387,
      "▁seemed": 1388,
      "▁ter": 1389,
      "▁struc": 1390,
      "▁concept": 1391,
      "▁problem": 1392,
      "▁h": 1393,
      "9": 1394,
      "▁opening": 1395,
      "....": 1396,
      "▁telling": 1397,
      "▁available": 1398,
      "▁lost": 1399,
      "▁aw": 1400,
      "xt": 1401,
      "▁keeping": 1402,
      "▁required": 1403,
      "▁also": 1404,
      "********": 1405,
      "▁unto": 1406,
      "▁200": 1407,
      "▁horsie": 1408,
      "▁while": 1409,
      "▁citizens": 1410,
      "▁’’": 1411,
      "▁sur": 1412,
      "▁whe": 1413,
      "▁grand": 1414,
      "▁inter": 1415,
      "ye": 1416,
      "▁mistake": 1417,
      "▁turning": 1418,
      "▁wit": 1419,
      "▁desk": 1420,
      "▁regard": 1421,
      "ression": 1422,
      "▁hous": 1423,
      "mitted": 1424,
      "ade": 1425,
      "8": 1426,
      "eet": 1427,
      "▁francisco": 1428,
      "oles": 1429,
      "▁z": 1430,
      "▁reviews": 1431,
      "▁stories": 1432,
      "▁opinion": 1433,
      "over": 1434,
      "▁users": 1435,
      "▁dirt": 1436,
      "ych": 1437,
      "▁together": 1438,
      "ement": 1439,
      "velop": 1440,
      "lling": 1441,
      "let": 1442,
      "▁elections": 1443,
      "▁piv": 1444,
      "uss": 1445,
      "▁fall": 1446,
      "▁glasses": 1447,
      "▁upd": 1448,
      "ines": 1449,
      "▁t": 1450,
      "▁project": 1451,
      "▁family": 1452,
      "▁seeing": 1453,
      "▁blan": 1454,
      "▁health": 1455,
      "▁went": 1456,
      "▁convers": 1457,
      "apers": 1458,
      "▁serves": 1459,
      "▁soldiers": 1460,
      "▁movies": 1461,
      "▁option": 1462,
      "▁\"": 1463,
      "2": 1464,
      "”": 1465,
      "mes": 1466,
      "▁computer": 1467,
      "ulations": 1468,
      "ke": 1469,
      "▁program": 1470,
      "▁kn": 1471,
      "▁see": 1472,
      "▁millions": 1473,
      "way": 1474,
      "▁cer": 1475,
      "▁develop": 1476,
      "▁look": 1477,
      "▁form": 1478,
      "otw": 1479,
      "oo": 1480,
      "▁never": 1481,
      "▁funds": 1482,
      "▁situation": 1483,
      "▁only": 1484,
      "fe": 1485,
      "jects": 1486,
      "ks": 1487,
      "▁cla": 1488,
      "ises": 1489,
      "ached": 1490,
      "vail": 1491,
      "acking": 1492,
      "▁payment": 1493,
      "▁inte": 1494,
      "▁bank": 1495,
      "▁itself": 1496,
      "▁beside": 1497,
      "▁consequ": 1498,
      "ill": 1499,
      "▁democracy": 1500,
      "▁cream": 1501,
      "▁inc": 1502,
      "▁civ": 1503,
      "____": 1504,
      "▁swee": 1505,
      "▁secret": 1506,
      "ant": 1507,
      "▁to": 1508,
      "▁juice": 1509,
      "ration": 1510,
      "▁che": 1511,
      "▁pin": 1512,
      "▁cake": 1513,
      "▁tic": 1514,
      "▁heat": 1515,
      "▁real": 1516,
      "▁considered": 1517,
      "---": 1518,
      "orth": 1519,
      "uting": 1520,
      "▁save": 1521,
      "▁governments": 1522,
      "▁trad": 1523,
      "ateg": 1524,
      "▁days": 1525,
      "umb": 1526,
      "▁except": 1527,
      "▁play": 1528,
      "▁vet": 1529,
      "▁contr": 1530,
      "▁as": 1531,
      "▁end": 1532,
      "▁year": 1533,
      "▁duck": 1534,
      "▁effect": 1535,
      "▁cheese": 1536,
      "etition": 1537,
      "▁independence": 1538,
      "▁jelly": 1539,
      "▁actions": 1540,
      "&": 1541,
      "▁thy": 1542,
      "▁percentage": 1543,
      "▁conflic": 1544,
      "▁amongst": 1545,
      "▁hop": 1546,
      "bur": 1547,
      "▁met": 1548,
      "▁butt": 1549,
      "▁pros": 1550,
      "▁york": 1551,
      "▁sus": 1552,
      "▁estimated": 1553,
      "tim": 1554,
      "ef": 1555,
      "­": 1556,
      "▁daughter": 1557,
      "erve": 1558,
      "ema": 1559,
      "▁august": 1560,
      "io": 1561,
      "▁em": 1562,
      "▁photograph": 1563,
      "▁trees": 1564,
      "rup": 1565,
      "eg": 1566,
      "▁can": 1567,
      "▁crow": 1568,
      "able": 1569,
      "es": 1570,
      "▁weap": 1571,
      "▁section": 1572,
      "ap": 1573,
      "oup": 1574,
      "▁means": 1575,
      "▁arg": 1576,
      "▁pip": 1577,
      "▁fight": 1578,
      "▁explained": 1579,
      "▁doing": 1580,
      "▁discuss": 1581,
      "▁may": 1582,
      "▁determ": 1583,
      "aded": 1584,
      "elt": 1585,
      "▁train": 1586,
      "▁ones": 1587,
      "▁named": 1588,
      "▁pie": 1589,
      "ild": 1590,
      "▁sn": 1591,
      "▁treat": 1592,
      "all": 1593,
      "▁language": 1594,
      "▁go": 1595,
      "▁despite": 1596,
      "▁thank": 1597,
      "▁tape": 1598,
      "▁stated": 1599,
      "▁boxes": 1600,
      "ith": 1601,
      "▁'d": 1602,
      "??": 1603,
      "▁-----------------------------------------------------------------": 1604,
      "▁died": 1605,
      "▁ri": 1606,
      "?": 1607,
      "ix": 1608,
      "▁---": 1609,
      "▁hide": 1610,
      "▁rel": 1611,
      "▁ben": 1612,
      "▁oil": 1613,
      "▁off": 1614,
      "▁iodine": 1615,
      "cer": 1616,
      "▁b/": 1617,
      "▁hors": 1618,
      "▁morn": 1619,
      "▁teach": 1620,
      "▁mother": 1621,
      "▁19": 1622,
      "▁appear": 1623,
      "ress": 1624,
      "▁atlanta": 1625,
      "▁count": 1626,
      "owl": 1627,
      "ony": 1628,
      "ong": 1629,
      "itation": 1630,
      "▁achieve": 1631,
      "[": 1632,
      "▁traff": 1633,
      "▁ship": 1634,
      "memb": 1635,
      "▁rights": 1636,
      "▁**": 1637,
      "▁wal": 1638,
      "ester": 1639,
      "▁estab": 1640,
      "▁educ": 1641,
      "▁sun": 1642,
      "<": 1643,
      "▁employ": 1644,
      "▁ate": 1645,
      "as": 1646,
      "…": 1647,
      "ugg": 1648,
      "▁high": 1649,
      "ject": 1650,
      "▁s’": 1651,
      "og": 1652,
      "▁provided": 1653,
      "▁spir": 1654,
      "itt": 1655,
      "▁called": 1656,
      "▁asking": 1657,
      "▁sil": 1658,
      "▁fig": 1659,
      "▁bl": 1660,
      "▁terms": 1661,
      "▁efforts": 1662,
      "▁egg": 1663,
      "0s": 1664,
      "▁town": 1665,
      "urday": 1666,
      "▁mind": 1667,
      "▁cases": 1668,
      "▁pupp": 1669,
      "▁via": 1670,
      "▁paint": 1671,
      "ipped": 1672,
      "get": 1673,
      "▁toward": 1674,
      "▁helps": 1675,
      "▁though": 1676,
      "▁yesterday": 1677,
      "▁murder": 1678,
      "like": 1679,
      "▁tri": 1680,
      "inks": 1681,
      "rous": 1682,
      "ash": 1683,
      "▁elected": 1684,
      "red": 1685,
      "▁till": 1686,
      "hen": 1687,
      "▁south": 1688,
      "yed": 1689,
      "▁'s": 1690,
      "▁oakland": 1691,
      "stem": 1692,
      "▁sme": 1693,
      "▁ce": 1694,
      "▁people": 1695,
      "wn": 1696,
      "▁confir": 1697,
      "ticip": 1698,
      "▁hospital": 1699,
      "▁cere": 1700,
      "▁title": 1701,
      "▁birth": 1702,
      "▁pat": 1703,
      "▁games": 1704,
      "▁respon": 1705,
      "▁happened": 1706,
      "▁series": 1707,
      "▁sell": 1708,
      "▁speaking": 1709,
      "ever": 1710,
      "▁intended": 1711,
      "▁spider": 1712,
      "▁tummy": 1713,
      "oney": 1714,
      "▁spe": 1715,
      "▁places": 1716,
      "▁projects": 1717,
      "▁blood": 1718,
      "tice": 1719,
      "inc": 1720,
      "▁freedom": 1721,
      "▁ourselves": 1722,
      "▁pet": 1723,
      "▁exch": 1724,
      "ency": 1725,
      "▁dollars": 1726,
      "unt": 1727,
      "▁y": 1728,
      "▁fail": 1729,
      "▁station": 1730,
      "▁dese": 1731,
      "▁concer": 1732,
      "▁pub": 1733,
      "▁cheap": 1734,
      "ourn": 1735,
      "▁aside": 1736,
      "ged": 1737,
      "ar": 1738,
      "▁force": 1739,
      "▁near": 1740,
      "▁wa": 1741,
      "▁mr": 1742,
      "ab": 1743,
      "▁minutes": 1744,
      "▁sugar": 1745,
      "▁makes": 1746,
      "!!!!!!!!": 1747,
      "▁summer": 1748,
      "▁pour": 1749,
      "▁forth": 1750,
      "▁behind": 1751,
      "▁something": 1752,
      "▁ris": 1753,
      "l": 1754,
      "chie": 1755,
      "▁flight": 1756,
      "aste": 1757,
      "▁amb": 1758,
      "▁eff": 1759,
      "▁groups": 1760,
      "▁categ": 1761,
      "▁stage": 1762,
      "▁buildings": 1763,
      ".m": 1764,
      "▁bomb": 1765,
      "▁whether": 1766,
      "▁???": 1767,
      "▁cartoon": 1768,
      "▁certain": 1769,
      "▁belie": 1770,
      "▁inv": 1771,
      "uck": 1772,
      "▁eat": 1773,
      "▁ask": 1774,
      "▁information": 1775,
      "▁hang": 1776,
      "▁meal": 1777,
      "ork": 1778,
      "▁und": 1779,
      "▁ordered": 1780,
      "▁damage": 1781,
      "plan": 1782,
      "kin": 1783,
      "▁spent": 1784,
      "ot": 1785,
      "ider": 1786,
      "▁report": 1787,
      "▁aud": 1788,
      "▁blow": 1789,
      "▁above": 1790,
      "ah": 1791,
      "▁characters": 1792,
      "ag": 1793,
      "ery": 1794,
      "▁bag": 1795,
      "kets": 1796,
      "▁bab": 1797,
      "▁sit": 1798,
      "▁schedule": 1799,
      "▁present": 1800,
      "▁room": 1801,
      "ared": 1802,
      "▁occur": 1803,
      "▁competition": 1804,
      "▁lead": 1805,
      "▁management": 1806,
      "yst": 1807,
      "▁bulld": 1808,
      "▁heads": 1809,
      "▁opportun": 1810,
      "▁at": 1811,
      "▁thought": 1812,
      "▁worked": 1813,
      "uments": 1814,
      "▁ticket": 1815,
      "ics": 1816,
      "▁signed": 1817,
      "▁pr": 1818,
      "▁mod": 1819,
      "▁rabb": 1820,
      "▁most": 1821,
      "▁filled": 1822,
      "ther": 1823,
      "izing": 1824,
      "▁create": 1825,
      "▁regarding": 1826,
      "ful": 1827,
      "-": 1828,
      "imore": 1829,
      "ital": 1830,
      "▁init": 1831,
      "par": 1832,
      "ep": 1833,
      "▁without": 1834,
      "▁str": 1835,
      "▁regards": 1836,
      "ood": 1837,
      "▁pain": 1838,
      "▁grandm": 1839,
      "▁reference": 1840,
      "▁imag": 1841,
      "▁police": 1842,
      "▁prep": 1843,
      "ket": 1844,
      "▁feeling": 1845,
      "▁girl": 1846,
      "▁published": 1847,
      "▁sle": 1848,
      "+": 1849,
      "iness": 1850,
      "yone": 1851,
      "▁(": 1852,
      "▁buil": 1853,
      "▁monday": 1854,
      "▁open": 1855,
      "▁reduc": 1856,
      "▁prot": 1857,
      "▁half": 1858,
      "▁inj": 1859,
      "▁control": 1860,
      "inus": 1861,
      "lish": 1862,
      "▁few": 1863,
      "lications": 1864,
      "▁ach": 1865,
      "▁database": 1866,
      "iture": 1867,
      "gation": 1868,
      "aur": 1869,
      "▁lived": 1870,
      "onom": 1871,
      "▁spring": 1872,
      "▁oper": 1873,
      "▁anybody": 1874,
      "op": 1875,
      "▁b/c": 1876,
      "▁horse": 1877,
      "▁gu": 1878,
      "▁presence": 1879,
      "▁v": 1880,
      "▁mean": 1881,
      "????????????????": 1882,
      "▁fri": 1883,
      "▁|": 1884,
      "▁hope": 1885,
      "*": 1886,
      "inu": 1887,
      "▁stri": 1888,
      "lection": 1889,
      "▁delive": 1890,
      "▁solution": 1891,
      "▁prom": 1892,
      "·": 1893,
      "ners": 1894,
      "▁po": 1895,
      "▁-----": 1896,
      "▁items": 1897,
      "▁cr": 1898,
      "▁forms": 1899,
      "▁counterpar": 1900,
      "▁gri": 1901,
      "▁attend": 1902,
      "acket": 1903,
      "▁hotel": 1904,
      "ale": 1905,
      "▁dall": 1906,
      "▁shower": 1907,
      "uch": 1908,
      "▁going": 1909,
      "▁********": 1910,
      "▁plus": 1911,
      "▁many": 1912,
      "▁pic": 1913,
      "▁link": 1914,
      "▁grow": 1915,
      "–": 1916,
      "▁surround": 1917,
      "aper": 1918,
      "▁rooms": 1919,
      "uty": 1920,
      "▁refl": 1921,
      "cri": 1922,
      "▁dragon": 1923,
      "▁*****": 1924,
      "fer": 1925,
      "▁differences": 1926,
      "▁versus": 1927,
      "▁the": 1928,
      "▁lim": 1929,
      "▁that": 1930,
      "▁numerous": 1931,
      "ν": 1932,
      "eared": 1933,
      "ina": 1934,
      "▁num": 1935,
      "▁result": 1936,
      "▁cab": 1937,
      "▁strength": 1938,
      "▁fit": 1939,
      "▁resul": 1940,
      "▁someth": 1941,
      "▁dad": 1942,
      "olution": 1943,
      "▁girls": 1944,
      "▁began": 1945,
      "▁experien": 1946,
      "▁==----": 1947,
      "ait": 1948,
      "ain": 1949,
      "▁cons": 1950,
      "▁movie": 1951,
      "▁gl": 1952,
      "▁fac": 1953,
      "▁lack": 1954,
      "▁amidst": 1955,
      "re": 1956,
      "▁som": 1957,
      "▁joined": 1958,
      "▁doggie": 1959,
      "▁hands": 1960,
      "▁flights": 1961,
      "ognition": 1962,
      "aves": 1963,
      "ra": 1964,
      "▁chees": 1965,
      "▁commun": 1966,
      "face": 1967,
      "▁steps": 1968,
      "▁cell": 1969,
      "▁–": 1970,
      "▁put": 1971,
      "iqu": 1972,
      "alities": 1973,
      "osite": 1974,
      "▁quinoa": 1975,
      "²": 1976,
      "▁commit": 1977,
      "▁problems": 1978,
      "▁proposal": 1979,
      "▁companies": 1980,
      "▁would": 1981,
      "▁page": 1982,
      "▁laura": 1983,
      "▁speech": 1984,
      "am": 1985,
      "ocol": 1986,
      "oy": 1987,
      "ambment": 1988,
      "▁living": 1989,
      "lly": 1990,
      "▁deb": 1991,
      "ould": 1992,
      "▁college": 1993,
      "▁middle": 1994,
      "(": 1995,
      "▁experi": 1996,
      "osed": 1997,
      "▁coast": 1998,
      "▁getting": 1999,
      "ri": 2000,
      "▁thoughts": 2001,
      "▁party": 2002,
      "**********************************": 2003,
      "lu": 2004,
      "otes": 2005,
      "▁dou": 2006,
      "▁behin": 2007,
      "ific": 2008,
      "▁fir": 2009,
      "▁place": 2010,
      "▁held": 2011,
      "▁enj": 2012,
      "▁‘": 2013,
      "▁pressure": 2014,
      "▁allowed": 2015,
      "▁jwww": 2016,
      "▁fix": 2017,
      "▁requirements": 2018,
      "▁recog": 2019,
      "▁prop": 2020,
      "igh": 2021,
      "ades": 2022,
      "ended": 2023,
      "▁non": 2024,
      "▁quality": 2025,
      "▁site": 2026,
      "▁orders": 2027,
      "hes": 2028,
      "▁cir": 2029,
      "▁attem": 2030,
      "▁roo": 2031,
      "▁and": 2032,
      "▁per": 2033,
      "---------------": 2034,
      "q": 2035,
      "▁thanks": 2036,
      "ction": 2037,
      "▁evening": 2038,
      "▁dow": 2039,
      "elf": 2040,
      "ious": 2041,
      "▁stand": 2042,
      "▁prices": 2043,
      "▁record": 2044,
      "▁gun": 2045,
      "▁customer": 2046,
      "▁agreed": 2047,
      "▁supposed": 2048,
      "▁airlines": 2049,
      "!!!!": 2050,
      "p;": 2051,
      "▁finger": 2052,
      "▁leaving": 2053,
      "▁univers": 2054,
      "▁’ve": 2055,
      "selve": 2056,
      "▁there": 2057,
      "▁including": 2058,
      "▁work": 2059,
      "ct": 2060,
      "ul": 2061,
      "▁pittsburgh": 2062,
      "▁san": 2063,
      "lies": 2064,
      "▁honey": 2065,
      "dle": 2066,
      "œ": 2067,
      "▁unlike": 2068,
      "▁u": 2069,
      "▁`s": 2070,
      "▁call": 2071,
      "▁somebody": 2072,
      "▁development": 2073,
      "▁dev": 2074,
      "▁by": 2075,
      "uted": 2076,
      "ves": 2077,
      "ete": 2078,
      "▁pittsbur": 2079,
      "els": 2080,
      "ility": 2081,
      "▁society": 2082,
      "ome": 2083,
      "▁parts": 2084,
      "▁second": 2085,
      "▁describ": 2086,
      "eas": 2087,
      "▁custom": 2088,
      "iated": 2089,
      "▁until": 2090,
      "▁&am": 2091,
      "ibility": 2092,
      "▁telephone": 2093,
      "▁achie": 2094,
      "▁sea": 2095,
      "▁conditions": 2096,
      "uff": 2097,
      "▁word": 2098,
      "▁way": 2099,
      "▁ind": 2100,
      "ded": 2101,
      "▁consum": 2102,
      "bers": 2103,
      "[UNK]": 2104,
      "war": 2105,
      "@": 2106,
      "▁followed": 2107,
      "ing": 2108,
      "▁.?": 2109,
      "▁++++": 2110,
      "▁peace": 2111,
      "▁learn": 2112,
      "mentation": 2113,
      "▁over": 2114,
      "▁exhib": 2115,
      "▁tail": 2116,
      "▁direc": 2117,
      "▁wed": 2118,
      "▁upon": 2119,
      "omp": 2120,
      "▁sure": 2121,
      "▁sug": 2122,
      "oring": 2123,
      "▁future": 2124,
      "▁button": 2125,
      "ave": 2126,
      "ept": 2127,
      "tives": 2128,
      "uter": 2129,
      "▁lives": 2130,
      "ʁ": 2131,
      "▁changed": 2132,
      "▁drop": 2133,
      "▁sounds": 2134,
      "tw": 2135,
      "▁event": 2136,
      "▁puppy": 2137,
      "▁princ": 2138,
      "▁gon": 2139,
      "▁s": 2140,
      "he": 2141,
      "ased": 2142,
      "▁dogs": 2143,
      "plus": 2144,
      "▁avoid": 2145,
      "▁defense": 2146,
      "▁resp": 2147,
      "▁bath": 2148,
      "▁sat": 2149,
      "im": 2150,
      "▁students": 2151,
      "▁facts": 2152,
      "ibilities": 2153,
      "▁included": 2154,
      "ir": 2155,
      "used": 2156,
      "ric": 2157,
      "▁bre": 2158,
      "eep": 2159,
      "▁question": 2160,
      "▁wait": 2161,
      "utions": 2162,
      "▁aut": 2163,
      "int": 2164,
      "ope": 2165,
      "▁percent": 2166,
      "▁watching": 2167,
      "ount": 2168,
      "▁kind": 2169,
      "ł": 2170,
      "ɔ": 2171,
      "ering": 2172,
      "vailable": 2173,
      "▁ahead": 2174,
      "▁e-m": 2175,
      "▁cigar": 2176,
      "▁d": 2177,
      "▁running": 2178,
      "▁bought": 2179,
      "eel": 2180,
      "oods": 2181,
      "▁underst": 2182,
      "▁basil": 2183,
      "▁forwar": 2184,
      "ino": 2185,
      "using": 2186,
      "ro": 2187,
      "tion": 2188,
      "uc": 2189,
      "ated": 2190,
      "▁reality": 2191,
      "▁technologies": 2192,
      "▁cig": 2193,
      "▁ride": 2194,
      "/": 2195,
      "ected": 2196,
      "▁shirt": 2197,
      "▁population": 2198,
      "▁check": 2199,
      "▁ep": 2200,
      "▁madam": 2201,
      "anger": 2202,
      "▁traffic": 2203,
      "usion": 2204,
      "▁became": 2205,
      "▁feed": 2206,
      "▁scienti": 2207,
      "▁cris": 2208,
      "▁ham": 2209,
      "ow": 2210,
      "▁weekend": 2211,
      "idents": 2212,
      "▁follows": 2213,
      "▁culture": 2214,
      "▁prov": 2215,
      "▁airlin": 2216,
      "**": 2217,
      "▁….": 2218,
      "▁others": 2219,
      "wa": 2220,
      "▁manag": 2221,
      "▁really": 2222,
      "▁ke": 2223,
      "huh": 2224,
      "▁planning": 2225,
      "▁always": 2226,
      "alk": 2227,
      "hin": 2228,
      "▁critic": 2229,
      "▁thou": 2230,
      "sed": 2231,
      "▁notic": 2232,
      "▁bottle": 2233,
      "▁levels": 2234,
      "▁ser": 2235,
      "▁ing": 2236,
      "▁suggest": 2237,
      "▁range": 2238,
      "▁pm": 2239,
      "▁saw": 2240,
      "▁assist": 2241,
      "ican": 2242,
      "▁ov": 2243,
      "▁ideas": 2244,
      "▁pushed": 2245,
      "▁connection": 2246,
      "▁guess": 2247,
      "▁mi": 2248,
      "▁banan": 2249,
      "▁labor": 2250,
      "ited": 2251,
      "▁chance": 2252,
      "▁minut": 2253,
      "▁throu": 2254,
      "▁areas": 2255,
      "▁rates": 2256,
      "▁secon": 2257,
      "ning": 2258,
      "▁chair": 2259,
      "▁instance": 2260,
      "▁reg": 2261,
      "▁bit": 2262,
      "other": 2263,
      "▁buy": 2264,
      "▁meth": 2265,
      "▁risk": 2266,
      "▁decided": 2267,
      "▁fork": 2268,
      "▁pers": 2269,
      "▁company": 2270,
      "▁years": 2271,
      "▁might": 2272,
      "▁different": 2273,
      "▁": 2274,
      "▁beneath": 2275,
      "▁belon": 2276,
      "▁corner": 2277,
      "▁....": 2278,
      "▁deal": 2279,
      "ɛ": 2280,
      "▁thinking": 2281,
      "▁mix": 2282,
      "▁be": 2283,
      "▁---------------------------------------------------------------------------": 2284,
      "▁dark": 2285,
      "za": 2286,
      "▁box": 2287,
      "▁park": 2288,
      "nly": 2289,
      "▁tree": 2290,
      "▁connec": 2291,
      "▁night": 2292,
      "▁bedroom": 2293,
      "erv": 2294,
      "ests": 2295,
      "▁ques": 2296,
      "itions": 2297,
      "▁noise": 2298,
      "alf": 2299,
      "acter": 2300,
      "▁about": 2301,
      "▁market": 2302,
      "overed": 2303,
      "ake": 2304,
      "▁includes": 2305,
      "▁owners": 2306,
      "▁agree": 2307,
      "light": 2308,
      "fl": 2309,
      "ʻ": 2310,
      "igned": 2311,
      "enc": 2312,
      "▁th": 2313,
      "▁notw": 2314,
      "▁baltimore": 2315,
      "▁conference": 2316,
      "ure": 2317,
      "▁looking": 2318,
      "▁season": 2319,
      "ert": 2320,
      "▁ent": 2321,
      "▁dre": 2322,
      "an": 2323,
      "ures": 2324,
      "▁mil": 2325,
      "▁history": 2326,
      "mber": 2327,
      "act": 2328,
      "▁game": 2329,
      "▁rece": 2330,
      "▁failed": 2331,
      "▁repe": 2332,
      "▁term": 2333,
      "▁starting": 2334,
      "▁iod": 2335,
      "▁!!!!!": 2336,
      "order": 2337,
      "eric": 2338,
      "ism": 2339,
      "pts": 2340,
      "▁accident": 2341,
      "▁displ": 2342,
      "▁phone": 2343,
      "jec": 2344,
      "▁issu": 2345,
      "▁sandwich": 2346,
      "▁op": 2347,
      "▁wednesday": 2348,
      "overn": 2349,
      "ension": 2350,
      "▁think": 2351,
      "▁na": 2352,
      "ort": 2353,
      "▁rec": 2354,
      "▁conc": 2355,
      "▁it's": 2356,
      "▁sol": 2357,
      "▁sm": 2358,
      "ase": 2359,
      "▁been": 2360,
      "▁...................": 2361,
      "▁type": 2362,
      "▁words": 2363,
      "ened": 2364,
      "▁king": 2365,
      "▁electric": 2366,
      "▁.........": 2367,
      "derst": 2368,
      "▁drug": 2369,
      "▁school": 2370,
      "▁restaurant": 2371,
      "its": 2372,
      "iety": 2373,
      "▁chocolate": 2374,
      "▁maintain": 2375,
      "▁location": 2376,
      "▁good": 2377,
      "▁enc": 2378,
      "yond": 2379,
      "▁turned": 2380,
      "gle": 2381,
      "ρ": 2382,
      "▁bite": 2383,
      "thin": 2384,
      "▁fun": 2385,
      "▁stood": 2386,
      "▁production": 2387,
      "▁coord": 2388,
      "oder": 2389,
      "cent": 2390,
      "▁thir": 2391,
      "iver": 2392,
      "▁bill": 2393,
      "▁help": 2394,
      "▁purpose": 2395,
      "de": 2396,
      "▁wine": 2397,
      "phere": 2398,
      "cr": 2399,
      "▁holiday": 2400,
      "▁sent": 2401,
      "▁join": 2402,
      "aster": 2403,
      "▁cos": 2404,
      "▁<<": 2405,
      "▁every": 2406,
      "o": 2407,
      "▁idea": 2408,
      "▁education": 2409,
      "▁table": 2410,
      "▁....................": 2411,
      "▁milk": 2412,
      ",": 2413,
      "ought": 2414,
      "▁using": 2415,
      "▁inf": 2416,
      "▁industry": 2417,
      "▁administ": 2418,
      "▁disaster": 2419,
      "ω": 2420,
      "erent": 2421,
      "▁scen": 2422,
      "▁seen": 2423,
      "▁muse": 2424,
      "▁implementation": 2425,
      "ploy": 2426,
      "ward": 2427,
      "▁--": 2428,
      "▁plants": 2429,
      "anges": 2430,
      "▁piece": 2431,
      "liday": 2432,
      "her": 2433,
      "ost": 2434,
      "▁streets": 2435,
      "▁trouble": 2436,
      "ties": 2437,
      "asing": 2438,
      "▁************************************************": 2439,
      "▁power": 2440,
      "▁hel": 2441,
      "ports": 2442,
      "ght": 2443,
      "▁note": 2444,
      "▁fear": 2445,
      "▁ext": 2446,
      "imed": 2447,
      "▁being": 2448,
      "cally": 2449,
      "▁needs": 2450,
      "▁vacation": 2451,
      "▁tool": 2452,
      "▁amid": 2453,
      "med": 2454,
      "▁bod": 2455,
      "▁.......": 2456,
      "▁bun": 2457,
      "▁atmosphere": 2458,
      "▁child": 2459,
      "▁kids": 2460,
      "▁**********": 2461,
      "me": 2462,
      "▁rem": 2463,
      "▁give": 2464,
      "▁minute": 2465,
      "▁citiz": 2466,
      "▁marriage": 2467,
      "▁discussion": 2468,
      "tile": 2469,
      ">": 2470,
      "▁roll": 2471,
      "▁saying": 2472,
      "▁forgot": 2473,
      "▁-": 2474,
      "eth": 2475,
      "▁they": 2476,
      "φ": 2477,
      "▁tas": 2478,
      "aking": 2479,
      "▁den": 2480,
      "aughter": 2481,
      "▁rule": 2482,
      "▁dust": 2483,
      "▁owner": 2484,
      "▁face": 2485,
      "▁opposite": 2486,
      "rested": 2487,
      "rop": 2488,
      "▁eyes": 2489,
      "▁rad": 2490,
      "▁reven": 2491,
      "ove": 2492,
      "±": 2493,
      "▁account": 2494,
      "▁!!!!!!!!!!!": 2495,
      "▁mer": 2496,
      "amed": 2497,
      "▁works": 2498,
      "▁remembered": 2499,
      "▁stic": 2500,
      "▁ple": 2501,
      "▁”": 2502,
      "▁context": 2503,
      "▁sugges": 2504,
      "cro": 2505,
      "▁participants": 2506,
      "▁bud": 2507,
      "▁suit": 2508,
      "oul": 2509,
      "ching": 2510,
      "▁minus": 2511,
      "temp": 2512,
      "▁known": 2513,
      "▁lic": 2514,
      "▁deli": 2515,
      "▁apple": 2516,
      "▁boat": 2517,
      "ather": 2518,
      "▁pan": 2519,
      "ally": 2520,
      "▁anth": 2521,
      "▁giving": 2522,
      "ority": 2523,
      "ual": 2524,
      "▁att": 2525,
      "▁beach": 2526,
      "▁der": 2527,
      "urn": 2528,
      "▁cru": 2529,
      "▁united": 2530,
      "▁sports": 2531,
      "omm": 2532,
      "▁types": 2533,
      "▁!.": 2534,
      "▁leading": 2535,
      "▁appearance": 2536,
      "▁gold": 2537,
      "ighb": 2538,
      "uals": 2539,
      "▁heard": 2540,
      "▁bird": 2541,
      "ging": 2542,
      "ose": 2543,
      "▁!!": 2544,
      "▁changing": 2545,
      "sh": 2546,
      "▁jo": 2547,
      "▁weight": 2548,
      "▁fi": 2549,
      "yet": 2550,
      "mate": 2551,
      "▁infl": 2552,
      "[SEP]": 2553,
      "▁hour": 2554,
      "▁address": 2555,
      "▁fore": 2556,
      "▁closed": 2557,
      "roduction": 2558,
      "▁finished": 2559,
      "▁your": 2560,
      "▁missed": 2561,
      "ections": 2562,
      "▁caught": 2563,
      "▁com": 2564,
      "▁ye": 2565,
      "▁floor": 2566,
      "amp": 2567,
      "ens": 2568,
      "▁rout": 2569,
      "▁anal": 2570,
      "[CLS]": 2571,
      "ions": 2572,
      "▁doctor": 2573,
      "oved": 2574,
      "▁!!!": 2575,
      "▁books": 2576,
      "▁airplan": 2577,
      "▁super": 2578,
      "ses": 2579,
      "avi": 2580,
      "’": 2581,
      "sel": 2582,
      "▁tr": 2583,
      "▁wash": 2584,
      "▁suc": 2585,
      "▁same": 2586,
      "▁mis": 2587,
      "ars": 2588,
      "▁letter": 2589,
      "ut": 2590,
      "▁trust": 2591,
      "lation": 2592,
      "▁leg": 2593,
      "▁smal": 2594,
      "▁----==": 2595,
      "el": 2596,
      "portun": 2597,
      "▁led": 2598,
      "▁ord": 2599,
      "tic": 2600,
      "▁datab": 2601,
      "▁continue": 2602,
      "orts": 2603,
      "▁paper": 2604,
      "ability": 2605,
      "▁mat": 2606,
      "▁answ": 2607,
      "c": 2608,
      "▁seek": 2609,
      "▁success": 2610,
      "▁reading": 2611,
      "▁exec": 2612,
      "▁·": 2613,
      "▁myself": 2614,
      "▁mu": 2615,
      "▁@": 2616,
      "▁?!": 2617,
      "aft": 2618,
      "▁bet": 2619,
      "▁en": 2620,
      "▁acc": 2621,
      "▁placed": 2622,
      "ss": 2623,
      "+----------------": 2624,
      "▁writ": 2625,
      "▁jokes": 2626,
      "▁thurs": 2627,
      "ither": 2628,
      "▁fligh": 2629,
      "▁amount": 2630,
      "ember": 2631,
      "▁ice": 2632,
      "▁sandwic": 2633,
      "▁resour": 2634,
      "tiv": 2635,
      "▁loss": 2636,
      "▁intern": 2637,
      "▁house": 2638,
      "▁arrive": 2639,
      "tually": 2640,
      "▁sw": 2641,
      "▁restaur": 2642,
      "▁thousands": 2643,
      "▁cost": 2644,
      "▁mo": 2645,
      "si": 2646,
      "▁hal": 2647,
      "▁dol": 2648,
      "▁dro": 2649,
      "▁lay": 2650,
      "▁min": 2651,
      "▁cur": 2652,
      "'clock": 2653,
      "▁systems": 2654,
      "▁road": 2655,
      "asts": 2656,
      "ame": 2657,
      "▁___________": 2658,
      "▁airports": 2659,
      "▁self": 2660,
      "▁rent": 2661,
      "▁ob": 2662,
      "▁attention": 2663,
      "▁prac": 2664,
      "▁drive": 2665,
      "▁returned": 2666,
      "▁beat": 2667,
      "▁demonstr": 2668,
      "▁spr": 2669,
      "▁import": 2670,
      "▁technology": 2671,
      "▁player": 2672,
      "▁opp": 2673,
      "ently": 2674,
      "▁laun": 2675,
      "side": 2676,
      "▁organization": 2677,
      "▁trip": 2678,
      "▁teh": 2679,
      "▁intelligence": 2680,
      "ects": 2681,
      "▁ki": 2682,
      "▁es": 2683,
      "▁fem": 2684,
      "oice": 2685,
      "▁kitchen": 2686,
      "▁sch": 2687,
      "akes": 2688,
      "▁security": 2689,
      "urned": 2690,
      "▁stud": 2691,
      "▁..": 2692,
      "▁'ll": 2693,
      "ck": 2694,
      "▁stop": 2695,
      "oh": 2696,
      "qui": 2697,
      "▁across": 2698,
      "▁pillow": 2699,
      "▁edit": 2700,
      "eti": 2701,
      "ud": 2702,
      "amb": 2703,
      "▁new": 2704,
      "1": 2705,
      "▁apartment": 2706,
      "owers": 2707,
      "▁focus": 2708,
      "owed": 2709,
      "▁making": 2710,
      "▁<": 2711,
      "▁jobs": 2712,
      "▁tiger": 2713,
      "crib": 2714,
      "ative": 2715,
      "▁counter": 2716,
      "▁onto": 2717,
      "▁ec": 2718,
      "oss": 2719,
      "▁skin": 2720,
      "▁truth": 2721,
      "ternoon": 2722,
      "ator": 2723,
      "▁goal": 2724,
      "▁repres": 2725,
      "▁…": 2726,
      "ister": 2727,
      "▁theory": 2728,
      "▁opened": 2729,
      "▁conf": 2730,
      "py": 2731,
      "ali": 2732,
      "fic": 2733,
      "▁downtown": 2734,
      "agon": 2735,
      "▁earth": 2736,
      "▁rock": 2737,
      "▁fin": 2738,
      "▁job": 2739,
      "ner": 2740,
      "vest": 2741,
      "ced": 2742,
      "▁degre": 2743,
      "▁ne": 2744,
      "▁cle": 2745,
      "▁boy": 2746,
      "▁used": 2747,
      "▁license": 2748,
      "▁mama": 2749,
      "ank": 2750,
      "ds": 2751,
      "▁port": 2752,
      "ool": 2753,
      "▁measures": 2754,
      "▁:?": 2755,
      "▁um": 2756,
      "em": 2757,
      "aining": 2758,
      "▁sector": 2759,
      "▁stock": 2760,
      "▁counterparty": 2761,
      "▁atop": 2762,
      "ressed": 2763,
      "aged": 2764,
      "▁parliament": 2765,
      "▁costs": 2766,
      "▁light": 2767,
      "tors": 2768,
      "▁movement": 2769,
      "pl": 2770,
      "▁need": 2771,
      "▁char": 2772,
      "▁science": 2773,
      "ze": 2774,
      "ided": 2775,
      "!?": 2776,
      "▁man": 2777,
      "▁any": 2778,
      "▁cam": 2779,
      "▁travel": 2780,
      "▁clothes": 2781,
      "gency": 2782,
      "▁boom": 2783,
      "▁released": 2784,
      "▁services": 2785,
      "▁dey": 2786,
      "▁whom": 2787,
      "▁created": 2788,
      "▁wi": 2789,
      "▁w/": 2790,
      "uses": 2791,
      "▁calling": 2792,
      "▁set": 2793,
      "▁reason": 2794,
      "▁directive": 2795,
      "▁remain": 2796,
      "▁arms": 2797,
      "▁m": 2798,
      "▁course": 2799,
      "▁lar": 2800,
      "▁throughout": 2801,
      "▁name": 2802,
      "▁apar": 2803,
      "alth": 2804,
      "ecting": 2805,
      "aring": 2806,
      "▁st": 2807,
      "k": 2808,
      "▁her": 2809,
      "▁run": 2810,
      "is": 2811,
      ".doc": 2812,
      "6": 2813,
      "▁interest": 2814,
      "▁request": 2815,
      "▁content": 2816,
      "iding": 2817,
      "▁un": 2818,
      "▁we": 2819,
      "▁***": 2820,
      "▁challen": 2821,
      "▁...": 2822,
      "▁band": 2823,
      "▁document": 2824,
      "▁killed": 2825,
      "▁fo": 2826,
      "▁progr": 2827,
      "ributed": 2828,
      "▁fixed": 2829,
      "earch": 2830,
      "▁foods": 2831,
      ".": 2832,
      "▁components": 2833,
      "atis": 2834,
      "▁********************************": 2835,
      "▁auth": 2836,
      "▁growing": 2837,
      "▁camera": 2838,
      "▁church": 2839,
      "▁quino": 2840,
      "▁’re": 2841,
      "tain": 2842,
      "▁purch": 2843,
      "hold": 2844,
      "ump": 2845,
      "▁aboard": 2846,
      "▁hus": 2847,
      "▁putting": 2848,
      "▁life": 2849,
      "▁come": 2850,
      "▁article": 2851,
      "▁within": 2852,
      "▁our": 2853,
      "▁----------------------------------------------------------------------": 2854,
      "ights": 2855,
      "▁press": 2856,
      "▁lines": 2857,
      "▁pictures": 2858,
      "oll": 2859,
      "▁have": 2860,
      "▁exc": 2861,
      "▁hold": 2862,
      "▁finish": 2863,
      "▁sister": 2864,
      "ample": 2865,
      "ren": 2866,
      "▁choice": 2867,
      "▁mov": 2868,
      "ote": 2869,
      "▁sense": 2870,
      "▁aff": 2871,
      "▁options": 2872,
      "▁week": 2873,
      "▁member": 2874,
      "▁birds": 2875,
      "ogn": 2876,
      "▁receive": 2877,
      "▁provides": 2878,
      "????????": 2879,
      "▁gener": 2880,
      "▁shown": 2881,
      "uk": 2882,
      "book": 2883,
      "▁rice": 2884,
      "▁how": 2885,
      "/he": 2886,
      "▁condition": 2887,
      "▁answer": 2888,
      "▁internet": 2889,
      "▁with": 2890,
      "▁bel": 2891,
      "ac": 2892,
      "▁offer": 2893,
      "▁furniture": 2894,
      "▁staff": 2895,
      "▁abo": 2896,
      "▁sty": 2897,
      "▁plays": 2898,
      "ised": 2899,
      "▁newsp": 2900,
      "▁hole": 2901,
      "▁belong": 2902,
      "▁wife": 2903,
      "!!": 2904,
      "▁contain": 2905,
      "▁el": 2906,
      "ely": 2907,
      "‘": 2908,
      "la": 2909,
      "▁cycle": 2910,
      "al": 2911,
      "▁pull": 2912,
      "tered": 2913,
      "▁pu": 2914,
      "▁independ": 2915,
      "▁wanted": 2916,
      "▁obs": 2917,
      "▁activity": 2918,
      "▁+": 2919,
      "kes": 2920,
      "mos": 2921,
      "▁speak": 2922,
      "ture": 2923,
      "▁je": 2924,
      "▁conte": 2925,
      "ven": 2926,
      "▁ought": 2927,
      "▁cock": 2928,
      "▁who": 2929,
      "▁playing": 2930,
      "▁nume": 2931,
      "old": 2932,
      "aces": 2933,
      "▁moment": 2934,
      "▁garage": 2935,
      "▁break": 2936,
      "▁res": 2937,
      "ains": 2938,
      "ire": 2939,
      "▁poll": 2940,
      "▁sha": 2941,
      "aign": 2942,
      "▁filter": 2943,
      "▁jump": 2944,
      "eration": 2945,
      "▁`": 2946,
      "▁cre": 2947,
      "▁inn": 2948,
      "ur": 2949,
      "ledge": 2950,
      "▁institutions": 2951,
      "▁cal": 2952,
      "▁pants": 2953,
      "ancing": 2954,
      "=----": 2955,
      "▁whale": 2956,
      "omet": 2957,
      "▁det": 2958,
      "▁ears": 2959,
      "▁order": 2960,
      "hip": 2961,
      "ried": 2962,
      "▁matter": 2963,
      "▁''": 2964,
      "▁dress": 2965,
      "▁who's": 2966,
      "▁!!!!!!!!!!!!!!!": 2967,
      "j": 2968,
      "▁so": 2969,
      "----------------": 2970,
      "▁bowl": 2971,
      "▁reasons": 2972,
      "ords": 2973,
      "▁post": 2974,
      "▁find": 2975,
      "▁cat": 2976,
      "clock": 2977,
      "▁guar": 2978,
      "▁decisions": 2979,
      "ods": 2980,
      "▁bulldozer": 2981,
      "▁sunday": 2982,
      "▁discussed": 2983,
      "ic": 2984,
      "▁talking": 2985,
      "ium": 2986,
      "▁cap": 2987,
      "½": 2988,
      "▁head": 2989,
      "ught": 2990,
      "▁try": 2991,
      "▁care": 2992,
      "ading": 2993,
      "iation": 2994,
      "▁developing": 2995,
      "▁reserv": 2996,
      "▁proper": 2997,
      "▁des": 2998,
      "▁siz": 2999,
      "▁settlement": 3000,
      "▁time": 3001,
      "ule": 3002,
      "br": 3003,
      "▁impro": 3004,
      "_": 3005,
      "ize": 3006,
      "▁mode": 3007,
      "bo": 3008,
      "▁eye": 3009,
      "▁surp": 3010,
      "zation": 3011,
      "▁occ": 3012,
      "ny": 3013,
      "▁cats": 3014,
      "▁brought": 3015,
      "▁statement": 3016,
      "ession": 3017,
      "▁terror": 3018,
      "▁fax": 3019,
      "ulture": 3020,
      "row": 3021,
      "zz": 3022,
      "▁babies": 3023,
      "▁laur": 3024,
      "▁attack": 3025,
      "iff": 3026,
      "▁ou": 3027,
      "ble": 3028,
      "work": 3029,
      "▁sleep": 3030,
      "cles": 3031,
      "▁part": 3032,
      "il": 3033,
      "cha": 3034,
      "▁haf": 3035,
      "urch": 3036,
      "▁center": 3037,
      "▁claim": 3038,
      "▁betw": 3039,
      "▁group": 3040,
      "▁----": 3041,
      "▁brother": 3042,
      "▁charl": 3043,
      "vement": 3044,
      "▁lie": 3045,
      "▁anthrax": 3046,
      "--------": 3047,
      "ases": 3048,
      "ø": 3049,
      "▁ability": 3050,
      "▁incre": 3051,
      "▁adop": 3052,
      "▁themselves": 3053,
      "▁ran": 3054,
      "`s": 3055,
      "▁yet": 3056,
      "▁front": 3057,
      "▁fares": 3058,
      "▁poet": 3059,
      "▁mosqu": 3060,
      "▁writer": 3061,
      "▁tur": 3062,
      "▁his": 3063,
      "▁window": 3064,
      "ak": 3065,
      "od": 3066,
      "▁comes": 3067,
      "▁why": 3068,
      "▁pop": 3069,
      "ories": 3070,
      "▁bos": 3071,
      "oph": 3072,
      "▁hat": 3073,
      "▁chec": 3074,
      "ills": 3075,
      "wic": 3076,
      "▁one": 3077,
      "▁compon": 3078,
      "ate": 3079,
      "hic": 3080,
      "++++": 3081,
      "▁opin": 3082,
      "▁mummy": 3083,
      "ms": 3084,
      "▁mar": 3085,
      "▁item": 3086,
      "ary": 3087,
      "actions": 3088,
      "▁row": 3089,
      "▁issue": 3090,
      "▁training": 3091,
      "ocracy": 3092,
      "▁arrived": 3093,
      "▁furn": 3094,
      "▁cent": 3095,
      "tures": 3096,
      "▁carried": 3097,
      "▁imm": 3098,
      "ients": 3099,
      "▁tou": 3100,
      "▁veget": 3101,
      "ations": 3102,
      "ands": 3103,
      "ered": 3104,
      "▁gre": 3105,
      "▁tu": 3106,
      "▁review": 3107,
      "▁ad": 3108,
      "▁search": 3109,
      "day": 3110,
      "ə": 3111,
      "▁were": 3112,
      "▁pal": 3113,
      "▁notwithstanding": 3114,
      "▁point": 3115,
      "▁por": 3116,
      "--": 3117,
      "▁door": 3118,
      "unch": 3119,
      "▁kitty": 3120,
      "▁milit": 3121,
      "tit": 3122,
      "derstanding": 3123,
      "ottable": 3124,
      "cl": 3125,
      "▁l": 3126,
      "▁relationship": 3127,
      "▁astride": 3128,
      "▁gender": 3129,
      "▁news": 3130,
      "ite": 3131,
      "▁ended": 3132,
      "d": 3133,
      "place": 3134,
      "▁july": 3135,
      "▁children": 3136,
      "▁sub": 3137,
      "****************": 3138,
      "▁goods": 3139,
      "olve": 3140,
      "▁mine": 3141,
      "▁aft": 3142,
      "ha": 3143,
      "olved": 3144,
      "▁sort": 3145,
      "ating": 3146,
      "▁guys": 3147,
      "mar": 3148,
      "▁nt": 3149,
      "▁ow": 3150,
      "▁eating": 3151,
      "▁written": 3152,
      "▁done": 3153,
      "▁herself": 3154,
      "▁proced": 3155,
      "▁meat": 3156,
      ")": 3157,
      "ality": 3158,
      "▁cros": 3159,
      "ol": 3160,
      "▁meet": 3161,
      "▁exposure": 3162,
      "▁waiting": 3163,
      "▁clothing": 3164,
      "▁visited": 3165,
      "▁writers": 3166,
      "▁mir": 3167,
      "▁prof": 3168,
      "▁pred": 3169,
      "▁atmos": 3170,
      "▁americ": 3171,
      "spite": 3172,
      "▁film": 3173,
      "▁hist": 3174,
      "min": 3175,
      "ces": 3176,
      "sure": 3177,
      "ology": 3178,
      "▁instead": 3179,
      "▁plenty": 3180,
      "▁system": 3181,
      "▁'re": 3182,
      "▁rate": 3183,
      "line": 3184,
      "▁mili": 3185,
      "▁peop": 3186,
      "board": 3187,
      "▁horses": 3188,
      "▁stopped": 3189,
      "^": 3190,
      "▁ai": 3191,
      "▁understanding": 3192,
      "ug": 3193,
      "rew": 3194,
      "▁artic": 3195,
      "▁nap": 3196,
      "▁din": 3197,
      "ament": 3198,
      "▁design": 3199,
      "▁tal": 3200,
      "\"": 3201,
      "▁woman": 3202,
      "yth": 3203,
      "▁une": 3204,
      "▁candid": 3205,
      "ements": 3206,
      "▁daddy": 3207,
      "▁appl": 3208,
      "▁thous": 3209,
      "▁circum": 3210,
      "▁classes": 3211,
      "▁surface": 3212,
      "▁schools": 3213,
      "▁hor": 3214,
      "▁cor": 3215,
      "ones": 3216,
      "▁scale": 3217,
      "▁tried": 3218,
      "▁bri": 3219,
      "▁plans": 3220,
      "▁mail": 3221,
      "..": 3222,
      "▁scr": 3223,
      "▁s/he": 3224,
      "▁st.": 3225,
      "ether": 3226,
      "▁law": 3227,
      "▁fill": 3228,
      "reds": 3229,
      "av": 3230,
      "ity": 3231,
      "acts": 3232,
      "▁views": 3233,
      "▁arri": 3234,
      "▁trans": 3235,
      "pped": 3236,
      "ulate": 3237,
      "ad": 3238,
      "▁die": 3239,
      "▁))": 3240,
      "▁land": 3241,
      "ι": 3242,
      "action": 3243,
      "liament": 3244,
      "▁!": 3245,
      "ger": 3246,
      "▁typ": 3247,
      "▁stay": 3248,
      "▁maybe": 3249,
      "▁trou": 3250,
      "▁material": 3251,
      "▁depar": 3252,
      "erate": 3253,
      "▁expos": 3254,
      "▁nice": 3255,
      "▁weapons": 3256,
      "so": 3257,
      "▁two": 3258,
      "▁tie": 3259,
      "▁requi": 3260,
      "inds": 3261,
      "▁given": 3262,
      "ved": 3263,
      "▁poss": 3264,
      "▁author": 3265,
      "oted": 3266,
      "▁increased": 3267,
      "▁either": 3268,
      "den": 3269,
      "▁pocket": 3270,
      "▁c": 3271,
      "▁cause": 3272,
      "olving": 3273,
      "▁ours": 3274,
      "▁g": 3275,
      "▁master": 3276,
      "ctions": 3277,
      "▁&amp;": 3278,
      "▁respond": 3279,
      "▁star": 3280,
      "`": 3281,
      "▁vehic": 3282,
      "▁baby": 3283,
      "▁sign": 3284,
      "▁added": 3285,
      "asure": 3286,
      "▁tonight": 3287,
      "▁food": 3288,
      "read": 3289,
      "▁fly": 3290,
      "▁mag": 3291,
      "▁chee": 3292,
      "▁phot": 3293,
      "ati": 3294,
      "▁introduc": 3295,
      "æ": 3296,
      "▁require": 3297,
      "tering": 3298,
      "▁soldi": 3299,
      "______": 3300,
      "▁ign": 3301,
      "▁breakf": 3302,
      "▁oak": 3303,
      "▁ear": 3304,
      "▁based": 3305,
      "▁acqui": 3306,
      "▁hand": 3307,
      "▁yo": 3308,
      "▁bub": 3309,
      "berry": 3310,
      "ons": 3311,
      "▁mentioned": 3312,
      "▁jud": 3313,
      "▁list": 3314,
      "▁numbers": 3315,
      "▁hall": 3316,
      "▁cow": 3317,
      "tai": 3318,
      "“": 3319,
      "ities": 3320,
      "▁study": 3321,
      "▁sec": 3322,
      "▁propos": 3323,
      "▁repair": 3324,
      "ointment": 3325,
      "right": 3326,
      "▁comb": 3327,
      "ife": 3328,
      "▁clean": 3329,
      "rows": 3330,
      "pr": 3331,
      "▁mathematics": 3332,
      "▁coming": 3333,
      "town": 3334,
      "▁himself": 3335,
      "▁price": 3336,
      "▁tank": 3337,
      "lig": 3338,
      "tery": 3339,
      "▁asked": 3340,
      "▁career": 3341,
      "ghting": 3342,
      "▁conflict": 3343,
      "▁bring": 3344,
      "▁learning": 3345,
      "▁loan": 3346,
      "rated": 3347,
      "aps": 3348,
      "▁treatment": 3349,
      "▁philadelphia": 3350,
      "ience": 3351,
      "ink": 3352,
      "▁fund": 3353,
      "▁developed": 3354,
      "▁cover": 3355,
      "▁maint": 3356,
      "▁gard": 3357,
      "▁weather": 3358,
      "▁include": 3359,
      "tity": 3360,
      "▁dose": 3361,
      "▁another": 3362,
      "it": 3363,
      "▁arm": 3364,
      "pers": 3365,
      "ying": 3366,
      "ness": 3367,
      "ex": 3368,
      "▁phil": 3369,
      "▁comm": 3370,
      "▁dinner": 3371,
      "▁research": 3372,
      "▁toys": 3373,
      "▁colle": 3374,
      "▁truck": 3375,
      "▁meas": 3376,
      "▁region": 3377,
      "ulated": 3378,
      "▁besides": 3379,
      "▁conn": 3380,
      "▁meaning": 3381,
      "▁after": 3382,
      "on": 3383,
      "chen": 3384,
      "▁body": 3385,
      "▁less": 3386,
      "▁comment": 3387,
      "▁appointment": 3388,
      "▁everyone": 3389,
      "ς": 3390,
      "▁represent": 3391,
      "▁copy": 3392,
      "con": 3393,
      "▁observed": 3394,
      "▁choose": 3395,
      "▁around": 3396,
      "▁e-mail": 3397,
      "▁more": 3398,
      "▁got": 3399,
      "▁line": 3400,
      "▁medic": 3401,
      "ily": 3402,
      "low": 3403,
      "▁trave": 3404,
      "▁bottom": 3405,
      "°": 3406,
      "▁nothing": 3407,
      "ets": 3408,
      "▁obt": 3409,
      "▁rememb": 3410,
      "ict": 3411,
      "ard": 3412,
      "▁>>": 3413,
      "▁fil": 3414,
      "▁noticed": 3415,
      "▁kill": 3416,
      "▁sum": 3417,
      "▁husband": 3418,
      "▁re": 3419,
      "▁along": 3420,
      "▁carrying": 3421,
      "te": 3422,
      "▁mater": 3423,
      "ott": 3424,
      "▁imagine": 3425,
      "▁pro": 3426,
      "▁buttons": 3427,
      "▁pages": 3428,
      "edom": 3429,
      "▁scre": 3430,
      "selves": 3431,
      "ch": 3432,
      "▁field": 3433,
      "▁balloon": 3434,
      "▁cities": 3435,
      "▁mot": 3436,
      "▁sugg": 3437,
      "▁covered": 3438,
      "▁langu": 3439,
      "▁bar": 3440,
      "uth": 3441,
      "▁communication": 3442,
      "▁products": 3443,
      "▁exp": 3444,
      "▁events": 3445,
      "▁wheel": 3446,
      "neath": 3447,
      "ologies": 3448,
      "and": 3449,
      "▁transportation": 3450,
      "ving": 3451,
      "inn": 3452,
      "▁where": 3453,
      "▁holding": 3454,
      "▁conclu": 3455,
      "▁lea": 3456,
      "▁~": 3457,
      "uation": 3458,
      "▁apply": 3459,
      "▁ll": 3460,
      "▁bot": 3461,
      "mp": 3462,
      "▁cl": 3463,
      "▁becom": 3464,
      "isl": 3465,
      "▁swim": 3466,
      "▁trav": 3467,
      "ligence": 3468,
      "▁la": 3469,
      "▁make": 3470,
      "ything": 3471,
      "▁1": 3472,
      "▁ton": 3473,
      "▁catch": 3474,
      "▁take": 3475,
      "iv": 3476,
      "ats": 3477,
      "▁territ": 3478,
      "le": 3479,
      "▁par": 3480,
      "▁r": 3481,
      "▁wol": 3482,
      "▁importance": 3483,
      "▁wat": 3484,
      "▁of": 3485,
      "outs": 3486,
      "▁cop": 3487,
      "▁los": 3488,
      "▁department": 3489,
      "▁sti": 3490,
      "ty": 3491,
      "▁advice": 3492,
      "----------": 3493,
      "rec": 3494,
      "▁loved": 3495,
      "▁dwww": 3496,
      "▁consid": 3497,
      "▁those": 3498,
      "ish": 3499,
      "▁mouth": 3500,
      "▁appro": 3501,
      "▁adv": 3502,
      "▁mon": 3503,
      "rel": 3504,
      "oned": 3505,
      "alu": 3506,
      "▁today": 3507,
      "h": 3508,
      "▁bir": 3509,
      "▁ra": 3510,
      "epend": 3511,
      "▁charge": 3512,
      "▁get": 3513,
      "▁chan": 3514,
      "ber": 3515,
      "▁lose": 3516,
      "5": 3517,
      "▁policy": 3518,
      "▁pl": 3519,
      "▁euro": 3520,
      "▁id": 3521,
      "▁assistance": 3522,
      "ergy": 3523,
      "▁attemp": 3524,
      "β": 3525,
      "ulation": 3526,
      "▁much": 3527,
      "▁conv": 3528,
      "▁next": 3529,
      "dy": 3530,
      "▁swww": 3531,
      "▁yourself": 3532,
      "▁conduc": 3533,
      "▁influence": 3534,
      "ine": 3535,
      "▁user": 3536,
      "ob": 3537,
      "▁him": 3538,
      "jwww": 3539,
      "▁base": 3540,
      "▁ap": 3541,
      "▁capac": 3542,
      "▁send": 3543,
      "▁stat": 3544,
      "aced": 3545,
      "▁states": 3546,
      "▁settle": 3547,
      "▁!!!!!!!": 3548,
      "led": 3549,
      "▁change": 3550,
      "▁indust": 3551,
      "'t": 3552,
      "▁dinosaur": 3553,
      "▁government": 3554,
      "ack": 3555,
      "▁rat": 3556,
      "▁mech": 3557,
      "for": 3558,
      "▁wild": 3559,
      "▁keep": 3560,
      "▁afternoon": 3561,
      "▁---------------------------------------------------------------------": 3562,
      "▁motor": 3563,
      "▁from": 3564,
      "▁challenges": 3565,
      "▁standards": 3566,
      "▁legisl": 3567,
      "▁??": 3568,
      "▁cand": 3569,
      "▁du": 3570,
      "▁believe": 3571,
      "▁these": 3572,
      "king": 3573,
      "augh": 3574,
      "▁approach": 3575,
      "fare": 3576,
      "roduc": 3577,
      "ato": 3578,
      "▁int": 3579,
      "▁beg": 3580,
      "ee": 3581,
      "iti": 3582,
      "▁intel": 3583,
      "▁n't": 3584,
      "▁members": 3585,
      "▁gr": 3586,
      "▁counc": 3587,
      "aint": 3588,
      "▁lo": 3589,
      "▁car": 3590,
      "gu": 3591,
      "▁nation": 3592,
      "body": 3593,
      "▁fire": 3594,
      "▁citi": 3595,
      "▁island": 3596,
      "duc": 3597,
      "▁business": 3598,
      "▁recommend": 3599,
      "ition": 3600,
      "iting": 3601,
      "▁ref": 3602,
      "ution": 3603,
      "ington": 3604,
      "▁store": 3605,
      "ified": 3606,
      "bb": 3607,
      "▁shows": 3608,
      "▁picture": 3609,
      "ride": 3610,
      "u": 3611,
      "▁vs": 3612,
      "▁iss": 3613,
      "▁yourselves": 3614,
      "nd": 3615,
      "!": 3616,
      "▁questions": 3617,
      "▁balt": 3618,
      "▁bat": 3619,
      "or": 3620,
      "▁behavi": 3621,
      "room": 3622,
      "▁hit": 3623,
      "s": 3624,
      "▁attached": 3625,
      "▁exam": 3626,
      "ned": 3627,
      "▁such": 3628,
      "ting": 3629,
      "▁di": 3630,
      "▁seem": 3631,
      "oin": 3632,
      "▁poc": 3633,
      "ta": 3634,
      "▁thing": 3635,
      "▁decide": 3636,
      "▁size": 3637,
      "lication": 3638,
      "ip": 3639,
      "▁coun": 3640,
      "▁maj": 3641,
      "▁wedding": 3642,
      "iving": 3643,
      "ues": 3644,
      "▁cour": 3645,
      "fir": 3646,
      "▁watched": 3647,
      "lights": 3648,
      "▁feels": 3649,
      "▁inclu": 3650,
      "▁boo": 3651,
      "▁rep": 3652,
      "rou": 3653,
      "ian": 3654,
      "▁bi": 3655,
      "▁’d": 3656,
      "▁walked": 3657,
      "▁tent": 3658,
      "▁wou": 3659,
      "ired": 3660,
      "▁surv": 3661,
      "▁already": 3662,
      "▁rocks": 3663,
      "per": 3664,
      "▁war": 3665,
      "ees": 3666,
      "▁basis": 3667,
      "ed": 3668,
      "▁sel": 3669,
      "▁inst": 3670,
      "ply": 3671,
      "▁feet": 3672,
      "ook": 3673,
      "val": 3674,
      "▁arr": 3675,
      "olog": 3676,
      "υ": 3677,
      "▁/": 3678,
      "▁beginning": 3679,
      "▁hund": 3680,
      "bably": 3681,
      "ath": 3682,
      "▁month": 3683,
      "▁best": 3684,
      "▁’s": 3685,
      "▁team": 3686,
      "▁—": 3687,
      "▁improve": 3688,
      "▁hav": 3689,
      "▁speed": 3690,
      "▁shorts": 3691,
      "▁conversation": 3692,
      "▁est": 3693,
      "th": 3694,
      "▁even": 3695,
      "ges": 3696,
      "ivers": 3697,
      "ening": 3698,
      "elly": 3699,
      "▁flowers": 3700,
      "bon": 3701,
      "▁grandmother": 3702,
      "▁but": 3703,
      "▁dat": 3704,
      "▁anything": 3705,
      "▁ve": 3706,
      "▁because": 3707,
      "alists": 3708,
      "▁interview": 3709,
      "▁yours": 3710,
      "▁toy": 3711,
      "ig": 3712,
      "▁territory": 3713,
      "iod": 3714,
      "om": 3715,
      "▁plan": 3716,
      "▁curr": 3717,
      "▁world": 3718,
      "▁home": 3719,
      "▁sal": 3720,
      "▁pep": 3721,
      "▁x": 3722,
      "▁pre": 3723,
      "▁an": 3724,
      "▁protect": 3725,
      "▁ver": 3726,
      "str": 3727,
      "▁bike": 3728,
      "▁visa": 3729,
      "▁alt": 3730,
      "ound": 3731,
      "▁side": 3732,
      "▁their": 3733,
      "▁apart": 3734,
      "▁enjoy": 3735,
      "▁seems": 3736,
      "▁pulled": 3737,
      "▁temperature": 3738,
      "'": 3739,
      "▁insp": 3740,
      "lic": 3741,
      "▁took": 3742,
      "▁anoth": 3743,
      "ounds": 3744,
      "▁dance": 3745,
      "▁neighbor": 3746,
      "cross": 3747,
      "▁lady": 3748,
      "▁spoon": 3749,
      "atch": 3750,
      "arly": 3751,
      "▁sl": 3752,
      "▁caused": 3753,
      "__": 3754,
      "▁vide": 3755,
      "vers": 3756,
      "▁teeth": 3757,
      "▁co": 3758,
      "▁restric": 3759,
      "▁......": 3760,
      "▁diff": 3761,
      "...": 3762,
      "▁o'clock": 3763,
      "▁during": 3764,
      "▁trade": 3765,
      "▁chang": 3766,
      "ling": 3767,
      "▁choo": 3768,
      "ent": 3769,
      "▁dest": 3770,
      "▁hum": 3771,
      "▁arch": 3772,
      "▁particip": 3773,
      "▁ch": 3774,
      "▁tell": 3775,
      "airs": 3776,
      "duction": 3777,
      "▁pres": 3778,
      "ograph": 3779,
      ".c": 3780,
      "▁felt": 3781,
      "▁gives": 3782,
      "▁threw": 3783,
      "ple": 3784,
      "iew": 3785,
      "ides": 3786,
      "z": 3787,
      "▁disp": 3788,
      "both": 3789,
      "▁vs.": 3790,
      "mer": 3791,
      "▁then": 3792,
      "ashington": 3793,
      "ices": 3794,
      "▁model": 3795,
      "▁d'": 3796,
      "ids": 3797,
      "▁miss": 3798,
      "▁animals": 3799,
      "▁sp": 3800,
      "▁dec": 3801,
      "ici": 3802,
      "ident": 3803,
      "▁’": 3804,
      "man": 3805,
      "▁destro": 3806,
      "▁however": 3807,
      "ry": 3808,
      "ithst": 3809,
      "id": 3810,
      "ission": 3811,
      "▁cust": 3812,
      "▁death": 3813,
      "▁weeks": 3814,
      "▁tv": 3815,
      "▁structure": 3816,
      "os": 3817,
      "▁pizza": 3818,
      "▁grab": 3819,
      "▁chap": 3820,
      "▁“": 3821,
      "▁uhhuh": 3822,
      "ʃ": 3823,
      "▁encour": 3824,
      "▁legos": 3825,
      "▁task": 3826,
      "▁fam": 3827,
      "▁colleag": 3828,
      "ication": 3829,
      "▁enab": 3830,
      "▁ju": 3831,
      "▁qu": 3832,
      "▁conce": 3833,
      "▁bas": 3834,
      "▁camer": 3835,
      "ai": 3836,
      "▁kept": 3837,
      "▁lights": 3838,
      "mit": 3839,
      "▁money": 3840,
      "▁are": 3841,
      "▁wonder": 3842,
      "▁among": 3843,
      "hether": 3844,
      "▁gen": 3845,
      "▁rele": 3846,
      "▁magic": 3847,
      "▁hers": 3848,
      "ummy": 3849,
      "▁right": 3850,
      "tivity": 3851,
      "ion": 3852,
      "▁forces": 3853,
      "ce": 3854,
      "eness": 3855,
      "my": 3856,
      "▁assu": 3857,
      "▁big": 3858,
      "▁machine": 3859,
      "head": 3860,
      "zer": 3861,
      "▁accep": 3862,
      "----": 3863,
      "--------------------------------": 3864,
      "▁on": 3865,
      "▁glass": 3866,
      "▁estim": 3867,
      "i": 3868,
      "lan": 3869,
      "use": 3870,
      "▁follow": 3871,
      "ived": 3872,
      "▁rev": 3873,
      "ithstanding": 3874,
      "▁book": 3875,
      "erence": 3876,
      "▁o": 3877,
      "ters": 3878,
      "▁schol": 3879,
      "▁november": 3880,
      "ower": 3881,
      "▁insur": 3882,
      "|": 3883,
      "ret": 3884,
      "ice": 3885,
      "ord": 3886,
      "▁attacks": 3887,
      "self": 3888,
      "uding": 3889,
      "▁al": 3890,
      "▁lots": 3891,
      "▁decades": 3892,
      "▁nor": 3893,
      "▁legislation": 3894,
      "ts": 3895,
      "▁belief": 3896,
      "▁species": 3897,
      "▁notice": 3898,
      "ury": 3899,
      "▁made": 3900,
      "▁budget": 3901,
      "elines": 3902,
      "▁stuff": 3903,
      "▁things": 3904,
      "▁moon": 3905,
      "▁tax": 3906,
      "▁ti": 3907,
      "▁between": 3908,
      "▁thru": 3909,
      "▁capacity": 3910,
      "men": 3911,
      "arity": 3912,
      "▁sy": 3913,
      "▁knoc": 3914,
      "▁.....": 3915,
      "▁alread": 3916,
      "▁families": 3917,
      "rib": 3918,
      "▁ur": 3919,
      "▁liked": 3920,
      "uled": 3921,
      "▁consider": 3922,
      "▁music": 3923,
      ".d": 3924,
      "vision": 3925,
      "ute": 3926,
      "▁admin": 3927,
      "▁con": 3928,
      "▁coup": 3929,
      "▁indic": 3930,
      "▁thursday": 3931,
      "▁said": 3932,
      "▁employment": 3933,
      "▁arrang": 3934,
      "▁cond": 3935,
      "▁do": 3936,
      "▁experience": 3937,
      "lief": 3938,
      "▁cove": 3939,
      "▁application": 3940,
      "ff": 3941,
      "derstand": 3942,
      "▁sales": 3943,
      "▁cheapest": 3944,
      "▁ab": 3945,
      "▁proposed": 3946,
      "ocr": 3947,
      "▁underneath": 3948,
      "ages": 3949,
      "oke": 3950,
      "▁teacher": 3951,
      "gre": 3952,
      "▁dist": 3953,
      "▁water": 3954,
      "ounced": 3955,
      "▁-----------------": 3956,
      "▁aspects": 3957,
      "▁'": 3958,
      "ring": 3959,
      "▁cook": 3960,
      "tie": 3961,
      "▁received": 3962,
      "▁in": 3963,
      "▁atlan": 3964,
      "▁noone": 3965,
      "▁jun": 3966,
      "▁likes": 3967,
      "▁proble": 3968,
      "ums": 3969,
      "▁gone": 3970,
      "▁emp": 3971,
      "▁,?": 3972,
      "▁voice": 3973,
      "oor": 3974,
      "▁away": 3975,
      "ll": 3976,
      "▁sli": 3977,
      "▁root": 3978,
      "tive": 3979,
      "▁helped": 3980,
      "isation": 3981,
      "μ": 3982,
      "▁gi": 3983,
      "▁ca": 3984,
      "▁which": 3985,
      "ense": 3986,
      "ized": 3987,
      "▁vote": 3988,
      "onstr": 3989,
      "▁according": 3990,
      "formation": 3991,
      "ows": 3992,
      "▁code": 3993,
      "▁cage": 3994,
      "▁perform": 3995,
      "▁b": 3996,
      "nesday": 3997,
      "▁vac": 3998,
      "▁administration": 3999,
      "ette": 4000,
      "ming": 4001,
      "friend": 4002,
      "▁princip": 4003,
      "▁oneself": 4004,
      "▁add": 4005,
      "▁live": 4006,
      "ft": 4007,
      "▁asp": 4008,
      "▁denver": 4009,
      "▁var": 4010,
      "▁council": 4011,
      "▁quite": 4012,
      "▁establish": 4013,
      "▁bugs": 4014,
      "sul": 4015,
      "▁fare": 4016,
      "resent": 4017,
      "ails": 4018,
      "▁!!!!": 4019,
      "’s": 4020,
      "▁bu": 4021,
      "ints": 4022,
      "▁reach": 4023,
      "▁no": 4024,
      "▁washington": 4025,
      "▁offices": 4026,
      "▁ed": 4027,
      "▁image": 4028,
      "ance": 4029,
      "▁hundreds": 4030,
      "aging": 4031,
      "▁mouse": 4032,
      "▁cooperation": 4033,
      "▁parking": 4034,
      "▁pe": 4035,
      "▁pati": 4036,
      "▁generation": 4037,
      "▁econom": 4038,
      "utation": 4039,
      "▁ide": 4040,
      "▁born": 4041,
      "▁hos": 4042,
      "▁relations": 4043,
      "▁li": 4044,
      "▁bur": 4045,
      "▁markets": 4046,
      "▁rest": 4047,
      "ented": 4048,
      "▁offic": 4049,
      "▁wee": 4050,
      "ile": 4051,
      "▁'ve": 4052,
      "▁eggs": 4053,
      "▁points": 4054,
      "▁web": 4055,
      "esting": 4056,
      "rote": 4057,
      "fri": 4058,
      "—": 4059,
      "▁friday": 4060,
      "▁meeting": 4061,
      "▁foot": 4062,
      "lity": 4063,
      "▁it": 4064,
      "iled": 4065,
      "pite": 4066,
      "inate": 4067,
      "▁someone": 4068,
      "▁bec": 4069,
      "▁insurance": 4070,
      "▁values": 4071,
      "cc": 4072,
      "mb": 4073,
      "▁camp": 4074,
      "º": 4075,
      "www": 4076,
      "▁se": 4077,
      "▁pill": 4078,
      "▁er": 4079,
      "▁environment": 4080,
      "▁imp": 4081,
      "▁]": 4082,
      "▁micro": 4083,
      "qu": 4084,
      "ames": 4085,
      "▁drink": 4086,
      "▁2": 4087,
      "▁want": 4088,
      "▁br": 4089,
      "▁!!!!!!!!!!!!!": 4090,
      "▁came": 4091,
      "▁seat": 4092,
      "▁tar": 4093,
      "▁partners": 4094,
      "gr": 4095
    },
    "merges": [
      [
        "▁econom",
        "y"
      ],
      [
        "▁ind",
        "ust"
      ],
      [
        "b",
        "oy"
      ],
      [
        "▁tre",
        "es"
      ],
      [
        "i",
        "al"
      ],
      [
        "▁f",
        "ax"
      ],
      [
        "▁cri",
        "tic"
      ],
      [
        "for",
        "m"
      ],
      [
        "▁beg",
        "in"
      ],
      [
        "▁to",
        "y"
      ],
      [
        "▁a",
        "f"
      ],
      [
        "c",
        "tion"
      ],
      [
        "▁intel",
        "ligence"
      ],
      [
        "ar",
        "ly"
      ],
      [
        "▁gard",
        "en"
      ],
      [
        "▁un",
        "til"
      ],
      [
        "▁ch",
        "ange"
      ],
      [
        "r",
        "ax"
      ],
      [
        "▁jo",
        "bs"
      ],
      [
        "▁",
        "est"
      ],
      [
        "▁gr",
        "ound"
      ],
      [
        "▁plan",
        "e"
      ],
      [
        "i",
        "ff"
      ],
      [
        "▁fut",
        "ure"
      ],
      [
        "i",
        "ated"
      ],
      [
        "▁son",
        "g"
      ],
      [
        "am",
        "b"
      ],
      [
        "i",
        "ce"
      ],
      [
        "▁b",
        "os"
      ],
      [
        "▁no",
        "thing"
      ],
      [
        "▁child",
        "ren"
      ],
      [
        "▁p",
        "ar"
      ],
      [
        "▁d",
        "ose"
      ],
      [
        "u",
        "l"
      ],
      [
        "▁fi",
        "el"
      ],
      [
        "▁mad",
        "am"
      ],
      [
        "▁b",
        "/"
      ],
      [
        "▁f",
        "ing"
      ],
      [
        "ir",
        "e"
      ],
      [
        "▁appear",
        "ed"
      ],
      [
        "▁l",
        "itt"
      ],
      [
        "▁c",
        "ock"
      ],
      [
        "▁ap",
        "art"
      ],
      [
        "▁set",
        "tle"
      ],
      [
        "▁broke",
        "n"
      ],
      [
        "r",
        "ing"
      ],
      [
        "▁s",
        "uch"
      ],
      [
        "▁particip",
        "ants"
      ],
      [
        "on",
        "str"
      ],
      [
        "▁airplan",
        "e"
      ],
      [
        "▁cent",
        "er"
      ],
      [
        "▁e",
        "p"
      ],
      [
        "p",
        ";"
      ],
      [
        "▁stud",
        "y"
      ],
      [
        "▁[",
        "..."
      ],
      [
        "▁notic",
        "e"
      ],
      [
        "▁cont",
        "act"
      ],
      [
        "▁i",
        "r"
      ],
      [
        "o",
        "int"
      ],
      [
        "▁---------------------------------------------------------------------",
        "-"
      ],
      [
        "▁rec",
        "ip"
      ],
      [
        "t",
        "er"
      ],
      [
        "▁p",
        "enc"
      ],
      [
        "an",
        "ces"
      ],
      [
        "▁fl",
        "ying"
      ],
      [
        "▁call",
        "ing"
      ],
      [
        "▁vis",
        "it"
      ],
      [
        "▁d",
        "en"
      ],
      [
        "▁repres",
        "ent"
      ],
      [
        "▁the",
        "ir"
      ],
      [
        "▁ap",
        "artment"
      ],
      [
        "▁sp",
        "ec"
      ],
      [
        "ec",
        "tion"
      ],
      [
        "▁rep",
        "lication"
      ],
      [
        "▁.",
        "!"
      ],
      [
        "o",
        "ned"
      ],
      [
        "▁sec",
        "t"
      ],
      [
        "▁it",
        "'s"
      ],
      [
        "▁ri",
        "ght"
      ],
      [
        "▁j",
        "uly"
      ],
      [
        "▁maj",
        "ority"
      ],
      [
        "▁h",
        "om"
      ],
      [
        "▁com",
        "es"
      ],
      [
        "ort",
        "ed"
      ],
      [
        "tion",
        "s"
      ],
      [
        "▁mar",
        "ried"
      ],
      [
        "▁as",
        "ide"
      ],
      [
        "on",
        "t"
      ],
      [
        "▁l",
        "ess"
      ],
      [
        "▁w",
        "eb"
      ],
      [
        "?",
        "?"
      ],
      [
        "▁bel",
        "on"
      ],
      [
        "▁at",
        "op"
      ],
      [
        "▁som",
        "eth"
      ],
      [
        "▁di",
        "v"
      ],
      [
        "▁b",
        "ook"
      ],
      [
        "▁re",
        "ve"
      ],
      [
        "i",
        "t"
      ],
      [
        "▁or",
        "gan"
      ],
      [
        "▁proce",
        "d"
      ],
      [
        "▁c",
        "ol"
      ],
      [
        "▁n",
        "e"
      ],
      [
        "ph",
        "ere"
      ],
      [
        "af",
        "t"
      ],
      [
        "▁sour",
        "ces"
      ],
      [
        "us",
        "s"
      ],
      [
        "▁st",
        "."
      ],
      [
        "it",
        "s"
      ],
      [
        "▁s",
        "ave"
      ],
      [
        "▁h",
        "all"
      ],
      [
        "or",
        "m"
      ],
      [
        "▁ne",
        "ws"
      ],
      [
        "▁ne",
        "ighb"
      ],
      [
        "▁kit",
        "chen"
      ],
      [
        "▁",
        "!"
      ],
      [
        "▁direc",
        "tive"
      ],
      [
        "l",
        "e"
      ],
      [
        "igh",
        "b"
      ],
      [
        "▁wom",
        "en"
      ],
      [
        "o",
        "st"
      ],
      [
        "▁be",
        "en"
      ],
      [
        "▁m",
        "ov"
      ],
      [
        "▁rec",
        "e"
      ],
      [
        "tiv",
        "es"
      ],
      [
        "▁morn",
        "ing"
      ],
      [
        "▁st",
        "art"
      ],
      [
        "▁o",
        "bs"
      ],
      [
        "▁m",
        "at"
      ],
      [
        "i",
        "des"
      ],
      [
        "▁t",
        "able"
      ],
      [
        "u",
        "ch"
      ],
      [
        "▁sa",
        "ve"
      ],
      [
        "▁recog",
        "n"
      ],
      [
        "▁",
        "|"
      ],
      [
        "u",
        "led"
      ],
      [
        "▁exp",
        "er"
      ],
      [
        "▁s",
        "ent"
      ],
      [
        "▁num",
        "ber"
      ],
      [
        "▁don",
        "e"
      ],
      [
        "▁y",
        "ou"
      ],
      [
        "▁look",
        "s"
      ],
      [
        "▁estab",
        "lish"
      ],
      [
        "▁cur",
        "r"
      ],
      [
        "▁ch",
        "anges"
      ],
      [
        "▁op",
        "in"
      ],
      [
        "a",
        "se"
      ],
      [
        "oc",
        "k"
      ],
      [
        "▁appro",
        "ach"
      ],
      [
        "▁ind",
        "ic"
      ],
      [
        "▁a",
        "uth"
      ],
      [
        "▁ar",
        "ea"
      ],
      [
        "▁bab",
        "ies"
      ],
      [
        "▁?",
        "????"
      ],
      [
        "▁m",
        "r"
      ],
      [
        "▁play",
        "ing"
      ],
      [
        "▁st",
        "o"
      ],
      [
        "▁jun",
        "e"
      ],
      [
        "▁sa",
        "w"
      ],
      [
        "▁ey",
        "es"
      ],
      [
        "▁t",
        "ro"
      ],
      [
        "▁hel",
        "p"
      ],
      [
        "▁th",
        "row"
      ],
      [
        "▁w",
        "ith"
      ],
      [
        "▁see",
        "ing"
      ],
      [
        "▁h",
        "e"
      ],
      [
        "▁cl",
        "imb"
      ],
      [
        "▁tre",
        "ated"
      ],
      [
        "al",
        "ed"
      ],
      [
        "▁d",
        "iff"
      ],
      [
        "▁ch",
        "air"
      ],
      [
        "▁pr",
        "in"
      ],
      [
        "▁st",
        "orm"
      ],
      [
        "▁s",
        "mal"
      ],
      [
        "at",
        "or"
      ],
      [
        "▁lic",
        "ense"
      ],
      [
        "i",
        "ties"
      ],
      [
        "▁hea",
        "ds"
      ],
      [
        "▁b",
        "ank"
      ],
      [
        "▁lead",
        "ers"
      ],
      [
        "u",
        "me"
      ],
      [
        "▁ha",
        "ve"
      ],
      [
        "▁ex",
        "p"
      ],
      [
        "▁i",
        "f"
      ],
      [
        "’",
        "s"
      ],
      [
        "ove",
        "r"
      ],
      [
        "an",
        "ted"
      ],
      [
        "ec",
        "ts"
      ],
      [
        "uc",
        "k"
      ],
      [
        "▁ac",
        "c"
      ],
      [
        "▁organiz",
        "ation"
      ],
      [
        "▁se",
        "at"
      ],
      [
        "▁t",
        "ie"
      ],
      [
        "▁val",
        "ue"
      ],
      [
        "▁rep",
        "ort"
      ],
      [
        "▁review",
        "s"
      ],
      [
        "▁s",
        "ide"
      ],
      [
        "▁us",
        "ed"
      ],
      [
        "▁t",
        "e"
      ],
      [
        "▁w",
        "here"
      ],
      [
        "j",
        "www"
      ],
      [
        "v",
        "e"
      ],
      [
        "▁take",
        "s"
      ],
      [
        "▁par",
        "liament"
      ],
      [
        "0",
        "0"
      ],
      [
        "ire",
        "d"
      ],
      [
        "i",
        "ll"
      ],
      [
        "▁int",
        "el"
      ],
      [
        "e",
        "st"
      ],
      [
        "a",
        "q"
      ],
      [
        "▁",
        "on"
      ],
      [
        "or",
        "ity"
      ],
      [
        "▁whe",
        "el"
      ],
      [
        "▁c",
        "our"
      ],
      [
        "▁b",
        "ill"
      ],
      [
        "▁or",
        "d"
      ],
      [
        "▁-",
        "----------------"
      ],
      [
        "▁inter",
        "est"
      ],
      [
        "▁c",
        "ateg"
      ],
      [
        "ce",
        "ss"
      ],
      [
        "**",
        "**"
      ],
      [
        "▁e",
        "qu"
      ],
      [
        "▁whe",
        "ther"
      ],
      [
        "▁p",
        "ati"
      ],
      [
        "▁lead",
        "ing"
      ],
      [
        "ag",
        "ed"
      ],
      [
        ".c",
        "om"
      ],
      [
        "▁",
        "q"
      ],
      [
        "er",
        "ies"
      ],
      [
        "li",
        "ty"
      ],
      [
        "▁e",
        "duc"
      ],
      [
        "▁w",
        "i"
      ],
      [
        "▁cheap",
        "est"
      ],
      [
        "▁a",
        "way"
      ],
      [
        "ce",
        "ed"
      ],
      [
        "▁b",
        "or"
      ],
      [
        "▁st",
        "ate"
      ],
      [
        "▁dad",
        "dy"
      ],
      [
        "ow",
        "ed"
      ],
      [
        "g",
        "r"
      ],
      [
        "o",
        "und"
      ],
      [
        "▁cos",
        "ts"
      ],
      [
        "▁an",
        "oder"
      ],
      [
        "▁pu",
        "b"
      ],
      [
        "▁sch",
        "ed"
      ],
      [
        "in",
        "u"
      ],
      [
        "▁en",
        "sure"
      ],
      [
        "▁ro",
        "ll"
      ],
      [
        "▁le",
        "ft"
      ],
      [
        "▁",
        "order"
      ],
      [
        "ro",
        "u"
      ],
      [
        "▁though",
        "t"
      ],
      [
        "▁m",
        "ed"
      ],
      [
        "▁l",
        "l"
      ],
      [
        "▁p",
        "red"
      ],
      [
        "▁f",
        "all"
      ],
      [
        "▁",
        "“"
      ],
      [
        "▁mo",
        "ved"
      ],
      [
        "****",
        "****"
      ],
      [
        "at",
        "s"
      ],
      [
        "▁f",
        "ro"
      ],
      [
        "▁intern",
        "et"
      ],
      [
        "▁the",
        "y"
      ],
      [
        "▁",
        "********************************"
      ],
      [
        "em",
        "ber"
      ],
      [
        "▁right",
        "s"
      ],
      [
        "n",
        "ing"
      ],
      [
        "p",
        "ing"
      ],
      [
        "if",
        "y"
      ],
      [
        "i",
        "fic"
      ],
      [
        "u",
        "r"
      ],
      [
        "i",
        "ans"
      ],
      [
        "▁ho",
        "us"
      ],
      [
        "▁p",
        "our"
      ],
      [
        "▁cond",
        "ition"
      ],
      [
        "il",
        "l"
      ],
      [
        "s",
        "us"
      ],
      [
        "um",
        "b"
      ],
      [
        "▁op",
        "ening"
      ],
      [
        "▁park",
        "ing"
      ],
      [
        "▁'",
        "ll"
      ],
      [
        "▁v",
        "iew"
      ],
      [
        "av",
        "e"
      ],
      [
        "▁un",
        "cle"
      ],
      [
        "m",
        "ber"
      ],
      [
        "▁t",
        "er"
      ],
      [
        "▁beh",
        "avi"
      ],
      [
        "ent",
        "ed"
      ],
      [
        "▁comp",
        "an"
      ],
      [
        "▁ele",
        "ph"
      ],
      [
        "▁wh",
        "y"
      ],
      [
        "o",
        "ught"
      ],
      [
        "i",
        "red"
      ],
      [
        "u",
        "ty"
      ],
      [
        "▁jo",
        "ke"
      ],
      [
        "▁re",
        "ad"
      ],
      [
        "a",
        "ur"
      ],
      [
        "▁f",
        "e"
      ],
      [
        "es",
        "sed"
      ],
      [
        "▁of",
        "f"
      ],
      [
        "▁s",
        "h"
      ],
      [
        "▁sugg",
        "est"
      ],
      [
        "▁partic",
        "ip"
      ],
      [
        "▁qu",
        "ery"
      ],
      [
        "▁wa",
        "it"
      ],
      [
        "▁in",
        "cl"
      ],
      [
        "u",
        "d"
      ],
      [
        "▁con",
        "t"
      ],
      [
        "pl",
        "oy"
      ],
      [
        "▁de",
        "gre"
      ],
      [
        "in",
        "a"
      ],
      [
        "▁la",
        "ugh"
      ],
      [
        "r",
        "e"
      ],
      [
        "▁we",
        "e"
      ],
      [
        "▁wait",
        "ing"
      ],
      [
        "u",
        "c"
      ],
      [
        "▁k",
        "ill"
      ],
      [
        "▁g",
        "row"
      ],
      [
        "▁want",
        "s"
      ],
      [
        "▁ke",
        "pt"
      ],
      [
        "▁keep",
        "ing"
      ],
      [
        "ir",
        "st"
      ],
      [
        "▁v",
        "et"
      ],
      [
        "▁s",
        "u"
      ],
      [
        "▁c",
        "ust"
      ],
      [
        "▁dec",
        "ision"
      ],
      [
        "▁e",
        "m"
      ],
      [
        "▁sc",
        "re"
      ],
      [
        "▁re",
        "m"
      ],
      [
        "▁at",
        "t"
      ],
      [
        "▁th",
        "an"
      ],
      [
        "▁t",
        "ri"
      ],
      [
        "▁poc",
        "ket"
      ],
      [
        "g",
        "ation"
      ],
      [
        "g",
        "ed"
      ],
      [
        "ligh",
        "t"
      ],
      [
        "en",
        "ces"
      ],
      [
        "▁sun",
        "day"
      ],
      [
        "▁weap",
        "ons"
      ],
      [
        "▁d",
        "em"
      ],
      [
        "▁",
        "ow"
      ],
      [
        "e",
        "n"
      ],
      [
        "▁s",
        "/he"
      ],
      [
        "▁buil",
        "d"
      ],
      [
        "▁loc",
        "ated"
      ],
      [
        "▁.",
        "."
      ],
      [
        "▁challen",
        "ges"
      ],
      [
        "o",
        "nd"
      ],
      [
        "▁relations",
        "hip"
      ],
      [
        "st",
        "ances"
      ],
      [
        "▁car",
        "d"
      ],
      [
        "eng",
        "th"
      ],
      [
        "▁for",
        "th"
      ],
      [
        "ou",
        "th"
      ],
      [
        "u",
        "ation"
      ],
      [
        "▁sal",
        "ad"
      ],
      [
        "▁fl",
        "oor"
      ],
      [
        "▁tech",
        "n"
      ],
      [
        "u",
        "b"
      ],
      [
        "▁m",
        "ummy"
      ],
      [
        "▁cre",
        "ated"
      ],
      [
        "k",
        "s"
      ],
      [
        "▁ever",
        "y"
      ],
      [
        "!!!!",
        "!!!!"
      ],
      [
        "▁b",
        "and"
      ],
      [
        "em",
        "a"
      ],
      [
        "▁maint",
        "ain"
      ],
      [
        "▁diff",
        "erences"
      ],
      [
        "in",
        "ing"
      ],
      [
        "▁.......",
        "..."
      ],
      [
        "▁the",
        "re"
      ],
      [
        "▁menti",
        "oned"
      ],
      [
        "▁mos",
        "qu"
      ],
      [
        "▁rec",
        "omm"
      ],
      [
        "i",
        "re"
      ],
      [
        "as",
        "ed"
      ],
      [
        "▁eff",
        "ect"
      ],
      [
        "▁",
        "min"
      ],
      [
        "▁ad",
        "ults"
      ],
      [
        "▁",
        "ti"
      ],
      [
        "▁incre",
        "ased"
      ],
      [
        "amp",
        "le"
      ],
      [
        "▁un",
        "der"
      ],
      [
        "▁",
        "jwww"
      ],
      [
        "▁pre",
        "d"
      ],
      [
        "ww",
        "w"
      ],
      [
        "i",
        "ght"
      ],
      [
        "▁lo",
        "st"
      ],
      [
        "▁ec",
        "onom"
      ],
      [
        "oc",
        "ol"
      ],
      [
        "▁b",
        "ud"
      ],
      [
        "f",
        "ir"
      ],
      [
        "or",
        "es"
      ],
      [
        "▁air",
        "ports"
      ],
      [
        "▁comm",
        "and"
      ],
      [
        "▁w",
        "ol"
      ],
      [
        "it",
        "ies"
      ],
      [
        "▁s",
        "il"
      ],
      [
        "o",
        "t"
      ],
      [
        "c",
        "on"
      ],
      [
        "▁o",
        "f"
      ],
      [
        "▁l",
        "uck"
      ],
      [
        "▁bac",
        "k"
      ],
      [
        "▁d",
        "ad"
      ],
      [
        "▁cop",
        "y"
      ],
      [
        "▁dec",
        "ades"
      ],
      [
        "ders",
        "t"
      ],
      [
        "ing",
        "s"
      ],
      [
        "▁enc",
        "our"
      ],
      [
        "▁",
        "al"
      ],
      [
        "▁st",
        "r"
      ],
      [
        "▁sound",
        "s"
      ],
      [
        "in",
        "g"
      ],
      [
        "▁mem",
        "ber"
      ],
      [
        "e",
        "i"
      ],
      [
        "▁col",
        "umn"
      ],
      [
        "ac",
        "es"
      ],
      [
        "▁le",
        "ss"
      ],
      [
        "▁co",
        "mb"
      ],
      [
        "f",
        "t"
      ],
      [
        "▁an",
        "ybody"
      ],
      [
        "▁p",
        "et"
      ],
      [
        "▁f",
        "ri"
      ],
      [
        "▁rabb",
        "it"
      ],
      [
        "▁p",
        "air"
      ],
      [
        "▁whe",
        "re"
      ],
      [
        "▁man",
        "ag"
      ],
      [
        "ee",
        "p"
      ],
      [
        "▁resp",
        "ond"
      ],
      [
        "p",
        "ite"
      ],
      [
        "▁ha",
        "lf"
      ],
      [
        "▁conc",
        "er"
      ],
      [
        "▁re",
        "ality"
      ],
      [
        "▁e",
        "very"
      ],
      [
        "▁c",
        "orn"
      ],
      [
        "▁r",
        "ain"
      ],
      [
        "▁as",
        "p"
      ],
      [
        "a",
        "l"
      ],
      [
        "tic",
        "s"
      ],
      [
        "▁day",
        "s"
      ],
      [
        "▁fam",
        "ily"
      ],
      [
        "▁",
        "plus"
      ],
      [
        "▁rec",
        "og"
      ],
      [
        "▁kn",
        "oc"
      ],
      [
        "▁mis",
        "sed"
      ],
      [
        "▁al",
        "l"
      ],
      [
        "▁eff",
        "orts"
      ],
      [
        "▁li",
        "ke"
      ],
      [
        "i",
        "gh"
      ],
      [
        "▁kit",
        "ty"
      ],
      [
        "y",
        "m"
      ],
      [
        "en",
        "ted"
      ],
      [
        "▁prot",
        "ect"
      ],
      [
        "ul",
        "ate"
      ],
      [
        "et",
        "her"
      ],
      [
        "▁",
        "l"
      ],
      [
        "▁l",
        "at"
      ],
      [
        "ar",
        "s"
      ],
      [
        "▁'",
        "re"
      ],
      [
        "▁",
        "end"
      ],
      [
        "▁airl",
        "ine"
      ],
      [
        "▁dr",
        "aft"
      ],
      [
        "▁",
        "–"
      ],
      [
        "li",
        "ament"
      ],
      [
        "▁ph",
        "il"
      ],
      [
        "▁wh",
        "ale"
      ],
      [
        "▁rememb",
        "er"
      ],
      [
        "▁m",
        "ater"
      ],
      [
        "▁fe",
        "el"
      ],
      [
        "▁a",
        "vailable"
      ],
      [
        "▁ton",
        "ight"
      ],
      [
        "▁d",
        "est"
      ],
      [
        "▁g",
        "o"
      ],
      [
        "an",
        "c"
      ],
      [
        "▁",
        "ar"
      ],
      [
        "▁b",
        "lan"
      ],
      [
        "▁commun",
        "ication"
      ],
      [
        "▁conc",
        "ept"
      ],
      [
        "▁down",
        "town"
      ],
      [
        "▁grandm",
        "other"
      ],
      [
        "▁exh",
        "ib"
      ],
      [
        "ist",
        "s"
      ],
      [
        "ll",
        "ing"
      ],
      [
        "er",
        "ate"
      ],
      [
        "▁sh",
        "o"
      ],
      [
        "v",
        "ision"
      ],
      [
        "▁o",
        "h"
      ],
      [
        "▁trad",
        "e"
      ],
      [
        "anc",
        "ing"
      ],
      [
        "▁play",
        "er"
      ],
      [
        "▁own",
        "ers"
      ],
      [
        "p",
        "orts"
      ],
      [
        "▁thre",
        "at"
      ],
      [
        "or",
        "k"
      ],
      [
        "▁h",
        "op"
      ],
      [
        "▁af",
        "t"
      ],
      [
        "▁in",
        "st"
      ],
      [
        "▁des",
        "ign"
      ],
      [
        "▁thous",
        "ands"
      ],
      [
        "▁ser",
        "v"
      ],
      [
        "▁cons",
        "id"
      ],
      [
        "▁g",
        "l"
      ],
      [
        "▁st",
        "ation"
      ],
      [
        "▁activ",
        "ity"
      ],
      [
        "▁dri",
        "ver"
      ],
      [
        "le",
        "y"
      ],
      [
        "ri",
        "b"
      ],
      [
        "▁v",
        "ers"
      ],
      [
        "o",
        "ol"
      ],
      [
        "▁forg",
        "ot"
      ],
      [
        "s",
        "el"
      ],
      [
        "▁",
        "right"
      ],
      [
        "▁",
        "ident"
      ],
      [
        "▁law",
        "s"
      ],
      [
        "▁r",
        "ow"
      ],
      [
        "▁ex",
        "ec"
      ],
      [
        ".",
        "."
      ],
      [
        "▁seem",
        "s"
      ],
      [
        "▁cl",
        "osed"
      ],
      [
        "▁o",
        "u"
      ],
      [
        "▁c",
        "ont"
      ],
      [
        "▁sl",
        "eep"
      ],
      [
        "▁ar",
        "g"
      ],
      [
        "ac",
        "k"
      ],
      [
        "n",
        "e"
      ],
      [
        "p",
        "e"
      ],
      [
        "▁p",
        "u"
      ],
      [
        "o",
        "ck"
      ],
      [
        "▁n",
        "eck"
      ],
      [
        "▁ren",
        "t"
      ],
      [
        "▁chees",
        "e"
      ],
      [
        "▁t",
        "he"
      ],
      [
        "▁w",
        "ait"
      ],
      [
        "▁p",
        "ic"
      ],
      [
        "▁sept",
        "ember"
      ],
      [
        "▁dogg",
        "ie"
      ],
      [
        "▁",
        "if"
      ],
      [
        "▁t",
        "op"
      ],
      [
        "ce",
        "pt"
      ],
      [
        "▁app",
        "le"
      ],
      [
        "ur",
        "e"
      ],
      [
        "▁app",
        "ro"
      ],
      [
        "es",
        "ter"
      ],
      [
        "▁sh",
        "ape"
      ],
      [
        "▁char",
        "acters"
      ],
      [
        "a",
        "ch"
      ],
      [
        "ol",
        "ution"
      ],
      [
        "▁col",
        "l"
      ],
      [
        "▁s",
        "p"
      ],
      [
        "v",
        "ery"
      ],
      [
        "▁for",
        "m"
      ],
      [
        "il",
        "d"
      ],
      [
        "ver",
        "y"
      ],
      [
        "▁anim",
        "al"
      ],
      [
        "m",
        "p"
      ],
      [
        "▁news",
        "p"
      ],
      [
        "'",
        "re"
      ],
      [
        "t",
        "t"
      ],
      [
        "es",
        "ting"
      ],
      [
        "▁as",
        "king"
      ],
      [
        "▁proble",
        "m"
      ],
      [
        "▁wat",
        "er"
      ],
      [
        "▁co",
        "st"
      ],
      [
        "▁",
        "ver"
      ],
      [
        "▁mo",
        "st"
      ],
      [
        "▁th",
        "at"
      ],
      [
        "▁discus",
        "sed"
      ],
      [
        "ro",
        "om"
      ],
      [
        "▁be",
        "side"
      ],
      [
        "▁’",
        "’"
      ],
      [
        "w",
        "h"
      ],
      [
        "▁se",
        "en"
      ],
      [
        "ot",
        "e"
      ],
      [
        "▁opp",
        "osite"
      ],
      [
        "le",
        "d"
      ],
      [
        "▁lead",
        "er"
      ],
      [
        "▁lab",
        "or"
      ],
      [
        "▁exp",
        "ected"
      ],
      [
        "▁ab",
        "ove"
      ],
      [
        "▁mo",
        "de"
      ],
      [
        "▁produc",
        "tion"
      ],
      [
        "c",
        "akes"
      ],
      [
        "▁li",
        "fe"
      ],
      [
        "▁counc",
        "il"
      ],
      [
        "▁!!!",
        "!!!"
      ],
      [
        "▁",
        "el"
      ],
      [
        "ar",
        "ity"
      ],
      [
        "ect",
        "ed"
      ],
      [
        "▁banan",
        "a"
      ],
      [
        "▁class",
        "es"
      ],
      [
        "▁obs",
        "erv"
      ],
      [
        "▁wh",
        "ich"
      ],
      [
        "▁a",
        "gre"
      ],
      [
        "a",
        "me"
      ],
      [
        "is",
        "ing"
      ],
      [
        "▁a",
        "round"
      ],
      [
        "▁ar",
        "my"
      ],
      [
        "▁cart",
        "oon"
      ],
      [
        "▁s",
        "ame"
      ],
      [
        "▁rep",
        "res"
      ],
      [
        "▁",
        "**"
      ],
      [
        "....",
        "...."
      ],
      [
        "▁part",
        "ners"
      ],
      [
        "▁as",
        "su"
      ],
      [
        "il",
        "ed"
      ],
      [
        "▁cont",
        "ain"
      ],
      [
        "▁o",
        "il"
      ],
      [
        "▁r",
        "o"
      ],
      [
        "al",
        "th"
      ],
      [
        "end",
        "er"
      ],
      [
        "▁pa",
        "ul"
      ],
      [
        "▁obs",
        "erved"
      ],
      [
        "d",
        "ers"
      ],
      [
        "▁f",
        "ood"
      ],
      [
        "▁a",
        "m"
      ],
      [
        "▁r",
        "an"
      ],
      [
        "▁s",
        "w"
      ],
      [
        "▁se",
        "pt"
      ],
      [
        "▁s",
        "oc"
      ],
      [
        "▁counterpar",
        "ty"
      ],
      [
        "▁let",
        "ters"
      ],
      [
        "l",
        "i"
      ],
      [
        "▁l",
        "ink"
      ],
      [
        "▁enj",
        "ambment"
      ],
      [
        "▁",
        "bo"
      ],
      [
        "▁s",
        "ister"
      ],
      [
        "----",
        "----"
      ],
      [
        "▁s",
        "ound"
      ],
      [
        "▁fo",
        "und"
      ],
      [
        "ti",
        "ons"
      ],
      [
        "ol",
        "e"
      ],
      [
        "▁d",
        "aughter"
      ],
      [
        "i",
        "a"
      ],
      [
        "▁star",
        "ted"
      ],
      [
        "▁",
        "cer"
      ],
      [
        "▁h",
        "alf"
      ],
      [
        "▁s",
        "ect"
      ],
      [
        "▁fin",
        "ished"
      ],
      [
        "▁in",
        "n"
      ],
      [
        "in",
        "e"
      ],
      [
        "▁b",
        "oth"
      ],
      [
        "▁bu",
        "d"
      ],
      [
        "duc",
        "tion"
      ],
      [
        "pl",
        "y"
      ],
      [
        "▁c",
        "ases"
      ],
      [
        "d",
        "uc"
      ],
      [
        "ch",
        "ie"
      ],
      [
        "▁n",
        "'t"
      ],
      [
        "▁n",
        "o"
      ],
      [
        "▁ac",
        "tually"
      ],
      [
        "▁h",
        "ous"
      ],
      [
        "▁",
        "ice"
      ],
      [
        "▁me",
        "als"
      ],
      [
        "c",
        "l"
      ],
      [
        "▁so",
        "il"
      ],
      [
        "▁system",
        "s"
      ],
      [
        "▁ch",
        "e"
      ],
      [
        "▁con",
        "f"
      ],
      [
        "▁h",
        "i"
      ],
      [
        "li",
        "g"
      ],
      [
        "▁cer",
        "tain"
      ],
      [
        "▁per",
        "iod"
      ],
      [
        "l",
        "o"
      ],
      [
        "ak",
        "ing"
      ],
      [
        "▁",
        "ov"
      ],
      [
        "▁",
        "in"
      ],
      [
        "▁t",
        "here"
      ],
      [
        "▁nov",
        "el"
      ],
      [
        "▁---------------------------------",
        "----------------"
      ],
      [
        "▁ha",
        "pp"
      ],
      [
        "▁mean",
        "t"
      ],
      [
        "▁",
        "at"
      ],
      [
        "▁a",
        "ud"
      ],
      [
        "▁as",
        "tride"
      ],
      [
        "▁b",
        "ur"
      ],
      [
        "ac",
        "t"
      ],
      [
        "oun",
        "ts"
      ],
      [
        "oo",
        "l"
      ],
      [
        "▁p",
        "ub"
      ],
      [
        "▁d",
        "on"
      ],
      [
        "rou",
        "nd"
      ],
      [
        "▁pe",
        "p"
      ],
      [
        "▁d",
        "iv"
      ],
      [
        "▁",
        "y"
      ],
      [
        "r",
        "ying"
      ],
      [
        "▁un",
        "derstanding"
      ],
      [
        "a",
        "r"
      ],
      [
        "▁n",
        "t"
      ],
      [
        "▁sp",
        "ider"
      ],
      [
        "▁s",
        "li"
      ],
      [
        "▁re",
        "qui"
      ],
      [
        "▁sal",
        "es"
      ],
      [
        "▁aut",
        "h"
      ],
      [
        "▁stre",
        "ets"
      ],
      [
        "▁r",
        "ate"
      ],
      [
        "▁poin",
        "t"
      ],
      [
        "▁as",
        "s"
      ],
      [
        "ut",
        "ing"
      ],
      [
        "at",
        "ional"
      ],
      [
        "▁gl",
        "ass"
      ],
      [
        "▁co",
        "n"
      ],
      [
        "▁‘",
        "’"
      ],
      [
        "re",
        "ds"
      ],
      [
        "▁sect",
        "or"
      ],
      [
        "▁b",
        "ag"
      ],
      [
        "oin",
        "t"
      ],
      [
        "form",
        "ation"
      ],
      [
        "▁res",
        "ult"
      ],
      [
        "▁press",
        "ure"
      ],
      [
        "um",
        "my"
      ],
      [
        "▁f",
        "ac"
      ],
      [
        "▁al",
        "ways"
      ],
      [
        "▁bre",
        "ak"
      ],
      [
        "▁s",
        "qu"
      ],
      [
        "▁win",
        "ter"
      ],
      [
        "▁sh",
        "irt"
      ],
      [
        "t",
        "y"
      ],
      [
        "ur",
        "day"
      ],
      [
        "et",
        "h"
      ],
      [
        "it",
        "ch"
      ],
      [
        "a",
        "d"
      ],
      [
        "o",
        "der"
      ],
      [
        "▁bo",
        "at"
      ],
      [
        "▁th",
        "ink"
      ],
      [
        "er",
        "c"
      ],
      [
        "▁estab",
        "lished"
      ],
      [
        "it",
        "led"
      ],
      [
        "▁<",
        "<"
      ],
      [
        "▁add",
        "ed"
      ],
      [
        "e",
        "r"
      ],
      [
        "at",
        "o"
      ],
      [
        "a",
        "c"
      ],
      [
        "▁",
        "our"
      ],
      [
        "▁leg",
        "isl"
      ],
      [
        "▁h",
        "is"
      ],
      [
        "ul",
        "ation"
      ],
      [
        "▁work",
        "s"
      ],
      [
        "▁d",
        "es"
      ],
      [
        "▁p",
        "ool"
      ],
      [
        "▁int",
        "ended"
      ],
      [
        "te",
        "mp"
      ],
      [
        "▁issu",
        "e"
      ],
      [
        "e",
        "as"
      ],
      [
        "▁",
        "d"
      ],
      [
        "▁poli",
        "ce"
      ],
      [
        "▁do",
        "ing"
      ],
      [
        "▁l",
        "ab"
      ],
      [
        "▁g",
        "r"
      ],
      [
        "▁abo",
        "ard"
      ],
      [
        "▁o",
        "p"
      ],
      [
        "▁",
        "for"
      ],
      [
        "▁requi",
        "red"
      ],
      [
        "▁w",
        "h"
      ],
      [
        "▁bea",
        "uty"
      ],
      [
        "▁quino",
        "a"
      ],
      [
        "en",
        "c"
      ],
      [
        "ar",
        "ies"
      ],
      [
        "▁am",
        "end"
      ],
      [
        "****************",
        "****************"
      ],
      [
        "▁a",
        "ny"
      ],
      [
        "▁do",
        "ub"
      ],
      [
        "▁ma",
        "t"
      ],
      [
        "▁r",
        "el"
      ],
      [
        "▁ter",
        "rit"
      ],
      [
        "▁i",
        "s"
      ],
      [
        "o",
        "ke"
      ],
      [
        "nd",
        "ing"
      ],
      [
        "▁ex",
        "ist"
      ],
      [
        "▁ever",
        "yone"
      ],
      [
        "▁re",
        "al"
      ],
      [
        "anc",
        "e"
      ],
      [
        "▁dro",
        "p"
      ],
      [
        "o",
        "f"
      ],
      [
        "▁non",
        "stop"
      ],
      [
        "▁sp",
        "ent"
      ],
      [
        "is",
        "ting"
      ],
      [
        "er",
        "ation"
      ],
      [
        "▁de",
        "al"
      ],
      [
        "▁some",
        "thing"
      ],
      [
        "▁like",
        "s"
      ],
      [
        "er",
        "ed"
      ],
      [
        "▁belie",
        "ve"
      ],
      [
        "▁acc",
        "ount"
      ],
      [
        "▁m",
        "em"
      ],
      [
        "▁k",
        "n"
      ],
      [
        "▁bo",
        "ys"
      ],
      [
        "▁mem",
        "ory"
      ],
      [
        "????????",
        "????????"
      ],
      [
        "e",
        "c"
      ],
      [
        "▁fe",
        "et"
      ],
      [
        "▁comp",
        "etition"
      ],
      [
        "a",
        "b"
      ],
      [
        "▁b",
        "ut"
      ],
      [
        "av",
        "i"
      ],
      [
        "▁cent",
        "ury"
      ],
      [
        "▁insur",
        "ance"
      ],
      [
        "+",
        "----------------"
      ],
      [
        "▁ach",
        "ie"
      ],
      [
        "▁pro",
        "f"
      ],
      [
        "▁c",
        "om"
      ],
      [
        "▁fri",
        "ends"
      ],
      [
        "▁de",
        "ce"
      ],
      [
        "▁p",
        "oll"
      ],
      [
        "▁dec",
        "ember"
      ],
      [
        "ti",
        "me"
      ],
      [
        "▁b",
        "o"
      ],
      [
        "li",
        "sh"
      ],
      [
        "▁h",
        "old"
      ],
      [
        "en",
        "ed"
      ],
      [
        "▁",
        "b"
      ],
      [
        "▁deli",
        "very"
      ],
      [
        "▁im",
        "age"
      ],
      [
        "▁f",
        "i"
      ],
      [
        "▁pr",
        "om"
      ],
      [
        "m",
        "s"
      ],
      [
        "▁",
        "re"
      ],
      [
        "u",
        "th"
      ],
      [
        "▁",
        "ex"
      ],
      [
        "▁b",
        "an"
      ],
      [
        "▁gre",
        "at"
      ],
      [
        "▁e",
        "l"
      ],
      [
        "r",
        "ous"
      ],
      [
        "▁re",
        "l"
      ],
      [
        "▁d",
        "ow"
      ],
      [
        "os",
        "ing"
      ],
      [
        "e",
        "ss"
      ],
      [
        "▁di",
        "st"
      ],
      [
        "▁feel",
        "s"
      ],
      [
        "or",
        "y"
      ],
      [
        "r",
        "i"
      ],
      [
        "▁fo",
        "llow"
      ],
      [
        "▁o",
        "w"
      ],
      [
        "▁p",
        "ick"
      ],
      [
        "▁co",
        "o"
      ],
      [
        "▁legisl",
        "ation"
      ],
      [
        "▁p",
        "oc"
      ],
      [
        "▁b",
        "l"
      ],
      [
        "▁v",
        "e"
      ],
      [
        "▁s",
        "um"
      ],
      [
        "▁conf",
        "lic"
      ],
      [
        "▁go",
        "ing"
      ],
      [
        "▁ch",
        "ec"
      ],
      [
        "▁c",
        "li"
      ],
      [
        "▁item",
        "s"
      ],
      [
        "▁l",
        "oved"
      ],
      [
        "▁propos",
        "al"
      ],
      [
        "▁iod",
        "ine"
      ],
      [
        "▁su",
        "ch"
      ],
      [
        "ac",
        "y"
      ],
      [
        "id",
        "ing"
      ],
      [
        "▁se",
        "em"
      ],
      [
        "▁sa",
        "l"
      ],
      [
        "▁im",
        "m"
      ],
      [
        "ow",
        "s"
      ],
      [
        "ta",
        "in"
      ],
      [
        "▁requi",
        "re"
      ],
      [
        "▁f",
        "o"
      ],
      [
        "▁m",
        "ad"
      ],
      [
        "▁sub",
        "ject"
      ],
      [
        "▁mo",
        "t"
      ],
      [
        "▁pos",
        "t"
      ],
      [
        "▁tele",
        "vision"
      ],
      [
        "e",
        "f"
      ],
      [
        "▁capac",
        "ity"
      ],
      [
        "▁r",
        "at"
      ],
      [
        "u",
        "ter"
      ],
      [
        "▁k",
        "i"
      ],
      [
        "o",
        "h"
      ],
      [
        "▁s",
        "and"
      ],
      [
        "ad",
        "ed"
      ],
      [
        "i",
        "z"
      ],
      [
        "▁t",
        "ail"
      ],
      [
        "▁l",
        "aw"
      ],
      [
        "is",
        "e"
      ],
      [
        "ogn",
        "ition"
      ],
      [
        "▁see",
        "k"
      ],
      [
        "▁vac",
        "ation"
      ],
      [
        "r",
        "o"
      ],
      [
        "▁m",
        "ore"
      ],
      [
        "at",
        "ch"
      ],
      [
        "▁des",
        "crib"
      ],
      [
        "▁!!!!!!!!!!!",
        "!!"
      ],
      [
        "ec",
        "tive"
      ],
      [
        ".",
        "d"
      ],
      [
        "▁p",
        "ip"
      ],
      [
        "rib",
        "ution"
      ],
      [
        "um",
        "e"
      ],
      [
        "▁bul",
        "ld"
      ],
      [
        "▁c",
        "e"
      ],
      [
        "▁exper",
        "ience"
      ],
      [
        "su",
        "l"
      ],
      [
        "▁",
        "~"
      ],
      [
        "▁the",
        "ory"
      ],
      [
        "▁me",
        "as"
      ],
      [
        "d",
        "le"
      ],
      [
        "▁a",
        "pp"
      ],
      [
        "o",
        "u"
      ],
      [
        "▁d",
        "am"
      ],
      [
        "on",
        "om"
      ],
      [
        "as",
        "ter"
      ],
      [
        "▁tas",
        "k"
      ],
      [
        "▁mist",
        "ake"
      ],
      [
        "is",
        "co"
      ],
      [
        "▁am",
        "id"
      ],
      [
        "▁ar",
        "ri"
      ],
      [
        "▁influ",
        "ence"
      ],
      [
        "▁co",
        "un"
      ],
      [
        "▁env",
        "iron"
      ],
      [
        "▁per",
        "form"
      ],
      [
        "▁accep",
        "t"
      ],
      [
        "▁wi",
        "l"
      ],
      [
        "▁to",
        "day"
      ],
      [
        "▁comm",
        "un"
      ],
      [
        "▁o",
        "nly"
      ],
      [
        "▁at",
        "mos"
      ],
      [
        "▁th",
        "rew"
      ],
      [
        "▁th",
        "ose"
      ],
      [
        "▁m",
        "inus"
      ],
      [
        "0",
        "s"
      ],
      [
        "▁p",
        "ill"
      ],
      [
        "c",
        "r"
      ],
      [
        "▁own",
        "er"
      ],
      [
        "▁t",
        "yp"
      ],
      [
        "▁com",
        "ment"
      ],
      [
        "▁thir",
        "d"
      ],
      [
        "▁cook",
        "ies"
      ],
      [
        "al",
        "ity"
      ],
      [
        "▁begin",
        "ning"
      ],
      [
        "▁p",
        "aint"
      ],
      [
        "▁wor",
        "ld"
      ],
      [
        "f",
        "ic"
      ],
      [
        "is",
        "ions"
      ],
      [
        "in",
        "ks"
      ],
      [
        "▁su",
        "icide"
      ],
      [
        "ain",
        "ing"
      ],
      [
        "▁v",
        "er"
      ],
      [
        "▁e",
        "ver"
      ],
      [
        "▁den",
        "ver"
      ],
      [
        "▁f",
        "un"
      ],
      [
        "▁hear",
        "t"
      ],
      [
        "▁inclu",
        "ding"
      ],
      [
        "▁sel",
        "f"
      ],
      [
        "▁f",
        "oods"
      ],
      [
        "▁a",
        "te"
      ],
      [
        "▁ma",
        "y"
      ],
      [
        "/",
        "he"
      ],
      [
        "▁ro",
        "om"
      ],
      [
        "▁hi",
        "gh"
      ],
      [
        "i",
        "li"
      ],
      [
        "▁m",
        "ake"
      ],
      [
        "ic",
        "e"
      ],
      [
        "▁p",
        "e"
      ],
      [
        "▁m",
        "er"
      ],
      [
        "▁cig",
        "ar"
      ],
      [
        "▁eng",
        "ine"
      ],
      [
        "▁inst",
        "ead"
      ],
      [
        "ti",
        "c"
      ],
      [
        "ak",
        "e"
      ],
      [
        "▁n",
        "ames"
      ],
      [
        "id",
        "den"
      ],
      [
        "am",
        "es"
      ],
      [
        "▁com",
        "ing"
      ],
      [
        "▁",
        "out"
      ],
      [
        "▁th",
        "en"
      ],
      [
        "▁ar",
        "ms"
      ],
      [
        "▁for",
        "k"
      ],
      [
        "--------",
        "--------"
      ],
      [
        "▁o",
        "cc"
      ],
      [
        "▁th",
        "ru"
      ],
      [
        "▁b",
        "el"
      ],
      [
        "▁ha",
        "t"
      ],
      [
        "▁ins",
        "ide"
      ],
      [
        "▁dat",
        "a"
      ],
      [
        "▁grow",
        "ing"
      ],
      [
        "▁op",
        "er"
      ],
      [
        "i",
        "ved"
      ],
      [
        "▁pro",
        "ble"
      ],
      [
        "it",
        "ation"
      ],
      [
        "▁mr",
        "s"
      ],
      [
        "▁dec",
        "ide"
      ],
      [
        "▁",
        "up"
      ],
      [
        "it",
        "ed"
      ],
      [
        "▁!",
        "!!"
      ],
      [
        "oo",
        "d"
      ],
      [
        "▁atmos",
        "phere"
      ],
      [
        "▁f",
        "ail"
      ],
      [
        "ut",
        "e"
      ],
      [
        "ne",
        "ath"
      ],
      [
        "▁mil",
        "lions"
      ],
      [
        "▁un",
        "to"
      ],
      [
        "ol",
        "es"
      ],
      [
        "▁w",
        "/"
      ],
      [
        "▁wom",
        "an"
      ],
      [
        "on",
        "e"
      ],
      [
        "▁d",
        "www"
      ],
      [
        "▁",
        "v"
      ],
      [
        "▁we",
        "bs"
      ],
      [
        "a",
        "ble"
      ],
      [
        "▁cr",
        "u"
      ],
      [
        "▁c",
        "ere"
      ],
      [
        "ur",
        "n"
      ],
      [
        "ar",
        "l"
      ],
      [
        "▁su",
        "r"
      ],
      [
        "i",
        "e"
      ],
      [
        "li",
        "ef"
      ],
      [
        "▁gro",
        "up"
      ],
      [
        "▁w",
        "ork"
      ],
      [
        "if",
        "e"
      ],
      [
        "ail",
        "s"
      ],
      [
        "▁mi",
        "x"
      ],
      [
        "▁treat",
        "ment"
      ],
      [
        "▁min",
        "us"
      ],
      [
        "▁f",
        "ol"
      ],
      [
        "u",
        "gg"
      ],
      [
        "▁look",
        "ed"
      ],
      [
        "w",
        "or"
      ],
      [
        "▁te",
        "eth"
      ],
      [
        "▁j",
        "ob"
      ],
      [
        "▁forg",
        "et"
      ],
      [
        "e",
        "ly"
      ],
      [
        "▁h",
        "as"
      ],
      [
        "▁ca",
        "used"
      ],
      [
        "r",
        "ol"
      ],
      [
        "c",
        "ed"
      ],
      [
        "▁pos",
        "ition"
      ],
      [
        "▁wh",
        "e"
      ],
      [
        "ter",
        "ing"
      ],
      [
        "u",
        "m"
      ],
      [
        "b",
        "all"
      ],
      [
        "▁c",
        "and"
      ],
      [
        "▁follow",
        "s"
      ],
      [
        "▁tell",
        "ing"
      ],
      [
        "d",
        "it"
      ],
      [
        "▁cons",
        "tit"
      ],
      [
        "▁be",
        "ar"
      ],
      [
        "▁for",
        "ce"
      ],
      [
        "▁m",
        "ap"
      ],
      [
        "▁ob",
        "t"
      ],
      [
        "d",
        "er"
      ],
      [
        "▁dro",
        "pped"
      ],
      [
        "▁di",
        "ff"
      ],
      [
        "▁!!!",
        "?"
      ],
      [
        "▁m",
        "ight"
      ],
      [
        "▁bec",
        "om"
      ],
      [
        "r",
        "ong"
      ],
      [
        "▁inclu",
        "des"
      ],
      [
        "ate",
        "g"
      ],
      [
        "▁su",
        "c"
      ],
      [
        "▁take",
        "n"
      ],
      [
        "▁e",
        "at"
      ],
      [
        "▁count",
        "ries"
      ],
      [
        "▁sec",
        "ret"
      ],
      [
        "▁direc",
        "tor"
      ],
      [
        "▁ele",
        "ctions"
      ],
      [
        "▁",
        "ou"
      ],
      [
        "▁",
        ":"
      ],
      [
        "▁on",
        "ly"
      ],
      [
        "y",
        "ond"
      ],
      [
        "▁p",
        "ass"
      ],
      [
        "▁be",
        "low"
      ],
      [
        "▁de",
        "y"
      ],
      [
        "▁ex",
        "pl"
      ],
      [
        "t",
        "ic"
      ],
      [
        "▁cont",
        "r"
      ],
      [
        "▁ex",
        "ch"
      ],
      [
        "▁b",
        "at"
      ],
      [
        "u",
        "it"
      ],
      [
        "▁ti",
        "e"
      ],
      [
        "ocr",
        "acy"
      ],
      [
        "▁le",
        "ad"
      ],
      [
        "▁",
        "jo"
      ],
      [
        "▁mess",
        "age"
      ],
      [
        "▁e",
        "r"
      ],
      [
        "pp",
        "ing"
      ],
      [
        "▁ca",
        "n"
      ],
      [
        "▁!!!",
        "!!"
      ],
      [
        "ve",
        "l"
      ],
      [
        "b",
        "e"
      ],
      [
        "▁le",
        "s"
      ],
      [
        "ei",
        "ther"
      ],
      [
        "▁wi",
        "ll"
      ],
      [
        "▁bl",
        "ood"
      ],
      [
        "▁",
        "a"
      ],
      [
        "l",
        "f"
      ],
      [
        "▁sum",
        "mer"
      ],
      [
        "▁d",
        "id"
      ],
      [
        "s",
        "ing"
      ],
      [
        "▁milit",
        "ary"
      ],
      [
        "▁tu",
        "esday"
      ],
      [
        "▁b",
        "r"
      ],
      [
        "▁sa",
        "y"
      ],
      [
        "▁pl",
        "ace"
      ],
      [
        "w",
        "s"
      ],
      [
        "▁per",
        "cent"
      ],
      [
        "i",
        "um"
      ],
      [
        "in",
        "n"
      ],
      [
        "▁rev",
        "iew"
      ],
      [
        "▁su",
        "b"
      ],
      [
        "▁avo",
        "id"
      ],
      [
        "▁wil",
        "d"
      ],
      [
        "rap",
        "h"
      ],
      [
        "▁webs",
        "ite"
      ],
      [
        "=",
        "="
      ],
      [
        "▁bott",
        "om"
      ],
      [
        "▁manag",
        "ement"
      ],
      [
        "▁conf",
        "ir"
      ],
      [
        "ro",
        "n"
      ],
      [
        "▁butt",
        "ons"
      ],
      [
        "▁other",
        "s"
      ],
      [
        "▁res",
        "erv"
      ],
      [
        "▁ban",
        "k"
      ],
      [
        "▁in",
        "c"
      ],
      [
        "▁writ",
        "ers"
      ],
      [
        "▁h",
        "ide"
      ],
      [
        "********************************",
        "**"
      ],
      [
        "e",
        "en"
      ],
      [
        "▁s",
        "tic"
      ],
      [
        "k",
        "in"
      ],
      [
        "ore",
        "d"
      ],
      [
        "▁e",
        "d"
      ],
      [
        "▁doc",
        "tor"
      ],
      [
        "▁par",
        "ts"
      ],
      [
        "ag",
        "on"
      ],
      [
        "ou",
        "t"
      ],
      [
        "▁ch",
        "eck"
      ],
      [
        "▁among",
        "st"
      ],
      [
        "t",
        "a"
      ],
      [
        "▁d",
        "uck"
      ],
      [
        "at",
        "ed"
      ],
      [
        "▁w",
        "om"
      ],
      [
        "▁arg",
        "ument"
      ],
      [
        "▁ref",
        "erence"
      ],
      [
        "▁wh",
        "ile"
      ],
      [
        "▁a",
        "l"
      ],
      [
        "▁independ",
        "ence"
      ],
      [
        "▁ch",
        "oice"
      ],
      [
        "▁them",
        "selves"
      ],
      [
        "▁belon",
        "g"
      ],
      [
        "▁vis",
        "a"
      ],
      [
        "▁it",
        "s"
      ],
      [
        "id",
        "e"
      ],
      [
        "▁g",
        "en"
      ],
      [
        "an",
        "ts"
      ],
      [
        "o",
        "p"
      ],
      [
        "▁g",
        "overn"
      ],
      [
        "▁vi",
        "ol"
      ],
      [
        "▁aug",
        "ust"
      ],
      [
        "▁piz",
        "za"
      ],
      [
        "n",
        "t"
      ],
      [
        "▁organ",
        "iz"
      ],
      [
        "ear",
        "ch"
      ],
      [
        "▁sc",
        "ience"
      ],
      [
        "▁",
        "”"
      ],
      [
        "▁",
        "ended"
      ],
      [
        "▁st",
        "age"
      ],
      [
        "v",
        "ed"
      ],
      [
        "▁sk",
        "in"
      ],
      [
        "▁m",
        "on"
      ],
      [
        "▁h",
        "air"
      ],
      [
        "▁r",
        "iver"
      ],
      [
        "▁rep",
        "l"
      ],
      [
        "▁tre",
        "e"
      ],
      [
        "▁leg",
        "os"
      ],
      [
        "▁p",
        "aper"
      ],
      [
        "▁sk",
        "y"
      ],
      [
        "▁",
        "ing"
      ],
      [
        "▁des",
        "pite"
      ],
      [
        "▁st",
        "ore"
      ],
      [
        "i",
        "mb"
      ],
      [
        "▁writ",
        "ing"
      ],
      [
        "re",
        "t"
      ],
      [
        "▁stud",
        "ying"
      ],
      [
        "▁pl",
        "enty"
      ],
      [
        "▁ter",
        "m"
      ],
      [
        "ol",
        "ding"
      ],
      [
        "▁l",
        "ive"
      ],
      [
        "▁comm",
        "ent"
      ],
      [
        "i",
        "tions"
      ],
      [
        "e",
        "pt"
      ],
      [
        "▁m",
        "enti"
      ],
      [
        "▁d",
        "in"
      ],
      [
        "▁he",
        "at"
      ],
      [
        "▁gu",
        "ys"
      ],
      [
        "▁menti",
        "on"
      ],
      [
        "▁w",
        "ill"
      ],
      [
        "▁o",
        "wn"
      ],
      [
        "▁",
        "@"
      ],
      [
        "a",
        "lity"
      ],
      [
        "ag",
        "es"
      ],
      [
        "▁f",
        "ather"
      ],
      [
        "▁sup",
        "port"
      ],
      [
        "▁sup",
        "p"
      ],
      [
        "▁in",
        "f"
      ],
      [
        "▁p",
        "ay"
      ],
      [
        "▁though",
        "ts"
      ],
      [
        "▁s",
        "n"
      ],
      [
        "▁adv",
        "ice"
      ],
      [
        "▁b",
        "ed"
      ],
      [
        "▁car",
        "ds"
      ],
      [
        "▁d",
        "rop"
      ],
      [
        "▁qu",
        "ino"
      ],
      [
        "▁s",
        "ur"
      ],
      [
        "▁de",
        "re"
      ],
      [
        "▁l",
        "ine"
      ],
      [
        "▁w",
        "or"
      ],
      [
        "▁",
        "g"
      ],
      [
        "h",
        "er"
      ],
      [
        "▁he",
        "r"
      ],
      [
        "▁cli",
        "mate"
      ],
      [
        "row",
        "s"
      ],
      [
        "▁open",
        "ed"
      ],
      [
        "l",
        "u"
      ],
      [
        "▁inter",
        "v"
      ],
      [
        "▁op",
        "portun"
      ],
      [
        "▁p",
        "lan"
      ],
      [
        "▁s",
        "pe"
      ],
      [
        "o",
        "w"
      ],
      [
        "▁r",
        "eg"
      ],
      [
        "▁-",
        "----"
      ],
      [
        "er",
        "ve"
      ],
      [
        "▁con",
        "duc"
      ],
      [
        "▁l",
        "ad"
      ],
      [
        "▁p",
        "oin"
      ],
      [
        "a",
        "ve"
      ],
      [
        "▁bed",
        "room"
      ],
      [
        "l",
        "ly"
      ],
      [
        "is",
        "es"
      ],
      [
        "ar",
        "y"
      ],
      [
        "e",
        "p"
      ],
      [
        "om",
        "p"
      ],
      [
        "▁give",
        "n"
      ],
      [
        "▁spe",
        "ed"
      ],
      [
        "▁hel",
        "d"
      ],
      [
        "ee",
        "l"
      ],
      [
        "in",
        "o"
      ],
      [
        "i",
        "ety"
      ],
      [
        "al",
        "k"
      ],
      [
        "o",
        "zer"
      ],
      [
        "j",
        "ects"
      ],
      [
        "▁tr",
        "ack"
      ],
      [
        "▁an",
        "ti"
      ],
      [
        "ack",
        "et"
      ],
      [
        "▁tr",
        "uth"
      ],
      [
        "c",
        "ha"
      ],
      [
        "▁gr",
        "ab"
      ],
      [
        "bo",
        "dy"
      ],
      [
        "▁serv",
        "ices"
      ],
      [
        "▁i",
        "mp"
      ],
      [
        "▁st",
        "ud"
      ],
      [
        "▁",
        "educ"
      ],
      [
        "t",
        "ors"
      ],
      [
        "▁m",
        "ess"
      ],
      [
        "▁th",
        "em"
      ],
      [
        "er",
        "ence"
      ],
      [
        "ere",
        "nt"
      ],
      [
        "▁ques",
        "tions"
      ],
      [
        "▁ag",
        "re"
      ],
      [
        "ep",
        "t"
      ],
      [
        "et",
        "s"
      ],
      [
        "li",
        "es"
      ],
      [
        "▁ex",
        "c"
      ],
      [
        "st",
        "op"
      ],
      [
        "in",
        "t"
      ],
      [
        "▁an",
        "al"
      ],
      [
        "▁t",
        "h"
      ],
      [
        "▁pe",
        "ace"
      ],
      [
        "▁but",
        "ter"
      ],
      [
        "ur",
        "ch"
      ],
      [
        "▁ac",
        "qui"
      ],
      [
        "m",
        "ents"
      ],
      [
        "▁r",
        "en"
      ],
      [
        "▁lea",
        "ve"
      ],
      [
        "▁pr",
        "op"
      ],
      [
        "_",
        "_"
      ],
      [
        "r",
        "ide"
      ],
      [
        "????",
        "????"
      ],
      [
        "▁artic",
        "le"
      ],
      [
        "▁e",
        "ither"
      ],
      [
        "▁asp",
        "ects"
      ],
      [
        "▁cre",
        "ating"
      ],
      [
        "▁cir",
        "c"
      ],
      [
        "▁is",
        "su"
      ],
      [
        "▁pres",
        "ident"
      ],
      [
        "▁sus",
        "p"
      ],
      [
        "▁soc",
        "iety"
      ],
      [
        "▁",
        "th"
      ],
      [
        "▁coun",
        "c"
      ],
      [
        "▁v",
        "ac"
      ],
      [
        "ligh",
        "ts"
      ],
      [
        "▁techn",
        "ologies"
      ],
      [
        "▁diff",
        "icul"
      ],
      [
        "▁e",
        "uro"
      ],
      [
        "▁n",
        "ew"
      ],
      [
        "▁t",
        "u"
      ],
      [
        "ar",
        "d"
      ],
      [
        "▁po",
        "t"
      ],
      [
        "tiv",
        "e"
      ],
      [
        "▁m",
        "us"
      ],
      [
        "▁f",
        "ig"
      ],
      [
        "▁con",
        "s"
      ],
      [
        "??",
        "??"
      ],
      [
        "▁tri",
        "p"
      ],
      [
        "▁_",
        "____"
      ],
      [
        "d",
        "es"
      ],
      [
        "▁manag",
        "er"
      ],
      [
        "▁amid",
        "st"
      ],
      [
        "e",
        "w"
      ],
      [
        "▁ex",
        "cept"
      ],
      [
        "ic",
        "es"
      ],
      [
        "▁c",
        "row"
      ],
      [
        "or",
        "ing"
      ],
      [
        "▁pl",
        "an"
      ],
      [
        "en",
        "tion"
      ],
      [
        "▁ac",
        "tiv"
      ],
      [
        "▁v",
        "oice"
      ],
      [
        "▁to",
        "o"
      ],
      [
        "▁air",
        "plan"
      ],
      [
        "i",
        "st"
      ],
      [
        "▁bel",
        "ie"
      ],
      [
        "▁throu",
        "gh"
      ],
      [
        "o",
        "or"
      ],
      [
        "▁ho",
        "le"
      ],
      [
        "▁be",
        "for"
      ],
      [
        "▁dep",
        "art"
      ],
      [
        "▁w",
        "ere"
      ],
      [
        "--------",
        "-------"
      ],
      [
        "▁d",
        "re"
      ],
      [
        "▁",
        "one"
      ],
      [
        "▁",
        "z"
      ],
      [
        "i",
        "de"
      ],
      [
        "▁hos",
        "p"
      ],
      [
        "ali",
        "sm"
      ],
      [
        "▁ey",
        "e"
      ],
      [
        "▁s",
        "o"
      ],
      [
        "▁r",
        "abb"
      ],
      [
        "▁phil",
        "adel"
      ],
      [
        "al",
        "l"
      ],
      [
        "▁tem",
        "per"
      ],
      [
        "us",
        "ing"
      ],
      [
        "▁happen",
        "ing"
      ],
      [
        "u",
        "es"
      ],
      [
        "▁sto",
        "pped"
      ],
      [
        "▁s",
        "an"
      ],
      [
        "▁bo",
        "th"
      ],
      [
        "▁bu",
        "ild"
      ],
      [
        "▁rece",
        "ived"
      ],
      [
        "▁ref",
        "l"
      ],
      [
        "▁y",
        "our"
      ],
      [
        "m",
        "an"
      ],
      [
        "▁hal",
        "f"
      ],
      [
        "me",
        "mb"
      ],
      [
        "f",
        "e"
      ],
      [
        "at",
        "eg"
      ],
      [
        "▁dep",
        "artment"
      ],
      [
        "▁ins",
        "p"
      ],
      [
        "▁pro",
        "duc"
      ],
      [
        "▁pr",
        "ac"
      ],
      [
        "▁c",
        "ur"
      ],
      [
        "▁displ",
        "ay"
      ],
      [
        "▁s",
        "l"
      ],
      [
        "ke",
        "y"
      ],
      [
        "ul",
        "ts"
      ],
      [
        "▁e",
        "v"
      ],
      [
        "▁re",
        "v"
      ],
      [
        "▁c",
        "ycle"
      ],
      [
        "▁s",
        "ince"
      ],
      [
        "o",
        "ts"
      ],
      [
        "▁un",
        "ited"
      ],
      [
        "▁pri",
        "ce"
      ],
      [
        "▁",
        "j"
      ],
      [
        "▁imag",
        "ine"
      ],
      [
        "▁b",
        "ack"
      ],
      [
        "s",
        "e"
      ],
      [
        "▁u",
        "n"
      ],
      [
        "▁b",
        "ab"
      ],
      [
        "g",
        "ency"
      ],
      [
        "▁mot",
        "or"
      ],
      [
        "▁plan",
        "ning"
      ],
      [
        "▁new",
        "s"
      ],
      [
        "▁m",
        "ot"
      ],
      [
        "▁v",
        "i"
      ],
      [
        "f",
        "are"
      ],
      [
        "▁b",
        "ring"
      ],
      [
        "▁pl",
        "ate"
      ],
      [
        "ist",
        "ed"
      ],
      [
        "im",
        "p"
      ],
      [
        "▁ar",
        "t"
      ],
      [
        "▁li",
        "ps"
      ],
      [
        "▁scre",
        "en"
      ],
      [
        "▁trou",
        "ble"
      ],
      [
        "▁lea",
        "ving"
      ],
      [
        "ear",
        "ed"
      ],
      [
        "▁fil",
        "ter"
      ],
      [
        "▁off",
        "ered"
      ],
      [
        "▁her",
        "self"
      ],
      [
        "▁c",
        "ry"
      ],
      [
        "▁",
        "le"
      ],
      [
        "z",
        "a"
      ],
      [
        "i",
        "od"
      ],
      [
        "ct",
        "ion"
      ],
      [
        "▁ca",
        "me"
      ],
      [
        "▁",
        "ro"
      ],
      [
        "▁t",
        "ax"
      ],
      [
        "▁pupp",
        "y"
      ],
      [
        "▁an",
        "ything"
      ],
      [
        "▁ch",
        "arl"
      ],
      [
        "▁ke",
        "y"
      ],
      [
        "o",
        "s"
      ],
      [
        "▁o",
        "n"
      ],
      [
        "ow",
        "l"
      ],
      [
        "amp",
        "les"
      ],
      [
        "▁po",
        "ll"
      ],
      [
        "▁ou",
        "r"
      ],
      [
        "▁t",
        "own"
      ],
      [
        "▁p",
        "ur"
      ],
      [
        "r",
        "u"
      ],
      [
        "▁d",
        "et"
      ],
      [
        "ic",
        "k"
      ],
      [
        "▁expos",
        "ure"
      ],
      [
        "▁hund",
        "reds"
      ],
      [
        "▁rece",
        "ive"
      ],
      [
        "m",
        "ate"
      ],
      [
        "ati",
        "s"
      ],
      [
        "▁********************************",
        "**********************************"
      ],
      [
        "y",
        "et"
      ],
      [
        "▁techn",
        "iqu"
      ],
      [
        "▁**",
        "*"
      ],
      [
        "v",
        "en"
      ],
      [
        "en",
        "ts"
      ],
      [
        "a",
        "lly"
      ],
      [
        "▁one",
        "s"
      ],
      [
        "ens",
        "e"
      ],
      [
        "▁ar",
        "eas"
      ],
      [
        "▁a",
        "d"
      ],
      [
        "▁inclu",
        "ded"
      ],
      [
        "▁ex",
        "h"
      ],
      [
        "▁",
        "’s"
      ],
      [
        "▁ch",
        "ees"
      ],
      [
        "▁b",
        "ase"
      ],
      [
        "▁ob",
        "ject"
      ],
      [
        "▁imp",
        "ro"
      ],
      [
        "▁r",
        "ob"
      ],
      [
        "▁o",
        "ak"
      ],
      [
        "▁r",
        "educ"
      ],
      [
        "derstand",
        "ing"
      ],
      [
        "▁h",
        "os"
      ],
      [
        "▁",
        "e"
      ],
      [
        "▁m",
        "ar"
      ],
      [
        "▁dis",
        "aster"
      ],
      [
        "u",
        "k"
      ],
      [
        "▁writ",
        "e"
      ],
      [
        "▁f",
        "urn"
      ],
      [
        "▁v",
        "is"
      ],
      [
        "i",
        "n"
      ],
      [
        "▁m",
        "ir"
      ],
      [
        "▁w",
        "ay"
      ],
      [
        "▁pro",
        "m"
      ],
      [
        "e",
        "ts"
      ],
      [
        "▁ma",
        "g"
      ],
      [
        "ure",
        "d"
      ],
      [
        "▁cons",
        "um"
      ],
      [
        "----------------",
        "----------------"
      ],
      [
        "h",
        "es"
      ],
      [
        "en",
        "s"
      ],
      [
        "▁s",
        "ch"
      ],
      [
        "▁w",
        "ord"
      ],
      [
        "▁par",
        "tic"
      ],
      [
        "▁fac",
        "ts"
      ],
      [
        "▁camp",
        "aign"
      ],
      [
        "▁cl",
        "a"
      ],
      [
        "he",
        "ad"
      ],
      [
        "▁describ",
        "e"
      ],
      [
        "▁b",
        "en"
      ],
      [
        "u",
        "mp"
      ],
      [
        "a",
        "m"
      ],
      [
        "▁leg",
        "s"
      ],
      [
        "▁sc",
        "i"
      ],
      [
        "▁u",
        "nd"
      ],
      [
        "▁pe",
        "an"
      ],
      [
        "▁********",
        "**"
      ],
      [
        "▁go",
        "es"
      ],
      [
        "▁ord",
        "er"
      ],
      [
        "▁nume",
        "rous"
      ],
      [
        "▁c",
        "o"
      ],
      [
        "t",
        "ie"
      ],
      [
        "▁dam",
        "age"
      ],
      [
        "▁drink",
        "ing"
      ],
      [
        "▁n",
        "ame"
      ],
      [
        "t",
        "e"
      ],
      [
        "oc",
        "ks"
      ],
      [
        "▁s",
        "el"
      ],
      [
        "▁f",
        "il"
      ],
      [
        "f",
        "ri"
      ],
      [
        "ri",
        "es"
      ],
      [
        "▁p",
        "i"
      ],
      [
        "or",
        "ting"
      ],
      [
        "▁ve",
        "hic"
      ],
      [
        "u",
        "al"
      ],
      [
        "▁h",
        "app"
      ],
      [
        "▁a",
        "b"
      ],
      [
        "▁des",
        "cri"
      ],
      [
        "e",
        "s"
      ],
      [
        "is",
        "t"
      ],
      [
        "▁",
        "1"
      ],
      [
        "▁mar",
        "ket"
      ],
      [
        "enc",
        "ies"
      ],
      [
        "▁a",
        "re"
      ],
      [
        "▁circ",
        "um"
      ],
      [
        "r",
        "il"
      ],
      [
        "▁at",
        "lan"
      ],
      [
        "ou",
        "gh"
      ],
      [
        "it",
        "ion"
      ],
      [
        "u",
        "ff"
      ],
      [
        "▁y",
        "et"
      ],
      [
        "ur",
        "ed"
      ],
      [
        "▁",
        "ones"
      ],
      [
        "▁p",
        "art"
      ],
      [
        "r",
        "ew"
      ],
      [
        "▁t",
        "ool"
      ],
      [
        "a",
        "it"
      ],
      [
        "▁con",
        "se"
      ],
      [
        "▁s",
        "me"
      ],
      [
        "port",
        "un"
      ],
      [
        "▁g",
        "round"
      ],
      [
        "▁ca",
        "use"
      ],
      [
        "▁far",
        "es"
      ],
      [
        "▁man",
        "ner"
      ],
      [
        "▁m",
        "aking"
      ],
      [
        "▁s",
        "ure"
      ],
      [
        "▁citiz",
        "ens"
      ],
      [
        "▁go",
        "od"
      ],
      [
        "▁o",
        "ut"
      ],
      [
        "e",
        "m"
      ],
      [
        "om",
        "m"
      ],
      [
        "i",
        "ous"
      ],
      [
        "k",
        "a"
      ],
      [
        "▁",
        "it"
      ],
      [
        "▁",
        "er"
      ],
      [
        "▁p",
        "o"
      ],
      [
        "▁writ",
        "er"
      ],
      [
        "ot",
        "ed"
      ],
      [
        "r",
        "en"
      ],
      [
        "fri",
        "end"
      ],
      [
        "▁b",
        "uc"
      ],
      [
        "▁c",
        "atch"
      ],
      [
        "ac",
        "king"
      ],
      [
        "▁convers",
        "ation"
      ],
      [
        "▁fil",
        "m"
      ],
      [
        "▁an",
        "y"
      ],
      [
        "olog",
        "y"
      ],
      [
        "▁assist",
        "ance"
      ],
      [
        "▁watch",
        "ing"
      ],
      [
        "▁p",
        "an"
      ],
      [
        "!",
        "?"
      ],
      [
        "▁glass",
        "es"
      ],
      [
        "▁m",
        "id"
      ],
      [
        "k",
        "ers"
      ],
      [
        "▁rel",
        "ations"
      ],
      [
        "oun",
        "d"
      ],
      [
        "▁d",
        "ou"
      ],
      [
        "▁r",
        "em"
      ],
      [
        "▁buil",
        "ding"
      ],
      [
        "▁auth",
        "or"
      ],
      [
        "▁comp",
        "on"
      ],
      [
        "▁etc",
        "."
      ],
      [
        "▁v",
        "ol"
      ],
      [
        "▁l",
        "es"
      ],
      [
        "▁...",
        "...."
      ],
      [
        "▁commit",
        "tee"
      ],
      [
        "ic",
        "t"
      ],
      [
        "▁bas",
        "is"
      ],
      [
        "▁se",
        "con"
      ],
      [
        "c",
        "ause"
      ],
      [
        "▁mov",
        "ie"
      ],
      [
        "▁re",
        "g"
      ],
      [
        "▁pu",
        "ll"
      ],
      [
        "▁mov",
        "e"
      ],
      [
        "▁s",
        "at"
      ],
      [
        "▁fi",
        "ll"
      ],
      [
        "i",
        "o"
      ],
      [
        "▁d",
        "a"
      ],
      [
        "▁re",
        "ached"
      ],
      [
        "▁",
        "ri"
      ],
      [
        "or",
        "e"
      ],
      [
        "▁say",
        "ing"
      ],
      [
        "cr",
        "aft"
      ],
      [
        "▁co",
        "operation"
      ],
      [
        "un",
        "d"
      ],
      [
        "a",
        "ds"
      ],
      [
        "▁reg",
        "ion"
      ],
      [
        "iver",
        "s"
      ],
      [
        "▁deter",
        "m"
      ],
      [
        "▁experien",
        "ce"
      ],
      [
        "▁make",
        "s"
      ],
      [
        "▁k",
        "ids"
      ],
      [
        "▁d",
        "ress"
      ],
      [
        "▁av",
        "o"
      ],
      [
        "▁t",
        "w"
      ],
      [
        "i",
        "ted"
      ],
      [
        "▁care",
        "er"
      ],
      [
        "k",
        "ing"
      ],
      [
        "▁n",
        "or"
      ],
      [
        "▁n",
        "eeds"
      ],
      [
        "▁g",
        "iving"
      ],
      [
        "▁",
        "’"
      ],
      [
        "▁mon",
        "th"
      ],
      [
        "▁co",
        "p"
      ],
      [
        "ac",
        "e"
      ],
      [
        "▁an",
        "d"
      ],
      [
        "c",
        "le"
      ],
      [
        "▁par",
        "ents"
      ],
      [
        "ion",
        "al"
      ],
      [
        "▁wh",
        "o"
      ],
      [
        "et",
        "te"
      ],
      [
        "rib",
        "uted"
      ],
      [
        "▁mid",
        "dle"
      ],
      [
        "p",
        "h"
      ],
      [
        "`",
        "s"
      ],
      [
        "▁in",
        "vest"
      ],
      [
        ".",
        "m"
      ],
      [
        "▁ki",
        "lled"
      ],
      [
        "▁ma",
        "j"
      ],
      [
        "o",
        "se"
      ],
      [
        "▁",
        "{"
      ],
      [
        "▁you",
        "r"
      ],
      [
        "z",
        "z"
      ],
      [
        "▁b",
        "oard"
      ],
      [
        "▁t",
        "om"
      ],
      [
        "▁go",
        "al"
      ],
      [
        "▁mod",
        "el"
      ],
      [
        "ch",
        "ed"
      ],
      [
        "em",
        "ent"
      ],
      [
        "▁dog",
        "g"
      ],
      [
        "▁",
        "'"
      ],
      [
        "ec",
        "ting"
      ],
      [
        "▁r",
        "ad"
      ],
      [
        "i",
        "als"
      ],
      [
        "▁m",
        "in"
      ],
      [
        "▁buil",
        "t"
      ],
      [
        "▁jo",
        "ined"
      ],
      [
        "▁t",
        "ank"
      ],
      [
        "▁eff",
        "ort"
      ],
      [
        "at",
        "ion"
      ],
      [
        "▁f",
        "act"
      ],
      [
        "▁m",
        "y"
      ],
      [
        "▁cere",
        "al"
      ],
      [
        "ing",
        "ing"
      ],
      [
        "▁lo",
        "ts"
      ],
      [
        "m",
        "ent"
      ],
      [
        "▁ne",
        "ed"
      ],
      [
        "▁happ",
        "en"
      ],
      [
        "▁s",
        "ell"
      ],
      [
        "▁s",
        "c"
      ],
      [
        "ot",
        "h"
      ],
      [
        "p",
        "ly"
      ],
      [
        "n",
        "ly"
      ],
      [
        "▁str",
        "ength"
      ],
      [
        "▁bro",
        "ught"
      ],
      [
        "b",
        "o"
      ],
      [
        "y",
        "ing"
      ],
      [
        "▁h",
        "or"
      ],
      [
        "▁a",
        "v"
      ],
      [
        "▁m",
        "ix"
      ],
      [
        "▁jo",
        "in"
      ],
      [
        "********",
        "********"
      ],
      [
        "▁con",
        "n"
      ],
      [
        "▁o",
        "ver"
      ],
      [
        "▁me",
        "m"
      ],
      [
        "▁fl",
        "ag"
      ],
      [
        "▁de",
        "velop"
      ],
      [
        "▁ret",
        "urn"
      ],
      [
        "▁=",
        "---"
      ],
      [
        "▁y",
        "a"
      ],
      [
        "en",
        "se"
      ],
      [
        "art",
        "ment"
      ],
      [
        "▁tr",
        "av"
      ],
      [
        "▁pic",
        "ture"
      ],
      [
        "▁l",
        "oss"
      ],
      [
        "▁qu",
        "ality"
      ],
      [
        "ti",
        "m"
      ],
      [
        "▁",
        "&"
      ],
      [
        "thin",
        "g"
      ],
      [
        "▁in",
        "ter"
      ],
      [
        "▁stud",
        "ent"
      ],
      [
        "▁notw",
        "ithstanding"
      ],
      [
        "▁po",
        "et"
      ],
      [
        "at",
        "ures"
      ],
      [
        "▁te",
        "h"
      ],
      [
        "▁not",
        "ic"
      ],
      [
        "▁tr",
        "ad"
      ],
      [
        "▁l",
        "ove"
      ],
      [
        "el",
        "f"
      ],
      [
        "▁occ",
        "ur"
      ],
      [
        "▁m",
        "ach"
      ],
      [
        "ar",
        "ing"
      ],
      [
        "p",
        "ort"
      ],
      [
        "▁dr",
        "iving"
      ],
      [
        "▁y",
        "ear"
      ],
      [
        "▁",
        "lights"
      ],
      [
        "l",
        "s"
      ],
      [
        "▁f",
        "oc"
      ],
      [
        "m",
        "ed"
      ],
      [
        "▁one",
        "self"
      ],
      [
        "▁sk",
        "ills"
      ],
      [
        "▁air",
        "l"
      ],
      [
        "▁be",
        "ing"
      ],
      [
        "▁f",
        "ound"
      ],
      [
        "▁est",
        "im"
      ],
      [
        "▁n",
        "um"
      ],
      [
        "s",
        "es"
      ],
      [
        "os",
        "t"
      ],
      [
        "i",
        "ch"
      ],
      [
        "▁fun",
        "ction"
      ],
      [
        "▁co",
        "ast"
      ],
      [
        "i",
        "led"
      ],
      [
        "▁st",
        "ar"
      ],
      [
        "▁",
        "uh"
      ],
      [
        "▁offici",
        "als"
      ],
      [
        "▁rem",
        "ain"
      ],
      [
        "▁l",
        "ot"
      ],
      [
        "g",
        "in"
      ],
      [
        "▁sh",
        "ower"
      ],
      [
        "as",
        "ure"
      ],
      [
        "▁sha",
        "ll"
      ],
      [
        "d",
        "y"
      ],
      [
        "▁!!!!!!!!!!!",
        "!!!!"
      ],
      [
        "▁al",
        "read"
      ],
      [
        "▁foc",
        "us"
      ],
      [
        "▁go",
        "t"
      ],
      [
        "ll",
        "ed"
      ],
      [
        "g",
        "y"
      ],
      [
        "▁m",
        "ind"
      ],
      [
        "▁administ",
        "ration"
      ],
      [
        "▁gr",
        "ass"
      ],
      [
        "▁pl",
        "aces"
      ],
      [
        "▁att",
        "acks"
      ],
      [
        "or",
        "ds"
      ],
      [
        "▁chang",
        "ed"
      ],
      [
        "c",
        "er"
      ],
      [
        "a",
        "pp"
      ],
      [
        "▁in",
        "to"
      ],
      [
        "z",
        "e"
      ],
      [
        "rou",
        "s"
      ],
      [
        "o",
        "te"
      ],
      [
        "▁su",
        "gg"
      ],
      [
        "▁hur",
        "t"
      ],
      [
        "▁s",
        "erv"
      ],
      [
        "▁be",
        "tw"
      ],
      [
        "▁c",
        "r"
      ],
      [
        "t",
        "ride"
      ],
      [
        "▁is",
        "land"
      ],
      [
        "▁be",
        "g"
      ],
      [
        "▁show",
        "ing"
      ],
      [
        "▁e",
        "le"
      ],
      [
        "▁re",
        "le"
      ],
      [
        "▁til",
        "l"
      ],
      [
        "p",
        "en"
      ],
      [
        "l",
        "and"
      ],
      [
        "▁kit",
        "t"
      ],
      [
        "▁e",
        "mer"
      ],
      [
        "▁de",
        "li"
      ],
      [
        "▁kn",
        "ew"
      ],
      [
        "▁fi",
        "re"
      ],
      [
        "ab",
        "ility"
      ],
      [
        "▁indust",
        "ry"
      ],
      [
        "▁fiel",
        "d"
      ],
      [
        "▁ro",
        "ck"
      ],
      [
        "▁infl",
        "u"
      ],
      [
        "▁so",
        "me"
      ],
      [
        "▁fi",
        "ght"
      ],
      [
        "o",
        "n"
      ],
      [
        "end",
        "ing"
      ],
      [
        "▁ship",
        "s"
      ],
      [
        "▁h",
        "um"
      ],
      [
        "ac",
        "tions"
      ],
      [
        "▁g",
        "on"
      ],
      [
        "o",
        "ur"
      ],
      [
        "y",
        "th"
      ],
      [
        "▁u",
        "r"
      ],
      [
        "▁contr",
        "act"
      ],
      [
        "▁f",
        "ill"
      ],
      [
        "▁",
        "es"
      ],
      [
        "'",
        "t"
      ],
      [
        "▁j",
        "www"
      ],
      [
        "av",
        "or"
      ],
      [
        "▁depart",
        "ment"
      ],
      [
        "▁d",
        "oll"
      ],
      [
        "▁a",
        "ug"
      ],
      [
        "▁l",
        "ar"
      ],
      [
        "ill",
        "s"
      ],
      [
        "▁know",
        "n"
      ],
      [
        "am",
        "a"
      ],
      [
        "o",
        "pe"
      ],
      [
        "▁week",
        "end"
      ],
      [
        "▁w",
        "o"
      ],
      [
        "▁app",
        "ear"
      ],
      [
        "▁p",
        "ath"
      ],
      [
        "▁jo",
        "b"
      ],
      [
        "▁sp",
        "ace"
      ],
      [
        "▁c",
        "ent"
      ],
      [
        "▁’",
        "ve"
      ],
      [
        "▁d",
        "ep"
      ],
      [
        "ation",
        "al"
      ],
      [
        "▁",
        "over"
      ],
      [
        "▁",
        "op"
      ],
      [
        "▁commun",
        "ity"
      ],
      [
        "▁c",
        "ell"
      ],
      [
        "▁f",
        "or"
      ],
      [
        "▁r",
        "ight"
      ],
      [
        "▁in",
        "s"
      ],
      [
        "▁w",
        "an"
      ],
      [
        "▁vide",
        "o"
      ],
      [
        "▁for",
        "g"
      ],
      [
        "▁o",
        "r"
      ],
      [
        "▁h",
        "and"
      ],
      [
        "se",
        "l"
      ],
      [
        "▁d",
        "one"
      ],
      [
        "▁a",
        "ct"
      ],
      [
        "▁v",
        "ide"
      ],
      [
        "▁p",
        "r"
      ],
      [
        "▁j",
        "ourn"
      ],
      [
        "▁y",
        "ork"
      ],
      [
        "▁depar",
        "ting"
      ],
      [
        "▁su",
        "it"
      ],
      [
        "▁med",
        "ia"
      ],
      [
        "▁regard",
        "s"
      ],
      [
        "r",
        "or"
      ],
      [
        "y",
        "one"
      ],
      [
        "ain",
        "t"
      ],
      [
        "▁p",
        "as"
      ],
      [
        "p",
        "os"
      ],
      [
        "▁comp",
        "l"
      ],
      [
        "▁ho",
        "pe"
      ],
      [
        "▁bri",
        "dge"
      ],
      [
        "oo",
        "ds"
      ],
      [
        "▁e",
        "gg"
      ],
      [
        "en",
        "ess"
      ],
      [
        "ign",
        "ed"
      ],
      [
        "▁year",
        "s"
      ],
      [
        "el",
        "ly"
      ],
      [
        "▁mech",
        "an"
      ],
      [
        "▁to",
        "u"
      ],
      [
        "z",
        "er"
      ],
      [
        "▁help",
        "s"
      ],
      [
        "▁requ",
        "est"
      ],
      [
        "▁...................",
        "."
      ],
      [
        "▁bre",
        "ad"
      ],
      [
        "▁aft",
        "er"
      ],
      [
        "▁d",
        "om"
      ],
      [
        "▁coun",
        "ter"
      ],
      [
        "▁h",
        "igh"
      ],
      [
        "▁n",
        "ight"
      ],
      [
        "▁r",
        "ul"
      ],
      [
        "ou",
        "p"
      ],
      [
        "▁der",
        "e"
      ],
      [
        "▁w",
        "atch"
      ],
      [
        "▁bro",
        "ther"
      ],
      [
        "n",
        "esday"
      ],
      [
        "▁s",
        "iz"
      ],
      [
        "▁pos",
        "s"
      ],
      [
        "▁recomm",
        "end"
      ],
      [
        "▁",
        "us"
      ],
      [
        "▁un",
        "ivers"
      ],
      [
        "g",
        "re"
      ],
      [
        "▁m",
        "et"
      ],
      [
        "▁def",
        "ense"
      ],
      [
        "▁",
        "und"
      ],
      [
        "▁w",
        "rote"
      ],
      [
        "▁",
        "iod"
      ],
      [
        "p",
        "p"
      ],
      [
        "le",
        "t"
      ],
      [
        "▁a",
        "g"
      ],
      [
        "▁un",
        "d"
      ],
      [
        "k",
        "e"
      ],
      [
        "a",
        "k"
      ],
      [
        "▁rec",
        "ord"
      ],
      [
        "▁doll",
        "ars"
      ],
      [
        "ab",
        "b"
      ],
      [
        "ac",
        "ks"
      ],
      [
        "▁perform",
        "ance"
      ],
      [
        "h",
        "in"
      ],
      [
        "▁d",
        "all"
      ],
      [
        "+",
        "+"
      ],
      [
        "ir",
        "on"
      ],
      [
        "▁c",
        "ities"
      ],
      [
        "▁gro",
        "und"
      ],
      [
        "▁d",
        "ro"
      ],
      [
        "▁ear",
        "th"
      ],
      [
        "▁month",
        "s"
      ],
      [
        "o",
        "ut"
      ],
      [
        "▁c",
        "ig"
      ],
      [
        "--",
        "-"
      ],
      [
        "▁",
        "k"
      ],
      [
        "u",
        "re"
      ],
      [
        "li",
        "ke"
      ],
      [
        "▁b",
        "est"
      ],
      [
        "a",
        "ti"
      ],
      [
        "li",
        "gh"
      ],
      [
        "s",
        "i"
      ],
      [
        "iss",
        "ion"
      ],
      [
        "▁wor",
        "ds"
      ],
      [
        "▁in",
        "side"
      ],
      [
        "▁proper",
        "ty"
      ],
      [
        "i",
        "ent"
      ],
      [
        "▁is",
        "l"
      ],
      [
        "▁fro",
        "m"
      ],
      [
        "▁chick",
        "en"
      ],
      [
        "o",
        "o"
      ],
      [
        "u",
        "ght"
      ],
      [
        "▁ad",
        "d"
      ],
      [
        "▁th",
        "ir"
      ],
      [
        "▁s",
        "ort"
      ],
      [
        "▁b",
        "it"
      ],
      [
        "▁resp",
        "ons"
      ],
      [
        "▁sc",
        "ale"
      ],
      [
        "a",
        "mp"
      ],
      [
        "i",
        "c"
      ],
      [
        "ac",
        "ked"
      ],
      [
        "▁li",
        "c"
      ],
      [
        "▁fir",
        "st"
      ],
      [
        "▁citi",
        "z"
      ],
      [
        "▁follow",
        "ed"
      ],
      [
        "▁s",
        "ha"
      ],
      [
        "▁g",
        "ender"
      ],
      [
        "▁o",
        "b"
      ],
      [
        "▁import",
        "ance"
      ],
      [
        "▁st",
        "at"
      ],
      [
        "en",
        "ti"
      ],
      [
        "ti",
        "on"
      ],
      [
        "▁stre",
        "t"
      ],
      [
        "f",
        "o"
      ],
      [
        "▁pers",
        "on"
      ],
      [
        "ic",
        "ide"
      ],
      [
        "o",
        "ted"
      ],
      [
        "▁st",
        "y"
      ],
      [
        "▁cl",
        "ass"
      ],
      [
        "▁",
        "x"
      ],
      [
        "▁school",
        "s"
      ],
      [
        "▁id",
        "enti"
      ],
      [
        "▁d",
        "ie"
      ],
      [
        "ul",
        "ations"
      ],
      [
        "▁exper",
        "ien"
      ],
      [
        "ie",
        "w"
      ],
      [
        "▁sh",
        "ow"
      ],
      [
        "▁d",
        "e"
      ],
      [
        "▁ap",
        "ril"
      ],
      [
        "▁work",
        "ers"
      ],
      [
        "▁bath",
        "room"
      ],
      [
        "▁sh",
        "ows"
      ],
      [
        "▁wan",
        "t"
      ],
      [
        "▁",
        "here"
      ],
      [
        "▁he",
        "ad"
      ],
      [
        "er",
        "ated"
      ],
      [
        "▁y",
        "ester"
      ],
      [
        "y",
        "e"
      ],
      [
        "▁m",
        "orn"
      ],
      [
        "▁sm",
        "o"
      ],
      [
        "i",
        "ss"
      ],
      [
        "a",
        "ff"
      ],
      [
        "l",
        "ished"
      ],
      [
        "a",
        "ce"
      ],
      [
        "▁alread",
        "y"
      ],
      [
        "e",
        "ti"
      ],
      [
        "▁.",
        "?"
      ],
      [
        "us",
        "es"
      ],
      [
        "▁t",
        "ried"
      ],
      [
        "▁p",
        "ig"
      ],
      [
        "ul",
        "ar"
      ],
      [
        "▁n",
        "on"
      ],
      [
        "i",
        "ed"
      ],
      [
        "is",
        "h"
      ],
      [
        "▁",
        "'s"
      ],
      [
        "▁coff",
        "ee"
      ],
      [
        "re",
        "w"
      ],
      [
        "u",
        "gh"
      ],
      [
        "k",
        "er"
      ],
      [
        "▁",
        "*"
      ],
      [
        "▁r",
        "es"
      ],
      [
        "o",
        "un"
      ],
      [
        "i",
        "med"
      ],
      [
        "▁c",
        "h"
      ],
      [
        "▁par",
        "ty"
      ],
      [
        "▁san",
        "d"
      ],
      [
        "▁h",
        "ouse"
      ],
      [
        "p",
        "tion"
      ],
      [
        "▁fing",
        "ers"
      ],
      [
        "▁dr",
        "ess"
      ],
      [
        "m",
        "en"
      ],
      [
        "s",
        "t"
      ],
      [
        "▁m",
        "ic"
      ],
      [
        "a",
        "ult"
      ],
      [
        "▁may",
        "be"
      ],
      [
        "▁dem",
        "onstr"
      ],
      [
        "for",
        "ce"
      ],
      [
        "▁ti",
        "c"
      ],
      [
        "i",
        "f"
      ],
      [
        "▁ins",
        "ur"
      ],
      [
        "if",
        "f"
      ],
      [
        "▁oc",
        "c"
      ],
      [
        "▁through",
        "out"
      ],
      [
        "▁cour",
        "t"
      ],
      [
        "▁c",
        "ount"
      ],
      [
        "▁your",
        "selves"
      ],
      [
        "▁sw",
        "e"
      ],
      [
        "▁air",
        "lin"
      ],
      [
        "▁conflic",
        "t"
      ],
      [
        "▁",
        "?"
      ],
      [
        "c",
        "es"
      ],
      [
        "ro",
        "p"
      ],
      [
        "▁u",
        "h"
      ],
      [
        "▁k",
        "ey"
      ],
      [
        "▁g",
        "ot"
      ],
      [
        "▁",
        "wh"
      ],
      [
        "an",
        "d"
      ],
      [
        "▁agre",
        "ement"
      ],
      [
        "▁********************************",
        "****************"
      ],
      [
        "op",
        "e"
      ],
      [
        "a",
        "ir"
      ],
      [
        "t",
        "i"
      ],
      [
        "▁no",
        "w"
      ],
      [
        "????????????????",
        "????????????????"
      ],
      [
        "▁us",
        "ers"
      ],
      [
        "▁’",
        "s"
      ],
      [
        "▁sh",
        "ut"
      ],
      [
        "▁ke",
        "ep"
      ],
      [
        "▁din",
        "os"
      ],
      [
        "▁wor",
        "ks"
      ],
      [
        "vail",
        "able"
      ],
      [
        "▁cr",
        "is"
      ],
      [
        "▁po",
        "p"
      ],
      [
        "il",
        "y"
      ],
      [
        "▁",
        "ir"
      ],
      [
        "e",
        "l"
      ],
      [
        "▁d",
        "er"
      ],
      [
        "▁furn",
        "iture"
      ],
      [
        "▁pre",
        "ven"
      ],
      [
        "▁po",
        "ints"
      ],
      [
        "▁territ",
        "ory"
      ],
      [
        "▁mar",
        "riage"
      ],
      [
        "▁y",
        "e"
      ],
      [
        "un",
        "g"
      ],
      [
        "▁tr",
        "ain"
      ],
      [
        "▁p",
        "h"
      ],
      [
        "▁d",
        "ere"
      ],
      [
        "ess",
        "ion"
      ],
      [
        "▁h",
        "oney"
      ],
      [
        "▁co",
        "ord"
      ],
      [
        "▁cre",
        "ate"
      ],
      [
        "c",
        "ess"
      ],
      [
        "m",
        "os"
      ],
      [
        "▁m",
        "a"
      ],
      [
        "id",
        "ent"
      ],
      [
        "▁",
        "is"
      ],
      [
        "o",
        "ver"
      ],
      [
        "y",
        "body"
      ],
      [
        "▁’",
        "m"
      ],
      [
        "▁s",
        "uc"
      ],
      [
        "▁n",
        "amed"
      ],
      [
        "▁su",
        "pp"
      ],
      [
        "▁sty",
        "le"
      ],
      [
        "▁wor",
        "ked"
      ],
      [
        "▁h",
        "ands"
      ],
      [
        "▁",
        "t"
      ],
      [
        "▁w",
        "at"
      ],
      [
        "▁b",
        "ul"
      ],
      [
        "ow",
        "ers"
      ],
      [
        "ou",
        "nt"
      ],
      [
        "▁compan",
        "ies"
      ],
      [
        "▁st",
        "re"
      ],
      [
        "ri",
        "ght"
      ],
      [
        "t",
        "o"
      ],
      [
        "oc",
        "r"
      ],
      [
        "▁us",
        "ing"
      ],
      [
        "▁inv",
        "est"
      ],
      [
        "▁!!!!!!!!!!!",
        "!!!!!!!!"
      ],
      [
        "▁c",
        "ha"
      ],
      [
        "ut",
        "h"
      ],
      [
        "▁",
        "light"
      ],
      [
        "▁feel",
        "ing"
      ],
      [
        "▁g",
        "ar"
      ],
      [
        "ec",
        "es"
      ],
      [
        "▁in",
        "struc"
      ],
      [
        "▁",
        "of"
      ],
      [
        "ro",
        "w"
      ],
      [
        "▁penc",
        "il"
      ],
      [
        "▁mic",
        "ro"
      ],
      [
        "▁el",
        "ected"
      ],
      [
        "▁w",
        "r"
      ],
      [
        "▁d",
        "ri"
      ],
      [
        "▁p",
        "iz"
      ],
      [
        "▁we",
        "ight"
      ],
      [
        "▁d",
        "ough"
      ],
      [
        "▁g",
        "ir"
      ],
      [
        "▁u",
        "ne"
      ],
      [
        "▁hors",
        "es"
      ],
      [
        "▁",
        "des"
      ],
      [
        "▁w",
        "as"
      ],
      [
        "▁fligh",
        "t"
      ],
      [
        "▁cost",
        "s"
      ],
      [
        "▁m",
        "ission"
      ],
      [
        "au",
        "se"
      ],
      [
        "▁ch",
        "ick"
      ],
      [
        "ter",
        "y"
      ],
      [
        "ag",
        "ing"
      ],
      [
        "▁put",
        "ting"
      ],
      [
        "▁p",
        "ack"
      ],
      [
        "o",
        "me"
      ],
      [
        "▁c",
        "ase"
      ],
      [
        "▁en",
        "ergy"
      ],
      [
        "▁sp",
        "oon"
      ],
      [
        "▁b",
        "ush"
      ],
      [
        "▁n",
        "ow"
      ],
      [
        "p",
        "ts"
      ],
      [
        "▁da",
        "d"
      ],
      [
        "at",
        "es"
      ],
      [
        "▁ball",
        "oon"
      ],
      [
        "▁d",
        "ec"
      ],
      [
        "▁th",
        "y"
      ],
      [
        "▁ne",
        "w"
      ],
      [
        "▁se",
        "a"
      ],
      [
        "▁h",
        "ist"
      ],
      [
        "ait",
        "h"
      ],
      [
        "c",
        "k"
      ],
      [
        "▁o",
        "ne"
      ],
      [
        "▁min",
        "e"
      ],
      [
        "▁)",
        ")"
      ],
      [
        "or",
        "ding"
      ],
      [
        "▁in",
        "tern"
      ],
      [
        "▁est",
        "ab"
      ],
      [
        "it",
        "al"
      ],
      [
        "i",
        "fe"
      ],
      [
        "l",
        "ow"
      ],
      [
        "____",
        "__"
      ],
      [
        "▁off",
        "ice"
      ],
      [
        "▁re",
        "st"
      ],
      [
        "if",
        "ic"
      ],
      [
        "a",
        "tive"
      ],
      [
        "▁l",
        "unch"
      ],
      [
        "▁w",
        "ent"
      ],
      [
        "▁p",
        "ort"
      ],
      [
        "▁bab",
        "y"
      ],
      [
        "▁bu",
        "y"
      ],
      [
        "▁con",
        "d"
      ],
      [
        "▁anoth",
        "er"
      ],
      [
        "▁d",
        "'"
      ],
      [
        "i",
        "ly"
      ],
      [
        "oo",
        "k"
      ],
      [
        "▁anal",
        "ys"
      ],
      [
        "▁w",
        "ell"
      ],
      [
        "▁",
        "id"
      ],
      [
        "▁who",
        "m"
      ],
      [
        "▁di",
        "s"
      ],
      [
        "▁an",
        "th"
      ],
      [
        "▁analys",
        "is"
      ],
      [
        "▁h",
        "ur"
      ],
      [
        "▁con",
        "c"
      ],
      [
        "ott",
        "able"
      ],
      [
        "e",
        "ver"
      ],
      [
        "▁rep",
        "e"
      ],
      [
        "p",
        "s"
      ],
      [
        "ar",
        "ds"
      ],
      [
        "▁pl",
        "ans"
      ],
      [
        "▁th",
        "anks"
      ],
      [
        "▁under",
        "st"
      ],
      [
        "▁prov",
        "ides"
      ],
      [
        "a",
        "ll"
      ],
      [
        "am",
        "e"
      ],
      [
        "▁gen",
        "er"
      ],
      [
        "ol",
        "ved"
      ],
      [
        "▁p",
        "il"
      ],
      [
        "▁incl",
        "uding"
      ],
      [
        "ur",
        "s"
      ],
      [
        "▁so",
        "uth"
      ],
      [
        "et",
        "ed"
      ],
      [
        "▁in",
        "te"
      ],
      [
        "▁me",
        "an"
      ],
      [
        "e",
        "el"
      ],
      [
        "▁dec",
        "ided"
      ],
      [
        "ed",
        "uc"
      ],
      [
        "▁j",
        "ust"
      ],
      [
        "▁im",
        "port"
      ],
      [
        "re",
        "s"
      ],
      [
        "▁rest",
        "ric"
      ],
      [
        "▁h",
        "ow"
      ],
      [
        "e",
        "ther"
      ],
      [
        "u",
        "zz"
      ],
      [
        "ul",
        "y"
      ],
      [
        "▁",
        "ll"
      ],
      [
        "▁po",
        "li"
      ],
      [
        "▁ed",
        "uc"
      ],
      [
        "▁!",
        "!"
      ],
      [
        "▁t",
        "ur"
      ],
      [
        "▁str",
        "aw"
      ],
      [
        "▁d",
        "ay"
      ],
      [
        "▁employ",
        "ees"
      ],
      [
        "augh",
        "ter"
      ],
      [
        "s",
        "pite"
      ],
      [
        "▁w",
        "ed"
      ],
      [
        "▁live",
        "s"
      ],
      [
        "ec",
        "k"
      ],
      [
        "▁discuss",
        "ion"
      ],
      [
        "▁em",
        "b"
      ],
      [
        "▁ev",
        "idence"
      ],
      [
        "o",
        "r"
      ],
      [
        "▁c",
        "os"
      ],
      [
        "ad",
        "el"
      ],
      [
        "▁p",
        "en"
      ],
      [
        "ro",
        "duc"
      ],
      [
        "▁cro",
        "s"
      ],
      [
        "or",
        "t"
      ],
      [
        "▁to",
        "gether"
      ],
      [
        "▁ac",
        "cess"
      ],
      [
        "▁wor",
        "k"
      ],
      [
        "a",
        "in"
      ],
      [
        "▁r",
        "oo"
      ],
      [
        "er",
        "y"
      ],
      [
        "d",
        "ing"
      ],
      [
        "▁lo",
        "an"
      ],
      [
        "▁e",
        "tc"
      ],
      [
        "ac",
        "ted"
      ],
      [
        "i",
        "ew"
      ],
      [
        "b",
        "ly"
      ],
      [
        "a",
        "y"
      ],
      [
        "g",
        "ing"
      ],
      [
        "tai",
        "n"
      ],
      [
        "▁pro",
        "per"
      ],
      [
        "ithst",
        "anding"
      ],
      [
        "▁f",
        "ace"
      ],
      [
        "▁let",
        "ter"
      ],
      [
        "▁room",
        "s"
      ],
      [
        "▁ab",
        "o"
      ],
      [
        "ath",
        "er"
      ],
      [
        "▁philadel",
        "phia"
      ],
      [
        "r",
        "ies"
      ],
      [
        "▁hor",
        "se"
      ],
      [
        "▁str",
        "uc"
      ],
      [
        "us",
        "t"
      ],
      [
        "in",
        "ts"
      ],
      [
        "▁l",
        "et"
      ],
      [
        "▁anim",
        "als"
      ],
      [
        "l",
        "an"
      ],
      [
        "▁th",
        "urs"
      ],
      [
        "▁impro",
        "ve"
      ],
      [
        "▁",
        "ans"
      ],
      [
        "k",
        "es"
      ],
      [
        "▁ind",
        "epend"
      ],
      [
        "▁b/",
        "c"
      ],
      [
        "h",
        "ic"
      ],
      [
        "▁run",
        "ning"
      ],
      [
        "o",
        "d"
      ],
      [
        "iv",
        "ers"
      ],
      [
        "um",
        "p"
      ],
      [
        "i",
        "en"
      ],
      [
        "▁r",
        "ights"
      ],
      [
        "▁math",
        "ema"
      ],
      [
        "ast",
        "e"
      ],
      [
        "▁m",
        "ention"
      ],
      [
        "▁th",
        "re"
      ],
      [
        "▁secon",
        "d"
      ],
      [
        "o",
        "c"
      ],
      [
        "l",
        "l"
      ],
      [
        "▁sit",
        "ting"
      ],
      [
        "▁le",
        "a"
      ],
      [
        "▁t",
        "i"
      ],
      [
        "ug",
        "g"
      ],
      [
        "er",
        "gy"
      ],
      [
        "▁p",
        "os"
      ],
      [
        "g",
        "g"
      ],
      [
        "▁b",
        "us"
      ],
      [
        "y",
        "st"
      ],
      [
        "iz",
        "ed"
      ],
      [
        "▁betw",
        "een"
      ],
      [
        "w",
        "hether"
      ],
      [
        "▁proble",
        "ms"
      ],
      [
        "▁pill",
        "ow"
      ],
      [
        "▁att",
        "r"
      ],
      [
        "▁produc",
        "e"
      ],
      [
        "▁h",
        "o"
      ],
      [
        "▁!!!",
        "!!!!!!!!"
      ],
      [
        "in",
        "s"
      ],
      [
        "w",
        "a"
      ],
      [
        "▁inclu",
        "de"
      ],
      [
        "▁laur",
        "a"
      ],
      [
        "▁u",
        "p"
      ],
      [
        "as",
        "ing"
      ],
      [
        "ap",
        "ers"
      ],
      [
        "▁app",
        "ointment"
      ],
      [
        "▁gu",
        "ess"
      ],
      [
        "▁c",
        "ook"
      ],
      [
        "▁sp",
        "r"
      ],
      [
        "o",
        "ss"
      ],
      [
        "▁le",
        "aves"
      ],
      [
        "▁ph",
        "one"
      ],
      [
        "en",
        "ty"
      ],
      [
        "▁l",
        "im"
      ],
      [
        "▁reg",
        "ar"
      ],
      [
        "▁bo",
        "y"
      ],
      [
        "▁int",
        "roduc"
      ],
      [
        "u",
        "g"
      ],
      [
        "▁sandwic",
        "h"
      ],
      [
        "ur",
        "ity"
      ],
      [
        "▁spe",
        "ak"
      ],
      [
        "t",
        "her"
      ],
      [
        "▁n",
        "otw"
      ],
      [
        "h",
        "a"
      ],
      [
        "en",
        "d"
      ],
      [
        "▁e",
        "mp"
      ],
      [
        "▁blan",
        "ket"
      ],
      [
        "▁sur",
        "p"
      ],
      [
        "o",
        "b"
      ],
      [
        "▁t",
        "o"
      ],
      [
        "▁e",
        "x"
      ],
      [
        "▁sle",
        "ep"
      ],
      [
        "cl",
        "ock"
      ],
      [
        "▁be",
        "st"
      ],
      [
        "▁n",
        "oon"
      ],
      [
        "▁res",
        "t"
      ],
      [
        "▁airlin",
        "e"
      ],
      [
        "al",
        "e"
      ],
      [
        "▁m",
        "om"
      ],
      [
        "▁j",
        "u"
      ],
      [
        "▁s",
        "ome"
      ],
      [
        "▁?",
        "!"
      ],
      [
        "ov",
        "er"
      ],
      [
        "el",
        "s"
      ],
      [
        "ash",
        "ington"
      ],
      [
        "▁ev",
        "ery"
      ],
      [
        "▁stre",
        "et"
      ],
      [
        "▁cand",
        "id"
      ],
      [
        "way",
        "s"
      ],
      [
        "r",
        "ow"
      ],
      [
        "▁comm",
        "ents"
      ],
      [
        "▁t",
        "ech"
      ],
      [
        "▁who",
        "se"
      ],
      [
        "▁ch",
        "ang"
      ],
      [
        "e",
        "d"
      ],
      [
        "▁man",
        "y"
      ],
      [
        "▁sp",
        "ell"
      ],
      [
        "▁arri",
        "ve"
      ],
      [
        "▁",
        "isl"
      ],
      [
        "it",
        "ure"
      ],
      [
        "▁b",
        "al"
      ],
      [
        "▁e",
        "ff"
      ],
      [
        "uc",
        "h"
      ],
      [
        "▁wee",
        "k"
      ],
      [
        "f",
        "f"
      ],
      [
        "▁cre",
        "ation"
      ],
      [
        "▁our",
        "s"
      ],
      [
        "▁franc",
        "isco"
      ],
      [
        "▁l",
        "ic"
      ],
      [
        "▁b",
        "ot"
      ],
      [
        "ec",
        "t"
      ],
      [
        "ou",
        "se"
      ],
      [
        "▁",
        "like"
      ],
      [
        "str",
        "uc"
      ],
      [
        "▁fi",
        "le"
      ],
      [
        "a",
        "re"
      ],
      [
        "▁r",
        "oot"
      ],
      [
        "gr",
        "ound"
      ],
      [
        "▁nov",
        "ember"
      ],
      [
        "s",
        "ide"
      ],
      [
        "▁appl",
        "ied"
      ],
      [
        "i",
        "p"
      ],
      [
        "air",
        "s"
      ],
      [
        "▁us",
        "e"
      ],
      [
        "▁t",
        "ape"
      ],
      [
        "▁peop",
        "le"
      ],
      [
        "▁",
        "orders"
      ],
      [
        "!!",
        "!!"
      ],
      [
        "▁le",
        "g"
      ],
      [
        "▁behin",
        "d"
      ],
      [
        "▁pro",
        "jects"
      ],
      [
        "▁m",
        "aint"
      ],
      [
        "sel",
        "f"
      ],
      [
        "ag",
        "e"
      ],
      [
        "ve",
        "st"
      ],
      [
        "▁ever",
        "ybody"
      ],
      [
        "▁iss",
        "ue"
      ],
      [
        "▁b",
        "ee"
      ],
      [
        "▁y",
        "og"
      ],
      [
        "ee",
        "ds"
      ],
      [
        "es",
        "day"
      ],
      [
        "▁s",
        "m"
      ],
      [
        "▁conn",
        "ection"
      ],
      [
        "--------",
        "--"
      ],
      [
        "▁t",
        "old"
      ],
      [
        "e",
        "b"
      ],
      [
        "▁e",
        "ar"
      ],
      [
        "mit",
        "ted"
      ],
      [
        "▁give",
        "s"
      ],
      [
        "▁ele",
        "ments"
      ],
      [
        "lo",
        "w"
      ],
      [
        "▁r",
        "ice"
      ],
      [
        "▁f",
        "ut"
      ],
      [
        "▁pos",
        "ted"
      ],
      [
        "▁attemp",
        "t"
      ],
      [
        "▁li",
        "ve"
      ],
      [
        "▁l",
        "a"
      ],
      [
        "it",
        "y"
      ],
      [
        "▁meth",
        "od"
      ],
      [
        "t",
        "c"
      ],
      [
        "▁m",
        "e"
      ],
      [
        "over",
        "n"
      ],
      [
        "▁butt",
        "on"
      ],
      [
        "▁b",
        "oo"
      ],
      [
        "▁fing",
        "er"
      ],
      [
        "oun",
        "ds"
      ],
      [
        "▁b",
        "ar"
      ],
      [
        "▁me",
        "at"
      ],
      [
        "▁estim",
        "ated"
      ],
      [
        "▁co",
        "l"
      ],
      [
        "▁prov",
        "ide"
      ],
      [
        "▁wil",
        "t"
      ],
      [
        "▁spe",
        "ech"
      ],
      [
        "▁g",
        "re"
      ],
      [
        "▁ref",
        "er"
      ],
      [
        "▁b",
        "ir"
      ],
      [
        "▁w",
        "il"
      ],
      [
        "▁f",
        "an"
      ],
      [
        "▁c",
        "or"
      ],
      [
        "▁",
        "ide"
      ],
      [
        "▁w",
        "ater"
      ],
      [
        "▁tr",
        "uck"
      ],
      [
        "ress",
        "ion"
      ],
      [
        "▁ye",
        "ar"
      ],
      [
        "▁enjo",
        "y"
      ],
      [
        "▁p",
        "ast"
      ],
      [
        "▁h",
        "el"
      ],
      [
        "ang",
        "er"
      ],
      [
        "▁f",
        "orm"
      ],
      [
        "▁mathema",
        "tics"
      ],
      [
        "▁c",
        "ode"
      ],
      [
        "▁coo",
        "k"
      ],
      [
        "▁s",
        "it"
      ],
      [
        "▁h",
        "im"
      ],
      [
        "▁re",
        "t"
      ],
      [
        "▁sec",
        "tion"
      ],
      [
        "▁ps",
        "ych"
      ],
      [
        "i",
        "ence"
      ],
      [
        "▁",
        "ke"
      ],
      [
        "▁s",
        "er"
      ],
      [
        "▁c",
        "amp"
      ],
      [
        "▁aud",
        "ience"
[...]
