{
  "version": "1.0",
  "truncation": null,
  "padding": null,
  "added_tokens": [
    {
      "id": 1248,
      "content": "[PAD]",
      "single_word": false,
      "lstrip": false,
      "rstrip": false,
      "normalized": false,
      "special": true
    },
    {
      "id": 3799,
      "content": "[SEP]",
      "single_word": false,
      "lstrip": false,
      "rstrip": false,
      "normalized": false,
      "special": true
    },
    {
      "id": 6700,
      "content": "[UNK]",
      "single_word": false,
      "lstrip": false,
      "rstrip": false,
      "normalized": false,
      "special": true
    },
    {
      "id": 7587,
      "content": "[CLS]",
      "single_word": false,
      "lstrip": false,
      "rstrip": false,
      "normalized": false,
      "special": true
    },
    {
      "id": 8054,
      "content": "[MASK]",
      "single_word": false,
      "lstrip": false,
      "rstrip": false,
      "normalized": false,
      "special": true
    }
  ],
  "normalizer": {
    "type": "Sequence",
    "normalizers": [
      {
        "type": "NFD"
      },
      {
        "type": "Lowercase"
      },
      {
        "type": "StripAccents"
      }
    ]
  },
  "pre_tokenizer": {
    "type": "Sequence",
    "pretokenizers": [
      {
        "type": "Metaspace",
        "replacement": "▁",
        "prepend_scheme": "always",
        "split": true
      }
    ]
  },
  "post_processor": {
    "type": "TemplateProcessing",
    "single": [
      {
        "SpecialToken": {
          "id": "[CLS]",
          "type_id": 0
        }
      },
      {
        "Sequence": {
          "id": "A",
          "type_id": 0
        }
      },
      {
        "SpecialToken": {
          "id": "[SEP]",
          "type_id": 0
        }
      }
    ],
    "pair": [
      {
        "SpecialToken": {
          "id": "[CLS]",
          "type_id": 0
        }
      },
      {
        "Sequence": {
          "id": "A",
          "type_id": 0
        }
      },
      {
        "SpecialToken": {
          "id": "[SEP]",
          "type_id": 0
        }
      },
      {
        "Sequence": {
          "id": "B",
          "type_id": 1
        }
      },
      {
        "SpecialToken": {
          "id": "[SEP]",
          "type_id": 1
        }
      }
    ],
    "special_tokens": {
      "[CLS]": {
        "id": "[CLS]",
        "ids": [
          7587
        ],
        "tokens": [
          "[CLS]"
        ]
      },
      "[SEP]": {
        "id": "[SEP]",
        "ids": [
          3799
        ],
        "tokens": [
          "[SEP]"
        ]
      }
    }
  },
  "decoder": {
    "type": "Metaspace",
    "replacement": "▁",
    "prepend_scheme": "always",
    "split": true
  },
  "model": {
    "type": "Unigram",
    "unk_id": 6700,
    "vocab": [
      [
        "▁locate",
        -8.166922333003015
      ],
      [
        "▁sew",
        -10.208832463836742
      ],
      [
        "n",
        -4.5571833613477795
      ],
      [
        "engin",
        -10.707346606063489
      ],
      [
        "▁conference",
        -8.244049964880816
      ],
      [
        "▁folder",
        -10.048991426979585
      ],
      [
        "n",
        -2.150777991036591
      ],
      [
        "▁sara",
        -6.708077875948277
      ],
      [
        "▁stream",
        -9.188013249515407
      ],
      [
        "▁deep",
        -8.049552933843788
      ],
      [
        "▁arro",
        -10.48379927902003
      ],
      [
        "▁lo",
        -7.004097451879866
      ],
      [
        "v",
        -9.394206695612269
      ],
      [
        "▁mitigate",
        -10.500950075377386
      ],
      [
        "▁:",
        -3.3193574782257853
      ],
      [
        "nex",
        -7.029111693797479
      ],
      [
        "▁friday",
        -6.956060737935167
      ],
      [
        "▁tuck",
        -10.677733780124745
      ],
      [
        "▁regulation",
        -8.563391965210002
      ],
      [
        "▁packet",
        -10.479189181539331
      ],
      [
        "clear",
        -7.514909521601847
      ],
      [
        "▁promote",
        -8.608173117278714
      ],
      [
        "▁drive",
        -9.271767360249664
      ],
      [
        "▁reg",
        -7.352584032445206
      ],
      [
        "▁col",
        -9.436715988311192
      ],
      [
        "▁imbalance",
        -10.478087883550936
      ],
      [
        "▁liv",
        -7.570239989097204
      ],
      [
        "▁seven",
        -5.479252271885461
      ],
      [
        "▁suppress",
        -10.375392385625027
      ],
      [
        "▁activist",
        -10.4781424038726
      ],
      [
        "▁fl",
        -9.123103646870387
      ],
      [
        "▁report",
        -6.963132212518332
      ],
      [
        "r",
        -4.3481861650490226
      ],
      [
        "▁for",
        -9.860075519042377
      ],
      [
        "▁motor",
        -9.321742067331062
      ],
      [
        "▁fixed",
        -7.9833664899746974
      ],
      [
        "▁marke",
        -9.593447865678039
      ],
      [
        "▁butter",
        -10.375994616189736
      ],
      [
        "▁cheek",
        -9.116271362969329
      ],
      [
        "▁butterfl",
        -9.741785089965461
      ],
      [
        "▁mill",
        -5.806332795739784
      ],
      [
        "▁tray",
        -9.411455879310777
      ],
      [
        "▁demand",
        -9.02713163726283
      ],
      [
        "▁ooz",
        -10.75961585141122
      ],
      [
        "ting",
        -6.1285489463278005
      ],
      [
        "▁surprise",
        -8.428916050822538
      ],
      [
        "▁chatt",
        -9.936794027109697
      ],
      [
        "our",
        -9.506348543388656
      ],
      [
        "[",
        -6.162592258851914
      ],
      [
        "▁r",
        -8.416822945073925
      ],
      [
        "▁shoulder",
        -8.643210874321593
      ],
      [
        "ving",
        -10.055450030235304
      ],
      [
        "hav",
        -7.464751966707237
      ],
      [
        "▁***",
        -11.706988063870577
      ],
      [
        "▁outcome",
        -9.116068155599613
      ],
      [
        "▁de",
        -6.58338535255037
      ],
      [
        "se",
        -9.772779987905816
      ],
      [
        "▁attract",
        -8.538253893795229
      ],
      [
        "phi",
        -7.256567440791214
      ],
      [
        "▁call",
        -7.336245523868773
      ],
      [
        "bino",
        -10.45468898571599
      ],
      [
        "▁lantern",
        -9.932452565430061
      ],
      [
        "▁un",
        -8.043236926596181
      ],
      [
        "s",
        -3.9323488869734176
      ],
      [
        "▁mut",
        -10.403303306773568
      ],
      [
        "ou",
        -7.021157929762654
      ],
      [
        "▁database",
        -8.458505744186802
      ],
      [
        "▁musician",
        -9.83296434615012
      ],
      [
        "▁lead",
        -8.916592703493912
      ],
      [
        "▁jur",
        -10.328791073818557
      ],
      [
        "▁industr",
        -7.900611714730796
      ],
      [
        "▁benefit",
        -8.68921933497451
      ],
      [
        "▁diar",
        -10.172641777439292
      ],
      [
        "tual",
        -7.506818670346741
      ],
      [
        "kes",
        -10.476009255858894
      ],
      [
        "w",
        -4.78514370794099
      ],
      [
        "▁connect",
        -7.758087071008227
      ],
      [
        "▁low",
        -7.220900580056894
      ],
      [
        "▁rainbow",
        -9.932452579725524
      ],
      [
        "▁",
        -2.6211102193894833
      ],
      [
        "ember",
        -8.225164263272159
      ],
      [
        "▁rep",
        -9.867386652042782
      ],
      [
        "▁think",
        -4.867037107920854
      ],
      [
        "▁an",
        -9.820616148417278
      ],
      [
        "▁section",
        -7.943632582100809
      ],
      [
        "ice",
        -7.482348072578887
      ],
      [
        "▁scholars",
        -9.138665206539113
      ],
      [
        "b",
        -6.825311492901869
      ],
      [
        "▁cry",
        -8.09243984520767
      ],
      [
        "▁wall",
        -7.759629534966782
      ],
      [
        "2",
        -3.9783356324857158
      ],
      [
        "▁playwright",
        -9.658210169834543
      ],
      [
        "ingle",
        -7.897197518814679
      ],
      [
        "▁implicate",
        -10.17540080547015
      ],
      [
        "▁leadership",
        -9.164731686197655
      ],
      [
        "tho",
        -10.448055372352602
      ],
      [
        "/",
        -9.832395102276868
      ],
      [
        "▁occur",
        -8.661361815316441
      ],
      [
        "rism",
        -10.079538751435921
      ],
      [
        "y",
        -9.93729819650814
      ],
      [
        "▁creation",
        -8.676903004621924
      ],
      [
        "50",
        -7.18634710901155
      ],
      [
        "pa",
        -7.916017963695063
      ],
      [
        "!!!!!!!!!!!!",
        -12.386019684959303
      ],
      [
        "▁dish",
        -8.351199429928243
      ],
      [
        "▁underst",
        -9.122260045145696
      ],
      [
        "▁muggle",
        -9.509860153486773
      ],
      [
        "▁goo",
        -9.83401421982768
      ],
      [
        "s",
        -3.279426749827511
      ],
      [
        "▁oz",
        -9.137037997620245
      ],
      [
        "e",
        -9.262538749109531
      ],
      [
        "▁girl",
        -6.652866541060703
      ],
      [
        "▁glow",
        -9.832512054312152
      ],
      [
        "▁par",
        -9.481767775105316
      ],
      [
        "▁label",
        -10.355302092054442
      ],
      [
        "wear",
        -9.50268727033338
      ],
      [
        "ry",
        -7.1451002946473805
      ],
      [
        "real",
        -7.612048952252001
      ],
      [
        "ful",
        -5.211743761945356
      ],
      [
        "▁angel",
        -10.168612135359549
      ],
      [
        "▁relationship",
        -8.242724594014302
      ],
      [
        "▁touch",
        -8.870051957093908
      ],
      [
        "▁seat",
        -10.18696325285451
      ],
      [
        "▁greate",
        -7.738053124962482
      ],
      [
        "▁train",
        -6.973347792705907
      ],
      [
        "j",
        -7.504078469675666
      ],
      [
        "▁white",
        -10.312417600768068
      ],
      [
        "▁commemorate",
        -10.625392293112027
      ],
      [
        "▁whom",
        -8.815811107281924
      ],
      [
        "▁librarian",
        -9.4432965331377
      ],
      [
        "force",
        -9.627659653326434
      ],
      [
        "▁wai",
        -10.291549407806876
      ],
      [
        "▁butter",
        -8.345608358905267
      ],
      [
        "▁specification",
        -9.93378901450235
      ],
      [
        "ate",
        -8.345146874577495
      ],
      [
        "m",
        -8.111314411788435
      ],
      [
        "▁fai",
        -9.057290752734982
      ],
      [
        "▁eng",
        -10.25273593114125
      ],
      [
        "l",
        -4.943432235573655
      ],
      [
        "▁honey",
        -7.772873581494038
      ],
      [
        "▁vision",
        -9.581746079296831
      ],
      [
        "com",
        -7.229702869451937
      ],
      [
        "▁motivate",
        -10.561331268320581
      ],
      [
        "▁rib",
        -10.240881038840335
      ],
      [
        "▁shi",
        -10.039041304799149
      ],
      [
        "▁uni",
        -6.803378237432464
      ],
      [
        "▁joy",
        -10.327234075088032
      ],
      [
        "ession",
        -10.218008038749364
      ],
      [
        "▁abuse",
        -9.670066704243322
      ],
      [
        "▁remark",
        -9.758327908940744
      ],
      [
        "▁s",
        -12.226333961823995
      ],
      [
        "▁mate",
        -10.34177484414501
      ],
      [
        "tic",
        -9.403450833930673
      ],
      [
        "▁dis",
        -7.686855991575791
      ],
      [
        "oil",
        -10.310156890257772
      ],
      [
        "▁bless",
        -9.745754466589428
      ],
      [
        "▁h",
        -7.208532579738515
      ],
      [
        "▁cann",
        -10.48217990370259
      ],
      [
        "▁kar",
        -7.921872251290367
      ],
      [
        "i",
        -11.770631529841472
      ],
      [
        "▁cit",
        -6.592476101966077
      ],
      [
        "▁anyway",
        -6.660623151807425
      ],
      [
        "▁fa",
        -8.989612508099995
      ],
      [
        "▁will",
        -4.287029515795241
      ],
      [
        "▁complete",
        -7.888096531461802
      ],
      [
        "▁timing",
        -9.832468279306786
      ],
      [
        "▁recording",
        -9.642270070504843
      ],
      [
        "▁rang",
        -8.982017603045382
      ],
      [
        "▁democrat",
        -7.7140240841918475
      ],
      [
        "▁caul",
        -10.47962425780909
      ],
      [
        "▁publisher",
        -10.16944571848499
      ],
      [
        "▁sensor",
        -10.044169751712335
      ],
      [
        "▁poo",
        -9.557943873343037
      ],
      [
        "nouncement",
        -10.044864115354393
      ],
      [
        "▁color",
        -7.3440757188292105
      ],
      [
        "▁top",
        -7.4698426614965
      ],
      [
        "cam",
        -9.914933689913788
      ],
      [
        "▁node",
        -10.31191411472076
      ],
      [
        "▁manipulate",
        -10.548907462218708
      ],
      [
        "▁attorney",
        -9.163681151991021
      ],
      [
        "rage",
        -10.478910153392315
      ],
      [
        "▁the",
        -11.09220806935517
      ],
      [
        "▁play",
        -7.535513835809167
      ],
      [
        "▁form",
        -8.023580180085943
      ],
      [
        "rate",
        -8.26366824356731
      ],
      [
        "▁psycholog",
        -9.3802825774339
      ],
      [
        "i",
        -2.7294335593499106
      ],
      [
        "▁cease",
        -10.009110307138279
      ],
      [
        "el",
        -6.640374812380944
      ],
      [
        "▁activate",
        -10.3754018050035
      ],
      [
        "▁authorize",
        -10.18525116997398
      ],
      [
        "▁200",
        -4.117685212654388
      ],
      [
        "1",
        -12.707635305583393
      ],
      [
        "▁compli",
        -10.167324929111334
      ],
      [
        "▁directive",
        -8.049027921285177
      ],
      [
        "▁oath",
        -9.509859222559164
      ],
      [
        "▁members",
        -7.860637932939478
      ],
      [
        "ind",
        -8.429079748863852
      ],
      [
        "▁lack",
        -8.703374223642642
      ],
      [
        "▁sign",
        -7.643620500304603
      ],
      [
        "▁mid-",
        -9.582526894199662
      ],
      [
        "▁scrape",
        -10.115874190852734
      ],
      [
        "▁cart",
        -9.959941675902243
      ],
      [
        "▁excell",
        -6.7968984467651445
      ],
      [
        "▁'",
        -9.87189667263921
      ],
      [
        "▁railway",
        -9.74199521747331
      ],
      [
        "h",
        -10.741453583244953
      ],
      [
        "▁accent",
        -10.47820402302978
      ],
      [
        "▁\"",
        -8.960736102532653
      ],
      [
        "▁earth",
        -7.984353915178017
      ],
      [
        "centralize",
        -10.625529116693837
      ],
      [
        "▁accompan",
        -9.74221665893101
      ],
      [
        "▁justice",
        -9.27507449992458
      ],
      [
        "▁commence",
        -10.625801526851067
      ],
      [
        "▁conclusion",
        -8.73425234521461
      ],
      [
        "▁sponge",
        -10.311491654487323
      ],
      [
        "▁capacit",
        -8.204518063493495
      ],
      [
        "▁waitress",
        -9.658231901809
      ],
      [
        "▁criminal",
        -9.833552029651655
      ],
      [
        "▁attitude",
        -9.070608597862904
      ],
      [
        "▁fre",
        -7.978836288004459
      ],
      [
        "▁color",
        -8.649343940973306
      ],
      [
        "▁strateg",
        -8.482877882294718
      ],
      [
        "▁horror",
        -9.443191820153338
      ],
      [
        "▁infant",
        -10.478212970368645
      ],
      [
        "p",
        -11.810278406305967
      ],
      [
        "ound",
        -5.61124075279864
      ],
      [
        "▁graduate",
        -9.446778138083845
      ],
      [
        "▁doughnut",
        -8.907008295908097
      ],
      [
        "▁evaluat",
        -9.931538360528727
      ],
      [
        "▁woke",
        -8.96938748504948
      ],
      [
        "▁credit",
        -10.1754412401974
      ],
      [
        "fu",
        -10.147369292473178
      ],
      [
        "▁option",
        -7.566828296068894
      ],
      [
        "▁guitar",
        -10.043565142828353
      ],
      [
        "▁wild",
        -8.003772153127969
      ],
      [
        "vacu",
        -10.043231366644038
      ],
      [
        "▁burst",
        -10.478093199622258
      ],
      [
        "▁steal",
        -9.2840917300488
      ],
      [
        "▁go",
        -3.9477519069450997
      ],
      [
        "▁ma",
        -7.827685379064292
      ],
      [
        "▁perform",
        -7.9516644364622575
      ],
      [
        "▁inhabit",
        -10.625392670092056
      ],
      [
        "▁individual",
        -8.507877770180214
      ],
      [
        "▁country",
        -6.854178915912964
      ],
      [
        "▁limit",
        -8.544266779409964
      ],
      [
        "right",
        -7.391738418087057
      ],
      [
        "▁philosoph",
        -9.577400967818857
      ],
      [
        "▁someon",
        -6.931479858311979
      ],
      [
        "▁b",
        -6.7872318813053925
      ],
      [
        "▁ship",
        -10.621902681605421
      ],
      [
        "▁chang",
        -8.008629503993417
      ],
      [
        "▁hope",
        -6.850381843185085
      ],
      [
        "▁f",
        -7.230311391890082
      ],
      [
        "▁amus",
        -10.62733728247659
      ],
      [
        "▁dress",
        -7.954474158369253
      ],
      [
        "▁transaction",
        -8.559846769219114
      ],
      [
        "under",
        -9.182318398461064
      ],
      [
        "▁14",
        -6.303665993373418
      ],
      [
        "▁st",
        -10.08760846111259
      ],
      [
        "▁little",
        -4.980723849944373
      ],
      [
        "▁wit",
        -9.870262402186079
      ],
      [
        "▁averag",
        -9.266441667938484
      ],
      [
        "an",
        -6.1992261327886515
      ],
      [
        "▁fil",
        -9.460566844549659
      ],
      [
        "▁remain",
        -7.1574462234480425
      ],
      [
        "ww",
        -11.310312733422174
      ],
      [
        "▁south",
        -8.766453831079225
      ],
      [
        "▁age",
        -7.404160730253256
      ],
      [
        "z",
        -6.815512705175173
      ],
      [
        "▁beak",
        -10.176123964362276
      ],
      [
        "tha",
        -8.930932078915008
      ],
      [
        "▁oblig",
        -10.174579693673177
      ],
      [
        "▁preach",
        -10.37663299543736
      ],
      [
        "▁shrugg",
        -10.177679289386054
      ],
      [
        "▁propose",
        -7.770609407272636
      ],
      [
        "▁love",
        -6.439965781634038
      ],
      [
        "▁program",
        -7.665700442420566
      ],
      [
        "u",
        -6.253982068141724
      ],
      [
        "▁?",
        -7.157961543371248
      ],
      [
        "f",
        -7.281137016091158
      ],
      [
        "ago",
        -6.519689936574883
      ],
      [
        "▁help",
        -7.5255066393686025
      ],
      [
        "d",
        -7.194719984116379
      ],
      [
        "a",
        -4.730462131174871
      ],
      [
        "▁clear",
        -7.455924141981425
      ],
      [
        "who",
        -7.94396558235722
      ],
      [
        "▁gra",
        -9.523490718862767
      ],
      [
        "▁feel",
        -6.135129679347383
      ],
      [
        "▁motive",
        -9.581355963563272
      ],
      [
        "▁list",
        -5.604972914754906
      ],
      [
        "▁",
        -3.252429650460364
      ],
      [
        "nut",
        -10.288200556941751
      ],
      [
        "▁occupie",
        -10.015946637038471
      ],
      [
        "▁exchange",
        -9.252106009712
      ],
      [
        "onnais",
        -10.033962971200078
      ],
      [
        "mber",
        -8.428850243476228
      ],
      [
        "▁trader",
        -9.219024373170907
      ],
      [
        "▁distinguish",
        -9.556022176177768
      ],
      [
        "▁supermarket",
        -9.443191817184985
      ],
      [
        "▁bid",
        -10.666267492317656
      ],
      [
        "▁spokes",
        -9.581358810417829
      ],
      [
        "▁aid",
        -9.234380153531887
      ],
      [
        "▁charg",
        -10.289108727356956
      ],
      [
        "▁arrow",
        -9.071536538535595
      ],
      [
        "▁warp",
        -10.632310877106509
      ],
      [
        "▁cia",
        -8.198506413697594
      ],
      [
        "▁one",
        -6.966178114737579
      ],
      [
        "▁salt",
        -8.281535079839756
      ],
      [
        "ide",
        -10.675129494301862
      ],
      [
        "▁seem",
        -6.245683384999831
      ],
      [
        "▁red",
        -6.333813204650047
      ],
      [
        "▁requirement",
        -8.132407594684235
      ],
      [
        "▁kill",
        -7.261076649944989
      ],
      [
        "▁bubble",
        -8.907008476333349
      ],
      [
        "▁camera",
        -8.458487537244492
      ],
      [
        "▁general",
        -6.982809582124102
      ],
      [
        "▁drama",
        -9.258543574994519
      ],
      [
        "▁concern",
        -8.185990702299588
      ],
      [
        "▁g",
        -7.240861415586581
      ],
      [
        "▁sweet",
        -8.766434303634366
      ],
      [
        "▁manage",
        -8.279946590380614
      ],
      [
        "▁guarant",
        -10.04348316459972
      ],
      [
        "▁blu",
        -10.264892380433732
      ],
      [
        "▁lake",
        -10.3121927841109
      ],
      [
        "▁bigge",
        -7.0789892227515505
      ],
      [
        "ampa",
        -7.644370876896232
      ],
      [
        "▁encompass",
        -9.869340368750908
      ],
      [
        "▁matche",
        -10.01697968965513
      ],
      [
        "▁expresse",
        -9.135886798223652
      ],
      [
        "me",
        -9.191639290919905
      ],
      [
        "$",
        -11.28153641900687
      ],
      [
        "▁hint",
        -9.509882947625258
      ],
      [
        "▁notif",
        -10.048149316979883
      ],
      [
        "▁d",
        -8.180990272888579
      ],
      [
        "col",
        -9.956482041849828
      ],
      [
        "▁fig",
        -7.957163091925719
      ],
      [
        "▁island",
        -7.745754885999825
      ],
      [
        "rigi",
        -7.974450967473273
      ],
      [
        "▁micro",
        -8.07431796304851
      ],
      [
        "▁mo",
        -10.906975434010418
      ],
      [
        "roid",
        -10.483979088458312
      ],
      [
        "uar",
        -9.844558890394302
      ],
      [
        "▁holiday",
        -8.834250061649984
      ],
      [
        "▁pa",
        -7.778262954335982
      ],
      [
        "▁reception",
        -9.510043840464514
      ],
      [
        "▁patron",
        -9.658555747168112
      ],
      [
        "▁attain",
        -9.869265782222177
      ],
      [
        "fish",
        -10.141618837800078
      ],
      [
        "enter",
        -10.448906609960483
      ],
      [
        "o",
        -4.216708095359283
      ],
      [
        "▁tee",
        -9.365736800867614
      ],
      [
        "▁love",
        -7.769609219161098
      ],
      [
        "▁facult",
        -9.44319272643382
      ],
      [
        "▁flame",
        -10.170222440554689
      ],
      [
        "▁quiet",
        -7.850034831659617
      ],
      [
        "▁vlog",
        -10.008831551294959
      ],
      [
        "▁pu",
        -9.421400638928933
      ],
      [
        "▁je",
        -7.994743827829811
      ],
      [
        "worth",
        -9.935261138702403
      ],
      [
        "▁breath",
        -9.653386112499978
      ],
      [
        "zer",
        -8.173010513886414
      ],
      [
        "▁locat",
        -10.014799854193837
      ],
      [
        "▁hisse",
        -10.712794934432027
      ],
      [
        "▁e",
        -7.996946345375491
      ],
      [
        "cult",
        -7.993425275938588
      ],
      [
        "▁scan",
        -10.478473965379566
      ],
      [
        "▁scar",
        -10.69003828946456
      ],
      [
        "▁curr",
        -10.055949205994885
      ],
      [
        "!!",
        -8.56163946564786
      ],
      [
        "a",
        -4.130361687978228
      ],
      [
        "▁respect",
        -8.150276411558004
      ],
      [
        "▁weight",
        -8.562546749387387
      ],
      [
        "ach",
        -9.15221593122612
      ],
      [
        "▁wage",
        -10.14960788978259
      ],
      [
        "ade",
        -10.292959900391407
      ],
      [
        "▁inform",
        -8.411798429957743
      ],
      [
        "▁proportion",
        -10.04356394719373
      ],
      [
        "▁of",
        -5.372005060076645
      ],
      [
        "*",
        -8.693194179626392
      ],
      [
        "▁knock",
        -8.290881246865812
      ],
      [
        "▁colon",
        -9.682707836136814
      ],
      [
        "▁sensi",
        -10.259634186240534
      ],
      [
        "▁interview",
        -8.16745992254551
      ],
      [
        "▁punch",
        -8.91668404709228
      ],
      [
        "▁dis",
        -9.010239066066248
      ],
      [
        "ulation",
        -10.00868232657313
      ],
      [
        "▁economist",
        -9.937637885213325
      ],
      [
        "▁an",
        -7.614192597341788
      ],
      [
        "▁shee",
        -9.603928238961373
      ],
      [
        "▁badge",
        -10.30885824809411
      ],
      [
        "▁thr",
        -10.763747459831114
      ],
      [
        "id",
        -7.622788689834058
      ],
      [
        "▁whisper",
        -9.869148079236325
      ],
      [
        "▁serv",
        -8.487206372820735
      ],
      [
        "▁grammar",
        -8.907019801113048
      ],
      [
        "▁discourag",
        -9.869337980415718
      ],
      [
        "▁permission",
        -9.581468536653155
      ],
      [
        "▁land",
        -8.482368756490764
      ],
      [
        "r",
        -3.544374778346116
      ],
      [
        "us",
        -8.503979686221008
      ],
      [
        "▁proto",
        -10.314174034422617
      ],
      [
        "inst",
        -6.754258181145743
      ],
      [
        "▁mont",
        -7.067933171742555
      ],
      [
        "▁hole",
        -7.90442746601085
      ],
      [
        "▁locomoti",
        -9.93245259023408
      ],
      [
        "▁with",
        -3.805476671507483
      ],
      [
        "per",
        -9.673279734835035
      ],
      [
        "▁tosse",
        -10.644474014296277
      ],
      [
        "z",
        -7.2273651699969585
      ],
      [
        "▁traged",
        -9.116064425378191
      ],
      [
        "▁da",
        -10.35111731043217
      ],
      [
        "”",
        -6.5176806785063475
      ],
      [
        "▁jack",
        -10.311088618001431
      ],
      [
        "▁fe",
        -9.262496345229783
      ],
      [
        "▁gall",
        -9.808771246835265
      ],
      [
        "▁hatch",
        -10.617539123774906
      ],
      [
        "▁f",
        -11.570644583811621
      ],
      [
        "▁license",
        -7.714373685688653
      ],
      [
        "▁prison",
        -9.928667370485803
      ],
      [
        "▁carpet",
        -9.933102369277792
      ],
      [
        "▁pro",
        -9.10414228362317
      ],
      [
        "▁prospect",
        -9.582539537829536
      ],
      [
        "°",
        -9.832452555148787
      ],
      [
        "▁frank",
        -8.179533920758432
      ],
      [
        "ault",
        -9.716054188117003
      ],
      [
        "▁lead",
        -7.517633113995592
      ],
      [
        "▁stole",
        -9.362240009490458
      ],
      [
        "▁new",
        -5.5761894490178125
      ],
      [
        "▁wor",
        -8.534574165976904
      ],
      [
        "▁syria",
        -8.108670785999486
      ],
      [
        "▁bron",
        -9.833236143357812
      ],
      [
        "▁request",
        -8.139182503322722
      ],
      [
        "▁revolution",
        -9.322019669254402
      ],
      [
        "▁fact",
        -6.900568273749044
      ],
      [
        "▁deposit",
        -10.37539549684611
      ],
      [
        "*****",
        -11.55114666431147
      ],
      [
        "▁rack",
        -10.317762365568012
      ],
      [
        "▁supporter",
        -9.344505160986092
      ],
      [
        "other",
        -7.551296391859834
      ],
      [
        "▁generate",
        -8.75601484485504
      ],
      [
        "▁o",
        -7.903254943525872
      ],
      [
        "▁migrate",
        -9.78019301592639
      ],
      [
        "▁replication",
        -8.766446382709848
      ],
      [
        "▁cane",
        -10.236130633693405
      ],
      [
        "▁height",
        -9.380717963105575
      ],
      [
        "▁somethin",
        -5.952656046882825
      ],
      [
        "▁bio",
        -10.161326626329021
      ],
      [
        "ar",
        -7.075727222635783
      ],
      [
        "3",
        -9.480108316315999
      ],
      [
        "▁dose",
        -9.325416295288932
      ],
      [
        "▁sir",
        -9.58284703325004
      ],
      [
        "▁’",
        -11.653797199629468
      ],
      [
        "▁bird",
        -7.347206656012191
      ],
      [
        "ione",
        -10.699701126281177
      ],
      [
        "ave",
        -6.872084745117334
      ],
      [
        "ll",
        -7.831638582495884
      ],
      [
        "▁plane",
        -7.9561906955276624
      ],
      [
        "▁young",
        -6.413958168445247
      ],
      [
        "▁reduce",
        -8.26761350312115
      ],
      [
        "▁bel",
        -7.316235749878892
      ],
      [
        "▁mother",
        -6.8068784291021425
      ],
      [
        "ar",
        -7.063891730229105
      ],
      [
        "▁leav",
        -5.943353927407217
      ],
      [
        "▁athen",
        -8.076943408315529
      ],
      [
        "▁lower",
        -7.7163377428889
      ],
      [
        "▁bet",
        -9.957584459095639
      ],
      [
        "▁ii",
        -6.7287787636930885
      ],
      [
        "▁wh",
        -8.504649692519411
      ],
      [
        "▁go",
        -6.738425845394444
      ],
      [
        "▁readers",
        -9.269982115523732
      ],
      [
        "▁acknowledg",
        -10.550659359353405
      ],
      [
        "room",
        -8.47792644557118
      ],
      [
        "▁30",
        -5.898121181112609
      ],
      [
        "▁cord",
        -9.743720257441481
      ],
      [
        "▁bill",
        -8.221764581882343
      ],
      [
        "stain",
        -10.313602985264431
      ],
      [
        "▁hi",
        -5.3515630451182075
      ],
      [
        "▁decision",
        -7.584056805706683
      ],
      [
        "▁host",
        -9.21702998140385
      ],
      [
        "▁curl",
        -10.433978993793176
      ],
      [
        "esday",
        -7.192489382513204
      ],
      [
        "▁jobs",
        -9.303174638695168
      ],
      [
        "day",
        -7.523400618805456
      ],
      [
        "▁court",
        -8.204640848956114
      ],
      [
        "odd",
        -10.298082530141267
      ],
      [
        "▁sil",
        -9.167491366872182
      ],
      [
        "▁post",
        -8.320156272051111
      ],
      [
        "▁sting",
        -10.153307100770103
      ],
      [
        "▁dispatch",
        -10.625392605441588
      ],
      [
        "▁cricket",
        -10.478087682774307
      ],
      [
        "▁b",
        -5.98839735228727
      ],
      [
        "introduce",
        -10.850332213879803
      ],
      [
        "▁policy",
        -7.910434335849835
      ],
      [
        "read",
        -5.745973914349878
      ],
      [
        "▁sent",
        -7.317329916154069
      ],
      [
        "▁implement",
        -8.187586598347401
      ],
      [
        "▁franc",
        -7.644516973376021
      ],
      [
        "▁admitt",
        -9.049564673083047
      ],
      [
        "▁wav",
        -9.772682585420625
      ],
      [
        "▁scrambl",
        -10.842858263543656
      ],
      [
        "▁centre",
        -8.907629684436392
      ],
      [
        "▁un",
        -9.431828910884361
      ],
      [
        "▁wail",
        -10.765240434870135
      ],
      [
        "▁ec",
        -9.687794266609536
      ],
      [
        "▁else",
        -6.193820371878903
      ],
      [
        "k",
        -12.28153641900687
      ],
      [
        "▁",
        -1.429224151881007
      ],
      [
        "rit",
        -8.96812795202858
      ],
      [
        "▁blog",
        -9.122105971108859
      ],
      [
        "▁neck",
        -8.098955384465267
      ],
      [
        "inst",
        -8.782413885317776
      ],
      [
        "****************",
        -9.642473869126556
      ],
      [
        "▁tast",
        -10.159301268178474
      ],
      [
        "▁west",
        -7.364491912356218
      ],
      [
        "▁surger",
        -9.031069330271883
      ],
      [
        "▁gon",
        -5.350338757148288
      ],
      [
        "▁panel",
        -9.322443888839652
      ],
      [
        "▁dignit",
        -9.830751568193135
      ],
      [
        "▁mi",
        -10.584066668701825
      ],
      [
        "▁ame",
        -7.447810755203394
      ],
      [
        "▁tumbl",
        -10.401256496060585
      ],
      [
        "▁nightmare",
        -10.168566008552348
      ],
      [
        "▁endure",
        -10.262424684064626
      ],
      [
        "▁collaps",
        -10.745363384409876
      ],
      [
        "▁brush",
        -10.05336101420004
      ],
      [
        "▁notify",
        -9.870591608504503
      ],
      [
        "ident",
        -8.330886959715489
      ],
      [
        "e",
        -2.2184347982162924
      ],
      [
        "▁black",
        -6.4204126115163564
      ],
      [
        "▁leave",
        -5.929274021604734
      ],
      [
        "▁disturb",
        -9.744563884475317
      ],
      [
        "▁barber",
        -10.314253690311222
      ],
      [
        "gence",
        -9.482760417865883
      ],
      [
        "▁plott",
        -10.635998005245568
      ],
      [
        "▁wander",
        -8.971707719183435
      ],
      [
        "▁grave",
        -9.871797101247015
      ],
      [
        "▁determine",
        -8.031306582582058
      ],
      [
        "ian",
        -9.46893123016394
      ],
      [
        "▁expans",
        -9.44322366882754
      ],
      [
        "▁appreciate",
        -8.071396535783002
      ],
      [
        "bye",
        -10.141625867656577
      ],
      [
        "▁impr",
        -9.640881819993131
      ],
      [
        "▁park",
        -9.212673940397465
      ],
      [
        "en",
        -7.180907493805097
      ],
      [
        "▁novel",
        -8.242908576035044
      ],
      [
        "igh",
        -5.036196688107231
      ],
      [
        "0",
        -3.7401553914094876
      ],
      [
        "▁clinic",
        -9.658210172168541
      ],
      [
        "▁restaurant",
        -7.400886071833667
      ],
      [
        "▁route",
        -8.734975074165328
      ],
      [
        "▁crom",
        -7.74787495890336
      ],
      [
        "▁culture",
        -7.7127541932162895
      ],
      [
        "▁pet",
        -8.290529470470274
      ],
      [
        "▁ip",
        -10.483291272598823
      ],
      [
        "▁like",
        -4.758550093217762
      ],
      [
        "▁desp",
        -10.033352711740962
      ],
      [
        "▁anim",
        -10.048456932340962
      ],
      [
        "▁tali",
        -7.9995452276624786
      ],
      [
        "▁inherit",
        -10.175392321062581
      ],
      [
        "▁financ",
        -10.470228956712347
      ],
      [
        "f",
        -10.765301919425882
      ],
      [
        "▁coordinat",
        -9.212918356216173
      ],
      [
        "▁guide",
        -10.114764973786704
      ],
      [
        "▁rat",
        -8.197304579622816
      ],
      [
        "▁inspire",
        -8.503818338936204
      ],
      [
        "▁yoursel",
        -11.298076311955574
      ],
      [
        "sept",
        -8.801078870632507
      ],
      [
        "▁tu",
        -7.134000349017217
      ],
      [
        "▁part",
        -8.781281502187037
      ],
      [
        "able",
        -4.583743775946479
      ],
      [
        "▁their",
        -5.253175569214527
      ],
      [
        "▁graduat",
        -10.44486437396971
      ],
      [
        "▁allocate",
        -9.462375263949822
      ],
      [
        "▁surpris",
        -10.71640502089398
      ],
      [
        "▁um",
        -3.615304440315332
      ],
      [
        "▁balance",
        -8.631981310546628
      ],
      [
        "pot",
        -10.343140227676688
      ],
      [
        "▁cost",
        -7.911166214463438
      ],
      [
        "▁want",
        -4.408770320777205
      ],
      [
        "▁earth",
        -8.06571974046967
      ],
      [
        "▁witch",
        -8.94574356719767
      ],
      [
        "ivet",
        -10.22412569060061
      ],
      [
        "▁note",
        -7.973592860336893
      ],
      [
        "▁phone",
        -10.678461662260656
      ],
      [
        "▁wif",
        -7.382745561120394
      ],
      [
        "▁art",
        -7.5604972035179125
      ],
      [
        "imon",
        -10.1583184081023
      ],
      [
        "▁non",
        -7.694218461362328
      ],
      [
        "▁boil",
        -9.868877784661217
      ],
      [
        "▁earl",
        -7.23689365952583
      ],
      [
        "▁tip",
        -9.744051507668884
      ],
      [
        "▁delay",
        -9.5812995236302
      ],
      [
        "▁preparation",
        -9.510744207159851
      ],
      [
        "▁dislike",
        -10.478087604011655
      ],
      [
        "▁examination",
        -9.834506141507767
      ],
      [
        "▁arrival",
        -8.834252214658576
      ],
      [
        "▁background",
        -8.870225562580584
      ],
      [
        "▁movie",
        -7.368615550236844
      ],
      [
        "▁th",
        -6.197413388272319
      ],
      [
        "▁passe",
        -8.470532806029887
      ],
      [
        "▁lap",
        -9.735332495331296
      ],
      [
        "▁ribbon",
        -9.38069189248817
      ],
      [
        "ve",
        -6.02777294669952
      ],
      [
        "▁department",
        -8.344735434402905
      ],
      [
        "▁wonder",
        -9.932470215977764
      ],
      [
        "▁sink",
        -9.117489400141833
      ],
      [
        "▁yield",
        -9.868829274536594
      ],
      [
        "▁boast",
        -10.008850755536388
      ],
      [
        "▁cur",
        -7.133100595910538
      ],
      [
        "▁project",
        -7.2878303884677615
      ],
      [
        "▁rename",
        -10.628866428241622
      ],
      [
        "ct",
        -8.657546139744671
      ],
      [
        "▁declin",
        -10.48108522121559
      ],
      [
        "@",
        -8.595300215537408
      ],
      [
        "▁n",
        -7.809789423261543
      ],
      [
        "▁mai",
        -10.002158802364841
      ],
      [
        "▁what",
        -4.999866406006407
      ],
      [
        "▁outlet",
        -10.16871189362317
      ],
      [
        "▁t",
        -7.45890416965616
      ],
      [
        "▁mathematician",
        -9.741745944400629
      ],
      [
        "▁wrapp",
        -9.752387019018233
      ],
      [
        "hen",
        -10.440661133426483
      ],
      [
        "▁plan",
        -7.599038912296109
      ],
      [
        "▁facilitate",
        -9.255807223988535
      ],
      [
        "▁tail",
        -8.243658856647176
      ],
      [
        "the",
        -10.76682349143477
      ],
      [
        "▁percent",
        -8.22269294742781
      ],
      [
        "ow",
        -7.732974782451942
      ],
      [
        "▁grade",
        -9.478664310087114
      ],
      [
        "▁lieutenant",
        -10.478087727834538
      ],
      [
        "▁de",
        -5.4095669255746035
      ],
      [
        "▁child",
        -7.376106750139421
      ],
      [
        "▁high",
        -9.665307653691652
      ],
      [
        "▁oliv",
        -8.129470840178247
      ],
      [
        "ly",
        -7.723400327850443
      ],
      [
        "▁consumer",
        -8.871518677355962
      ],
      [
        "emic",
        -7.797785240550301
      ],
      [
        "stil",
        -8.348057439792251
      ],
      [
        "▁stu",
        -7.8063665800430275
      ],
      [
        "▁fac",
        -8.919032331187946
      ],
      [
        "▁fur",
        -9.840345456067773
      ],
      [
        "eros",
        -10.331823040126716
      ],
      [
        "▁adam",
        -6.007165886733897
      ],
      [
        "done",
        -6.783452192464883
      ],
      [
        "connect",
        -9.581234694616457
      ],
      [
        "▁streamline",
        -10.625474192704562
      ],
      [
        "ighten",
        -9.434398118740868
      ],
      [
        "▁insect",
        -9.163748376435
      ],
      [
        "▁worth",
        -7.288217349982408
      ],
      [
        "▁justify",
        -10.176005862372051
      ],
      [
        "▁our",
        -5.4680531288304906
      ],
      [
        "couple",
        -10.374732676089252
      ],
      [
        "-of-",
        -10.478127098251766
      ],
      [
        "▁emission",
        -9.381160923225368
      ],
      [
        "▁s",
        -9.170725578216292
      ],
      [
        "o",
        -3.511903393270858
      ],
      [
        "side",
        -6.036964273039711
      ],
      [
        "▁obtain",
        -8.438158095999771
      ],
      [
        "vention",
        -9.657678214962386
      ],
      [
        "rface",
        -8.38471935055882
      ],
      [
        "▁enterprise",
        -10.043563670786941
      ],
      [
        "f",
        -2.4516511753350763
      ],
      [
        "▁_______",
        -11.336214334389922
      ],
      [
        "▁presiden",
        -6.720286482809926
      ],
      [
        "▁lover",
        -9.757954892333617
      ],
      [
        "▁witness",
        -9.833534972258853
      ],
      [
        "▁allow",
        -6.980942798830301
      ],
      [
        "▁vaccine",
        -9.443191815895995
      ],
      [
        "▁sanct",
        -10.168582505122139
      ],
      [
        "±",
        -11.925660239071421
      ],
      [
        "▁functionali",
        -10.245015654199623
      ],
      [
        "▁description",
        -8.869975454486548
      ],
      [
        "▁consider",
        -6.853368035562674
      ],
      [
        "c",
        -4.327503421637194
      ],
      [
        "▁pound",
        -9.659825297907616
      ],
      [
        "ood",
        -9.143526128380993
      ],
      [
        "▁setup",
        -9.934394976607848
      ],
      [
        "▁stroll",
        -9.74491030800285
      ],
      [
        "▁wish",
        -9.584846208117314
      ],
      [
        "▁obligation",
        -9.658210133607785
      ],
      [
        "▁observer",
        -10.481050856014676
      ],
      [
        "▁francisco",
        -4.794485198345531
      ],
      [
        "le",
        -6.8125470767093015
      ],
      [
        "▁fu",
        -10.092487230491008
      ],
      [
        "air",
        -9.863738752138108
      ],
      [
        "enth",
        -7.251062652065433
      ],
      [
        "▁ne",
        -7.864967635903455
      ],
      [
        "▁opinion",
        -8.223376923876422
      ],
      [
        "▁swap",
        -10.168624526782494
      ],
      [
        "▁drap",
        -10.660136035185975
      ],
      [
        "▁brown",
        -7.829387611527569
      ],
      [
        "▁ah",
        -6.656152075760504
      ],
      [
        "▁kansa",
        -6.814292120810253
      ],
      [
        "▁conflict",
        -10.625433580788764
      ],
      [
        "▁reinforce",
        -10.457313139922562
      ],
      [
        "▁grow",
        -6.927318966077519
      ],
      [
        "▁manufactur",
        -10.884454600188473
      ],
      [
        "▁char",
        -10.293551141052575
      ],
      [
        "_",
        -4.384580076550113
      ],
      [
        "▁vi",
        -7.775419079759793
      ],
      [
        "inc",
        -7.751841047967409
      ],
      [
        "▁coast",
        -8.507926864588642
      ],
      [
        "▁nu",
        -10.306235716829288
      ],
      [
        "▁title",
        -8.67265461398966
      ],
      [
        "▁loud",
        -7.8529762343329175
      ],
      [
        "▁select",
        -8.188532584885873
      ],
      [
        "find",
        -10.480563060966622
      ],
      [
        "▁surf",
        -9.977914815598213
      ],
      [
        "▁aisle",
        -10.16878598241533
      ],
      [
        "▁think",
        -9.117919803422636
      ],
      [
        "▁motorcycle",
        -9.74207944448204
      ],
      [
        "▁adult",
        -8.323474390737916
      ],
      [
        "▁aero",
        -10.044048415234588
      ],
      [
        "▁cloth",
        -8.45702971289574
      ],
      [
        "▁bait",
        -10.481875419894672
      ],
      [
        "▁h",
        -8.021081495851849
      ],
      [
        "▁prev",
        -7.890641534688376
      ],
      [
        "o",
        -4.218861851373661
      ],
      [
        "▁dad",
        -6.936985185586952
      ],
      [
        "▁user",
        -7.8908536510952505
      ],
      [
        "▁face",
        -7.091213307434205
      ],
      [
        "--------------",
        -9.810432193692524
      ],
      [
        "▁yawn",
        -10.008741128442212
      ],
      [
        "▁su",
        -8.152853670093481
      ],
      [
        "▁criteri",
        -9.510323368049015
      ],
      [
        "▁legislature",
        -9.658827205395198
      ],
      [
        "▁milk",
        -6.82057435110142
      ],
      [
        "en",
        -6.925937608921455
      ],
      [
        "▁rec",
        -7.678294893410549
      ],
      [
        "▁limit",
        -7.785937892310746
      ],
      [
        "ble",
        -5.978990578455024
      ],
      [
        "▁bus",
        -6.093146094794692
      ],
      [
        "w",
        -5.491188161949157
      ],
      [
        "▁sick",
        -7.475486946130546
      ],
      [
        "▁hunt",
        -9.65621910280733
      ],
      [
        "▁pay",
        -6.894095309609328
      ],
      [
        "▁dragg",
        -9.154571963846962
      ],
      [
        "▁ambition",
        -10.168957923494913
      ],
      [
        "bru",
        -10.441868013413668
      ],
      [
        "otte",
        -7.836754595846729
      ],
      [
        "▁winter",
        -8.242624574334723
      ],
      [
        "▁north",
        -8.50620785573341
      ],
      [
        "▁danny",
        -7.871031298691136
      ],
      [
        "nishe",
        -10.790355235814502
      ],
      [
        "ve",
        -9.267813616069546
      ],
      [
        "▁su",
        -7.154235015193979
      ],
      [
        "▁12",
        -5.2458269485953
      ],
      [
        "▁alway",
        -5.519820572217112
      ],
      [
        "▁mode",
        -8.175328682425418
      ],
      [
        "▁repai",
        -10.436088343845945
      ],
      [
        "▁out",
        -4.814863351036432
      ],
      [
        "▁strain",
        -9.900034521624876
      ],
      [
        "▁embrace",
        -10.264772971790354
      ],
      [
        "ge",
        -8.118621365486508
      ],
      [
        "▁old",
        -5.586906487994287
      ],
      [
        "when",
        -7.381382499901413
      ],
      [
        "he",
        -7.549205452271604
      ],
      [
        "_",
        -5.0347307007443804
      ],
      [
        "▁begin",
        -7.430154484278815
      ],
      [
        "x",
        -12.039036616560043
      ],
      [
        "▁30",
        -10.337790973081397
      ],
      [
        "▁robin",
        -7.479882217646035
      ],
      [
        "▁q",
        -7.854729222038335
      ],
      [
        "▁comply",
        -9.87055798824609
      ],
      [
        "ll",
        -5.776077771667074
      ],
      [
        "▁realize",
        -8.060523133677941
      ],
      [
        "▁boy",
        -6.9641536303665035
      ],
      [
        "▁fist",
        -10.488801823239534
      ],
      [
        "▁glance",
        -10.04395253135463
      ],
      [
        "▁manag",
        -9.33288579656999
      ],
      [
        "▁scream",
        -9.212301766933104
      ],
      [
        "▁proceed",
        -8.649307116413167
      ],
      [
        "▁mist",
        -9.861637379016168
      ],
      [
        "▁sub",
        -9.632716355258115
      ],
      [
        "▁compare",
        -8.265165019192352
      ],
      [
        "▁american",
        -9.582515551504875
      ],
      [
        "▁dream",
        -8.880148528208505
      ],
      [
        "media",
        -10.015435761582289
      ],
      [
        "long",
        -7.46212460326381
      ],
      [
        "▁updat",
        -10.536455177965196
      ],
      [
        "▁drawing",
        -10.4907339143207
      ],
      [
        "hens",
        -10.377171993669748
      ],
      [
        "ch",
        -10.038999779297553
      ],
      [
        "▁martyr",
        -10.168573203927544
      ],
      [
        "h",
        -4.3664505913828435
      ],
      [
        "▁publish",
        -8.886603719170564
      ],
      [
        "▁province",
        -9.832452555591455
      ],
      [
        "▁th",
        -6.672497760393618
      ],
      [
        "▁cast",
        -9.323984159509102
      ],
      [
        "▁pirate",
        -9.741615724886143
      ],
      [
        "yard",
        -9.719979891817832
      ],
      [
        "▁exceed",
        -9.538930479526707
      ],
      [
        "ging",
        -10.477898420935945
      ],
      [
        "hou",
        -9.816030433816154
      ],
      [
        "▁room",
        -6.348326913782922
      ],
      [
        "▁b",
        -7.480039276401502
      ],
      [
        "▁entail",
        -10.375502741031848
      ],
      [
        "▁decrease",
        -10.083583195963014
      ],
      [
        "or",
        -6.1111258282432015
      ],
      [
        "▁filter",
        -8.242819720730548
      ],
      [
        "▁reflection",
        -9.658300076612434
      ],
      [
        "le",
        -7.1765422005284645
      ],
      [
        "fte",
        -7.907968627874423
      ],
      [
        "▁ori",
        -7.5403710771088726
      ],
      [
        "▁flie",
        -10.36994847867041
      ],
      [
        "▁accumulate",
        -9.740560952098114
      ],
      [
        "▁link",
        -8.421431361608825
      ],
      [
        "▁spore",
        -9.933658151585346
      ],
      [
        "le",
        -7.288360568497718
      ],
      [
        "▁stem",
        -9.93306088335769
      ],
      [
        "▁describe",
        -7.5151118278972
      ],
      [
        "▁amount",
        -7.224863221509553
      ],
      [
        "▁sky",
        -8.050087141459299
      ],
      [
        "▁spit",
        -10.052238765744125
      ],
      [
        "print",
        -10.236255525961306
      ],
      [
        "charge",
        -10.14021590890191
      ],
      [
        "▁relie",
        -10.659589895323899
      ],
      [
        "▁b",
        -7.312066243997636
      ],
      [
        "▁polaroid",
        -9.65821038803568
      ],
      [
        "▁earn",
        -8.527899775111031
      ],
      [
        "lock",
        -7.984002137820483
      ],
      [
        "▁tour",
        -10.39720374638068
      ],
      [
        "▁relativi",
        -10.168637593331393
      ],
      [
        "▁sunn",
        -7.90078657461334
      ],
      [
        "▁revenue",
        -8.985462633962609
      ],
      [
        "▁d",
        -8.048528589403645
      ],
      [
        "▁no",
        -6.625414240065368
      ],
      [
        "▁over",
        -8.272295625658716
      ],
      [
        "▁super",
        -10.488783699959416
      ],
      [
        "▁el",
        -6.533844654885006
      ],
      [
        "▁govern",
        -9.283563698877625
      ],
      [
        "▁shore",
        -9.322812779018271
      ],
      [
        "▁el",
        -10.044991722288888
      ],
      [
        "▁conten",
        -10.668644523220832
      ],
      [
        "▁camp",
        -8.344948655146622
      ],
      [
        "▁dere",
        -9.164760849436197
      ],
      [
        "▁king",
        -8.619329117822751
      ],
      [
        "▁bend",
        -10.581775695953139
      ],
      [
        "initi",
        -8.372814628399874
      ],
      [
        "1",
        -3.8535279155612745
      ],
      [
        "▁insult",
        -10.625399601414458
      ],
      [
        "ur",
        -8.734300137671553
      ],
      [
        "▁embedd",
        -9.869434000832122
      ],
      [
        "▁improve",
        -7.9706922204608
      ],
      [
        "▁fish",
        -10.627718136055455
      ],
      [
        "▁discre",
        -9.889866715559883
      ],
      [
        "▁scholar",
        -9.988622600190102
      ],
      [
        "▁cheape",
        -6.199647512997842
      ],
      [
        "▁fifty",
        -6.704799539162922
      ],
      [
        "ar",
        -7.490341792618617
      ],
      [
        "life",
        -9.193767419368339
      ],
      [
        "nea",
        -7.945544065619691
      ],
      [
        "▁squirrel",
        -9.509858669317888
      ],
      [
        "▁reference",
        -9.376456987727982
      ],
      [
        "t",
        -4.62181170820774
      ],
      [
        "▁north",
        -7.051222331089207
      ],
      [
        "▁gaz",
        -10.586845650250607
      ],
      [
        "▁smil",
        -9.314460057221783
      ],
      [
        "▁vegetable",
        -8.766439151061812
      ],
      [
        "▁rul",
        -10.879382387373575
      ],
      [
        "os",
        -12.71061285681801
      ],
      [
        "eum",
        -10.045198922414407
      ],
      [
        "p",
        -7.066816683755824
      ],
      [
        "▁seeker",
        -9.443402248073058
      ],
      [
        "▁neighbour",
        -9.16354590074887
      ],
      [
        "▁god",
        -9.175204165879618
      ],
      [
        "▁style",
        -8.031244498894136
      ],
      [
        "tel",
        -10.11075138686629
      ],
      [
        "▁direct",
        -7.339736906234009
      ],
      [
        "▁dal",
        -5.240750079898972
      ],
      [
        "ft",
        -6.965664792887015
      ],
      [
        "▁universit",
        -6.830723950781339
      ],
      [
        "among",
        -10.114427603570839
      ],
      [
        "k",
        -6.601882593626262
      ],
      [
        "▁buck",
        -9.513928484040473
      ],
      [
        "▁smoke",
        -9.077734526358427
      ],
      [
        "▁'",
        -6.325233522029243
      ],
      [
        "ground",
        -10.014613661477267
      ],
      [
        "▁accommodate",
        -9.775293270753739
      ],
      [
        "▁wis",
        -10.212814281994461
      ],
      [
        "▁speaker",
        -9.071429953954507
      ],
      [
        "▁belong",
        -7.909109751690544
      ],
      [
        "▁17",
        -5.757736140466072
      ],
      [
        "▁cin",
        -7.291606847389109
      ],
      [
        "ho",
        -13.331044045789548
      ],
      [
        "▁instance",
        -8.675154923374972
      ],
      [
        "▁creat",
        -8.00466740362287
      ],
      [
        "▁mexic",
        -7.630279527638397
      ],
      [
        "▁ink",
        -10.066560903524092
      ],
      [
        "▁politic",
        -9.322744916483062
      ],
      [
        "▁hu",
        -5.3112184277948105
      ],
      [
        "n",
        -3.4248351833273194
      ],
      [
        "▁incident",
        -9.741543517985093
      ],
      [
        "▁wid",
        -10.31731189963827
      ],
      [
        "▁indulge",
        -10.818112787769977
      ],
      [
        "t",
        -4.296542088812357
      ],
      [
        "▁cris",
        -8.705008318858031
      ],
      [
        "ri",
        -10.28672712333452
      ],
      [
        "▁activit",
        -7.5553034087048125
      ],
      [
        "▁obe",
        -10.183250280997688
      ],
      [
        "id",
        -8.378966879212324
      ],
      [
        "▁coin",
        -9.12443808050526
      ],
      [
        "▁unit",
        -8.118249111457239
      ],
      [
        "town",
        -7.545741056568113
      ],
      [
        "▁dece",
        -9.79675394817215
      ],
      [
        "thank",
        -10.659463463452388
      ],
      [
        "▁pit",
        -10.442092845652102
      ],
      [
        "▁autofilter",
        -10.478087475862782
      ],
      [
        "▁whistl",
        -10.175403245533621
      ],
      [
        "▁heel",
        -9.070788501160509
      ],
      [
        "▁function",
        -10.023944854055483
      ],
      [
        "▁attend",
        -7.72235016362234
      ],
      [
        "at",
        -8.9648353540076
      ],
      [
        "▁candle",
        -9.51122299036663
      ],
      [
        "▁research",
        -7.619206821777212
      ],
      [
        "▁al",
        -4.246888182650369
      ],
      [
        "coat",
        -10.449822263395655
      ],
      [
        "▁sauce",
        -9.446065064823287
      ],
      [
        "▁actor",
        -9.031482330291803
      ],
      [
        "▁pyramid",
        -9.932452555174523
      ],
      [
        "▁scientist",
        -8.83426959548079
      ],
      [
        "▁image",
        -7.7013420655101665
      ],
      [
        "mate",
        -10.301173679197154
      ],
      [
        "▁advise",
        -8.642676767136889
      ],
      [
        "▁stra",
        -8.068841970187297
      ],
      [
        "!!!!",
        -9.583850804162543
      ],
      [
        "▁boom",
        -8.799956975837176
      ],
      [
        "▁figure",
        -8.766433742692975
      ],
      [
        "▁observe",
        -8.234673799315816
      ],
      [
        "▁beaver",
        -10.478641427420268
      ],
      [
        "▁gather",
        -8.61079917971708
      ],
      [
        "▁pile",
        -10.283184672550286
      ],
      [
        "▁de",
        -7.133759330193251
      ],
      [
        "▁60",
        -6.913388044232883
      ],
      [
        "▁display",
        -9.380811382867247
      ],
      [
        "▁olde",
        -7.975169562832761
      ],
      [
        "ifica",
        -8.291738545728773
      ],
      [
        "▁sandal",
        -10.481370623882274
      ],
      [
        "perm",
        -10.486230953301591
      ],
      [
        "thus",
        -7.27974176497364
      ],
      [
        "▁contact",
        -8.507877833464192
      ],
      [
        "▁hot",
        -9.934891728178796
      ],
      [
        "▁audit",
        -9.322983750155059
      ],
      [
        "▁audience",
        -8.50787815711593
      ],
      [
        "▁reli",
        -9.559505983540117
      ],
      [
        "▁refin",
        -10.629002319716383
      ],
      [
        "▁ag",
        -6.715931851231953
      ],
      [
        "▁olive",
        -10.31142728294177
      ],
      [
        "▁letter",
        -7.1509969654889245
      ],
      [
        "▁throat",
        -9.163685615581546
      ],
      [
        "▁forc",
        -10.3571372013002
      ],
      [
        "ch",
        -8.972212749644818
      ],
      [
        "▁finger",
        -7.59490436617563
      ],
      [
        "med",
        -9.650791541270365
      ],
      [
        "..",
        -11.6166454357157
      ],
      [
        "▁establish",
        -7.872287748638467
      ],
      [
        "▁kn",
        -10.925516565317587
      ],
      [
        "▁publishe",
        -8.041078949278049
      ],
      [
        "▁safe",
        -8.081827039946344
      ],
      [
        "▁stay",
        -9.075020122748564
      ],
      [
        "▁convict",
        -10.375395575998983
      ],
      [
        "▁rip",
        -9.553219506168208
      ],
      [
        "c",
        -5.811834898890697
      ],
      [
        "il",
        -7.285357210829448
      ],
      [
        "▁mine",
        -7.3549003857745685
      ],
      [
        "▁comed",
        -9.346496794669793
      ],
      [
        "+",
        -11.925660239071421
      ],
      [
        "▁leader",
        -8.094015602585047
      ],
      [
        "▁yog",
        -8.58692851266068
      ],
      [
        "▁man",
        -4.986646391547884
      ],
      [
        "▁ingredient",
        -9.027129298032522
      ],
      [
        "▁signal",
        -9.969560408441588
      ],
      [
        "▁where",
        -10.478087686671172
      ],
      [
        "▁matter",
        -8.916816432592363
      ],
      [
        "▁assess",
        -8.689162915160052
      ],
      [
        "▁s",
        -7.2016004436635175
      ],
      [
        "▁hur",
        -9.186143461070277
      ],
      [
        "▁incre",
        -7.7695118524192175
      ],
      [
        "▁pepper",
        -8.94547645040062
      ],
      [
        "'",
        -2.6782468275802227
      ],
      [
        "ns",
        -8.02361305157211
      ],
      [
        "▁pain",
        -8.45484632896662
      ],
      [
        "▁'",
        -9.052455780862363
      ],
      [
        "▁fro",
        -8.847864777376085
      ],
      [
        "lta",
        -8.060576155873918
      ],
      [
        "ou",
        -10.954094405007353
      ],
      [
        "▁prett",
        -6.0774269011538085
      ],
      [
        "w",
        -7.5966163372720885
      ],
      [
        "▁shock",
        -9.514968765894011
      ],
      [
        "▁woo",
        -10.717288508642952
      ],
      [
        "▁destination",
        -8.988578330826128
      ],
      [
        "▁licens",
        -9.317027120157048
      ],
      [
        "▁material",
        -8.098219202380402
      ],
      [
        "at",
        -7.706429681576975
      ],
      [
        ".",
        -9.207163296872874
      ],
      [
        "▁side",
        -10.769911773370067
      ],
      [
        "▁not",
        -7.200425170962376
      ],
      [
        "▁bray",
        -7.728325152237842
      ],
      [
        "▁better",
        -10.625803936107097
      ],
      [
        "▁litter",
        -10.044034071905836
      ],
      [
        "▁naturalis",
        -10.175047940614796
      ],
      [
        "ut",
        -10.56696934815741
      ],
      [
        "▁load",
        -8.954422787228554
      ],
      [
        "▁!",
        -6.89487113485091
      ],
      [
        "when",
        -8.600640802957946
      ],
      [
        "▁public",
        -6.428328946192325
      ],
      [
        "▁margin",
        -10.31142118966952
      ],
      [
        "▁collect",
        -7.953103109768134
      ],
      [
        "▁refrigerator",
        -9.32186828906544
      ],
      [
        "ythm",
        -10.418118038823076
      ],
      [
        "▁arrangement",
        -8.907001401053535
      ],
      [
        "▁calorie",
        -10.168581811492563
      ],
      [
        "▁argu",
        -9.357744420874603
      ],
      [
        "▁valid",
        -10.480382454422628
      ],
      [
        "▁receiv",
        -8.281500766022912
      ],
      [
        "▁pot",
        -9.2621446284985
      ],
      [
        "▁w",
        -10.624596390097121
      ],
      [
        "▁to",
        -4.828081713777489
      ],
      [
        "▁return",
        -6.980570236197516
      ],
      [
        "▁p&",
        -10.169818155883146
      ],
      [
        "▁defend",
        -9.145912033232495
      ],
      [
        "---",
        -10.542734627330935
      ],
      [
        "▁purs",
        -10.038471390260524
      ],
      [
        "▁film",
        -8.204816570868092
      ],
      [
        "▁ma",
        -8.871582108237305
      ],
      [
        "▁chill",
        -9.868840989712089
      ],
      [
        "▁approve",
        -8.250127600697594
      ],
      [
        "idence",
        -8.04967354055037
      ],
      [
        "▁reservation",
        -9.380691881440361
      ],
      [
        "▁frame",
        -10.176085804513754
      ],
      [
        "▁prim",
        -7.612979136234517
      ],
      [
        "▁18",
        -10.47810612584275
      ],
      [
        "▁frie",
        -9.884903213115377
      ],
      [
        "▁rubb",
        -10.626989484605271
      ],
      [
        "▁taper",
        -10.399525447947752
      ],
      [
        "▁notic",
        -10.303038348871153
      ],
      [
        "▁tin",
        -7.625313974643603
      ],
      [
        "/",
        -9.424407620128482
      ],
      [
        "▁impose",
        -9.63111653884987
      ],
      [
        "▁fax",
        -9.359211627337473
      ],
      [
        "off",
        -9.985765931793292
      ],
      [
        "▁border",
        -8.533574103399857
      ],
      [
        "▁can",
        -8.93640109452402
      ],
      [
        "ushi",
        -9.821008903553398
      ],
      [
        "▁yoyo",
        -9.93245309735916
      ],
      [
        "▁celebrate",
        -10.189970557977702
      ],
      [
        "’",
        -9.207163296872874
      ],
      [
        ".........",
        -12.385442840267194
      ],
      [
        "▁wai",
        -10.238905340473138
      ],
      [
        "grav",
        -10.320651784469938
      ],
      [
        "▁prayer",
        -9.74279293205722
      ],
      [
        "▁schedul",
        -10.321479502451563
      ],
      [
        "a",
        -4.91602068502491
      ],
      [
        "▁devil",
        -10.16856422391466
      ],
      [
        "▁po",
        -7.826023911263645
      ],
      [
        "▁exclude",
        -10.441509310747433
      ],
      [
        "table",
        -8.10029166938956
      ],
      [
        "▁house",
        -7.5534511169958165
      ],
      [
        "nd",
        -9.236601350363305
      ],
      [
        "▁out",
        -8.692340457552184
      ],
      [
        "▁pric",
        -9.645675780764389
      ],
      [
        "▁leg",
        -7.457808857624026
      ],
      [
        "▁construct",
        -9.750349557429862
      ],
      [
        "▁interjection",
        -10.04367139393154
      ],
      [
        "▁retrieve",
        -10.62539307541717
      ],
      [
        "▁oct",
        -7.176494753301544
      ],
      [
        "tieth",
        -7.971235901375047
      ],
      [
        "icles",
        -7.766041540205083
      ],
      [
        "▁uhh",
        -6.002948122038999
      ],
      [
        "▁start",
        -6.035742676720251
      ],
      [
        "▁servant",
        -9.8324629350004
      ],
      [
        "▁horse",
        -6.908726736777639
      ],
      [
        "▁beat",
        -8.139941333584396
      ],
      [
        "▁br",
        -7.532766402496921
      ],
      [
        "▁pi",
        -9.333007720208059
      ],
      [
        "▁recover",
        -9.084213408520743
      ],
      [
        "▁cats",
        -8.65512734444232
      ],
      [
        "▁toast",
        -7.9286132822649495
      ],
      [
        "imbu",
        -10.377921179753463
      ],
      [
        "▁humanit",
        -9.446547690867309
      ],
      [
        "card",
        -10.140571874210735
      ],
      [
        "▁brood",
        -10.636847841274632
      ],
      [
        "▁standard",
        -7.821104384456373
      ],
      [
        "▁contract",
        -8.131379362081221
      ],
      [
        "▁cook",
        -9.087263499668673
      ],
      [
        "iff",
        -10.337316732871427
      ],
      [
        "▁pump",
        -9.266324090165412
      ],
      [
        "ded",
        -7.664095298121266
      ],
      [
        "▁hit",
        -6.806185863543326
      ],
      [
        "▁mi",
        -6.488952051932994
      ],
      [
        "us",
        -7.778989704250542
      ],
      [
        "cultur",
        -7.255618199138741
      ],
      [
        "▁",
        -2.345074069766005
      ],
      [
        "▁goose",
        -9.742665802290945
      ],
      [
        "like",
        -7.545901873622276
      ],
      [
        ".com",
        -6.82664182878115
      ],
      [
        "▁orla",
        -7.205988583575316
      ],
      [
        "▁brush",
        -9.044226130735694
      ],
      [
        "▁use",
        -5.376712606513006
      ],
      [
        "▁field",
        -7.040092237698073
      ],
      [
        "▁finish",
        -9.741613511407976
      ],
      [
        "▁hol",
        -10.48713402676507
      ],
      [
        "nce",
        -8.780311225222537
      ],
      [
        "velo",
        -10.483561566261542
      ],
      [
        "▁twa",
        -7.598795238109673
      ],
      [
        "▁lose",
        -8.279256091155556
      ],
      [
        "cent",
        -7.652589887132629
      ],
      [
        "eve",
        -8.019325585688978
      ],
      [
        "▁bite",
        -7.841128810969074
      ],
      [
        "be",
        -8.319774375295584
      ],
      [
        "▁perception",
        -9.832508425015654
      ],
      [
        "camo",
        -9.751878767776573
      ],
      [
        "write",
        -10.243468297120735
      ],
      [
        "▁160",
        -6.969867604915079
      ],
      [
        "▁shot",
        -8.801232710761134
      ],
      [
        "▁state",
        -6.764772276132728
      ],
      [
        "▁podcast",
        -10.47809039415831
      ],
      [
        "▁bicycle",
        -9.381061193188266
      ],
      [
        "▁jam",
        -10.179894580085405
      ],
      [
        "▁great",
        -5.158725407219528
      ],
      [
        "▁airfare",
        -8.870791673425542
      ],
      [
        "▁choos",
        -9.792600345038931
      ],
      [
        "▁gis",
        -9.573871616176893
      ],
      [
        "cat",
        -10.487021904188932
      ],
      [
        "▁will",
        -10.62729298170865
      ],
      [
        "▁current",
        -10.04559791359314
      ],
      [
        "e",
        -3.866122931705929
      ],
      [
        "dom",
        -9.861651781453848
      ],
      [
        "ver",
        -10.086671659406761
      ],
      [
        "ddle",
        -10.28097285386717
      ],
      [
        "▁reach",
        -9.601008371308271
      ],
      [
        "istenc",
        -10.118891384366332
      ],
      [
        "like",
        -9.262996894325436
      ],
      [
        "▁swirl",
        -10.175406740353349
      ],
      [
        "▁-",
        -2.719908429384735
      ],
      [
        "▁japan",
        -7.718946389423104
      ],
      [
        "▁ad",
        -8.857413910820842
      ],
      [
        "▁pony",
        -9.741939387605328
      ],
      [
        "▁pillar",
        -10.178921218949782
      ],
      [
        "▁ab",
        -8.805039313032388
      ],
      [
        "t",
        -1.4210259656718716
      ],
      [
        "mend",
        -10.733043506709068
      ],
      [
        "m",
        -3.421156060075173
      ],
      [
        "▁fuck",
        -10.176534600256034
      ],
      [
        "eve",
        -8.935744439810868
      ],
      [
        "▁how",
        -3.9468069168529585
      ],
      [
        "▁dry",
        -9.384240196254343
      ],
      [
        "▁dec",
        -7.553317938997741
      ],
      [
        "▁questionnaire",
        -10.168566563943742
      ],
      [
        "▁disrupt",
        -10.0115220461553
      ],
      [
        "▁payment",
        -8.483118001098607
      ],
      [
        "▁dance",
        -8.737439926745441
      ],
      [
        "▁digest",
        -10.625928985642805
      ],
      [
        "▁beetle",
        -9.741848658290843
      ],
      [
        "▁carrot",
        -9.213758261629874
      ],
      [
        "▁theatre",
        -8.986130813212602
      ],
      [
        "▁giant",
        -9.443244541524779
      ],
      [
        ".",
        -7.2020258206513015
      ],
      [
        "▁mad",
        -10.224292187574598
      ],
      [
        "▁rental",
        -9.582134927551898
      ],
      [
        "access",
        -7.295822682418707
      ],
      [
        "alism",
        -9.787471485079518
      ],
      [
        "▁po",
        -10.30281899790438
      ],
      [
        "▁line",
        -9.336035042585555
      ],
      [
        "▁her",
        -10.048054623692373
      ],
      [
        "▁venture",
        -10.231979618466998
      ],
      [
        "▁collar",
        -10.044566570726975
      ],
      [
        "▁belief",
        -8.435035342793189
      ],
      [
        "▁modify",
        -9.146879595428274
      ],
      [
        "▁fare",
        -6.190398192308851
      ],
      [
        "al",
        -5.95872636162754
      ],
      [
        "an",
        -5.83024036355754
      ],
      [
        "tch",
        -9.642814818948558
      ],
      [
        "▁jet",
        -10.3223052354361
      ],
      [
        "go",
        -7.098848247505713
      ],
      [
        "▁north",
        -8.98546511561299
      ],
      [
        "▁mega",
        -10.478109438129735
      ],
      [
        "▁bloom",
        -10.376157938774796
      ],
      [
        "▁repair",
        -8.411748240449507
      ],
      [
        "▁statistic",
        -9.581287054603447
      ],
      [
        "▁coco",
        -9.58221231924913
      ],
      [
        "▁sunk",
        -9.636071162061675
      ],
      [
        "▁mus",
        -7.898406140039114
      ],
      [
        "▁regulate",
        -9.549000205309792
      ],
      [
        "▁top",
        -7.372570311295064
      ],
      [
        "rose",
        -8.623280558283351
      ],
      [
        "▁meal",
        -7.53508169907918
      ],
      [
        "▁co-",
        -10.04111309660749
      ],
      [
        "▁drop",
        -8.286286269122698
      ],
      [
        "band",
        -10.015285009447695
      ],
      [
        "▁rude",
        -7.888966345364832
      ],
      [
        "▁dat",
        -9.209107455035515
      ],
      [
        "saw",
        -9.503820530389424
      ],
      [
        "aw",
        -8.635393372690029
      ],
      [
        "ate",
        -9.333053910738457
      ],
      [
        "▁demand",
        -8.376691249688534
      ],
      [
        "▁impulse",
        -10.16858059041098
      ],
      [
        "ibbl",
        -10.901737029058697
      ],
      [
        "der",
        -7.243585232811172
      ],
      [
        "ling",
        -8.722365084250423
      ],
      [
        "ral",
        -8.016779290424799
      ],
      [
        "sphere",
        -8.282389798798924
      ],
      [
        "illa",
        -9.262467576815741
      ],
      [
        "▁grain",
        -9.512134409506533
      ],
      [
        "r",
        -9.881310152285408
      ],
      [
        "merica",
        -7.458663328224141
      ],
      [
        "▁ten",
        -9.023708091545878
      ],
      [
        "let",
        -9.138793533962309
      ],
      [
        "▁urin",
        -10.170709112332403
      ],
      [
        "▁popul",
        -7.521468241169353
      ],
      [
        "▁work",
        -5.975192084094528
      ],
      [
        "▁format",
        -8.242047513412505
      ],
      [
        "▁swear",
        -10.399236023275257
      ],
      [
        "is",
        -6.551512324352629
      ],
      [
        "▁hack",
        -10.430233966129034
      ],
      [
        "▁gas",
        -7.808122263779814
      ],
      [
        "......",
        -13.08817150327664
      ],
      [
        "d",
        -5.393842617965876
      ],
      [
        "▁transit",
        -9.117454025584351
      ],
      [
        "▁touch",
        -7.580939470623513
      ],
      [
        "▁conce",
        -10.279745226660157
      ],
      [
        "▁import",
        -6.248272192306516
      ],
      [
        "▁w",
        -7.98039333513819
      ],
      [
        "▁circle",
        -8.186126248434904
      ],
      [
        "les",
        -6.373733205880214
      ],
      [
        "▁demo",
        -10.489005747887202
      ],
      [
        "driver",
        -9.804116711190055
      ],
      [
        "time",
        -8.173483455380751
      ],
      [
        "▁phase",
        -9.446087853483489
      ],
      [
        "▁t",
        -8.51074744854803
      ],
      [
        "▁glass",
        -7.596778940768909
      ],
      [
        "▁ke",
        -10.902740966049027
      ],
      [
        "▁abbreviation",
        -10.043563666265184
      ],
      [
        "man",
        -6.863842658812742
      ],
      [
        "▁intend",
        -7.878414666613796
      ],
      [
        "ival",
        -10.006896712903686
      ],
      [
        "▁borrow",
        -9.86903619898803
      ],
      [
        "▁specifie",
        -9.53421340027119
      ],
      [
        "da",
        -11.222074835862148
      ],
      [
        "h",
        -9.530401437393046
      ],
      [
        "▁",
        -1.4771507384749105
      ],
      [
        "re",
        -9.718282915415509
      ],
      [
        "▁crime",
        -8.799767158299916
      ],
      [
        "▁march",
        -9.833414239210036
      ],
      [
        "▁area",
        -6.580243234742934
      ],
      [
        "ext",
        -10.389671360496573
      ],
      [
        "ag",
        -9.825387720886301
      ],
      [
        "[PAD]",
        0.0
      ],
      [
        "▁fan",
        -7.738746080139739
      ],
      [
        "▁size",
        -7.987348668473763
      ],
      [
        "▁moon",
        -8.346365243200546
      ],
      [
        "▁shakes",
        -6.916526294427551
      ],
      [
        "▁jam",
        -9.38264644013299
      ],
      [
        "▁reptile",
        -10.478087938161307
      ],
      [
        "▁nutri",
        -10.185098990768763
      ],
      [
        "▁happen",
        -6.11653004623147
      ],
      [
        "ize",
        -10.360224280629454
      ],
      [
        "▁",
        -1.6256745059821878
      ],
      [
        "▁speed",
        -10.119693680725032
      ],
      [
        "thes",
        -8.344899422662621
      ],
      [
        "▁homosexual",
        -10.16856366973727
      ],
      [
        "ro",
        -9.323176805322918
      ],
      [
        "nia",
        -7.784660523221544
      ],
      [
        "▁5",
        -4.7241759964630194
      ],
      [
        "▁carry",
        -7.4452905083337955
      ],
      [
        "▁landing",
        -9.439206307861928
      ],
      [
        "▁opposite",
        -9.941378997809423
      ],
      [
        "out",
        -8.281770022134857
      ],
      [
        "▁advisor",
        -10.044284176287123
      ],
      [
        "▁row",
        -8.561385297671665
      ],
      [
        "oth",
        -8.842116098097987
      ],
      [
        "▁newsgroup",
        -10.478087475831313
      ],
      [
        "▁commit",
        -9.261825638492802
      ],
      [
        "er",
        -6.121878145370945
      ],
      [
        "▁putt",
        -8.158922509182144
      ],
      [
        "fore",
        -6.806894281632575
      ],
      [
        "▁interact",
        -9.212624344128375
      ],
      [
        "▁coffee",
        -7.795941954283291
      ],
      [
        "iness",
        -8.758683916931057
      ],
      [
        "t",
        -4.366741745292707
      ],
      [
        "ra",
        -7.942387040478714
      ],
      [
        "penny",
        -9.442659574839233
      ],
      [
        "▁maintain",
        -7.770155367477616
      ],
      [
        "▁kick",
        -10.168671274603355
      ],
      [
        "▁act",
        -8.041418261246278
      ],
      [
        "▁weaken",
        -9.63442354424628
      ],
      [
        "▁arr",
        -10.519175412347684
      ],
      [
        "how",
        -8.956604690235753
      ],
      [
        "▁estate",
        -9.932470812323071
      ],
      [
        "▁return",
        -7.873398513639633
      ],
      [
        "▁scare",
        -9.20458049062011
      ],
      [
        "▁hers",
        -11.553708895953593
      ],
      [
        "osom",
        -10.327438458095175
      ],
      [
        "over",
        -8.292291013070475
      ],
      [
        "un",
        -10.766918713986763
      ],
      [
        "gon",
        -9.842355029236305
      ],
      [
        "▁trap",
        -10.320252099054501
      ],
      [
        "▁translat",
        -9.89342678835189
      ],
      [
        "▁arrive",
        -6.562010512051669
      ],
      [
        "▁cocktail",
        -9.163681619188505
      ],
      [
        "▁coincide",
        -10.251147162270897
      ],
      [
        "▁suspect",
        -8.610884333859165
      ],
      [
        "▁glea",
        -10.421675450452215
      ],
      [
        "▁trust",
        -8.12134502943936
      ],
      [
        "▁dealership",
        -10.16922777972238
      ],
      [
        "rtain",
        -10.287759140691445
      ],
      [
        "u",
        -7.835037406927653
      ],
      [
        "adelphi",
        -5.284187108245264
      ],
      [
        "▁stoo",
        -7.955751216508731
      ],
      [
        "▁storm",
        -8.678012312929695
      ],
      [
        "▁scheme",
        -9.5812903902401
      ],
      [
        "▁m",
        -8.808938386214283
      ],
      [
        "▁confiden",
        -9.931239836146997
      ],
      [
        "▁worr",
        -10.404805248160715
      ],
      [
        "comfort",
        -10.28341658038285
      ],
      [
        "istic",
        -7.463813450001007
      ],
      [
        "tel",
        -6.390730603715606
      ],
      [
        "▁shatter",
        -10.625402828284264
      ],
      [
        "▁car",
        -5.9330606637143335
      ],
      [
        "▁polic",
        -8.732538313946252
      ],
      [
        "▁somewh",
        -7.838931967341778
      ],
      [
        "▁wo",
        -7.267365822071614
      ],
      [
        "▁greek",
        -10.478339601728624
      ],
      [
        "top",
        -9.583986287326363
      ],
      [
        "ai",
        -10.700825080080227
      ],
      [
        "▁operation",
        -8.343222112072963
      ],
      [
        "cy",
        -7.229001024844951
      ],
      [
        "▁fort",
        -10.314988974047635
      ],
      [
        "▁distract",
        -10.175439502399023
      ],
      [
        "▁consen",
        -10.468635673292233
      ],
      [
        "ha",
        -9.035947903990632
      ],
      [
        "▁c",
        -7.277510227719385
      ],
      [
        "▁instruct",
        -9.86922886338304
      ],
      [
        "▁brother",
        -7.87355409852441
      ],
      [
        "▁sail",
        -10.059779411460987
      ],
      [
        "▁appeal",
        -9.556580493539533
      ],
      [
        "▁cost",
        -7.2043011709448255
      ],
      [
        "▁ser",
        -9.191056608469014
      ],
      [
        "▁squirt",
        -9.288686004311
      ],
      [
        "▁alt.animals.",
        -9.461739619033319
      ],
      [
        "▁institution",
        -8.302623634054898
      ],
      [
        "▁arrest",
        -9.02482456647259
      ],
      [
        "▁159",
        -6.939662298813994
      ],
      [
        "▁acupunctur",
        -10.168563666320765
      ],
      [
        "▁vari",
        -7.348480747889891
      ],
      [
        "hu",
        -9.843845254913187
      ],
      [
        "▁google",
        -10.823463136741564
      ],
      [
        "janu",
        -7.39338737589396
      ],
      [
        "▁when",
        -3.9318797654183104
      ],
      [
        "▁fina",
        -6.594469095657319
      ],
      [
        "▁forum",
        -9.93390936026009
      ],
      [
        "▁computer",
        -7.748108583305965
      ],
      [
        "'",
        -9.623396682475972
      ],
      [
        "▁migrant",
        -9.741544029328535
      ],
      [
        "▁evolv",
        -9.307357676860246
      ],
      [
        "▁valu",
        -10.742818018737335
      ],
      [
        "▁plaintiff",
        -9.741543857464931
      ],
      [
        "▁happ",
        -9.583390344128642
      ],
      [
        "oit",
        -7.519334603687978
      ],
      [
        "▁towe",
        -9.689024425197355
      ],
      [
        "▁fighter",
        -9.845061670076113
      ],
      [
        "▁under",
        -6.340505141486626
      ],
      [
        "▁hub",
        -10.311767299707947
      ],
      [
        "▁b/",
        -11.153795423368507
      ],
      [
        "terior",
        -9.757292973133069
      ],
      [
        "▁danc",
        -8.619351382735312
      ],
      [
        "u",
        -5.6466891656229885
      ],
      [
        "▁mr",
        -7.896021837232595
      ],
      [
        "sit",
        -9.383504073805348
      ],
      [
        "▁blue",
        -9.749500829712588
      ],
      [
        "▁suffer",
        -7.928009550386038
      ],
      [
        "▁rumor",
        -10.479611079678604
      ],
      [
        "▁examin",
        -9.377013372104653
      ],
      [
        "▁inch",
        -8.898263260978007
      ],
      [
        "▁monument",
        -10.478104984721632
      ],
      [
        "▁wizard",
        -9.213690646161602
      ],
      [
        "▁sixt",
        -7.576990953156584
      ],
      [
        "▁male",
        -8.770454009161357
      ],
      [
        "shion",
        -9.388551227826458
      ],
      [
        "▁sin",
        -10.417361666764064
      ],
      [
        "▁examine",
        -8.958313668623637
      ],
      [
        "▁tom",
        -8.029043611313273
      ],
      [
        "ri",
        -10.338064210866907
      ],
      [
        "▁present",
        -8.169805048700837
      ],
      [
        "y",
        -4.796594636724666
      ],
      [
        "s",
        -6.625258447850738
      ],
      [
        "▁pric",
        -10.86843617152679
      ],
      [
        "someon",
        -9.75135018918097
      ],
      [
        "▁distribut",
        -9.58729289509313
      ],
      [
        "▁war",
        -7.227503602513932
      ],
      [
        "▁arm",
        -7.297750946198029
      ],
      [
        "a",
        -2.8896488760980414
      ],
      [
        "▁mechanism",
        -9.321868298213925
      ],
      [
        "▁disclose",
        -10.175851081647977
      ],
      [
        "▁ensur",
        -8.932108183470353
      ],
      [
        "▁le",
        -7.706648196198184
      ],
      [
        "▁eth",
        -10.145581486630364
      ],
      [
        "▁elbow",
        -9.741543467387801
      ],
      [
        "▁i",
        -7.733415807312335
      ],
      [
        "▁emerge",
        -9.38954857975813
      ],
      [
        "▁stung",
        -9.877622477097226
      ],
      [
        "pt",
        -9.482845693749681
      ],
      [
        "c",
        -7.9821038333714105
      ],
      [
        "▁petrol",
        -9.832920816607317
      ],
      [
        "▁boost",
        -9.871722420135306
      ],
      [
        "▁wrong",
        -6.889840448844239
      ],
      [
        "▁luggage",
        -10.478087500630945
      ],
      [
        "▁pipe",
        -9.030089321651491
      ],
      [
        "▁eight",
        -5.45617522748721
      ],
      [
        "▁sniff",
        -10.375393110486147
      ],
      [
        "▁carrie",
        -8.115915210446387
      ],
      [
        "▁forth",
        -7.988309909754861
      ],
      [
        "▁process",
        -9.845681825194033
      ],
      [
        "rank",
        -8.979148090616182
      ],
      [
        "ley",
        -7.147190260073395
      ],
      [
        "bio",
        -10.280485820973691
      ],
      [
        "▁with",
        -4.952485445949646
      ],
      [
        "▁late",
        -6.267339765221746
      ],
      [
        "▁e",
        -7.922500136761246
      ],
      [
        "nt",
        -10.143321197620285
      ],
      [
        "▁acc",
        -8.65599519659119
      ],
      [
        "▁violat",
        -10.543789740476551
      ],
      [
        "▁emit",
        -10.84706492817579
      ],
      [
        "▁milk",
        -10.625895806374423
      ],
      [
        "erry",
        -8.16214516273859
      ],
      [
        "▁compar",
        -9.282297036030215
      ],
      [
        "▁pack",
        -9.650815747369048
      ],
      [
        "▁smuggle",
        -10.824332119835283
      ],
      [
        "▁communication",
        -8.5346959906669
      ],
      [
        "easure",
        -8.950023644685064
      ],
      [
        "▁horizon",
        -10.3114232865109
      ],
      [
        "▁wiki",
        -7.863494163401466
      ],
      [
        "▁",
        -2.7487932397236428
      ],
      [
        "ors",
        -9.10970472908617
      ],
      [
        "fication",
        -9.840161230200213
      ],
      [
        "▁doct",
        -10.480085774528842
      ],
      [
        "▁plann",
        -7.863411079835668
      ],
      [
        "eeth",
        -8.655315489896875
      ],
      [
        "position",
        -9.27791253734052
      ],
      [
        "▁forecast",
        -10.311457161326965
      ],
      [
        "do",
        -8.922653752225703
      ],
      [
        "▁plot",
        -9.443530658208989
      ],
      [
        "tional",
        -6.048598725648832
      ],
      [
        "▁diversi",
        -9.008337697717035
      ],
      [
        "▁prepare",
        -7.995917764946754
      ],
      [
        "▁tha",
        -2.389866280899322
      ],
      [
        "▁sh",
        -10.403440650539778
      ],
      [
        "▁airplane",
        -8.559989449078682
      ],
      [
        "▁found",
        -6.336787716580186
      ],
      [
        ".",
        -4.295143567899552
      ],
      [
        "some",
        -7.51383462932265
      ],
      [
        "▁pott",
        -8.202917943242564
      ],
      [
        "▁submit",
        -9.415786562877546
      ],
      [
        "▁moment",
        -7.564769057737069
      ],
      [
        "▁colleague",
        -8.869964055884736
      ],
      [
        "r.",
        -7.136724162657936
      ],
      [
        "▁clothes",
        -7.823067777938429
      ],
      [
        "▁access",
        -7.509574272321984
      ],
      [
        "▁class",
        -6.403744672749082
      ],
      [
        "▁histor",
        -7.488194880915716
      ],
      [
        "rape",
        -10.357512529212476
      ],
      [
        "▁iodi",
        -8.799832560822477
      ],
      [
        "▁penn",
        -8.9934492646715
      ],
      [
        ":",
        -5.121007365794226
      ],
      [
        "▁iran",
        -6.877564225648694
      ],
      [
        "▁15",
        -10.16858428271302
      ],
      [
        "▁appea",
        -10.818767504427957
      ],
      [
        "▁exhibit",
        -9.744631614273727
      ],
      [
        "▁islami",
        -7.93510282036169
      ],
      [
        "▁ball",
        -7.006350162614156
      ],
      [
        "▁mid",
        -8.851268335651802
      ],
      [
        "▁ben",
        -7.650880592374426
      ],
      [
        "▁medi",
        -9.759319758737579
      ],
      [
        "▁earthquake",
        -10.043563669759687
      ],
      [
        "▁bu",
        -7.405623915969515
      ],
      [
        "▁moderni",
        -10.478100245137028
      ],
      [
        "▁sway",
        -9.869892786801692
      ],
      [
        "▁blurr",
        -10.63355714758253
      ],
      [
        "▁cast",
        -9.486381679746437
      ],
      [
        "▁lawyer",
        -9.116789359470388
      ],
      [
        "▁awe",
        -7.865995048863473
      ],
      [
        "iddi",
        -10.04421055052546
      ],
      [
        "▁evaluat",
        -10.166585210078237
      ],
      [
        "another",
        -8.42639901100924
      ],
      [
        "▁nation",
        -7.571347819551487
      ],
      [
        "▁strong",
        -8.180612225759802
      ],
      [
        "▁lega",
        -7.356973108041503
      ],
      [
        "▁div",
        -10.45875655657026
      ],
      [
        "▁tho",
        -9.772827531104562
      ],
      [
        "▁hospital",
        -8.262215490082594
      ],
      [
        "ill",
        -9.91318832139466
      ],
      [
        "▁grasp",
        -9.74422081448763
      ],
      [
        "▁palm",
        -9.742660551806228
      ],
      [
        "▁chat",
        -10.271376407925741
      ],
      [
        "at",
        -10.166605929081395
      ],
      [
        "▁grip",
        -9.933037066253508
      ],
      [
        "▁march",
        -7.229555512463958
      ],
      [
        "▁sim",
        -7.319585519843614
      ],
      [
        "▁cru",
        -7.9234238892248285
      ],
      [
        "'",
        -2.482385910194264
      ],
      [
        "▁sham",
        -9.269197670990797
      ],
      [
        "▁sit",
        -9.644173706512426
      ],
      [
        "lin",
        -8.183711367389442
      ],
      [
        "▁shell",
        -9.450231086406738
      ],
      [
        "once",
        -6.213434230210199
      ],
      [
        "▁scar",
        -7.32148577914158
      ],
      [
        "o",
        -4.757238422636543
      ],
      [
        "▁kilomet",
        -10.170787107917958
      ],
      [
        "zz",
        -10.387746212683894
      ],
      [
        "▁tame",
        -10.065466063697992
      ],
      [
        "▁gap",
        -9.116773863333702
      ],
      [
        "2000",
        -6.951704688285504
      ],
      [
        "ification",
        -9.79122310592978
      ],
      [
        "▁curs",
        -10.034524086838518
      ],
      [
        "▁folk",
        -8.87055880957285
      ],
      [
        "▁posture",
        -10.170262785309287
      ],
      [
        "▁substance",
        -9.322373368480726
      ],
      [
        "▁walnut",
        -10.31142117162906
      ],
      [
        "▁support",
        -7.791086554025293
      ],
      [
        "▁focuse",
        -9.211524198346563
      ],
      [
        "oul",
        -4.862598188843797
      ],
      [
        "▁cop",
        -10.712685840043992
      ],
      [
        "▁no",
        -6.709205954266236
      ],
      [
        "▁abuse",
        -10.495834332991542
      ],
      [
        "▁struc",
        -9.573025127923305
      ],
      [
        "▁whi",
        -11.4688705740323
      ],
      [
        "ue",
        -10.374843871007744
      ],
      [
        "▁pat",
        -10.649402164164412
      ],
      [
        "canada",
        -7.758072633861154
      ],
      [
        "▁block",
        -8.283216882473358
      ],
      [
        "▁occupy",
        -10.182172470793276
      ],
      [
        "▁196",
        -6.719940973763605
      ],
      [
        "▁outbreak",
        -10.168578008563703
      ],
      [
        "▁con",
        -7.391996245884695
      ],
      [
        "▁commi",
        -10.663312500887008
      ],
      [
        "read",
        -9.55155215439153
      ],
      [
        "ng",
        -7.785275701114573
      ],
      [
        "▁entre",
        -9.86867135955981
      ],
      [
        "mp",
        -9.722932002972923
      ],
      [
        "▁proponent",
        -10.478087491319082
      ],
      [
        "ormit",
        -10.30517142123429
      ],
      [
        "▁-",
        -7.106383807340567
      ],
      [
        "▁luna",
        -10.311493632266904
      ],
      [
        "▁scann",
        -10.023973054650948
      ],
      [
        "▁http://",
        -7.927546985238591
      ],
      [
        "ntl",
        -7.392382711792217
      ],
      [
        "▁than",
        -5.888803821775666
      ],
      [
        "▁sh",
        -9.787824462077552
      ],
      [
        "ere",
        -8.9394830435864
      ],
      [
        "▁amaze",
        -9.86882489442777
      ],
      [
        "tuck",
        -8.669650365756599
      ],
      [
        "ra",
        -8.8217200948464
      ],
      [
        "mas",
        -7.672710675039584
      ],
      [
        "time",
        -8.566251643589336
      ],
      [
        "▁compensate",
        -9.885234912673681
      ],
      [
        "▁barn",
        -8.45969284683354
      ],
      [
        "▁etc",
        -7.771713491318611
      ],
      [
        "(",
        -4.690054248533107
      ],
      [
        "▁care",
        -8.009467513872664
      ],
      [
        "▁contest",
        -10.37565670942262
      ],
      [
        "▁rag",
        -9.507646288732989
      ],
      [
        "g",
        -7.363773323253889
      ],
      [
        "▁convinc",
        -10.731426916810456
      ],
      [
        "▁socks",
        -9.15909480078042
      ],
      [
        "▁regret",
        -9.489790445532266
      ],
      [
        "▁fel",
        -6.545177225183178
      ],
      [
        "▁incorporate",
        -8.867489578700768
      ],
      [
        "politic",
        -6.515086073278683
      ],
      [
        "▁litera",
        -8.811253983843827
      ],
      [
        "d",
        -7.331475850391489
      ],
      [
        "▁strengthen",
        -8.731130213921778
      ],
      [
        "▁harm",
        -10.044217544210303
      ],
      [
        "▁contradict",
        -10.175392292207269
      ],
      [
        "3",
        -4.193572430795963
      ],
      [
        "uh",
        -13.441672283788352
      ],
      [
        "▁direct",
        -8.924893410825268
      ],
      [
        "▁romance",
        -9.933253995389363
      ],
      [
        "▁skittle",
        -8.178938446758837
      ],
      [
        "▁first",
        -4.829267318650501
      ],
      [
        "▁palace",
        -9.832535900061565
      ],
      [
        "imate",
        -7.97804560746793
      ],
      [
        "▁bullet",
        -10.1702710180191
      ],
      [
        "▁screen",
        -8.412473885480397
      ],
      [
        "▁apr",
        -7.877193718819184
      ],
      [
        "oget",
        -6.134195808425585
      ],
      [
        "▁prefect",
        -10.0435880456469
      ],
      [
        "▁conform",
        -9.744589627943448
      ],
      [
        "▁librar",
        -9.1636903443565
      ],
      [
        "▁agreement",
        -7.470177209775466
      ],
      [
        "▁slice",
        -9.21371081141626
      ],
      [
        "▁const",
        -8.640904082376327
      ],
      [
        "▁cottage",
        -10.311427901475009
      ],
      [
        "▁term",
        -7.287625755707236
      ],
      [
        "▁spoon",
        -8.869994805879566
      ],
      [
        "▁night",
        -6.40696119632872
      ],
      [
        "▁tiger",
        -8.58730968774196
      ],
      [
        "ever",
        -7.831432693761964
      ],
      [
        "▁sacrifice",
        -10.37539229013642
      ],
      [
        "tivit",
        -9.56664369631667
      ],
      [
        "▁squeak",
        -10.00903609307047
      ],
      [
        "▁glow",
        -9.67868386879415
      ],
      [
        "▁initial",
        -9.744629739606761
      ],
      [
        "▁extinction",
        -10.311420809354187
      ],
      [
        "ednes",
        -9.940383263950388
      ],
      [
        "den",
        -7.186659619903959
      ],
      [
        "▁desire",
        -9.167987726756941
      ],
      [
        "ly",
        -8.960168132771331
      ],
      [
        "▁dictate",
        -10.642317893347553
      ],
      [
        "▁northwest",
        -7.949741795771724
      ],
      [
        "▁doubt",
        -8.869964094868962
      ],
      [
        "▁tak",
        -6.7177223722927
      ],
      [
        "▁temple",
        -9.511484328764858
      ],
      [
        "▁make",
        -10.09676669285927
      ],
      [
        "▁713",
        -7.230148690097462
      ],
      [
        "▁mind",
        -8.62897434810612
      ],
      [
        "▁place",
        -5.928404005390422
      ],
      [
        "e",
        -5.037702222238367
      ],
      [
        "▁contain",
        -7.666122745033119
      ],
      [
        "ern",
        -6.849387477125366
      ],
      [
        "▁sword",
        -9.833275008635052
      ],
      [
        "▁cite",
        -9.5459805419673
      ],
      [
        "for",
        -5.767560284088035
      ],
      [
        "▁broke",
        -7.022868058615649
      ],
      [
        "▁de",
        -8.417906198579672
      ],
      [
        "et",
        -8.520137268692363
      ],
      [
        "k",
        -6.263707711466564
      ],
      [
        "▁scent",
        -10.168582282082347
      ],
      [
        "▁gamb",
        -9.842071573209115
      ],
      [
        "▁comfort",
        -10.19503864904122
      ],
      [
        "▁hurt",
        -7.0391796372335245
      ],
      [
        "▁cer",
        -6.993604117416121
      ],
      [
        "▁operator",
        -8.643540310718194
      ],
      [
        "▁grocer",
        -10.139649708021645
      ],
      [
        "her",
        -9.029804971560168
      ],
      [
        "▁thank",
        -6.668770870264375
      ],
      [
        "_",
        -4.456929594736267
      ],
      [
        "▁collapse",
        -9.496938658474816
      ],
      [
        "▁bank",
        -8.324786031029777
      ],
      [
        "▁mature",
        -10.375526164268171
      ],
      [
        "▁die",
        -7.49905714446423
      ],
      [
        "yo",
        -13.477506734468584
      ],
      [
        "▁russian",
        -9.932452700027449
      ],
      [
        "▁propp",
        -10.377576722035313
      ],
      [
        "general",
        -7.568966548840232
      ],
      [
        "at",
        -8.319654424440706
      ],
      [
        "▁ass",
        -9.090261066641002
      ],
      [
        "▁shoul",
        -5.182621289545295
      ],
      [
        "ther",
        -5.232010347024702
      ],
      [
        "▁18",
        -5.485808363114372
      ],
      [
        "▁chris",
        -7.724535802396344
      ],
      [
        "tastic",
        -7.836222454254486
      ],
      [
        "▁nost",
        -10.318644460968027
      ],
      [
        "▁enron",
        -6.684014898675318
      ],
      [
        "▁lock",
        -8.433810179311402
      ],
      [
        "▁tree",
        -7.647058368700216
      ],
      [
        "▁set",
        -8.038734796666304
      ],
      [
        "▁development",
        -7.574209184252957
      ],
      [
        "▁attribut",
        -9.360514952474078
      ],
      [
        "▁helmet",
        -10.311532176618
      ],
      [
        "sel",
        -8.826133072965293
      ],
      [
        "r",
        -4.2054441170825125
      ],
      [
        "▁prize",
        -9.832471994994057
      ],
      [
        "▁rating",
        -10.077060312260615
      ],
      [
        "▁food",
        -6.164435149998224
      ],
      [
        "▁marshmallow",
        -10.043563668324929
      ],
      [
        "▁persuad",
        -10.624452776707885
      ],
      [
        "▁officer",
        -8.682338460492268
      ],
      [
        "▁hat",
        -7.6682878549409885
      ],
      [
        "icide",
        -8.703080915768616
      ],
      [
        "▁normal",
        -8.051013618467286
      ],
      [
        "▁",
        -0.7082085629404791
      ],
      [
        "▁repair",
        -9.288645750649827
      ],
      [
        "chest",
        -9.322894013387721
      ],
      [
        "ego",
        -7.424844664725108
      ],
      [
        "g",
        -6.4454353531177455
      ],
      [
        "▁what",
        -3.8575555843200693
      ],
      [
        "ri",
        -7.8896011737818
      ],
      [
        "▁access",
        -9.360592997055347
      ],
      [
        "▁blood",
        -10.63725419384442
      ],
      [
        "▁screw",
        -9.283484327322988
      ],
      [
        "▁explor",
        -10.52139996216673
      ],
      [
        "bye",
        -10.073461457925822
      ],
      [
        "▁engineer",
        -9.074445447439107
      ],
      [
        "st",
        -12.50667684532212
      ],
      [
        "▁jingle",
        -10.311485866711227
      ],
      [
        "ending",
        -9.570660062539732
      ],
      [
        "s",
        -3.5612652791976194
      ],
      [
        "▁re",
        -6.479732183788573
      ],
      [
        "▁ban",
        -10.305601835799806
      ],
      [
        "▁signature",
        -9.834181202951669
      ],
      [
        "▁micro",
        -8.386340097733717
      ],
      [
        "▁wors",
        -7.1919873934551335
      ],
      [
        "fall",
        -10.44913791816686
      ],
      [
        "ditio",
        -8.621133447474186
      ],
      [
        "ike",
        -3.964776749538939
      ],
      [
        "..........",
        -12.04219046270542
      ],
      [
        "ridge",
        -10.136538398972466
      ],
      [
        "▁tolerat",
        -9.639332834444483
      ],
      [
        "▁un",
        -9.477616961067127
      ],
      [
        "lapse",
        -9.95293944168008
      ],
      [
        "▁recipient",
        -9.027129302476204
      ],
      [
        "o",
        -6.147997236814882
      ],
      [
        "▁treatment",
        -8.224203125336462
      ],
      [
        "▁contin",
        -6.980466105370546
      ],
      [
        "d",
        -6.63835682793188
      ],
      [
        "▁offens",
        -10.311505269826505
      ],
      [
        "▁conver",
        -10.169033493193659
      ],
      [
        "▁israel",
        -7.075244153518487
      ],
      [
        "sing",
        -8.692224253441063
      ],
      [
        "dication",
        -9.786311544574872
      ],
      [
        "▁ga",
        -7.6465252666906505
      ],
      [
        "▁stem",
        -10.369968144482982
      ],
      [
        "▁board",
        -7.985128363847397
      ],
      [
        "ver",
        -4.964325609128449
      ],
      [
        "▁red",
        -9.089446497095635
      ],
      [
        "tial",
        -9.438606632471291
      ],
      [
        "▁prof",
        -7.238375070861989
      ],
      [
        "▁com",
        -6.276845960926167
      ],
      [
        "▁sure",
        -5.83860052409209
      ],
      [
        "▁camp",
        -9.97458230223666
      ],
      [
        "y",
        -3.3126902011208665
      ],
      [
        "nvas",
        -10.20899204515312
      ],
      [
        "▁scrap",
        -10.726274855521616
      ],
      [
        "▁requir",
        -9.106318260961466
      ],
      [
        "ive",
        -9.23570791855251
      ],
      [
        "n",
        -4.454280324818545
      ],
      [
        "▁approval",
        -9.070624288846865
      ],
      [
        "▁chine",
        -7.694773257057641
      ],
      [
        "▁grumble",
        -9.37715068505765
      ],
      [
        "▁female",
        -8.945464546028534
      ],
      [
        "▁sock",
        -9.589046386917826
      ],
      [
        "▁look",
        -7.759599288001831
      ],
      [
        "no",
        -6.8358683297991245
      ],
      [
        "▁glob",
        -9.658640637670418
      ],
      [
        "▁browser",
        -9.322198669518736
      ],
      [
        "▁du",
        -8.025915433780163
      ],
      [
        "▁si",
        -9.685769216740752
      ],
      [
        "▁fundamental",
        -7.691354906365133
      ],
      [
        "▁du",
        -9.8293129318129
      ],
      [
        "s",
        -3.4323096462437865
      ],
      [
        "▁mean",
        -7.964630717571043
      ],
      [
        "▁steve",
        -8.197645767411602
      ],
      [
        "us",
        -7.413537036870654
      ],
      [
        "▁fever",
        -9.509955395527228
      ],
      [
        "▁mort",
        -10.324005744088996
      ],
      [
        "▁pos",
        -6.272087047022914
      ],
      [
        "▁regard",
        -7.834854977469234
      ],
      [
        "▁poor",
        -6.827153171806246
      ],
      [
        "y",
        -3.6159587335253516
      ],
      [
        "▁hotel",
        -7.5543601690337345
      ],
      [
        "▁length",
        -9.071336344829277
      ],
      [
        "'",
        -10.925660239071423
      ],
      [
        "akes",
        -9.879685453590378
      ],
      [
        "▁tag",
        -8.949890713114671
      ],
      [
        "▁serving",
        -10.044153056809229
      ],
      [
        "msel",
        -8.064757822162456
      ],
      [
        "▁forgot",
        -7.758661021247899
      ],
      [
        "▁transfer",
        -9.213685760201512
      ],
      [
        "say",
        -10.040776107806037
      ],
      [
        "uch",
        -7.227515523436938
      ],
      [
        "n",
        -8.248483443981259
      ],
      [
        "ard",
        -7.618274005446448
      ],
      [
        "▁shuttle",
        -9.741552064857755
      ],
      [
        "r",
        -6.34968194493543
      ],
      [
        "hip",
        -9.897383060640479
      ],
      [
        "est",
        -5.834993291504394
      ],
      [
        "tu",
        -10.257452071108853
      ],
      [
        "▁pa",
        -7.4263672409595385
      ],
      [
        "▁stage",
        -8.643555897916803
      ],
      [
        "▁story",
        -7.433748548895226
      ],
      [
        "ff",
        -9.909663336203378
      ],
      [
        "tell",
        -9.824890703584872
      ],
      [
        "has",
        -9.011977185158957
      ],
      [
        "▁match",
        -9.081241443968551
      ],
      [
        "▁condemn",
        -9.534131494491787
      ],
      [
        "▁sussex",
        -10.043565725045854
      ],
      [
        "▁mask",
        -9.381199401819691
      ],
      [
        "isda",
        -9.760248938304615
      ],
      [
        "▁s",
        -8.496574491134888
      ],
      [
        "▁tir",
        -7.751708177182447
      ],
      [
        "▁finish",
        -7.390927051909596
      ],
      [
        "▁x3",
        -10.203471128588387
      ],
      [
        "▁duck",
        -8.313772746865784
      ],
      [
        "id",
        -10.076023162833996
      ],
      [
        "▁derivative",
        -10.31142080913969
      ],
      [
        "▁cri",
        -10.700846500633672
      ],
      [
        "▁him",
        -5.173822855149899
      ],
      [
        "▁off",
        -9.035770746731274
      ],
      [
        "▁president",
        -7.393198779236657
      ],
      [
        "▁ask",
        -5.920381038087149
      ],
      [
        "▁back",
        -4.76794666312063
      ],
      [
        "▁paragraph",
        -9.743035595034065
      ],
      [
        "cut",
        -10.581990512418892
      ],
      [
        "▁principle",
        -8.672622583377052
      ],
      [
        "▁$",
        -10.323774203408194
      ],
      [
        "wh",
        -8.549184731091053
      ],
      [
        "▁need",
        -7.807323209568863
      ],
      [
        "▁",
        -1.2052669954522912
      ],
      [
        "▁zone",
        -9.749476614513448
      ],
      [
        "▁hi",
        -8.97664959386464
      ],
      [
        "▁crie",
        -8.680881358113988
      ],
      [
        "e",
        -2.645353623077794
      ],
      [
        "▁ende",
        -9.52098551486961
      ],
      [
        "▁limousine",
        -9.380691815971614
      ],
      [
        "▁chess",
        -9.382422995320233
      ],
      [
        "▁seattle",
        -6.807459283346383
      ],
      [
        "▁d",
        -7.835324086530707
      ],
      [
        "▁lifestyle",
        -10.04357506465448
      ],
      [
        "▁beg",
        -7.530272615901482
      ],
      [
        "▁guess",
        -7.080943056021663
      ],
      [
        "▁final",
        -10.052653826814455
      ],
      [
        "▁orient",
        -9.869005737892438
      ],
      [
        "▁assign",
        -8.874152891066661
      ],
      [
        "elect",
        -10.454643477231969
      ],
      [
        "▁sale",
        -9.372926783390067
      ],
      [
        "▁layer",
        -10.328315322312214
      ],
      [
        "▁rise",
        -9.168278348737832
      ],
      [
        "▁convenience",
        -10.04555216926118
      ],
      [
        "▁chocolate",
        -8.282215470790526
      ],
      [
        "▁defen",
        -8.693305300581061
      ],
      [
        "▁r",
        -8.14236656300679
      ],
      [
        "vs",
        -12.525459860751756
      ],
      [
        "h",
        -12.810278406305953
      ],
      [
        "▁away",
        -5.529427344981297
      ],
      [
        "▁half",
        -8.329189645598262
      ],
      [
        "▁house",
        -6.31345871373716
      ],
      [
        "▁rule",
        -9.498378461293761
      ],
      [
        "ought",
        -6.8320619203240085
      ],
      [
        "▁break",
        -7.4288678891284174
      ],
      [
        "***",
        -10.264982179695927
      ],
      [
        "rent",
        -5.521074983472676
      ],
      [
        "ando",
        -7.666706014460982
      ],
      [
        "▁drugs",
        -10.202403620082183
      ],
      [
        "▁crashe",
        -10.491287712122011
      ],
      [
        "re",
        -8.421918623493923
      ],
      [
        "▁claim",
        -7.677906900628578
      ],
      [
        "▁six",
        -4.954665155508478
      ],
      [
        "k",
        -6.961859007483909
      ],
      [
        "▁theodor",
        -8.14327177728987
      ],
      [
        "▁31",
        -6.916304381332294
      ],
      [
        "▁clause",
        -9.742005736135003
      ],
      [
        "▁spot",
        -8.412956151146375
      ],
      [
        "▁phone",
        -7.130847053332728
      ],
      [
        "▁to",
        -4.677054644818611
      ],
      [
        "▁them",
        -5.092080749922367
      ],
      [
        "vil",
        -8.768168897437533
      ],
      [
        "▁anthr",
        -8.559874657338217
      ],
      [
        "▁referr",
        -8.883806051214275
      ],
      [
        "▁19",
        -5.4772626976529235
      ],
      [
        "▁supplement",
        -10.625392290116027
      ],
      [
        "▁unit",
        -9.179203765796299
      ],
      [
        "▁qui",
        -6.449378746013751
      ],
      [
        "▁ta",
        -7.870359405251638
      ],
      [
        "▁mixture",
        -9.510120288823135
      ],
      [
        "▁lick",
        -8.629187638831143
      ],
      [
        "▁batter",
        -8.907787144003969
      ],
      [
        "▁effect",
        -10.375409189424913
      ],
      [
        "▁referenc",
        -10.57040959474168
      ],
      [
        "▁butt",
        -9.632738286865834
      ],
      [
        "wive",
        -10.389558617607367
      ],
      [
        "▁th",
        -11.03572952159127
      ],
      [
        "▁soft",
        -9.116822302317962
      ],
      [
        "▁car",
        -9.983080030822261
      ],
      [
        "▁relax",
        -9.119215601218187
      ],
      [
        "▁tear",
        -9.94885977442624
      ],
      [
        "▁studio",
        -9.448040244582966
      ],
      [
        "old",
        -9.528845702195468
      ],
      [
        "▁abo",
        -7.800414812845981
      ],
      [
        "a",
        -3.730887411176008
      ],
      [
        "▁worship",
        -9.827199465501938
      ],
      [
        "▁toll",
        -9.658394984507929
      ],
      [
        "▁talent",
        -9.321903166033806
      ],
      [
        "ion",
        -7.363737488373702
      ],
      [
        "▁kiss",
        -8.730430373325518
      ],
      [
        "quino",
        -8.773385744816004
      ],
      [
        "▁entr",
        -9.10589569215248
      ],
      [
        "‘",
        -9.32263420951717
      ],
      [
        "▁piece",
        -6.914504115641932
      ],
      [
        "▁re",
        -7.5452357933588035
      ],
      [
        "▁parakeet",
        -9.509858504798443
      ],
      [
        "▁scramble",
        -10.446661496406358
      ],
      [
        "▁spawn",
        -9.869151390240038
      ],
      [
        "▁absorb",
        -9.024768821123665
      ],
      [
        "▁wrestle",
        -10.033267303037993
      ],
      [
        "herself",
        -11.97634857643032
      ],
      [
        "▁made",
        -5.751019815800901
      ],
      [
        "▁hammer",
        -10.375401357459415
      ],
      [
        "▁pizza",
        -8.186016109900049
      ],
      [
        "news",
        -8.123167760465927
      ],
      [
        "▁counterfeit",
        -9.070607771943902
      ],
      [
        "▁complex",
        -9.581414799445056
      ],
      [
        "▁experienc",
        -9.952192018245142
      ],
      [
        "ll",
        -10.466913703496358
      ],
      [
        "▁apple",
        -8.476774976489743
      ],
      [
        "-------",
        -13.30666406664707
      ],
      [
        "t",
        -4.573340008156834
      ],
      [
        "▁way",
        -5.450983776742622
      ],
      [
        "▁hang",
        -10.289505085553333
      ],
      [
        "▁racket",
        -9.581509376659149
      ],
      [
        "▁debat",
        -10.713720410635402
      ],
      [
        "ac",
        -9.935112132033298
      ],
      [
        "▁rescue",
        -9.266323870286456
      ],
      [
        "uce",
        -9.942412552028568
      ],
      [
        "▁employ",
        -8.875024277893623
      ],
      [
        "▁cry",
        -9.60846179965942
      ],
      [
        "▁balloon",
        -8.323562937923008
      ],
      [
        "|",
        -9.71992686283465
      ],
      [
        "▁pilgrim",
        -9.931784944451753
      ],
      [
        "end",
        -9.343969701357597
      ],
      [
        "▁per",
        -7.430482432399975
      ],
      [
        "to",
        -7.662555047320671
      ],
      [
        "ge",
        -7.9769188520205665
      ],
      [
        "bec",
        -10.574143790540935
      ],
      [
        "▁path",
        -8.348260750554214
      ],
      [
        "▁gul",
        -9.634751169641923
      ],
      [
        "▁d",
        -5.958236798378176
      ],
      [
        "▁state",
        -6.073588219978632
      ],
      [
        "ore",
        -8.148315166000659
      ],
      [
        "▁switch",
        -10.043581477569818
      ],
      [
        "fare",
        -9.292714415760184
      ],
      [
        "rush",
        -9.873162301776812
      ],
      [
        "▁travell",
        -9.466626765177278
      ],
      [
        "▁technolog",
        -7.8600655922295575
      ],
      [
        "hol",
        -7.434040998629878
      ],
      [
        "▁email",
        -9.283670887663895
      ],
      [
        "hey",
        -12.24726347818536
      ],
      [
        "▁tomato",
        -9.116074948136232
      ],
      [
        "anch",
        -10.38242850603623
      ],
      [
        "▁assist",
        -10.450664657426616
      ],
      [
        "▁l2",
        -9.027214197266304
      ],
      [
        "wha",
        -11.428549959890994
      ],
      [
        "ve",
        -8.736942800002197
      ],
      [
        "▁en",
        -6.905990043207903
      ],
      [
        "▁bumble",
        -10.311415947889712
      ],
      [
        "▁bo",
        -4.626909865803537
      ],
      [
        "▁inter",
        -7.5353412760524705
      ],
      [
        "-",
        -7.4870864549053495
      ],
      [
        "▁nomin",
        -10.207628193064897
      ],
      [
        "wood",
        -9.413963191931341
      ],
      [
        "▁handle",
        -9.730513205197303
      ],
      [
        "▁dre",
        -9.626342528233508
      ],
      [
        "▁wel",
        -9.830800278409978
      ],
      [
        "formulate",
        -10.62542919896698
      ],
      [
        "▁defeat",
        -9.024964534526536
      ],
      [
        "▁linguist",
        -9.741565060704097
      ],
      [
        "▁market",
        -7.2040971256635995
      ],
      [
        "▁deposit",
        -10.026892857274389
      ],
      [
        "▁laugh",
        -7.709788335891905
      ],
      [
        "▁th",
        -4.4762210506779
      ],
      [
        "▁alternative",
        -9.266336856708783
      ],
      [
        "▁horsie",
        -8.098217522568213
      ],
      [
        "▁sur",
        -8.43324878242829
      ],
      [
        "▁eve",
        -10.794610569481222
      ],
      [
        "▁mention",
        -7.452521818109263
      ],
      [
        "▁mh",
        -7.060644527996924
      ],
      [
        "ing",
        -6.494497185030072
      ],
      [
        "▁shoe",
        -7.360036976263818
      ],
      [
        "$",
        -2.9390045157878664
      ],
      [
        "▁addresse",
        -10.190085052801976
      ],
      [
        "▁govern",
        -10.476790506894485
      ],
      [
        "▁clas",
        -10.67734630783682
      ],
      [
        "▁.....",
        -12.537509853927435
      ],
      [
        "▁update",
        -8.870628464351363
      ],
      [
        "▁chat",
        -10.8744522336542
      ],
      [
        "▁witness",
        -9.633822607438336
      ],
      [
        "▁interest",
        -7.265897409932136
      ],
      [
        "▁obey",
        -10.625427026840482
      ],
      [
        "▁dresse",
        -10.044180213408815
      ],
      [
        "i",
        -6.571173088739063
      ],
      [
        "▁dress",
        -8.469099679585577
      ],
      [
        "▁discipline",
        -9.581303265728526
      ],
      [
        "▁death",
        -7.296616783481505
      ],
      [
        "lesh",
        -10.062543479869646
      ],
      [
        "▁lea",
        -6.746900389964052
      ],
      [
        "▁licens",
        -10.35561339211345
      ],
      [
        "st",
        -4.586035877960723
      ],
      [
        "▁measure",
        -8.16833961398914
      ],
      [
        "▁inc",
        -7.950822628918508
      ],
      [
        "▁capital",
        -8.033239165395287
      ],
      [
        "▁stall",
        -10.395554706651971
      ],
      [
        "▁stee",
        -10.24914642507314
      ],
      [
        "▁reference",
        -8.458550413807325
      ],
      [
        "them",
        -7.937344547440428
      ],
      [
        "=---",
        -11.804144771854496
      ],
      [
        "▁short",
        -6.594763792945896
      ],
      [
        "▁christ",
        -7.369766448325079
      ],
      [
        "all",
        -9.743397621993072
      ],
      [
        "ma",
        -6.566378326898287
      ],
      [
        "▁harmonise",
        -10.379349057462107
      ],
      [
        "▁assert",
        -9.360228417382928
      ],
      [
        "o",
        -1.7235607545640583
      ],
      [
        "▁test",
        -7.409318584347679
      ],
      [
        "▁full",
        -6.361760699344071
      ],
      [
        "▁create",
        -6.916483019848426
      ],
      [
        "r",
        -4.802076662594015
      ],
      [
        "not",
        -11.552459937114449
      ],
      [
        "▁associate",
        -9.266312731274379
      ],
      [
        "be",
        -5.8753117268286665
      ],
      [
        "▁short",
        -8.507369351158612
      ],
      [
        "▁matter",
        -7.4524205370562955
      ],
      [
        "arriage",
        -9.582345540124793
      ],
      [
        "▁influence",
        -9.142093804611847
      ],
      [
        "ti",
        -7.94075632283433
      ],
      [
        "▁check",
        -8.239731254181791
      ],
      [
        "ly",
        -6.04520852120544
      ],
      [
        "▁suppose",
        -7.33864174470321
      ],
      [
        "▁account",
        -9.360499241317074
      ],
      [
        "ic",
        -8.459253420072184
      ],
      [
        "▁fire",
        -9.940502150780308
      ],
      [
        "4",
        -4.227577718061922
      ],
      [
        "▁point",
        -8.002162580788006
      ],
      [
        "▁focus",
        -8.049303936102298
      ],
      [
        "▁any",
        -6.200640577973125
      ],
      [
        "▁flow",
        -8.690843722762539
      ],
      [
        "▁server",
        -8.766511607554843
      ],
      [
        "▁was",
        -6.010289631052778
      ],
      [
        "▁llm",
        -9.932489812133712
      ],
      [
        "▁truth",
        -8.434678051742662
      ],
      [
        "cour",
        -7.539159453764968
      ],
      [
        "▁trigger",
        -9.869152196228187
      ],
      [
        "▁major",
        -10.167813786983906
      ],
      [
        "▁picture",
        -6.878422063643678
      ],
      [
        "▁prosecutor",
        -10.043563666668888
      ],
      [
        "presentation",
        -9.3200254098585
      ],
      [
        "get",
        -10.22512405160739
      ],
      [
        "▁reg",
        -8.561505855911198
      ],
      [
        "▁mat",
        -10.310946800488024
      ],
      [
        "▁good",
        -4.598078696122425
      ],
      [
        "▁position",
        -7.530605471570955
      ],
      [
        "▁award",
        -9.323229112969685
      ],
      [
        "▁volunteer",
        -10.375392290115844
      ],
      [
        "▁frown",
        -10.6265895858662
      ],
      [
        "▁suite",
        -9.957152269755174
      ],
      [
        "▁express",
        -8.509294847339676
      ],
      [
        "▁supplier",
        -10.484664742745837
      ],
      [
        "nix",
        -6.4856372391489705
      ],
      [
        "▁cal",
        -10.214673013250708
      ],
      [
        "lapse",
        -10.65405080993284
      ],
      [
        "▁drain",
        -10.400311397150432
      ],
      [
        "the",
        -9.636382313932264
      ],
      [
        "▁hill",
        -9.31526699621841
      ],
      [
        "▁decline",
        -9.26652619410472
      ],
      [
        "▁student",
        -7.426310801363259
      ],
      [
        "▁ar",
        -7.66241252467595
      ],
      [
        "apri",
        -7.848198512512108
      ],
      [
        "▁street",
        -7.817149434523227
      ],
      [
        "ve",
        -9.071097754752714
      ],
      [
        "▁apples",
        -10.355193973735659
      ],
      [
        "▁groan",
        -10.375972410080676
      ],
      [
        "p",
        -12.303800120175861
      ],
      [
        "▁quote",
        -8.970656992345866
      ],
      [
        "▁louis",
        -7.046225549458937
      ],
      [
        "▁chute",
        -9.932473785966744
      ],
      [
        "▁flirt",
        -9.63363385320415
      ],
      [
        "▁equivalen",
        -10.307618145156844
      ],
      [
        "▁band",
        -7.8768139205400205
      ],
      [
        "▁yellow",
        -6.965176970186363
      ],
      [
        "▁wood",
        -8.782335898887274
      ],
      [
        "ha",
        -8.022827823781132
      ],
      [
        "ive",
        -9.709368993220952
      ],
      [
        ";",
        -10.425660239071421
      ],
      [
        "ril",
        -8.028467496550498
      ],
      [
        "▁cu",
        -10.356453858389093
      ],
      [
        "▁basic",
        -7.651982902971502
      ],
      [
        "▁relations",
        -9.226526088245711
      ],
      [
        "▁encourag",
        -9.505242886454067
      ],
      [
        "▁fourt",
        -7.691191378294574
      ],
      [
        "nis",
        -10.054363858874634
      ],
      [
        "▁decree",
        -10.168566611850627
      ],
      [
        "ma",
        -8.848380702663485
      ],
      [
        "▁poll",
        -10.045443716557898
      ],
      [
        "▁–",
        -9.00060687934901
      ],
      [
        "▁sausage",
        -10.478146019963807
      ],
      [
        "▁feel",
        -10.056595669203316
      ],
      [
        "▁k",
        -9.926628001815933
      ],
      [
        "▁in",
        -6.084031962839865
      ],
      [
        "p",
        -6.298850307926003
      ],
      [
        "▁bye",
        -9.081440733831304
      ],
      [
        "▁exp",
        -7.390018252485213
      ],
      [
        "▁procedure",
        -8.43467800269547
      ],
      [
        "▁birth",
        -8.459303743729803
      ],
      [
        "▁",
        -2.3835752038720184
      ],
      [
        "▁lifeboat",
        -10.47969278294324
      ],
      [
        "▁bucket",
        -9.164000623366793
      ],
      [
        "ies",
        -5.031238300067517
      ],
      [
        "ng",
        -8.371015105561044
      ],
      [
        "▁clip",
        -9.885490016400016
      ],
      [
        "sday",
        -7.693954248750162
      ],
      [
        "▁cover",
        -7.530766538554042
      ],
      [
        "▁realist",
        -9.512115403760777
      ],
      [
        "▁gene",
        -7.92645367918931
      ],
      [
        "▁assure",
        -9.165045670762654
      ],
      [
        "▁impact",
        -8.302627058242717
      ],
      [
        "_",
        -4.3303563868877815
      ],
      [
        "▁reject",
        -9.212291352067611
      ],
      [
        "▁crack",
        -9.443154426765508
      ],
      [
        "▁building",
        -7.874451831877339
      ],
      [
        "▁put",
        -9.763840839421757
      ],
      [
        "▁ra",
        -10.421010936307129
      ],
      [
        "▁compete",
        -9.235698832012206
      ],
      [
        "▁propos",
        -9.210258085636664
      ],
      [
        "▁crayon",
        -9.070620332470313
      ],
      [
        "▁arrange",
        -8.659840971283762
      ],
      [
        "▁column",
        -8.799793009044826
      ],
      [
        "eaten",
        -9.340308157443427
      ],
      [
        "▁delight",
        -10.313223973084579
      ],
      [
        "▁engage",
        -9.027959368460433
      ],
      [
        "▁roar",
        -9.933530930260302
      ],
      [
        "00",
        -9.443160033069033
      ],
      [
        "▁imagination",
        -9.509859484957754
      ],
      [
        "▁gang",
        -10.045658481465521
      ],
      [
        "▁glove",
        -8.907453940559023
      ],
      [
        "▁call",
        -5.507270510526616
      ],
      [
        "ripp",
        -9.846629784821312
      ],
      [
        "▁resume",
        -9.745501675258915
      ],
      [
        "lil",
        -9.67376765380428
      ],
      [
        "n",
        -4.842692419104057
      ],
      [
        "▁download",
        -10.169077038005096
      ],
      [
        "▁through",
        -6.050063511843283
      ],
      [
        "rove",
        -8.69355978323242
      ],
      [
        "▁atm",
        -8.344852730498793
      ],
      [
        "▁residence",
        -10.170499786711087
      ],
      [
        "ad",
        -10.50561861375521
      ],
      [
        "▁test",
        -8.14215972269377
      ],
      [
        "p",
        -6.261203873790647
      ],
      [
        "▁air",
        -6.710709306119191
      ],
      [
        "▁constituenc",
        -9.027688646543567
      ],
      [
        "ivit",
        -9.049546863222519
      ],
      [
        "just",
        -8.055736815112477
      ],
      [
        "▁van",
        -9.015063550461857
      ],
      [
        "▁thread",
        -9.658210192906775
      ],
      [
        "▁recognise",
        -9.884996503038145
      ],
      [
        "▁deb",
        -10.08349269582723
      ],
      [
        "************",
        -12.973373201788785
      ],
      [
        "▁judge",
        -9.817911368366756
      ],
      [
        "▁professor",
        -9.163681188559885
      ],
      [
        "vel",
        -8.240154716813047
      ],
      [
        "what",
        -6.6959009818164335
      ],
      [
        "▁ca",
        -13.8725705263812
      ],
      [
        "▁198",
        -6.3983027320668455
      ],
      [
        "ous",
        -9.31929528214864
      ],
      [
        "▁press",
        -8.667822292624694
      ],
      [
        "▁operat",
        -9.416450268859371
      ],
      [
        "▁power",
        -7.219033257859041
      ],
      [
        "▁al",
        -9.671362514715632
      ],
      [
        "u",
        -4.005956395885905
      ],
      [
        "▁inside",
        -9.447963448757417
      ],
      [
        "ition",
        -9.17139553766637
      ],
      [
        "▁vi",
        -9.923466413929322
      ],
      [
        "▁slave",
        -9.323722979969912
      ],
      [
        "▁writ",
        -7.110939147606393
      ],
      [
        "▁vietnam",
        -8.14325809711445
      ],
      [
        "▁announc",
        -9.965328572264346
      ],
      [
        "▁drift",
        -10.175880782414616
      ],
      [
        "▁back",
        -7.160034505199614
      ],
      [
        "▁pivot",
        -8.167808600547232
      ],
      [
        "▁of",
        -6.502938737333261
      ],
      [
        "▁ac",
        -7.677514205205262
      ],
      [
        "▁damage",
        -8.614669710349514
      ],
      [
        "ontario",
        -7.789441832070588
      ],
      [
        "▁original",
        -10.300377251867003
      ],
      [
        "▁monster",
        -9.444145609051466
      ],
      [
        "▁augmentation",
        -10.311420810021165
      ],
      [
        "▁grass",
        -8.898951847579433
      ],
      [
        "▁west",
        -7.185927335397558
      ],
      [
        "▁wh",
        -5.509002581214281
      ],
      [
        "own",
        -5.651585842620452
      ],
      [
        "▁special",
        -6.647498610834503
      ],
      [
        "out",
        -6.242361992765792
      ],
      [
        "▁behave",
        -10.532273809375848
      ],
      [
        "▁conquer",
        -9.869148430134826
      ],
      [
        "there",
        -8.216130868877705
      ],
      [
        "▁af",
        -7.921499307680733
      ],
      [
        "▁inst",
        -8.455893289655085
      ],
      [
        "stress",
        -9.90228694472887
      ],
      [
        "▁remain",
        -9.932727112706296
      ],
      [
        "▁move",
        -6.640303779448729
      ],
      [
        "▁concentrat",
        -10.758539073044473
      ],
      [
        "▁embarrass",
        -10.661128233817251
      ],
      [
        "▁relate",
        -8.875343751627707
      ],
      [
        "▁fri",
        -7.618603189837049
      ],
      [
        "▁j",
        -9.32515395638501
      ],
      [
        "tter",
        -6.783327446752775
      ],
      [
        "▁survey",
        -9.52279258650782
      ],
      [
        "ight",
        -7.544412920616464
      ],
      [
        "▁depart",
        -7.211735076250526
      ],
      [
        "y",
        -4.489015840271201
      ],
      [
        "▁argue",
        -8.347926044747924
      ],
      [
        "▁era",
        -9.381989300091863
      ],
      [
        "▁attack",
        -7.943107177091735
      ],
      [
        "-",
        -12.303800120175861
      ],
      [
        "▁team",
        -7.4360987443864
      ],
      [
        "▁countryside",
        -10.315552231403695
      ],
      [
        "****",
        -11.697598525938803
      ],
      [
        "▁salad",
        -8.533530092509928
      ],
      [
        "h",
        -2.3558809577216078
      ],
      [
        "▁opening",
        -9.326116643926756
      ],
      [
        "▁multiply",
        -9.744815831279999
      ],
      [
        "▁remov",
        -10.48703154130754
      ],
      [
        "▁remed",
        -10.311481141341975
      ],
      [
        "mental",
        -7.321468882059985
      ],
      [
        "got",
        -10.98607480809809
      ],
      [
        "▁fort",
        -6.713938743306756
      ],
      [
        "▁dismisse",
        -10.088871863079307
      ],
      [
        "bo",
        -8.164355316804048
      ],
      [
        "▁cr",
        -10.644824002594696
      ],
      [
        "▁schedule",
        -8.64038540932323
      ],
      [
        "▁threaten",
        -8.917157554625366
      ],
      [
        "▁lifetime",
        -9.588708709730007
      ],
      [
        "▁p.",
        -10.29057830323707
      ],
      [
        "▁fair",
        -7.1859296782387645
      ],
      [
        "▁wi",
        -10.730112993067628
      ],
      [
        "ch",
        -6.898701418822459
      ],
      [
        "▁runn",
        -7.605528184991227
      ],
      [
        "▁accomplishment",
        -10.47808749882418
      ],
      [
        "d",
        -11.061985573933999
      ],
      [
        "▁lol",
        -7.00934076015975
      ],
      [
        "▁raid",
        -10.516207023691686
      ],
      [
        "▁dessert",
        -9.658210885479297
      ],
      [
        "dependenc",
        -10.295745441820234
      ],
      [
        "cit",
        -9.440285958121521
      ],
      [
        "▁guilt",
        -9.93246019163463
      ],
      [
        "ay",
        -10.276524336441142
      ],
      [
        "▁speed",
        -8.766969559766197
      ],
      [
        "▁slipp",
        -10.346942668688207
      ],
      [
        "▁terroris",
        -9.692110474991043
      ],
      [
        "_",
        -5.969535083399892
      ],
      [
        "▁oh",
        -3.2899133699130756
      ],
      [
        "▁potato",
        -9.116824142657535
      ],
      [
        "▁uphold",
        -10.644607613795992
      ],
      [
        "▁light",
        -8.022024747016536
      ],
      [
        "ibilit",
        -9.03711928105411
      ],
      [
        "ding",
        -8.223324932902933
      ],
      [
        "fect",
        -10.172550138150612
      ],
      [
        "▁success",
        -8.22835123492166
      ],
      [
        "▁run",
        -8.754310433168932
      ],
      [
        "live",
        -9.89933851013537
      ],
      [
        "▁telephone",
        -8.64366898574794
      ],
      [
        "▁fina",
        -7.557620854095129
      ],
      [
        "▁river",
        -8.34434994562388
      ],
      [
        "▁act",
        -8.184328326643946
      ],
      [
        "c",
        -7.127909050427332
      ],
      [
        "fence",
        -10.314587342183268
      ],
      [
        "▁slid",
        -8.839298793469695
      ],
      [
        "▁bec",
        -7.535835746995765
      ],
      [
        "▁muc",
        -5.922368473306233
      ],
      [
        "▁susp",
        -10.346641782490627
      ],
      [
        "▁atlant",
        -4.990864790618718
      ],
      [
        "▁haircut",
        -9.581289596362732
      ],
      [
        "dron",
        -10.172006672499288
      ],
      [
        "▁j",
        -10.299932557909178
      ],
      [
        "▁coun",
        -8.182471114272301
      ],
      [
        "▁race",
        -10.09846706237936
      ],
      [
        "▁jew",
        -9.028560907994494
      ],
      [
        "▁import",
        -8.672629005611885
      ],
      [
        "▁dock",
        -10.173436548819772
      ],
      [
        "ing",
        -4.8857716042000945
      ],
      [
        "▁thought",
        -6.440770853893309
      ],
      [
        "▁pay",
        -10.103371136813596
      ],
      [
        "▁custom",
        -9.066796503252661
      ],
      [
        "▁complete",
        -8.078426580578027
      ],
      [
        "▁phy",
        -7.952574954026047
      ],
      [
        "▁withdraw",
        -9.283877617981842
      ],
      [
        "▁inter",
        -9.644798076540011
      ],
      [
        "▁loom",
        -9.907731769756356
      ],
      [
        "where",
        -9.151435274764282
      ],
      [
        "ne",
        -12.213083490762878
      ],
      [
        "▁redesign",
        -10.626120152468657
      ],
      [
        "▁bomb",
        -8.721812878404197
      ],
      [
        "▁trailer",
        -10.178357649269438
      ],
      [
        "nel",
        -10.24856504160751
      ],
      [
        "▁endorse",
        -10.011533725673203
      ],
      [
        "▁memorize",
        -10.625426217963572
      ],
      [
        "▁buckl",
        -10.635303392634972
      ],
      [
        "s",
        -3.328190644063051
      ],
      [
        "▁health",
        -7.744407798891499
      ],
      [
        "5",
        -10.281724364843335
      ],
      [
        "▁gum",
        -9.780362523922326
      ],
      [
        "ant",
        -5.65993211659834
      ],
      [
        "ima",
        -7.942444156788584
      ],
      [
        "▁ruin",
        -9.93246944173528
      ],
      [
        "▁beard",
        -9.32768495325439
      ],
      [
        "▁import",
        -9.36022865385811
      ],
      [
        ".",
        -9.0084367062112
      ],
      [
        "a",
        -3.4205258717030773
      ],
      [
        "??????",
        -13.834852348222816
      ],
      [
        "▁account",
        -7.593840737181569
      ],
      [
        "▁hate",
        -8.40402299196232
      ],
      [
        "▁duckie",
        -9.786569779388733
      ],
      [
        "et",
        -7.538849910540658
      ],
      [
        "▁dissolve",
        -10.105309963409216
      ],
      [
        "▁priest",
        -9.932476201985402
      ],
      [
        "people",
        -10.44885955789322
      ],
      [
        "ustration",
        -10.478086452736964
      ],
      [
        "4",
        -11.925660239071421
      ],
      [
        "▁dominate",
        -9.895628152636693
      ],
      [
        "▁risk",
        -9.094089437034025
      ],
      [
        "▁stuff",
        -7.25333568292502
      ],
      [
        "justice",
        -10.449253037710472
      ],
      [
        "▁ka",
        -8.121822124318559
      ],
      [
        "s",
        -3.317375215076636
      ],
      [
        "▁posting",
        -10.37065834027445
      ],
      [
        "des",
        -8.219792757979947
      ],
      [
        "▁translation",
        -8.945583727983113
      ],
      [
        "e",
        -2.3851922693400898
      ],
      [
        "▁b",
        -7.3334235582308365
      ],
      [
        "▁rais",
        -9.649895372483439
      ],
      [
        "▁refer",
        -8.213241469647643
      ],
      [
        "▁bowl",
        -10.643394458271768
      ],
      [
        "▁set",
        -6.866630984593461
      ],
      [
        "▁scar",
        -9.34619103414721
      ],
      [
        "shoul",
        -8.078104899454067
      ],
      [
        "▁ev",
        -8.183773973806336
      ],
      [
        "▁'c",
        -9.925472321816928
      ],
      [
        "onto",
        -6.635313634482095
      ],
      [
        "▁author",
        -8.114244008142872
      ],
      [
        "▁orientation",
        -9.934254246367868
      ],
      [
        "▁cabbage",
        -9.741574782045674
      ],
      [
        "▁uneas",
        -10.480245968805804
      ],
      [
        "folio",
        -9.747405819280413
      ],
      [
        "▁ride",
        -7.57088732838403
      ],
      [
        "d",
        -5.9477191613994504
      ],
      [
        "▁phoe",
        -6.477304883851522
      ],
      [
        "chart",
        -10.44924708289613
      ],
      [
        "▁flag",
        -8.642539247311284
      ],
      [
        "rine",
        -10.110239055159578
      ],
      [
        "abo",
        -12.396353484691211
      ],
      [
        "a",
        -3.8090227617556476
      ],
      [
        "▁snitch",
        -9.027129822722571
      ],
      [
        "▁programme",
        -7.912663589678015
      ],
      [
        "▁al",
        -10.834918644131701
      ],
      [
        "▁reflect",
        -7.854759970925008
      ],
      [
        "nk",
        -8.19346954846443
      ],
      [
        "▁buy",
        -6.587746264825932
      ],
      [
        "a",
        -10.36027840626602
      ],
      [
        "▁pant",
        -8.360173283303356
      ],
      [
        "ific",
        -9.767916210158067
      ],
      [
        "very",
        -9.890019985889037
      ],
      [
        "ar",
        -9.38103595699485
      ],
      [
        "▁constitution",
        -9.321868286477239
      ],
      [
        "▁passenger",
        -9.163684977299738
      ],
      [
        "cko",
        -10.324830608639992
      ],
      [
        "c",
        -6.008928337258088
      ],
      [
        "▁soak",
        -9.744552816776523
      ],
      [
        "▁o",
        -8.441425137702664
      ],
      [
        "▁essay",
        -10.478113442003181
      ],
      [
        "▁march",
        -10.177172228681894
      ],
      [
        "▁generat",
        -9.327991634186706
      ],
      [
        "▁hut",
        -10.118963560779509
      ],
      [
        "▁pursue",
        -9.515595600541936
      ],
      [
        "▁tourist",
        -8.345985481563359
      ],
      [
        "▁bri",
        -8.645104271300188
      ],
      [
        "te",
        -7.352798822831
      ],
      [
        "▁float",
        -8.688947204043847
      ],
      [
        "▁breed",
        -10.005725516614012
      ],
      [
        "▁beater",
        -10.047727496751518
      ],
      [
        "amon",
        -9.8340379517021
      ],
      [
        "▁real",
        -6.083406281355136
      ],
      [
        "▁cause",
        -7.574801675711839
      ],
      [
        "ssor",
        -9.727224045170528
      ],
      [
        "ity",
        -8.095819076855431
      ],
      [
        "▁parade",
        -10.315342448562175
      ],
      [
        "▁reduc",
        -9.075227997464417
      ],
      [
        "ney",
        -7.546892535134331
      ],
      [
        "▁verb",
        -10.312051313476276
      ],
      [
        "ndo",
        -7.136043383997399
      ],
      [
        "wan",
        -10.506554662929325
      ],
      [
        "▁abandon",
        -9.212464557526882
      ],
      [
        "▁salar",
        -9.837365743787533
      ],
      [
        "▁last",
        -5.387396407587891
      ],
      [
        "▁space",
        -7.138418152700688
      ],
      [
        "▁grow",
        -7.887514679181603
      ],
      [
        "▁de",
        -8.01062202877724
      ],
      [
        "▁version",
        -8.186765236228165
      ],
      [
        "p",
        -12.707635305583393
      ],
      [
        "name",
        -10.014082813206281
      ],
      [
        "ober",
        -7.42002466879213
      ],
      [
        "▁basi",
        -8.188899600949135
      ],
      [
        "-",
        -4.310181122036845
      ],
      [
        "ame",
        -7.426956483309218
      ],
      [
        "▁loo",
        -9.791475589517685
      ],
      [
        "▁lev",
        -10.665075671172792
      ],
      [
        "▁h",
        -9.88687233925407
      ],
      [
        "▁friends",
        -7.103210661668003
      ],
      [
        "▁lunch",
        -7.544618814984326
      ],
      [
        "el",
        -7.022978776406453
      ],
      [
        "▁see",
        -4.551308700229445
      ],
      [
        "▁pr",
        -10.497728478203527
      ],
      [
        "▁install",
        -8.573909449201338
      ],
      [
        "▁uh",
        -9.389550920122323
      ],
      [
        "▁wrap",
        -9.720742802928692
      ],
      [
        "lotte",
        -7.052632884894785
      ],
      [
        "▁no",
        -9.69145438726456
      ],
      [
        "▁ke",
        -7.778467243497968
      ],
      [
        "ver",
        -9.663487915502344
      ],
      [
        "▁denote",
        -10.176412575760246
      ],
      [
        "▁artist",
        -8.735376271474497
      ],
      [
        "▁mommy",
        -5.367563605588854
      ],
      [
        "▁result",
        -7.336087268751497
      ],
      [
        "some",
        -9.946535093477788
      ],
      [
        "df",
        -9.393359353222769
      ],
      [
        "▁portray",
        -10.375392345148754
      ],
      [
        "▁rebuild",
        -9.451621405412526
      ],
      [
        "cept",
        -10.232266352600973
      ],
      [
        "▁ron",
        -7.8218912874426145
      ],
      [
        "▁search",
        -8.706829101337929
      ],
      [
        "******",
        -12.400348347525032
      ],
      [
        "▁pose",
        -9.478580747881665
      ],
      [
        "▁transport",
        -8.917221765190643
      ],
      [
        "▁extension",
        -9.742197817041188
      ],
      [
        ",",
        -12.303800120175861
      ],
      [
        "_",
        -5.201045034743488
      ],
      [
        "▁opene",
        -8.749317240528171
      ],
      [
        "▁settle",
        -8.543389365197694
      ],
      [
        "▁pres",
        -8.41671137336538
      ],
      [
        "nforcement",
        -8.908087492325885
      ],
      [
        "tement",
        -9.38167277600336
      ],
      [
        "▁hop",
        -8.4796290412475
      ],
      [
        "▁wa",
        -9.499203125850554
      ],
      [
        "▁dsl",
        -10.479692607224008
      ],
      [
        "f",
        -7.674786905690743
      ],
      [
        "▁ju",
        -7.046426280978536
      ],
      [
        "r",
        -6.1491067157679815
      ],
      [
        "▁sales",
        -8.468221335980761
      ],
      [
        "▁speech",
        -8.766433705033648
      ],
      [
        "▁persona",
        -7.163868015445408
      ],
      [
        "▁g",
        -6.994355396347612
      ],
      [
        "know",
        -8.628820432861545
      ],
      [
        "▁rocket",
        -9.323574942336874
      ],
      [
        "▁satisfy",
        -9.63482029804836
      ],
      [
        "▁joke",
        -7.701203647710627
      ],
      [
        "zip",
        -10.382085699359514
      ],
      [
        "▁mu",
        -7.392537216598347
      ],
      [
        "▁stepp",
        -8.664658010126121
      ],
      [
        "▁per",
        -8.702681030109439
      ],
      [
        "6",
        -4.586613867475252
      ],
      [
        "▁installation",
        -10.168563671561529
      ],
      [
        "▁k",
        -8.295278039849142
      ],
      [
        "▁subscri",
        -9.887095645202246
      ],
      [
        "j",
        -10.414463463557897
      ],
      [
        "▁right",
        -6.763271303150441
      ],
      [
        "▁conven",
        -7.88587878792263
      ],
      [
        "▁sneak",
        -10.175420924835324
      ],
      [
        "tore",
        -10.89828486156022
      ],
      [
        "▁non-",
        -7.919293791434615
      ],
      [
        "lie",
        -10.919322018784746
      ],
      [
        "up",
        -8.050037684726725
      ],
      [
        "ish",
        -9.880878086315288
      ],
      [
        "box",
        -10.140336236912844
      ],
      [
        "g",
        -6.634938445940062
      ],
      [
        "v",
        -7.708099801804775
      ],
      [
        "ding",
        -8.718424413211814
      ],
      [
        "▁p",
        -7.0784131958335195
      ],
      [
        "▁seed",
        -8.945996563319394
      ],
      [
        "rate",
        -7.566553718926961
      ],
      [
        "▁separate",
        -8.89988291275871
      ],
      [
        "▁sacrifice",
        -10.043563696924217
      ],
      [
        "▁flavor",
        -8.870008338338652
      ],
      [
        "▁ow",
        -10.29158951522105
      ],
      [
        "▁whale",
        -8.559989786022063
      ],
      [
        "▁rat",
        -8.611379085741302
      ],
      [
        "▁face",
        -8.031543205840347
      ],
      [
        "▁skirt",
        -9.511116835324032
      ],
      [
        "▁definit",
        -7.0146932277584275
      ],
      [
        "▁labor",
        -8.761224404792216
      ],
      [
        "▁jame",
        -7.865659626642096
      ],
      [
        "▁harr",
        -6.31467034930061
      ],
      [
        "▁guerrilla",
        -9.658210155236866
      ],
      [
        "▁squa",
        -9.5435728886995
      ],
      [
        "us",
        -5.89601261951053
      ],
      [
        "▁pool",
        -8.800846188020898
      ],
      [
        "▁aunt",
        -8.909488297341861
      ],
      [
        "ic",
        -8.186328991949015
      ],
      [
        "▁convention",
        -9.443579037821992
      ],
      [
        "ext",
        -7.384595250247742
      ],
      [
        "▁enthusias",
        -10.164739898187397
      ],
      [
        "▁25",
        -5.938692828601146
      ],
      [
        "▁si",
        -6.321408593340358
      ],
      [
        "▁client",
        -8.766434030621266
      ],
      [
        "▁california",
        -7.008845010886844
      ],
      [
        "▁pal",
        -10.320627127912795
      ],
      [
        "▁calm",
        -10.2057695598747
      ],
      [
        "▁structure",
        -10.030556818710727
      ],
      [
        "ha",
        -10.934007455383558
      ],
      [
        "▁insert",
        -10.175394578197603
      ],
      [
        "cus",
        -11.32627823208435
      ],
      [
        "▁ri",
        -10.490612159304728
      ],
      [
        "▁leaders",
        -8.309101439157548
      ],
      [
        "ry",
        -5.935161893856904
      ],
      [
        "▁point",
        -6.722953568203625
      ],
      [
        "▁swu",
        -9.65185353571191
      ],
      [
        "▁ce",
        -8.988593735101205
      ],
      [
        "▁other",
        -7.525490944554041
      ],
      [
        "▁dignitar",
        -10.481343213429334
      ],
      [
        "▁scratch",
        -10.168564706437333
      ],
      [
        "they",
        -7.005894765477494
      ],
      [
        "▁office",
        -7.407830003125689
      ],
      [
        "▁mari",
        -7.87229094424601
      ],
      [
        "▁mill",
        -10.006259866914464
      ],
      [
        "▁sle",
        -10.878155465394816
      ],
      [
        "▁tout",
        -10.65239863272653
      ],
      [
        "▁consult",
        -9.7445485960796
      ],
      [
        "▁simple",
        -7.298001257945252
      ],
      [
        "▁fil",
        -10.04456895322318
      ],
      [
        "▁neighbor",
        -9.321741130106984
      ],
      [
        "▁skull",
        -10.47808748123636
      ],
      [
        "courage",
        -10.04988582663659
      ],
      [
        "▁frighten",
        -9.371537629658254
      ],
      [
        "▁imme",
        -7.436168493080066
      ],
      [
        "▁other",
        -7.476001329729437
      ],
      [
        "struction",
        -9.54637997427448
      ],
      [
        "ia",
        -9.181991915677653
      ],
      [
        "▁memo",
        -10.460749344990736
      ],
      [
        "▁tip",
        -8.907128063167825
      ],
      [
        "an",
        -6.937153073438733
      ],
      [
        "▁sold",
        -8.854102639208472
      ],
      [
        "hur",
        -9.858188248896202
      ],
      [
        "n",
        -5.575385108590867
      ],
      [
        "▁enter",
        -7.664202702451771
      ],
      [
        "men",
        -8.777300208248242
      ],
      [
        "▁centur",
        -7.668382998160545
      ],
      [
        "ators",
        -10.353256070229074
      ],
      [
        "▁celebrat",
        -9.860386935280754
      ],
      [
        "▁bring",
        -6.61685591217293
      ],
      [
        "▁to",
        -4.877779908052065
      ],
      [
        "▁first",
        -5.646883055112838
      ],
      [
        "!!!",
        -8.681878390748496
      ],
      [
        "▁char",
        -6.868648216008517
      ],
      [
        "▁warm",
        -9.092386316359836
      ],
      [
        "▁22",
        -10.47824000813807
      ],
      [
        "▁pause",
        -10.168667172788542
      ],
      [
        "te",
        -9.747775161545746
      ],
      [
        "▁interest",
        -9.025089984849822
      ],
      [
        "▁treat",
        -9.069802909425771
      ],
      [
        "▁victim",
        -9.509858590049406
      ],
      [
        "▁subscribe",
        -9.560372511793238
      ],
      [
        "all",
        -4.386146326760171
      ],
      [
        "▁administer",
        -9.869445995718653
      ],
      [
        "x",
        -10.718458113282997
      ],
      [
        "▁stretch",
        -9.741543471276824
      ],
      [
        "commerc",
        -10.457629339480926
      ],
      [
        "▁head",
        -8.281523441147987
      ],
      [
        "clo",
        -8.222269335033069
      ],
      [
        "▁rid",
        -9.576090970698349
      ],
      [
        "▁rush",
        -9.239331250726643
      ],
      [
        "onl",
        -8.282522629199118
      ],
      [
        "▁charit",
        -10.169600079452232
      ],
      [
        "proxim",
        -9.93254482611334
      ],
      [
        "▁ser",
        -7.925294009811336
      ],
      [
        "▁possession",
        -9.321868746742632
      ],
      [
        "▁approach",
        -8.366476981064372
      ],
      [
        "y",
        -2.356688656645275
      ],
      [
        "▁record",
        -8.25522370849124
      ],
      [
        "m",
        -6.7697770087744225
      ],
      [
        "▁sunday",
        -7.386638818532818
      ],
      [
        "▁na",
        -10.265512847832467
      ],
      [
        "aid",
        -8.194850112635836
      ],
      [
        "l",
        -6.8889135666360195
      ],
      [
        "lar",
        -10.082843437108531
      ],
      [
        "ital",
        -7.661153326631152
      ],
      [
        "▁’",
        -10.359454805938455
      ],
      [
        "lines",
        -10.441580733497688
      ],
      [
        "▁queries",
        -9.129900018636869
      ],
      [
        "▁terror",
        -8.751370703476868
      ],
      [
        "iz",
        -10.151324904595711
      ],
      [
        "▁trust",
        -9.163682451138616
      ],
      [
        "▁pipeline",
        -9.581560344994177
      ],
      [
        "▁nick",
        -10.168571308166637
      ],
      [
        "▁hik",
        -9.657785929657823
      ],
      [
        "▁cancel",
        -8.969339575900687
      ],
      [
        "wealth",
        -8.870673520801887
      ],
      [
        "▁reason",
        -10.009210640656498
      ],
      [
        "land",
        -8.808431504222439
      ],
      [
        "houston",
        -6.467223978381894
      ],
      [
        "mail",
        -10.018613989556655
      ],
      [
        "▁beep",
        -9.875138582928344
      ],
      [
        "▁iraq",
        -6.5304617225689805
      ],
      [
        "down",
        -9.714361444318357
      ],
      [
        "▁implie",
        -10.237241191681681
      ],
      [
        "▁sentence",
        -8.87027714305734
      ],
      [
        "ide",
        -9.572061885451374
      ],
      [
        "▁sheet",
        -8.422883773947177
      ],
      [
        "▁smok",
        -10.020211561953719
      ],
      [
        "▁cam",
        -6.278293092448769
      ],
      [
        "▁solution",
        -8.098517565090454
      ],
      [
        "▁dismiss",
        -10.270601876005362
      ],
      [
        "▁carbon",
        -9.16377027265975
      ],
      [
        "ride",
        -9.738160804075996
      ],
      [
        "▁production",
        -8.598263217227466
      ],
      [
        "▁austral",
        -8.113121713835453
      ],
      [
        "▁license",
        -9.164949153563807
      ],
      [
        "▁love",
        -8.1508193856858
      ],
      [
        "▁pioneer",
        -10.478092202968103
      ],
      [
        "▁customer",
        -7.328942627364787
      ],
      [
        "▁vote",
        -8.191384363135551
      ],
      [
        "▁lot",
        -6.240342926903457
      ],
      [
        "▁convey",
        -9.868975160758792
      ],
      [
        "eat",
        -8.359058933190482
      ],
      [
        "▁tile",
        -9.834733977771643
      ],
      [
        "▁infuse",
        -10.176457402288275
      ],
      [
        "▁serve",
        -6.80670337700455
      ],
      [
        "▁filter",
        -8.167849118307888
      ],
      [
        "▁like",
        -7.631115953989891
      ],
      [
        "ter",
        -8.43024249196058
      ],
      [
        "▁19",
        -8.869082596647845
      ],
      [
        "▁africa",
        -7.552096036445811
      ],
      [
        "▁eggs",
        -7.97041581139856
      ],
      [
        "▁soul",
        -9.581340066709412
      ],
      [
        "▁water",
        -6.4204695883288725
      ],
      [
        "▁mash",
        -10.426853426740696
      ],
      [
        "▁tin",
        -10.311558949266844
      ],
      [
        "▁pudd",
        -9.93357335644222
      ],
      [
        "▁whole",
        -9.213849186460736
      ],
      [
        "▁claim",
        -8.36684950942468
      ],
      [
        "l",
        -4.549207338544624
      ],
      [
        "▁scene",
        -8.458500804122743
      ],
      [
        "▁increas",
        -8.53900235210116
      ],
      [
        "▁illustrate",
        -9.71719364621959
      ],
      [
        "▁gene",
        -9.739907093954944
      ],
      [
        "▁formula",
        -10.478204674891854
      ],
      [
        "▁pointe",
        -10.312528603189131
      ],
      [
        "▁soy",
        -9.946683959774656
      ],
      [
        "hear",
        -10.38822343366926
      ],
      [
        "▁uni",
        -10.165232253253762
      ],
      [
        "▁warrant",
        -10.375402075859522
      ],
      [
        "▁target",
        -9.02478317640449
      ],
      [
        "▁pressur",
        -10.226033921580116
      ],
      [
        "▁constitute",
        -9.63411634790388
      ],
      [
        "▁chapter",
        -8.945552049744197
      ],
      [
        "age",
        -7.98578478115754
      ],
      [
        "▁specializ",
        -10.453495390656661
      ],
      [
        "▁coal",
        -9.611870560384462
      ],
      [
        "▁train",
        -8.089393905948796
      ],
      [
        "rd",
        -9.892193946220097
      ],
      [
        "stand",
        -10.92226918492571
      ],
      [
        "▁lei",
        -10.344054938680742
      ],
      [
        "▁priva",
        -9.510060485577865
      ],
      [
        "▁second",
        -6.165745746144752
      ],
      [
        "▁village",
        -9.163696457541151
      ],
      [
        "▁exception",
        -9.163717819855327
      ],
      [
        "▁chairman",
        -9.838018392246942
      ],
      [
        "▁few",
        -5.7598031210673275
      ],
      [
        "▁wake",
        -9.582720807250949
      ],
      [
        "▁net",
        -9.230565819009506
      ],
      [
        "▁pe",
        -10.776425122448485
      ],
      [
        "mm",
        -7.223101977105706
      ],
      [
        "▁expose",
        -9.78598951252306
      ],
      [
        "▁plan",
        -8.307157985587114
      ],
      [
        "▁hide",
        -10.315515446204357
      ],
      [
        "▁look",
        -4.774514457323838
      ],
      [
        "▁release",
        -9.44333620801952
      ],
      [
        "▁case",
        -6.766255565750259
      ],
      [
        "▁opportunit",
        -7.860065178571203
      ],
      [
        "▁smith",
        -8.118485197165938
      ],
      [
        "wo",
        -10.600779294355887
      ],
      [
        "▁dis",
        -7.815554582323649
      ],
      [
        "ia",
        -7.044474574176754
      ],
      [
        "▁un",
        -9.036505284817565
      ],
      [
        "▁grocery",
        -10.069814988109352
      ],
      [
        "▁sunshin",
        -10.04435775880997
      ],
      [
        "▁mer",
        -8.378431018539425
      ],
      [
        "▁order",
        -7.583793869267323
      ],
      [
        "▁gel",
        -9.44878989193856
      ],
      [
        "▁worth",
        -6.953504197572507
      ],
      [
        "m",
        -3.877617167919065
      ],
      [
        "▁touris",
        -9.889610724458338
      ],
      [
        "▁employee",
        -8.411628908552277
      ],
      [
        "▁be",
        -3.5847357895147223
      ],
      [
        "▁bleed",
        -9.664834712774644
      ],
      [
        "▁discover",
        -9.581697866363024
      ],
      [
        "▁compa",
        -10.46124372607025
      ],
      [
        "fo",
        -12.318804377466208
      ],
      [
        "▁stripe",
        -10.186641478257322
      ],
      [
        "▁deficit",
        -10.478139663741402
      ],
      [
        "▁deem",
        -9.891283968357795
      ],
      [
        "▁rolle",
        -10.204789143604737
      ],
      [
        "▁high",
        -6.500572263972546
      ],
      [
        "▁progress",
        -10.725716655126355
      ],
      [
        "ther",
        -8.47414026107005
      ],
      [
        "c",
        -5.879343646872435
      ],
      [
        "▁allocat",
        -10.565861953966023
      ],
      [
        "▁vote",
        -8.181196673880873
      ],
      [
        "▁revert",
        -10.641857501640272
      ],
      [
        "pression",
        -10.290142388316042
      ],
      [
        "stead",
        -6.393450791899517
      ],
      [
        "▁extradite",
        -10.625394309360583
      ],
      [
        "r",
        -7.556471746184325
      ],
      [
        "▁robert",
        -7.97251083194213
      ],
      [
        "sumption",
        -8.906948514148082
      ],
      [
        "▁chief",
        -9.7455041950685
      ],
      [
        "▁distribute",
        -8.56609744035245
      ],
      [
        "niversa",
        -10.168567186398523
      ],
      [
        "▁verse",
        -9.835411733780456
      ],
      [
        "▁degree",
        -8.458500456789384
      ],
      [
        "▁subject",
        -7.942869766021845
      ],
      [
        "▁militar",
        -8.616647243330661
      ],
      [
        "▁he",
        -10.399803686016336
      ],
      [
        "ualit",
        -10.245694039945095
      ],
      [
        "▁further",
        -7.053770262695196
      ],
      [
        "▁twin",
        -10.036331833435995
      ],
      [
        "▁wh",
        -6.667104945947117
      ],
      [
        "m",
        -9.599321042075394
      ],
      [
        "▁wash",
        -7.504951731329325
      ],
      [
        "ecess",
        -7.46000355533633
      ],
      [
        "q",
        -12.653795411026692
      ],
      [
        "▁linen",
        -10.343316845761477
      ],
      [
        "watch",
        -10.765199654747857
      ],
      [
        "▁biologist",
        -10.314429902656084
      ],
      [
        "▁bes",
        -7.768491441059008
      ],
      [
        "▁william",
        -7.965031970803138
      ],
      [
        "p",
        -6.326571753016402
      ],
      [
        "▁dollar",
        -7.177247689325739
      ],
      [
        "▁file",
        -9.438616817551106
      ],
      [
        "▁worr",
        -10.04522427940678
      ],
      [
        "▁office",
        -7.085744159640524
      ],
      [
        "▁cha",
        -9.567377843715608
      ],
      [
        "▁skipp",
        -10.387869865508259
      ],
      [
        "▁search",
        -8.734181033605674
      ],
      [
        "▁addiction",
        -9.070838951611458
      ],
      [
        "more",
        -5.727711952200021
      ],
      [
        "▁limitation",
        -9.382477643333257
      ],
      [
        "▁rescue",
        -9.633811937610737
      ],
      [
        "▁affliction",
        -10.478099743973928
      ],
      [
        "▁ac",
        -9.810532324247017
      ],
      [
        "▁stabili",
        -9.331454282629602
      ],
      [
        "▁ap",
        -8.1276090424487
      ],
      [
        "▁eat",
        -5.6316209781590745
      ],
      [
        "▁bush",
        -9.675843843117923
      ],
      [
        "ell",
        -7.337910525083229
      ],
      [
        "▁gla",
        -10.500243206036423
      ],
      [
        "▁cheese",
        -7.783748479796582
      ],
      [
        "utilize",
        -10.625463411992387
      ],
      [
        "▁jungle",
        -9.832663204563305
      ],
      [
        "▁whole",
        -6.270126945865008
      ],
      [
        "▁dealer",
        -9.459830578055305
      ],
      [
        "▁lodg",
        -10.486920360403635
      ],
      [
        "▁concert",
        -9.832466062967107
      ],
      [
        "▁broom",
        -9.6741246278576
      ],
      [
        "▁lion",
        -8.676963767318323
      ],
      [
        "er",
        -7.534039384376677
      ],
      [
        "▁meet",
        -6.995432217300358
      ],
      [
        "▁wo",
        -7.25034794109828
      ],
      [
        "ologist",
        -10.477158096615502
      ],
      [
        "which",
        -9.18791860584152
      ],
      [
        "▁blame",
        -9.251880993408966
      ],
      [
        "▁substitute",
        -10.822485321768516
      ],
      [
        "▁half",
        -7.816980987758748
      ],
      [
        "▁patch",
        -10.056316755322294
      ],
      [
        "{",
        -11.810278406305976
      ],
      [
        "▁dut",
        -8.817642122882724
      ],
      [
        "▁th",
        -10.302050805264072
      ],
      [
        "▁practice",
        -8.323469344161708
      ],
      [
        "▁stream",
        -10.17670891606647
      ],
      [
        "▁rinse",
        -9.443591173236342
      ],
      [
        "▁channel",
        -8.76643858123376
      ],
      [
        "s",
        -2.856836203130574
      ],
      [
        "▁message",
        -7.615139767616978
      ],
      [
        "▁habitat",
        -10.224214726442963
      ],
      [
        "▁d",
        -9.912457131010228
      ],
      [
        "▁investment",
        -8.799767030829369
      ],
      [
        "▁large",
        -8.179994687747769
      ],
      [
        "▁cra",
        -9.16087775535224
      ],
      [
        "▁stay",
        -6.40850852053221
      ],
      [
        "▁therap",
        -9.92280910702701
      ],
      [
        "▁suc",
        -6.023455274139659
      ],
      [
        "ty",
        -6.352900199569566
      ],
      [
        "▁san",
        -10.932787746396986
      ],
      [
        "e",
        -9.487298196508139
      ],
      [
        "r",
        -5.247984334137835
      ],
      [
        "scope",
        -9.116043258626226
      ],
      [
        "▁fore",
        -7.543247836527128
      ],
      [
        "k",
        -6.427881069140615
      ],
      [
        "it",
        -10.01546171339822
      ],
      [
        "▁mile",
        -9.17429085677243
      ],
      [
        "▁eb",
        -8.179068457308858
      ],
      [
        "▁shine",
        -10.254725073612573
      ],
      [
        "cinn",
        -7.731138636234309
      ],
      [
        "▁tha",
        -10.86236937007242
      ],
      [
        "▁push",
        -7.134800138392693
      ],
      [
        "have",
        -7.697358281809178
      ],
      [
        "▁cracker",
        -9.166293717274373
      ],
      [
        "▁ha",
        -4.343238869011367
      ],
      [
        "▁ton",
        -10.012002179406888
      ],
      [
        "▁now",
        -4.075357952692865
      ],
      [
        "▁attend",
        -9.932252416928602
      ],
      [
        "▁addi",
        -7.638614242434942
      ],
      [
        "▁devis",
        -10.417779703652418
      ],
      [
        "▁merit",
        -9.932611268407722
      ],
      [
        "l",
        -2.7651899767306247
      ],
      [
        "n",
        -11.31025614719772
      ],
      [
        "▁endeavor",
        -10.043699483495995
      ],
      [
        "▁rest",
        -7.595450192446089
      ],
      [
        "’",
        -6.26611087511166
      ],
      [
        "▁sudden",
        -7.4773120002241225
      ],
      [
        "▁holder",
        -9.758475780076713
      ],
      [
        "nd",
        -12.030856372203953
      ],
      [
        "st",
        -10.37931082129729
      ],
      [
        "▁combat",
        -10.376987570466618
      ],
      [
        "ic",
        -8.80799021294806
      ],
      [
        "▁afterward",
        -8.136140019234482
      ],
      [
        "▁qa",
        -7.1343382679065215
      ],
      [
        "▁plast",
        -9.267309464189333
      ],
      [
        "▁blow",
        -7.619058735936671
      ],
      [
        "▁bib",
        -9.942584786557424
      ],
      [
        "one",
        -9.353132765357131
      ],
      [
        "▁retreat",
        -10.176327441615475
      ],
      [
        "▁reiterate",
        -10.625392658544403
      ],
      [
        "▁jellyfish",
        -9.741599634671154
      ],
      [
        "▁beep",
        -10.639950304872311
      ],
      [
        "board",
        -8.405918832407734
      ],
      [
        "▁write",
        -6.549067944212382
      ],
      [
        "up",
        -8.61674309158935
      ],
      [
        "▁m",
        -5.935041124388865
      ],
      [
        "▁equip",
        -9.868752576889504
      ],
      [
        "▁bother",
        -8.347322225484815
      ],
      [
        "um",
        -6.370038527405928
      ],
      [
        "had",
        -6.878629606664507
      ],
      [
        "will",
        -7.214694535384876
      ],
      [
        "▁regist",
        -10.15113999063487
      ],
      [
        "▁zo",
        -10.477746378621982
      ],
      [
        "▁chimney",
        -10.478101692996184
      ],
      [
        "▁release",
        -8.105118794128881
      ],
      [
        "▁writer",
        -7.944769759394796
      ],
      [
        "▁o",
        -12.326071694749007
      ],
      [
        "▁we",
        -5.969460857835287
      ],
      [
        "w",
        -5.189900606426425
      ],
      [
        "▁sweater",
        -9.11664888894021
      ],
      [
        "▁crea",
        -10.184132669760583
      ],
      [
        "one",
        -8.816062925516773
      ],
      [
        "▁control",
        -8.942475958787753
      ],
      [
        "▁be",
        -4.961294813347506
      ],
      [
        "▁b",
        -6.06939314395327
      ],
      [
        "▁jan",
        -7.905588765754272
      ],
      [
        "▁vol",
        -10.174209186765031
      ],
      [
        "clusion",
        -10.447529529837755
      ],
      [
        "▁neuro",
        -9.83297560890167
      ],
      [
        "▁ap",
        -9.84726707032445
      ],
      [
        "▁honor",
        -10.169464009879047
      ],
      [
        "▁en",
        -8.676660447914408
      ],
      [
        "su",
        -8.669011440796117
      ],
      [
        "▁+",
        -12.232017845449422
      ],
      [
        "▁wild",
        -8.928126600543223
      ],
      [
        "ee",
        -5.71341828071153
      ],
      [
        "▁qu",
        -9.715826049876146
      ],
      [
        "wash",
        -10.439205520493884
      ],
      [
        "▁green",
        -9.266498883197883
      ],
      [
        "▁techn",
        -7.4262975788531485
      ],
      [
        "ture",
        -7.870761521004074
      ],
      [
        "▁kitten",
        -8.6435302982003
      ],
      [
        "demic",
        -10.126199741734824
      ],
      [
        "▁stomach",
        -9.163681184094383
      ],
      [
        "▁pest",
        -10.170011801776939
      ],
      [
        "▁struggle",
        -10.202497375495566
      ],
      [
        "▁trans",
        -8.808428148068545
      ],
      [
        "▁seal",
        -9.65013339640241
      ],
      [
        "ster",
        -10.233176630600624
      ],
      [
        "▁a.m",
        -9.509867470526006
      ],
      [
        "▁clerk",
        -9.932511117542752
      ],
      [
        "▁mor",
        -10.373848790221787
      ],
      [
        "▁napkin",
        -9.443301200456755
      ],
      [
        "▁mrs",
        -8.707820521627209
      ],
      [
        "▁lesson",
        -8.586864124707883
      ],
      [
        "pi",
        -8.620780129111486
      ],
      [
        "▁gold",
        -9.072506341394234
      ],
      [
        "▁ha",
        -10.134920345301197
      ],
      [
        "g",
        -5.086823106981542
      ],
      [
        "▁birthday",
        -7.535942425790751
      ],
      [
        "▁front",
        -7.547496069364088
      ],
      [
        "....",
        -10.519573882973248
      ],
      [
        "▁t",
        -7.102136036245208
      ],
      [
        "line",
        -10.53283153023056
      ],
      [
        "▁mind",
        -7.344556639691027
      ],
      [
        "▁national",
        -6.406663850264038
      ],
      [
        "ge",
        -7.6416958615391195
      ],
      [
        "▁desk",
        -8.033207012844603
      ],
      [
        "▁pledge",
        -9.534200459731345
      ],
      [
        "▁angel",
        -6.918869697806059
      ],
      [
        "ough",
        -10.913230474980764
      ],
      [
        "whom",
        -12.043381109938869
      ],
      [
        "▁town",
        -7.224350973830729
      ],
      [
        "ah",
        -6.5261127444782705
      ],
      [
        "ari",
        -7.987987158299443
      ],
      [
        "▁complet",
        -9.42658221300684
      ],
      [
        "▁achieve",
        -8.147531663921677
      ],
      [
        "▁execut",
        -7.998498319688814
      ],
      [
        "▁under",
        -9.799071239036792
      ],
      [
        "▁amendment",
        -8.323470933089563
      ],
      [
        "▁coupon",
        -9.581900057908916
      ],
      [
        "▁mumm",
        -8.263391583249586
      ],
      [
        "b",
        -6.1504537306829885
      ],
      [
        "▁winner",
        -10.478087528886702
      ],
      [
        "▁monitor",
        -9.212469515995753
      ],
      [
        "ect",
        -8.392790093430735
      ],
      [
        "▁twenty",
        -4.8566475189737
      ],
      [
        "▁revision",
        -9.512960534952708
      ],
      [
        "▁spear",
        -9.266435413415422
      ],
      [
        "▁indiana",
        -6.68329101633571
      ],
      [
        "▁i",
        -8.414006726853913
      ],
      [
        "▁contribut",
        -10.048690260992384
      ],
      [
        "▁s",
        -5.346467888196824
      ],
      [
        "▁relat",
        -9.299645529150311
      ],
      [
        "▁calculat",
        -10.529070410010046
      ],
      [
        "▁ours",
        -11.444714850985516
      ],
      [
        "n",
        -7.287323552283678
      ],
      [
        "▁end",
        -7.739997475527316
      ],
      [
        "h",
        -4.6934243343720325
      ],
      [
        "▁shape",
        -9.294041601447182
      ],
      [
        "▁resi",
        -9.447138458160442
      ],
      [
        "▁regula",
        -7.559224744930404
      ],
      [
        "▁say",
        -5.020055208945686
      ],
      [
        "er",
        -5.215771559406694
      ],
      [
        "or",
        -10.502977190467442
      ],
      [
        "▁confirmation",
        -10.482169820454443
      ],
      [
        "'",
        -10.921696721123718
      ],
      [
        "most",
        -5.889693681307584
      ],
      [
        "▁event",
        -7.409303392160442
      ],
      [
        "▁limb",
        -9.26887499946334
      ],
      [
        "on",
        -5.130753300564141
      ],
      [
        "ame",
        -5.336550110322487
      ],
      [
        "v",
        -11.925660239071421
      ],
      [
        "^",
        -12.810278406305976
      ],
      [
        "tten",
        -10.152820242262626
      ],
      [
        "▁clean",
        -9.655289158902892
      ],
      [
        "▁pr",
        -7.570935983409841
      ],
      [
        "odge",
        -10.470298444545076
      ],
      [
        "▁feed",
        -8.849271533742444
      ],
      [
        "▁tho",
        -7.397496751881506
      ],
      [
        "▁owner",
        -7.856454866916063
      ],
      [
        "▁guarantee",
        -9.658273252370474
      ],
      [
        "▁cub",
        -10.178088082832152
      ],
      [
        "▁desire",
        -9.432100138663028
      ],
      [
        "▁misse",
        -9.445020434371589
      ],
      [
        "▁merchant",
        -10.311722143102333
      ],
      [
        "▁plann",
        -9.27044020390293
      ],
      [
        "▁settler",
        -9.50993692017105
      ],
      [
        "▁yo",
        -9.274236374866302
      ],
      [
        "▁teaspoon",
        -10.043563702514572
      ],
      [
        "▁hedge",
        -9.741900855094903
      ],
      [
        "▁south",
        -6.850119517151502
      ],
      [
        "to",
        -9.861809860188213
      ],
      [
        "ove",
        -9.52546965254347
      ],
      [
        "e",
        -4.182485491868039
      ],
      [
        ".",
        -1.4533572890270836
      ],
      [
        "v",
        -7.189853336756621
      ],
      [
        "▁treat",
        -7.700576317288588
      ],
      [
        "▁di",
        -7.095849933496707
      ],
      [
        "▁actress",
        -9.932487953406788
      ],
      [
        "any",
        -8.672174552810601
      ],
      [
        "▁pump",
        -9.874935981298302
      ],
      [
        "fault",
        -9.768116002141952
      ],
      [
        "▁diplomat",
        -10.172144159024244
      ],
      [
        "▁judgment",
        -9.070607632705979
      ],
      [
        "▁painting",
        -8.463667647201754
      ],
      [
        "▁west",
        -9.275173103541295
      ],
      [
        "▁signoff",
        -10.169007027392642
      ],
      [
        "▁laundr",
        -9.5812871377601
      ],
      [
        "▁snail",
        -10.479364337058927
      ],
      [
        "sula",
        -8.162791166802986
      ],
      [
        "ted",
        -6.37783168450767
      ],
      [
        "▁preserve",
        -8.929681157232357
      ],
      [
        "▁da",
        -5.612932598072544
      ],
      [
        "▁becom",
        -9.051990026645438
      ],
      [
        "▁declare",
        -8.58821911898314
      ],
      [
        "▁diagram",
        -10.478087863237075
      ],
      [
        "▁dough",
        -10.478437635622662
      ],
      [
        "▁vet",
        -8.460127117410035
      ],
      [
        "▁cause",
        -8.098705274457785
      ],
      [
        "▁soa",
        -9.531481086034187
      ],
      [
        "▁wel",
        -5.239750120745514
      ],
      [
        "▁commissioner",
        -8.882450708279292
      ],
      [
        "▁gear",
        -10.481564458987545
      ],
      [
        "▁1960",
        -10.043573970272426
      ],
      [
        "▁rain",
        -8.22378055514206
      ],
      [
        "▁dollie",
        -9.335490826972363
      ],
      [
        "nature",
        -8.14568725348191
      ],
      [
        "▁cutt",
        -8.866731514576035
      ],
      [
        "▁h",
        -8.916932938285054
      ],
      [
        "made",
        -10.120059527937936
      ],
      [
        "▁essen",
        -10.285053785862953
      ],
      [
        "▁beach",
        -7.7924883451890254
      ],
      [
        "www",
        -6.046962245507245
      ],
      [
        "▁appetit",
        -10.179536821289629
      ],
      [
        "▁burrow",
        -10.37549242892569
      ],
      [
        "▁reap",
        -10.43527254325099
      ],
      [
        "▁onl",
        -6.357181621155046
      ],
      [
        "▁for",
        -3.676327704226436
      ],
      [
        "▁finishe",
        -8.079018015374686
      ],
      [
        "▁unt",
        -9.905702178190086
      ],
      [
        "▁diet",
        -9.659111843152662
      ],
      [
        "▁23",
        -6.469438607548392
      ],
      [
        "▁human",
        -8.482192532011421
      ],
      [
        "▁enem",
        -8.800329903110963
      ],
      [
        "▁columb",
        -7.707378439906106
      ],
      [
        "▁ham",
        -9.883212567403087
      ],
      [
        "▁overlook",
        -10.177590616902979
      ],
      [
        "thi",
        -6.816229796495273
      ],
      [
        "▁committ",
        -9.169860122076315
      ],
      [
        "wel",
        -6.919180219810257
      ],
      [
        "▁hop",
        -9.152285245745427
      ],
      [
        "▁pro",
        -9.51392835326315
      ],
      [
        "em",
        -13.645521914879932
      ],
      [
        "gen",
        -9.820151872675329
      ],
      [
        "c",
        -8.638626362649184
      ],
      [
        "national",
        -7.263849459139401
      ],
      [
        "▁originate",
        -9.98649700429147
      ],
      [
        "▁trace",
        -10.807113277960994
      ],
      [
        "▁lime",
        -9.94046785593176
      ],
      [
        "▁mu",
        -5.496880053479114
      ],
      [
        "▁soccer",
        -9.932452558319127
      ],
      [
        "▁stadium",
        -10.311424972498134
      ],
      [
        "▁&",
        -7.590436870188816
      ],
      [
        "▁favor",
        -9.658199611832691
      ],
      [
        "▁realit",
        -8.70365614522089
      ],
      [
        "e.",
        -8.556974590187012
      ],
      [
        "▁mood",
        -9.741972737502858
      ],
      [
        "▁pixie",
        -10.311461646873685
      ],
      [
        "▁investigate",
        -9.19726521086874
      ],
      [
        "▁horri",
        -7.955748089930601
      ],
      [
        "▁lad",
        -9.482837200570746
      ],
      [
        "hat",
        -3.789532303880037
      ],
      [
        "▁i",
        -7.352216322514234
      ],
      [
        "▁seller",
        -10.31442178719266
      ],
      [
        "▁spit",
        -10.4085289097874
      ],
      [
        "!!!!!!!!!!",
        -11.368032386117479
      ],
      [
        "▁swallow",
        -9.360870468050315
      ],
      [
        "▁legend",
        -9.741740352001576
      ],
      [
        "▁on",
        -10.014838674734882
      ],
      [
        "o",
        -6.829498819779103
      ],
      [
        "▁citizens",
        -8.082082154941343
      ],
      [
        "▁clapp",
        -10.632978223635515
      ],
      [
        "u",
        -12.810278406305976
      ],
      [
        "rass",
        -10.312365914441548
      ],
      [
        "sai",
        -10.119414593848777
      ],
      [
        "▁develope",
        -9.249352525576292
      ],
      [
        "light",
        -7.634819039935089
      ],
      [
        "▁ocean",
        -8.946104429430902
      ],
      [
        "▁--",
        -8.092250728111036
      ],
      [
        "me",
        -6.250742814045079
      ],
      [
        "st",
        -8.625963840068753
      ],
      [
        "▁in",
        -5.300291641118423
      ],
      [
        "a",
        -6.448424639862956
      ],
      [
        "▁bright",
        -9.932767681080811
      ],
      [
        "▁boat",
        -7.555637366928657
      ],
      [
        "▁cheer",
        -10.62581300808273
      ],
      [
        "▁put",
        -4.963868223581525
      ],
      [
        "▁freedom",
        -8.033156944239355
      ],
      [
        "▁sake",
        -9.323959453042832
      ],
      [
        "▁spice",
        -10.170454370631116
      ],
      [
        "▁needle",
        -10.056080016695127
      ],
      [
        "port",
        -6.554518386099968
      ],
      [
        "▁split",
        -10.489996509046037
      ],
      [
        "▁quote",
        -8.907245017758246
      ],
      [
        "▁ankle",
        -10.311487066674713
      ],
      [
        "▁appellant",
        -10.478180188852292
      ],
      [
        "▁patent",
        -10.311423860839318
      ],
      [
        "▁vince",
        -8.013397112940911
      ],
      [
        "▁crap",
        -9.743348650773157
      ],
      [
        "▁gender",
        -8.799865249404151
      ],
      [
        "▁print",
        -8.35564676076114
      ],
      [
        "▁miss",
        -7.4404016868154
      ],
      [
        "▁guy",
        -6.662665736122084
      ],
      [
        "don",
        -10.84529255792158
      ],
      [
        "▁like",
        -9.658319359423471
      ],
      [
        "▁permit",
        -9.024763626504695
      ],
      [
        "▁miracle",
        -9.832454434981408
      ],
      [
        "▁manage",
        -8.370360364254418
      ],
      [
        "ctiv",
        -7.934144041055749
      ],
      [
        "der",
        -10.23364092298107
      ],
      [
        "▁drag",
        -9.756971879213626
      ],
      [
        "w",
        -10.925660239071423
      ],
      [
        "arl",
        -8.199382488274523
      ],
      [
        "m",
        -6.75560743591618
      ],
      [
        "▁stuff",
        -10.375811048620449
      ],
      [
        "▁paint",
        -8.940423431740973
      ],
      [
        "▁shelter",
        -10.175393356959152
      ],
      [
        "▁eng",
        -7.5444635519219165
      ],
      [
        "▁thrive",
        -10.389457050288394
      ],
      [
        "▁capture",
        -9.024939351066113
      ],
      [
        "▁circu",
        -10.309364159709224
      ],
      [
        "▁stone",
        -8.812236979668471
      ],
      [
        "▁example",
        -6.83471902142148
      ],
      [
        "whil",
        -8.100936893042219
      ],
      [
        "▁friendship",
        -9.384532456352517
      ],
      [
        "▁revive",
        -10.175674667114494
      ],
      [
        "▁further",
        -10.175394279011858
      ],
      [
        "tamus",
        -10.043597376167806
      ],
      [
        "▁turtle",
        -9.443198909095313
      ],
      [
        "▁hook",
        -10.4883661928343
      ],
      [
        "as",
        -11.470631745927642
      ],
      [
        "en",
        -8.960701284908302
      ],
      [
        "▁",
        -3.6297539326565644
      ],
      [
        "location",
        -10.284938462159632
      ],
      [
        "▁organiz",
        -9.8021443673071
      ],
      [
        "hood",
        -9.00183764241803
      ],
      [
        "▁being",
        -9.044550679903406
      ],
      [
        "course",
        -10.02552918250069
      ],
      [
        "▁dot",
        -9.83764503921782
      ],
      [
        "▁tear",
        -8.868698589927643
      ],
      [
        "▁lobster",
        -10.168563708453922
      ],
      [
        "un",
        -11.720693959703446
      ],
      [
        "▁t",
        -6.423821213326638
      ],
      [
        "▁signal",
        -10.051595307348432
      ],
      [
        "▁state",
        -8.068356973088136
      ],
      [
        "tant",
        -8.52930762960571
      ],
      [
        "▁’",
        -6.974791146606354
      ],
      [
        "▁walk",
        -6.515052717435402
      ],
      [
        "▁pinkie",
        -10.381136391048475
      ],
      [
        "▁ex",
        -8.472682343460392
      ],
      [
        "▁presume",
        -10.375832039637096
      ],
      [
        "▁gain",
        -9.581684816428659
      ],
      [
        "▁hundred",
        -5.955365271488084
      ],
      [
        "▁technique",
        -8.70292561369053
      ],
      [
        "▁nam",
        -9.606888969482533
      ],
      [
        "▁film",
        -9.644025275941754
      ],
      [
        "▁lake",
        -6.69955482688979
      ],
      [
        "▁pop",
        -8.33074473435071
      ],
      [
        "▁predator",
        -9.509859139752649
      ],
      [
        "il",
        -10.821969912483556
      ],
      [
        "▁tasting",
        -10.311586175875668
      ],
      [
        "▁command",
        -10.62548692865132
      ],
      [
        "▁none",
        -9.665637482849894
      ],
      [
        "▁stop",
        -7.8606944294362
      ],
      [
        "▁crawl",
        -9.283315065899274
      ],
      [
        "▁deal",
        -7.58189172430154
      ],
      [
        "yo",
        -12.726913103948085
      ],
      [
        "ie",
        -6.916092074009498
      ],
      [
        "▁rust",
        -10.747334829047519
      ],
      [
        "▁f",
        -6.75305115009131
      ],
      [
        "ate",
        -7.545575350373912
      ],
      [
        "ium",
        -9.077931561478831
      ],
      [
        "▁drum",
        -10.3071136754334
      ],
      [
        "▁full",
        -7.93093681457866
      ],
      [
        "k",
        -8.700316144731588
      ],
      [
        "▁explor",
        -9.739133858122269
      ],
      [
        "stone",
        -9.685504819896853
      ],
      [
        "▁carol",
        -7.641819433251021
      ],
      [
        "▁liquid",
        -9.829691835811431
      ],
      [
        "▁enclos",
        -10.626747690089447
      ],
      [
        "act",
        -10.680303424290246
      ],
      [
        "▁neglect",
        -10.625394981969581
      ],
      [
        "▁at",
        -5.040331045484085
      ],
      [
        "enti",
        -7.448158532075223
      ],
      [
        "▁diffe",
        -5.787677870707446
      ],
      [
        "▁counterpart",
        -8.614645692623306
      ],
      [
        "▁dream",
        -8.56103977158605
      ],
      [
        "▁charge",
        -8.439795741126993
      ],
      [
        "▁op",
        -10.154614855546859
      ],
      [
        "thin",
        -5.708700200719424
      ],
      [
        "itate",
        -10.843843859827969
      ],
      [
        "▁evening",
        -7.039724668258955
      ],
      [
        "▁promise",
        -8.237400325629473
      ],
      [
        "▁relative",
        -7.900067868839787
      ],
      [
        "▁cling",
        -10.276302395346269
      ],
      [
        "▁church",
        -8.262215523830182
      ],
      [
        "▁creature",
        -9.832738928701954
      ],
      [
        "▁situation",
        -7.667861610211743
      ],
      [
        "▁central",
        -7.4373745921425565
      ],
      [
        "▁guess",
        -10.313258984913379
      ],
      [
        "▁mineral",
        -10.16881201203826
      ],
      [
        "▁die",
        -8.442731206985325
      ],
      [
        "▁easter",
        -8.082890581363321
      ],
      [
        "▁pull",
        -7.056814369868906
      ],
      [
        "▁review",
        -8.033199575130796
      ],
      [
        "meter",
        -9.836741639844284
      ],
      [
        "▁falle",
        -9.773590637790889
      ],
      [
        "▁gnome",
        -10.168567696163548
      ],
      [
        "▁pray",
        -9.63887414862454
      ],
      [
        "▁spin",
        -9.491922129630513
      ],
      [
        "▁l",
        -7.140823422198625
      ],
      [
        "ever",
        -5.359099294543228
      ],
      [
        "▁every",
        -8.138839326173517
      ],
      [
        "▁limit",
        -9.82967094781233
      ],
      [
        "▁portrait",
        -10.168867077636286
      ],
      [
        "al",
        -6.781623159225781
      ],
      [
        "emur",
        -10.160589290341289
      ],
      [
        "▁smash",
        -10.375470894077244
      ],
      [
        "▁invoke",
        -10.347534774287126
      ],
      [
        "▁proposal",
        -8.017529911369257
      ],
      [
        "inea",
        -9.834162489750044
      ],
      [
        "ze",
        -8.839780328384677
      ],
      [
        "j",
        -11.707635305543437
      ],
      [
        "how",
        -9.991402506266777
      ],
      [
        "▁value",
        -7.217986204965036
      ],
      [
        "▁children",
        -6.99475166268508
      ],
      [
        "▁allow",
        -10.480739432048143
      ],
      [
        "▁ab",
        -9.774862557083832
      ],
      [
        "▁rely",
        -9.145980370528957
      ],
      [
        "▁spell",
        -8.438578417452812
      ],
      [
        "▁tactic",
        -9.93245263116778
      ],
      [
        "▁incubat",
        -10.311576694188243
      ],
      [
        "▁hold",
        -9.15311797665543
      ],
      [
        "▁sight",
        -9.232842993372625
      ],
      [
        "it",
        -7.7893654666635195
      ],
      [
        "▁standing",
        -9.946149753824752
      ],
      [
        "ess",
        -8.366410517912175
      ],
      [
        "▁reason",
        -7.514829178640358
      ],
      [
        "▁cha",
        -10.908177146885917
      ],
      [
        "▁screw",
        -9.070607560922214
      ],
      [
        "▁shed",
        -9.745958814894008
      ],
      [
        "▁sweep",
        -9.443273260985471
      ],
      [
        "▁enron",
        -9.658213996807223
      ],
      [
        "▁brass",
        -9.858999046579305
      ],
      [
        "n",
        -3.9840298251398387
      ],
      [
        "▁experiment",
        -9.321924672669933
      ],
      [
        "ch",
        -5.743182008517046
      ],
      [
        "▁detective",
        -9.581298280709063
      ],
      [
        "▁ca",
        -8.082644053245163
[...]
