{
  "version": "1.0",
  "truncation": null,
  "padding": null,
  "added_tokens": [
    {
      "id": 316,
      "content": "[MASK]",
      "single_word": false,
      "lstrip": false,
      "rstrip": false,
      "normalized": false,
      "special": true
    },
    {
      "id": 748,
      "content": "[PAD]",
      "single_word": false,
      "lstrip": false,
      "rstrip": false,
      "normalized": false,
      "special": true
    },
    {
      "id": 2162,
      "content": "[CLS]",
      "single_word": false,
      "lstrip": false,
      "rstrip": false,
      "normalized": false,
      "special": true
    },
    {
      "id": 2421,
      "content": "[UNK]",
      "single_word": false,
      "lstrip": false,
      "rstrip": false,
      "normalized": false,
      "special": true
    },
    {
      "id": 2660,
      "content": "[SEP]",
      "single_word": false,
      "lstrip": false,
      "rstrip": false,
      "normalized": false,
      "special": true
    }
  ],
  "normalizer": {
    "type": "Sequence",
    "normalizers": [
      {
        "type": "NFD"
      },
      {
        "type": "Lowercase"
      },
      {
        "type": "StripAccents"
      }
    ]
  },
  "pre_tokenizer": {
    "type": "Sequence",
    "pretokenizers": [
      {
        "type": "Metaspace",
        "replacement": "▁",
        "prepend_scheme": "always",
        "split": true
      }
    ]
  },
  "post_processor": {
    "type": "TemplateProcessing",
    "single": [
      {
        "SpecialToken": {
          "id": "[CLS]",
          "type_id": 0
        }
      },
      {
        "Sequence": {
          "id": "A",
          "type_id": 0
        }
      },
      {
        "SpecialToken": {
          "id": "[SEP]",
          "type_id": 0
        }
      }
    ],
    "pair": [
      {
        "SpecialToken": {
          "id": "[CLS]",
          "type_id": 0
        }
      },
      {
        "Sequence": {
          "id": "A",
          "type_id": 0
        }
      },
      {
        "SpecialToken": {
          "id": "[SEP]",
          "type_id": 0
        }
      },
      {
        "Sequence": {
          "id": "B",
          "type_id": 1
        }
      },
      {
        "SpecialToken": {
          "id": "[SEP]",
          "type_id": 1
        }
      }
    ],
    "special_tokens": {
      "[CLS]": {
        "id": "[CLS]",
        "ids": [
          2162
        ],
        "tokens": [
          "[CLS]"
        ]
      },
      "[SEP]": {
        "id": "[SEP]",
        "ids": [
          2660
        ],
        "tokens": [
          "[SEP]"
        ]
      }
    }
  },
  "decoder": {
    "type": "Metaspace",
    "replacement": "▁",
    "prepend_scheme": "always",
    "split": true
  },
  "model": {
    "type": "BPE",
    "dropout": null,
    "unk_token": "[UNK]",
    "continuing_subword_prefix": null,
    "end_of_word_suffix": null,
    "fuse_unk": false,
    "byte_fallback": false,
    "ignore_merges": false,
    "vocab": {
      "▁langu": 0,
      "▁base": 1,
      "▁prefer": 2,
      "▁benef": 3,
      "▁moved": 4,
      "orn": 5,
      "oo": 6,
      "men": 7,
      "????": 8,
      "tors": 9,
      "▁son": 10,
      "▁comb": 11,
      "nt": 12,
      "▁neighb": 13,
      "roduction": 14,
      "▁cont": 15,
      "ding": 16,
      "▁agreement": 17,
      "cri": 18,
      "ob": 19,
      "overed": 20,
      "▁months": 21,
      "rel": 22,
      "jwww": 23,
      "▁throughout": 24,
      "▁felt": 25,
      "▁real": 26,
      "▁-----": 27,
      "et": 28,
      "▁hav": 29,
      "al": 30,
      "▁at": 31,
      "▁telling": 32,
      "▁dinos": 33,
      "▁edit": 34,
      "▁bec": 35,
      "▁knoc": 36,
      "▁feels": 37,
      "▁atlan": 38,
      "▁camp": 39,
      "icide": 40,
      "▁3": 41,
      "▁account": 42,
      "yth": 43,
      "ib": 44,
      "▁ll": 45,
      "▁color": 46,
      "lan": 47,
      "gether": 48,
      "▁ext": 49,
      "▁cartoon": 50,
      "▁places": 51,
      "▁photograph": 52,
      "anger": 53,
      "▁mosqu": 54,
      "▁horsie": 55,
      "▁ac": 56,
      "▁everybody": 57,
      "▁noon": 58,
      "▁century": 59,
      "tim": 60,
      "▁nothing": 61,
      "is": 62,
      "▁nov": 63,
      "▁constit": 64,
      "▁wednesday": 65,
      "ema": 66,
      "▁babies": 67,
      "▁great": 68,
      "▁behind": 69,
      "▁bus": 70,
      "▁fish": 71,
      "▁tax": 72,
      "ks": 73,
      "ould": 74,
      "enti": 75,
      "▁blood": 76,
      "ills": 77,
      "▁ide": 78,
      "cess": 79,
      "▁penc": 80,
      "▁result": 81,
      "oices": 82,
      "g": 83,
      "bably": 84,
      "av": 85,
      "▁ones": 86,
      "▁!!!!!!!": 87,
      "med": 88,
      "▁==----": 89,
      "▁hit": 90,
      "▁delivery": 91,
      "ights": 92,
      "alth": 93,
      "▁families": 94,
      "▁they": 95,
      "▁intended": 96,
      "▁cap": 97,
      "▁build": 98,
      "▁program": 99,
      "▁swee": 100,
      "ment": 101,
      "▁whale": 102,
      "▁relig": 103,
      "▁author": 104,
      "res": 105,
      "inn": 106,
      "aries": 107,
      "▁camer": 108,
      "▁raised": 109,
      "vailable": 110,
      "▁thursday": 111,
      "tually": 112,
      "▁serves": 113,
      "▁territory": 114,
      "▁gu": 115,
      "▁happens": 116,
      "▁views": 117,
      "▁observed": 118,
      "▁lips": 119,
      "▁haf": 120,
      "▁francisco": 121,
      "eness": 122,
      "ked": 123,
      "acted": 124,
      "ended": 125,
      "▁report": 126,
      "▁walk": 127,
      "▁scale": 128,
      "mon": 129,
      "ulture": 130,
      "▁court": 131,
      "▁reached": 132,
      "ish": 133,
      "ries": 134,
      "ograph": 135,
      "▁apartment": 136,
      "▁secret": 137,
      "ands": 138,
      "ders": 139,
      "ages": 140,
      "vers": 141,
      "▁types": 142,
      "ld": 143,
      "▁di": 144,
      "▁;": 145,
      "qui": 146,
      "ency": 147,
      "alist": 148,
      "▁written": 149,
      "isl": 150,
      "*": 151,
      "▁wr": 152,
      "▁trip": 153,
      "▁vide": 154,
      "ize": 155,
      "▁filled": 156,
      "▁cruise": 157,
      "▁grass": 158,
      "▁human": 159,
      "▁face": 160,
      "ater": 161,
      "aining": 162,
      "▁brought": 163,
      "▁finish": 164,
      "▁credit": 165,
      "▁upd": 166,
      "round": 167,
      "ly": 168,
      "▁government": 169,
      "▁depar": 170,
      "ving": 171,
      "▁no": 172,
      "▁paper": 173,
      "▁cla": 174,
      "hood": 175,
      "u": 176,
      "ught": 177,
      "▁fill": 178,
      "▁talking": 179,
      "▁teacher": 180,
      "▁already": 181,
      "▁dropped": 182,
      "ors": 183,
      "▁gold": 184,
      "ergy": 185,
      "▁mention": 186,
      "▁been": 187,
      "▁passed": 188,
      "▁was": 189,
      "▁&am": 190,
      "ies": 191,
      "▁describe": 192,
      "▁mode": 193,
      "▁child": 194,
      "▁grow": 195,
      "stances": 196,
      "ex": 197,
      "▁lost": 198,
      "▁touch": 199,
      "▁search": 200,
      "ang": 201,
      "4": 202,
      "mit": 203,
      "▁lim": 204,
      "▁jump": 205,
      "▁pig": 206,
      "▁repe": 207,
      "om": 208,
      "▁offered": 209,
      "▁mess": 210,
      "erence": 211,
      "osite": 212,
      "▁this": 213,
      "▁pill": 214,
      "▁drink": 215,
      "derstand": 216,
      "▁dep": 217,
      "▁tr": 218,
      "▁elements": 219,
      "▁stated": 220,
      "▁exc": 221,
      "tit": 222,
      "▁mama": 223,
      "▁training": 224,
      "▁driver": 225,
      "▁e": 226,
      "▁adopted": 227,
      "▁site": 228,
      "▁&amp;": 229,
      "lies": 230,
      "▁philadel": 231,
      "▁meeting": 232,
      "ver": 233,
      "▁reve": 234,
      "▁oper": 235,
      "▁buildings": 236,
      "▁americ": 237,
      "uled": 238,
      "▁told": 239,
      "▁pizza": 240,
      "▁fly": 241,
      "▁sl": 242,
      "▁york": 243,
      "▁ran": 244,
      "▁weap": 245,
      "▁become": 246,
      "▁looks": 247,
      "▁glass": 248,
      "▁opportun": 249,
      "▁legos": 250,
      "formation": 251,
      "▁amend": 252,
      "erved": 253,
      "ω": 254,
      "▁legs": 255,
      "▁caused": 256,
      "▁ha": 257,
      "▁sle": 258,
      "▁tar": 259,
      "▁call": 260,
      "roduc": 261,
      "▁fac": 262,
      "▁contact": 263,
      "▁div": 264,
      "▁underst": 265,
      "ints": 266,
      "▁noticed": 267,
      "▁issue": 268,
      "itt": 269,
      "▁apart": 270,
      "▁published": 271,
      "angu": 272,
      "▁arriving": 273,
      "▁united": 274,
      "acked": 275,
      "▁head": 276,
      "▁dinner": 277,
      "ps": 278,
      "it": 279,
      "▁wom": 280,
      "▁propos": 281,
      "▁problems": 282,
      "▁flowers": 283,
      "band": 284,
      "▁writing": 285,
      "”": 286,
      "ington": 287,
      "room": 288,
      "▁beneath": 289,
      "▁two": 290,
      "▁treatment": 291,
      "▁puppy": 292,
      "▁i": 293,
      "pite": 294,
      "▁medic": 295,
      "tle": 296,
      "▁intel": 297,
      "▁peoples": 298,
      "ave": 299,
      "▁fight": 300,
      "▁‘": 301,
      "▁bun": 302,
      "▁around": 303,
      "▁run": 304,
      "▁press": 305,
      "ribution": 306,
      "uted": 307,
      "▁trav": 308,
      "fication": 309,
      "tie": 310,
      "▁dro": 311,
      "ores": 312,
      "▁gri": 313,
      "▁situation": 314,
      "▁pati": 315,
      "[MASK]": 316,
      "erve": 317,
      "▁finger": 318,
      "ome": 319,
      "▁meas": 320,
      "▁parking": 321,
      "ither": 322,
      "gation": 323,
      "▁website": 324,
      "0s": 325,
      "▁institutions": 326,
      "alism": 327,
      "▁hors": 328,
      "▁milk": 329,
      "▁den": 330,
      "ural": 331,
      "wh": 332,
      "iod": 333,
      "ce": 334,
      "ions": 335,
      "▁explained": 336,
      "▁says": 337,
      "liament": 338,
      "▁activities": 339,
      "▁commission": 340,
      "▁outside": 341,
      "▁added": 342,
      "vail": 343,
      "ws": 344,
      "ler": 345,
      "▁problem": 346,
      "▁still": 347,
      "▁---------------------------------------------------------------------------": 348,
      "▁started": 349,
      "▁she": 350,
      "▁then": 351,
      "▁environment": 352,
      "▁moon": 353,
      "llow": 354,
      "▁s’": 355,
      "▁gun": 356,
      "▁notic": 357,
      "▁islands": 358,
      "▁ep": 359,
      "▁consum": 360,
      "▁format": 361,
      "▁hospital": 362,
      "▁schol": 363,
      "▁sched": 364,
      "ening": 365,
      "ity": 366,
      "cr": 367,
      "thers": 368,
      "▁gre": 369,
      "▁picture": 370,
      "00": 371,
      "▁|--------+----------------": 372,
      "▁concept": 373,
      "▁way": 374,
      "all": 375,
      "ug": 376,
      "▁breath": 377,
      "unt": 378,
      "▁san": 379,
      "▁keeping": 380,
      "day": 381,
      "▁push": 382,
      "▁walked": 383,
      "▁wanted": 384,
      "ication": 385,
      "▁cowboy": 386,
      "▁lic": 387,
      "ific": 388,
      "▁address": 389,
      "▁skin": 390,
      "icul": 391,
      "▁tou": 392,
      "ashington": 393,
      "eeds": 394,
      "▁argu": 395,
      "umb": 396,
      "▁veget": 397,
      "▁`": 398,
      "eng": 399,
      "▁insurance": 400,
      "▁web": 401,
      "▁suggest": 402,
      "zer": 403,
      "▁period": 404,
      "ino": 405,
      "cl": 406,
      "▁sty": 407,
      "ointment": 408,
      "▁menu": 409,
      "oods": 410,
      "▁sky": 411,
      "▁je": 412,
      "▁challenges": 413,
      "▁good": 414,
      "▁progr": 415,
      "▁''": 416,
      "▁art": 417,
      "ows": 418,
      "▁tank": 419,
      "ust": 420,
      "▁costs": 421,
      "▁aw": 422,
      "▁per": 423,
      "▁trave": 424,
      "▁bath": 425,
      "▁daughter": 426,
      "▁elev": 427,
      "um": 428,
      "▁purpose": 429,
      "ture": 430,
      "▁south": 431,
      "▁discussion": 432,
      "▁holiday": 433,
      "▁anthrax": 434,
      "arly": 435,
      "▁having": 436,
      "▁visit": 437,
      "▁cheapest": 438,
      "▁che": 439,
      "▁arrive": 440,
      "wic": 441,
      "des": 442,
      "▁non": 443,
      "▁food": 444,
      "▁shut": 445,
      "▁denver": 446,
      "▁joke": 447,
      "ress": 448,
      "▁tree": 449,
      "▁nobody": 450,
      "**********************************": 451,
      "se": 452,
      "▁cost": 453,
      "tee": 454,
      "▁journ": 455,
      "▁[...]": 456,
      "▁commun": 457,
      "▁etc.": 458,
      "▁place": 459,
      "▁arms": 460,
      "▁char": 461,
      "itch": 462,
      "aced": 463,
      "alu": 464,
      "ocr": 465,
      "▁girls": 466,
      "▁atmosphere": 467,
      "▁count": 468,
      "tt": 469,
      "▁rug": 470,
      "▁[": 471,
      "ful": 472,
      "▁apply": 473,
      "ε": 474,
      "▁follow": 475,
      "▁doggie": 476,
      "uly": 477,
      "▁makes": 478,
      "(": 479,
      "?": 480,
      "▁feed": 481,
      "isted": 482,
      "▁!!!!!!!!!!!": 483,
      "anding": 484,
      "bs": 485,
      "▁anybody": 486,
      "ape": 487,
      "▁straw": 488,
      "▁coord": 489,
      "▁polic": 490,
      "f": 491,
      "tw": 492,
      "▁requi": 493,
      "▁position": 494,
      "▁tent": 495,
      "oor": 496,
      "▁eff": 497,
      "lication": 498,
      "lled": 499,
      "▁bottle": 500,
      "oot": 501,
      "ν": 502,
      "▁another": 503,
      "▁data": 504,
      "nding": 505,
      "▁state": 506,
      "▁holding": 507,
      "▁expect": 508,
      "▁comes": 509,
      "alt": 510,
      "ded": 511,
      "▁mass": 512,
      "c": 513,
      "ds": 514,
      "▁ach": 515,
      "ase": 516,
      "ogn": 517,
      "▁conversation": 518,
      "▁g": 519,
      "▁activ": 520,
      "▁building": 521,
      "▁su": 522,
      "case": 523,
      "▁held": 524,
      "▁it": 525,
      "▁game": 526,
      "▁prot": 527,
      "▁tried": 528,
      "▁scr": 529,
      "▁ben": 530,
      "▁under": 531,
      "ition": 532,
      "▁police": 533,
      "whether": 534,
      "isco": 535,
      "▁occ": 536,
      "▁attempt": 537,
      "▁du": 538,
      "▁flight": 539,
      "▁letter": 540,
      "▁cash": 541,
      "tile": 542,
      "▁thanks": 543,
      "▁saturday": 544,
      "▁poc": 545,
      "▁scen": 546,
      "▁my": 547,
      "▁ord": 548,
      "til": 549,
      "acters": 550,
      "action": 551,
      "ta": 552,
      "▁furn": 553,
      "able": 554,
      "lish": 555,
      "▁ba": 556,
      "▁none": 557,
      "▁groups": 558,
      "▁difficul": 559,
      "▁resul": 560,
      "▁stood": 561,
      "▁reviews": 562,
      "▁column": 563,
      "▁adv": 564,
      "8": 565,
      "acks": 566,
      "▁cer": 567,
      "ia": 568,
      "▁mor": 569,
      "▁hand": 570,
      "▁soc": 571,
      "ured": 572,
      "▁eleph": 573,
      "▁feeling": 574,
      "ance": 575,
      "▁cigar": 576,
      "uting": 577,
      "me": 578,
      "▁council": 579,
      "inging": 580,
      "▁plays": 581,
      "▁observ": 582,
      "iron": 583,
      "▁chap": 584,
      "orrow": 585,
      "▁ref": 586,
      "▁mom": 587,
      "▁customer": 588,
      "imore": 589,
      "▁floor": 590,
      "▁pictures": 591,
      "▁pool": 592,
      "itled": 593,
      "▁workers": 594,
      "▁sour": 595,
      "▁turned": 596,
      "▁!!!!!!!!!!!!!!!": 597,
      "▁context": 598,
      "very": 599,
      "μ": 600,
      "▁leaders": 601,
      "eet": 602,
      "pts": 603,
      "resent": 604,
      "▁achieve": 605,
      "▁prop": 606,
      "est": 607,
      "op": 608,
      "▁create": 609,
      "line": 610,
      "aper": 611,
      "▁hi": 612,
      "▁became": 613,
      "operation": 614,
      "ber": 615,
      "▁att": 616,
      "xt": 617,
      "▁cove": 618,
      "eg": 619,
      "▁f": 620,
      "▁smal": 621,
      "bon": 622,
      "over": 623,
      "ings": 624,
      "▁cat": 625,
      "▁’d": 626,
      "ix": 627,
      "▁wearing": 628,
      "▁speech": 629,
      "▁pack": 630,
      "rows": 631,
      "5": 632,
      "place": 633,
      "owl": 634,
      "▁net": 635,
      "▁ate": 636,
      "▁bi": 637,
      "▁manner": 638,
      "here": 639,
      "▁refer": 640,
      "▁items": 641,
      "▁com": 642,
      "rup": 643,
      "imed": 644,
      "▁barn": 645,
      "▁bed": 646,
      "▁note": 647,
      "▁appl": 648,
      "▁regarding": 649,
      "▁creating": 650,
      "▁defense": 651,
      "rou": 652,
      "▁happ": 653,
      "▁appears": 654,
      "▁offices": 655,
      "stop": 656,
      "right": 657,
      "▁liked": 658,
      "▁like": 659,
      "▁service": 660,
      "▁discussed": 661,
      "eth": 662,
      "▁introduc": 663,
      "▁weather": 664,
      "▁believed": 665,
      "▁v": 666,
      "ato": 667,
      "▁sun": 668,
      "ards": 669,
      "ators": 670,
      "▁ju": 671,
      "usion": 672,
      "▁laugh": 673,
      "▁guid": 674,
      "sul": 675,
      "▁lo": 676,
      "▁move": 677,
      "-": 678,
      "▁never": 679,
      "▁project": 680,
      "▁arrives": 681,
      "▁even": 682,
      "ina": 683,
      "ester": 684,
      ".com": 685,
      "▁lat": 686,
      "▁watch": 687,
      "▁quite": 688,
      "▁knew": 689,
      "ually": 690,
      "▁'": 691,
      "▁los": 692,
      "ww": 693,
      "▁tv": 694,
      "▁known": 695,
      "▁chec": 696,
      "ots": 697,
      "ose": 698,
      "ashed": 699,
      "▁counterparty": 700,
      "t": 701,
      "ur": 702,
      "▁le": 703,
      "▁en": 704,
      "▁ele": 705,
      "▁rocks": 706,
      "and": 707,
      "ension": 708,
      "▁pot": 709,
      "▁everyone": 710,
      "▁staff": 711,
      "▁street": 712,
      "=----": 713,
      "▁prov": 714,
      ":": 715,
      "▁meth": 716,
      "▁our": 717,
      "▁br": 718,
      "▁fig": 719,
      "eared": 720,
      "▁december": 721,
      "▁return": 722,
      "▁underneath": 723,
      "▁security": 724,
      "▁uncle": 725,
      "▁paid": 726,
      "▁capital": 727,
      "▁analys": 728,
      "▁recommended": 729,
      "▁present": 730,
      "isation": 731,
      "▁request": 732,
      "▁sp": 733,
      "tered": 734,
      "▁appro": 735,
      "▁comment": 736,
      "▁wh": 737,
      "▁citi": 738,
      "uty": 739,
      "ens": 740,
      "ef": 741,
      "▁see": 742,
      "ognition": 743,
      "ock": 744,
      "▁pal": 745,
      "ers": 746,
      "nd": 747,
      "[PAD]": 748,
      "ory": 749,
      "▁furniture": 750,
      "▁wait": 751,
      "▁betw": 752,
      "low": 753,
      "cha": 754,
      "▁restaurant": 755,
      "▁sho": 756,
      "ycle": 757,
      "gy": 758,
      "▁mount": 759,
      "ink": 760,
      "!": 761,
      "'": 762,
      "idden": 763,
      "▁smo": 764,
      "▁ed": 765,
      "▁pay": 766,
      "aft": 767,
      "…": 768,
      "▁email": 769,
      "▁infl": 770,
      "▁amb": 771,
      "ording": 772,
      "▁sym": 773,
      "amed": 774,
      "▁..........": 775,
      "▁research": 776,
      "acket": 777,
      "▁": 778,
      "▁estim": 779,
      "▁buttons": 780,
      "en": 781,
      "ums": 782,
      "▁jwww": 783,
      "▁car": 784,
      "▁inside": 785,
      "aste": 786,
      "▁quar": 787,
      "ember": 788,
      "olving": 789,
      "inate": 790,
      "ub": 791,
      "▁coffee": 792,
      "ances": 793,
      "ide": 794,
      "uff": 795,
      "urned": 796,
      "ire": 797,
      "rop": 798,
      "eric": 799,
      "inated": 800,
      "ament": 801,
      "▁companies": 802,
      "▁provide": 803,
      "▁product": 804,
      "▁times": 805,
      "▁out": 806,
      "▁tonight": 807,
      "▁leave": 808,
      "one": 809,
      "▁stay": 810,
      "▁step": 811,
      "▁bur": 812,
      "formed": 813,
      "▁levels": 814,
      "▁dec": 815,
      "▁spoon": 816,
      "▁nature": 817,
      "▁iss": 818,
      "▁tem": 819,
      "▁oak": 820,
      "▁answ": 821,
      "▁stre": 822,
      "▁...............": 823,
      "ained": 824,
      "’s": 825,
      "▁hos": 826,
      "▁side": 827,
      "rew": 828,
      "▁stock": 829,
      "ild": 830,
      "▁blow": 831,
      "aith": 832,
      "anks": 833,
      "▁anoder": 834,
      "ian": 835,
      "uss": 836,
      "▁accident": 837,
      "▁bite": 838,
      "phere": 839,
      "oul": 840,
      "+": 841,
      "▁as": 842,
      "▁hole": 843,
      "▁might": 844,
      "▁’’": 845,
      "▁ro": 846,
      "---------------": 847,
      "▁ser": 848,
      "art": 849,
      "▁spoke": 850,
      "▁enj": 851,
      "▁shall": 852,
      "▁cal": 853,
      "▁cos": 854,
      "▁relationship": 855,
      "▁airlines": 856,
      "▁fem": 857,
      "aster": 858,
      "ican": 859,
      "▁employment": 860,
      "▁dose": 861,
      "▁ab": 862,
      "ha": 863,
      "▁land": 864,
      "▁les": 865,
      "▁spent": 866,
      "▁pa": 867,
      "▁energy": 868,
      "▁manag": 869,
      "▁audience": 870,
      "▁cop": 871,
      "▁classes": 872,
      "iled": 873,
      "▁c": 874,
      "▁would": 875,
      "▁exp": 876,
      "▁etc": 877,
      "▁sat": 878,
      "▁tur": 879,
      "▁reach": 880,
      "uc": 881,
      "duction": 882,
      "ister": 883,
      "▁returned": 884,
      "▁dall": 885,
      "▁attached": 886,
      "▁guar": 887,
      "he": 888,
      "olved": 889,
      "▁arg": 890,
      "▁wol": 891,
      "▁speaking": 892,
      "▁replication": 893,
      "▁ur": 894,
      "▁dist": 895,
      "nec": 896,
      "▁lines": 897,
      "▁chang": 898,
      "▁fixed": 899,
      "▁provided": 900,
      "aughter": 901,
      "▁s": 902,
      "ones": 903,
      "▁birth": 904,
      "▁or": 905,
      "▁rule": 906,
      "▁available": 907,
      "uro": 908,
      "▁downtown": 909,
      "▁involved": 910,
      "utation": 911,
      "at": 912,
      "▁could": 913,
      "▁ins": 914,
      "avor": 915,
      "▁began": 916,
      "▁wil": 917,
      "▁life": 918,
      "▁st.": 919,
      "rap": 920,
      "▁attack": 921,
      "▁what": 922,
      "▁av": 923,
      "▁ov": 924,
      "ric": 925,
      "▁oc": 926,
      "▁stayed": 927,
      "▁noise": 928,
      "▁respons": 929,
      "▁meal": 930,
      "ison": 931,
      "▁kid": 932,
      "▁window": 933,
      "▁spe": 934,
      "▁becom": 935,
      "▁op": 936,
      "ak": 937,
      "▁nation": 938,
      "▁met": 939,
      "▁minus": 940,
      "▁camel": 941,
      "▁eating": 942,
      "????????????????": 943,
      "▁inter": 944,
      "omm": 945,
      "▁inf": 946,
      "▁recogn": 947,
      "▁begin": 948,
      "▁options": 949,
      "▁progress": 950,
      "ligh": 951,
      "▁college": 952,
      "▁m": 953,
      "ithstanding": 954,
      "▁sell": 955,
      "avi": 956,
      "▁conference": 957,
      "▁speak": 958,
      "▁rep": 959,
      "▁watching": 960,
      "▁atlanta": 961,
      "▁failed": 962,
      "▁does": 963,
      "ating": 964,
      "▁ways": 965,
      "ict": 966,
      "▁rat": 967,
      "▁objec": 968,
      "▁restaur": 969,
      "▁electric": 970,
      "▁influence": 971,
      "▁dem": 972,
      "▁in": 973,
      "▁anth": 974,
      "▁facts": 975,
      "▁measures": 976,
      "sing": 977,
      "ods": 978,
      "urn": 979,
      "in": 980,
      "ption": 981,
      "▁belie": 982,
      "face": 983,
      "▁theirs": 984,
      "▁function": 985,
      "red": 986,
      "▁novel": 987,
      "▁baby": 988,
      "▁{": 989,
      "ma": 990,
      "au": 991,
      "▁appearance": 992,
      "▁int": 993,
      "ilities": 994,
      "▁pivottable": 995,
      "▁bot": 996,
      "▁magic": 997,
      "ounds": 998,
      "ich": 999,
      "@": 1000,
      "▁alongside": 1001,
      "ili": 1002,
      "oration": 1003,
      "aq": 1004,
      "▁week": 1005,
      "▁happening": 1006,
      "▁airports": 1007,
      "▁shorts": 1008,
      "▁parents": 1009,
      "rec": 1010,
      "▁engine": 1011,
      "ception": 1012,
      "▁check": 1013,
      "▁por": 1014,
      "▁spot": 1015,
      "▁blanket": 1016,
      "▁sources": 1017,
      "▁atop": 1018,
      "▁med": 1019,
      "enc": 1020,
      "▁counc": 1021,
      "ancing": 1022,
      "ins": 1023,
      "▁third": 1024,
      "ature": 1025,
      "▁payment": 1026,
      "▁shows": 1027,
      "▁enter": 1028,
      "▁design": 1029,
      "▁truck": 1030,
      "imb": 1031,
      "▁development": 1032,
      "▁eye": 1033,
      "atives": 1034,
      "pers": 1035,
      "▁aircraft": 1036,
      "▁best": 1037,
      "▁cro": 1038,
      "▁pittsburgh": 1039,
      "▁adop": 1040,
      "▁ris": 1041,
      "▁n’t": 1042,
      "ists": 1043,
      "▁sold": 1044,
      "’": 1045,
      "+----------------": 1046,
      "▁enjoyed": 1047,
      "▁plans": 1048,
      "▁gas": 1049,
      "▁w/": 1050,
      "▁threat": 1051,
      "rol": 1052,
      "▁character": 1053,
      "▁st": 1054,
      "▁media": 1055,
      "▁bor": 1056,
      "▁serve": 1057,
      "▁include": 1058,
      "▁jelly": 1059,
      "ka": 1060,
      "▁es": 1061,
      "▁components": 1062,
      "craft": 1063,
      "▁needs": 1064,
      "▁pulled": 1065,
      "asts": 1066,
      "▁....................": 1067,
      "▁pan": 1068,
      "▁world": 1069,
      "▁give": 1070,
      "▁sure": 1071,
      "▁number": 1072,
      "▁home": 1073,
      "▁ti": 1074,
      "d": 1075,
      "▁gone": 1076,
      "ø": 1077,
      "ore": 1078,
      "▁link": 1079,
      "▁presence": 1080,
      "▁ne": 1081,
      "ing": 1082,
      "irst": 1083,
      "▁during": 1084,
      "**": 1085,
      "▁we": 1086,
      "▁proposed": 1087,
      "6": 1088,
      "bb": 1089,
      "▁vac": 1090,
      "tives": 1091,
      "▁ham": 1092,
      "▁anoth": 1093,
      "▁pit": 1094,
      "▁steps": 1095,
      "▁budget": 1096,
      "acking": 1097,
      "▁change": 1098,
      "earance": 1099,
      "????????????????????????????????": 1100,
      "▁banan": 1101,
      "▁advant": 1102,
      "▁before": 1103,
      "▁thou": 1104,
      "▁sn": 1105,
      "▁you": 1106,
      "mb": 1107,
      "ark": 1108,
      "▁cros": 1109,
      "gg": 1110,
      "▁cand": 1111,
      "▁track": 1112,
      "▁dance": 1113,
      "▁sector": 1114,
      "lar": 1115,
      "▁vote": 1116,
      "▁loved": 1117,
      "kin": 1118,
      "▁species": 1119,
      "▁space": 1120,
      "aw": 1121,
      "▁ob": 1122,
      "▁came": 1123,
      "▁hair": 1124,
      "ade": 1125,
      "▁subject": 1126,
      "▁interests": 1127,
      "▁apar": 1128,
      "▁piz": 1129,
      "▁shoe": 1130,
      "▁planning": 1131,
      "▁w": 1132,
      "▁conce": 1133,
      "▁growth": 1134,
      "▁play": 1135,
      "▁roo": 1136,
      "▁eggs": 1137,
      "▁park": 1138,
      "oth": 1139,
      "▁must": 1140,
      "▁bod": 1141,
      "ines": 1142,
      "▁control": 1143,
      "on": 1144,
      "ony": 1145,
      "▁circum": 1146,
      "▁language": 1147,
      "▁children": 1148,
      "▁gen": 1149,
      "▁changing": 1150,
      "▁·": 1151,
      "▁duck": 1152,
      "ι": 1153,
      "▁inst": 1154,
      "▁opposite": 1155,
      "▁im": 1156,
      "'t": 1157,
      "▁own": 1158,
      "▁airlin": 1159,
      "▁phil": 1160,
      "man": 1161,
      "▁ability": 1162,
      "▁laura": 1163,
      "▁example": 1164,
      "▁concer": 1165,
      "▁poet": 1166,
      "spite": 1167,
      "ching": 1168,
      "▁follows": 1169,
      "▁mu": 1170,
      "▁.?": 1171,
      "▁descri": 1172,
      "▁emp": 1173,
      "▁competition": 1174,
      "▁der": 1175,
      "▁cli": 1176,
      "▁points": 1177,
      "ss": 1178,
      "▁others": 1179,
      "▁'s": 1180,
      "▁took": 1181,
      "▁categ": 1182,
      "elines": 1183,
      "▁****": 1184,
      "▁surv": 1185,
      "▁instit": 1186,
      "º": 1187,
      "ik": 1188,
      "▁esc": 1189,
      "▁inn": 1190,
      "▁army": 1191,
      "ail": 1192,
      "▁beat": 1193,
      ".d": 1194,
      "▁d'": 1195,
      "▁values": 1196,
      "▁dr": 1197,
      "▁---------------------------------------------------------------------": 1198,
      "id": 1199,
      "▁any": 1200,
      "▁questions": 1201,
      "▁effort": 1202,
      "▁ps": 1203,
      "▁solution": 1204,
      "▁determ": 1205,
      "‘": 1206,
      "▁drinking": 1207,
      "sh": 1208,
      "▁pros": 1209,
      "ym": 1210,
      "▁iod": 1211,
      "▁interview": 1212,
      "ult": 1213,
      "ned": 1214,
      "▁ident": 1215,
      "▁received": 1216,
      ";": 1217,
      "▁hurt": 1218,
      "end": 1219,
      "▁de": 1220,
      "▁heat": 1221,
      "▁bear": 1222,
      "ve": 1223,
      "▁who": 1224,
      "▁mouth": 1225,
      "ate": 1226,
      "si": 1227,
      "▁both": 1228,
      "ign": 1229,
      "aff": 1230,
      "raph": 1231,
      "ivers": 1232,
      "▁climate": 1233,
      "▁pages": 1234,
      "▁learned": 1235,
      "▁indic": 1236,
      "▁rock": 1237,
      "aded": 1238,
      "▁det": 1239,
      "▁inj": 1240,
      "▁argument": 1241,
      "▁accept": 1242,
      "▁dogs": 1243,
      "re": 1244,
      "▁ar": 1245,
      "▁bl": 1246,
      "▁stat": 1247,
      "▁pil": 1248,
      "▁town": 1249,
      "like": 1250,
      "▁guy": 1251,
      "▁foc": 1252,
      "▁asked": 1253,
      "▁snake": 1254,
      "▁action": 1255,
      "▁ought": 1256,
      "▁board": 1257,
      "▁discus": 1258,
      "▁matter": 1259,
      "▁repair": 1260,
      "▁2": 1261,
      "▁contract": 1262,
      "▁light": 1263,
      "▁really": 1264,
      "ading": 1265,
      "▁died": 1266,
      "▁attemp": 1267,
      "▁movement": 1268,
      "▁other": 1269,
      "ass": 1270,
      "▁ec": 1271,
      "------": 1272,
      "==": 1273,
      "▁mean": 1274,
      "▁found": 1275,
      "▁educ": 1276,
      "▁population": 1277,
      "▁----": 1278,
      "­": 1279,
      "▁by": 1280,
      "ied": 1281,
      "▁guess": 1282,
      "anced": 1283,
      "ous": 1284,
      "▁fr": 1285,
      "▁rem": 1286,
      "▁conf": 1287,
      "lo": 1288,
      "▁pm": 1289,
      "ects": 1290,
      "▁trees": 1291,
      "▁win": 1292,
      "▁stic": 1293,
      "ements": 1294,
      "▁newsp": 1295,
      "▁continu": 1296,
      "ain": 1297,
      "▁come": 1298,
      "▁pencil": 1299,
      "▁family": 1300,
      "cakes": 1301,
      "uzz": 1302,
      "▁yog": 1303,
      "▁animals": 1304,
      "▁math": 1305,
      "ali": 1306,
      "ys": 1307,
      "▁sandwic": 1308,
      "▁hat": 1309,
      "▁|--------+----------------------->": 1310,
      "▁woman": 1311,
      "▁pe": 1312,
      "▁(": 1313,
      "▁enab": 1314,
      "qu": 1315,
      "▁join": 1316,
      "▁doll": 1317,
      "▁bul": 1318,
      "▁requ": 1319,
      "▁birthday": 1320,
      "▁sti": 1321,
      "anded": 1322,
      "▁rest": 1323,
      "▁cats": 1324,
      "▁lot": 1325,
      "▁filter": 1326,
      "den": 1327,
      "ife": 1328,
      "▁terms": 1329,
      "▁fore": 1330,
      "▁education": 1331,
      "way": 1332,
      "▁there": 1333,
      "ness": 1334,
      "bo": 1335,
      "▁kit": 1336,
      "wn": 1337,
      "▁comp": 1338,
      "▁story": 1339,
      "▁voice": 1340,
      "ination": 1341,
      "▁watched": 1342,
      "ient": 1343,
      "▁adults": 1344,
      "ought": 1345,
      "▁got": 1346,
      "▁buy": 1347,
      "▁hot": 1348,
      "▁grand": 1349,
      "▁lay": 1350,
      "ted": 1351,
      "ital": 1352,
      "▁---": 1353,
      "ozer": 1354,
      "[": 1355,
      "▁doc": 1356,
      "ound": 1357,
      "▁ve": 1358,
      "ary": 1359,
      "▁mrs": 1360,
      "▁he": 1361,
      "▁one": 1362,
      "cept": 1363,
      "▁business": 1364,
      "▁approach": 1365,
      "▁confir": 1366,
      "▁sa": 1367,
      "-------": 1368,
      "▁metal": 1369,
      "▁occur": 1370,
      "uck": 1371,
      "enting": 1372,
      "unch": 1373,
      "lly": 1374,
      "ɛ": 1375,
      "▁sur": 1376,
      "▁thy": 1377,
      "▁_____": 1378,
      "ented": 1379,
      "▁computer": 1380,
      "▁u": 1381,
      "ro": 1382,
      "▁advice": 1383,
      "▁states": 1384,
      "▁preven": 1385,
      "inks": 1386,
      "▁end": 1387,
      "▁----==": 1388,
      "—": 1389,
      "▁season": 1390,
      "????????": 1391,
      "▁gives": 1392,
      "▁pin": 1393,
      "alities": 1394,
      "out": 1395,
      "▁laun": 1396,
      "▁rad": 1397,
      "▁dom": 1398,
      "p": 1399,
      "ʒ": 1400,
      "▁super": 1401,
      "▁behin": 1402,
      "▁expos": 1403,
      "▁bowl": 1404,
      "▁effects": 1405,
      "i": 1406,
      "▁prin": 1407,
      "▁airline": 1408,
      "ude": 1409,
      "▁emb": 1410,
      "▁des": 1411,
      "▁economy": 1412,
      "▁sept": 1413,
      "▁x": 1414,
      "▁put": 1415,
      "▁’s": 1416,
      "▁aut": 1417,
      "rested": 1418,
      "▁pop": 1419,
      "tery": 1420,
      "or": 1421,
      "#": 1422,
      "▁ca": 1423,
      "▁fut": 1424,
      "ters": 1425,
      "▁wind": 1426,
      "▁’m": 1427,
      "▁string": 1428,
      "▁e-m": 1429,
      "▁stand": 1430,
      "▁bunch": 1431,
      "▁serv": 1432,
      "▁cup": 1433,
      "▁date": 1434,
      "▁travel": 1435,
      "▁field": 1436,
      "▁percent": 1437,
      "▁recomm": 1438,
      "ale": 1439,
      "▁chair": 1440,
      "ati": 1441,
      "▁comm": 1442,
      "▁circ": 1443,
      "▁last": 1444,
      "▁tuesday": 1445,
      "▁tas": 1446,
      "▁sheet": 1447,
      "▁is": 1448,
      "▁eng": 1449,
      "ent": 1450,
      "▁such": 1451,
      "ative": 1452,
      "oles": 1453,
      "▁rain": 1454,
      "▁wish": 1455,
      "▁belong": 1456,
      "▁tour": 1457,
      "ents": 1458,
      "ump": 1459,
      "ium": 1460,
      "▁technologies": 1461,
      "▁alt": 1462,
      "▁vehic": 1463,
      "▁table": 1464,
      "▁born": 1465,
      "▁require": 1466,
      "▁particip": 1467,
      "▁results": 1468,
      "▁beyond": 1469,
      "▁level": 1470,
      "▁...................": 1471,
      "▁recog": 1472,
      "▁birds": 1473,
      "ple": 1474,
      "lers": 1475,
      "▁200": 1476,
      "▁regards": 1477,
      "▁wat": 1478,
      "▁consider": 1479,
      "▁year": 1480,
      "▁toys": 1481,
      "▁post": 1482,
      "body": 1483,
      "▁version": 1484,
      "▁laur": 1485,
      "▁qu": 1486,
      "▁kids": 1487,
      ">": 1488,
      "▁organ": 1489,
      "]": 1490,
      "▁star": 1491,
      "▁seeing": 1492,
      "▁transportation": 1493,
      "▁plants": 1494,
      "▁together": 1495,
      "▁sex": 1496,
      "****************": 1497,
      "▁corn": 1498,
      "▁review": 1499,
      "▁tape": 1500,
      "▁gi": 1501,
      "jec": 1502,
      "▁mer": 1503,
      "▁mad": 1504,
      "ocracy": 1505,
      "ighb": 1506,
      "▁o'clock": 1507,
      "▁finding": 1508,
      "▁flying": 1509,
      "ections": 1510,
      "ated": 1511,
      "artment": 1512,
      "▁image": 1513,
      "▁depart": 1514,
      "▁self": 1515,
      "▁app": 1516,
      "▁dinosaur": 1517,
      "▁exper": 1518,
      "▁basis": 1519,
      "▁port": 1520,
      "ite": 1521,
      "▁body": 1522,
      "▁wash": 1523,
      "▁help": 1524,
      "▁ants": 1525,
      "▁fit": 1526,
      "▁,?": 1527,
      "▁ask": 1528,
      "ops": 1529,
      "sed": 1530,
      "▁something": 1531,
      "▁users": 1532,
      "▁comed": 1533,
      "▁din": 1534,
      "▁coup": 1535,
      "▁squ": 1536,
      "▁drop": 1537,
      "ince": 1538,
      "▁motor": 1539,
      "▁encour": 1540,
      "▁ta": 1541,
      "selve": 1542,
      "▁mist": 1543,
      "ulations": 1544,
      "ains": 1545,
      "▁=": 1546,
      "▁master": 1547,
      "▁his": 1548,
      "▁get": 1549,
      "▁r": 1550,
      "▁id": 1551,
      "a": 1552,
      "am": 1553,
      "ying": 1554,
      "ressed": 1555,
      "▁sugar": 1556,
      "gre": 1557,
      "▁..": 1558,
      "▁som": 1559,
      "▁pick": 1560,
      "▁rail": 1561,
      "▁shirt": 1562,
      "▁along": 1563,
      "▁women": 1564,
      "otes": 1565,
      "▁!!!!!!!!!!!!!!!!!!!": 1566,
      "▁card": 1567,
      "▁garage": 1568,
      "ove": 1569,
      "▁reasons": 1570,
      "▁pic": 1571,
      "▁means": 1572,
      "eep": 1573,
      "▁yester": 1574,
      "▁breakf": 1575,
      "enty": 1576,
      "oup": 1577,
      "▁loss": 1578,
      "▁est": 1579,
      "▁created": 1580,
      "atures": 1581,
      "▁who's": 1582,
      "▁care": 1583,
      "▁broken": 1584,
      "lig": 1585,
      "ective": 1586,
      "▁throu": 1587,
      "▁based": 1588,
      "aps": 1589,
      "ven": 1590,
      "▁cru": 1591,
      "!?": 1592,
      "▁ir": 1593,
      "amples": 1594,
      "▁toast": 1595,
      "der": 1596,
      "ο": 1597,
      "pt": 1598,
      "▁prof": 1599,
      "▁forces": 1600,
      "▁name": 1601,
      "▁ordered": 1602,
      "▁doub": 1603,
      "▁viol": 1604,
      "▁hers": 1605,
      "▁arr": 1606,
      "▁legisl": 1607,
      "▁will": 1608,
      "struc": 1609,
      "fl": 1610,
      "ell": 1611,
      "▁hear": 1612,
      "▁goes": 1613,
      "▁capac": 1614,
      "▁plane": 1615,
      "▁hour": 1616,
      "head": 1617,
      "▁intelligence": 1618,
      "▁cars": 1619,
      "▁innovation": 1620,
      "▁versus": 1621,
      "▁buil": 1622,
      "▁clean": 1623,
      "▁cab": 1624,
      "▁itself": 1625,
      "▁through": 1626,
      "▁beg": 1627,
      "▁response": 1628,
      "y": 1629,
      "▁independ": 1630,
      "▁pip": 1631,
      "▁swim": 1632,
      "▁read": 1633,
      "▁fact": 1634,
      "im": 1635,
      "io": 1636,
      "ived": 1637,
      "▁suff": 1638,
      "▁hope": 1639,
      "mitted": 1640,
      "▁moment": 1641,
      "ch": 1642,
      "▁share": 1643,
      "▁lose": 1644,
      "▁allow": 1645,
      "▁chick": 1646,
      "ceed": 1647,
      "▁area": 1648,
      "▁cream": 1649,
      "▁helps": 1650,
      "▁demonstr": 1651,
      "▁—": 1652,
      "▁style": 1653,
      "▁tow": 1654,
      "▁gener": 1655,
      "▁towards": 1656,
      "▁lunch": 1657,
      "▁though": 1658,
      "▁sec": 1659,
      "▁yourself": 1660,
      "ake": 1661,
      "__": 1662,
      "gr": 1663,
      "ports": 1664,
      "▁truth": 1665,
      "tai": 1666,
      "▁befor": 1667,
      "▁asking": 1668,
      "▁carried": 1669,
      "elf": 1670,
      "ril": 1671,
      "▁compan": 1672,
      "▁society": 1673,
      "▁dol": 1674,
      "ased": 1675,
      "____": 1676,
      "▁believe": 1677,
      "▁until": 1678,
      "▁ago": 1679,
      "overn": 1680,
      "▁guys": 1681,
      "·": 1682,
      "▁lea": 1683,
      "ments": 1684,
      "▁[...": 1685,
      "▁concern": 1686,
      "az": 1687,
      "▁kept": 1688,
      "ized": 1689,
      "▁given": 1690,
      "▁machine": 1691,
      "▁madam": 1692,
      "oc": 1693,
      "▁pub": 1694,
      "▁content": 1695,
      "▁tom": 1696,
      "both": 1697,
      "▁those": 1698,
      "▁mummy": 1699,
      "▁maj": 1700,
      "▁siz": 1701,
      "▁bottom": 1702,
      "▁showed": 1703,
      "▁sugges": 1704,
      "▁mid": 1705,
      "▁its": 1706,
      "con": 1707,
      "▁many": 1708,
      "▁law": 1709,
      "▁record": 1710,
      ".": 1711,
      "self": 1712,
      "▁grandm": 1713,
      "▁transport": 1714,
      "▁counterpar": 1715,
      "▁ass": 1716,
      "2": 1717,
      "▁rul": 1718,
      ".m": 1719,
      "▁incl": 1720,
      "▁re": 1721,
      "▁te": 1722,
      "▁direc": 1723,
      "▁strength": 1724,
      "▁=---": 1725,
      "▁fiel": 1726,
      "▁potty": 1727,
      "ugh": 1728,
      "▁death": 1729,
      "tain": 1730,
      "ual": 1731,
      "▁station": 1732,
      "ming": 1733,
      "es": 1734,
      "aur": 1735,
      "▁risk": 1736,
      "▁running": 1737,
      "▁airplane": 1738,
      "ical": 1739,
      "▁-----------------------------------------------------------------": 1740,
      "▁-------------------------------------------------": 1741,
      "vement": 1742,
      "duc": 1743,
      "▁church": 1744,
      "▁agreed": 1745,
      "▁fi": 1746,
      "▁fo": 1747,
      "wor": 1748,
      "▁oakland": 1749,
      "!!!!": 1750,
      "urday": 1751,
      "▁resources": 1752,
      "▁writ": 1753,
      "▁sales": 1754,
      "▁how": 1755,
      "▁majority": 1756,
      "fri": 1757,
      "ission": 1758,
      "▁mistake": 1759,
      "▁price": 1760,
      "▁egg": 1761,
      "oted": 1762,
      "▁–": 1763,
      "▁island": 1764,
      "▁assoc": 1765,
      "if": 1766,
      "use": 1767,
      "▁juice": 1768,
      "--------": 1769,
      "▁franc": 1770,
      "erences": 1771,
      "▁stret": 1772,
      "dle": 1773,
      "▁identi": 1774,
      "▁from": 1775,
      "▁catch": 1776,
      "▁univers": 1777,
      "to": 1778,
      "ll": 1779,
      "ron": 1780,
      "ury": 1781,
      "▁sal": 1782,
      "ords": 1783,
      "ab": 1784,
      "▁poli": 1785,
      "------------": 1786,
      "▁company": 1787,
      "▁access": 1788,
      "nut": 1789,
      "æ": 1790,
      "ummy": 1791,
      "▁don": 1792,
      "pp": 1793,
      "ligence": 1794,
      "▁policy": 1795,
      "bur": 1796,
      "amb": 1797,
      "▁information": 1798,
      "▁secon": 1799,
      "olution": 1800,
      "▁connection": 1801,
      "▁equ": 1802,
      "uth": 1803,
      "▁bar": 1804,
      "▁directive": 1805,
      "▁clothing": 1806,
      "ap": 1807,
      "▁aboard": 1808,
      "ech": 1809,
      "▁vol": 1810,
      "el": 1811,
      "ork": 1812,
      "▁rout": 1813,
      "ges": 1814,
      "ength": 1815,
      "▁expected": 1816,
      "▁murder": 1817,
      "▁reas": 1818,
      "uring": 1819,
      "³": 1820,
      "▁commit": 1821,
      "▁belon": 1822,
      "▁`s": 1823,
      "ional": 1824,
      "********************************": 1825,
      "▁artic": 1826,
      "sm": 1827,
      "▁abo": 1828,
      "iv": 1829,
      "▁bud": 1830,
      "▁november": 1831,
      "▁comments": 1832,
      "▁philadelphia": 1833,
      "▁protection": 1834,
      "ast": 1835,
      "▁now": 1836,
      "ience": 1837,
      "▁s/he": 1838,
      "▁someth": 1839,
      "▁\"": 1840,
      "▁a": 1841,
      "▁candid": 1842,
      "▁hous": 1843,
      "▁bat": 1844,
      "▁cri": 1845,
      "▁vacation": 1846,
      "▁reserv": 1847,
      "ams": 1848,
      "▁critic": 1849,
      "▁enc": 1850,
      "▁stories": 1851,
      "tics": 1852,
      "igh": 1853,
      "ess": 1854,
      "br": 1855,
      "▁bunny": 1856,
      "▁starting": 1857,
      "▁break": 1858,
      "j": 1859,
      "ph": 1860,
      "▁boat": 1861,
      "▁ensure": 1862,
      "l": 1863,
      "▁soldi": 1864,
      "'re": 1865,
      "▁tool": 1866,
      "▁threw": 1867,
      "▁according": 1868,
      "▁amidst": 1869,
      "▁contr": 1870,
      "▁ev": 1871,
      "▁do": 1872,
      "▁set": 1873,
      "▁bank": 1874,
      "▁june": 1875,
      "orm": 1876,
      "▁cook": 1877,
      "▁system": 1878,
      "▁production": 1879,
      "▁typ": 1880,
      "ry": 1881,
      "lic": 1882,
      "▁continued": 1883,
      "▁sense": 1884,
      "▁studying": 1885,
      "▁’": 1886,
      "rated": 1887,
      "▁]": 1888,
      "oint": 1889,
      "▁month": 1890,
      "▁item": 1891,
      "▁every": 1892,
      "▁menti": 1893,
      "▁ret": 1894,
      "▁consid": 1895,
      "▁kitty": 1896,
      "▁seemed": 1897,
      "▁with": 1898,
      "▁live": 1899,
      "▁anim": 1900,
      "........": 1901,
      "▁built": 1902,
      "▁loan": 1903,
      "▁plate": 1904,
      "^": 1905,
      "▁adam": 1906,
      "akes": 1907,
      "▁visa": 1908,
      "▁learn": 1909,
      "▁explain": 1910,
      "owers": 1911,
      "isd": 1912,
      "▁saying": 1913,
      "outs": 1914,
      "▁---=": 1915,
      "ke": 1916,
      "▁made": 1917,
      "▁beach": 1918,
      "▁purch": 1919,
      "▁soldiers": 1920,
      "▁likes": 1921,
      "atis": 1922,
      "▁right": 1923,
      "ead": 1924,
      "▁them": 1925,
      "onom": 1926,
      "▁quality": 1927,
      "ting": 1928,
      "▁seen": 1929,
      "▁baltimore": 1930,
      "▁music": 1931,
      "▁match": 1932,
      "▁fro": 1933,
      "pped": 1934,
      "work": 1935,
      "▁august": 1936,
      "▁airport": 1937,
      "▁send": 1938,
      "▁compon": 1939,
      "▁markets": 1940,
      "▁trans": 1941,
      "lik": 1942,
      "oll": 1943,
      "go": 1944,
      "|": 1945,
      "▁impact": 1946,
      "▁dog": 1947,
      "▁start": 1948,
      "▁inc": 1949,
      "▁gr": 1950,
      "▁weapons": 1951,
      "▁suicide": 1952,
      "▁war": 1953,
      "▁point": 1954,
      "ct": 1955,
      "▁bu": 1956,
      "ploy": 1957,
      "actions": 1958,
      "par": 1959,
      "_": 1960,
      "cles": 1961,
      "▁lion": 1962,
      "▁school": 1963,
      "▁attend": 1964,
      "▁systems": 1965,
      "▁cir": 1966,
      "▁bill": 1967,
      "▁page": 1968,
      "▁includes": 1969,
      "▁**********": 1970,
      "▁gro": 1971,
      "ei": 1972,
      "tride": 1973,
      "▁j": 1974,
      "igned": 1975,
      "▁'em": 1976,
      "▁gall": 1977,
      "otw": 1978,
      "▁dre": 1979,
      "used": 1980,
      "▁door": 1981,
      "▁dev": 1982,
      "▁described": 1983,
      "aking": 1984,
      "tering": 1985,
      "▁herself": 1986,
      "▁reg": 1987,
      "▁!": 1988,
      "ited": 1989,
      "▁did": 1990,
      "ount": 1991,
      "ided": 1992,
      "▁only": 1993,
      "▁beauty": 1994,
      "▁pittsbur": 1995,
      "▁officials": 1996,
      "ruc": 1997,
      "▁sports": 1998,
      "▁choose": 1999,
      "ations": 2000,
      "▁of": 2001,
      "▁ever": 2002,
      "ai": 2003,
      "lem": 2004,
      "port": 2005,
      "--------+----------------": 2006,
      "▁cam": 2007,
      "order": 2008,
      "▁customers": 2009,
      "velop": 2010,
      "▁horses": 2011,
      "▁chan": 2012,
      "▁nor": 2013,
      "▁nonstop": 2014,
      "gh": 2015,
      "▁fax": 2016,
      "▁technology": 2017,
      "force": 2018,
      "▁manager": 2019,
      "▁minut": 2020,
      "epend": 2021,
      "x": 2022,
      "▁administration": 2023,
      "▁mech": 2024,
      "▁above": 2025,
      "▁wed": 2026,
      "ov": 2027,
      "!!!": 2028,
      "▁sli": 2029,
      "▁names": 2030,
      "ard": 2031,
      "▁instance": 2032,
      "▁fri": 2033,
      "v": 2034,
      "▁ap": 2035,
      "▁via": 2036,
      "▁parliament": 2037,
      "▁played": 2038,
      "▁database": 2039,
      "fir": 2040,
      "▁me": 2041,
      "▁down": 2042,
      "ues": 2043,
      "▁structure": 2044,
      "▁isl": 2045,
      "▁fire": 2046,
      "sel": 2047,
      "are": 2048,
      "tly": 2049,
      "▁things": 2050,
      "▁closed": 2051,
      "ghting": 2052,
      "▁farm": 2053,
      "▁signed": 2054,
      "▁walking": 2055,
      "cent": 2056,
      "▁corner": 2057,
      "val": 2058,
      "▁plenty": 2059,
      "yone": 2060,
      "▁cust": 2061,
      "▁teh": 2062,
      "▁ad": 2063,
      "▁harry": 2064,
      "▁.": 2065,
      "▁friday": 2066,
      "▁cart": 2067,
      "book": 2068,
      "ning": 2069,
      "ject": 2070,
      "ves": 2071,
      "m": 2072,
      "▁management": 2073,
      "▁sound": 2074,
      "li": 2075,
      "irt": 2076,
      "▁bub": 2077,
      "ea": 2078,
      "▁mater": 2079,
      "▁surpr": 2080,
      "▁person": 2081,
      "ugg": 2082,
      "▁stopped": 2083,
      "q": 2084,
      "▁after": 2085,
      "▁success": 2086,
      "▁whom": 2087,
      "▁reference": 2088,
      "▁attention": 2089,
      "▁l": 2090,
      "ults": 2091,
      "▁mathema": 2092,
      "▁interv": 2093,
      "▁decided": 2094,
      "plus": 2095,
      "▁map": 2096,
      "▁conditions": 2097,
      "ith": 2098,
      "▁shower": 2099,
      "▁support": 2100,
      "9": 2101,
      "▁,": 2102,
      "ere": 2103,
      "▁heard": 2104,
      "ads": 2105,
      "▁skills": 2106,
      "▁bos": 2107,
      "▁offici": 2108,
      "▁mind": 2109,
      "anted": 2110,
      "▁surprise": 2111,
      "▁struc": 2112,
      "▁maybe": 2113,
      "▁boo": 2114,
      "▁works": 2115,
      "▁wilt": 2116,
      "▁pair": 2117,
      "▁yesterday": 2118,
      "n": 2119,
      "▁ph": 2120,
      "▁cookies": 2121,
      "▁cloth": 2122,
      "▁bom": 2123,
      "▁treat": 2124,
      "▁responsibility": 2125,
      "earch": 2126,
      "educ": 2127,
      "liday": 2128,
      "os": 2129,
      "▁always": 2130,
      "st": 2131,
      "▁done": 2132,
      "▁ver": 2133,
      "oved": 2134,
      "lights": 2135,
      "▁ques": 2136,
      "▁fan": 2137,
      "▁litt": 2138,
      "▁tiger": 2139,
      "osed": 2140,
      "eb": 2141,
      "▁games": 2142,
      "▁reason": 2143,
      "age": 2144,
      "▁rules": 2145,
      "ence": 2146,
      "▁student": 2147,
      "▁changed": 2148,
      "▁someone": 2149,
      "▁|": 2150,
      "▁lady": 2151,
      "yp": 2152,
      "▁line": 2153,
      "▁init": 2154,
      "▁evening": 2155,
      "▁cere": 2156,
      "▁avo": 2157,
      "ook": 2158,
      "▁also": 2159,
      "▁repres": 2160,
      "▁colle": 2161,
      "[CLS]": 2162,
      "ight": 2163,
      "▁rece": 2164,
      "ror": 2165,
      "▁tu": 2166,
      "▁code": 2167,
      "▁sect": 2168,
      "▁claim": 2169,
      "▁lar": 2170,
      "▁reported": 2171,
      "▁disaster": 2172,
      "▁webs": 2173,
      "▁understanding": 2174,
      "β": 2175,
      "ed": 2176,
      "▁<<": 2177,
      "▁store": 2178,
      "1": 2179,
      "▁grandmother": 2180,
      "▁ple": 2181,
      "fare": 2182,
      "▁sk": 2183,
      "▁grab": 2184,
      "▁less": 2185,
      "▁gender": 2186,
      "uding": 2187,
      "▁t": 2188,
      "▁location": 2189,
      "▁opened": 2190,
      "▁bought": 2191,
      "++": 2192,
      "▁wou": 2193,
      "ular": 2194,
      "▁eyes": 2195,
      "ont": 2196,
      "oring": 2197,
      "▁goal": 2198,
      "▁player": 2199,
      "af": 2200,
      "war": 2201,
      "▁counter": 2202,
      "▁sup": 2203,
      "▁mechan": 2204,
      "▁toward": 2205,
      "▁partic": 2206,
      "▁charge": 2207,
      "▁block": 2208,
      "▁micro": 2209,
      "▁road": 2210,
      "iate": 2211,
      "▁ann": 2212,
      "▁ou": 2213,
      "▁wake": 2214,
      "▁>": 2215,
      "p;": 2216,
      "ret": 2217,
      "▁forgot": 2218,
      "fact": 2219,
      "ol": 2220,
      "▁am": 2221,
      "▁which": 2222,
      "▁imag": 2223,
      "inu": 2224,
      "aled": 2225,
      "side": 2226,
      "▁so": 2227,
      "▁sens": 2228,
      "▁freedom": 2229,
      "▁girl": 2230,
      "inds": 2231,
      "▁bee": 2232,
      "▁word": 2233,
      "▁when": 2234,
      "▁pred": 2235,
      "▁yet": 2236,
      "▁dirt": 2237,
      "..": 2238,
      "lu": 2239,
      "▁bott": 2240,
      "yed": 2241,
      "asure": 2242,
      "▁bring": 2243,
      "▁standards": 2244,
      "ered": 2245,
      "▁daddy": 2246,
      "ames": 2247,
      "▁ye": 2248,
      "own": 2249,
      "▁reading": 2250,
      "%": 2251,
      "eration": 2252,
      "▁idea": 2253,
      "▁obt": 2254,
      "▁cereal": 2255,
      "▁fin": 2256,
      "▁mach": 2257,
      "▁but": 2258,
      "▁study": 2259,
      "▁cle": 2260,
      "▁.!": 2261,
      "▁want": 2262,
      "hic": 2263,
      "▁asp": 2264,
      "▁streets": 2265,
      "▁appointment": 2266,
      "ɑ": 2267,
      "cle": 2268,
      "▁cake": 2269,
      "▁ear": 2270,
      "▁organization": 2271,
      "▁rights": 2272,
      "▁cards": 2273,
      "ms": 2274,
      "ax": 2275,
      "▁parties": 2276,
      "▁labor": 2277,
      "▁lived": 2278,
      "▁cur": 2279,
      "▁copy": 2280,
      "▁since": 2281,
      "pr": 2282,
      "▁k": 2283,
      "hip": 2284,
      "▁conc": 2285,
      "▁aft": 2286,
      "▁neither": 2287,
      "▁~": 2288,
      "its": 2289,
      "ends": 2290,
      "▁rememb": 2291,
      "eck": 2292,
      "▁sandwich": 2293,
      "▁exh": 2294,
      "▁th": 2295,
      "ility": 2296,
      "ologies": 2297,
      "tures": 2298,
      "▁mat": 2299,
      "▁services": 2300,
      "yet": 2301,
      "iness": 2302,
      "ars": 2303,
      "▁dad": 2304,
      "amp": 2305,
      "ybody": 2306,
      "▁order": 2307,
      "▁sea": 2308,
      "▁members": 2309,
      "ants": 2310,
      "▁query": 2311,
      "▁message": 2312,
      "▁ey": 2313,
      "▁initi": 2314,
      "ever": 2315,
      "▁buc": 2316,
      "▁near": 2317,
      "w": 2318,
      "▁co": 2319,
      "ɔ": 2320,
      "▁campaign": 2321,
      "▁dam": 2322,
      "ority": 2323,
      "▁course": 2324,
      "▁studies": 2325,
      "▁notw": 2326,
      "▁against": 2327,
      "▁wear": 2328,
      "▁tummy": 2329,
      "▁_": 2330,
      "idence": 2331,
      "ute": 2332,
      "▁tea": 2333,
      "owed": 2334,
      "▁pas": 2335,
      "▁fol": 2336,
      "▁princip": 2337,
      "▁prices": 2338,
      "▁governments": 2339,
      "▁phot": 2340,
      "ention": 2341,
      "▁stopover": 2342,
      "ledge": 2343,
      "▁leader": 2344,
      "▁damage": 2345,
      "uch": 2346,
      "ah": 2347,
      "▁morn": 2348,
      "▁rev": 2349,
      "tc": 2350,
      "▁diff": 2351,
      "ality": 2352,
      "▁conflict": 2353,
      "▁ya": 2354,
      "▁night": 2355,
      "▁products": 2356,
      "outh": 2357,
      "ien": 2358,
      "▁respect": 2359,
      "▁friend": 2360,
      "▁fing": 2361,
      "▁applied": 2362,
      "▁notice": 2363,
      "▁.........": 2364,
      "te": 2365,
      "▁chall": 2366,
      "▁behavi": 2367,
      "▁ren": 2368,
      "▁experien": 2369,
      "ened": 2370,
      "▁bugs": 2371,
      "▁bac": 2372,
      "▁offer": 2373,
      "▁seem": 2374,
      "ging": 2375,
      "lus": 2376,
      "▁++++": 2377,
      "▁str": 2378,
      "ything": 2379,
      "▁performance": 2380,
      "ool": 2381,
      "ride": 2382,
      "▁horse": 2383,
      "ids": 2384,
      "▁most": 2385,
      "▁die": 2386,
      "acy": 2387,
      "=": 2388,
      "▁implem": 2389,
      "ter": 2390,
      "een": 2391,
      "▁july": 2392,
      "ling": 2393,
      "7": 2394,
      "ourn": 2395,
      "▁assistance": 2396,
      "omp": 2397,
      "▁yo": 2398,
      "▁def": 2399,
      "be": 2400,
      "▁hund": 2401,
      "▁al": 2402,
      "▁reduc": 2403,
      "▁indust": 2404,
      "▁root": 2405,
      "▁deter": 2406,
      "▁neck": 2407,
      "ipped": 2408,
      "▁department": 2409,
      "pen": 2410,
      "²": 2411,
      "▁committee": 2412,
      "▁cage": 2413,
      "▁coming": 2414,
      "▁following": 2415,
      "orts": 2416,
      "▁liter": 2417,
      "▁protect": 2418,
      "hin": 2419,
      "eted": 2420,
      "[UNK]": 2421,
      "▁being": 2422,
      "▁uh": 2423,
      "▁er": 2424,
      "her": 2425,
      "▁growing": 2426,
      "▁cig": 2427,
      "hold": 2428,
      "▁words": 2429,
      "▁teach": 2430,
      "my": 2431,
      "▁tele": 2432,
      "▁object": 2433,
      "---": 2434,
      "▁happened": 2435,
      "aint": 2436,
      "▁tre": 2437,
      "▁invest": 2438,
      "▁are": 2439,
      "ep": 2440,
      "▁con": 2441,
      "onstr": 2442,
      "▁series": 2443,
      "▁’ve": 2444,
      "ank": 2445,
      "▁cent": 2446,
      "za": 2447,
      "▁role": 2448,
      "▁pup": 2449,
      "apers": 2450,
      "▁ow": 2451,
      "▁wine": 2452,
      "▁rent": 2453,
      "▁air": 2454,
      "nly": 2455,
      "▁mo": 2456,
      "▁wond": 2457,
      "▁areas": 2458,
      "orders": 2459,
      "▁sus": 2460,
      "▁assist": 2461,
      "▁numerous": 2462,
      "ious": 2463,
      "-m": 2464,
      "uments": 2465,
      "▁foods": 2466,
      "▁well": 2467,
      "ket": 2468,
      "esting": 2469,
      "▁gard": 2470,
      "▁lear": 2471,
      "▁numbers": 2472,
      "tiv": 2473,
      "▁anti": 2474,
      "▁acc": 2475,
      "ently": 2476,
      "▁dwww": 2477,
      "ibilities": 2478,
      "▁trying": 2479,
      "▁hop": 2480,
      "mate": 2481,
      "▁sing": 2482,
      "▁po": 2483,
      "iding": 2484,
      "▁&": 2485,
      "▁top": 2486,
      "▁keep": 2487,
      "▁myself": 2488,
      "▁weeks": 2489,
      "▁inte": 2490,
      "▁hal": 2491,
      "abb": 2492,
      "▁_______": 2493,
      "ense": 2494,
      "▁if": 2495,
      "▁'d": 2496,
      "▁house": 2497,
      "▁******************************************************************": 2498,
      "ily": 2499,
      "▁1": 2500,
      "▁opinion": 2501,
      "ending": 2502,
      "ulated": 2503,
      "plan": 2504,
      "▁worked": 2505,
      "▁showing": 2506,
      "▁….": 2507,
      "▁pushed": 2508,
      "▁display": 2509,
      "▁finished": 2510,
      "ring": 2511,
      "▁served": 2512,
      "▁takes": 2513,
      "iz": 2514,
      "▁b/": 2515,
      "eces": 2516,
      "▁pull": 2517,
      "oke": 2518,
      "▁high": 2519,
      "▁ki": 2520,
      "temp": 2521,
      "gu": 2522,
      "▁neighbor": 2523,
      "ounced": 2524,
      "chie": 2525,
      "▁jud": 2526,
      "▁water": 2527,
      "ates": 2528,
      "▁resp": 2529,
      "lity": 2530,
      "▁till": 2531,
      "ision": 2532,
      "▁resour": 2533,
      "▁chocol": 2534,
      "▁pupp": 2535,
      "▁mission": 2536,
      "▁bri": 2537,
      "▁traffic": 2538,
      "ume": 2539,
      "▁rates": 2540,
      "▁arti": 2541,
      "▁weight": 2542,
      "board": 2543,
      "▁sil": 2544,
      "▁***": 2545,
      "▁trade": 2546,
      "▁included": 2547,
      "▁res": 2548,
      "▁mur": 2549,
      "▁putting": 2550,
      "vest": 2551,
      "▁tomorrow": 2552,
      "▁visited": 2553,
      "▁elect": 2554,
      "mal": 2555,
      "▁center": 2556,
      "▁....": 2557,
      "ick": 2558,
      "tivity": 2559,
      "▁wonder": 2560,
      "ping": 2561,
      "▁just": 2562,
      "oney": 2563,
      "ched": 2564,
      "ey": 2565,
      "▁kn": 2566,
      "▁beh": 2567,
      "▁foot": 2568,
      "▁aud": 2569,
      "▁...": 2570,
      "▁bread": 2571,
      "▁rabb": 2572,
      "▁same": 2573,
      "▁details": 2574,
      "▁ign": 2575,
      "oard": 2576,
      "▁past": 2577,
      "▁z": 2578,
      "▁choice": 2579,
      "ne": 2580,
      "▁tic": 2581,
      "ices": 2582,
      "ri": 2583,
      "▁for": 2584,
      "▁stud": 2585,
      "tice": 2586,
      "iew": 2587,
      "▁)": 2588,
      "▁act": 2589,
      "▁stri": 2590,
      "▁pants": 2591,
      "mber": 2592,
      "▁her": 2593,
      "▁instruc": 2594,
      "▁achie": 2595,
      "`": 2596,
      "itation": 2597,
      "b": 2598,
      "▁attem": 2599,
      "▁man": 2600,
      "▁windows": 2601,
      "▁une": 2602,
      "▁innov": 2603,
      "▁.......": 2604,
      "ru": 2605,
      "▁chees": 2606,
      "▁office": 2607,
      "lf": 2608,
      "▁dese": 2609,
      "▁acqui": 2610,
      "▁woud": 2611,
      "ord": 2612,
      "rote": 2613,
      "ort": 2614,
      "our": 2615,
      "ouch": 2616,
      "▁memory": 2617,
      "▁forget": 2618,
      "▁spell": 2619,
      "▁plan": 2620,
      "▁fell": 2621,
      "ad": 2622,
      "▁favor": 2623,
      "▁atmos": 2624,
      "pping": 2625,
      "ried": 2626,
      "▁supposed": 2627,
      "▁placed": 2628,
      "▁rabbit": 2629,
      "zation": 2630,
      "▁boom": 2631,
      "▁rel": 2632,
      "▁exhib": 2633,
      "▁conn": 2634,
      "▁region": 2635,
      "▁seek": 2636,
      "bers": 2637,
      "town": 2638,
      "ession": 2639,
      "ches": 2640,
      "using": 2641,
      "other": 2642,
      "fer": 2643,
      "▁experi": 2644,
      "▁however": 2645,
      "▁theory": 2646,
      "ners": 2647,
      "▁test": 2648,
      "ward": 2649,
      "▁rate": 2650,
      "▁director": 2651,
      "▁cause": 2652,
      "ateg": 2653,
      "▁except": 2654,
      "▁sh": 2655,
      "ip": 2656,
      "▁hundreds": 2657,
      "▁off": 2658,
      "▁proce": 2659,
      "[SEP]": 2660,
      "▁!!!!": 2661,
      "▁besides": 2662,
      "▁mail": 2663,
      "▁row": 2664,
      "▁scienti": 2665,
      "▁pers": 2666,
      "▁sort": 2667,
      "▁climb": 2668,
      "▁pur": 2669,
      "▁sitting": 2670,
      "ra": 2671,
      "▁accep": 2672,
      "▁hor": 2673,
      "▁oil": 2674,
      "▁sum": 2675,
      "▁sy": 2676,
      "iti": 2677,
      "ternoon": 2678,
      "uts": 2679,
      "▁bathroom": 2680,
      "▁snow": 2681,
      "▁within": 2682,
      "▁below": 2683,
      "•": 2684,
      "▁ma": 2685,
      "ault": 2686,
      "▁kitchen": 2687,
      "++++": 2688,
      "ner": 2689,
      "▁airl": 2690,
      "▁meet": 2691,
      "izing": 2692,
      "▁bike": 2693,
      "▁hom": 2694,
      "ar": 2695,
      "▁sch": 2696,
      "encies": 2697,
      "▁marriage": 2698,
      "▁anal": 2699,
      "per": 2700,
      "▁insp": 2701,
      "▁view": 2702,
      "▁writer": 2703,
      "▁appeared": 2704,
      "aring": 2705,
      "▁pieces": 2706,
      "▁forth": 2707,
      "oned": 2708,
      "▁auth": 2709,
      "▁dece": 2710,
      "▁sc": 2711,
      "▁somebody": 2712,
      "▁writers": 2713,
      "▁stage": 2714,
      "▁attr": 2715,
      "alf": 2716,
      "▁ent": 2717,
      "▁q": 2718,
      "ope": 2719,
      "▁decide": 2720,
      "act": 2721,
      "▁couple": 2722,
      "▁maintain": 2723,
      "!!!!!!!!": 2724,
      "▁different": 2725,
      "▁apple": 2726,
      "ble": 2727,
      "▁analysis": 2728,
      "▁write": 2729,
      "▁goods": 2730,
      "▁speed": 2731,
      "▁led": 2732,
      "▁instead": 2733,
      "o": 2734,
      "for": 2735,
      "▁cut": 2736,
      "▁charl": 2737,
      "▁/": 2738,
      "ability": 2739,
      "▁partners": 2740,
      "▁communication": 2741,
      "▁grew": 2742,
      "▁let": 2743,
      "▁inclu": 2744,
      "▁colleag": 2745,
      "▁ahead": 2746,
      "▁refl": 2747,
      "huh": 2748,
      "??": 2749,
      "0": 2750,
      "inus": 2751,
      "ument": 2752,
      "▁health": 2753,
      "▁mot": 2754,
      "▁cover": 2755,
      "▁sugg": 2756,
      "ame": 2757,
      "tic": 2758,
      "dy": 2759,
      "ticip": 2760,
      "▁material": 2761,
      "▁knows": 2762,
      "ished": 2763,
      "▁opportunity": 2764,
      "▁thing": 2765,
      "anc": 2766,
      "▁proper": 2767,
      "phone": 2768,
      "\"": 2769,
      "la": 2770,
      "▁talk": 2771,
      "▁lie": 2772,
      "▁___________": 2773,
      "ton": 2774,
      "▁wall": 2775,
      "▁’ll": 2776,
      "▁meaning": 2777,
      "arl": 2778,
      "▁your": 2779,
      "▁forms": 2780,
      "▁wa": 2781,
      "▁compl": 2782,
      "▁enem": 2783,
      "▁treated": 2784,
      "▁euro": 2785,
      "▁mouse": 2786,
      "ecting": 2787,
      "ally": 2788,
      "▁col": 2789,
      "▁ourselves": 2790,
      "▁pocket": 2791,
      "ering": 2792,
      "alk": 2793,
      "▁discuss": 2794,
      "urs": 2795,
      "lief": 2796,
      "▁go": 2797,
      "▁calling": 2798,
      ")": 2799,
      "▁application": 2800,
      "▁aff": 2801,
      "▁administ": 2802,
      "oice": 2803,
      "oder": 2804,
      "▁produc": 2805,
      "▁sent": 2806,
      "▁bulld": 2807,
      "▁exam": 2808,
      "▁pro": 2809,
      "▁wo": 2810,
      "}": 2811,
      "▁********************************": 2812,
      "▁won": 2813,
      "▁ticket": 2814,
      "ici": 2815,
      "▁ton": 2816,
      "ker": 2817,
      "▁!!!!!": 2818,
      "▁!!": 2819,
      "▁the": 2820,
      "ial": 2821,
      "▁coll": 2822,
      "▁:?": 2823,
      "▁work": 2824,
      "▁cheese": 2825,
      "ities": 2826,
      "ball": 2827,
      "▁beside": 2828,
      "▁should": 2829,
      "ill": 2830,
      "▁del": 2831,
      "▁pre": 2832,
      "▁hours": 2833,
      "ients": 2834,
      "▁debate": 2835,
      "▁than": 2836,
      "▁across": 2837,
      "▁using": 2838,
      ".doc": 2839,
      "ety": 2840,
      "asing": 2841,
      "ocol": 2842,
      "▁too": 2843,
      "ample": 2844,
      "▁stop": 2845,
      "▁friends": 2846,
      "▁************************************************": 2847,
      "ile": 2848,
      "▁weekend": 2849,
      "oph": 2850,
      "rying": 2851,
      "ulate": 2852,
      "▁whoever": 2853,
      "▁govern": 2854,
      "▁********": 2855,
      "orted": 2856,
      "us": 2857,
      "▁o": 2858,
      "▁either": 2859,
      "ear": 2860,
      "▁leg": 2861,
      "uit": 2862,
      "▁agree": 2863,
      "▁conv": 2864,
      "▁enjambment": 2865,
      "....": 2866,
      "▁cycle": 2867,
      "▁degre": 2868,
      "▁coo": 2869,
      "▁group": 2870,
      "ases": 2871,
      "▁job": 2872,
      "read": 2873,
      "▁challen": 2874,
      "▁characters": 2875,
      "▁culture": 2876,
      "berry": 2877,
      "▁shoes": 2878,
      "▁mag": 2879,
      "▁n't": 2880,
      "▁size": 2881,
      "▁--": 2882,
      "▁econom": 2883,
      "▁scre": 2884,
      "▁ter": 2885,
      "▁la": 2886,
      "▁ag": 2887,
      "▁supp": 2888,
      "ism": 2889,
      "▁rob": 2890,
      "▁living": 2891,
      "essed": 2892,
      "▁button": 2893,
      "▁yours": 2894,
      "lation": 2895,
      "▁intern": 2896,
      "kes": 2897,
      "imp": 2898,
      "▁fields": 2899,
      "▁very": 2900,
      "▁reven": 2901,
      "uation": 2902,
      "▁mem": 2903,
      "&": 2904,
      "`s": 2905,
      "▁days": 2906,
      "cross": 2907,
      "king": 2908,
      "▁spider": 2909,
      "ay": 2910,
      "▁thir": 2911,
      "▁mili": 2912,
      "▁morning": 2913,
      "mentation": 2914,
      "--": 2915,
      "▁arm": 2916,
      "▁val": 2917,
      "▁chocolate": 2918,
      "as": 2919,
      "▁developed": 2920,
      "ator": 2921,
      "ode": 2922,
      "ig": 2923,
      "ays": 2924,
      "▁married": 2925,
      "land": 2926,
      "iving": 2927,
      "stem": 2928,
      "▁used": 2929,
      "▁city": 2930,
      "ott": 2931,
      "▁…": 2932,
      "▁projects": 2933,
      "▁few": 2934,
      "▁heads": 2935,
      "ect": 2936,
      "▁pain": 2937,
      "▁leaves": 2938,
      "ply": 2939,
      "▁draft": 2940,
      "ir": 2941,
      "▁mentioned": 2942,
      "de": 2943,
      "agon": 2944,
      "ge": 2945,
      "yond": 2946,
      "erc": 2947,
      "▁deb": 2948,
      "cally": 2949,
      "▁fligh": 2950,
      "▁safety": 2951,
      "air": 2952,
      "▁susp": 2953,
      "▁ke": 2954,
      "ou": 2955,
      "gin": 2956,
      "▁each": 2957,
      "▁hist": 2958,
      "▁?!?": 2959,
      "esday": 2960,
      "▁trad": 2961,
      "▁age": 2962,
      "▁back": 2963,
      "iation": 2964,
      "▁required": 2965,
      "alists": 2966,
      "±": 2967,
      "▁assu": 2968,
      "▁close": 2969,
      "▁fun": 2970,
      "▁!!!!!!!!!!!!!": 2971,
      "▁feet": 2972,
      "▁pat": 2973,
      "▁kind": 2974,
      "▁force": 2975,
      "▁efforts": 2976,
      "zz": 2977,
      "▁loc": 2978,
      "th": 2979,
      "▁bal": 2980,
      "iated": 2981,
      "▁washington": 2982,
      "▁settle": 2983,
      "▁allowed": 2984,
      "▁wee": 2985,
      "▁certain": 2986,
      "▁na": 2987,
      "▁connec": 2988,
      "▁discovered": 2989,
      "▁rele": 2990,
      "▁produce": 2991,
      "▁restric": 2992,
      "▁september": 2993,
      "▁@": 2994,
      "▁leading": 2995,
      "▁wedding": 2996,
      "ression": 2997,
      "▁monkey": 2998,
      "▁!?": 2999,
      "▁expl": 3000,
      "▁pi": 3001,
      "▁going": 3002,
      "********": 3003,
      "▁away": 3004,
      "cro": 3005,
      "ood": 3006,
      "▁where": 3007,
      "▁students": 3008,
      "▁beginning": 3009,
      "▁rice": 3010,
      "▁hands": 3011,
      "rous": 3012,
      "▁quino": 3013,
      "▁form": 3014,
      "▁increased": 3015,
      "▁import": 3016,
      "ely": 3017,
      "▁))": 3018,
      "▁coun": 3019,
      "▁ears": 3020,
      "▁dou": 3021,
      "e": 3022,
      "anges": 3023,
      "▁sol": 3024,
      "eas": 3025,
      "ie": 3026,
      "▁jun": 3027,
      "▁into": 3028,
      "▁yourselves": 3029,
      "yst": 3030,
      "▁heart": 3031,
      "▁leaving": 3032,
      "▁elections": 3033,
      "▁seat": 3034,
      "▁here": 3035,
      "▁mov": 3036,
      "▁focus": 3037,
      "▁dere": 3038,
      "▁establish": 3039,
      "▁husband": 3040,
      "tion": 3041,
      "ithst": 3042,
      "▁plus": 3043,
      "▁ri": 3044,
      "▁elected": 3045,
      "▁butt": 3046,
      "▁shape": 3047,
      "▁cases": 3048,
      "▁chance": 3049,
      "▁nose": 3050,
      "iture": 3051,
      "▁earth": 3052,
      "▁camera": 3053,
      "▁may": 3054,
      "ack": 3055,
      "aign": 3056,
      "▁broke": 3057,
      "▁take": 3058,
      "▁forwar": 3059,
      "▁sci": 3060,
      "ired": 3061,
      "▁case": 3062,
      "▁lives": 3063,
      "▁vs.": 3064,
      "iff": 3065,
      "▁nice": 3066,
      "▁property": 3067,
      "/": 3068,
      "▁thousands": 3069,
      "▁path": 3070,
      "▁sme": 3071,
      "▁uhhuh": 3072,
      "il": 3073,
      "▁democracy": 3074,
      "½": 3075,
      "▁owners": 3076,
      "▁up": 3077,
      "py": 3078,
      "▁libr": 3079,
      "▁article": 3080,
      "▁-----------------------------------------------------------------------": 3081,
      "▁bulldozer": 3082,
      "▁wife": 3083,
      "▁changes": 3084,
      "ection": 3085,
      "▁surround": 3086,
      "▁fam": 3087,
      "▁consequ": 3088,
      "ides": 3089,
      "▁trou": 3090,
      "▁rec": 3091,
      "eries": 3092,
      "▁hide": 3093,
      "▁practice": 3094,
      "▁el": 3095,
      "▁poll": 3096,
      "▁peop": 3097,
      "▁half": 3098,
      "▁contain": 3099,
      "▁seas": 3100,
      "▁thru": 3101,
      "▁astride": 3102,
      "▁glasses": 3103,
      "▁individ": 3104,
      "▁gl": 3105,
      "isting": 3106,
      "▁bomb": 3107,
      "▁develop": 3108,
      "▁ai": 3109,
      "ocks": 3110,
      "▁said": 3111,
      "hen": 3112,
      "eti": 3113,
      "▁eat": 3114,
      "ributed": 3115,
      "ue": 3116,
      "ete": 3117,
      "aves": 3118,
      "▁men": 3119,
      "▁us": 3120,
      "▁fe": 3121,
      "▁civ": 3122,
      "▁.....": 3123,
      "▁vers": 3124,
      "▁command": 3125,
      "▁ind": 3126,
      "▁upon": 3127,
      "▁mon": 3128,
      "sure": 3129,
      "▁conse": 3130,
      "▁uses": 3131,
      "▁cr": 3132,
      "▁imple": 3133,
      "▁far": 3134,
      "form": 3135,
      "either": 3136,
      "▁thre": 3137,
      "ways": 3138,
      "▁listen": 3139,
      "▁fir": 3140,
      "▁implementation": 3141,
      "▁terror": 3142,
      "le": 3143,
      "ses": 3144,
      "▁second": 3145,
      "▁enjoy": 3146,
      "get": 3147,
      "un": 3148,
      "ow": 3149,
      "oun": 3150,
      "ut": 3151,
      "▁pri": 3152,
      "▁bir": 3153,
      "▁princ": 3154,
      "▁cl": 3155,
      "▁alread": 3156,
      "phia": 3157,
      "pe": 3158,
      "selves": 3159,
      "▁to": 3160,
      "▁hus": 3161,
      "▁ste": 3162,
      "▁tri": 3163,
      "▁bug": 3164,
      "/he": 3165,
      "▁giving": 3166,
      "▁value": 3167,
      "▁recommend": 3168,
      "▁wheel": 3169,
      "erated": 3170,
      "ght": 3171,
      "▁hang": 3172,
      "▁concl": 3173,
      "▁ride": 3174,
      "▁honey": 3175,
      "▁option": 3176,
      "ette": 3177,
      "▁oneself": 3178,
      "▁decades": 3179,
      "▁add": 3180,
      "ival": 3181,
      "▁gave": 3182,
      "▁ch": 3183,
      "ouse": 3184,
      "▁teeth": 3185,
      "▁why": 3186,
      "h": 3187,
      "▁can": 3188,
      "uh": 3189,
      "▁stuff": 3190,
      "▁industry": 3191,
      "▁boxes": 3192,
      "▁dey": 3193,
      "ved": 3194,
      "▁displ": 3195,
      "ine": 3196,
      "______": 3197,
      "▁fil": 3198,
      "ades": 3199,
      "tions": 3200,
      "▁meant": 3201,
      "ians": 3202,
      "▁cris": 3203,
      "▁garden": 3204,
      "▁dress": 3205,
      "▁paint": 3206,
      "▁var": 3207,
      "▁draw": 3208,
      "works": 3209,
      "▁people": 3210,
      "ached": 3211,
      "▁maint": 3212,
      "idents": 3213,
      "▁wi": 3214,
      "riage": 3215,
      "▁?????": 3216,
      "▁called": 3217,
      "ept": 3218,
      "œ": 3219,
      "ama": 3220,
      "▁feel": 3221,
      "▁parts": 3222,
      "▁lack": 3223,
      "led": 3224,
      "!!": 3225,
      "▁flights": 3226,
      "▁quinoa": 3227,
      "▁file": 3228,
      "▁television": 3229,
      "▁decisions": 3230,
      "▁funds": 3231,
      "oon": 3232,
      "▁laws": 3233,
      "▁incre": 3234,
      "▁not": 3235,
      "▁soil": 3236,
      "▁peace": 3237,
      "▁exposure": 3238,
      "▁bab": 3239,
      "▁little": 3240,
      "▁nume": 3241,
      "ath": 3242,
      "▁mod": 3243,
      "sts": 3244,
      "▁title": 3245,
      "▁despite": 3246,
      "▁much": 3247,
      "kets": 3248,
      "▁issu": 3249,
      "▁internet": 3250,
      "▁paul": 3251,
      "▁min": 3252,
      "▁telephone": 3253,
      "▁un": 3254,
      "ected": 3255,
      "▁amid": 3256,
      "▁-": 3257,
      "▁sha": 3258,
      "www": 3259,
      "▁monday": 3260,
      "▁market": 3261,
      "▁while": 3262,
      "▁provides": 3263,
      "▁use": 3264,
      "▁-----------------": 3265,
      "▁sunday": 3266,
      "▁actually": 3267,
      "▁accepted": 3268,
      "▁effect": 3269,
      "▁mir": 3270,
      "light": 3271,
      "▁opening": 3272,
      "▁ans": 3273,
      "▁gir": 3274,
      "▁opin": 3275,
      "▁territ": 3276,
      "▁lead": 3277,
      "▁exch": 3278,
      "▁events": 3279,
      "▁crack": 3280,
      "▁mathematics": 3281,
      "▁mil": 3282,
      "ising": 3283,
      "▁screen": 3284,
      "▁bedroom": 3285,
      "▁all": 3286,
      "▁issues": 3287,
      "...": 3288,
      "▁sub": 3289,
      "▁tie": 3290,
      "lin": 3291,
      "▁list": 3292,
      "▁sister": 3293,
      "urity": 3294,
      "▁orders": 3295,
      "▁......": 3296,
      "str": 3297,
      "▁dogg": 3298,
      "▁temper": 3299,
      "▁waiting": 3300,
      "▁estab": 3301,
      "▁spring": 3302,
      "▁long": 3303,
      "▁between": 3304,
      "▁pen": 3305,
      "▁poss": 3306,
      "ong": 3307,
      "ause": 3308,
      "thin": 3309,
      "▁unlike": 3310,
      "▁aug": 3311,
      "▁brain": 3312,
      "ction": 3313,
      "▁fear": 3314,
      "▁continue": 3315,
      "▁surp": 3316,
      "▁next": 3317,
      "lions": 3318,
      "▁kill": 3319,
      "▁desk": 3320,
      "▁coff": 3321,
      "▁pos": 3322,
      "▁new": 3323,
      "ash": 3324,
      "▁playing": 3325,
      "▁datab": 3326,
      "▁box": 3327,
      "ot": 3328,
      "fo": 3329,
      "ested": 3330,
      "▁ce": 3331,
      "▁community": 3332,
      "▁activity": 3333,
      "etition": 3334,
      "▁aside": 3335,
      "▁regard": 3336,
      "▁noone": 3337,
      "ilos": 3338,
      "▁their": 3339,
      "▁salad": 3340,
      "▁ideas": 3341,
      "▁saw": 3342,
      "▁imp": 3343,
      "ibility": 3344,
      "tor": 3345,
      "▁find": 3346,
      "ables": 3347,
      "rib": 3348,
      "▁mine": 3349,
      "▁gets": 3350,
      "▁orig": 3351,
      "▁temperature": 3352,
      "pos": 3353,
      "ised": 3354,
      "▁have": 3355,
      "erent": 3356,
      "atch": 3357,
      "old": 3358,
      "▁bea": 3359,
      "▁creation": 3360,
      "▁surface": 3361,
      "nesday": 3362,
      "▁wan": 3363,
      "▁pep": 3364,
      "rax": 3365,
      "▁left": 3366,
      "ung": 3367,
      "▁roll": 3368,
      "▁addition": 3369,
      "▁influ": 3370,
      "▁recip": 3371,
      "▁ball": 3372,
      "derst": 3373,
      "▁impro": 3374,
      "eel": 3375,
      "▁chicken": 3376,
      "▁‘’": 3377,
      "▁opp": 3378,
      "ably": 3379,
      "▁tell": 3380,
      "▁traff": 3381,
      "▁video": 3382,
      "▁pour": 3383,
      "oh": 3384,
      "▁’re": 3385,
      "▁'ll": 3386,
      "▁offic": 3387,
      "▁vis": 3388,
      "ive": 3389,
      "hether": 3390,
      "▁dark": 3391,
      "▁conflic": 3392,
      "▁cons": 3393,
      "elt": 3394,
      "▁?": 3395,
      "ration": 3396,
      "iqu": 3397,
      "ic": 3398,
      "▁had": 3399,
      "▁convers": 3400,
      "▁cock": 3401,
      "erate": 3402,
      "▁mountain": 3403,
      "–": 3404,
      "fe": 3405,
      "gan": 3406,
      "▁19": 3407,
      "▁dallas": 3408,
      "▁!.": 3409,
      "▁ing": 3410,
      "ties": 3411,
      "ottable": 3412,
      "▁momma": 3413,
      "▁lights": 3414,
      "tive": 3415,
      "▁mus": 3416,
      "ff": 3417,
      "ware": 3418,
      "▁cities": 3419,
      "▁history": 3420,
      "▁requirements": 3421,
      "let": 3422,
      "▁rooms": 3423,
      "▁standing": 3424,
      "arity": 3425,
      "▁employ": 3426,
      "▁minutes": 3427,
      "row": 3428,
      "▁belief": 3429,
      "ace": 3430,
      "▁throw": 3431,
      "▁imagine": 3432,
      "▁exec": 3433,
      "uter": 3434,
      "▁avoid": 3435,
      "vision": 3436,
      "▁onto": 3437,
      "▁dest": 3438,
      "ests": 3439,
      "▁mix": 3440,
      "ough": 3441,
      "▁flag": 3442,
      "▁dow": 3443,
      "ials": 3444,
      "▁par": 3445,
      "▁millions": 3446,
      "▁balloon": 3447,
      "▁hosp": 3448,
      "ye": 3449,
      "▁sign": 3450,
      "▁vet": 3451,
      "▁cheap": 3452,
      "▁salt": 3453,
      "jects": 3454,
      "▁af": 3455,
      "boy": 3456,
      "▁??": 3457,
      "▁letters": 3458,
      "▁thought": 3459,
      "ution": 3460,
      "▁organiz": 3461,
      "▁basil": 3462,
      "▁hur": 3463,
      "cause": 3464,
      "▁clothes": 3465,
      "▁anything": 3466,
      "▁piv": 3467,
      "airs": 3468,
      "▁books": 3469,
      "▁doctor": 3470,
      "aces": 3471,
      "▁time": 3472,
      "▁movies": 3473,
      "▁”": 3474,
      "of": 3475,
      "▁mos": 3476,
      "▁small": 3477,
      "▁countries": 3478,
      "▁+": 3479,
      "▁caught": 3480,
      "▁trouble": 3481,
      "▁chee": 3482,
      "ident": 3483,
      "iting": 3484,
      "▁band": 3485,
      "ivid": 3486,
      "▁faith": 3487,
      "ather": 3488,
      "▁make": 3489,
      "og": 3490,
      "▁estimated": 3491,
      "▁actions": 3492,
      "tern": 3493,
      "σ": 3494,
      "▁milit": 3495,
      "▁participants": 3496,
      "derstanding": 3497,
      "▁cha": 3498,
      "▁li": 3499,
      "▁curr": 3500,
      "▁pu": 3501,
      "edom": 3502,
      "▁custom": 3503,
      "lications": 3504,
      "min": 3505,
      "ement": 3506,
      "▁settlement": 3507,
      "iction": 3508,
      "▁percentage": 3509,
      "▁thinking": 3510,
      "▁term": 3511,
      "▁respond": 3512,
      "▁big": 3513,
      "▁train": 3514,
      "▁bro": 3515,
      "▁hotel": 3516,
      "▁butter": 3517,
      "ambment": 3518,
      "▁rub": 3519,
      "▁'m": 3520,
      "3": 3521,
      "▁conte": 3522,
      "ə": 3523,
      "er": 3524,
      "▁speci": 3525,
      "ist": 3526,
      "ind": 3527,
      "ʻ": 3528,
      "ˈ": 3529,
      "▁turn": 3530,
      "▁prac": 3531,
      "▁followed": 3532,
      "▁independence": 3533,
      "▁techniqu": 3534,
      "▁pet": 3535,
      "▁?!": 3536,
      "▁forg": 3537,
      "ρ": 3538,
      "▁!!!?": 3539,
      "▁tha": 3540,
      "ats": 3541,
      "▁thank": 3542,
      "▁ice": 3543,
      "▁winter": 3544,
      "▁himself": 3545,
      "▁drive": 3546,
      "▁sug": 3547,
      "ics": 3548,
      "▁tro": 3549,
      "▁conclu": 3550,
      "kers": 3551,
      "▁proposal": 3552,
      "▁techn": 3553,
      "▁conduc": 3554,
      "ca": 3555,
      "reds": 3556,
      "▁legislation": 3557,
      "▁themselves": 3558,
      "▁toy": 3559,
      "▁tal": 3560,
      "pl": 3561,
      "▁president": 3562,
      "▁'ve": 3563,
      "▁pillow": 3564,
      "▁pie": 3565,
      "▁mommy": 3566,
      "▁programme": 3567,
      "▁understand": 3568,
      "▁license": 3569,
      "▁working": 3570,
      "dit": 3571,
      "ych": 3572,
      "▁movie": 3573,
      "ible": 3574,
      "cer": 3575,
      "▁because": 3576,
      "▁arch": 3577,
      "ored": 3578,
      "▁happen": 3579,
      "ole": 3580,
      "▁wit": 3581,
      "▁remembered": 3582,
      "itions": 3583,
      "▁iodine": 3584,
      "ice": 3585,
      "ation": 3586,
      "▁muse": 3587,
      "▁???": 3588,
      "▁pean": 3589,
      "jo": 3590,
      "▁lab": 3591,
      "▁old": 3592,
      "▁day": 3593,
      "vel": 3594,
      "▁um": 3595,
      "$": 3596,
      "und": 3597,
      "▁tech": 3598,
      "▁coast": 3599,
      "aged": 3600,
      "▁located": 3601,
      "s": 3602,
      "▁!!!": 3603,
      "▁>>": 3604,
      "▁imm": 3605,
      "su": 3606,
      "▁task": 3607,
      "ced": 3608,
      "▁member": 3609,
      "▁saf": 3610,
      "▁developing": 3611,
      "▁song": 3612,
      "ined": 3613,
      "▁military": 3614,
      "▁*": 3615,
      "▁whatever": 3616,
      "▁getting": 3617,
      "“": 3618,
      "ify": 3619,
      "olog": 3620,
      "ls": 3621,
      "int": 3622,
      "▁taking": 3623,
      "▁respon": 3624,
      "utions": 3625,
      "▁book": 3626,
      "▁dollars": 3627,
      "▁cour": 3628,
      "▁hel": 3629,
      "----------------": 3630,
      "'s": 3631,
      "▁has": 3632,
      "ther": 3633,
      "▁mar": 3634,
      "ł": 3635,
      "▁detail": 3636,
      "▁cor": 3637,
      "ert": 3638,
      "▁mi": 3639,
      "▁tail": 3640,
      "▁pr": 3641,
      "▁sand": 3642,
      "▁disp": 3643,
      "▁vi": 3644,
      "ises": 3645,
      "▁whether": 3646,
      "ounts": 3647,
      "▁say": 3648,
      "▁!!!!!!!!!!": 3649,
      "▁schools": 3650,
      "olding": 3651,
      "ared": 3652,
      "les": 3653,
      "hes": 3654,
      "▁boston": 3655,
      "ck": 3656,
      "▁arrang": 3657,
      ".c": 3658,
      "urch": 3659,
      "▁wor": 3660,
      "memb": 3661,
      "ec": 3662,
      "▁relations": 3663,
      "ground": 3664,
      "thing": 3665,
      "▁fingers": 3666,
      "▁afternoon": 3667,
      "----": 3668,
      "ories": 3669,
      "lished": 3670,
      "▁languages": 3671,
      "▁meals": 3672,
      "▁swe": 3673,
      "▁ships": 3674,
      "oss": 3675,
      "ty": 3676,
      "ee": 3677,
      "iver": 3678,
      "▁swww": 3679,
      "▁seems": 3680,
      "▁fork": 3681,
      "▁bel": 3682,
      "▁boy": 3683,
      "▁arri": 3684,
      "▁news": 3685,
      "r": 3686,
      "▁e-mail": 3687,
      "ion": 3688,
      "lling": 3689,
      "▁fix": 3690,
      "▁cre": 3691,
      "▁open": 3692,
      "▁turning": 3693,
      "▁power": 3694,
      "▁it's": 3695,
      "acts": 3696,
      "▁improve": 3697,
      "▁ground": 3698,
      "▁source": 3699,
      "▁money": 3700,
      "ining": 3701,
      "▁nt": 3702,
      "▁miss": 3703,
      "▁sm": 3704,
      "▁missed": 3705,
      "mos": 3706,
      "▁covered": 3707,
      "co": 3708,
      "▁receive": 3709,
      "▁destro": 3710,
      "▁over": 3711,
      "▁inv": 3712,
      "▁remain": 3713,
      "▁delive": 3714,
      "▁king": 3715,
      "▁hea": 3716,
      "▁experience": 3717,
      "▁reality": 3718,
      "▁phone": 3719,
      "▁bridge": 3720,
      "▁team": 3721,
      "▁science": 3722,
      "▁mis": 3723,
      "▁citiz": 3724,
      "▁circle": 3725,
      "ange": 3726,
      "mer": 3727,
      "▁shop": 3728,
      "▁difference": 3729,
      "▁bit": 3730,
      "▁obs": 3731,
      "▁b/c": 3732,
      "▁know": 3733,
      "▁spec": 3734,
      "▁dough": 3735,
      "▁shown": 3736,
      "ether": 3737,
      "▁oh": 3738,
      "▁har": 3739,
      "▁deli": 3740,
      "▁drug": 3741,
      "▁environ": 3742,
      "ulation": 3743,
      "ach": 3744,
      "▁prom": 3745,
      "▁luck": 3746,
      "{": 3747,
      "▁spr": 3748,
      "cing": 3749,
      "▁country": 3750,
      "▁some": 3751,
      "ures": 3752,
      "▁hold": 3753,
      "▁need": 3754,
      "▁wild": 3755,
      "▁amount": 3756,
      "▁try": 3757,
      "▁kitt": 3758,
      "▁everything": 3759,
      "▁fund": 3760,
      "ets": 3761,
      "acter": 3762,
      "▁method": 3763,
      "▁ra": 3764,
      "ails": 3765,
      "▁that": 3766,
      "iety": 3767,
      "'clock": 3768,
      "z": 3769,
      "▁ex": 3770,
      "▁today": 3771,
      "▁fre": 3772,
      "▁on": 3773,
      "orth": 3774,
      "▁prep": 3775,
      "▁apprec": 3776,
      "▁party": 3777,
      "▁bas": 3778,
      "▁blan": 3779,
      "als": 3780,
      "▁minute": 3781,
      "ees": 3782,
      "▁taken": 3783,
      "▁thous": 3784,
      "oy": 3785,
      "aging": 3786,
      "▁mr": 3787,
      "▁film": 3788,
      "▁including": 3789,
      "▁piece": 3790,
      "▁thurs": 3791,
      "▁choo": 3792,
      "ology": 3793,
      "rit": 3794,
      "▁mic": 3795,
      "▁middle": 3796,
      "▁river": 3797,
      "neath": 3798,
      "▁purpos": 3799,
      "k": 3800,
      "▁pres": 3801,
      "▁crow": 3802,
      "▁save": 3803,
      "mp": 3804,
      "▁animal": 3805,
      "▁answer": 3806,
      "▁differences": 3807,
      "▁suit": 3808,
      "bly": 3809,
      "▁airplan": 3810,
      "▁fare": 3811,
      "▁pret": 3812,
      "gency": 3813,
      "▁whe": 3814,
      "ences": 3815,
      "▁document": 3816,
      "▁cooperation": 3817,
      "▁love": 3818,
      "▁perform": 3819,
      "φ": 3820,
      "ul": 3821,
      "ts": 3822,
      "▁evidence": 3823,
      "υ": 3824,
      "▁fl": 3825,
      "▁---------------------------------": 3826,
      "▁user": 3827,
      "ure": 3828,
      "uk": 3829,
      "clock": 3830,
      "ten": 3831,
      "▁model": 3832,
      "▁“": 3833,
      "▁an": 3834,
      "nel": 3835,
      "▁owner": 3836,
      "’t": 3837,
      "▁these": 3838,
      "erv": 3839,
      "fic": 3840,
      "▁cow": 3841,
      "uals": 3842,
      "▁mother": 3843,
      "▁appear": 3844,
      "friend": 3845,
      "▁describ": 3846,
      "▁hum": 3847,
      "app": 3848,
      "inc": 3849,
      "oin": 3850,
      "omet": 3851,
      "▁!!!!!!": 3852,
      "ons": 3853,
      "ʁ": 3854,
      "▁pl": 3855,
      "▁p": 3856,
      "gle": 3857,
      "▁statement": 3858,
      "▁and": 3859,
      "▁hall": 3860,
      "▁doing": 3861,
      "od": 3862,
      "▁til": 3863,
      "▁repl": 3864,
      "▁wal": 3865,
      "isions": 3866,
      "▁sounds": 3867,
      "▁driving": 3868,
      "▁bre": 3869,
      "▁aspects": 3870,
      ",": 3871,
      "▁dust": 3872,
      "cc": 3873,
      "▁bet": 3874,
      "▁sit": 3875,
      "so": 3876,
      "▁bag": 3877,
      "▁remember": 3878,
      "chen": 3879,
      "ender": 3880,
      "em": 3881,
      "▁gar": 3882,
      "▁carrying": 3883,
      "▁nap": 3884,
      "ait": 3885,
      "ush": 3886,
      "augh": 3887,
      "key": 3888,
      "▁importance": 3889,
      "▁decision": 3890,
      "▁cell": 3891,
      "▁employees": 3892,
      "▁proble": 3893,
      "rong": 3894,
      "▁years": 3895,
      "▁dri": 3896,
      "▁pass": 3897,
      "▁dragon": 3898,
      "▁key": 3899,
      "▁posted": 3900,
      "▁needed": 3901,
      "▁summer": 3902,
      "▁part": 3903,
      "▁disc": 3904,
      "▁fares": 3905,
      "--------------------------------": 3906,
      "▁env": 3907,
      "elly": 3908,
      "▁**": 3909,
      "▁established": 3910,
      "ule": 3911,
      "▁round": 3912,
      "ified": 3913,
      "▁named": 3914,
      "▁und": 3915,
      "▁whose": 3916,
      "▁'re": 3917,
      "▁storm": 3918,
      "▁ban": 3919,
      "▁future": 3920,
      "▁arrived": 3921,
      "▁think": 3922,
      "▁regar": 3923,
      "▁generation": 3924,
      "▁helped": 3925,
      "▁knowledge": 3926,
      "ational": 3927,
      "▁be": 3928,
      "▁miles": 3929,
      "▁psych": 3930,
      "osing": 3931,
      "▁wrote": 3932,
      "▁insur": 3933,
      "▁front": 3934,
      "▁lad": 3935,
      "ς": 3936,
      "▁capacity": 3937,
      "ider": 3938,
      "umn": 3939,
      "portun": 3940,
      "▁emer": 3941,
      "▁num": 3942,
      "mar": 3943,
      "▁bo": 3944,
      "▁balt": 3945,
      "▁deal": 3946,
      "▁fail": 3947,
      "▁making": 3948,
      "▁section": 3949,
      "▁b": 3950,
      "▁sleep": 3951,
      "▁again": 3952,
      "▁thoughts": 3953,
      "time": 3954,
      "ise": 3955,
      "▁h": 3956,
      "▁bird": 3957,
      "▁room": 3958,
      "▁carry": 3959,
      "~": 3960,
      "▁lots": 3961,
      "▁text": 3962,
      "olve": 3963,
      "▁d": 3964,
      "▁cond": 3965,
      "▁considered": 3966,
      "▁question": 3967,
      "an": 3968,
      "▁without": 3969,
      "▁sw": 3970,
      "▁boys": 3971,
      "tity": 3972,
      "▁pressure": 3973,
      "▁n": 3974,
      "▁him": 3975,
      "mes": 3976,
      "****": 3977,
      "▁se": 3978,
      "▁unto": 3979,
      "ley": 3980,
      "▁attacks": 3981,
      "▁admin": 3982,
      "▁first": 3983,
      "▁notwithstanding": 3984,
      "▁sel": 3985,
      "ft": 3986,
      "▁released": 3987,
      "▁decl": 3988,
      "▁among": 3989,
      "▁father": 3990,
      "▁represent": 3991,
      "▁citizens": 3992,
      "▁brother": 3993,
      "▁famili": 3994,
      "ʃ": 3995,
      "▁wants": 3996,
      "▁ours": 3997,
      "ote": 3998,
      "ny": 3999,
      "ag": 4000,
      "▁ship": 4001,
      "tsbur": 4002,
      "▁show": 4003,
      "♥": 4004,
      "ery": 4005,
      "els": 4006,
      "▁departing": 4007,
      "▁jo": 4008,
      "▁cry": 4009,
      "▁agre": 4010,
      "▁looked": 4011,
      "▁trust": 4012,
      "▁behavior": 4013,
      "ud": 4014,
      "▁breakfast": 4015,
      "▁ho": 4016,
      "▁poin": 4017,
      "▁dis": 4018,
      "▁spir": 4019,
      "▁dat": 4020,
      "▁schedule": 4021,
      "ze": 4022,
      "▁learning": 4023,
      "orting": 4024,
      "▁ended": 4025,
      "▁killed": 4026,
      "ac": 4027,
      "▁joined": 4028,
      "▁bush": 4029,
      "▁interest": 4030,
      "ʊ": 4031,
      "▁anyone": 4032,
      "ctions": 4033,
      "▁exist": 4034,
      "adel": 4035,
      "▁were": 4036,
      "------->": 4037,
      "▁april": 4038,
      "ren": 4039,
      "sus": 4040,
      "▁banana": 4041,
      "▁process": 4042,
      "ti": 4043,
      "▁spend": 4044,
      "▁event": 4045,
      "ger": 4046,
      "▁class": 4047,
      "wa": 4048,
      "▁moving": 4049,
      "ans": 4050,
      "▁jobs": 4051,
      "ged": 4052,
      "▁:": 4053,
      "up": 4054,
      "crib": 4055,
      "▁suc": 4056,
      "▁look": 4057,
      "ond": 4058,
      "▁em": 4059,
      "▁vs": 4060,
      "iss": 4061,
      "▁sto": 4062,
      "▁condition": 4063,
      "▁amongst": 4064,
      "ces": 4065,
      "▁type": 4066,
      "▁da": 4067,
      "°": 4068,
      "▁*****": 4069,
      "uses": 4070,
      "lection": 4071,
      "▁reports": 4072,
      "▁about": 4073,
      "▁more": 4074,
      "▁jokes": 4075,
      "▁meat": 4076,
      "<": 4077,
      "ost": 4078,
      "ew": 4079,
      "▁gon": 4080,
      "dge": 4081,
      "----------": 4082,
      "▁fall": 4083,
      "ant": 4084,
      "▁enjo": 4085,
      "▁career": 4086,
      "▁range": 4087,
      "ower": 4088,
      "▁proced": 4089,
      "▁<": 4090,
      "▁y": 4091,
      "▁looking": 4092,
      "▁went": 4093,
      "▁tw": 4094,
      "▁----------------------------------------------------------------------": 4095
    },
    "merges": [
      [
        "▁p",
        "ar"
      ],
      [
        "en",
        "d"
      ],
      [
        "op",
        "s"
      ],
      [
        "▁hist",
        "ory"
      ],
      [
        "▁b",
        "ro"
      ],
      [
        "▁ver",
        "sus"
      ],
      [
        "ard",
        "s"
      ],
      [
        "▁th",
        "ose"
      ],
      [
        "▁class",
        "es"
      ],
      [
        "▁p",
        "ic"
      ],
      [
        "▁mur",
        "der"
      ],
      [
        "▁pro",
        "gr"
      ],
      [
        "or",
        "row"
      ],
      [
        "▁",
        "jo"
      ],
      [
        "▁wor",
        "d"
      ],
      [
        "ts",
        "bur"
      ],
      [
        "▁w",
        "ent"
      ],
      [
        "▁tr",
        "av"
      ],
      [
        "▁abo",
        "ve"
      ],
      [
        "t",
        "i"
      ],
      [
        "▁air",
        "lin"
      ],
      [
        "▁ob",
        "t"
      ],
      [
        "▁man",
        "y"
      ],
      [
        "▁b",
        "all"
      ],
      [
        "▁for",
        "k"
      ],
      [
        "▁s",
        "us"
      ],
      [
        "ri",
        "c"
      ],
      [
        "▁to",
        "ys"
      ],
      [
        "▁wind",
        "ows"
      ],
      [
        "o",
        "or"
      ],
      [
        "▁appl",
        "y"
      ],
      [
        "ap",
        "er"
      ],
      [
        "m",
        "ent"
      ],
      [
        "▁h",
        "ands"
      ],
      [
        "▁a",
        "s"
      ],
      [
        "u",
        "ro"
      ],
      [
        "▁",
        "art"
      ],
      [
        "▁bo",
        "x"
      ],
      [
        "__",
        "__"
      ],
      [
        "▁d",
        "ep"
      ],
      [
        "▁banan",
        "a"
      ],
      [
        "ac",
        "ter"
      ],
      [
        "v",
        "al"
      ],
      [
        "al",
        "l"
      ],
      [
        "▁2",
        "00"
      ],
      [
        "▁mess",
        "age"
      ],
      [
        "▁ch",
        "ap"
      ],
      [
        "a",
        "mp"
      ],
      [
        "▁air",
        "port"
      ],
      [
        "en",
        "s"
      ],
      [
        "▁e",
        "tc"
      ],
      [
        "ul",
        "ar"
      ],
      [
        "▁a",
        "ll"
      ],
      [
        "s",
        "m"
      ],
      [
        "▁min",
        "us"
      ],
      [
        "▁u",
        "h"
      ],
      [
        "▁camer",
        "a"
      ],
      [
        "e",
        "l"
      ],
      [
        "▁w",
        "ay"
      ],
      [
        "▁fin",
        "d"
      ],
      [
        "▁ca",
        "n"
      ],
      [
        "▁dr",
        "iving"
      ],
      [
        "on",
        "d"
      ],
      [
        "t",
        "en"
      ],
      [
        "▁f",
        "orm"
      ],
      [
        "▁doll",
        "ars"
      ],
      [
        "▁car",
        "ds"
      ],
      [
        "▁me",
        "al"
      ],
      [
        "▁",
        "w"
      ],
      [
        "▁ob",
        "jec"
      ],
      [
        "▁f",
        "ligh"
      ],
      [
        "er",
        "ies"
      ],
      [
        "▁ro",
        "ck"
      ],
      [
        "▁har",
        "ry"
      ],
      [
        "▁s",
        "ens"
      ],
      [
        "▁",
        "ide"
      ],
      [
        "m",
        "p"
      ],
      [
        "▁",
        "order"
      ],
      [
        "▁require",
        "ments"
      ],
      [
        "en",
        "ting"
      ],
      [
        "▁th",
        "ought"
      ],
      [
        "▁it",
        "s"
      ],
      [
        "▁st",
        "ation"
      ],
      [
        "lic",
        "ation"
      ],
      [
        "▁c",
        "up"
      ],
      [
        "▁cru",
        "ise"
      ],
      [
        "▁pos",
        "ition"
      ],
      [
        "▁inf",
        "l"
      ],
      [
        "▁ac",
        "t"
      ],
      [
        "▁c",
        "at"
      ],
      [
        "men",
        "ts"
      ],
      [
        "a",
        "z"
      ],
      [
        "▁sh",
        "eet"
      ],
      [
        "▁s",
        "ame"
      ],
      [
        "on",
        "s"
      ],
      [
        "▁c",
        "ere"
      ],
      [
        "it",
        "e"
      ],
      [
        "▁…",
        "."
      ],
      [
        "▁mech",
        "an"
      ],
      [
        "▁famili",
        "es"
      ],
      [
        "▁di",
        "st"
      ],
      [
        "es",
        "ts"
      ],
      [
        "ar",
        "d"
      ],
      [
        "e",
        "ct"
      ],
      [
        "▁h",
        "ar"
      ],
      [
        "o",
        "ice"
      ],
      [
        "et",
        "h"
      ],
      [
        "▁ques",
        "tions"
      ],
      [
        "a",
        "k"
      ],
      [
        "▁car",
        "ried"
      ],
      [
        "▁",
        "isl"
      ],
      [
        "▁sh",
        "a"
      ],
      [
        "--",
        "--"
      ],
      [
        "▁s",
        "el"
      ],
      [
        "g",
        "r"
      ],
      [
        "▁c",
        "ro"
      ],
      [
        "ed",
        "om"
      ],
      [
        "ar",
        "ing"
      ],
      [
        "▁a",
        "ir"
      ],
      [
        "▁m",
        "eth"
      ],
      [
        "ou",
        "gh"
      ],
      [
        "▁get",
        "s"
      ],
      [
        "li",
        "es"
      ],
      [
        "o",
        "ol"
      ],
      [
        "a",
        "ff"
      ],
      [
        "ber",
        "ry"
      ],
      [
        "os",
        "ed"
      ],
      [
        "oo",
        "l"
      ],
      [
        "▁y",
        "o"
      ],
      [
        "▁sp",
        "ec"
      ],
      [
        "▁pri",
        "ce"
      ],
      [
        "ar",
        "s"
      ],
      [
        "▁ar",
        "tic"
      ],
      [
        "▁ch",
        "eck"
      ],
      [
        "it",
        "ure"
      ],
      [
        "▁bro",
        "ught"
      ],
      [
        "a",
        "c"
      ],
      [
        "▁pl",
        "enty"
      ],
      [
        "+",
        "+"
      ],
      [
        "▁an",
        "other"
      ],
      [
        "▁commun",
        "ity"
      ],
      [
        "re",
        "t"
      ],
      [
        "▁wom",
        "en"
      ],
      [
        "▁imp",
        "le"
      ],
      [
        "▁buil",
        "t"
      ],
      [
        "▁ele",
        "ph"
      ],
      [
        "p",
        "en"
      ],
      [
        "at",
        "i"
      ],
      [
        "▁p",
        "o"
      ],
      [
        "▁",
        "other"
      ],
      [
        "t",
        "ain"
      ],
      [
        "▁play",
        "ed"
      ],
      [
        "▁pre",
        "fer"
      ],
      [
        "▁",
        "\""
      ],
      [
        "▁bus",
        "iness"
      ],
      [
        "▁n",
        "ov"
      ],
      [
        "▁co",
        "ord"
      ],
      [
        "▁bl",
        "ow"
      ],
      [
        "i",
        "ence"
      ],
      [
        "▁",
        "ow"
      ],
      [
        "▁get",
        "ting"
      ],
      [
        "▁tr",
        "ack"
      ],
      [
        "▁poli",
        "ce"
      ],
      [
        "▁m",
        "ove"
      ],
      [
        "▁dou",
        "b"
      ],
      [
        "▁ag",
        "o"
      ],
      [
        "▁l",
        "uck"
      ],
      [
        "▁let",
        "ters"
      ],
      [
        "▁me",
        "ans"
      ],
      [
        "▁t",
        "ouch"
      ],
      [
        "▁n",
        "ames"
      ],
      [
        "▁inter",
        "v"
      ],
      [
        "▁f",
        "avor"
      ],
      [
        "▁hel",
        "d"
      ],
      [
        "▁pres",
        "s"
      ],
      [
        "▁",
        "us"
      ],
      [
        "▁dis",
        "p"
      ],
      [
        "▁a",
        "llow"
      ],
      [
        "ac",
        "t"
      ],
      [
        "▁gar",
        "age"
      ],
      [
        "a",
        "m"
      ],
      [
        "▁t",
        "ax"
      ],
      [
        "▁de",
        "al"
      ],
      [
        "▁sec",
        "ret"
      ],
      [
        "▁!!!",
        "!"
      ],
      [
        "▁fligh",
        "ts"
      ],
      [
        "or",
        "d"
      ],
      [
        "▁c",
        "ab"
      ],
      [
        "ee",
        "p"
      ],
      [
        "▁re",
        "ce"
      ],
      [
        "▁fail",
        "ed"
      ],
      [
        "▁c",
        "on"
      ],
      [
        "▁v",
        "er"
      ],
      [
        "▁prov",
        "ided"
      ],
      [
        "▁s",
        "ug"
      ],
      [
        "▁con",
        "t"
      ],
      [
        "▁hea",
        "ds"
      ],
      [
        "▁r",
        "educ"
      ],
      [
        "a",
        "y"
      ],
      [
        "▁n",
        "'t"
      ],
      [
        "ec",
        "ted"
      ],
      [
        "ro",
        "w"
      ],
      [
        "▁f",
        "it"
      ],
      [
        "▁fe",
        "et"
      ],
      [
        "derstand",
        "ing"
      ],
      [
        "▁ch",
        "urch"
      ],
      [
        "anc",
        "e"
      ],
      [
        "t",
        "her"
      ],
      [
        "or",
        "ing"
      ],
      [
        "ac",
        "h"
      ],
      [
        "au",
        "se"
      ],
      [
        "▁who",
        "'s"
      ],
      [
        "ol",
        "ve"
      ],
      [
        "▁",
        "**"
      ],
      [
        "▁s",
        "ince"
      ],
      [
        "▁attem",
        "pt"
      ],
      [
        "▁off",
        "ic"
      ],
      [
        "f",
        "f"
      ],
      [
        "a",
        "ched"
      ],
      [
        "▁as",
        "tride"
      ],
      [
        "i",
        "ss"
      ],
      [
        "d",
        "ge"
      ],
      [
        "▁cont",
        "ent"
      ],
      [
        "▁c",
        "ard"
      ],
      [
        "▁in",
        "n"
      ],
      [
        "is",
        "e"
      ],
      [
        "▁!!!!!!!!!!!",
        "!!"
      ],
      [
        "em",
        "ent"
      ],
      [
        "▁apar",
        "t"
      ],
      [
        "▁ca",
        "l"
      ],
      [
        "▁mach",
        "ine"
      ],
      [
        "▁re",
        "ad"
      ],
      [
        "d",
        "ay"
      ],
      [
        "or",
        "es"
      ],
      [
        "▁t",
        "hen"
      ],
      [
        "▁b",
        "ut"
      ],
      [
        "in",
        "t"
      ],
      [
        "▁par",
        "ticip"
      ],
      [
        "l",
        "er"
      ],
      [
        "u",
        "nd"
      ],
      [
        "▁op",
        "tion"
      ],
      [
        "▁gen",
        "eration"
      ],
      [
        "k",
        "s"
      ],
      [
        "▁u",
        "se"
      ],
      [
        "▁env",
        "iron"
      ],
      [
        "▁ro",
        "ad"
      ],
      [
        "ow",
        "ers"
      ],
      [
        "????????",
        "????????"
      ],
      [
        "--------",
        "----"
      ],
      [
        "▁rele",
        "ased"
      ],
      [
        "ke",
        "t"
      ],
      [
        "▁fl",
        "y"
      ],
      [
        "▁la",
        "ugh"
      ],
      [
        "o",
        "ted"
      ],
      [
        "▁st",
        "uff"
      ],
      [
        "▁h",
        "o"
      ],
      [
        "▁f",
        "l"
      ],
      [
        "▁con",
        "f"
      ],
      [
        "ab",
        "b"
      ],
      [
        "▁m",
        "ay"
      ],
      [
        "cro",
        "ss"
      ],
      [
        "eng",
        "th"
      ],
      [
        "or",
        "ting"
      ],
      [
        "--",
        "-"
      ],
      [
        "▁b",
        "oo"
      ],
      [
        "▁y",
        "ear"
      ],
      [
        "i",
        "e"
      ],
      [
        "▁isl",
        "ands"
      ],
      [
        "▁co",
        "o"
      ],
      [
        "▁wor",
        "ld"
      ],
      [
        "▁phot",
        "ograph"
      ],
      [
        "r",
        "uc"
      ],
      [
        "▁c",
        "a"
      ],
      [
        "▁sup",
        "port"
      ],
      [
        "el",
        "ines"
      ],
      [
        "▁prot",
        "ection"
      ],
      [
        "▁den",
        "ver"
      ],
      [
        "▁p",
        "ast"
      ],
      [
        "▁am",
        "b"
      ],
      [
        "o",
        "und"
      ],
      [
        "▁bl",
        "an"
      ],
      [
        "el",
        "f"
      ],
      [
        "▁",
        "an"
      ],
      [
        "▁pres",
        "ident"
      ],
      [
        "▁produc",
        "t"
      ],
      [
        "▁l",
        "ink"
      ],
      [
        "▁e",
        "mb"
      ],
      [
        "▁-",
        "----"
      ],
      [
        "▁",
        "iss"
      ],
      [
        "is",
        "ts"
      ],
      [
        "▁thir",
        "d"
      ],
      [
        "i",
        "ated"
      ],
      [
        "▁ser",
        "v"
      ],
      [
        "▁n",
        "e"
      ],
      [
        "▁w",
        "i"
      ],
      [
        "a",
        "le"
      ],
      [
        "▁imp",
        "ro"
      ],
      [
        "in",
        "ce"
      ],
      [
        "▁down",
        "town"
      ],
      [
        "▁dr",
        "agon"
      ],
      [
        "▁whe",
        "n"
      ],
      [
        "▁say",
        "s"
      ],
      [
        "▁expl",
        "ain"
      ],
      [
        "ol",
        "l"
      ],
      [
        "▁",
        "qu"
      ],
      [
        "▁inv",
        "olved"
      ],
      [
        "▁arrive",
        "s"
      ],
      [
        "duc",
        "tion"
      ],
      [
        "▁t",
        "il"
      ],
      [
        "▁[",
        "..."
      ],
      [
        "▁sa",
        "id"
      ],
      [
        "▁belie",
        "ve"
      ],
      [
        "en",
        "ted"
      ],
      [
        "▁comp",
        "l"
      ],
      [
        "er",
        "ed"
      ],
      [
        "a",
        "ti"
      ],
      [
        "▁m",
        "ouse"
      ],
      [
        "▁",
        "r"
      ],
      [
        "y",
        "ed"
      ],
      [
        "▁r",
        "abb"
      ],
      [
        "▁ar",
        "g"
      ],
      [
        "▁l",
        "angu"
      ],
      [
        "▁deli",
        "very"
      ],
      [
        "▁l",
        "ist"
      ],
      [
        "▁fl",
        "oor"
      ],
      [
        "▁k",
        "i"
      ],
      [
        "▁t",
        "ool"
      ],
      [
        "▁.",
        "."
      ],
      [
        "▁ba",
        "ck"
      ],
      [
        "ow",
        "ed"
      ],
      [
        "▁go",
        "od"
      ],
      [
        "ate",
        "g"
      ],
      [
        "a",
        "ve"
      ],
      [
        "▁how",
        "ever"
      ],
      [
        "at",
        "her"
      ],
      [
        "▁p",
        "m"
      ],
      [
        "as",
        "ure"
      ],
      [
        "▁my",
        "self"
      ],
      [
        "▁expl",
        "ained"
      ],
      [
        "▁los",
        "t"
      ],
      [
        "▁tre",
        "at"
      ],
      [
        "al",
        "t"
      ],
      [
        "▁ab",
        "o"
      ],
      [
        "p",
        "ite"
      ],
      [
        "▁week",
        "end"
      ],
      [
        "i",
        "ts"
      ],
      [
        "▁r",
        "ange"
      ],
      [
        "m",
        "en"
      ],
      [
        "▁w",
        "rote"
      ],
      [
        "in",
        "ated"
      ],
      [
        "▁ev",
        "idence"
      ],
      [
        "▁b",
        "/"
      ],
      [
        "y",
        "thing"
      ],
      [
        "▁g",
        "l"
      ],
      [
        "r",
        "ess"
      ],
      [
        "▁d",
        "all"
      ],
      [
        "▁airlin",
        "e"
      ],
      [
        "▁bo",
        "mb"
      ],
      [
        "▁morn",
        "ing"
      ],
      [
        "▁ma",
        "y"
      ],
      [
        "▁st",
        "ay"
      ],
      [
        "▁deb",
        "ate"
      ],
      [
        "▁chang",
        "e"
      ],
      [
        "t",
        "ing"
      ],
      [
        "▁...",
        "."
      ],
      [
        "▁p",
        "red"
      ],
      [
        "▁stop",
        "over"
      ],
      [
        "op",
        "eration"
      ],
      [
        "▁counter",
        "par"
      ],
      [
        "▁pittsbur",
        "gh"
      ],
      [
        "ct",
        "ion"
      ],
      [
        "▁",
        "d"
      ],
      [
        "▁'",
        "d"
      ],
      [
        "▁!!!",
        "!!"
      ],
      [
        "▁ent",
        "er"
      ],
      [
        "pl",
        "an"
      ],
      [
        "▁writ",
        "ers"
      ],
      [
        "▁we",
        "bs"
      ],
      [
        "as",
        "ts"
      ],
      [
        "▁some",
        "body"
      ],
      [
        "a",
        "it"
      ],
      [
        "▁h",
        "ear"
      ],
      [
        "▁disc",
        "uss"
      ],
      [
        "▁",
        "ing"
      ],
      [
        "t",
        "ic"
      ],
      [
        "▁ind",
        "ust"
      ],
      [
        "▁trou",
        "ble"
      ],
      [
        "▁ch",
        "ange"
      ],
      [
        "▁an",
        "ti"
      ],
      [
        "▁at",
        "mos"
      ],
      [
        "if",
        "e"
      ],
      [
        "▁pl",
        "e"
      ],
      [
        "▁dad",
        "dy"
      ],
      [
        "▁rec",
        "ip"
      ],
      [
        "▁bu",
        "il"
      ],
      [
        "oun",
        "t"
      ],
      [
        "▁s",
        "end"
      ],
      [
        "ed",
        "uc"
      ],
      [
        "▁someth",
        "ing"
      ],
      [
        "▁su",
        "r"
      ],
      [
        "▁doc",
        "tor"
      ],
      [
        "ch",
        "en"
      ],
      [
        "▁",
        "ar"
      ],
      [
        "▁s",
        "ol"
      ],
      [
        "ul",
        "y"
      ],
      [
        "st",
        "ances"
      ],
      [
        "▁list",
        "en"
      ],
      [
        "▁",
        "s"
      ],
      [
        "a",
        "lly"
      ],
      [
        "▁'",
        "s"
      ],
      [
        "▁po",
        "lic"
      ],
      [
        "▁estab",
        "lished"
      ],
      [
        "▁c",
        "re"
      ],
      [
        "ce",
        "ss"
      ],
      [
        "▁reas",
        "on"
      ],
      [
        "▁",
        "es"
      ],
      [
        "▁soldi",
        "ers"
      ],
      [
        "u",
        "ss"
      ],
      [
        "▁p",
        "aint"
      ],
      [
        "j",
        "ect"
      ],
      [
        "▁co",
        "ast"
      ],
      [
        "▁p",
        "ie"
      ],
      [
        "i",
        "pped"
      ],
      [
        "▁ch",
        "oice"
      ],
      [
        "▁st",
        "aff"
      ],
      [
        "▁",
        "un"
      ],
      [
        "▁",
        "ll"
      ],
      [
        "▁'",
        "ll"
      ],
      [
        "▁con",
        "se"
      ],
      [
        "▁be",
        "for"
      ],
      [
        "▁mar",
        "riage"
      ],
      [
        "▁girl",
        "s"
      ],
      [
        "▁t",
        "ook"
      ],
      [
        "▁m",
        "ad"
      ],
      [
        "▁wa",
        "it"
      ],
      [
        "▁for",
        "th"
      ],
      [
        "a",
        "l"
      ],
      [
        "▁",
        "ord"
      ],
      [
        "est",
        "ed"
      ],
      [
        "r",
        "on"
      ],
      [
        "st",
        "em"
      ],
      [
        "▁st",
        "re"
      ],
      [
        "▁employ",
        "ment"
      ],
      [
        "▁c",
        "h"
      ],
      [
        "▁a",
        "n"
      ],
      [
        "amb",
        "ment"
      ],
      [
        "▁peop",
        "le"
      ],
      [
        "▁princ",
        "ip"
      ],
      [
        "ov",
        "er"
      ],
      [
        "▁accep",
        "t"
      ],
      [
        "▁",
        "very"
      ],
      [
        "▁no",
        "one"
      ],
      [
        "▁pr",
        "ess"
      ],
      [
        "b",
        "all"
      ],
      [
        "▁play",
        "er"
      ],
      [
        "▁de",
        "v"
      ],
      [
        "o",
        "v"
      ],
      [
        "▁h",
        "alf"
      ],
      [
        "on",
        "y"
      ],
      [
        "▁le",
        "a"
      ],
      [
        "p",
        "ing"
      ],
      [
        "▁h",
        "is"
      ],
      [
        "▁t",
        "oy"
      ],
      [
        "e",
        "e"
      ],
      [
        "▁sub",
        "ject"
      ],
      [
        "▁r",
        "oot"
      ],
      [
        "▁pe",
        "an"
      ],
      [
        "▁ad",
        "op"
      ],
      [
        "▁p",
        "le"
      ],
      [
        "▁or",
        "d"
      ],
      [
        "▁no",
        "t"
      ],
      [
        "▁s",
        "al"
      ],
      [
        "▁p",
        "ot"
      ],
      [
        "c",
        "tion"
      ],
      [
        "▁app",
        "earance"
      ],
      [
        "vel",
        "op"
      ],
      [
        "ang",
        "er"
      ],
      [
        "▁bro",
        "ther"
      ],
      [
        "=",
        "----"
      ],
      [
        "▁know",
        "s"
      ],
      [
        "e",
        "ad"
      ],
      [
        "i",
        "ety"
      ],
      [
        "u",
        "e"
      ],
      [
        "es",
        "s"
      ],
      [
        "▁butt",
        "ons"
      ],
      [
        "▁d",
        "oc"
      ],
      [
        "rap",
        "h"
      ],
      [
        "▁them",
        "selves"
      ],
      [
        "ali",
        "ties"
      ],
      [
        "▁am",
        "ong"
      ],
      [
        "er",
        "ences"
      ],
      [
        "▁!!!!!!!!!!!",
        "!!!!!!!!"
      ],
      [
        "▁bec",
        "ame"
      ],
      [
        "▁pos",
        "ted"
      ],
      [
        "▁st",
        "and"
      ],
      [
        "at",
        "ing"
      ],
      [
        "▁con",
        "vers"
      ],
      [
        "or",
        "k"
      ],
      [
        "ation",
        "al"
      ],
      [
        "ar",
        "y"
      ],
      [
        "--------",
        "+----------------"
      ],
      [
        "▁sal",
        "ad"
      ],
      [
        "▁day",
        "s"
      ],
      [
        "▁sty",
        "le"
      ],
      [
        "wor",
        "ks"
      ],
      [
        "▁capac",
        "ity"
      ],
      [
        "▁m",
        "i"
      ],
      [
        "▁g",
        "old"
      ],
      [
        "▁de",
        "ath"
      ],
      [
        "i",
        "med"
      ],
      [
        "es",
        "ting"
      ],
      [
        "▁fil",
        "m"
      ],
      [
        "▁jo",
        "kes"
      ],
      [
        "▁",
        "|"
      ],
      [
        "▁pu",
        "b"
      ],
      [
        "n",
        "t"
      ],
      [
        "at",
        "es"
      ],
      [
        "▁fing",
        "er"
      ],
      [
        "▁ab",
        "ility"
      ],
      [
        "▁des",
        "ign"
      ],
      [
        "▁th",
        "ink"
      ],
      [
        "▁c",
        "ell"
      ],
      [
        "our",
        "n"
      ],
      [
        "d",
        "en"
      ],
      [
        "ith",
        "er"
      ],
      [
        "▁pro",
        "ce"
      ],
      [
        "▁att",
        "acks"
      ],
      [
        "c",
        "ha"
      ],
      [
        "▁en",
        "jo"
      ],
      [
        "▁cre",
        "ating"
      ],
      [
        "▁lo",
        "st"
      ],
      [
        "it",
        "ing"
      ],
      [
        "t",
        "o"
      ],
      [
        "▁throu",
        "gh"
      ],
      [
        "r",
        "ou"
      ],
      [
        "ou",
        "nd"
      ],
      [
        "p",
        "ers"
      ],
      [
        "▁li",
        "br"
      ],
      [
        "▁ke",
        "ep"
      ],
      [
        "▁r",
        "ent"
      ],
      [
        "▁mean",
        "s"
      ],
      [
        "▁p",
        "it"
      ],
      [
        "▁’",
        "re"
      ],
      [
        "▁leg",
        "isl"
      ],
      [
        "e",
        "i"
      ],
      [
        "m",
        "ents"
      ],
      [
        "u",
        "ts"
      ],
      [
        "▁",
        "both"
      ],
      [
        "oc",
        "k"
      ],
      [
        "▁m",
        "en"
      ],
      [
        "▁cent",
        "ury"
      ],
      [
        "▁siz",
        "e"
      ],
      [
        "▁w",
        "an"
      ],
      [
        "▁sel",
        "f"
      ],
      [
        "a",
        "ch"
      ],
      [
        "c",
        "ent"
      ],
      [
        "▁r",
        "ule"
      ],
      [
        "g",
        "y"
      ],
      [
        "m",
        "an"
      ],
      [
        "or",
        "m"
      ],
      [
        "an",
        "t"
      ],
      [
        "▁h",
        "ot"
      ],
      [
        "▁en",
        "j"
      ],
      [
        "▁ex",
        "c"
      ],
      [
        "▁p",
        "as"
      ],
      [
        "▁sw",
        "ee"
      ],
      [
        "▁re",
        "qu"
      ],
      [
        "▁pr",
        "in"
      ],
      [
        "▁bun",
        "ny"
      ],
      [
        "▁sur",
        "p"
      ],
      [
        "▁po",
        "ll"
      ],
      [
        "i",
        "als"
      ],
      [
        "▁o",
        "per"
      ],
      [
        "ti",
        "ty"
      ],
      [
        "en",
        "ty"
      ],
      [
        "▁r",
        "ub"
      ],
      [
        "▁p",
        "up"
      ],
      [
        "il",
        "os"
      ],
      [
        "e",
        "en"
      ],
      [
        "▁alread",
        "y"
      ],
      [
        "or",
        "y"
      ],
      [
        "▁!!!!!!!!!!!",
        "!!!!"
      ],
      [
        "i",
        "ving"
      ],
      [
        "▁p",
        "l"
      ],
      [
        "▁dec",
        "ember"
      ],
      [
        "▁l",
        "aw"
      ],
      [
        "▁n",
        "ame"
      ],
      [
        "ul",
        "ation"
      ],
      [
        "’",
        "s"
      ],
      [
        "▁bab",
        "y"
      ],
      [
        "▁s",
        "ea"
      ],
      [
        "ail",
        "s"
      ],
      [
        "▁interv",
        "iew"
      ],
      [
        "ent",
        "ed"
      ],
      [
        "in",
        "u"
      ],
      [
        "▁prot",
        "ect"
      ],
      [
        "▁with",
        "out"
      ],
      [
        "▁f",
        "irst"
      ],
      [
        "▁star",
        "t"
      ],
      [
        "▁weap",
        "ons"
      ],
      [
        "and",
        "ed"
      ],
      [
        "▁atmos",
        "phere"
      ],
      [
        "s",
        "t"
      ],
      [
        "▁bu",
        "d"
      ],
      [
        "s",
        "pite"
      ],
      [
        "▁rece",
        "ive"
      ],
      [
        "▁pl",
        "us"
      ],
      [
        "▁m",
        "other"
      ],
      [
        "▁requi",
        "re"
      ],
      [
        "a",
        "pp"
      ],
      [
        "▁col",
        "or"
      ],
      [
        "▁h",
        "app"
      ],
      [
        "ac",
        "ks"
      ],
      [
        "▁vis",
        "it"
      ],
      [
        "▁pi",
        "eces"
      ],
      [
        "i",
        "qu"
      ],
      [
        "ow",
        "er"
      ],
      [
        "▁go",
        "t"
      ],
      [
        "ap",
        "e"
      ],
      [
        "n",
        "esday"
      ],
      [
        "an",
        "ce"
      ],
      [
        "▁",
        "-"
      ],
      [
        "is",
        "d"
      ],
      [
        "▁",
        "ton"
      ],
      [
        "i",
        "r"
      ],
      [
        "▁cont",
        "ain"
      ],
      [
        "s",
        "h"
      ],
      [
        "anc",
        "ing"
      ],
      [
        "▁ha",
        "pp"
      ],
      [
        "▁h",
        "it"
      ],
      [
        "▁j",
        "u"
      ],
      [
        "▁be",
        "en"
      ],
      [
        "ort",
        "h"
      ],
      [
        "id",
        "er"
      ],
      [
        "▁form",
        "s"
      ],
      [
        "▁adv",
        "ant"
      ],
      [
        "▁sch",
        "ed"
      ],
      [
        "▁m",
        "ur"
      ],
      [
        "▁bre",
        "ad"
      ],
      [
        "▁mar",
        "kets"
      ],
      [
        "o",
        "int"
      ],
      [
        "▁set",
        "tle"
      ],
      [
        "▁p",
        "res"
      ],
      [
        "alt",
        "h"
      ],
      [
        "o",
        "in"
      ],
      [
        "▁",
        "right"
      ],
      [
        "thin",
        "g"
      ],
      [
        "m",
        "ing"
      ],
      [
        "at",
        "o"
      ],
      [
        "a",
        "lity"
      ],
      [
        "▁w",
        "ar"
      ],
      [
        "a",
        "ge"
      ],
      [
        "▁s",
        "n"
      ],
      [
        "▁s",
        "ister"
      ],
      [
        "▁a",
        "ct"
      ],
      [
        "at",
        "ed"
      ],
      [
        "▁fr",
        "e"
      ],
      [
        "▁b",
        "us"
      ],
      [
        "▁sp",
        "ell"
      ],
      [
        "▁s",
        "alt"
      ],
      [
        "▁depar",
        "t"
      ],
      [
        "▁ed",
        "it"
      ],
      [
        "▁h",
        "as"
      ],
      [
        "a",
        "b"
      ],
      [
        "ur",
        "day"
      ],
      [
        "is",
        "s"
      ],
      [
        "m",
        "ar"
      ],
      [
        "▁k",
        "ing"
      ],
      [
        "▁a",
        "gre"
      ],
      [
        "▁l",
        "eg"
      ],
      [
        "▁lea",
        "ving"
      ],
      [
        "um",
        "my"
      ],
      [
        "is",
        "es"
      ],
      [
        "t",
        "c"
      ],
      [
        "▁",
        "?"
      ],
      [
        "i",
        "ate"
      ],
      [
        "ag",
        "ing"
      ],
      [
        "m",
        "es"
      ],
      [
        "ere",
        "nt"
      ],
      [
        "▁leave",
        "s"
      ],
      [
        "▁f",
        "ell"
      ],
      [
        "is",
        "ions"
      ],
      [
        "▁m",
        "ail"
      ],
      [
        "▁m",
        "oon"
      ],
      [
        "▁mov",
        "ie"
      ],
      [
        "▁par",
        "liament"
      ],
      [
        "▁sle",
        "ep"
      ],
      [
        "i",
        "d"
      ],
      [
        "a",
        "p"
      ],
      [
        "▁li",
        "on"
      ],
      [
        "▁w",
        "ord"
      ],
      [
        "▁m",
        "u"
      ],
      [
        "z",
        "z"
      ],
      [
        "▁am",
        "ount"
      ],
      [
        "▁f",
        "ac"
      ],
      [
        "▁b",
        "ack"
      ],
      [
        "▁c",
        "ities"
      ],
      [
        "▁ca",
        "me"
      ],
      [
        "▁d",
        "iv"
      ],
      [
        "▁",
        "c"
      ],
      [
        "ag",
        "es"
      ],
      [
        "▁",
        "ex"
      ],
      [
        "▁ac",
        "tiv"
      ],
      [
        "▁n",
        "ote"
      ],
      [
        "ch",
        "ing"
      ],
      [
        "▁us",
        "ers"
      ],
      [
        "▁s",
        "li"
      ],
      [
        "is",
        "ting"
      ],
      [
        "▁n",
        "ume"
      ],
      [
        "tern",
        "oon"
      ],
      [
        "al",
        "u"
      ],
      [
        "▁per",
        "s"
      ],
      [
        "o",
        "zer"
      ],
      [
        "****",
        "****"
      ],
      [
        "▁etc",
        "."
      ],
      [
        "▁tr",
        "y"
      ],
      [
        "▁coun",
        "c"
      ],
      [
        "▁ins",
        "ide"
      ],
      [
        "ac",
        "tions"
      ],
      [
        "ar",
        "l"
      ],
      [
        "▁eat",
        "ing"
      ],
      [
        "▁feel",
        "ing"
      ],
      [
        "i",
        "s"
      ],
      [
        "▁ar",
        "eas"
      ],
      [
        "▁",
        ">"
      ],
      [
        "i",
        "es"
      ],
      [
        "ch",
        "es"
      ],
      [
        "▁pl",
        "an"
      ],
      [
        "▁l",
        "unch"
      ],
      [
        "▁resp",
        "ons"
      ],
      [
        "▁!!!",
        "!!!!"
      ],
      [
        "▁=",
        "=----"
      ],
      [
        "▁f",
        "ig"
      ],
      [
        "▁r",
        "e"
      ],
      [
        "▁tom",
        "orrow"
      ],
      [
        "o",
        "nd"
      ],
      [
        "▁o",
        "ver"
      ],
      [
        "▁c",
        "ount"
      ],
      [
        "t",
        "y"
      ],
      [
        "▁rabb",
        "it"
      ],
      [
        "id",
        "den"
      ],
      [
        "en",
        "tion"
      ],
      [
        "em",
        "ents"
      ],
      [
        "▁",
        "m"
      ],
      [
        "i",
        "ll"
      ],
      [
        "a",
        "t"
      ],
      [
        "▁'",
        "m"
      ],
      [
        "▁who",
        "se"
      ],
      [
        "▁en",
        "sure"
      ],
      [
        "am",
        "ent"
      ],
      [
        "ad",
        "ing"
      ],
      [
        "▁r",
        "ad"
      ],
      [
        "a",
        "re"
      ],
      [
        "▁f",
        "i"
      ],
      [
        "as",
        "s"
      ],
      [
        "od",
        "e"
      ],
      [
        "▁cre",
        "am"
      ],
      [
        "▁cart",
        "oon"
      ],
      [
        "▁o",
        "pp"
      ],
      [
        "▁lead",
        "ers"
      ],
      [
        "g",
        "ation"
      ],
      [
        "▁trave",
        "l"
      ],
      [
        "tic",
        "ip"
      ],
      [
        "c",
        "e"
      ],
      [
        "▁m",
        "an"
      ],
      [
        "▁man",
        "ner"
      ],
      [
        "▁ex",
        "ec"
      ],
      [
        "▁exp",
        "ected"
      ],
      [
        "▁mon",
        "day"
      ],
      [
        "o",
        "ut"
      ],
      [
        "▁pro",
        "pos"
      ],
      [
        "▁b",
        "el"
      ],
      [
        "▁writ",
        "er"
      ],
      [
        "in",
        "ing"
      ],
      [
        "ic",
        "s"
      ],
      [
        "r",
        "ong"
      ],
      [
        "▁b",
        "ook"
      ],
      [
        "ter",
        "ing"
      ],
      [
        "▁",
        "y"
      ],
      [
        "▁c",
        "ases"
      ],
      [
        "▁who",
        "ever"
      ],
      [
        "▁par",
        "ty"
      ],
      [
        "▁y",
        "a"
      ],
      [
        "ad",
        "es"
      ],
      [
        "u",
        "als"
      ],
      [
        "▁gu",
        "ys"
      ],
      [
        "▁t",
        "al"
      ],
      [
        "▁su",
        "ff"
      ],
      [
        "▁r",
        "oll"
      ],
      [
        "▁m",
        "ight"
      ],
      [
        "a",
        "h"
      ],
      [
        "et",
        "ed"
      ],
      [
        "air",
        "s"
      ],
      [
        "cl",
        "ock"
      ],
      [
        "▁spec",
        "i"
      ],
      [
        "▁follow",
        "ing"
      ],
      [
        "▁be",
        "st"
      ],
      [
        "▁run",
        "ning"
      ],
      [
        "▁kn",
        "oc"
      ],
      [
        "▁d",
        "e"
      ],
      [
        "▁an",
        "oth"
      ],
      [
        "▁su",
        "c"
      ],
      [
        "▁p",
        "a"
      ],
      [
        "in",
        "es"
      ],
      [
        "▁rul",
        "es"
      ],
      [
        "▁mil",
        "es"
      ],
      [
        "▁sc",
        "ience"
      ],
      [
        "▁help",
        "ed"
      ],
      [
        "▁a",
        "nd"
      ],
      [
        "▁bel",
        "on"
      ],
      [
        "ion",
        "s"
      ],
      [
        "▁d",
        "ad"
      ],
      [
        "▁govern",
        "ments"
      ],
      [
        "▁chang",
        "ing"
      ],
      [
        "an",
        "ding"
      ],
      [
        "▁",
        "+"
      ],
      [
        "▁pl",
        "ate"
      ],
      [
        "▁e",
        "gg"
      ],
      [
        "th",
        "ers"
      ],
      [
        "▁forg",
        "ot"
      ],
      [
        "▁o",
        "ught"
      ],
      [
        "▁us",
        "ed"
      ],
      [
        "ur",
        "ing"
      ],
      [
        "▁o",
        "b"
      ],
      [
        "▁",
        "]"
      ],
      [
        "o",
        "wn"
      ],
      [
        "▁w",
        "o"
      ],
      [
        "▁airlin",
        "es"
      ],
      [
        "f",
        "or"
      ],
      [
        "▁see",
        "med"
      ],
      [
        "▁ph",
        "il"
      ],
      [
        "v",
        "e"
      ],
      [
        "▁w",
        "ed"
      ],
      [
        "▁",
        "n"
      ],
      [
        "ver",
        "s"
      ],
      [
        "▁d",
        "oll"
      ],
      [
        "▁e",
        "ars"
      ],
      [
        "▁sm",
        "o"
      ],
      [
        "▁di",
        "v"
      ],
      [
        "e",
        "r"
      ],
      [
        "▁loc",
        "ated"
      ],
      [
        "▁chang",
        "es"
      ],
      [
        "▁sp",
        "oke"
      ],
      [
        "▁o",
        "p"
      ],
      [
        "▁ha",
        "f"
      ],
      [
        "▁r",
        "i"
      ],
      [
        "ur",
        "es"
      ],
      [
        "▁co",
        "operation"
      ],
      [
        "▁c",
        "our"
      ],
      [
        "ay",
        "s"
      ],
      [
        "in",
        "ds"
      ],
      [
        "m",
        "ed"
      ],
      [
        "▁mo",
        "ving"
      ],
      [
        "▁pre",
        "d"
      ],
      [
        "▁ins",
        "ur"
      ],
      [
        "▁p",
        "ay"
      ],
      [
        "u",
        "r"
      ],
      [
        "▁h",
        "oney"
      ],
      [
        "▁consid",
        "er"
      ],
      [
        "▁am",
        "id"
      ],
      [
        "▁st",
        "op"
      ],
      [
        "▁pas",
        "s"
      ],
      [
        "▁leg",
        "s"
      ],
      [
        "ou",
        "ts"
      ],
      [
        "▁rep",
        "res"
      ],
      [
        "t",
        "le"
      ],
      [
        "▁app",
        "ro"
      ],
      [
        "▁bug",
        "s"
      ],
      [
        "▁l",
        "at"
      ],
      [
        "▁fam",
        "ily"
      ],
      [
        "l",
        "e"
      ],
      [
        "ee",
        "ds"
      ],
      [
        "f",
        "ace"
      ],
      [
        "▁c",
        "ock"
      ],
      [
        "v",
        "ision"
      ],
      [
        "a",
        "ble"
      ],
      [
        "▁fin",
        "ished"
      ],
      [
        "y",
        "th"
      ],
      [
        "▁l",
        "itt"
      ],
      [
        "pl",
        "y"
      ],
      [
        "▁m",
        "ention"
      ],
      [
        "▁",
        "“"
      ],
      [
        "if",
        "ic"
      ],
      [
        "▁",
        "im"
      ],
      [
        "▁g",
        "i"
      ],
      [
        "!!",
        "!"
      ],
      [
        "ag",
        "ed"
      ],
      [
        "li",
        "ament"
      ],
      [
        "o",
        "ke"
      ],
      [
        "▁r",
        "ide"
      ],
      [
        "f",
        "ir"
      ],
      [
        "h",
        "en"
      ],
      [
        ".c",
        "om"
      ],
      [
        "▁per",
        "form"
      ],
      [
        "▁r",
        "en"
      ],
      [
        "▁beh",
        "avi"
      ],
      [
        "▁",
        "li"
      ],
      [
        "▁stre",
        "t"
      ],
      [
        "▁m",
        "ar"
      ],
      [
        "▁vis",
        "a"
      ],
      [
        "▁ex",
        "per"
      ],
      [
        "▁d",
        "i"
      ],
      [
        "▁pre",
        "s"
      ],
      [
        "▁ques",
        "tion"
      ],
      [
        "▁em",
        "ploy"
      ],
      [
        "▁wil",
        "d"
      ],
      [
        "b",
        "e"
      ],
      [
        "▁lab",
        "or"
      ],
      [
        "r",
        "ax"
      ],
      [
        "▁st",
        "ock"
      ],
      [
        "▁l",
        "ess"
      ],
      [
        "▁a",
        "par"
      ],
      [
        "▁w",
        "ould"
      ],
      [
        "▁c",
        "ook"
      ],
      [
        "▁st",
        "ood"
      ],
      [
        "▁know",
        "n"
      ],
      [
        "▁m",
        "ic"
      ],
      [
        "▁stay",
        "ed"
      ],
      [
        "▁ar",
        "ea"
      ],
      [
        "ch",
        "ed"
      ],
      [
        "▁mo",
        "r"
      ],
      [
        "u",
        "d"
      ],
      [
        "▁an",
        "ybody"
      ],
      [
        "▁!",
        "!"
      ],
      [
        "▁h",
        "a"
      ],
      [
        "▁dat",
        "ab"
      ],
      [
        "_",
        "_"
      ],
      [
        "▁g",
        "en"
      ],
      [
        "ocr",
        "acy"
      ],
      [
        "▁contr",
        "act"
      ],
      [
        "▁n",
        "amed"
      ],
      [
        "▁resp",
        "ond"
      ],
      [
        "▁",
        "ve"
      ],
      [
        "▁'",
        "ve"
      ],
      [
        "▁ma",
        "t"
      ],
      [
        "▁ar",
        "my"
      ],
      [
        "▁in",
        "j"
      ],
      [
        "▁th",
        "ru"
      ],
      [
        "r",
        "ew"
      ],
      [
        "e",
        "ar"
      ],
      [
        "it",
        "y"
      ],
      [
        "▁program",
        "me"
      ],
      [
        "d",
        "ers"
      ],
      [
        ".",
        "d"
      ],
      [
        "▁p",
        "re"
      ],
      [
        "▁t",
        "ea"
      ],
      [
        "▁fro",
        "m"
      ],
      [
        "▁",
        "like"
      ],
      [
        "▁o",
        "h"
      ],
      [
        "o",
        "ss"
      ],
      [
        "e",
        "es"
      ],
      [
        "▁thous",
        "ands"
      ],
      [
        "▁dis",
        "aster"
      ],
      [
        "▁e",
        "mer"
      ],
      [
        "▁...",
        ".."
      ],
      [
        "▁fiel",
        "d"
      ],
      [
        "▁ret",
        "urn"
      ],
      [
        "▁techn",
        "iqu"
      ],
      [
        "▁m",
        "use"
      ],
      [
        "ad",
        "ed"
      ],
      [
        "▁wr",
        "it"
      ],
      [
        "u",
        "s"
      ],
      [
        "▁fl",
        "ying"
      ],
      [
        "t",
        "ures"
      ],
      [
        "▁f",
        "am"
      ],
      [
        "▁da",
        "d"
      ],
      [
        "▁w",
        "om"
      ],
      [
        "▁f",
        "ail"
      ],
      [
        "in",
        "o"
      ],
      [
        "le",
        "t"
      ],
      [
        "▁ag",
        "re"
      ],
      [
        "▁fil",
        "ter"
      ],
      [
        "▁don",
        "e"
      ],
      [
        "▁mo",
        "d"
      ],
      [
        "p",
        "le"
      ],
      [
        "▁ap",
        "ril"
      ],
      [
        "▁we",
        "ather"
      ],
      [
        "in",
        "ed"
      ],
      [
        "▁o",
        "f"
      ],
      [
        "▁p",
        "h"
      ],
      [
        "▁li",
        "ke"
      ],
      [
        "ire",
        "d"
      ],
      [
        "▁s",
        "oc"
      ],
      [
        "▁concer",
        "n"
      ],
      [
        "▁t",
        "urned"
      ],
      [
        "▁ro",
        "om"
      ],
      [
        "au",
        "gh"
      ],
      [
        "▁sal",
        "es"
      ],
      [
        "▁opin",
        "ion"
      ],
      [
        "▁",
        "it"
      ],
      [
        "▁r",
        "ow"
      ],
      [
        "ul",
        "t"
      ],
      [
        "▁",
        "~"
      ],
      [
        "am",
        "e"
      ],
      [
        "▁tr",
        "ust"
      ],
      [
        "▁w",
        "ear"
      ],
      [
        "▁b",
        "or"
      ],
      [
        "▁follow",
        "ed"
      ],
      [
        "▁be",
        "ing"
      ],
      [
        "▁respon",
        "se"
      ],
      [
        "▁hop",
        "e"
      ],
      [
        "▁on",
        "ly"
      ],
      [
        "▁regar",
        "d"
      ],
      [
        "▁r",
        "ain"
      ],
      [
        "▁be",
        "cause"
      ],
      [
        "▁ye",
        "ar"
      ],
      [
        "▁s",
        "ave"
      ],
      [
        "▁he",
        "ad"
      ],
      [
        "▁s",
        "ense"
      ],
      [
        "▁d",
        "ough"
      ],
      [
        "▁st",
        "."
      ],
      [
        "▁cr",
        "ack"
      ],
      [
        "▁stre",
        "et"
      ],
      [
        "▁polic",
        "y"
      ],
      [
        "▁re",
        "c"
      ],
      [
        "▁le",
        "g"
      ],
      [
        "▁pres",
        "ent"
      ],
      [
        "▁j",
        "o"
      ],
      [
        "▁infl",
        "u"
      ],
      [
        "▁as",
        "ide"
      ],
      [
        "a",
        "se"
      ],
      [
        "▁airplan",
        "e"
      ],
      [
        "p",
        "ly"
      ],
      [
        "ic",
        "al"
      ],
      [
        "▁fo",
        "llow"
      ],
      [
        "ur",
        "ed"
      ],
      [
        "s",
        "u"
      ],
      [
        "▁counc",
        "il"
      ],
      [
        "▁re",
        "ally"
      ],
      [
        "▁p",
        "enc"
      ],
      [
        "▁ex",
        "ch"
      ],
      [
        "i",
        "ous"
      ],
      [
        "▁arri",
        "ve"
      ],
      [
        "▁tri",
        "p"
      ],
      [
        "▁jo",
        "ke"
      ],
      [
        "▁d",
        "ow"
      ],
      [
        "▁y",
        "et"
      ],
      [
        "▁b",
        "ir"
      ],
      [
        "▁s",
        "old"
      ],
      [
        "▁you",
        "r"
      ],
      [
        "▁",
        "l"
      ],
      [
        "r",
        "il"
      ],
      [
        "▁w",
        "ait"
      ],
      [
        "▁appro",
        "ach"
      ],
      [
        "▁kit",
        "t"
      ],
      [
        "f",
        "act"
      ],
      [
        "▁sc",
        "i"
      ],
      [
        "is",
        "co"
      ],
      [
        "▁exp",
        "er"
      ],
      [
        "d",
        "ed"
      ],
      [
        "▁g",
        "row"
      ],
      [
        "ec",
        "ts"
      ],
      [
        "o",
        "ices"
      ],
      [
        "▁",
        "'s"
      ],
      [
        "▁l",
        "oc"
      ],
      [
        "▁r",
        "ail"
      ],
      [
        "▁w",
        "ake"
      ],
      [
        "▁p",
        "et"
      ],
      [
        "▁fri",
        "end"
      ],
      [
        "▁though",
        "ts"
      ],
      [
        "ders",
        "t"
      ],
      [
        "▁n",
        "ap"
      ],
      [
        "ti",
        "ce"
      ],
      [
        "▁re",
        "m"
      ],
      [
        "▁be",
        "yond"
      ],
      [
        "en",
        "ce"
      ],
      [
        "▁poc",
        "ket"
      ],
      [
        "is",
        "m"
      ],
      [
        "▁al",
        "ong"
      ],
      [
        "▁f",
        "ood"
      ],
      [
        "▁bu",
        "y"
      ],
      [
        "▁see",
        "ing"
      ],
      [
        "▁b",
        "ott"
      ],
      [
        "▁ps",
        "ych"
      ],
      [
        "i",
        "ff"
      ],
      [
        "'",
        "s"
      ],
      [
        "ut",
        "ation"
      ],
      [
        "▁c",
        "ont"
      ],
      [
        "▁s",
        "ha"
      ],
      [
        "▁m",
        "o"
      ],
      [
        "▁f",
        "ight"
      ],
      [
        "▁est",
        "ab"
      ],
      [
        "▁po",
        "li"
      ],
      [
        "▁be",
        "lief"
      ],
      [
        "▁or",
        "gan"
      ],
      [
        "▁le",
        "aves"
      ],
      [
        "i",
        "c"
      ],
      [
        "g",
        "ency"
      ],
      [
        "▁m",
        "ed"
      ],
      [
        "▁c",
        "ash"
      ],
      [
        "c",
        "ase"
      ],
      [
        "▁su",
        "it"
      ],
      [
        "e",
        "ither"
      ],
      [
        "▁he",
        "art"
      ],
      [
        "▁app",
        "lication"
      ],
      [
        "▁app",
        "ointment"
      ],
      [
        "▁m",
        "enti"
      ],
      [
        "ti",
        "e"
      ],
      [
        "▁sc",
        "en"
      ],
      [
        "▁g",
        "u"
      ],
      [
        "ar",
        "t"
      ],
      [
        "▁int",
        "el"
      ],
      [
        "▁ass",
        "ist"
      ],
      [
        "▁----",
        "=="
      ],
      [
        "oo",
        "ds"
      ],
      [
        "a",
        "tives"
      ],
      [
        "▁whe",
        "ther"
      ],
      [
        "▁",
        "of"
      ],
      [
        "▁e",
        "uro"
      ],
      [
        "o",
        "ts"
      ],
      [
        "al",
        "ed"
      ],
      [
        "▁s",
        "ent"
      ],
      [
        "in",
        "k"
      ],
      [
        "▁milit",
        "ary"
      ],
      [
        "▁tu",
        "esday"
      ],
      [
        "▁for",
        "g"
      ],
      [
        "l",
        "ow"
      ],
      [
        "▁mil",
        "k"
      ],
      [
        "▁call",
        "ed"
      ],
      [
        "▁regard",
        "s"
      ],
      [
        "▁li",
        "e"
      ],
      [
        "at",
        "ures"
      ],
      [
        "▁re",
        "lig"
      ],
      [
        "▁pu",
        "lled"
      ],
      [
        "▁d",
        "u"
      ],
      [
        "▁hel",
        "p"
      ],
      [
        "▁c",
        "or"
      ],
      [
        "ac",
        "ted"
      ],
      [
        "are",
        "d"
      ],
      [
        "▁ve",
        "get"
      ],
      [
        "▁.......",
        "..."
      ],
      [
        "l",
        "us"
      ],
      [
        "for",
        "ce"
      ],
      [
        "i",
        "m"
      ],
      [
        "▁maj",
        "ority"
      ],
      [
        "▁!",
        "!!"
      ],
      [
        "▁h",
        "and"
      ],
      [
        "▁boo",
        "ks"
      ],
      [
        "▁th",
        "at"
      ],
      [
        "▁com",
        "ing"
      ],
      [
        "▁fl",
        "owers"
      ],
      [
        "▁chec",
        "k"
      ],
      [
        "▁agre",
        "ed"
      ],
      [
        "▁e",
        "v"
      ],
      [
        "▁char",
        "acter"
      ],
      [
        "▁p",
        "ig"
      ],
      [
        "▁i",
        "od"
      ],
      [
        "▁an",
        "th"
      ],
      [
        "▁r",
        "an"
      ],
      [
        "o",
        "w"
      ],
      [
        "▁gl",
        "ass"
      ],
      [
        "il",
        "e"
      ],
      [
        "▁hosp",
        "ital"
      ],
      [
        "ash",
        "ed"
      ],
      [
        "▁notw",
        "ithstanding"
      ],
      [
        "ph",
        "one"
      ],
      [
        "ap",
        "s"
      ],
      [
        "h",
        "ood"
      ],
      [
        "i",
        "red"
      ],
      [
        "w",
        "ard"
      ],
      [
        "▁r",
        "ates"
      ],
      [
        "▁s",
        "ub"
      ],
      [
        "on",
        "e"
      ],
      [
        "▁char",
        "ge"
      ],
      [
        "▁sug",
        "ges"
      ],
      [
        "!",
        "!"
      ],
      [
        "▁com",
        "es"
      ],
      [
        "h",
        "ether"
      ],
      [
        "▁r",
        "ight"
      ],
      [
        "▁f",
        "ing"
      ],
      [
        "▁reas",
        "ons"
      ],
      [
        "▁?",
        "?"
      ],
      [
        "▁ma",
        "j"
      ],
      [
        "▁us",
        "er"
      ],
      [
        "ti",
        "me"
      ],
      [
        "a",
        "st"
      ],
      [
        "▁manag",
        "er"
      ],
      [
        "▁c",
        "ir"
      ],
      [
        "b",
        "ur"
      ],
      [
        "▁consid",
        "ered"
      ],
      [
        "▁sun",
        "day"
      ],
      [
        "▁is",
        "s"
      ],
      [
        "u",
        "ght"
      ],
      [
        "▁n",
        "eck"
      ],
      [
        "▁cl",
        "ass"
      ],
      [
        "▁b",
        "al"
      ],
      [
        "▁a",
        "i"
      ],
      [
        "▁need",
        "s"
      ],
      [
        "▁",
        "own"
      ],
      [
        "un",
        "d"
      ],
      [
        "▁ch",
        "an"
      ],
      [
        "▁din",
        "ner"
      ],
      [
        "▁",
        "********************************"
      ],
      [
        "▁ex",
        "p"
      ],
      [
        "▁********",
        "**"
      ],
      [
        "gh",
        "ting"
      ],
      [
        "▁",
        "ch"
      ],
      [
        "▁suc",
        "cess"
      ],
      [
        "end",
        "ed"
      ],
      [
        "c",
        "r"
      ],
      [
        "n",
        "ers"
      ],
      [
        "▁un",
        "ivers"
      ],
      [
        "▁st",
        "ill"
      ],
      [
        "▁p",
        "en"
      ],
      [
        "▁w",
        "ine"
      ],
      [
        "▁e",
        "at"
      ],
      [
        "▁fix",
        "ed"
      ],
      [
        "or",
        "t"
      ],
      [
        "ou",
        "r"
      ],
      [
        "▁re",
        "le"
      ],
      [
        "▁m",
        "om"
      ],
      [
        "▁o",
        "ther"
      ],
      [
        "▁mater",
        "ial"
      ],
      [
        "▁ca",
        "use"
      ],
      [
        "▁wh",
        "o"
      ],
      [
        "▁al",
        "read"
      ],
      [
        "ro",
        "l"
      ],
      [
        "▁b/",
        "c"
      ],
      [
        "i",
        "n"
      ],
      [
        "id",
        "ence"
      ],
      [
        "▁lead",
        "er"
      ],
      [
        "▁m",
        "ix"
      ],
      [
        "▁ro",
        "le"
      ],
      [
        "▁la",
        "ur"
      ],
      [
        "o",
        "pe"
      ],
      [
        "▁fo",
        "und"
      ],
      [
        "▁acc",
        "ount"
      ],
      [
        "▁reg",
        "ion"
      ],
      [
        "▁th",
        "urs"
      ],
      [
        "▁imp",
        "lem"
      ],
      [
        "▁lear",
        "n"
      ],
      [
        "▁",
        "iod"
      ],
      [
        "▁d",
        "r"
      ],
      [
        "▁oak",
        "land"
      ],
      [
        "▁right",
        "s"
      ],
      [
        "▁d",
        "aughter"
      ],
      [
        "▁m",
        "ummy"
      ],
      [
        "▁eff",
        "orts"
      ],
      [
        "an",
        "ds"
      ],
      [
        "al",
        "k"
      ],
      [
        "lic",
        "ations"
      ],
      [
        "▁c",
        "ol"
      ],
      [
        "us",
        "e"
      ],
      [
        "▁id",
        "enti"
      ],
      [
        "t",
        "a"
      ],
      [
        "il",
        "i"
      ],
      [
        "▁re",
        "ve"
      ],
      [
        "▁",
        "ver"
      ],
      [
        "▁w",
        "ork"
      ],
      [
        "r",
        "ying"
      ],
      [
        "▁recog",
        "n"
      ],
      [
        "▁ex",
        "t"
      ],
      [
        "ill",
        "s"
      ],
      [
        "▁st",
        "anding"
      ],
      [
        "▁sur",
        "pr"
      ],
      [
        "▁du",
        "ring"
      ],
      [
        "▁we",
        "e"
      ],
      [
        "▁ret",
        "urned"
      ],
      [
        "ver",
        "y"
      ],
      [
        "▁im",
        "age"
      ],
      [
        "▁sh",
        "ape"
      ],
      [
        "l",
        "an"
      ],
      [
        "▁coun",
        "ter"
      ],
      [
        "▁me",
        "an"
      ],
      [
        "▁tre",
        "ated"
      ],
      [
        "▁hav",
        "ing"
      ],
      [
        "▁thou",
        "gh"
      ],
      [
        "te",
        "mp"
      ],
      [
        "▁the",
        "ir"
      ],
      [
        "i",
        "li"
      ],
      [
        "ab",
        "ility"
      ],
      [
        "▁eff",
        "ects"
      ],
      [
        "c",
        "ing"
      ],
      [
        "▁law",
        "s"
      ],
      [
        "▁bar",
        "n"
      ],
      [
        "ess",
        "ion"
      ],
      [
        "▁proble",
        "m"
      ],
      [
        "▁c",
        "ity"
      ],
      [
        "▁r",
        "es"
      ],
      [
        "▁sh",
        "ows"
      ],
      [
        "▁him",
        "self"
      ],
      [
        "▁no",
        "thing"
      ],
      [
        "▁?",
        "??"
      ],
      [
        "f",
        "are"
      ],
      [
        "▁su",
        "ch"
      ],
      [
        "▁r",
        "ound"
      ],
      [
        "▁",
        ";"
      ],
      [
        "▁",
        "ent"
      ],
      [
        "if",
        "y"
      ],
      [
        "▁rep",
        "resent"
      ],
      [
        "e",
        "c"
      ],
      [
        "▁ex",
        "h"
      ],
      [
        "▁r",
        "un"
      ],
      [
        "▁cand",
        "id"
      ],
      [
        "▁m",
        "ake"
      ],
      [
        "u",
        "ff"
      ],
      [
        "▁l",
        "ines"
      ],
      [
        "▁a",
        "cross"
      ],
      [
        "▁v",
        "ote"
      ],
      [
        "▁n",
        "ot"
      ],
      [
        "c",
        "es"
      ],
      [
        "▁g",
        "ar"
      ],
      [
        "▁rev",
        "iew"
      ],
      [
        "ou",
        "s"
      ],
      [
        "n",
        "ed"
      ],
      [
        "▁sum",
        "mer"
      ],
      [
        "▁en",
        "c"
      ],
      [
        "▁stat",
        "es"
      ],
      [
        "▁ele",
        "v"
      ],
      [
        "▁c",
        "al"
      ],
      [
        "▁m",
        "is"
      ],
      [
        "i",
        "ve"
      ],
      [
        "▁som",
        "eth"
      ],
      [
        "j",
        "o"
      ],
      [
        "art",
        "ment"
      ],
      [
        "is",
        "ation"
      ],
      [
        "▁thre",
        "at"
      ],
      [
        "ali",
        "sm"
      ],
      [
        "----",
        "--"
      ],
      [
        "at",
        "ch"
      ],
      [
        "▁ch",
        "ar"
      ],
      [
        "▁dep",
        "art"
      ],
      [
        "▁wear",
        "ing"
      ],
      [
        "▁m",
        "ade"
      ],
      [
        "▁happen",
        "ing"
      ],
      [
        "▁w",
        "as"
      ],
      [
        "z",
        "a"
      ],
      [
        "▁mu",
        "s"
      ],
      [
        "u",
        "ally"
      ],
      [
        "▁sp",
        "ace"
      ],
      [
        "▁re",
        "as"
      ],
      [
        "k",
        "e"
      ],
      [
        "b",
        "r"
      ],
      [
        "▁d",
        "es"
      ],
      [
        "▁po",
        "int"
      ],
      [
        "iv",
        "id"
      ],
      [
        "▁al",
        "so"
      ],
      [
        "▁dinos",
        "aur"
      ],
      [
        "▁in",
        "cl"
      ],
      [
        "ol",
        "ution"
      ],
      [
        "▁commit",
        "tee"
      ],
      [
        ".",
        "c"
      ],
      [
        "▁b",
        "ea"
      ],
      [
        "▁citiz",
        "ens"
      ],
      [
        "e",
        "m"
      ],
      [
        "▁ev",
        "ent"
      ],
      [
        "▁s",
        "e"
      ],
      [
        "ot",
        "e"
      ],
      [
        "▁af",
        "ter"
      ],
      [
        "▁break",
        "f"
      ],
      [
        "▁your",
        "self"
      ],
      [
        "v",
        "ing"
      ],
      [
        "▁doc",
        "ument"
      ],
      [
        "▁",
        "p"
      ],
      [
        "▁str",
        "ing"
      ],
      [
        "id",
        "e"
      ],
      [
        "▁v",
        "s"
      ],
      [
        "▁tr",
        "aff"
      ],
      [
        "▁bud",
        "get"
      ],
      [
        "l",
        "d"
      ],
      [
        "▁mil",
        "lions"
      ],
      [
        "▁****",
        "*"
      ],
      [
        "u",
        "m"
      ],
      [
        "it",
        "ch"
      ],
      [
        "▁re",
        "l"
      ],
      [
        "▁f",
        "o"
      ],
      [
        "▁m",
        "ag"
      ],
      [
        "oo",
        "k"
      ],
      [
        "▁st",
        "ri"
      ],
      [
        "is",
        "l"
      ],
      [
        "▁f",
        "ill"
      ],
      [
        "▁!",
        "."
      ],
      [
        "▁colle",
        "ag"
      ],
      [
        "▁ben",
        "ef"
      ],
      [
        "p",
        "lus"
      ],
      [
        "▁th",
        "ou"
      ],
      [
        "v",
        "es"
      ],
      [
        "'",
        "clock"
      ],
      [
        "▁conf",
        "lic"
      ],
      [
        "▁min",
        "e"
      ],
      [
        "at",
        "ional"
      ],
      [
        "l",
        "ing"
      ],
      [
        "▁con",
        "v"
      ],
      [
        "i",
        "ation"
      ],
      [
        "an",
        "ced"
      ],
      [
        "▁l",
        "ive"
      ],
      [
        "▁m",
        "aint"
      ],
      [
        "▁disc",
        "us"
      ],
      [
        "t",
        "t"
      ],
      [
        ".",
        "m"
      ],
      [
        "▁discuss",
        "ion"
      ],
      [
        "▁particip",
        "ants"
      ],
      [
        "▁look",
        "ing"
      ],
      [
        "▁sk",
        "ills"
      ],
      [
        "▁",
        "one"
      ],
      [
        "l",
        "ar"
      ],
      [
        "l",
        "s"
      ],
      [
        "d",
        "er"
      ],
      [
        "▁conn",
        "ection"
      ],
      [
        "▁",
        "imp"
      ],
      [
        "▁see",
        "k"
      ],
      [
        "r",
        "or"
      ],
      [
        "▁o",
        "nly"
      ],
      [
        "l",
        "es"
      ],
      [
        "▁opportun",
        "ity"
      ],
      [
        "l",
        "ic"
      ],
      [
        "▁n",
        "ation"
      ],
      [
        "um",
        "e"
      ],
      [
        "▁t",
        "old"
      ],
      [
        "▁imp",
        "ort"
      ],
      [
        "▁pup",
        "p"
      ],
      [
        "▁be",
        "side"
      ],
      [
        "▁st",
        "ory"
      ],
      [
        "▁educ",
        "ation"
      ],
      [
        "▁",
        "t"
      ],
      [
        "▁lea",
        "ve"
      ],
      [
        "s",
        "ed"
      ],
      [
        "▁",
        "for"
      ],
      [
        "▁l",
        "e"
      ],
      [
        "ligh",
        "ts"
      ],
      [
        "▁s",
        "me"
      ],
      [
        "▁y",
        "our"
      ],
      [
        "ic",
        "ation"
      ],
      [
        "▁b",
        "alt"
      ],
      [
        "▁",
        "1"
      ],
      [
        "t",
        "h"
      ],
      [
        "i",
        "l"
      ],
      [
        "▁sect",
        "or"
      ],
      [
        "▁isl",
        "and"
      ],
      [
        "▁he",
        "r"
      ],
      [
        "▁bott",
        "le"
      ],
      [
        "▁mil",
        "it"
      ],
      [
        "▁cli",
        "mate"
      ],
      [
        "ri",
        "ed"
      ],
      [
        "for",
        "med"
      ],
      [
        "▁p",
        "our"
      ],
      [
        "▁coun",
        "t"
      ],
      [
        "▁m",
        "ot"
      ],
      [
        "▁co",
        "mb"
      ],
      [
        "u",
        "n"
      ],
      [
        "o",
        "r"
      ],
      [
        "▁r",
        "o"
      ],
      [
        "a",
        "ds"
      ],
      [
        "ll",
        "ow"
      ],
      [
        "i",
        "de"
      ],
      [
        "▁mem",
        "bers"
      ],
      [
        "▁re",
        "sul"
      ],
      [
        "▁",
        "wh"
      ],
      [
        "▁nume",
        "rous"
      ],
      [
        "▁forg",
        "et"
      ],
      [
        "▁m",
        "ech"
      ],
      [
        "▁id",
        "ea"
      ],
      [
        "▁ch",
        "arl"
      ],
      [
        "lo",
        "w"
      ],
      [
        "▁beg",
        "in"
      ],
      [
        "▁air",
        "craft"
      ],
      [
        "▁furn",
        "iture"
      ],
      [
        "▁mis",
        "s"
      ],
      [
        "▁ey",
        "e"
      ],
      [
        "▁s",
        "w"
      ],
      [
        "c",
        "o"
      ],
      [
        "▁w",
        "on"
      ],
      [
        "▁t",
        "ent"
      ],
      [
        "ep",
        "end"
      ],
      [
        "▁g",
        "o"
      ],
      [
        "▁r",
        "ights"
      ],
      [
        "▁organ",
        "iz"
      ],
      [
        "▁philadel",
        "phia"
      ],
      [
        "▁h",
        "am"
      ],
      [
        "▁laur",
        "a"
      ],
      [
        "▁[...",
        "]"
      ],
      [
        "▁conc",
        "er"
      ],
      [
        "▁s",
        "ide"
      ],
      [
        "▁writ",
        "e"
      ],
      [
        "▁",
        "and"
      ],
      [
        "▁see",
        "m"
      ],
      [
        "m",
        "on"
      ],
      [
        "her",
        "e"
      ],
      [
        "▁tr",
        "ad"
      ],
      [
        "▁tha",
        "n"
      ],
      [
        "ve",
        "st"
      ],
      [
        "▁ever",
        "ything"
      ],
      [
        "▁tw",
        "o"
      ],
      [
        "ak",
        "e"
      ],
      [
        "▁wal",
        "k"
      ],
      [
        "▁not",
        "ic"
      ],
      [
        "▁s",
        "uch"
      ],
      [
        "▁",
        "****"
      ],
      [
        "an",
        "k"
      ],
      [
        "▁d",
        "o"
      ],
      [
        "e",
        "ti"
      ],
      [
        "o",
        "d"
      ],
      [
        "ens",
        "e"
      ],
      [
        "▁deter",
        "m"
      ],
      [
        "▁a",
        "r"
      ],
      [
        "▁co",
        "st"
      ],
      [
        "d",
        "uc"
      ],
      [
        "▁continu",
        "e"
      ],
      [
        "ag",
        "on"
      ],
      [
        "▁b",
        "oard"
      ],
      [
        "▁stand",
        "ards"
      ],
      [
        "▁mathema",
        "tics"
      ],
      [
        "▁hum",
        "an"
      ],
      [
        "▁show",
        "ed"
      ],
      [
        "▁toward",
        "s"
      ],
      [
        "ro",
        "p"
      ],
      [
        "▁af",
        "t"
      ],
      [
        "▁f",
        "ri"
      ],
      [
        "▁b",
        "os"
      ],
      [
        "▁depart",
        "ment"
      ],
      [
        "▁c",
        "er"
      ],
      [
        "▁tr",
        "ying"
      ],
      [
        "r",
        "ol"
      ],
      [
        "am",
        "es"
      ],
      [
        "▁manag",
        "ement"
      ],
      [
        "p",
        "h"
      ],
      [
        "▁v",
        "ol"
      ],
      [
        "▁te",
        "ach"
      ],
      [
        "end",
        "er"
      ],
      [
        "ec",
        "ting"
      ],
      [
        "▁e",
        "x"
      ],
      [
        "▁far",
        "e"
      ],
      [
        "li",
        "g"
      ],
      [
        "▁pe",
        "p"
      ],
      [
        "o",
        "s"
      ],
      [
        "▁de",
        "s"
      ],
      [
        "▁foc",
        "us"
      ],
      [
        "▁i",
        "f"
      ],
      [
        "ili",
        "ties"
      ],
      [
        "▁com",
        "m"
      ],
      [
        "▁ball",
        "oon"
      ],
      [
        "▁vs",
        "."
      ],
      [
        "▁be",
        "neath"
      ],
      [
        "▁li",
        "ked"
      ],
      [
        "▁h",
        "our"
      ],
      [
        "i",
        "tion"
      ],
      [
        "▁wond",
        "er"
      ],
      [
        "▁gr",
        "ass"
      ],
      [
        "▁happ",
        "en"
      ],
      [
        "er",
        "ved"
      ],
      [
        "▁sand",
        "wic"
      ],
      [
        "▁a",
        "d"
      ],
      [
        "o",
        "un"
      ],
      [
        "i",
        "ch"
      ],
      [
        "▁c",
        "are"
      ],
      [
        "l",
        "o"
      ],
      [
        "get",
        "her"
      ],
      [
        "ur",
        "ned"
      ],
      [
        "▁",
        "*"
      ],
      [
        "▁mean",
        "t"
      ],
      [
        "▁pres",
        "sure"
      ],
      [
        "j",
        "ects"
      ],
      [
        "▁he",
        "alth"
      ],
      [
        "ou",
        "ld"
      ],
      [
        "at",
        "h"
      ],
      [
        "▁se",
        "con"
      ],
      [
        "▁sto",
        "pped"
      ],
      [
        "▁w",
        "a"
      ],
      [
        "it",
        "t"
      ],
      [
        "▁b",
        "orn"
      ],
      [
        "es",
        "sed"
      ],
      [
        "▁ren",
        "t"
      ],
      [
        "▁befor",
        "e"
      ],
      [
        "▁dec",
        "ide"
      ],
      [
        "▁m",
        "ust"
      ],
      [
        "h",
        "uh"
      ],
      [
        "▁per",
        "iod"
      ],
      [
        "▁gu",
        "id"
      ],
      [
        "▁c",
        "ode"
      ],
      [
        "m",
        "a"
      ],
      [
        "▁look",
        "ed"
      ],
      [
        "u",
        "it"
      ],
      [
        "u",
        "ty"
      ],
      [
        "ut",
        "e"
      ],
      [
        "▁re",
        "port"
      ],
      [
        "▁v",
        "al"
      ],
      [
        "▁m",
        "em"
      ],
      [
        "ic",
        "tion"
      ],
      [
        "en",
        "ing"
      ],
      [
        "▁b",
        "lan"
      ],
      [
        "b",
        "o"
      ],
      [
        "▁ab",
        "out"
      ],
      [
        "u",
        "ation"
      ],
      [
        "g",
        "u"
      ],
      [
        "e",
        "as"
      ],
      [
        "if",
        "ied"
      ],
      [
        "c",
        "k"
      ],
      [
        "▁s",
        "ur"
      ],
      [
        "▁ex",
        "pos"
      ],
      [
        "th",
        "in"
      ],
      [
        "▁m",
        "od"
      ],
      [
        "ei",
        "ther"
      ],
      [
        "it",
        "h"
      ],
      [
        "▁mic",
        "ro"
      ],
      [
        "os",
        "s"
      ],
      [
        "▁other",
        "s"
      ],
      [
        "▁mag",
        "ic"
      ],
      [
        "▁peop",
        "les"
      ],
      [
        "i",
        "ver"
      ],
      [
        "▁exper",
        "ien"
      ],
      [
        "▁",
        "i"
      ],
      [
        "ti",
        "es"
      ],
      [
        "il",
        "d"
      ],
      [
        "c",
        "ri"
      ],
      [
        "▁exper",
        "i"
      ],
      [
        "▁in",
        "te"
      ],
      [
        "▁do",
        "c"
      ],
      [
        "▁resul",
        "ts"
      ],
      [
        "▁man",
        "ag"
      ],
      [
        "’",
        "t"
      ],
      [
        "▁g",
        "ri"
      ],
      [
        "▁gir",
        "l"
      ],
      [
        "▁t",
        "ank"
      ],
      [
        "▁",
        "j"
      ],
      [
        "▁at",
        "lan"
      ],
      [
        "▁conc",
        "lu"
      ],
      [
        "▁play",
        "s"
      ],
      [
        "c",
        "c"
      ],
      [
        "▁br",
        "ain"
      ],
      [
        "▁j",
        "www"
      ],
      [
        "m",
        "b"
      ],
      [
        "▁sound",
        "s"
      ],
      [
        "n",
        "er"
      ],
      [
        "u",
        "l"
      ],
      [
        "▁c",
        "os"
      ],
      [
        "▁f",
        "elt"
      ],
      [
        "▁p",
        "ers"
      ],
      [
        "▁ro",
        "b"
      ],
      [
        "▁’",
        "’"
      ],
      [
        "▁en",
        "em"
      ],
      [
        "▁re",
        "p"
      ],
      [
        "▁conf",
        "ir"
      ],
      [
        "▁",
        "ne"
      ],
      [
        "c",
        "ally"
      ],
      [
        "t",
        "ee"
      ],
      [
        "▁s",
        "u"
      ],
      [
        "▁ve",
        "hic"
      ],
      [
        "▁p",
        "ush"
      ],
      [
        "▁with",
        "in"
      ],
      [
        "i",
        "ent"
      ],
      [
        "▁ne",
        "w"
      ],
      [
        "▁inf",
        "lu"
      ],
      [
        "▁diff",
        "icul"
      ],
      [
        "ati",
        "s"
      ],
      [
        "▁",
        "en"
      ],
      [
        "▁ex",
        "am"
      ],
      [
        "▁off",
        "ici"
      ],
      [
        "▁",
        "–"
      ],
      [
        "en",
        "ds"
      ],
      [
        "g",
        "an"
      ],
      [
        "▁ho",
        "pe"
      ],
      [
        "ur",
        "ch"
      ],
      [
        "▁",
        "yet"
      ],
      [
        "nd",
        "ing"
      ],
      [
        "▁th",
        "e"
      ],
      [
        "▁fir",
        "st"
      ],
      [
        "iz",
        "e"
      ],
      [
        "▁r",
        "is"
      ],
      [
        "▁sa",
        "w"
      ],
      [
        "▁cent",
        "er"
      ],
      [
        "▁y",
        "ester"
      ],
      [
        "i",
        "lity"
      ],
      [
        "on",
        "es"
      ],
      [
        "▁wor",
        "ds"
      ],
      [
        "▁par",
        "ents"
      ],
      [
        "▁corn",
        "er"
      ],
      [
        "▁neighb",
        "or"
      ],
      [
        "▁repres",
        "ent"
      ],
      [
        "▁un",
        "to"
      ],
      [
        "▁in",
        "c"
      ],
      [
        "▁t",
        "yp"
      ],
      [
        "▁r",
        "ul"
      ],
      [
        "▁cla",
        "im"
      ],
      [
        "▁be",
        "at"
      ],
      [
        "▁t",
        "e"
      ],
      [
        "▁inter",
        "n"
      ],
      [
        "▁st",
        "at"
      ],
      [
        "n",
        "ly"
      ],
      [
        "▁govern",
        "ment"
      ],
      [
        "▁c",
        "orn"
      ],
      [
        "▁l",
        "ack"
      ],
      [
        "j",
        "ec"
      ],
      [
        "in",
        "a"
      ],
      [
        "ll",
        "ing"
      ],
      [
        "▁as",
        "k"
      ],
      [
        "▁ter",
        "m"
      ],
      [
        "▁notic",
        "e"
      ],
      [
        "al",
        "th"
      ],
      [
        "i",
        "p"
      ],
      [
        "▁re",
        "t"
      ],
      [
        "▁ev",
        "en"
      ],
      [
        "▁wh",
        "at"
      ],
      [
        "is",
        "t"
      ],
      [
        "▁rem",
        "ain"
      ],
      [
        "or",
        "ies"
      ],
      [
        "▁wi",
        "ll"
      ],
      [
        "▁plan",
        "e"
      ],
      [
        "▁c",
        "all"
      ],
      [
        "iv",
        "al"
      ],
      [
        "▁tr",
        "ain"
      ],
      [
        "mit",
        "ted"
      ],
      [
        "amp",
        "le"
      ],
      [
        "oin",
        "t"
      ],
      [
        "▁mo",
        "de"
      ],
      [
        "▁",
        "cer"
      ],
      [
        "▁d",
        "is"
      ],
      [
        "▁h",
        "igh"
      ],
      [
        "olog",
        "y"
      ],
      [
        "▁wh",
        "ile"
      ],
      [
        "▁to",
        "ward"
      ],
      [
        "▁s",
        "an"
      ],
      [
        "ott",
        "able"
      ],
      [
        "▁ho",
        "us"
      ],
      [
        "▁",
        "‘"
      ],
      [
        "ist",
        "s"
      ],
      [
        "▁c",
        "oup"
      ],
      [
        "▁v",
        "iew"
      ],
      [
        "way",
        "s"
      ],
      [
        "us",
        "ing"
      ],
      [
        "▁d",
        "'"
      ],
      [
        "....",
        "...."
      ],
      [
        "▁p",
        "ill"
      ],
      [
        "▁w",
        "h"
      ],
      [
        "▁s",
        "qu"
      ],
      [
        "▁m",
        "oney"
      ],
      [
        "▁pro",
        "per"
      ],
      [
        "▁in",
        "iti"
      ],
      [
        "▁pupp",
        "y"
      ],
      [
        "▁dep",
        "ar"
      ],
      [
        "▁en",
        "ab"
      ],
      [
        "▁no",
        "tice"
      ],
      [
        "▁eff",
        "ect"
      ],
      [
        "▁do",
        "n"
      ],
      [
        "▁ever",
        "y"
      ],
      [
        "▁ti",
        "ger"
      ],
      [
        "▁allow",
        "ed"
      ],
      [
        "ul",
        "ture"
      ],
      [
        "▁for",
        "ces"
      ],
      [
        "us",
        "s"
      ],
      [
        "▁techn",
        "ologies"
      ],
      [
        "▁dec",
        "ades"
      ],
      [
        "o",
        "mp"
      ],
      [
        "▁st",
        "ore"
      ],
      [
        "us",
        "es"
      ],
      [
        "▁p",
        "ort"
      ],
      [
        "▁sh",
        "ut"
      ],
      [
        "▁un",
        "derstanding"
      ],
      [
        "▁dr",
        "aw"
      ],
      [
        "oc",
        "ks"
      ],
      [
        "▁h",
        "ist"
      ],
      [
        "u",
        "tion"
      ],
      [
        "▁stud",
        "ent"
      ],
      [
        "▁issu",
        "e"
      ],
      [
        "ou",
        "n"
      ],
      [
        "i",
        "t"
      ],
      [
        "▁l",
        "ook"
      ],
      [
        "g",
        "ing"
      ],
      [
        "▁",
        "ur"
      ],
      [
        "h",
        "er"
      ],
      [
        "ar",
        "ds"
      ],
      [
        "▁",
        "ones"
      ],
      [
        "act",
        "ers"
      ],
      [
        "..",
        "."
      ],
      [
        "▁me",
        "m"
      ],
      [
        "▁obs",
        "erved"
      ],
      [
        "▁n",
        "one"
      ],
      [
        "▁sour",
        "ce"
      ],
      [
        "en",
        "ed"
      ],
      [
        "rou",
        "nd"
      ],
      [
        "▁we",
        "ll"
      ],
      [
        "▁t",
        "i"
      ],
      [
        "om",
        "m"
      ],
      [
        "▁..",
        "."
      ],
      [
        "▁underst",
        "and"
      ],
      [
        "▁seas",
        "on"
      ],
      [
        "▁resp",
        "ect"
      ],
      [
        "▁d",
        "ie"
      ],
      [
        "▁w",
        "ater"
      ],
      [
        "o",
        "ld"
      ],
      [
        "g",
        "es"
      ],
      [
        "l",
        "y"
      ],
      [
        "▁m",
        "a"
      ],
      [
        "over",
        "n"
      ],
      [
        "▁pie",
        "ce"
      ],
      [
        "em",
        "a"
      ],
      [
        "▁r",
        "iver"
      ],
      [
        "▁qu",
        "ino"
      ],
      [
        "▁acc",
        "ep"
      ],
      [
        "▁pos",
        "s"
      ],
      [
        "▁rememb",
        "er"
      ],
      [
        "▁transport",
        "ation"
      ],
      [
        "cr",
        "aft"
      ],
      [
        "▁menti",
        "on"
      ],
      [
        "▁t",
        "w"
      ],
      [
        "▁mar",
        "ket"
      ],
      [
        "c",
        "le"
      ],
      [
        "e",
        "ment"
      ],
      [
        "▁agre",
        "ement"
      ],
      [
        "e",
        "ver"
      ],
      [
        "k",
        "ing"
      ],
      [
        "▁app",
        "rec"
      ],
      [
        "▁n",
        "’t"
      ],
      [
        "▁diff",
        "erences"
      ],
      [
        "▁d",
        "oor"
      ],
      [
        "▁g",
        "ot"
      ],
      [
        "n",
        "ess"
      ],
      [
        "▁",
        "u"
      ],
      [
        "ul",
        "ations"
      ],
      [
        "▁r",
        "ec"
      ],
      [
        "▁pl",
        "ay"
      ],
      [
        "▁o",
        "bs"
      ],
      [
        "▁det",
        "ails"
      ],
      [
        "▁s",
        "ing"
      ],
      [
        "ell",
        "y"
      ],
      [
        "▁w",
        "ell"
      ],
      [
        "▁anal",
        "ys"
      ],
      [
        "re",
        "ss"
      ],
      [
        "▁",
        "<"
      ],
      [
        "id",
        "ing"
      ],
      [
        "▁is",
        "land"
      ],
      [
        "▁fi",
        "le"
      ],
      [
        "▁...............",
        "...."
      ],
      [
        "▁behavi",
        "or"
      ],
      [
        "▁li",
        "ght"
      ],
      [
        "e",
        "a"
      ],
      [
        "k",
        "es"
      ],
      [
        "▁ch",
        "ance"
      ],
      [
        "▁is",
        "l"
      ],
      [
        "▁colle",
        "ge"
      ],
      [
        "i",
        "ce"
      ],
      [
        "▁proble",
        "ms"
      ],
      [
        "▁year",
        "s"
      ],
      [
        "ot",
        "es"
      ],
      [
        "▁att",
        "ached"
      ],
      [
        "▁f",
        "em"
      ],
      [
        "▁s",
        "ound"
      ],
      [
        "id",
        "es"
      ],
      [
        "▁describ",
        "e"
      ],
      [
        "▁a",
        "te"
      ],
      [
        "b",
        "oth"
      ],
      [
        "-",
        "-"
      ],
      [
        "▁",
        "op"
      ],
      [
        "▁s",
        "un"
      ],
      [
        "▁ad",
        "ults"
      ],
      [
        "▁pre",
        "p"
      ],
      [
        "▁ch",
        "ec"
      ],
      [
        "o",
        "c"
      ],
      [
        "or",
        "ds"
      ],
      [
        "▁disp",
        "l"
      ],
      [
        "▁fl",
        "ag"
      ],
      [
        "▁f",
        "ro"
      ],
      [
        "▁com",
        "mit"
      ],
      [
        "▁h",
        "ome"
      ],
      [
        "▁ou",
        "ght"
      ],
      [
        "▁",
        "cha"
      ],
      [
        "▁arg",
        "ument"
      ],
      [
        "i",
        "ble"
      ],
      [
        "ation",
        "s"
      ],
      [
        "▁di",
        "rec"
      ],
      [
        "▁sh",
        "irt"
      ],
      [
        "▁diff",
        "erent"
      ],
      [
        "▁o",
        "cc"
      ],
      [
        "▁b",
        "ub"
      ],
      [
        "▁p",
        "ri"
      ],
      [
        "▁say",
        "ing"
      ],
      [
        "▁",
        "fir"
      ],
      [
        "e",
        "b"
      ],
      [
        "er",
        "gy"
      ],
      [
        "▁ever",
        "ybody"
      ],
      [
        "ar",
        "ed"
      ],
      [
        "▁appl",
        "ied"
      ],
      [
        "as",
        "e"
      ],
      [
        "▁der",
        "e"
      ],
      [
        "▁bl",
        "ock"
      ],
      [
        "▁bl",
        "ood"
      ],
      [
        "▁pa",
        "ul"
      ],
      [
        "▁f",
        "ore"
      ],
      [
        "u",
        "ck"
      ],
      [
        "▁datab",
        "ase"
      ],
      [
        "e",
        "p"
      ],
      [
        "um",
        "s"
      ],
      [
        "▁wan",
        "t"
      ],
      [
        "▁c",
        "atch"
      ],
      [
        "▁attemp",
        "t"
      ],
      [
        "▁im",
        "m"
      ],
      [
        "iv",
        "er"
      ],
      [
        "ic",
        "e"
      ],
      [
        "o",
        "m"
      ],
      [
        "j",
        "www"
      ],
      [
        "▁a",
        "ff"
      ],
      [
        "f",
        "e"
      ],
      [
        "▁p",
        "ick"
      ],
      [
        "▁tal",
        "king"
      ],
      [
        "▁un",
        "til"
      ],
      [
        "▁ev",
        "ents"
      ],
      [
        "▁wor",
        "k"
      ],
      [
        "▁t",
        "ow"
      ],
      [
        "▁ser",
        "ve"
      ],
      [
        "▁a",
        "c"
      ],
      [
        "▁sch",
        "ool"
      ],
      [
        "▁comm",
        "un"
      ],
      [
        "▁pre",
        "t"
      ],
      [
        "es",
        "day"
      ],
      [
        "▁ris",
        "k"
      ],
      [
        "▁langu",
        "ages"
      ],
      [
        "h",
        "ere"
      ],
      [
        "▁inclu",
        "ding"
      ],
      [
        "ac",
        "e"
      ],
      [
        "sel",
        "f"
      ],
      [
        "▁g",
        "as"
      ],
      [
        "o",
        "y"
      ],
      [
        "▁de",
        "y"
      ],
      [
        "b",
        "le"
      ],
      [
        "ti",
        "c"
      ],
      [
        "en",
        "c"
      ],
      [
        "▁pl",
        "aced"
      ],
      [
        "▁r",
        "em"
      ],
      [
        "▁spe",
        "aking"
      ],
      [
        "▁t",
        "ur"
      ],
      [
        "▁sup",
        "p"
      ],
      [
        "▁c",
        "ost"
      ],
      [
        "▁ex",
        "ist"
      ],
      [
        "▁sk",
        "in"
      ],
      [
        "▁di",
        "s"
      ],
      [
        "ough",
        "t"
      ],
      [
        "▁c",
        "ut"
      ],
      [
        "▁id",
        "ent"
      ],
      [
        "g",
        "o"
      ],
      [
        "c",
        "l"
      ],
      [
        "▁pr",
        "ot"
      ],
      [
        "r",
        "ation"
      ],
      [
        "▁hund",
        "reds"
      ],
      [
        "▁in",
        "it"
      ],
      [
        "▁rep",
        "ort"
      ],
      [
        "on",
        "om"
      ],
      [
        "if",
        "f"
      ],
      [
        "g",
        "ed"
      ],
      [
        "ou",
        "l"
      ],
      [
        "▁w",
        "ee"
      ],
      [
        "ath",
        "er"
      ],
      [
        "▁!!!!!!!",
        "!!!"
      ],
      [
        "▁arri",
        "ving"
      ],
      [
        "▁ey",
        "es"
      ],
      [
        "e",
        "t"
      ],
      [
        "▁fe",
        "w"
      ],
      [
        "▁a",
        "m"
      ],
      [
        "▁pas",
        "sed"
      ],
      [
        "▁wil",
        "t"
      ],
      [
        "▁read",
        "ing"
      ],
      [
        "▁h",
        "om"
      ],
      [
        "▁insur",
        "ance"
      ],
      [
        "e",
        "re"
      ],
      [
        "▁pr",
        "inc"
      ],
      [
        "▁mod",
        "el"
      ],
      [
        "▁mat",
        "ch"
      ],
      [
        "▁menti",
        "oned"
      ],
      [
        "▁d",
        "ust"
      ],
      [
        "▁hear",
        "d"
      ],
      [
        "ro",
        "u"
      ],
      [
        "▁sl",
        "eep"
      ],
      [
        "it",
        "her"
      ],
      [
        "-",
        "m"
      ],
      [
        "a",
        "v"
      ],
      [
        "▁news",
        "p"
      ],
      [
        "ti",
        "m"
      ],
      [
        "▁c",
        "oo"
      ],
      [
        "▁-",
        "----------------"
      ],
      [
        "ak",
        "es"
      ],
      [
        "▁at",
        "t"
      ],
      [
        "▁d",
        "em"
      ],
      [
        "or",
        "ed"
      ],
      [
        "▁sh",
        "e"
      ],
      [
        "▁t",
        "u"
      ],
      [
        "▁piv",
        "ottable"
      ],
      [
        "o",
        "n"
      ],
      [
        "ain",
        "s"
      ],
      [
        "av",
        "or"
      ],
      [
        "▁b",
        "ank"
      ],
      [
        "▁c",
        "over"
      ],
      [
        "ove",
        "r"
      ],
      [
        "▁qu",
        "ar"
      ],
      [
        "▁",
        "est"
      ],
      [
        "▁---------------------------------",
        "----------------"
      ],
      [
        "▁",
        "."
      ],
      [
        "▁sal",
        "t"
      ],
      [
        "▁li",
        "m"
      ],
      [
        "▁off",
        "ice"
      ],
      [
        "▁rec",
        "ord"
      ],
      [
        "▁qu",
        "es"
      ],
      [
        "▁s",
        "o"
      ],
      [
        "▁inn",
        "ov"
      ],
      [
        "ic",
        "i"
      ],
      [
        "▁com",
        "ment"
      ],
      [
        "▁pro",
        "p"
      ],
      [
        "▁ha",
        "v"
      ],
      [
        "▁af",
        "ternoon"
      ],
      [
        "ack",
        "et"
      ],
      [
        "al",
        "f"
      ],
      [
        "i",
        "en"
      ],
      [
        "▁",
        "cause"
      ],
      [
        "re",
        "w"
      ],
      [
        "ar",
        "k"
      ],
      [
        "ac",
        "ts"
      ],
      [
        "▁e",
        "dit"
      ],
      [
        "▁re",
        "memb"
      ],
      [
        "▁spe",
        "ed"
      ],
      [
        "▁m",
        "ater"
      ],
      [
        "▁ad",
        "am"
      ],
      [
        "▁me",
        "as"
      ],
      [
        "▁mem",
        "ory"
      ],
      [
        "▁da",
        "t"
      ],
      [
        "un",
        "ch"
      ],
      [
        "e",
        "f"
      ],
      [
        "▁conflic",
        "t"
      ],
      [
        "▁d",
        "ied"
      ],
      [
        "▁comp",
        "on"
      ],
      [
        "▁t",
        "op"
      ],
      [
        "▁ne",
        "ar"
      ],
      [
        "▁a",
        "way"
      ],
      [
        "▁def",
        "ense"
      ],
      [
        "▁mo",
        "t"
      ],
      [
        "▁m",
        "ission"
      ],
      [
        "▁m",
        "et"
      ],
      [
        "▁far",
        "es"
      ],
      [
        "w",
        "s"
      ],
      [
        "▁mo",
        "re"
      ],
      [
        "▁det",
        "ail"
      ],
      [
        "ic",
        "ide"
      ],
      [
        "for",
        "m"
      ],
      [
        "▁pe",
        "op"
      ],
      [
        "i",
        "ther"
      ],
      [
        "l",
        "l"
      ],
      [
        "▁de",
        "li"
      ],
      [
        "▁we",
        "ap"
      ],
      [
        "▁ca",
        "used"
      ],
      [
        "▁s",
        "/he"
      ],
      [
        "il",
        "y"
      ],
      [
        "▁fac",
        "ts"
      ],
      [
        "t",
        "ers"
      ],
      [
        "▁sh",
        "ower"
      ],
      [
        "▁b",
        "e"
      ],
      [
        "▁v",
        "oice"
      ],
      [
        "▁birth",
        "day"
      ],
      [
        "▁ar",
        "r"
      ],
      [
        "oo",
        "t"
      ],
      [
        "it",
        "ies"
      ],
      [
        "ut",
        "ing"
      ],
      [
        "▁p",
        "er"
      ],
      [
        "▁",
        "lights"
      ],
      [
        "▁",
        "use"
      ],
      [
        "▁independ",
        "ence"
      ],
      [
        "▁n",
        "ever"
      ],
      [
        "▁dr",
        "ess"
      ],
      [
        "▁ins",
        "p"
      ],
      [
        "▁pro",
        "t"
      ],
      [
        "▁be",
        "h"
      ],
      [
        "n",
        "ut"
      ],
      [
        "▁bri",
        "dge"
      ],
      [
        "▁imag",
        "ine"
      ],
      [
        "▁conf",
        "erence"
      ],
      [
        "▁g",
        "on"
      ],
      [
        "e",
        "et"
      ],
      [
        "▁cond",
        "ition"
      ],
      [
        "▁ca",
        "ught"
      ],
      [
        "▁o",
        "ak"
      ],
      [
        "▁aug",
        "ust"
      ],
      [
        "o",
        "ve"
      ],
      [
        "▁com",
        "b"
      ],
      [
        "ke",
        "ts"
      ],
      [
        "▁",
        "·"
      ],
      [
        "▁t",
        "r"
      ],
      [
        "h",
        "in"
      ],
      [
        "▁c",
        "iv"
      ],
      [
        "w",
        "or"
      ],
      [
        "▁th",
        "rou"
      ],
      [
        "ou",
        "ch"
      ],
      [
        "▁estab",
        "lish"
      ],
      [
        "▁rememb",
        "ered"
      ],
      [
        "▁re",
        "st"
      ],
      [
        "▁b",
        "ac"
      ],
      [
        "an",
        "ge"
      ],
      [
        "▁g",
        "ard"
      ],
      [
        "▁ob",
        "ject"
      ],
      [
        "▁p",
        "aper"
      ],
      [
        "▁com",
        "p"
      ],
      [
        "▁under",
        "st"
      ],
      [
        "▁child",
        "ren"
      ],
      [
        "oc",
        "ol"
      ],
      [
        "▁d",
        "own"
      ],
      [
        "▁los",
        "e"
      ],
      [
        "▁par",
        "k"
      ],
      [
        "▁ki",
        "lled"
      ],
      [
        "ti",
        "le"
      ],
      [
        "▁e",
        "qu"
      ],
      [
        "▁ev",
        "ery"
      ],
      [
        "a",
        "ign"
      ],
      [
        "augh",
        "ter"
      ],
      [
        "▁e",
        "ach"
      ],
      [
        "▁n",
        "ow"
      ],
      [
        "▁sho",
        "e"
      ],
      [
        "▁ever",
        "yone"
      ],
      [
        "▁pro",
        "f"
      ],
      [
        "▁rec",
        "omm"
      ],
      [
        "▁e",
        "r"
      ],
      [
        "▁wh",
        "ose"
      ],
      [
        "en",
        "ti"
      ],
      [
        "▁stat",
        "ement"
      ],
      [
        "▁poin",
        "t"
      ],
      [
        "▁import",
        "ance"
      ],
      [
        "▁gro",
        "up"
      ],
      [
        "ca",
        "use"
      ],
      [
        "▁s",
        "k"
      ],
      [
        "h",
        "a"
      ],
      [
        "▁produc",
        "ts"
      ],
      [
        "▁acc",
        "ess"
      ],
      [
        "▁mean",
        "ing"
      ],
      [
        "iz",
        "ing"
      ],
      [
        "▁cop",
        "y"
      ],
      [
        "▁r",
        "a"
      ],
      [
        "▁win",
        "ter"
      ],
      [
        "▁l",
        "iving"
      ],
      [
        "▁b",
        "i"
      ],
      [
        "u",
        "me"
      ],
      [
        "li",
        "gh"
      ],
      [
        "t",
        "ed"
      ],
      [
        "▁pl",
        "aces"
      ],
      [
        "w",
        "ork"
      ],
      [
        "▁dec",
        "ided"
      ],
      [
        "c",
        "a"
      ],
      [
        "▁ar",
        "ound"
      ],
      [
        "▁ca",
        "re"
      ],
      [
        "▁s",
        "c"
      ],
      [
        "▁num",
        "ber"
      ],
      [
        "▁li",
        "ve"
      ],
      [
        "▁rev",
        "en"
      ],
      [
        "it",
        "led"
      ],
      [
        "▁webs",
        "ite"
      ],
      [
        "▁",
        "o"
      ],
      [
        "▁h",
        "er"
      ],
      [
        "▁dog",
        "g"
      ],
      [
        "ri",
        "b"
      ],
      [
        "**",
        "**"
      ],
      [
        "▁fre",
        "edom"
      ],
      [
        "▁c",
        "e"
      ],
      [
        "▁pro",
        "ble"
      ],
      [
        "▁t",
        "ar"
      ],
      [
        "▁",
        "ed"
      ],
      [
        "▁e",
        "d"
      ],
      [
        "o",
        "l"
      ],
      [
        "▁in",
        "ter"
      ],
      [
        "▁",
        "light"
      ],
      [
        "▁bac",
        "k"
      ],
      [
        "▁bec",
        "ause"
      ],
      [
        "▁n",
        "oon"
      ],
      [
        "▁dr",
        "aft"
      ],
      [
        "▁ch",
        "a"
      ],
      [
        "▁********************************",
        "****************"
      ],
      [
        "▁",
        "here"
      ],
      [
        "▁wait",
        "ing"
      ],
      [
        "▁d",
        "a"
      ],
      [
        "▁up",
        "d"
      ],
      [
        "▁f",
        "re"
      ],
      [
        "▁fe",
        "el"
      ],
      [
        "ol",
        "og"
      ],
      [
        "▁b",
        "en"
      ],
      [
        "ati",
        "ve"
      ],
      [
        "▁s",
        "he"
      ],
      [
        "a",
        "in"
      ],
      [
        "▁iss",
        "ue"
      ],
      [
        "▁hors",
        "ie"
      ],
      [
        "▁do",
        "ub"
      ],
      [
        "▁p",
        "at"
      ],
      [
        "ing",
        "s"
      ],
      [
        "▁s",
        "m"
      ],
      [
        "▁some",
        "one"
      ],
      [
        "▁_",
        "____"
      ],
      [
        "i",
        "ents"
      ],
      [
        "▁p",
        "ath"
      ],
      [
        "▁propos",
        "al"
      ],
      [
        "▁rep",
        "air"
      ],
      [
        "▁res",
        "p"
      ],
      [
        "un",
        "t"
      ],
      [
        "u",
        "ding"
      ],
      [
        "l",
        "ished"
      ],
      [
        "----",
        "----"
      ],
      [
        "▁s",
        "y"
      ],
      [
        "▁rest",
        "aur"
      ],
      [
        "i",
        "an"
      ],
      [
        "ou",
        "p"
      ],
      [
        "▁a",
        "l"
      ],
      [
        "e",
        "ther"
      ],
      [
        "▁p",
        "ro"
      ],
      [
        "▁to",
        "u"
      ],
      [
        "▁recomm",
        "ended"
      ],
      [
        "▁d",
        "ay"
      ],
      [
        "▁know",
        "ledge"
      ],
      [
        "▁saf",
        "ety"
      ],
      [
        "▁u",
        "s"
      ],
      [
        "w",
        "hether"
      ],
      [
        "▁k",
        "id"
      ],
      [
        "▁ob",
        "s"
      ],
      [
        "▁dri",
        "ving"
      ],
      [
        "▁de",
        "gre"
      ],
      [
        "▁s",
        "ched"
      ],
      [
        "oun",
        "ts"
      ],
      [
        "▁h",
        "um"
      ],
      [
        "in",
        "g"
      ],
      [
        "▁!!!",
        "!!!!!!!!"
      ],
      [
        "▁b",
        "ased"
      ],
      [
        "▁ter",
        "ms"
      ],
      [
        "▁att",
        "ack"
      ],
      [
        "▁di",
        "ff"
      ],
      [
        "ec",
        "tion"
      ],
      [
        "▁ac",
        "tions"
      ],
      [
        "i",
        "fe"
      ],
      [
        "▁th",
        "ir"
      ],
      [
        "▁keep",
        "ing"
      ],
      [
        "▁e",
        "very"
      ],
      [
        "ar",
        "ly"
      ],
      [
        "▁school",
        "s"
      ],
      [
        "p",
        "ort"
      ],
      [
        "▁hi",
        "gh"
      ],
      [
        "ic",
        "an"
      ],
      [
        "▁environ",
        "ment"
      ],
      [
        "▁g",
        "one"
      ],
      [
        "▁ke",
        "y"
      ],
      [
        "▁",
        "z"
      ],
      [
        "ec",
        "tive"
      ],
      [
        "is",
        "ing"
      ],
      [
        "▁off",
        "er"
      ],
      [
        "▁res",
        "t"
      ],
      [
        "▁n",
        "ight"
      ],
      [
        "▁---",
        "="
      ],
      [
        "▁|--------+----------------",
        "------->"
      ],
      [
        "▁fi",
        "x"
      ],
      [
        "▁op",
        "en"
      ],
      [
        "▁m",
        "ount"
      ],
      [
        "g",
        "le"
      ],
      [
        "▁t",
        "ried"
      ],
      [
        "enc",
        "y"
      ],
      [
        "c",
        "t"
      ],
      [
        "▁bir",
        "d"
      ],
      [
        "▁se",
        "as"
      ],
      [
        "▁an",
        "al"
      ],
      [
        "▁le",
        "ss"
      ],
      [
        "ou",
        "t"
      ],
      [
        "il",
        "l"
      ],
      [
        "▁d",
        "one"
      ],
      [
        "▁",
        "k"
      ],
      [
        "ww",
        "w"
      ],
      [
        "▁g",
        "re"
      ],
      [
        "▁b",
        "ur"
      ],
      [
        "▁it",
        "em"
      ],
      [
        "▁it",
        "'s"
      ],
      [
        "▁.",
        "?"
      ],
      [
        "in",
        "ks"
      ],
      [
        "▁",
        "uh"
      ],
      [
        "▁enj",
        "ambment"
      ],
      [
        "▁res",
        "erv"
      ],
      [
        "▁t",
        "urn"
      ],
      [
        "et",
        "s"
      ],
      [
        "▁regar",
        "ding"
      ],
      [
        "▁to",
        "day"
      ],
      [
        "▁sept",
        "ember"
      ],
      [
        "▁p",
        "ass"
      ],
      [
        "bo",
        "ard"
      ],
      [
        "▁fun",
        "d"
      ],
      [
        "▁fi",
        "re"
      ],
      [
        "▁se",
        "l"
      ],
      [
        "ad",
        "el"
      ],
      [
        "▁ac",
        "tually"
      ],
      [
        "▁h",
        "at"
      ],
      [
        "▁",
        "ri"
      ],
      [
        "▁d",
        "re"
      ],
      [
        "▁proce",
        "d"
      ],
      [
        "c",
        "h"
      ],
      [
        "er",
        "v"
      ],
      [
        "▁se",
        "em"
      ],
      [
        "▁gre",
        "at"
      ],
      [
        "ign",
        "ed"
      ],
      [
        "▁stud",
        "ents"
      ],
      [
        "▁step",
        "s"
      ],
      [
        "▁gu",
        "ess"
      ],
      [
        "ac",
        "king"
      ],
      [
        "it",
        "ed"
      ],
      [
        "▁wi",
        "l"
      ],
      [
        "▁as",
        "p"
      ],
      [
        "▁sp",
        "e"
      ],
      [
        "▁:",
        "?"
      ],
      [
        "▁v",
        "ia"
      ],
      [
        "b",
        "b"
      ],
      [
        "ig",
        "n"
      ],
      [
        "▁sch",
        "ol"
      ],
      [
        "om",
        "p"
      ],
      [
        "re",
        "d"
      ],
      [
        "▁t",
        "o"
      ],
      [
        "▁s",
        "le"
      ],
      [
        "▁trans",
        "port"
      ],
      [
        "▁in",
        "t"
      ],
      [
        "▁mid",
        "dle"
      ],
      [
        "++",
        "++"
      ],
      [
        "ac",
        "ked"
      ],
      [
        "▁ap",
        "art"
      ],
      [
        "▁b",
        "ase"
      ],
      [
        "a",
        "x"
      ],
      [
        "e",
        "st"
      ],
      [
        "um",
        "n"
      ],
      [
        "▁b",
        "u"
      ],
      [
        "▁as",
        "su"
      ],
      [
        "▁aut",
        "h"
      ],
      [
        "▁tr",
        "ade"
      ],
      [
        "▁group",
        "s"
      ],
      [
        "▁int",
        "e"
      ],
      [
        "▁s",
        "ti"
      ],
      [
        "tic",
        "s"
      ],
      [
        "▁",
        "@"
      ],
      [
        "▁spe",
        "ech"
      ],
      [
        "▁bath",
        "room"
      ],
      [
        "as",
        "ing"
      ],
      [
        "am",
        "a"
      ],
      [
        "▁ele",
        "ments"
      ],
      [
        "▁adv",
        "ice"
      ],
      [
        "▁h",
        "all"
      ],
      [
        "o",
        "ver"
      ],
      [
        "..",
        ".."
      ],
      [
        "▁w",
        "ash"
      ],
      [
        "▁a",
        "ch"
      ],
      [
        "▁commun",
        "ication"
      ],
      [
        "▁p",
        "in"
      ],
      [
        "▁ti",
        "mes"
      ],
      [
        "▁la",
        "b"
      ],
      [
        "▁att",
        "r"
      ],
      [
        "▁r",
        "et"
      ],
      [
        "▁th",
        "rew"
      ],
      [
        "re",
        "s"
      ],
      [
        "▁ju",
        "ice"
      ],
      [
        "▁bir",
        "ds"
      ],
      [
        "▁te",
        "eth"
      ],
      [
        "▁fr",
        "i"
      ],
      [
        "--------",
        "--------"
      ],
      [
        "as",
        "es"
      ],
      [
        "▁",
        "is"
      ],
      [
        "e",
        "g"
      ],
      [
        "▁behin",
        "d"
      ],
      [
        "o",
        "der"
      ],
      [
        "▁far",
        "m"
      ],
      [
        "▁re",
        "ality"
      ],
      [
        "▁l",
        "im"
      ],
      [
        "▁displ",
        "ay"
      ],
      [
        "▁wed",
        "nesday"
      ],
      [
        "▁pre",
        "ven"
      ],
      [
        "▁one",
        "self"
      ],
      [
        "ant",
        "ed"
      ],
      [
        "▁con",
        "d"
      ],
      [
        "▁im",
        "port"
      ],
      [
        "▁in",
        "f"
      ],
      [
        "▁c",
        "ow"
      ],
      [
        "ic",
        "es"
      ],
      [
        "▁inst",
        "ance"
      ],
      [
        "▁",
        "'"
      ],
      [
        "▁en",
        "g"
      ],
      [
        "▁c",
        "age"
      ],
      [
        "▁bas",
        "il"
      ],
      [
        "▁work",
        "s"
      ],
      [
        "▁",
        "3"
      ],
      [
        "▁g",
        "et"
      ],
      [
        "▁w",
        "or"
      ],
      [
        "f",
        "ic"
      ],
      [
        "▁'",
        "'"
      ],
      [
        "▁appear",
        "s"
      ],
      [
        "i",
        "ds"
      ],
      [
        "▁dem",
        "ocracy"
      ],
      [
        "▁her",
        "self"
      ],
      [
        "-------",
        ">"
      ],
      [
        "▁y",
        "ou"
      ],
      [
        "▁mo",
        "st"
      ],
      [
        "▁for",
        "ce"
      ],
      [
        "am",
        "b"
      ],
      [
        "▁b",
        "an"
      ],
      [
        "▁again",
        "st"
      ],
      [
        "▁at",
        "op"
      ],
      [
        "ph",
        "ere"
      ],
      [
        "ro",
        "te"
      ],
      [
        "▁adop",
        "ted"
      ],
      [
        "▁d",
        "et"
      ],
      [
        "▁s",
        "it"
      ],
      [
        "▁c",
        "row"
      ],
      [
        "▁betw",
        "een"
      ],
      [
        "▁st",
        "age"
      ],
      [
        "▁",
        "plus"
      ],
      [
        "r",
        "e"
      ],
      [
        "▁pic",
        "ture"
      ],
      [
        "am",
        "p"
      ],
      [
        "▁o",
        "thers"
      ],
      [
        "derst",
        "and"
      ],
      [
        "▁whe",
        "re"
      ],
      [
        "▁th",
        "ous"
      ],
      [
        "▁a",
        "pp"
      ],
      [
        "a",
        "f"
      ],
      [
        "▁m",
        "id"
      ],
      [
        "▁sa",
        "y"
      ],
      [
        "▁cre",
        "dit"
      ],
      [
        "▁con",
        "s"
      ],
      [
        "▁v",
        "e"
      ],
      [
        "▁her",
        "s"
      ],
      [
        "▁w",
        "ashington"
      ],
      [
        "▁prov",
        "ides"
      ],
      [
        "o",
        "ck"
      ],
      [
        "▁prop",
        "os"
      ],
      [
        "l",
        "and"
      ],
      [
        "qu",
        "i"
      ],
      [
        "ro",
        "om"
      ],
      [
        "▁ans",
        "w"
      ],
      [
        "▁b",
        "r"
      ],
      [
        "anc",
        "ed"
      ],
      [
        "▁w",
        "ill"
      ],
      [
        "▁tre",
        "e"
      ],
      [
        "▁expos",
        "ure"
      ],
      [
        "▁l",
        "os"
      ],
      [
        "▁gr",
        "ound"
      ],
      [
        "ing",
        "ton"
      ],
      [
        "form",
        "ation"
      ],
      [
        "res",
        "ted"
      ],
      [
        "▁be",
        "g"
      ],
      [
        "o",
        "p"
      ],
      [
        "r",
        "ated"
      ],
      [
        "▁o",
        "ut"
      ],
      [
        "▁sc",
        "re"
      ],
      [
        "▁pay",
        "ment"
      ],
      [
        "▁c",
        "ase"
      ],
      [
        "is",
        "ed"
      ],
      [
        "▁w",
        "here"
      ],
      [
        "▁s",
        "up"
      ],
      [
        "▁w",
        "ish"
      ],
      [
        "t",
        "er"
      ],
      [
        "▁push",
        "ed"
      ],
      [
        "ove",
        "red"
      ],
      [
        "▁though",
        "t"
      ],
      [
        "b",
        "and"
      ],
      [
        "w",
        "n"
      ],
      [
        "▁s",
        "l"
      ],
      [
        "▁v",
        "ac"
      ],
      [
        "ect",
        "ive"
      ],
      [
        "el",
        "s"
      ],
      [
        "▁k",
        "ill"
      ],
      [
        "oul",
        "d"
      ],
      [
        "▁in",
        "struc"
      ],
      [
[...]
