{
  "version": "1.0",
  "truncation": null,
  "padding": null,
  "added_tokens": [
    {
      "id": 2389,
      "content": "[SEP]",
      "single_word": false,
      "lstrip": false,
      "rstrip": false,
      "normalized": false,
      "special": true
    },
    {
      "id": 3961,
      "content": "[UNK]",
      "single_word": false,
      "lstrip": false,
      "rstrip": false,
      "normalized": false,
      "special": true
    },
    {
      "id": 4981,
      "content": "[MASK]",
      "single_word": false,
      "lstrip": false,
      "rstrip": false,
      "normalized": false,
      "special": true
    },
    {
      "id": 6564,
      "content": "[PAD]",
      "single_word": false,
      "lstrip": false,
      "rstrip": false,
      "normalized": false,
      "special": true
    },
    {
      "id": 6683,
      "content": "[CLS]",
      "single_word": false,
      "lstrip": false,
      "rstrip": false,
      "normalized": false,
      "special": true
    }
  ],
  "normalizer": {
    "type": "Sequence",
    "normalizers": [
      {
        "type": "NFD"
      },
      {
        "type": "Lowercase"
      },
      {
        "type": "StripAccents"
      }
    ]
  },
  "pre_tokenizer": {
    "type": "Sequence",
    "pretokenizers": [
      {
        "type": "Metaspace",
        "replacement": "▁",
        "prepend_scheme": "always",
        "split": true
      }
    ]
  },
  "post_processor": {
    "type": "TemplateProcessing",
    "single": [
      {
        "SpecialToken": {
          "id": "[CLS]",
          "type_id": 0
        }
      },
      {
        "Sequence": {
          "id": "A",
          "type_id": 0
        }
      },
      {
        "SpecialToken": {
          "id": "[SEP]",
          "type_id": 0
        }
      }
    ],
    "pair": [
      {
        "SpecialToken": {
          "id": "[CLS]",
          "type_id": 0
        }
      },
      {
        "Sequence": {
          "id": "A",
          "type_id": 0
        }
      },
      {
        "SpecialToken": {
          "id": "[SEP]",
          "type_id": 0
        }
      },
      {
        "Sequence": {
          "id": "B",
          "type_id": 1
        }
      },
      {
        "SpecialToken": {
          "id": "[SEP]",
          "type_id": 1
        }
      }
    ],
    "special_tokens": {
      "[CLS]": {
        "id": "[CLS]",
        "ids": [
          6683
        ],
        "tokens": [
          "[CLS]"
        ]
      },
      "[SEP]": {
        "id": "[SEP]",
        "ids": [
          2389
        ],
        "tokens": [
          "[SEP]"
        ]
      }
    }
  },
  "decoder": {
    "type": "Metaspace",
    "replacement": "▁",
    "prepend_scheme": "always",
    "split": true
  },
  "model": {
    "type": "BPE",
    "dropout": null,
    "unk_token": "[UNK]",
    "continuing_subword_prefix": null,
    "end_of_word_suffix": null,
    "fuse_unk": false,
    "byte_fallback": false,
    "ignore_merges": false,
    "vocab": {
      "▁controls": 0,
      "▁shed": 1,
      "one": 2,
      "▁translation": 3,
      "▁complex": 4,
      "▁wealth": 5,
      "▁traveler": 6,
      "▁tracks": 7,
      "way": 8,
      "▁astride": 9,
      "▁sch": 10,
      "ster": 11,
      "▁aim": 12,
      "▁attention": 13,
      "▁farmers": 14,
      "▁limous": 15,
      "▁noone": 16,
      "ible": 17,
      "oxide": 18,
      "▁inst": 19,
      "▁general": 20,
      "▁tex": 21,
      "▁repres": 22,
      "▁ran": 23,
      "▁turning": 24,
      "ingly": 25,
      "▁body": 26,
      "▁lady": 27,
      "▁tv": 28,
      "▁vaccine": 29,
      "▁person": 30,
      "▁producers": 31,
      "▁cha": 32,
      "iew": 33,
      "orth": 34,
      "▁acts": 35,
      "▁fallen": 36,
      "▁foll": 37,
      "ating": 38,
      "ages": 39,
      "▁dragon": 40,
      "▁targ": 41,
      "▁cast": 42,
      "▁display": 43,
      "oles": 44,
      ".d": 45,
      "ap": 46,
      "ane": 47,
      "▁admit": 48,
      "▁simply": 49,
      "▁receiving": 50,
      "▁chief": 51,
      "▁channel": 52,
      "s": 53,
      "▁moves": 54,
      "ified": 55,
      "▁suffered": 56,
      "derst": 57,
      "act": 58,
      "▁on": 59,
      "▁difficul": 60,
      "▁city": 61,
      "▁suck": 62,
      "▁plain": 63,
      "ule": 64,
      "▁gar": 65,
      "▁mechanics": 66,
      "▁mili": 67,
      "▁identifying": 68,
      "▁ingred": 69,
      "▁shall": 70,
      "ience": 71,
      "▁favor": 72,
      "▁insp": 73,
      "▁unit": 74,
      "▁leg": 75,
      "▁fligh": 76,
      "▁dogs": 77,
      "▁sto": 78,
      "▁ha": 79,
      "▁pu": 80,
      "m": 81,
      "▁pop": 82,
      "▁car": 83,
      "▁prosp": 84,
      "▁grows": 85,
      "▁diss": 86,
      "eys": 87,
      "▁group": 88,
      "▁furn": 89,
      "▁outside": 90,
      "▁experiences": 91,
      "▁formed": 92,
      "▁procedures": 93,
      "▁fighter": 94,
      "▁took": 95,
      "unic": 96,
      "▁pursu": 97,
      "▁1970s": 98,
      "▁wants": 99,
      "▁bones": 100,
      "▁hoped": 101,
      "▁tell": 102,
      "▁tours": 103,
      "▁cent": 104,
      "▁ruin": 105,
      "isco": 106,
      "river": 107,
      "▁busy": 108,
      "ans": 109,
      "▁chalk": 110,
      "▁___________": 111,
      "▁enthusi": 112,
      "fe": 113,
      "▁traged": 114,
      "▁tast": 115,
      "▁??": 116,
      "rently": 117,
      "▁infl": 118,
      "▁received": 119,
      "ε": 120,
      "▁about": 121,
      "▁too": 122,
      "▁negotiations": 123,
      "vers": 124,
      "▁ships": 125,
      "▁-": 126,
      "▁coc": 127,
      "▁satisf": 128,
      "▁nonstop": 129,
      "▁holiday": 130,
      "▁heading": 131,
      "▁celebr": 132,
      "▁highly": 133,
      "cut": 134,
      "vert": 135,
      "▁dinosaur": 136,
      "omed": 137,
      "▁artwork": 138,
      "acket": 139,
      "▁respons": 140,
      "▁dolphin": 141,
      "▁tac": 142,
      "▁knowing": 143,
      "▁swung": 144,
      "mpl": 145,
      "▁downtown": 146,
      "orts": 147,
      "▁mech": 148,
      "▁old": 149,
      "▁rank": 150,
      "▁cookie": 151,
      "ound": 152,
      "▁software": 153,
      "ecting": 154,
      "▁yellow": 155,
      "▁weekday": 156,
      "▁recent": 157,
      "▁dresses": 158,
      "▁cig": 159,
      "ina": 160,
      "▁pressure": 161,
      "▁supermarket": 162,
      "ay": 163,
      "▁analysts": 164,
      "▁lettuce": 165,
      "worms": 166,
      "▁amidst": 167,
      "▁tourist": 168,
      "▁ser": 169,
      "5": 170,
      "▁espec": 171,
      "▁analys": 172,
      "▁welcomed": 173,
      "ecks": 174,
      "ird": 175,
      "▁date": 176,
      "des": 177,
      "▁models": 178,
      "orrow": 179,
      "pa": 180,
      "kn": 181,
      "▁artworks": 182,
      "▁fries": 183,
      "▁walls": 184,
      "▁highl": 185,
      "▁lion": 186,
      "▁mistake": 187,
      "▁bran": 188,
      "-1.doc": 189,
      "▁doub": 190,
      "▁emer": 191,
      "inger": 192,
      "▁giraff": 193,
      "pers": 194,
      "▁truth": 195,
      "▁soup": 196,
      "▁spaces": 197,
      "www": 198,
      "▁cartoon": 199,
      "▁adop": 200,
      "am": 201,
      "uk": 202,
      "▁both": 203,
      "▁<": 204,
      "▁interesting": 205,
      "▁contained": 206,
      "▁must": 207,
      "▁bye": 208,
      "....": 209,
      "▁eggs": 210,
      "ctly": 211,
      "▁toys": 212,
      "▁monit": 213,
      "▁kansas": 214,
      "▁reg": 215,
      "▁bush": 216,
      "lion": 217,
      "▁bos": 218,
      "aganda": 219,
      "▁18": 220,
      "▁ice": 221,
      "enom": 222,
      "orized": 223,
      "▁fired": 224,
      "▁founded": 225,
      "▁texts": 226,
      "▁atmosphere": 227,
      "uropean": 228,
      "x": 229,
      "▁surprise": 230,
      "▁***": 231,
      "cope": 232,
      "▁rum": 233,
      "ered": 234,
      "lf": 235,
      "ues": 236,
      "▁cognition": 237,
      "▁“": 238,
      "▁tells": 239,
      "▁princ": 240,
      "ith": 241,
      "▁birthday": 242,
      "jection": 243,
      "▁its": 244,
      "▁mich": 245,
      "▁prevent": 246,
      "▁assu": 247,
      "riend": 248,
      "tors": 249,
      "▁waitress": 250,
      "co": 251,
      "▁-----------------": 252,
      "ded": 253,
      "▁feathers": 254,
      "▁guests": 255,
      "/200": 256,
      "▁tel": 257,
      "▁,": 258,
      "▁thou": 259,
      "▁sure": 260,
      "lent": 261,
      "▁wife": 262,
      "▁them": 263,
      "▁census": 264,
      "▁usually": 265,
      "▁document": 266,
      "cked": 267,
      "▁miracle": 268,
      "▁munic": 269,
      "▁men": 270,
      "engers": 271,
      "▁writ": 272,
      "isture": 273,
      "▁escape": 274,
      "▁delta": 275,
      "▁transform": 276,
      "▁4": 277,
      "▁interests": 278,
      "arily": 279,
      "▁agency": 280,
      "▁fun": 281,
      "▁hero": 282,
      "▁opportunity": 283,
      "very": 284,
      "▁puppy": 285,
      "▁diet": 286,
      "▁temp": 287,
      "▁student": 288,
      "▁stand": 289,
      "ο": 290,
      "▁laura": 291,
      "▁!?": 292,
      "▁appeared": 293,
      "▁launched": 294,
      "▁foreigners": 295,
      "not": 296,
      "▁wheels": 297,
      "▁guard": 298,
      "▁bet": 299,
      "▁step": 300,
      "▁west": 301,
      "▁obtain": 302,
      "▁fut": 303,
      "▁boat": 304,
      "▁dow": 305,
      "▁smo": 306,
      "▁sub": 307,
      "▁booked": 308,
      "▁prov": 309,
      "▁spotted": 310,
      "▁beautiful": 311,
      "▁rest": 312,
      "thers": 313,
      "ride": 314,
      "▁----------------------------------------------------------------------": 315,
      "▁'ll": 316,
      "ses": 317,
      "etter": 318,
      "amole": 319,
      "▁prepared": 320,
      "▁–": 321,
      "▁sal": 322,
      "▁ripped": 323,
      "▁-----------------------------------------------------------------------": 324,
      "▁enab": 325,
      "▁resp": 326,
      "▁parent": 327,
      "▁soul": 328,
      "▁conver": 329,
      "▁spa": 330,
      "▁contract": 331,
      "▁argued": 332,
      "▁mile": 333,
      "▁russ": 334,
      ",": 335,
      "dit": 336,
      "fore": 337,
      "▁respon": 338,
      "▁his": 339,
      "▁aft": 340,
      "▁thrown": 341,
      "ide": 342,
      "▁cartoons": 343,
      "▁violence": 344,
      "▁communication": 345,
      "ashington": 346,
      "tics": 347,
      "▁poetry": 348,
      "▁raised": 349,
      "▁rul": 350,
      "▁legal": 351,
      "▁earthqu": 352,
      "▁dispute": 353,
      "▁click": 354,
      "...": 355,
      "iod": 356,
      "▁is": 357,
      "▁category": 358,
      "▁political": 359,
      "orld": 360,
      "­": 361,
      "ary": 362,
      "ris": 363,
      "▁wrote": 364,
      "▁mater": 365,
      "▁money": 366,
      "▁veget": 367,
      "illa": 368,
      "▁basis": 369,
      "▁consideration": 370,
      "ness": 371,
      "▁without": 372,
      "▁works": 373,
      "▁string": 374,
      "▁another": 375,
      "▁balloons": 376,
      "▁disaster": 377,
      "▁sections": 378,
      "▁realized": 379,
      "▁:?": 380,
      "▁enjoyed": 381,
      "cre": 382,
      "▁infrastruc": 383,
      "▁noise": 384,
      "▁mayor": 385,
      "▁john": 386,
      "▁pain": 387,
      "ighb": 388,
      "stit": 389,
      "▁composition": 390,
      "▁default": 391,
      "▁throat": 392,
      "▁vis": 393,
      "▁although": 394,
      "▁turkey": 395,
      "▁assigned": 396,
      "▁guys": 397,
      "▁condition": 398,
      "▁including": 399,
      "llow": 400,
      "ping": 401,
      "▁descri": 402,
      "antee": 403,
      "ada": 404,
      "▁succeed": 405,
      "▁worry": 406,
      "est": 407,
      "▁technology": 408,
      "▁abs": 409,
      "▁interference": 410,
      "aling": 411,
      "▁donkey": 412,
      "▁cry": 413,
      "▁am": 414,
      "issors": 415,
      "▁dead": 416,
      "▁presented": 417,
      "driver": 418,
      "to": 419,
      "ental": 420,
      "▁ur": 421,
      "lity": 422,
      "ases": 423,
      "osite": 424,
      "▁revised": 425,
      "▁despite": 426,
      "▁already": 427,
      "▁shark": 428,
      "anted": 429,
      "▁dreamed": 430,
      "▁battle": 431,
      "wn": 432,
      "▁cupcakes": 433,
      "▁equ": 434,
      "▁moving": 435,
      "▁reduc": 436,
      "▁homes": 437,
      "▁count": 438,
      "▁elim": 439,
      "agon": 440,
      "ru": 441,
      "ɑ": 442,
      "▁mac": 443,
      "▁muse": 444,
      "▁pir": 445,
      "phis": 446,
      "ober": 447,
      "▁scale": 448,
      "▁reaching": 449,
      "▁loved": 450,
      "▁killing": 451,
      "▁ma": 452,
      "▁male": 453,
      "ointed": 454,
      "▁bottle": 455,
      "▁towns": 456,
      "egr": 457,
      "▁purple": 458,
      "▁stud": 459,
      "▁stands": 460,
      "▁section": 461,
      "agraph": 462,
      "▁ton": 463,
      "▁counterfeiting": 464,
      "▁attem": 465,
      "di": 466,
      "els": 467,
      "▁heels": 468,
      "80s": 469,
      "▁oatmeal": 470,
      "▁spir": 471,
      "▁tires": 472,
      "▁fab": 473,
      "▁dollie": 474,
      "aughters": 475,
      "▁br": 476,
      "▁affairs": 477,
      "app": 478,
      "▁serving": 479,
      "▁themselves": 480,
      "▁anti": 481,
      "▁soap": 482,
      "▁appears": 483,
      "eted": 484,
      "▁motiv": 485,
      "▁pat": 486,
      "▁ev": 487,
      "▁programmes": 488,
      "▁cin": 489,
      "▁analyses": 490,
      "▁extension": 491,
      "att": 492,
      "▁?????": 493,
      "▁`": 494,
      "isf": 495,
      "▁rin": 496,
      "▁existed": 497,
      "▁hear": 498,
      "▁roo": 499,
      "▁laund": 500,
      "▁add": 501,
      "▁statements": 502,
      "ə": 503,
      "ym": 504,
      "▁television": 505,
      "▁think": 506,
      "▁informed": 507,
      "▁obsf": 508,
      "ky": 509,
      "rop": 510,
      "▁?!?": 511,
      "tiff": 512,
      "▁tens": 513,
      "cha": 514,
      "▁researchers": 515,
      "ew": 516,
      "▁departure": 517,
      "▁rat": 518,
      "▁guidelines": 519,
      "▁absorb": 520,
      "▁relig": 521,
      "▁connecting": 522,
      "▁reservation": 523,
      "ently": 524,
      "▁block": 525,
      "▁five": 526,
      "▁discipline": 527,
      "▁philadel": 528,
      "ansion": 529,
      "▁spos": 530,
      "tice": 531,
      "▁ap": 532,
      "▁decades": 533,
      "▁load": 534,
      "▁descriptions": 535,
      "unk": 536,
      "▁bandaid": 537,
      "▁mum": 538,
      "▁teeth": 539,
      "body": 540,
      "▁attempted": 541,
      "eign": 542,
      "▁bulldozer": 543,
      "▁administr": 544,
      "▁yesterday": 545,
      "▁setting": 546,
      "▁natural": 547,
      "▁exercise": 548,
      "▁entry": 549,
      "▁replaced": 550,
      "▁adds": 551,
      "▁crops": 552,
      "▁consult": 553,
      "▁fac": 554,
      "ump": 555,
      "▁bull": 556,
      "ows": 557,
      "▁famili": 558,
      "▁expression": 559,
      "▁confir": 560,
      "▁falls": 561,
      "mans": 562,
      "ider": 563,
      "▁hung": 564,
      "▁organiz": 565,
      "▁mr.": 566,
      "▁american": 567,
      "▁salt": 568,
      "▁seeing": 569,
      "▁******************************************************************": 570,
      "▁http://www": 571,
      "▁incen": 572,
      "▁cere": 573,
      "▁babies": 574,
      "▁wed": 575,
      "▁pros": 576,
      "▁orient": 577,
      "jec": 578,
      "erest": 579,
      "▁interpretation": 580,
      "▁nashville": 581,
      "▁tip": 582,
      "▁more": 583,
      "▁reproduc": 584,
      "ickness": 585,
      "▁insight": 586,
      "umb": 587,
      "▁engineering": 588,
      "▁just": 589,
      "▁spray": 590,
      "▁gon": 591,
      "nis": 592,
      "▁pops": 593,
      "▁background": 594,
      "corn": 595,
      "▁garden": 596,
      "▁displayed": 597,
      "f": 598,
      "igh": 599,
      "▁poet": 600,
      "▁ld2d-#693": 601,
      "ictions": 602,
      "▁sad": 603,
      "akers": 604,
      "▁fire": 605,
      "▁advertis": 606,
      "▁crawl": 607,
      "nia": 608,
      "▁fri": 609,
      "▁mi": 610,
      "▁because": 611,
      "▁missed": 612,
      "▁oppose": 613,
      "▁tale": 614,
      "▁proposed": 615,
      "▁overalls": 616,
      "▁increased": 617,
      "▁regarded": 618,
      "▁sentences": 619,
      "▁people": 620,
      "ran": 621,
      "70s": 622,
      "asi": 623,
      "ills": 624,
      "▁cupboard": 625,
      "▁technologies": 626,
      "|": 627,
      "▁illust": 628,
      "gr": 629,
      "ros": 630,
      "▁seem": 631,
      "▁iodine": 632,
      "▁judge": 633,
      "▁prin": 634,
      "▁available": 635,
      "▁construction": 636,
      "▁license": 637,
      "#6": 638,
      "▁broom": 639,
      "▁faced": 640,
      "▁alligator": 641,
      "▁region": 642,
      "▁considered": 643,
      "▁handling": 644,
      "▁authorities": 645,
      "▁crayons": 646,
      "▁finally": 647,
      "▁bod": 648,
      "▁individuals": 649,
      "▁letters": 650,
      "antly": 651,
      "▁realize": 652,
      "▁ignorance": 653,
      "i": 654,
      "▁officers": 655,
      "▁math": 656,
      "▁resour": 657,
      "inc": 658,
      "▁collab": 659,
      "▁sizes": 660,
      "▁notice": 661,
      "▁baby": 662,
      "▁ambul": 663,
      "▁reas": 664,
      "▁ours": 665,
      "▁traff": 666,
      "ights": 667,
      "▁reaction": 668,
      "▁itself": 669,
      "▁symbol": 670,
      "▁cust": 671,
      "▁isl": 672,
      "▁---------------------------------------------------------------------": 673,
      "▁cup": 674,
      "▁palm": 675,
      "▁tom": 676,
      "▁accused": 677,
      "▁drinking": 678,
      "▁tor": 679,
      "▁scissors": 680,
      "▁heart": 681,
      "▁struc": 682,
      "▁insights": 683,
      "▁yourselves": 684,
      "cle": 685,
      "▁preferred": 686,
      "▁****": 687,
      "▁accompanied": 688,
      "▁islam": 689,
      "▁dough": 690,
      "▁hip": 691,
      "▁associ": 692,
      "ic": 693,
      "scrib": 694,
      "za": 695,
      "▁entity": 696,
      "ams": 697,
      "▁degre": 698,
      "▁ports": 699,
      "▁users": 700,
      "▁give": 701,
      "▁influenced": 702,
      "▁fol": 703,
      "▁beneath": 704,
      "▁wip": 705,
      ";": 706,
      "▁swim": 707,
      "▁flex": 708,
      "▁sweep": 709,
      "▁movement": 710,
      "▁lik": 711,
      "▁planes": 712,
      "▁dese": 713,
      "▁with": 714,
      "▁chan": 715,
      "▁ter": 716,
      "▁children": 717,
      "olved": 718,
      "▁ph": 719,
      "▁export": 720,
      "acamole": 721,
      "si": 722,
      "▁husband": 723,
      "β": 724,
      "▁miam": 725,
      "▁calendar": 726,
      "▁firm": 727,
      "ield": 728,
      "▁pan": 729,
      "ognition": 730,
      "▁gas": 731,
      "riage": 732,
      "▁success": 733,
      "arked": 734,
      "esthe": 735,
      "ides": 736,
      "▁hidden": 737,
      "▁units": 738,
      "▁discussions": 739,
      "eas": 740,
      "▁woud": 741,
      "omach": 742,
      "e": 743,
      "▁however": 744,
      "▁try": 745,
      "▁running": 746,
      "▁assuming": 747,
      "▁'d": 748,
      "ret": 749,
      "▁singing": 750,
      "▁setup": 751,
      "▁telling": 752,
      "ose": 753,
      "▁welf": 754,
      "▁gym": 755,
      "▁cause": 756,
      "led": 757,
      "▁visits": 758,
      "▁regions": 759,
      "▁evolving": 760,
      "▁pattern": 761,
      "▁scenario": 762,
      "▁plot": 763,
      "▁talked": 764,
      "▁chips": 765,
      "eng": 766,
      "▁options": 767,
      "▁patience": 768,
      "▁oh": 769,
      "▁recover": 770,
      "????????": 771,
      "▁persp": 772,
      "▁soldiers": 773,
      "▁design": 774,
      "▁mixture": 775,
      "imore": 776,
      "▁purse": 777,
      "▁employed": 778,
      "an": 779,
      "▁father": 780,
      "alty": 781,
      "hin": 782,
      "▁chasing": 783,
      "▁delive": 784,
      "▁authors": 785,
      "▁tri": 786,
      "▁unf": 787,
      "mate": 788,
      "otted": 789,
      "▁riding": 790,
      "▁pockets": 791,
      "▁ought": 792,
      "▁dentist": 793,
      "▁extremely": 794,
      "▁baseball": 795,
      "▁expensive": 796,
      "ould": 797,
      "▁occur": 798,
      "▁taken": 799,
      "▁inc": 800,
      "ography": 801,
      "▁solution": 802,
      "▁limited": 803,
      "ee": 804,
      "▁ribbon": 805,
      "▁pile": 806,
      "▁intended": 807,
      "▁indicated": 808,
      "▁her": 809,
      "▁regulation": 810,
      "▁developer": 811,
      "▁figure": 812,
      "fo": 813,
      "▁interact": 814,
      "bly": 815,
      "▁die": 816,
      "▁carry": 817,
      "▁temper": 818,
      "ter": 819,
      "▁memories": 820,
      "▁free": 821,
      "▁yours": 822,
      "▁amendments": 823,
      "▁brows": 824,
      "▁detroit": 825,
      "▁visa": 826,
      "▁continental": 827,
      "ify": 828,
      "▁ber": 829,
      "ukee": 830,
      "irl": 831,
      "▁ex": 832,
      "▁details": 833,
      "▁calling": 834,
      "▁length": 835,
      "▁ginger": 836,
      "▁mistakes": 837,
      "▁envelop": 838,
      "▁louis": 839,
      "ativity": 840,
      "▁remain": 841,
      "▁chess": 842,
      "▁wit": 843,
      "▁according": 844,
      "▁sant": 845,
      "▁hoping": 846,
      "ark": 847,
      "▁sang": 848,
      "▁signs": 849,
      "ensity": 850,
      "▁fed": 851,
      "▁throu": 852,
      "▁vehicle": 853,
      "▁prefer": 854,
      "ich": 855,
      "▁minut": 856,
      "kin": 857,
      "▁shut": 858,
      "▁center": 859,
      "▁funeral": 860,
      "▁foc": 861,
      "▁mummy": 862,
      "▁ship": 863,
      "uate": 864,
      "▁scre": 865,
      "▁maybe": 866,
      "▁coach": 867,
      "▁by": 868,
      "**********************************": 869,
      "oll": 870,
      "▁told": 871,
      "▁located": 872,
      "▁coat": 873,
      "▁residents": 874,
      "izes": 875,
      "▁dev": 876,
      "▁effects": 877,
      "▁defin": 878,
      "▁storm": 879,
      "▁lighting": 880,
      "rax": 881,
      "▁mrs": 882,
      "re": 883,
      "▁angel": 884,
      "▁net": 885,
      "▁det": 886,
      "▁marshmall": 887,
      "▁al": 888,
      "▁captured": 889,
      "xts": 890,
      "▁bud": 891,
      "load": 892,
      "▁ballet": 893,
      "▁combination": 894,
      "▁categories": 895,
      "▁drinks": 896,
      "eries": 897,
      "▁flo": 898,
      "▁profess": 899,
      "▁cleaning": 900,
      "▁differences": 901,
      "▁crap": 902,
      "▁pump": 903,
      "▁dried": 904,
      "uments": 905,
      "▁pers": 906,
      "▁sme": 907,
      "▁psychology": 908,
      "▁wave": 909,
      "▁banj": 910,
      "▁sports": 911,
      "▁tos": 912,
      "asses": 913,
      "▁managing": 914,
      "▁jeep": 915,
      "▁tie": 916,
      "ist": 917,
      "▁year": 918,
      "▁strengthen": 919,
      "▁quickly": 920,
      "▁minn": 921,
      "▁ride": 922,
      "▁conclusion": 923,
      "▁o'clock": 924,
      "atched": 925,
      "illion": 926,
      "▁libr": 927,
      "▁''": 928,
      "▁requires": 929,
      "▁guessed": 930,
      "▁contrib": 931,
      "▁flav": 932,
      "▁efficiency": 933,
      "▁completed": 934,
      "ributing": 935,
      "ipping": 936,
      "▁amounts": 937,
      "urs": 938,
      "▁mult": 939,
      "▁roles": 940,
      "▁’": 941,
      "▁and": 942,
      "▁cookies": 943,
      "ester": 944,
      "▁tips": 945,
      "▁does": 946,
      "▁actress": 947,
      "own": 948,
      "▁pictures": 949,
      "▁war": 950,
      "▁avo": 951,
      "▁paul": 952,
      "▁mathematics": 953,
      "lite": 954,
      "▁governor": 955,
      "▁rac": 956,
      "▁spe": 957,
      "▁partner": 958,
      "▁warning": 959,
      "▁concluded": 960,
      "▁interviewed": 961,
      "ization": 962,
      "ologist": 963,
      "ulate": 964,
      "▁deli": 965,
      "▁example": 966,
      "▁vlog": 967,
      "▁updates": 968,
      "ab": 969,
      "▁mids": 970,
      "ʊ": 971,
      "▁weake": 972,
      "▁snitch": 973,
      "▁moral": 974,
      "▁hamb": 975,
      "▁yoga": 976,
      "▁bathroom": 977,
      "▁houston": 978,
      "cery": 979,
      "▁creating": 980,
      "▁airplan": 981,
      "▁settle": 982,
      "▁kiss": 983,
      "▁provide": 984,
      "▁flight": 985,
      "all": 986,
      "▁phone": 987,
      "auc": 988,
      "▁suffer": 989,
      "▁always": 990,
      "inal": 991,
      "og": 992,
      "ilities": 993,
      "▁construc": 994,
      "▁these": 995,
      "▁yoy": 996,
      "uf": 997,
      "▁arrives": 998,
      "▁str": 999,
      "▁world": 1000,
      "amas": 1001,
      "▁survival": 1002,
      "▁theirs": 1003,
      "▁prett": 1004,
      "▁text": 1005,
      "ink": 1006,
      "▁turned": 1007,
      "uh": 1008,
      "eet": 1009,
      "▁session": 1010,
      "▁applying": 1011,
      "▁between": 1012,
      "▁6": 1013,
      "▁dropped": 1014,
      "▁best": 1015,
      "▁administration": 1016,
      "▁theories": 1017,
      "▁hes": 1018,
      "▁ent": 1019,
      "▁actions": 1020,
      "▁dr.": 1021,
      "▁new": 1022,
      "▁rise": 1023,
      "▁books": 1024,
      "▁swinging": 1025,
      "oking": 1026,
      "▁imple": 1027,
      "▁_______": 1028,
      "▁scienti": 1029,
      "ressing": 1030,
      "▁who's": 1031,
      "if": 1032,
      "onna": 1033,
      "▁administ": 1034,
      "ification": 1035,
      "▁colon": 1036,
      "▁recon": 1037,
      "▁votes": 1038,
      "▁site": 1039,
      "▁interest": 1040,
      "▁advance": 1041,
      "▁jellyfish": 1042,
      "▁model": 1043,
      "gar": 1044,
      "▁acting": 1045,
      "▁verse": 1046,
      "▁absor": 1047,
      "▁san": 1048,
      "rated": 1049,
      "lled": 1050,
      "▁act": 1051,
      "uling": 1052,
      "▁slide": 1053,
      "▁responses": 1054,
      "▁suc": 1055,
      "atch": 1056,
      "▁pupp": 1057,
      "▁???": 1058,
      "’t": 1059,
      "▁spent": 1060,
      "▁mechanic": 1061,
      "▁makes": 1062,
      "▁accommod": 1063,
      "▁hate": 1064,
      "cently": 1065,
      "▁pot": 1066,
      "▁candle": 1067,
      "▁invite": 1068,
      "▁commit": 1069,
      "▁belly": 1070,
      "uck": 1071,
      "▁neither": 1072,
      "▁10": 1073,
      "▁mathema": 1074,
      "▁ai": 1075,
      "ocity": 1076,
      "▁impression": 1077,
      "▁purch": 1078,
      "▁stirrup": 1079,
      "----------": 1080,
      "ctive": 1081,
      "▁entered": 1082,
      "▁ties": 1083,
      "▁third": 1084,
      "av": 1085,
      "▁will": 1086,
      "▁behin": 1087,
      "▁classroom": 1088,
      "▁preparing": 1089,
      "▁hi": 1090,
      "su": 1091,
      "▁photography": 1092,
      "▁did": 1093,
      "▁problems": 1094,
      "▁cal": 1095,
      "▁charged": 1096,
      "placement": 1097,
      "▁waited": 1098,
      "▁thous": 1099,
      "oo": 1100,
      "ach": 1101,
      "ha": 1102,
      "inoc": 1103,
      "▁characters": 1104,
      "▁trained": 1105,
      "ully": 1106,
      "▁character": 1107,
      "▁plenty": 1108,
      "▁flir": 1109,
      "▁jur": 1110,
      "row": 1111,
      "▁pet": 1112,
      "▁advantage": 1113,
      "▁behind": 1114,
      "▁dist": 1115,
      "▁noon": 1116,
      "▁opinion": 1117,
      "▁priest": 1118,
      "▁dam": 1119,
      "entiality": 1120,
      "▁ocean": 1121,
      "▁components": 1122,
      "▁mission": 1123,
      "ength": 1124,
      "▁strong": 1125,
      "▁information": 1126,
      "yst": 1127,
      "▁faces": 1128,
      "asts": 1129,
      "▁timing": 1130,
      "▁kitchen": 1131,
      "ured": 1132,
      "▁discussed": 1133,
      "▁]": 1134,
      "•": 1135,
      "▁pred": 1136,
      "▁congratulate": 1137,
      "illed": 1138,
      "nesday": 1139,
      "▁ti": 1140,
      "▁main": 1141,
      "400": 1142,
      "▁drew": 1143,
      "on": 1144,
      "aper": 1145,
      "idents": 1146,
      "etition": 1147,
      "mm": 1148,
      "▁vote": 1149,
      "veland": 1150,
      "▁team": 1151,
      "▁findings": 1152,
      "▁marketing": 1153,
      "oral": 1154,
      "ause": 1155,
      "be": 1156,
      "▁microphone": 1157,
      "▁brand": 1158,
      "▁taking": 1159,
      "▁wore": 1160,
      "elt": 1161,
      "▁trunk": 1162,
      "▁visited": 1163,
      "▁quar": 1164,
      "▁cheapest": 1165,
      "▁least": 1166,
      "▁americans": 1167,
      "▁beard": 1168,
      "ideration": 1169,
      "▁instruc": 1170,
      "▁defend": 1171,
      "inea": 1172,
      "▁boss": 1173,
      "itical": 1174,
      "inate": 1175,
      "▁list": 1176,
      "▁believed": 1177,
      "▁rats": 1178,
      "sc": 1179,
      "▁brain": 1180,
      "▁attach": 1181,
      "se": 1182,
      "▁colle": 1183,
      "▁decided": 1184,
      "▁packed": 1185,
      "▁frost": 1186,
      "ulars": 1187,
      "▁pony": 1188,
      "asa": 1189,
      "ching": 1190,
      "▁edition": 1191,
      "▁sentence": 1192,
      "▁depos": 1193,
      "▁categ": 1194,
      "▁trading": 1195,
      "▁mil": 1196,
      "▁mas": 1197,
      "▁chairman": 1198,
      "oices": 1199,
      "▁deter": 1200,
      "ails": 1201,
      "▁still": 1202,
      "▁district": 1203,
      "ands": 1204,
      "▁airline": 1205,
      "tch": 1206,
      "ail": 1207,
      "▁articles": 1208,
      "▁licensor": 1209,
      "▁scr": 1210,
      "▁bananas": 1211,
      "▁tem": 1212,
      "eren": 1213,
      "▁inven": 1214,
      "▁root": 1215,
      "▁observed": 1216,
      "▁guit": 1217,
      "▁minimum": 1218,
      "abb": 1219,
      "▁forget": 1220,
      "▁present": 1221,
      "▁shops": 1222,
      "itional": 1223,
      "▁characteris": 1224,
      "▁lit": 1225,
      "rate": 1226,
      "ache": 1227,
      "ept": 1228,
      "▁suggest": 1229,
      "▁curves": 1230,
      "urop": 1231,
      "▁grad": 1232,
      "▁shoot": 1233,
      "▁containers": 1234,
      "---": 1235,
      "like": 1236,
      "lies": 1237,
      "▁lasted": 1238,
      "read": 1239,
      "▁great": 1240,
      "▁instructions": 1241,
      "ony": 1242,
      "▁abe": 1243,
      "rested": 1244,
      "▁driven": 1245,
      "oma": 1246,
      "▁exchange": 1247,
      "▁suspect": 1248,
      "wa": 1249,
      "aches": 1250,
      "▁format": 1251,
      "▁editors": 1252,
      "▁monitor": 1253,
      "==": 1254,
      "▁th": 1255,
      "▁airl": 1256,
      "-p": 1257,
      "formed": 1258,
      "▁islamists": 1259,
      "▁hotel": 1260,
      "▁stock": 1261,
      "▁girls": 1262,
      "▁enforcement": 1263,
      "itate": 1264,
      "▁finds": 1265,
      "▁tow": 1266,
      "▁argue": 1267,
      "▁moon": 1268,
      "▁routine": 1269,
      "▁enem": 1270,
      "▁darkness": 1271,
      "▁flies": 1272,
      "▁dail": 1273,
      "▁raise": 1274,
      "▁awarded": 1275,
      "▁traders": 1276,
      "▁gn": 1277,
      "▁&amp;": 1278,
      "▁parliament": 1279,
      "▁expanded": 1280,
      "▁cross": 1281,
      "▁xml": 1282,
      "▁became": 1283,
      "υ": 1284,
      "ant": 1285,
      "rors": 1286,
      "pen": 1287,
      "ference": 1288,
      "▁results": 1289,
      "usion": 1290,
      "▁luck": 1291,
      "ilosoph": 1292,
      "akistan": 1293,
      "[": 1294,
      "ot": 1295,
      "▁things": 1296,
      "▁buck": 1297,
      "▁reviews": 1298,
      "▁sushi": 1299,
      "▁swimming": 1300,
      "ress": 1301,
      "enience": 1302,
      "▁current": 1303,
      "g": 1304,
      "thin": 1305,
      "lie": 1306,
      "ural": 1307,
      "velop": 1308,
      "▁delivered": 1309,
      "▁bean": 1310,
      "uum": 1311,
      "▁jwww": 1312,
      "cross": 1313,
      "▁y": 1314,
      "▁dep": 1315,
      "▁s": 1316,
      "anced": 1317,
      "▁working": 1318,
      "gets": 1319,
      "▁hopes": 1320,
      "▁exist": 1321,
      "▁anth": 1322,
      "sts": 1323,
      "tured": 1324,
      "▁wond": 1325,
      "▁enable": 1326,
      "ets": 1327,
      "▁cru": 1328,
      "----": 1329,
      "▁defic": 1330,
      "▁degree": 1331,
      "▁played": 1332,
      "▁approval": 1333,
      "▁option": 1334,
      "▁equip": 1335,
      "▁spr": 1336,
      "▁weeks": 1337,
      "▁case": 1338,
      "▁belie": 1339,
      "▁coinc": 1340,
      "▁happened": 1341,
      "ology": 1342,
      "▁compared": 1343,
      "aks": 1344,
      "▁plate": 1345,
      "▁gender": 1346,
      "▁indicate": 1347,
      "▁econ": 1348,
      "▁happiness": 1349,
      "eding": 1350,
      "▁arrow": 1351,
      "▁par": 1352,
      "▁member": 1353,
      "▁elev": 1354,
      "▁candidates": 1355,
      "st": 1356,
      "▁syn": 1357,
      "▁replication": 1358,
      "▁greeted": 1359,
      "pe": 1360,
      "tician": 1361,
      "▁latest": 1362,
      "▁stick": 1363,
      "▁concent": 1364,
      "▁sh": 1365,
      "▁apolog": 1366,
      "aying": 1367,
      "▁analy": 1368,
      "▁.....": 1369,
      "▁pittsburgh": 1370,
      "▁exp": 1371,
      "▁whom": 1372,
      "▁arrange": 1373,
      "▁dishes": 1374,
      "▁madam": 1375,
      "memb": 1376,
      "▁dessert": 1377,
      "▁educated": 1378,
      "ork": 1379,
      "▁town": 1380,
      "adel": 1381,
      "▁transit": 1382,
      "ither": 1383,
      "▁israel": 1384,
      "uss": 1385,
      "▁novelist": 1386,
      "▁roc": 1387,
      "sed": 1388,
      "▁typ": 1389,
      "▁gl": 1390,
      "▁progress": 1391,
      "▁welfare": 1392,
      "▁clin": 1393,
      "▁mailings": 1394,
      "zed": 1395,
      "▁water": 1396,
      "▁explain": 1397,
      "▁decade": 1398,
      "▁washing": 1399,
      "▁g": 1400,
      "ing": 1401,
      "▁po": 1402,
      "▁history": 1403,
      "▁bic": 1404,
      "▁cell": 1405,
      "▁11": 1406,
      "orted": 1407,
      "▁amend": 1408,
      "▁notch": 1409,
      "▁dealer": 1410,
      "▁geomet": 1411,
      "▁resolution": 1412,
      "-w": 1413,
      "ˈ": 1414,
      "▁chall": 1415,
      "fort": 1416,
      "▁compare": 1417,
      "▁philosophy": 1418,
      "▁novels": 1419,
      "▁charges": 1420,
      "▁currency": 1421,
      "▁fantasy": 1422,
      "▁confidentiality": 1423,
      "▁consider": 1424,
      "▁sear": 1425,
      "ball": 1426,
      "ign": 1427,
      "▁mathematician": 1428,
      "▁entities": 1429,
      "▁join": 1430,
      "ortant": 1431,
      "▁reveal": 1432,
      "▁tomato": 1433,
      "▁var": 1434,
      "▁sticker": 1435,
      "▁explained": 1436,
      "▁liter": 1437,
      "aged": 1438,
      "▁charl": 1439,
      "▁looked": 1440,
      "▁av": 1441,
      "lu": 1442,
      "▁une": 1443,
      "▁create": 1444,
      "▁radiation": 1445,
      "erence": 1446,
      "▁watch": 1447,
      "▁page": 1448,
      "▁quality": 1449,
      "▁disease": 1450,
      "▁maintain": 1451,
      "▁force": 1452,
      "▁motorc": 1453,
      "▁casual": 1454,
      "▁cap": 1455,
      "iny": 1456,
      "acters": 1457,
      "ident": 1458,
      "fting": 1459,
      "▁moth": 1460,
      "uled": 1461,
      "▁sover": 1462,
      "▁truck": 1463,
      "▁sand": 1464,
      "▁thurs": 1465,
      "▁lifted": 1466,
      "▁playw": 1467,
      "▁aunt": 1468,
      "keys": 1469,
      "tures": 1470,
      "▁implem": 1471,
      "▁ju": 1472,
      "ete": 1473,
      "▁saved": 1474,
      "▁behavior": 1475,
      "▁throw": 1476,
      "▁uncer": 1477,
      "▁sor": 1478,
      "▁proper": 1479,
      "▁inter": 1480,
      "▁outcome": 1481,
      "fer": 1482,
      "ize": 1483,
      "▁transp": 1484,
      "▁attempting": 1485,
      "forcement": 1486,
      "ener": 1487,
      "val": 1488,
      "rog": 1489,
      "▁chem": 1490,
      "oc": 1491,
      "▁away": 1492,
      "▁boy": 1493,
      "inn": 1494,
      "▁little": 1495,
      "▁associate": 1496,
      "▁ra": 1497,
      "p": 1498,
      "▁kind": 1499,
      "ais": 1500,
      "que": 1501,
      "▁librarians": 1502,
      "ashing": 1503,
      "▁contributions": 1504,
      "▁clo": 1505,
      "▁orlando": 1506,
      "▁refuge": 1507,
      "▁court": 1508,
      "erful": 1509,
      "▁challenge": 1510,
      "ination": 1511,
      "▁went": 1512,
      "▁calc": 1513,
      "▁supposed": 1514,
      "ern": 1515,
      "▁writers": 1516,
      "ther": 1517,
      "selves": 1518,
      "▁refri": 1519,
      "▁train": 1520,
      "▁accompan": 1521,
      "▁businesses": 1522,
      "tices": 1523,
      "▁writes": 1524,
      "▁chang": 1525,
      "▁speed": 1526,
      "▁individual": 1527,
      "mp": 1528,
      "▁risk": 1529,
      "▁finance": 1530,
      "orn": 1531,
      "ioned": 1532,
      "▁fellow": 1533,
      "▁agencies": 1534,
      "ville": 1535,
      "▁transmed": 1536,
      "▁tort": 1537,
      "▁phil": 1538,
      "▁felt": 1539,
      "▁meat": 1540,
      "▁enjambment": 1541,
      "▁sound": 1542,
      "▁watching": 1543,
      "▁nose": 1544,
      "book": 1545,
      "▁sheep": 1546,
      "▁bicycle": 1547,
      "▁trib": 1548,
      "▁experts": 1549,
      "▁stood": 1550,
      "▁humans": 1551,
      "▁during": 1552,
      "▁wiz": 1553,
      "al": 1554,
      "ozer": 1555,
      "▁newark": 1556,
      "▁meow": 1557,
      "▁exerc": 1558,
      "kes": 1559,
      "▁yo": 1560,
      "▁ant": 1561,
      "▁loc": 1562,
      "▁component": 1563,
      "titudes": 1564,
      "_": 1565,
      "▁emergency": 1566,
      "▁inquiry": 1567,
      "iding": 1568,
      "▁vess": 1569,
      "▁den": 1570,
      "▁********": 1571,
      "▁device": 1572,
      "▁secure": 1573,
      "iac": 1574,
      "icked": 1575,
      "▁scientists": 1576,
      "▁speak": 1577,
      "▁gap": 1578,
      "▁refers": 1579,
      "plus": 1580,
      "▁vic": 1581,
      "▁trials": 1582,
      "▁achie": 1583,
      "▁engine": 1584,
      "▁finished": 1585,
      "essions": 1586,
      "▁knows": 1587,
      "ences": 1588,
      "▁touched": 1589,
      "ution": 1590,
      "▁attack": 1591,
      "ai": 1592,
      "▁toronto": 1593,
      "anding": 1594,
      "▁~": 1595,
      "▁eff": 1596,
      "▁move": 1597,
      "▁washington": 1598,
      "▁tack": 1599,
      "ave": 1600,
      "▁at": 1601,
      "iciency": 1602,
      "▁passion": 1603,
      "▁jobs": 1604,
      "▁init": 1605,
      "▁walks": 1606,
      "mb": 1607,
      "▁emphas": 1608,
      "uits": 1609,
      "▁theater": 1610,
      "▁happ": 1611,
      "▁worksh": 1612,
      "ili": 1613,
      "▁meeting": 1614,
      "▁polar": 1615,
      "▁documented": 1616,
      "▁temples": 1617,
      "▁din": 1618,
      "▁solve": 1619,
      "mall": 1620,
      "fir": 1621,
      "▁recomm": 1622,
      "{": 1623,
      "▁inspection": 1624,
      "▁abilities": 1625,
      "▁uvb": 1626,
      "▁network": 1627,
      "▁funny": 1628,
      "▁cor": 1629,
      "▁wearing": 1630,
      "▁!!!!!!!!!!!": 1631,
      "▁habit": 1632,
      "ient": 1633,
      "------->": 1634,
      "▁country": 1635,
      "anda": 1636,
      "▁room": 1637,
      "ld": 1638,
      "▁nothing": 1639,
      "ners": 1640,
      "▁puzz": 1641,
      "▁dwww": 1642,
      "▁appro": 1643,
      "▁punch": 1644,
      "▁union": 1645,
      "?": 1646,
      "▁stream": 1647,
      "▁explanation": 1648,
      "gu": 1649,
      "umin": 1650,
      "▁er": 1651,
      "ourn": 1652,
      "oting": 1653,
      "▁alcohol": 1654,
      "▁ahead": 1655,
      "▁farrier": 1656,
      "▁vari": 1657,
      "▁freezer": 1658,
      "▁befor": 1659,
      "▁reply": 1660,
      "▁effect": 1661,
      "▁arch": 1662,
      "irst": 1663,
      "$": 1664,
      "º": 1665,
      "▁----==": 1666,
      "▁condem": 1667,
      "▁neighborhood": 1668,
      "▁ne": 1669,
      "▁regret": 1670,
      "▁seekers": 1671,
      "ip": 1672,
      "▁gentle": 1673,
      "pp": 1674,
      "▁clar": 1675,
      "▁delete": 1676,
      "▁im": 1677,
      "▁cos": 1678,
      "▁savings": 1679,
      "▁eliminate": 1680,
      "▁rebuil": 1681,
      "▁you": 1682,
      "▁purpose": 1683,
      "▁comparison": 1684,
      "▁help": 1685,
      "▁granted": 1686,
      "ague": 1687,
      "▁someone": 1688,
      "omm": 1689,
      "▁jus": 1690,
      "▁trail": 1691,
      "▁stars": 1692,
      "▁alongside": 1693,
      "▁ess": 1694,
      "▁accomplish": 1695,
      "▁draw": 1696,
      "eness": 1697,
      "iv": 1698,
      "aw": 1699,
      "▁waiter": 1700,
      "ied": 1701,
      "▁build": 1702,
      "▁slipped": 1703,
      "▁dat": 1704,
      "▁matters": 1705,
      "ici": 1706,
      "▁variety": 1707,
      "▁destination": 1708,
      "▁ext": 1709,
      "▁mon": 1710,
      "▁apple": 1711,
      "ey": 1712,
      "uts": 1713,
      "otw": 1714,
      "ival": 1715,
      "▁wines": 1716,
      "ugg": 1717,
      "▁dw": 1718,
      "▁que": 1719,
      "iousness": 1720,
      "▁frag": 1721,
      "▁wand": 1722,
      "oup": 1723,
      "has": 1724,
      "▁financ": 1725,
      "ince": 1726,
      "▁troops": 1727,
      "▁huh": 1728,
      "▁sheet": 1729,
      "▁grown": 1730,
      "▁colleag": 1731,
      "tiles": 1732,
      "▁boom": 1733,
      "▁wh": 1734,
      "▁burst": 1735,
      "▁orange": 1736,
      "▁situations": 1737,
      "ularity": 1738,
      "▁gir": 1739,
      "uc": 1740,
      "▁seeking": 1741,
      "▁counterfe": 1742,
      "▁accord": 1743,
      "▁kissed": 1744,
      "▁relation": 1745,
      "▁ce": 1746,
      "▁alle": 1747,
      "▁anim": 1748,
      "▁cells": 1749,
      "itch": 1750,
      "▁religion": 1751,
      "▁sunsh": 1752,
      "▁uni": 1753,
      "▁worms": 1754,
      "▁evalu": 1755,
      "form": 1756,
      "▁ceo": 1757,
      "▁circumstances": 1758,
      "▁leave": 1759,
      "▁fans": 1760,
      "▁continues": 1761,
      "▁neck": 1762,
      "▁purchase": 1763,
      "▁monster": 1764,
      "▁paper": 1765,
      "▁remains": 1766,
      "ean": 1767,
      "ures": 1768,
      "▁pean": 1769,
      "▁directed": 1770,
      "▁oven": 1771,
      "▁introduc": 1772,
      "▁wou": 1773,
      "▁bubbles": 1774,
      "wear": 1775,
      "pped": 1776,
      "▁feature": 1777,
      "pt": 1778,
      "gth": 1779,
      "▁series": 1780,
      "▁projects": 1781,
      "▁surrounding": 1782,
      "▁inches": 1783,
      "▁establish": 1784,
      "▁settlement": 1785,
      "▁grandma": 1786,
      "▁department": 1787,
      "cakes": 1788,
      "▁stayed": 1789,
      "▁prosperity": 1790,
      "overs": 1791,
      "▁gol": 1792,
      "▁contain": 1793,
      "▁losing": 1794,
      "eal": 1795,
      "amp": 1796,
      "atives": 1797,
      "in": 1798,
      "▁philadelphia": 1799,
      "▁revenue": 1800,
      "▁weight": 1801,
      "▁imagination": 1802,
      "▁stability": 1803,
      "▁specialist": 1804,
      "▁family": 1805,
      "anges": 1806,
      "▁curr": 1807,
      "=": 1808,
      "▁fr": 1809,
      "▁attached": 1810,
      "oil": 1811,
      "▁fil": 1812,
      "▁treat": 1813,
      "▁fuel": 1814,
      "ressed": 1815,
      "▁reach": 1816,
      "▁strategies": 1817,
      "▁mad": 1818,
      "▁cigar": 1819,
      "▁mod": 1820,
      "nels": 1821,
      "ician": 1822,
      "!!": 1823,
      "▁abo": 1824,
      "ny": 1825,
      "uals": 1826,
      "▁receipt": 1827,
      "▁window": 1828,
      "▁client": 1829,
      "▁availability": 1830,
      "▁outf": 1831,
      "0's": 1832,
      "ticip": 1833,
      "er": 1834,
      "▁pants": 1835,
      "▁rope": 1836,
      "▁discount": 1837,
      "▁showed": 1838,
      "bably": 1839,
      "ative": 1840,
      "▁animal": 1841,
      "▁container": 1842,
      "▁ld": 1843,
      "▁wish": 1844,
      "▁wanting": 1845,
      "▁institutions": 1846,
      "▁pron": 1847,
      "▁hearing": 1848,
      "▁lacking": 1849,
      "▁‘’": 1850,
      "ication": 1851,
      "▁emails": 1852,
      "force": 1853,
      "▁strugg": 1854,
      "▁exception": 1855,
      "▁occurred": 1856,
      "▁sk": 1857,
      "▁conviction": 1858,
      "▁glow": 1859,
      "▁treated": 1860,
      "▁alar": 1861,
      "▁activ": 1862,
      "▁magn": 1863,
      "acy": 1864,
      "▁equival": 1865,
      "▁excellent": 1866,
      "▁replacement": 1867,
      "▁pick": 1868,
      "▁mr": 1869,
      "▁scam": 1870,
      "▁rags": 1871,
      "avery": 1872,
      "▁trou": 1873,
      "▁followed": 1874,
      "▁falling": 1875,
      "ual": 1876,
      "▁polaroids": 1877,
      "▁hr": 1878,
      "▁changing": 1879,
      "▁circum": 1880,
      "▁femur": 1881,
      "▁polic": 1882,
      "▁hel": 1883,
      "fro": 1884,
      "▁quite": 1885,
      "▁breast": 1886,
      "▁sometimes": 1887,
      "▁doctors": 1888,
      "▁aqu": 1889,
      "▁pix": 1890,
      "▁oak": 1891,
      "▁interf": 1892,
      "▁seven": 1893,
      "▁training": 1894,
      "▁sounds": 1895,
      "▁um": 1896,
      "care": 1897,
      "▁underneath": 1898,
      "▁cli": 1899,
      "▁guarant": 1900,
      "▁he": 1901,
      "utions": 1902,
      "eland": 1903,
      "▁parti": 1904,
      "▁anywhere": 1905,
      "keep": 1906,
      "▁bug": 1907,
      "▁cycle": 1908,
      "mited": 1909,
      "▁spears": 1910,
      "▁percentiles": 1911,
      "ions": 1912,
      "ope": 1913,
      "▁stol": 1914,
      "owing": 1915,
      "▁pulled": 1916,
      "▁poin": 1917,
      "▁incom": 1918,
      "▁mosquito": 1919,
      "▁reinfor": 1920,
      "▁nut": 1921,
      "▁gold": 1922,
      "▁cracker": 1923,
      "▁expertise": 1924,
      "▁demonstrated": 1925,
      "▁assistance": 1926,
      "▁woman": 1927,
      "▁happen": 1928,
      "▁tag": 1929,
      "▁designed": 1930,
      "▁different": 1931,
      "ume": 1932,
      "▁mus": 1933,
      "▁brings": 1934,
      "▁oil": 1935,
      "▁ic": 1936,
      "▁obl": 1937,
      "ws": 1938,
      "▁special": 1939,
      "▁critic": 1940,
      "▁leaned": 1941,
      "▁following": 1942,
      "▁sandwic": 1943,
      "alth": 1944,
      "▁someth": 1945,
      "▁pin": 1946,
      "▁assessment": 1947,
      "▁almost": 1948,
      "▁assessing": 1949,
      "▁publish": 1950,
      "zac": 1951,
      "▁nations": 1952,
      "▁compos": 1953,
      "icular": 1954,
      "▁=": 1955,
      "▁ass": 1956,
      "▁vol": 1957,
      "▁en": 1958,
      "laimed": 1959,
      "▁sci": 1960,
      "▁appearance": 1961,
      "▁tro": 1962,
      "nies": 1963,
      "▁cott": 1964,
      "----------------": 1965,
      "case": 1966,
      "▁b/c": 1967,
      "▁introducing": 1968,
      "ral": 1969,
      "▁color": 1970,
      "▁mechan": 1971,
      "▁analyst": 1972,
      "ocracy": 1973,
      "▁son": 1974,
      "▁electric": 1975,
      "▁threat": 1976,
      "▁judg": 1977,
      "▁undert": 1978,
      "▁rein": 1979,
      "ald": 1980,
      "▁kinds": 1981,
      "▁atlan": 1982,
      "▁uti": 1983,
      "▁only": 1984,
      "▁fall": 1985,
      "ashed": 1986,
      "▁bent": 1987,
      "▁))": 1988,
      "▁for": 1989,
      "mped": 1990,
      "▁tried": 1991,
      "▁seconds": 1992,
      "▁exec": 1993,
      "▁able": 1994,
      "▁boys": 1995,
      "ash": 1996,
      "▁phenom": 1997,
      "▁implement": 1998,
      "oor": 1999,
      "aded": 2000,
      "▁conduct": 2001,
      "▁surround": 2002,
      "▁facilitate": 2003,
      "▁sister": 2004,
      "▁ld2d-": 2005,
      "▁agriculture": 2006,
      "▁occupation": 2007,
      "ell": 2008,
      "▁joh": 2009,
      "▁!.": 2010,
      "++": 2011,
      "▁fix": 2012,
      "centi": 2013,
      "▁fa": 2014,
      "▁beg": 2015,
      "▁pit": 2016,
      "ately": 2017,
      "arm": 2018,
      "▁systems": 2019,
      "ession": 2020,
      "▁surprised": 2021,
      "▁bottom": 2022,
      "▁animals": 2023,
      "ties": 2024,
      "▁may": 2025,
      "▁politicians": 2026,
      "▁partic": 2027,
      "▁chickens": 2028,
      "▁[": 2029,
      "▁overcome": 2030,
      "wi": 2031,
      "▁adver": 2032,
      "▁bul": 2033,
      "▁************************************************": 2034,
      "▁occas": 2035,
      "▁a.m.": 2036,
      "phone": 2037,
      "▁procedure": 2038,
      "▁vot": 2039,
      "▁camer": 2040,
      "▁accum": 2041,
      "▁fear": 2042,
      "iz": 2043,
      "▁promise": 2044,
      "uated": 2045,
      "▁total": 2046,
      "▁burden": 2047,
      "▁girl": 2048,
      "▁soli": 2049,
      "▁nearly": 2050,
      "▁mode": 2051,
      "▁newspaper": 2052,
      "ires": 2053,
      "▁brought": 2054,
      "▁asking": 2055,
      "▁understood": 2056,
      "▁'": 2057,
      "▁preven": 2058,
      "▁cities": 2059,
      "ns": 2060,
      "▁zoo": 2061,
      "loy": 2062,
      "▁loss": 2063,
      "▁blow": 2064,
      "▁reflects": 2065,
      "▁emerged": 2066,
      "▁renew": 2067,
      "▁raining": 2068,
      "▁conform": 2069,
      "ord": 2070,
      "▁squir": 2071,
      "▁become": 2072,
      "umes": 2073,
      "overed": 2074,
      "tally": 2075,
      "jects": 2076,
      "▁shirts": 2077,
      "▁peters": 2078,
      "▁disappeared": 2079,
      "▁-------------------------------------------------": 2080,
      "▁weekend": 2081,
      "▁uniform": 2082,
      "▁phenomenon": 2083,
      "▁tuesday": 2084,
      "▁cr": 2085,
      "▁partners": 2086,
      "▁over": 2087,
      "▁bench": 2088,
      "▁citi": 2089,
      "▁communic": 2090,
      "▁americ": 2091,
      "▁miss": 2092,
      "ivid": 2093,
      "▁system": 2094,
      "▁indianapolis": 2095,
      "▁smoking": 2096,
      "ached": 2097,
      "‘": 2098,
      "▁password": 2099,
      "▁ball": 2100,
      "▁helping": 2101,
      "▁counterfeit": 2102,
      "ulture": 2103,
      "▁identify": 2104,
      "▁plastic": 2105,
      "▁practicing": 2106,
      "▁climb": 2107,
      "▁mud": 2108,
      "▁dolph": 2109,
      "▁'s": 2110,
      "erves": 2111,
      "▁conversations": 2112,
      "▁possible": 2113,
      "▁teachers": 2114,
      "▁noticed": 2115,
      "▁patient": 2116,
      "▁supply": 2117,
      "▁arguing": 2118,
      "ct": 2119,
      "▁three": 2120,
      "▁guess": 2121,
      "ɛ": 2122,
      "▁licen": 2123,
      "ort": 2124,
      "▁nor": 2125,
      "▁destruc": 2126,
      "▁tug": 2127,
      "▁belt": 2128,
      "aid": 2129,
      "onal": 2130,
      "▁disp": 2131,
      "0th": 2132,
      "▁dec": 2133,
      "▁stomach": 2134,
      "▁females": 2135,
      "▁flat": 2136,
      "▁changed": 2137,
      "▁staff": 2138,
      "enti": 2139,
      "▁sitting": 2140,
      "▁catch": 2141,
      "▁thro": 2142,
      "▁yes": 2143,
      "▁patterns": 2144,
      "▁|--------+----------------": 2145,
      "▁selection": 2146,
      "▁tribe": 2147,
      "▁ing": 2148,
      "▁lab": 2149,
      "▁outc": 2150,
      "▁lips": 2151,
      "▁iraq": 2152,
      "▁press": 2153,
      "▁out": 2154,
      "aves": 2155,
      "▁organizations": 2156,
      "▁lets": 2157,
      "iron": 2158,
      "▁types": 2159,
      "ives": 2160,
      "onents": 2161,
      "▁hundreds": 2162,
      "▁lay": 2163,
      "▁bowl": 2164,
      "less": 2165,
      "oke": 2166,
      "▁doors": 2167,
      "▁ling": 2168,
      "▁outs": 2169,
      "▁abuse": 2170,
      "▁infrastructure": 2171,
      "▁broad": 2172,
      "▁vendors": 2173,
      "▁gulf": 2174,
      "ific": 2175,
      "side": 2176,
      "asion": 2177,
      "▁bre": 2178,
      "▁gun": 2179,
      "▁co-": 2180,
      "▁october": 2181,
      "▁island": 2182,
      "lection": 2183,
      "ational": 2184,
      "▁direc": 2185,
      "▁levels": 2186,
      "▁mosqu": 2187,
      "▁tiny": 2188,
      "▁confidence": 2189,
      "▁stranger": 2190,
      "ularly": 2191,
      "▁pos": 2192,
      "▁distribute": 2193,
      "▁tragedy": 2194,
      "▁want": 2195,
      "▁hang": 2196,
      "tingu": 2197,
      "▁party": 2198,
      "iling": 2199,
      "▁defe": 2200,
      "boat": 2201,
      "--------------------------------": 2202,
      "epend": 2203,
      "▁enough": 2204,
      "ummy": 2205,
      "▁magaz": 2206,
      "▁sm": 2207,
      "▁s’": 2208,
      "▁published": 2209,
      "ribute": 2210,
      "▁repa": 2211,
      "▁board": 2212,
      "▁young": 2213,
      "vailable": 2214,
      "▁personal": 2215,
      "▁apply": 2216,
      "▁assassination": 2217,
      "▁your": 2218,
      "▁gre": 2219,
      "▁capture": 2220,
      "▁elbow": 2221,
      "igned": 2222,
      "vest": 2223,
      "▁critics": 2224,
      "▁mentioned": 2225,
      "▁toes": 2226,
      "▁st.": 2227,
      "▁reserves": 2228,
      "▁brooms": 2229,
      "lions": 2230,
      "▁territ": 2231,
      "▁staring": 2232,
      "▁topic": 2233,
      "▁escaped": 2234,
      "▁d": 2235,
      "▁a": 2236,
      "▁receip": 2237,
      "▁involved": 2238,
      "ithstanding": 2239,
      "ious": 2240,
      "▁rapporteur": 2241,
      "▁cle": 2242,
      "▁manual": 2243,
      "▁mig": 2244,
      "▁u.s.": 2245,
      "▁plants": 2246,
      "▁ro": 2247,
      "▁regarding": 2248,
      "▁ordered": 2249,
      "▁climbed": 2250,
      "de": 2251,
      "▁barrel": 2252,
      "▁poss": 2253,
      "ming": 2254,
      "▁injury": 2255,
      "▁panel": 2256,
      "▁&am": 2257,
      "▁offered": 2258,
      "esting": 2259,
      "▁wiki": 2260,
      "aurs": 2261,
      "▁vine": 2262,
      "ground": 2263,
      "▁decline": 2264,
      "▁bill": 2265,
      "▁consumer": 2266,
      "▁acceptance": 2267,
      "▁crying": 2268,
      "▁continuing": 2269,
      "▁potato": 2270,
      "▁capt": 2271,
      "▁can": 2272,
      "▁interv": 2273,
      "▁clock": 2274,
      "mentation": 2275,
      "▁speaker": 2276,
      "▁;": 2277,
      "heet": 2278,
      "ects": 2279,
      "▁dog": 2280,
      "tly": 2281,
      "▁examination": 2282,
      "▁law": 2283,
      "▁concer": 2284,
      "▁conte": 2285,
      "ised": 2286,
      "▁lists": 2287,
      "▁duel": 2288,
      "ertainly": 2289,
      "▁wa": 2290,
      "▁retired": 2291,
      "▁da": 2292,
      "▁performances": 2293,
      "▁achieve": 2294,
      "▁evenings": 2295,
      "▁log": 2296,
      "tw": 2297,
      "▁mass": 2298,
      "▁sussex": 2299,
      "▁avoiding": 2300,
      "▁last": 2301,
      "▁hot": 2302,
      "▁unity": 2303,
      "▁/": 2304,
      "z": 2305,
      "▁swee": 2306,
      "▁slope": 2307,
      "▁memphis": 2308,
      "▁quantity": 2309,
      "▁tolerate": 2310,
      "derstand": 2311,
      "▁follows": 2312,
      "yed": 2313,
      "▁comput": 2314,
      "face": 2315,
      "ortion": 2316,
      "liday": 2317,
      "ssi": 2318,
      "me": 2319,
      "▁some": 2320,
      "ull": 2321,
      "icke": 2322,
      "▁ear": 2323,
      "▁jumping": 2324,
      "▁replace": 2325,
      "▁get": 2326,
      "▁thread": 2327,
      "▁route": 2328,
      "▁table": 2329,
      "isions": 2330,
      "hood": 2331,
      "▁proved": 2332,
      "30": 2333,
      "▁pic": 2334,
      "▁run": 2335,
      "▁bar": 2336,
      "namon": 2337,
      "ips": 2338,
      "▁around": 2339,
      "▁brief": 2340,
      "▁classes": 2341,
      "▁connections": 2342,
      "▁against": 2343,
      "▁particular": 2344,
      "▁dism": 2345,
      "▁de": 2346,
      "▁tar": 2347,
      "▁data": 2348,
      "▁sp": 2349,
      "▁kil": 2350,
      "▁guinea": 2351,
      "ouse": 2352,
      "ailed": 2353,
      "▁tele": 2354,
      "plet": 2355,
      "▁upd": 2356,
      "▁bedroom": 2357,
      "▁everybody": 2358,
      "▁altern": 2359,
      "▁patients": 2360,
      "▁cer": 2361,
      "▁idea": 2362,
      "▁suff": 2363,
      "clo": 2364,
      "▁bugs": 2365,
      "oop": 2366,
      "▁shift": 2367,
      "▁experienced": 2368,
      "▁representative": 2369,
      "the": 2370,
      "▁agre": 2371,
      "uil": 2372,
      "▁vehicles": 2373,
      "unch": 2374,
      "ll": 2375,
      "▁countries": 2376,
      "▁marriage": 2377,
      "▁sorry": 2378,
      "▁prohibited": 2379,
      "▁relations": 2380,
      "ained": 2381,
      "▁°": 2382,
      "▁york": 2383,
      "▁record": 2384,
      "▁'m": 2385,
      "▁fit": 2386,
      "ishment": 2387,
      "urch": 2388,
      "[SEP]": 2389,
      "▁jam": 2390,
      "▁---=": 2391,
      "▁oppos": 2392,
      "ctions": 2393,
      "▁strategy": 2394,
      "▁where": 2395,
      "iliation": 2396,
      "whether": 2397,
      "▁sar": 2398,
      "▁exhibit": 2399,
      "▁transport": 2400,
      "▁rocket": 2401,
      "▁tur": 2402,
      "ama": 2403,
      "ambment": 2404,
      "▁leadership": 2405,
      "▁cutting": 2406,
      "ired": 2407,
      "▁manner": 2408,
      "▁si": 2409,
      "▁were": 2410,
      "arl": 2411,
      "▁exam": 2412,
      "int": 2413,
      "▁gover": 2414,
      "▁hide": 2415,
      "▁dirt": 2416,
      "▁juice": 2417,
      "▁committed": 2418,
      "▁provided": 2419,
      "ped": 2420,
      "▁advant": 2421,
      "▁stre": 2422,
      "▁everyone": 2423,
      "▁sew": 2424,
      "▁sunlight": 2425,
      "portun": 2426,
      "▁streets": 2427,
      "▁auth": 2428,
      "aph": 2429,
      "▁aspects": 2430,
      "▁covering": 2431,
      "▁las": 2432,
      "▁possibilities": 2433,
      "▁equipment": 2434,
      "ius": 2435,
      "▁machine": 2436,
      "▁pennies": 2437,
      "▁opened": 2438,
      "▁then": 2439,
      "▁nav": 2440,
      "▁langu": 2441,
      "▁congr": 2442,
      "▁keep": 2443,
      "▁vs.": 2444,
      "ti": 2445,
      "ocent": 2446,
      "▁developments": 2447,
      "▁or": 2448,
      "▁profile": 2449,
      "animals": 2450,
      "▁sending": 2451,
      "▁recr": 2452,
      "▁mut": 2453,
      "▁!!!!!!": 2454,
      "▁expense": 2455,
      "▁end": 2456,
      "▁advised": 2457,
      "▁deal": 2458,
      "▁experim": 2459,
      "ecess": 2460,
      "—": 2461,
      "▁quartile": 2462,
      "▁datab": 2463,
      "▁mou": 2464,
      "▁revision": 2465,
      "▁detective": 2466,
      "▁dates": 2467,
      "ech": 2468,
      "▁friends": 2469,
      "▁play": 2470,
      "▁chosen": 2471,
      "▁position": 2472,
      "▁ver": 2473,
      "ather": 2474,
      "▁holes": 2475,
      "▁claims": 2476,
      "▁restaur": 2477,
      "▁founder": 2478,
      "et": 2479,
      "▁causes": 2480,
      "ton": 2481,
      "▁adventure": 2482,
      "▁transition": 2483,
      "▁und": 2484,
      "usions": 2485,
      "▁benef": 2486,
      "band": 2487,
      "▁voice": 2488,
      "ears": 2489,
      "▁kicked": 2490,
      "▁solid": 2491,
      "inus": 2492,
      "inks": 2493,
      "▁smoke": 2494,
      "▁sou": 2495,
      "▁well": 2496,
      "▁reminder": 2497,
      "▁predators": 2498,
      "▁measures": 2499,
      "yond": 2500,
      "▁racing": 2501,
      "▁se": 2502,
      "overy": 2503,
      "ur": 2504,
      "dly": 2505,
      "▁accomp": 2506,
      "verage": 2507,
      "▁services": 2508,
      "azed": 2509,
      "▁eats": 2510,
      "▁erase": 2511,
      "▁kept": 2512,
      "▁chic": 2513,
      "isting": 2514,
      "end": 2515,
      "▁recommendations": 2516,
      "▁seed": 2517,
      "sters": 2518,
      "▁dipl": 2519,
      "▁apartment": 2520,
      "tie": 2521,
      "▁htt": 2522,
      "▁learn": 2523,
      "▁helps": 2524,
      "▁involvement": 2525,
      "▁mor": 2526,
      "▁jelly": 2527,
      "▁assume": 2528,
      "▁enj": 2529,
      "▁printed": 2530,
      "▁napkin": 2531,
      "head": 2532,
      "lit": 2533,
      "using": 2534,
      "▁grew": 2535,
      "lines": 2536,
      "lin": 2537,
      "▁submit": 2538,
      "▁notebook": 2539,
      "izing": 2540,
      "▁pep": 2541,
      "▁stay": 2542,
      "▁death": 2543,
      "▁arri": 2544,
      "▁deny": 2545,
      "▁correc": 2546,
      "▁pay": 2547,
      "▁news": 2548,
      "▁oneself": 2549,
      "▁designs": 2550,
      "▁drank": 2551,
      "▁direction": 2552,
      "▁20": 2553,
      "▁suggestion": 2554,
      "▁budget": 2555,
      "▁notion": 2556,
      "tery": 2557,
      "▁ar": 2558,
      "▁bat": 2559,
      "▁dry": 2560,
      "▁make": 2561,
      "▁wee": 2562,
      "▁pancakes": 2563,
      "ithst": 2564,
      "▁all": 2565,
      "▁plus": 2566,
      "▁depending": 2567,
      "mission": 2568,
      "ake": 2569,
      "▁banana": 2570,
      "▁circles": 2571,
      "fl": 2572,
      "▁comp": 2573,
      "▁bri": 2574,
      "▁signific": 2575,
      "▁pow": 2576,
      "rating": 2577,
      "our": 2578,
      "▁stores": 2579,
      "▁phones": 2580,
      "▁type": 2581,
      "▁affected": 2582,
      "▁refl": 2583,
      "▁again": 2584,
      "▁represents": 2585,
      "▁whale": 2586,
      "▁relationships": 2587,
      "▁sugges": 2588,
      "▁implemented": 2589,
      "▁laser": 2590,
      "▁hambur": 2591,
      "▁organize": 2592,
      "enced": 2593,
      "▁appear": 2594,
      "▁transf": 2595,
      "▁dealt": 2596,
      "▁aboard": 2597,
      "▁grapes": 2598,
      "▁sust": 2599,
      "▁rabb": 2600,
      "oe": 2601,
      "dered": 2602,
      "▁anything": 2603,
      "▁terr": 2604,
      "▁hams": 2605,
      "▁heel": 2606,
      "▁eval": 2607,
      "oli": 2608,
      "▁conducted": 2609,
      "ult": 2610,
      "ase": 2611,
      "▁rom": 2612,
      "▁shakes": 2613,
      "▁official": 2614,
      "▁joined": 2615,
      "gin": 2616,
      "▁coun": 2617,
      "▁that": 2618,
      "▁palace": 2619,
      "ve": 2620,
      "ome": 2621,
      "▁sandwiches": 2622,
      "▁beginning": 2623,
      "▁actor": 2624,
      "▁subject": 2625,
      "▁wolf": 2626,
      "▁director": 2627,
      "inated": 2628,
      "▁robot": 2629,
      "▁left": 2630,
      "▁thank": 2631,
      "▁tra": 2632,
      "▁crossing": 2633,
      "▁settled": 2634,
      "▁spell": 2635,
      "ees": 2636,
      "▁199": 2637,
      "▁whether": 2638,
      "▁documentation": 2639,
      "▁management": 2640,
      "life": 2641,
      "▁taxes": 2642,
      "▁sel": 2643,
      "▁glass": 2644,
      "▁12": 2645,
      "▁purpos": 2646,
      "▁centre": 2647,
      "▁describe": 2648,
      "▁chocol": 2649,
      "▁sweetie": 2650,
      "eb": 2651,
      "▁persu": 2652,
      "▁participating": 2653,
      "enn": 2654,
      "▁cod": 2655,
      "anc": 2656,
      "▁sample": 2657,
      "alize": 2658,
      "▁crossed": 2659,
      "▁gallery": 2660,
      "▁vegas": 2661,
      "▁push": 2662,
      "▁low": 2663,
      "▁fare": 2664,
      "........": 2665,
      "▁peanuts": 2666,
      "▁march": 2667,
      "augh": 2668,
      "μ": 2669,
      "▁ta": 2670,
      "how": 2671,
      "isms": 2672,
      "ever": 2673,
      "▁employ": 2674,
      "ce": 2675,
      "▁six": 2676,
      "▁investig": 2677,
      "▁along": 2678,
      "▁restriction": 2679,
      "▁website": 2680,
      "▁shelf": 2681,
      "acks": 2682,
      "sets": 2683,
      "▁crack": 2684,
      "▁plaster": 2685,
      "▁approached": 2686,
      "mping": 2687,
      "rem": 2688,
      "▁e-m": 2689,
      "adas": 2690,
      "▁soccer": 2691,
      "▁labor": 2692,
      "ocks": 2693,
      "▁pumpkin": 2694,
      "▁poles": 2695,
      "▁arti": 2696,
      "erc": 2697,
      "▁garbage": 2698,
      "▁guil": 2699,
      "▁include": 2700,
      "▁7": 2701,
      "▁military": 2702,
      "▁grass": 2703,
      "oodle": 2704,
      "uggle": 2705,
      "▁answers": 2706,
      "▁lap": 2707,
      "pre": 2708,
      "▁cancel": 2709,
      "▁cries": 2710,
      "▁civ": 2711,
      "▁evolution": 2712,
      "▁pretend": 2713,
      "oy": 2714,
      "▁dark": 2715,
      "▁initiated": 2716,
      "▁pledged": 2717,
      "1": 2718,
      "▁haircut": 2719,
      "▁appointed": 2720,
      "▁deb": 2721,
      "aping": 2722,
      "ribution": 2723,
      "▁connect": 2724,
      "▁diff": 2725,
      "▁techniqu": 2726,
      "▁claim": 2727,
      "▁expect": 2728,
      "▁mont": 2729,
      "burg": 2730,
      "▁hosting": 2731,
      "cape": 2732,
      "▁hus": 2733,
      "▁standards": 2734,
      "▁inte": 2735,
      "▁mood": 2736,
      "▁dun": 2737,
      "py": 2738,
      "▁courses": 2739,
      "▁features": 2740,
      "▁,?": 2741,
      "ulated": 2742,
      "▁deck": 2743,
      "▁seems": 2744,
      "ł": 2745,
      "▁public": 2746,
      "▁update": 2747,
      "let": 2748,
      "▁incorporated": 2749,
      "▁decre": 2750,
      "orum": 2751,
      "acing": 2752,
      "▁capability": 2753,
      "oved": 2754,
      "▁quest": 2755,
      "▁non": 2756,
      "▁vac": 2757,
      "rs": 2758,
      "ice": 2759,
      "ung": 2760,
      "ulf": 2761,
      "▁names": 2762,
      "▁goes": 2763,
      "po": 2764,
      "▁spons": 2765,
      "▁goo": 2766,
      "▁buildings": 2767,
      "▁production": 2768,
      "▁folio": 2769,
      "▁volume": 2770,
      "der": 2771,
      "▁adam": 2772,
      "▁benefits": 2773,
      "▁constit": 2774,
      "▁greetings": 2775,
      "▁real": 2776,
      "uce": 2777,
      "▁weap": 2778,
      "ways": 2779,
      "▁iron": 2780,
      "▁camera": 2781,
      "▁regist": 2782,
      "icide": 2783,
      "▁reflection": 2784,
      "▁childhood": 2785,
      "kets": 2786,
      "▁divided": 2787,
      "utor": 2788,
      "▁spring": 2789,
      "educ": 2790,
      "▁stic": 2791,
      "▁fat": 2792,
      "▁desire": 2793,
      "▁column": 2794,
      "▁ind": 2795,
      "▁hire": 2796,
      "ano": 2797,
      "res": 2798,
      "▁0": 2799,
      "▁loan": 2800,
      "▁underm": 2801,
      "au": 2802,
      "▁freedom": 2803,
      "pensive": 2804,
      "icult": 2805,
      "▁elements": 2806,
      "▁forms": 2807,
      "▁follow": 2808,
      "'s": 2809,
      "▁doggie": 2810,
      "aughter": 2811,
      "▁looks": 2812,
      "▁but": 2813,
      "▁brass": 2814,
      "ery": 2815,
      "▁whoever": 2816,
      "▁sect": 2817,
      "▁less": 2818,
      "▁attracted": 2819,
      "mented": 2820,
      "▁interviews": 2821,
      "▁existing": 2822,
      "▁difficulties": 2823,
      "▁safety": 2824,
      "▁licenses": 2825,
      "ament": 2826,
      "▁joke": 2827,
      "æ": 2828,
      "▁issu": 2829,
      "▁hitting": 2830,
      "imb": 2831,
      "qui": 2832,
      "tick": 2833,
      "▁dest": 2834,
      "▁gras": 2835,
      "erry": 2836,
      "▁fro": 2837,
      "▁okay": 2838,
      "▁depend": 2839,
      "▁necess": 2840,
      "▁dri": 2841,
      "▁clothes": 2842,
      "▁difficult": 2843,
      "▁full": 2844,
      "▁knocked": 2845,
      "gan": 2846,
      "▁proc": 2847,
      "▁refusing": 2848,
      "▁times": 2849,
      "▁sing": 2850,
      "▁du": 2851,
      "▁fashion": 2852,
      "lets": 2853,
      "▁ang": 2854,
      "▁chair": 2855,
      "▁bunch": 2856,
      "▁happening": 2857,
      "▁appreciated": 2858,
      "▁community": 2859,
      "▁ov": 2860,
      "▁computer": 2861,
      "!!!!!!!!": 2862,
      "▁guidance": 2863,
      "▁’’": 2864,
      "ls": 2865,
      "▁sat": 2866,
      "ed": 2867,
      "▁opportun": 2868,
      "▁harmonisation": 2869,
      "med": 2870,
      "▁rub": 2871,
      "works": 2872,
      "ried": 2873,
      "▁item": 2874,
      "▁love": 2875,
      "▁dall": 2876,
      "ory": 2877,
      "nce": 2878,
      "ilar": 2879,
      "▁month": 2880,
      "▁limb": 2881,
      "▁do": 2882,
      "bs": 2883,
      "▁regar": 2884,
      "▁studies": 2885,
      "▁respect": 2886,
      "▁supporting": 2887,
      "▁amendment": 2888,
      "▁myself": 2889,
      "▁wind": 2890,
      "▁canc": 2891,
      "struc": 2892,
      "▁aimed": 2893,
      "▁forgotten": 2894,
      "▁bee": 2895,
      "▁leaving": 2896,
      "▁came": 2897,
      "▁ed": 2898,
      "▁c": 2899,
      "▁deaths": 2900,
      "▁oper": 2901,
      "▁begun": 2902,
      "▁pasta": 2903,
      "▁wol": 2904,
      "▁recognize": 2905,
      "▁allig": 2906,
      "▁sl": 2907,
      "▁polaro": 2908,
      "▁hearings": 2909,
      "▁scholars": 2910,
      "▁cowboy": 2911,
      "▁bone": 2912,
      "▁confirmed": 2913,
      "▁cases": 2914,
      "▁travelling": 2915,
      "▁compl": 2916,
      "▁applied": 2917,
      "orter": 2918,
      "▁upon": 2919,
      "rim": 2920,
      "▁cow": 2921,
      "▁un": 2922,
      "▁self": 2923,
      "▁met": 2924,
      "gl": 2925,
      "▁point": 2926,
      "▁radio": 2927,
      "▁destin": 2928,
      "ick": 2929,
      "aking": 2930,
      "ottable": 2931,
      "▁uncle": 2932,
      "lem": 2933,
      "▁stuck": 2934,
      "rib": 2935,
      "▁prepare": 2936,
      "▁expand": 2937,
      "eck": 2938,
      "▁basket": 2939,
      "ning": 2940,
      "ent": 2941,
      "▁rev": 2942,
      "▁sources": 2943,
      "ft": 2944,
      "cause": 2945,
      "▁later": 2946,
      "▁dealing": 2947,
      "uter": 2948,
      "▁organization": 2949,
      "uff": 2950,
      "▁codes": 2951,
      "▁filtered": 2952,
      "▁episode": 2953,
      "▁schools": 2954,
      "▁dire": 2955,
      "▁sarah": 2956,
      "▁exch": 2957,
      "sent": 2958,
      "▁wing": 2959,
      "▁something": 2960,
      "▁spl": 2961,
      "▁dreams": 2962,
      "▁parad": 2963,
      "▁rele": 2964,
      "ly": 2965,
      "▁legislation": 2966,
      "▁quan": 2967,
      "▁thru": 2968,
      "▁legos": 2969,
      "▁reputation": 2970,
      "--": 2971,
      "▁)": 2972,
      "pathy": 2973,
      "inking": 2974,
      "▁iod": 2975,
      "▁volley": 2976,
      "▁trav": 2977,
      "▁movements": 2978,
      "▁cas": 2979,
      "tainty": 2980,
      "▁dece": 2981,
      "--------+----------------": 2982,
      "▁forwar": 2983,
      "▁purchasing": 2984,
      "▁youth": 2985,
      "▁no": 2986,
      "ka": 2987,
      "▁cash": 2988,
      "▁contribution": 2989,
      "▁sug": 2990,
      "▁ident": 2991,
      "ison": 2992,
      "▁improve": 2993,
      "ounds": 2994,
      "▁scan": 2995,
      "▁fiction": 2996,
      "hibited": 2997,
      "??": 2998,
      "ency": 2999,
      "▁identity": 3000,
      "▁hy": 3001,
      "▁etc.": 3002,
      "▁computers": 3003,
      "▁atlanta": 3004,
      "▁sectors": 3005,
      "▁sli": 3006,
      "▁shoe": 3007,
      "▁release": 3008,
      "▁comedy": 3009,
      "▁comple": 3010,
      "▁x": 3011,
      "ʃ": 3012,
      "ance": 3013,
      "▁ann": 3014,
      "▁beyond": 3015,
      "▁murder": 3016,
      "huh": 3017,
      "▁{": 3018,
      "▁lost": 3019,
      "▁alt.animals.": 3020,
      "▁name": 3021,
      "eti": 3022,
      "▁most": 3023,
      "▁commun": 3024,
      "▁sovereignty": 3025,
      "eets": 3026,
      "pan": 3027,
      "▁friend": 3028,
      "▁coming": 3029,
      "▁hos": 3030,
      "ou": 3031,
      "▁shame": 3032,
      "▁aircraft": 3033,
      "▁3": 3034,
      "▁grow": 3035,
      "▁pre": 3036,
      "aff": 3037,
      "▁box": 3038,
      "oon": 3039,
      "▁competition": 3040,
      "▁piz": 3041,
      "▁presents": 3042,
      "ear": 3043,
      "▁trouble": 3044,
      "▁|": 3045,
      "alls": 3046,
      "▁santorum": 3047,
      "▁ate": 3048,
      "▁prison": 3049,
      "▁glove": 3050,
      "▁got": 3051,
      "oot": 3052,
      "▁letter": 3053,
      "▁foundation": 3054,
      "▁homeopath": 3055,
      "▁prec": 3056,
      "▁saying": 3057,
      "▁oc": 3058,
      "▁buses": 3059,
      "▁instr": 3060,
      "▁o": 3061,
      "▁sugg": 3062,
      "icate": 3063,
      "½": 3064,
      "▁growing": 3065,
      "▁showing": 3066,
      "▁lamb": 3067,
      "▁arranged": 3068,
      "xim": 3069,
      "▁hal": 3070,
      "▁afric": 3071,
      "▁lea": 3072,
      "▁roared": 3073,
      "▁land": 3074,
      "▁spending": 3075,
      "▁forb": 3076,
      "▁fin": 3077,
      "ame": 3078,
      "▁herself": 3079,
      "▁activity": 3080,
      "▁like": 3081,
      "▁15": 3082,
      "▁kitty": 3083,
      "90s": 3084,
      "▁considering": 3085,
      "▁wake": 3086,
      "▁terrorist": 3087,
      "tc": 3088,
      "▁share": 3089,
      "ware": 3090,
      "▁zero": 3091,
      "▁passengers": 3092,
      "▁departing": 3093,
      "enings": 3094,
      "▁ri": 3095,
      "▁host": 3096,
      "▁reflect": 3097,
      "▁restrictions": 3098,
      "▁beauty": 3099,
      "▁sour": 3100,
      "▁environments": 3101,
      "▁imprisoned": 3102,
      "▁shit": 3103,
      "ef": 3104,
      "▁na": 3105,
      "anger": 3106,
      "atme": 3107,
      "ad": 3108,
      "▁find": 3109,
      "▁reality": 3110,
      "▁concepts": 3111,
      "▁dinos": 3112,
      "▁border": 3113,
      "▁hiding": 3114,
      "ish": 3115,
      "▁x3": 3116,
      "age": 3117,
      "▁proof": 3118,
      "▁helicop": 3119,
      "▁momma": 3120,
      "hus": 3121,
      "▁uncertainty": 3122,
      "▁endeav": 3123,
      "▁speech": 3124,
      "▁revolution": 3125,
      "▁police": 3126,
      "▁attend": 3127,
      "▁gardens": 3128,
      "▁i": 3129,
      "▁signed": 3130,
      "▁ki": 3131,
      "#": 3132,
      "▁soldi": 3133,
      "onom": 3134,
      "▁discip": 3135,
      "▁here": 3136,
      "ima": 3137,
      "▁tastes": 3138,
      "oving": 3139,
      "▁spend": 3140,
      "▁co": 3141,
      "▁prayer": 3142,
      "▁el": 3143,
      "▁shoo": 3144,
      "▁bands": 3145,
      "ject": 3146,
      "▁squeeze": 3147,
      "formation": 3148,
      "bb": 3149,
      "tit": 3150,
      "rism": 3151,
      "▁resulting": 3152,
      "ley": 3153,
      "▁hay": 3154,
      "▁movie": 3155,
      "▁hur": 3156,
      "▁fork": 3157,
      "arture": 3158,
      "▁won": 3159,
      "apolis": 3160,
      "ak": 3161,
      "▁doctor": 3162,
      "ording": 3163,
      "sually": 3164,
      "▁iss": 3165,
      "▁magazine": 3166,
      "▁carol": 3167,
      "ble": 3168,
      "▁fact": 3169,
      "▁teach": 3170,
      "▁percenti": 3171,
      "vely": 3172,
      "▁kit": 3173,
      "▁down": 3174,
      "▁te": 3175,
      "▁reads": 3176,
      "▁school": 3177,
      "▁web": 3178,
      "ito": 3179,
      "ections": 3180,
      "▁exclu": 3181,
      "cean": 3182,
      "▁above": 3183,
      "▁propose": 3184,
      "quarters": 3185,
      "▁theat": 3186,
      "ours": 3187,
      "▁recommend": 3188,
      "▁explos": 3189,
      "▁bring": 3190,
      "▁wor": 3191,
      "op": 3192,
      "▁apart": 3193,
      "▁dere": 3194,
      "ism": 3195,
      "▁search": 3196,
      "back": 3197,
      "▁stat": 3198,
      "▁europe": 3199,
      "▁reserv": 3200,
      "▁dol": 3201,
      "▁ability": 3202,
      "▁insur": 3203,
      "ents": 3204,
      "aped": 3205,
      "▁adap": 3206,
      "▁periods": 3207,
      "minated": 3208,
      "ceed": 3209,
      "ium": 3210,
      "▁citizen": 3211,
      "ia": 3212,
      "cc": 3213,
      "spite": 3214,
      "▁wizard": 3215,
      "▁round": 3216,
      "▁eye": 3217,
      "uding": 3218,
      "for": 3219,
      "stem": 3220,
      "▁industries": 3221,
      "▁smell": 3222,
      "▁=---": 3223,
      "▁rode": 3224,
      "▁identi": 3225,
      "▁intelligence": 3226,
      "▁obt": 3227,
      "lan": 3228,
      "▁collect": 3229,
      "▁promp": 3230,
      "wic": 3231,
      "▁cats": 3232,
      "▁interface": 3233,
      "▁broken": 3234,
      "▁van": 3235,
      "tail": 3236,
      "▁represent": 3237,
      "▁squ": 3238,
      "▁medic": 3239,
      "▁discovered": 3240,
      "▁columns": 3241,
      "essment": 3242,
      "▁humanity": 3243,
      "▁immigration": 3244,
      "▁continent": 3245,
      "▁editor": 3246,
      "▁operator": 3247,
      "▁….": 3248,
      "▁switched": 3249,
      "▁guarantee": 3250,
      "▁cows": 3251,
      "▁introduced": 3252,
      "▁grain": 3253,
      "▁trees": 3254,
      "ver": 3255,
      "▁bridge": 3256,
      "▁yard": 3257,
      "▁has": 3258,
      "▁takes": 3259,
      "▁gotten": 3260,
      "a": 3261,
      "▁custom": 3262,
      "▁barn": 3263,
      "▁business": 3264,
      "▁club": 3265,
      "oin": 3266,
      "▁weekends": 3267,
      "ence": 3268,
      "▁be": 3269,
      "▁bodies": 3270,
      "▁holds": 3271,
      "▁gis": 3272,
      "▁elect": 3273,
      "▁balloon": 3274,
      "▁tank": 3275,
      "▁champ": 3276,
      "+": 3277,
      "▁fulf": 3278,
      "▁---": 3279,
      "▁provin": 3280,
      "▁dogg": 3281,
      "▁title": 3282,
      "▁supports": 3283,
      "utes": 3284,
      "▁jo": 3285,
      "▁boston": 3286,
      "aos": 3287,
      "▁chat": 3288,
      "▁del": 3289,
      "▁cam": 3290,
      "▁plant": 3291,
      "▁liquid": 3292,
      "▁spear": 3293,
      "imed": 3294,
      "▁quino": 3295,
      "▁tub": 3296,
      "▁ago": 3297,
      "light": 3298,
      "▁!!!": 3299,
      "ate": 3300,
      "▁airport": 3301,
      "▁mat": 3302,
      "▁appreciate": 3303,
      "house": 3304,
      "▁solutions": 3305,
      "waukee": 3306,
      "▁achievement": 3307,
      "▁wr": 3308,
      "▁mother": 3309,
      "▁mom": 3310,
      "top": 3311,
      "▁beaches": 3312,
      "▁application": 3313,
      "▁dress": 3314,
      "tification": 3315,
      "rier": 3316,
      "▁cro": 3317,
      "▁cabb": 3318,
      "▁sit": 3319,
      "▁registered": 3320,
      "▁environment": 3321,
      "▁dra": 3322,
      "ufact": 3323,
      "arity": 3324,
      "▁diversity": 3325,
      "tise": 3326,
      "ʁ": 3327,
      "▁eating": 3328,
      "▁learning": 3329,
      "▁chocolate": 3330,
      "▁turtle": 3331,
      "▁wagon": 3332,
      "▁inhabit": 3333,
      "▁chr": 3334,
      "vil": 3335,
      "el": 3336,
      "▁operations": 3337,
      "▁sus": 3338,
      "▁dy": 3339,
      "sex": 3340,
      "▁di": 3341,
      "▁thinking": 3342,
      "▁had": 3343,
      "r.": 3344,
      "▁sector": 3345,
      "raph": 3346,
      "▁conde": 3347,
      "gg": 3348,
      "roleum": 3349,
      "▁chicken": 3350,
      "▁distribution": 3351,
      "arch": 3352,
      "▁teaching": 3353,
      "▁attributed": 3354,
      "loyed": 3355,
      "▁she": 3356,
      "con": 3357,
      "▁hospital": 3358,
      "urt": 3359,
      "aster": 3360,
      "▁stret": 3361,
      "▁instead": 3362,
      "▁when": 3363,
      "▁positions": 3364,
      "▁say": 3365,
      "▁families": 3366,
      "acting": 3367,
      "▁!!!!!!!!!!!!!!!": 3368,
      "erent": 3369,
      "▁story": 3370,
      "▁invest": 3371,
      "▁first": 3372,
      "▁beach": 3373,
      "▁mornings": 3374,
      "▁top": 3375,
      "spec": 3376,
      "▁worked": 3377,
      "▁copies": 3378,
      "▁emb": 3379,
      "▁enterpr": 3380,
      "▁pati": 3381,
      "▁enc": 3382,
      "ers": 3383,
      "▁cre": 3384,
      "▁ded": 3385,
      "▁videos": 3386,
      "▁couch": 3387,
      "▁....................": 3388,
      "▁!!!!!!!!!!!!!": 3389,
      "▁wild": 3390,
      "esty": 3391,
      "▁medium": 3392,
      "▁experi": 3393,
      "acts": 3394,
      "▁sev": 3395,
      "▁windows": 3396,
      "▁pe": 3397,
      "▁astr": 3398,
      "right": 3399,
      "▁wondering": 3400,
      "▁july": 3401,
      "▁as": 3402,
      "itations": 3403,
      "reat": 3404,
      "▁tool": 3405,
      "alog": 3406,
      "▁pencil": 3407,
      "▁cerem": 3408,
      "▁spin": 3409,
      "ased": 3410,
      "ature": 3411,
      "▁milit": 3412,
      "▁degrees": 3413,
      "▁|--------+----------------------->": 3414,
      "▁dav": 3415,
      "▁corp": 3416,
      "▁impact": 3417,
      "▁protect": 3418,
      "▁liked": 3419,
      "hold": 3420,
      "▁dolphins": 3421,
      "aroni": 3422,
      "ited": 3423,
      "▁·": 3424,
      "▁drug": 3425,
      "▁subs": 3426,
      "▁cray": 3427,
      "ifies": 3428,
      "▁dc": 3429,
      "uscri": 3430,
      "▁aw": 3431,
      "²": 3432,
      "▁requ": 3433,
      "▁integration": 3434,
      "▁cincinnati": 3435,
      "usted": 3436,
      "▁price": 3437,
      "▁economists": 3438,
      "▁location": 3439,
      "vening": 3440,
      "▁carro": 3441,
      "either": 3442,
      "▁adopted": 3443,
      "▁guerr": 3444,
      "inging": 3445,
      "▁---------------------------------": 3446,
      "etro": 3447,
      "▁studio": 3448,
      "irts": 3449,
      "▁knew": 3450,
      "apse": 3451,
      "▁sump": 3452,
      "rong": 3453,
      "▁demon": 3454,
      "uly": 3455,
      "▁sharing": 3456,
      "▁rabbits": 3457,
      "▁north": 3458,
      "▁belief": 3459,
      "▁vacc": 3460,
      "aign": 3461,
      "▁judgments": 3462,
      "▁oatme": 3463,
      "town": 3464,
      "▁demand": 3465,
      "▁ensuring": 3466,
      "▁begins": 3467,
      "▁parking": 3468,
      "hea": 3469,
      "▁pushing": 3470,
      "’s": 3471,
      "kers": 3472,
      "sh": 3473,
      "▁parake": 3474,
      "▁bea": 3475,
      "word": 3476,
      "osing": 3477,
      "▁sunday": 3478,
      "bir": 3479,
      "ge": 3480,
      "▁task": 3481,
      "▁adding": 3482,
      "▁reading": 3483,
      "▁picked": 3484,
      "▁post": 3485,
      "▁implementing": 3486,
      "0s": 3487,
      "▁grandmother": 3488,
      "▁aesthe": 3489,
      "▁horsie": 3490,
      "▁liqu": 3491,
      "orate": 3492,
      "actions": 3493,
      "▁developed": 3494,
      "▁glasses": 3495,
      "aint": 3496,
      "▁principle": 3497,
      "pse": 3498,
      "▁freedoms": 3499,
      "▁word": 3500,
      "ints": 3501,
      "`": 3502,
      "▁investment": 3503,
      "unte": 3504,
      "▁obs": 3505,
      "▁avoided": 3506,
      "ces": 3507,
      "▁need": 3508,
      "ense": 3509,
      "▁probably": 3510,
      "▁counsel": 3511,
      "▁candid": 3512,
      "▁complete": 3513,
      "▁macaroni": 3514,
      "▁shakespeare": 3515,
      "▁screw": 3516,
      "▁ps": 3517,
      "▁stair": 3518,
      "▁decl": 3519,
      "▁19": 3520,
      "▁surpr": 3521,
      "▁dro": 3522,
      "▁comm": 3523,
      "alsa": 3524,
      "ner": 3525,
      "▁course": 3526,
      "lando": 3527,
      "inating": 3528,
      "ities": 3529,
      "▁cabbage": 3530,
      "anim": 3531,
      "▁pad": 3532,
      "▁med": 3533,
      "▁products": 3534,
      "▁lose": 3535,
      "▁jew": 3536,
      "atic": 3537,
      "tim": 3538,
      "▁lin": 3539,
      "▁dated": 3540,
      "▁awa": 3541,
      "▁questioned": 3542,
      "ods": 3543,
      "▁recipient": 3544,
      "▁conf": 3545,
      "▁ens": 3546,
      "ids": 3547,
      "▁score": 3548,
      "▁sense": 3549,
      "▁publication": 3550,
      "▁nice": 3551,
      "▁documents": 3552,
      "▁cook": 3553,
      "iety": 3554,
      "▁shorts": 3555,
      "▁passport": 3556,
      "▁mushroom": 3557,
      "▁scored": 3558,
      "▁records": 3559,
      "ff": 3560,
      "▁tops": 3561,
      "▁sisters": 3562,
      "▁viewed": 3563,
      "▁green": 3564,
      "ir": 3565,
      "▁excuse": 3566,
      "▁assass": 3567,
      "▁seeds": 3568,
      "enture": 3569,
      "▁laughter": 3570,
      "aq": 3571,
      "▁airports": 3572,
      "▁player": 3573,
      "▁valley": 3574,
      "stances": 3575,
      "▁night": 3576,
      "▁u": 3577,
      "▁dollars": 3578,
      "▁sens": 3579,
      "▁bulld": 3580,
      "▁suppl": 3581,
      "▁facil": 3582,
      "▁approve": 3583,
      "▁attitude": 3584,
      "▁assist": 3585,
      "ely": 3586,
      "▁schem": 3587,
      "▁places": 3588,
      "viously": 3589,
      "▁terrorists": 3590,
      "▁quack": 3591,
      "▁cour": 3592,
      "▁eng": 3593,
      "pful": 3594,
      "▁mouse": 3595,
      "▁est": 3596,
      "ically": 3597,
      "▁promised": 3598,
      "▁satel": 3599,
      "▁ignor": 3600,
      "▁tree": 3601,
      "uit": 3602,
      "▁such": 3603,
      "▁pieces": 3604,
      "▁needs": 3605,
      "ler": 3606,
      "00": 3607,
      "▁pajamas": 3608,
      "▁propos": 3609,
      "▁shore": 3610,
      "▁write": 3611,
      "lig": 3612,
      "▁personality": 3613,
      "ined": 3614,
      "down": 3615,
      "▁rap": 3616,
      "▁recru": 3617,
      "cept": 3618,
      "▁mar": 3619,
      "ida": 3620,
      "▁fingers": 3621,
      "▁ve": 3622,
      "oud": 3623,
      "▁destro": 3624,
      "qu": 3625,
      "apping": 3626,
      "▁kitten": 3627,
      "id": 3628,
      "▁:": 3629,
      "enance": 3630,
      "▁coop": 3631,
      "▁drawn": 3632,
      "ugh": 3633,
      "ury": 3634,
      "▁foreign": 3635,
      "▁grounds": 3636,
      "▁ladies": 3637,
      "▁syrup": 3638,
      "▁suggested": 3639,
      "▁scene": 3640,
      "▁inves": 3641,
      "▁facility": 3642,
      "uch": 3643,
      "▁playing": 3644,
      "▁negoti": 3645,
      "▁wine": 3646,
      "▁require": 3647,
      "▁buttons": 3648,
      "alists": 3649,
      "▁reported": 3650,
      "▁earlier": 3651,
      "itions": 3652,
      "▁traveling": 3653,
      "aries": 3654,
      "▁struggle": 3655,
      "▁bath": 3656,
      "▁pl": 3657,
      "▁look": 3658,
      "▁foot": 3659,
      "▁assault": 3660,
      "▁!!": 3661,
      "▁cove": 3662,
      "▁&": 3663,
      "▁pizza": 3664,
      "▁cock": 3665,
      "bol": 3666,
      "ances": 3667,
      "▁env": 3668,
      "▁promoted": 3669,
      "▁waiver": 3670,
      "▁birds": 3671,
      "▁poodle": 3672,
      "▁nove": 3673,
      "▁fever": 3674,
      "▁turns": 3675,
      "▁promote": 3676,
      "▁dining": 3677,
      "ular": 3678,
      "oul": 3679,
      "▁hurt": 3680,
      "▁enemy": 3681,
      "▁acquis": 3682,
      "▁unles": 3683,
      "▁s/he": 3684,
      "▁territory": 3685,
      "▁greet": 3686,
      "board": 3687,
      "ining": 3688,
      "▁recall": 3689,
      "▁awareness": 3690,
      "umbled": 3691,
      "▁account": 3692,
      "▁les": 3693,
      "mit": 3694,
      "▁charm": 3695,
      "▁ven": 3696,
      "▁asylum": 3697,
      "▁fill": 3698,
      "▁snakes": 3699,
      "im": 3700,
      "ancy": 3701,
      "▁contr": 3702,
      "▁links": 3703,
      "▁authority": 3704,
      "▁contacts": 3705,
      "pts": 3706,
      ":": 3707,
      "▁governments": 3708,
      "gle": 3709,
      "▁sho": 3710,
      "▁whole": 3711,
      "4": 3712,
      "▁adj": 3713,
      "eel": 3714,
      "tled": 3715,
      "▁blink": 3716,
      "▁statue": 3717,
      "▁jacket": 3718,
      "▁hit": 3719,
      "▁defining": 3720,
      "ht": 3721,
      "▁subscrib": 3722,
      "▁crowd": 3723,
      "uffs": 3724,
      ".m.": 3725,
      "▁compan": 3726,
      "▁ye": 3727,
      "ape": 3728,
      "▁app": 3729,
      "als": 3730,
      "▁strike": 3731,
      "▁directions": 3732,
      "▁columb": 3733,
      "eeze": 3734,
      "▁elevator": 3735,
      "▁tic": 3736,
      "▁mos": 3737,
      "▁saf": 3738,
      "elly": 3739,
      "▁yog": 3740,
      "br": 3741,
      "▁distributed": 3742,
      "▁soil": 3743,
      "▁surface": 3744,
      "▁influ": 3745,
      "▁explo": 3746,
      "▁suffering": 3747,
      "▁feed": 3748,
      "▁start": 3749,
      "▁[...]": 3750,
      "▁snack": 3751,
      "▁guards": 3752,
      "ops": 3753,
      "▁control": 3754,
      "▁consum": 3755,
      "▁owl": 3756,
      "▁found": 3757,
      "▁gang": 3758,
      "▁ep": 3759,
      "▁fir": 3760,
      "▁offer": 3761,
      "▁coordination": 3762,
      "▁peop": 3763,
      "ww": 3764,
      "▁bag": 3765,
      "gery": 3766,
      "▁principles": 3767,
      "▁kitt": 3768,
      "▁due": 3769,
      "▁dem": 3770,
      "inity": 3771,
      "▁farmer": 3772,
      "ety": 3773,
      "iring": 3774,
      "▁disability": 3775,
      "▁pyr": 3776,
      "▁remained": 3777,
      "▁`s": 3778,
      "▁horse": 3779,
      "▁rel": 3780,
      "▁justice": 3781,
      "angu": 3782,
      "▁laundry": 3783,
      "▁ad": 3784,
      "▁profits": 3785,
      "▁customers": 3786,
      "▁rolled": 3787,
      "ght": 3788,
      "ect": 3789,
      "▁proce": 3790,
      "pr": 3791,
      "▁jar": 3792,
      "▁chef": 3793,
      "▁importance": 3794,
      "▁silk": 3795,
      "▁smile": 3796,
      "▁adm": 3797,
      "ointment": 3798,
      "lling": 3799,
      "▁grit": 3800,
      "▁yogurt": 3801,
      "▁vacuum": 3802,
      "▁gen": 3803,
      "▁texas": 3804,
      "▁backed": 3805,
      "▁climbing": 3806,
      "▁techn": 3807,
      "▁rene": 3808,
      "▁copied": 3809,
      "▁fox": 3810,
      "▁bab": 3811,
      "▁handed": 3812,
      "ending": 3813,
      "▁stillman": 3814,
      "▁river": 3815,
      "▁stopping": 3816,
      "▁drops": 3817,
      "derstanding": 3818,
      "▁ped": 3819,
      "▁candy": 3820,
      "▁gamb": 3821,
      "is": 3822,
      "▁economies": 3823,
      "▁antiqu": 3824,
      "▁jurisd": 3825,
      "ors": 3826,
      "▁next": 3827,
      "▁arrangements": 3828,
      "▁fine": 3829,
      "▁rot": 3830,
      "hap": 3831,
      "▁con": 3832,
      "▁proceed": 3833,
      "▁handle": 3834,
      "▁charge": 3835,
      "as": 3836,
      "▁hed": 3837,
      "▁fishing": 3838,
      "▁offers": 3839,
      "pond": 3840,
      "▁counc": 3841,
      "▁geor": 3842,
      "▁wall": 3843,
      "▁show": 3844,
      "▁nasa": 3845,
      "▁shot": 3846,
      "▁instructor": 3847,
      "▁memoir": 3848,
      "▁meth": 3849,
      "▁violation": 3850,
      "▁congratulations": 3851,
      "▁aside": 3852,
      "▁percent": 3853,
      "▁paid": 3854,
      "▁vend": 3855,
      "▁till": 3856,
      "▁examine": 3857,
      "▁receive": 3858,
      "eric": 3859,
      "iry": 3860,
      "inning": 3861,
      "▁flights": 3862,
      "▁form": 3863,
      "▁comment": 3864,
      "▁newsp": 3865,
      "▁seattle": 3866,
      "▁described": 3867,
      "▁ey": 3868,
      "▁exactly": 3869,
      "▁come": 3870,
      "▁event": 3871,
      "▁deteri": 3872,
      "▁fortune": 3873,
      "▁guar": 3874,
      "fication": 3875,
      "▁stories": 3876,
      "▁cy": 3877,
      "▁frozen": 3878,
      "▁neighbors": 3879,
      "▁mm": 3880,
      "▁re": 3881,
      "iqu": 3882,
      "illing": 3883,
      "▁lim": 3884,
      "▁gone": 3885,
      "ender": 3886,
      "▁cir": 3887,
      "▁strain": 3888,
      "▁shower": 3889,
      "▁grid": 3890,
      "▁alth": 3891,
      "▁income": 3892,
      "gre": 3893,
      "▁globe": 3894,
      "opath": 3895,
      "▁certific": 3896,
      "io": 3897,
      "y": 3898,
      "▁cupcake": 3899,
      "ising": 3900,
      "▁pro": 3901,
      "▁set": 3902,
      "▁soldier": 3903,
      "▁after": 3904,
      "▁nights": 3905,
      "▁fabric": 3906,
      "****": 3907,
      "ue": 3908,
      "▁lesson": 3909,
      "▁establishment": 3910,
      "…": 3911,
      "▁sett": 3912,
      "▁resume": 3913,
      "icians": 3914,
      "..": 3915,
      "▁flew": 3916,
      "▁paragraph": 3917,
      "▁audience": 3918,
      "▁performed": 3919,
      "▁disl": 3920,
      "▁himself": 3921,
      "▁planned": 3922,
      "▁coll": 3923,
      "▁telephone": 3924,
      "▁horn": 3925,
      "une": 3926,
      "▁mark": 3927,
      "uary": 3928,
      "▁banjo": 3929,
      "▁cultures": 3930,
      "▁soda": 3931,
      "▁recording": 3932,
      "▁scheduled": 3933,
      "▁manag": 3934,
      "▁into": 3935,
      "▁delivery": 3936,
      "ables": 3937,
      "▁it's": 3938,
      "▁states": 3939,
      "chie": 3940,
      "▁diseases": 3941,
      "▁coast": 3942,
      "▁chances": 3943,
      "gers": 3944,
      "▁senators": 3945,
      "get": 3946,
      "▁produc": 3947,
      "raction": 3948,
      "▁encouraged": 3949,
      "▁manufactur": 3950,
      "▁eyes": 3951,
      "▁atop": 3952,
      "▁asked": 3953,
      "▁conference": 3954,
      "▁proposals": 3955,
      "▁closing": 3956,
      "ν": 3957,
      "ancing": 3958,
      "▁remove": 3959,
      "ument": 3960,
      "[UNK]": 3961,
      "▁sold": 3962,
      "▁hosp": 3963,
      "▁aims": 3964,
      "▁consc": 3965,
      "▁airplane": 3966,
      "duction": 3967,
      "▁blocks": 3968,
      "▁ign": 3969,
      "▁pipeline": 3970,
      "▁skill": 3971,
      "▁queries": 3972,
      "ains": 3973,
      "▁communities": 3974,
      "▁voices": 3975,
      "▁adapted": 3976,
      "▁ursula": 3977,
      "ones": 3978,
      "▁ask": 3979,
      "▁pink": 3980,
      "▁middle": 3981,
      "aste": 3982,
      "▁spacetime": 3983,
      "▁seventh": 3984,
      "mar": 3985,
      "▁hold": 3986,
      "▁revers": 3987,
      "▁detail": 3988,
      "▁restric": 3989,
      "▁incorp": 3990,
      "▁acknowled": 3991,
      "▁jews": 3992,
      "bby": 3993,
      "▁removed": 3994,
      "ar": 3995,
      "essing": 3996,
      "▁haf": 3997,
      "▁jeans": 3998,
      "utiful": 3999,
      "yl": 4000,
      "▁locations": 4001,
      "▁burn": 4002,
      "▁wal": 4003,
      "lect": 4004,
      "▁comes": 4005,
      "▁distric": 4006,
      "▁serv": 4007,
      "▁perio": 4008,
      "▁conn": 4009,
      "▁transformation": 4010,
      "▁linked": 4011,
      "▁contracts": 4012,
      "▁civili": 4013,
      "▁cold": 4014,
      "▁attemp": 4015,
      "▁views": 4016,
      "▁poll": 4017,
      "▁prof": 4018,
      "▁former": 4019,
      "▁emp": 4020,
      "▁pretending": 4021,
      "▁policy": 4022,
      "▁eur": 4023,
      "▁warming": 4024,
      "▁hammer": 4025,
      "▁vod": 4026,
      "▁phys": 4027,
      "▁accomm": 4028,
      "▁acqui": 4029,
      "icul": 4030,
      "▁mice": 4031,
      "▁intentions": 4032,
      "▁fish": 4033,
      "▁rever": 4034,
      "▁investigate": 4035,
      "▁k": 4036,
      "ments": 4037,
      "▁farm": 4038,
      "▁gdp": 4039,
      "▁!!!!": 4040,
      "ier": 4041,
      "▁avoid": 4042,
      "▁have": 4043,
      "▁essence": 4044,
      "▁depends": 4045,
      "▁returning": 4046,
      "rates": 4047,
      "▁book": 4048,
      "▁knee": 4049,
      "alities": 4050,
      "▁affect": 4051,
      "eros": 4052,
      "▁obtained": 4053,
      "60s": 4054,
      "▁w": 4055,
      "▁’d": 4056,
      "▁lou": 4057,
      "enda": 4058,
      "come": 4059,
      "▁ag": 4060,
      "▁fighting": 4061,
      "▁bro": 4062,
      "▁path": 4063,
      "▁sched": 4064,
      "▁sweater": 4065,
      "▁survive": 4066,
      "▁through": 4067,
      "▁apar": 4068,
      "bre": 4069,
      "ass": 4070,
      "▁compon": 4071,
      "ust": 4072,
      "▁supported": 4073,
      "▁adoption": 4074,
      "▁season": 4075,
      "▁technique": 4076,
      "ato": 4077,
      "nec": 4078,
      "ugged": 4079,
      "▁counterpar": 4080,
      "▁report": 4081,
      "ploy": 4082,
      "▁lick": 4083,
      "cro": 4084,
      "jamas": 4085,
      "▁sil": 4086,
      "ug": 4087,
      "uty": 4088,
      "▁conditions": 4089,
      "▁manufact": 4090,
      "most": 4091,
      "ody": 4092,
      "▁east": 4093,
      "▁measure": 4094,
      "bles": 4095,
      "▁surgery": 4096,
      "▁fer": 4097,
      "▁steak": 4098,
      "tered": 4099,
      "▁incl": 4100,
      "▁limitations": 4101,
      "▁biting": 4102,
      "▁industry": 4103,
      "▁lot": 4104,
      "▁sw": 4105,
      "▁n": 4106,
      "^": 4107,
      "▁managers": 4108,
      "ς": 4109,
      "▁ring": 4110,
      "▁5": 4111,
      "ood": 4112,
      "▁refrigerator": 4113,
      "▁belongs": 4114,
      "▁priv": 4115,
      "ife": 4116,
      "▁ackn": 4117,
      "ill": 4118,
      "▁crop": 4119,
      "ling": 4120,
      "raw": 4121,
      "▁notwithstanding": 4122,
      "▁issue": 4123,
      "<": 4124,
      "▁crush": 4125,
      "▁thri": 4126,
      "▁fee": 4127,
      "▁pen": 4128,
      "▁don": 4129,
      "o": 4130,
      "ote": 4131,
      "▁cleaned": 4132,
      "ox": 4133,
      "box": 4134,
      "▁hurts": 4135,
      "friend": 4136,
      "▁product": 4137,
      "▁earliest": 4138,
      "onto": 4139,
      "order": 4140,
      "▁others": 4141,
      "rew": 4142,
      "▁pack": 4143,
      "▁stir": 4144,
      "▁fright": 4145,
      "olving": 4146,
      "actor": 4147,
      "▁paths": 4148,
      "--------": 4149,
      "▁sc": 4150,
      "▁branch": 4151,
      "▁national": 4152,
      "▁crime": 4153,
      "▁game": 4154,
      "tles": 4155,
      "oard": 4156,
      "▁workforce": 4157,
      "▁many": 4158,
      "▁longer": 4159,
      "ablish": 4160,
      "▁hors": 4161,
      "▁him": 4162,
      "▁wik": 4163,
      "oted": 4164,
      "ality": 4165,
      "▁bringing": 4166,
      "ogn": 4167,
      "▁brothers": 4168,
      "odes": 4169,
      "▁ref": 4170,
      "▁commitment": 4171,
      "▁interview": 4172,
      "▁pa": 4173,
      "▁mike": 4174,
      "lights": 4175,
      "▁expansion": 4176,
      "▁pass": 4177,
      "idden": 4178,
      "ior": 4179,
      "▁bomb": 4180,
      "▁photos": 4181,
      "▁lock": 4182,
      "▁pointing": 4183,
      "▁intrigu": 4184,
      "▁check": 4185,
      "▁man": 4186,
      "min": 4187,
      "▁rag": 4188,
      "▁chest": 4189,
      "atory": 4190,
      "▁theory": 4191,
      "▁menti": 4192,
      "▁should": 4193,
      "▁oath": 4194,
      "▁accep": 4195,
      "▁ple": 4196,
      "day": 4197,
      "▁thoughts": 4198,
      ".doc": 4199,
      "▁chicago": 4200,
      "-1": 4201,
      "u": 4202,
      "▁butterfl": 4203,
      "▁selected": 4204,
      "▁invented": 4205,
      "place": 4206,
      "▁attempts": 4207,
      "cinn": 4208,
      "▁asyl": 4209,
      "▁festivals": 4210,
      "▁jump": 4211,
      "agement": 4212,
      "▁squirt": 4213,
      "▁race": 4214,
      "▁b/": 4215,
      "▁cat": 4216,
      "erted": 4217,
      "▁concern": 4218,
      "zer": 4219,
      "wh": 4220,
      "▁der": 4221,
      "▁pret": 4222,
      "▁film": 4223,
      "▁so": 4224,
      "▁comb": 4225,
      "unct": 4226,
      "▁going": 4227,
      "▁b": 4228,
      "▁dream": 4229,
      "▁!!!!!!!!!!": 4230,
      "▁bel": 4231,
      "▁peanut": 4232,
      "▁ski": 4233,
      "inu": 4234,
      "▁audio": 4235,
      "▁penc": 4236,
      "issions": 4237,
      "▁cooked": 4238,
      "ix": 4239,
      "▁guerrillas": 4240,
      "ested": 4241,
      "iation": 4242,
      "▁bu": 4243,
      "▁reflected": 4244,
      "▁preparation": 4245,
      "able": 4246,
      "▁king": 4247,
      "▁millions": 4248,
      "▁concl": 4249,
      "▁legisl": 4250,
      "▁cocktail": 4251,
      "real": 4252,
      "ansas": 4253,
      "cent": 4254,
      "▁trial": 4255,
      "▁tot": 4256,
      "ys": 4257,
      "ocado": 4258,
      "▁indic": 4259,
      "▁two": 4260,
      "▁protected": 4261,
      "ie": 4262,
      "▁contents": 4263,
      "▁fares": 4264,
      "▁coo": 4265,
      "▁preserve": 4266,
      "nly": 4267,
      "▁establishing": 4268,
      "▁thursday": 4269,
      "▁dis": 4270,
      "rectly": 4271,
      "ock": 4272,
      "▁split": 4273,
      "▁prevail": 4274,
      "▁consciousness": 4275,
      "▁worn": 4276,
      "▁-----------------------------------------------------------------": 4277,
      "oph": 4278,
      "7": 4279,
      "▁cabinet": 4280,
      "bon": 4281,
      "▁toast": 4282,
      "▁gallon": 4283,
      "▁gri": 4284,
      "▁way": 4285,
      "▁second": 4286,
      "▁warned": 4287,
      "▁genius": 4288,
      "▁was": 4289,
      "▁poverty": 4290,
      "▁listing": 4291,
      "▁restaurants": 4292,
      "ace": 4293,
      "▁soft": 4294,
      "▁expecting": 4295,
      "▁agent": 4296,
      "▁connection": 4297,
      "▁adv": 4298,
      "▁uhh": 4299,
      "▁alliance": 4300,
      "ored": 4301,
      "inally": 4302,
      "▁filed": 4303,
      "▁wi": 4304,
      "j": 4305,
      "▁clear": 4306,
      "▁needed": 4307,
      "leum": 4308,
      "▁operation": 4309,
      "▁evidence": 4310,
      "▁hor": 4311,
      "list": 4312,
      "▁jih": 4313,
      "▁peace": 4314,
      "▁landscape": 4315,
      "▁image": 4316,
      "▁girlfriend": 4317,
      "▁figures": 4318,
      "reds": 4319,
      "▁career": 4320,
      "▁revealed": 4321,
      "▁separate": 4322,
      "▁mommy": 4323,
      "▁glo": 4324,
      "▁select": 4325,
      "▁mel": 4326,
      "▁yea": 4327,
      "ted": 4328,
      "▁though": 4329,
      "ml": 4330,
      "ticians": 4331,
      "▁defense": 4332,
      "urned": 4333,
      "▁vehic": 4334,
      "▁gained": 4335,
      "ck": 4336,
      "▁walked": 4337,
      "▁giving": 4338,
      "▁ending": 4339,
      "acked": 4340,
      "▁coverage": 4341,
      "arians": 4342,
      "▁spokesman": 4343,
      "▁penny": 4344,
      "ites": 4345,
      "▁known": 4346,
      "self": 4347,
      "▁beside": 4348,
      "yth": 4349,
      "://": 4350,
      "▁calls": 4351,
      "▁id": 4352,
      "ω": 4353,
      "▁required": 4354,
      "ye": 4355,
      "▁hands": 4356,
      "rops": 4357,
      "▁guacamole": 4358,
      "▁”": 4359,
      "▁innovation": 4360,
      "um": 4361,
      "▁gives": 4362,
      "hen": 4363,
      "lications": 4364,
      "▁lands": 4365,
      "▁blame": 4366,
      "-------": 4367,
      "it": 4368,
      "▁sights": 4369,
      "▁art": 4370,
      "otyp": 4371,
      "log": 4372,
      "▁bucket": 4373,
      "▁tail": 4374,
      "essed": 4375,
      "gel": 4376,
      "▁nov": 4377,
      "▁implementation": 4378,
      "▁concerned": 4379,
      "uries": 4380,
      "▁wan": 4381,
      "▁exper": 4382,
      "ybody": 4383,
      "ul": 4384,
      "▁allocated": 4385,
      "▁designer": 4386,
      "▁boot": 4387,
      "esday": 4388,
      "▁approach": 4389,
      "▁compar": 4390,
      "ility": 4391,
      "atisfaction": 4392,
      "▁coupons": 4393,
      "▁firms": 4394,
      "▁pil": 4395,
      "▁transl": 4396,
      "▁jul": 4397,
      "▁alread": 4398,
      "ding": 4399,
      "cience": 4400,
      "or": 4401,
      "und": 4402,
      "▁phot": 4403,
      "▁tiger": 4404,
      "eav": 4405,
      "▁understanding": 4406,
      "▁relief": 4407,
      "▁defined": 4408,
      "▁soy": 4409,
      "▁continu": 4410,
      "ports": 4411,
      "▁gcp": 4412,
      "▁17": 4413,
      "▁persons": 4414,
      "▁gains": 4415,
      "▁dinosaurs": 4416,
      "ributed": 4417,
      "▁mold": 4418,
      "▁origin": 4419,
      "▁navy": 4420,
      "▁born": 4421,
      "auce": 4422,
      "ack": 4423,
      "set": 4424,
      "▁achieved": 4425,
      "so": 4426,
      "▁consequences": 4427,
      "▁tragedies": 4428,
      "anded": 4429,
      "▁franc": 4430,
      "▁nur": 4431,
      "ec": 4432,
      "▁throughout": 4433,
      "▁perhap": 4434,
      "▁fold": 4435,
      "lar": 4436,
      "▁includes": 4437,
      "▁aband": 4438,
      "▁george": 4439,
      "uation": 4440,
      "▁pool": 4441,
      "▁goose": 4442,
      "▁bon": 4443,
      "ply": 4444,
      "aces": 4445,
      "▁posts": 4446,
      "▁pho": 4447,
      "▁forces": 4448,
      "eration": 4449,
      "▁forehead": 4450,
      "▁talking": 4451,
      "eer": 4452,
      "▁let": 4453,
      "▁!": 4454,
      "atis": 4455,
      "isd": 4456,
      "▁hoof": 4457,
      "▁origins": 4458,
      "▁suitcase": 4459,
      "▁row": 4460,
      "▁’m": 4461,
      "▁cars": 4462,
      "anks": 4463,
      "▁sleep": 4464,
      "▁rip": 4465,
      "▁amer": 4466,
      "▁highligh": 4467,
      "▁walking": 4468,
      "▁scribble": 4469,
      "▁average": 4470,
      "hic": 4471,
      "▁introduce": 4472,
      "▁bearing": 4473,
      "▁baltimore": 4474,
      "▁range": 4475,
      "▁requested": 4476,
      "nam": 4477,
      "▁monkey": 4478,
      "ies": 4479,
      "ields": 4480,
      "▁bott": 4481,
      "ipl": 4482,
      "▁light": 4483,
      "path": 4484,
      "ore": 4485,
      "▁parties": 4486,
      "▁allies": 4487,
      "▁st": 4488,
      "▁cancer": 4489,
      "▁work": 4490,
      "abit": 4491,
      "▁checked": 4492,
      "▁entertainment": 4493,
      "ghts": 4494,
      "▁nobody": 4495,
      "ower": 4496,
      "▁negot": 4497,
      "▁explore": 4498,
      "▁bew": 4499,
      "plan": 4500,
      "▁passes": 4501,
      "▁installing": 4502,
      "▁big": 4503,
      "ivers": 4504,
      "▁call": 4505,
      "▁correspondence": 4506,
      "▁docum": 4507,
      "▁rates": 4508,
      "▁becom": 4509,
      "up": 4510,
      "▁webs": 4511,
      "gency": 4512,
      "rif": 4513,
      "▁towards": 4514,
      "▁parakeet": 4515,
      "liament": 4516,
      "▁yelling": 4517,
      "ations": 4518,
      "*": 4519,
      "akes": 4520,
      "▁extend": 4521,
      "▁government": 4522,
      "▁died": 4523,
      "aring": 4524,
      "▁sale": 4525,
      "▁trans": 4526,
      "▁cover": 4527,
      "makers": 4528,
      "▁believes": 4529,
      "used": 4530,
      "▁compli": 4531,
      "▁lantern": 4532,
      "mer": 4533,
      "eral": 4534,
      "▁dign": 4535,
      "ag": 4536,
      "▁ab": 4537,
      "▁bars": 4538,
      "▁risks": 4539,
      "▁pi": 4540,
      "▁representatives": 4541,
      "▁sleeping": 4542,
      "▁drill": 4543,
      "ive": 4544,
      "▁har": 4545,
      "▁reports": 4546,
      "▁ears": 4547,
      "▁econom": 4548,
      "▁sss": 4549,
      "ving": 4550,
      "cles": 4551,
      "▁threatened": 4552,
      "tile": 4553,
      "imp": 4554,
      "ins": 4555,
      "▁combined": 4556,
      "ati": 4557,
      "▁moments": 4558,
      "▁salon": 4559,
      "▁creates": 4560,
      "▁duck": 4561,
      "▁ban": 4562,
      "▁heads": 4563,
      "▁fail": 4564,
      "▁hiking": 4565,
      "scope": 4566,
      "cally": 4567,
      "tling": 4568,
      "▁peoples": 4569,
      "▁clay": 4570,
      "▁enh": 4571,
      "▁fe": 4572,
      "ipped": 4573,
      "▁taught": 4574,
      "▁than": 4575,
      "▁imp": 4576,
      "▁hom": 4577,
      "@": 4578,
      "▁inj": 4579,
      "▁prep": 4580,
      "▁arab": 4581,
      "▁breakfast": 4582,
      "ches": 4583,
      "▁mention": 4584,
      "▁reminded": 4585,
      "▁hers": 4586,
      "▁cinnamon": 4587,
      "▁diego": 4588,
      "▁examining": 4589,
      "▁vs": 4590,
      "▁guid": 4591,
      "▁mind": 4592,
      "▁company": 4593,
      "▁listen": 4594,
      "▁true": 4595,
      "▁propaganda": 4596,
      "oss": 4597,
      "mber": 4598,
      "▁": 4599,
      "▁tend": 4600,
      "▁16": 4601,
      "▁executed": 4602,
      "▁projected": 4603,
      ".": 4604,
      "its": 4605,
      "▁deals": 4606,
      "▁clothing": 4607,
      "gy": 4608,
      "uted": 4609,
      "▁kid": 4610,
      "▁reception": 4611,
      "▁floating": 4612,
      "ard": 4613,
      "▁cliff": 4614,
      "▁sn": 4615,
      "istic": 4616,
      "▁tickle": 4617,
      "▁doubts": 4618,
      "ise": 4619,
      "itely": 4620,
      "▁murders": 4621,
      "▁fre": 4622,
      "▁flooding": 4623,
      "▁hug": 4624,
      "zations": 4625,
      "▁posted": 4626,
      "▁negotiated": 4627,
      "▁des": 4628,
      "▁vict": 4629,
      "▁further": 4630,
      "▁branches": 4631,
      "▁cleveland": 4632,
      "▁wheel": 4633,
      "▁piv": 4634,
      "▁error": 4635,
      "▁sees": 4636,
      "▁oct": 4637,
      "ful": 4638,
      "tor": 4639,
      "▁giant": 4640,
      "chang": 4641,
      "▁hat": 4642,
      "equ": 4643,
      "▁minute": 4644,
      "▁centuries": 4645,
      "▁li": 4646,
      "▁acc": 4647,
      "lers": 4648,
      "▁began": 4649,
      "▁hotels": 4650,
      "▁regime": 4651,
      "▁spot": 4652,
      "igning": 4653,
      "▁chap": 4654,
      "▁office": 4655,
      "▁since": 4656,
      "▁discussion": 4657,
      "perity": 4658,
      "aining": 4659,
      "▁demonstr": 4660,
      "▁wrest": 4661,
      "▁female": 4662,
      "▁recorder": 4663,
      "ict": 4664,
      "pl": 4665,
      "ront": 4666,
      "ei": 4667,
      "▁notw": 4668,
      "▁ignore": 4669,
      "ʻ": 4670,
      "▁!!!!!!!": 4671,
      "▁aid": 4672,
      "asm": 4673,
      "▁eat": 4674,
      "cer": 4675,
      "▁estate": 4676,
      "▁treatments": 4677,
      "▁withd": 4678,
      "▁survey": 4679,
      "▁hour": 4680,
      "▁reform": 4681,
      "eds": 4682,
      "▁collaboration": 4683,
      "orities": 4684,
      "'clock": 4685,
      "▁decision": 4686,
      "ade": 4687,
      "▁hon": 4688,
      "▁tol": 4689,
      "▁lifetime": 4690,
      "lined": 4691,
      "lik": 4692,
      "▁arguments": 4693,
      "ily": 4694,
      "ker": 4695,
      "▁picture": 4696,
      "▁dancing": 4697,
      "▁sup": 4698,
      "▁honey": 4699,
      "▁asc": 4700,
      "▁…": 4701,
      "▁music": 4702,
      "▁presentation": 4703,
      "▁fixed": 4704,
      "ment": 4705,
      "▁tons": 4706,
      "▁dilem": 4707,
      "▁intercon": 4708,
      "▁comments": 4709,
      "rest": 4710,
      "▁minister": 4711,
      "n": 4712,
      "ares": 4713,
      "▁flying": 4714,
      "▁roll": 4715,
      "▁ends": 4716,
      "▁boats": 4717,
      "▁constituency": 4718,
      "▁reducing": 4719,
      "▁earned": 4720,
      "▁hard": 4721,
      "▁vom": 4722,
      "▁resource": 4723,
      "▁integr": 4724,
      "▁qu": 4725,
      "iction": 4726,
      "▁ceremony": 4727,
      "▁duties": 4728,
      "▁hall": 4729,
      "▁taxi": 4730,
      "▁che": 4731,
      "ril": 4732,
      "▁dialog": 4733,
      "▁settings": 4734,
      "▁laur": 4735,
      "▁deployed": 4736,
      "▁identified": 4737,
      "▁lic": 4738,
      "▁issued": 4739,
      "▁craw": 4740,
      "man": 4741,
      "▁expl": 4742,
      "▁tab": 4743,
      "▁colour": 4744,
      "▁even": 4745,
      "▁plan": 4746,
      "iously": 4747,
      "▁exh": 4748,
      "▁nume": 4749,
      "▁exposure": 4750,
      "ocked": 4751,
      "▁ready": 4752,
      "ess": 4753,
      "old": 4754,
      "▁import": 4755,
      "istan": 4756,
      "▁premium": 4757,
      "▁n't": 4758,
      "▁therefore": 4759,
      "ty": 4760,
      "▁wednesday": 4761,
      "▁prosec": 4762,
      "▁role": 4763,
      "▁seas": 4764,
      "▁gd": 4765,
      "▁january": 4766,
      "▁discre": 4767,
      "▁asp": 4768,
      "▁nails": 4769,
      "ire": 4770,
      "err": 4771,
      "▁islands": 4772,
      "ounded": 4773,
      "▁abandoned": 4774,
      "▁bo": 4775,
      "'": 4776,
      "▁owned": 4777,
      "▁collap": 4778,
      "▁identifies": 4779,
      "▁buil": 4780,
      "****************": 4781,
      "#693": 4782,
      "▁level": 4783,
      "▁cros": 4784,
      "▁visiting": 4785,
      "structed": 4786,
      "▁sword": 4787,
      "▁in": 4788,
      "ead": 4789,
      "▁household": 4790,
      "ob": 4791,
      "apped": 4792,
      "rec": 4793,
      "uis": 4794,
      "▁shake": 4795,
      "bers": 4796,
      "bo": 4797,
      "▁nine": 4798,
      "▁receives": 4799,
      "▁tampa": 4800,
      "▁fant": 4801,
      "ated": 4802,
      "▁fash": 4803,
      "▁captain": 4804,
      "▁quote": 4805,
      "▁before": 4806,
      "▁pipe": 4807,
      "▁november": 4808,
      "▁mop": 4809,
      "▁occup": 4810,
      "▁developing": 4811,
      "▁drop": 4812,
      "▁expected": 4813,
      "-s": 4814,
      "▁tu": 4815,
      "▁drive": 4816,
      "ories": 4817,
      "____": 4818,
      "▁em": 4819,
      "▁vint": 4820,
      "▁meas": 4821,
      "▁unc": 4822,
      "▁sha": 4823,
      "oney": 4824,
      "▁frequ": 4825,
      "▁rush": 4826,
      "▁mid-": 4827,
      "▁trad": 4828,
      "ades": 4829,
      "▁arts": 4830,
      "▁likes": 4831,
      "gh": 4832,
      "▁grav": 4833,
      "ema": 4834,
      "'re": 4835,
      "roph": 4836,
      "bed": 4837,
      "▁height": 4838,
      "▁grill": 4839,
      "▁india": 4840,
      "ellow": 4841,
      "▁liber": 4842,
      "ional": 4843,
      "▁substance": 4844,
      "iam": 4845,
      "▁jihad": 4846,
      "▁financial": 4847,
      "ished": 4848,
      "▁boxes": 4849,
      "▁waiting": 4850,
      "▁daily": 4851,
      "▁incident": 4852,
      "isation": 4853,
      "▁statement": 4854,
      "▁destroyed": 4855,
      "▁storage": 4856,
      "▁refer": 4857,
      "9": 4858,
      "▁particles": 4859,
      "▁depar": 4860,
      ".pdf": 4861,
      "▁health": 4862,
      "▁based": 4863,
      "ended": 4864,
      "▁pricing": 4865,
      "▁archit": 4866,
      "▁copyright": 4867,
      "ened": 4868,
      "erated": 4869,
      "▁median": 4870,
      "▁growth": 4871,
      "▁agreement": 4872,
      "▁dressed": 4873,
      "▁rif": 4874,
      "▁contro": 4875,
      "▁pur": 4876,
      "▁impacts": 4877,
      "ig": 4878,
      "rous": 4879,
      "▁shadows": 4880,
      "▁sugar": 4881,
      "▁ones": 4882,
      "▁values": 4883,
      "▁compete": 4884,
      "▁spea": 4885,
      "▁tray": 4886,
      "▁societies": 4887,
      "▁intervention": 4888,
      "▁this": 4889,
      "▁execution": 4890,
      "▁discovery": 4891,
      "▁examined": 4892,
      "ath": 4893,
      "▁christ": 4894,
      "▁commitments": 4895,
      "▁trave": 4896,
      "▁red": 4897,
      "▁whose": 4898,
      "timate": 4899,
      "▁tummy": 4900,
      "▁characteristics": 4901,
      "ks": 4902,
      "mitted": 4903,
      "▁scar": 4904,
      "▁bound": 4905,
      "▁arrival": 4906,
      "▁addition": 4907,
      "iting": 4908,
      "▁powder": 4909,
      "▁any": 4910,
      "▁choo": 4911,
      "▁december": 4912,
      "▁quinoa": 4913,
      "▁petroleum": 4914,
      "▁opposite": 4915,
      "▁images": 4916,
      "▁up": 4917,
      "oked": 4918,
      "tering": 4919,
      "▁quinn": 4920,
      "▁temperature": 4921,
      "▁fort": 4922,
      "▁dying": 4923,
      "▁earth": 4924,
      "vol": 4925,
      "▁monday": 4926,
      "▁remarks": 4927,
      "▁bread": 4928,
      "▁atmos": 4929,
      "▁practices": 4930,
      "aus": 4931,
      "esaw": 4932,
      "▁cried": 4933,
      "▁us": 4934,
      "▁mess": 4935,
      "▁thing": 4936,
      "▁wo": 4937,
      "▁key": 4938,
      "▁materials": 4939,
      "▁bears": 4940,
      "▁theme": 4941,
      "▁promotion": 4942,
      "▁given": 4943,
      "▁band": 4944,
      "ority": 4945,
      "▁licens": 4946,
      "▁every": 4947,
      "tee": 4948,
      "uration": 4949,
      "vel": 4950,
      "▁stairs": 4951,
      "▁declared": 4952,
      "▁conduc": 4953,
      "ket": 4954,
      "▁china": 4955,
      "▁drama": 4956,
      "▁entering": 4957,
      "▁penalty": 4958,
      "▁large": 4959,
      "chup": 4960,
      "tride": 4961,
      "▁owners": 4962,
      "▁momm": 4963,
      "work": 4964,
      "▁remind": 4965,
      "▁which": 4966,
      "thing": 4967,
      "▁restaurant": 4968,
      "▁sem": 4969,
      "▁perform": 4970,
      "▁>>": 4971,
      "▁attacks": 4972,
      "ats": 4973,
      "▁suicide": 4974,
      "▁ways": 4975,
      "▁relationship": 4976,
      "lim": 4977,
      "▁expanding": 4978,
      "▁particularly": 4979,
      "▁debated": 4980,
      "[MASK]": 4981,
      "enth": 4982,
      "▁created": 4983,
      "▁shoulder": 4984,
      "▁together": 4985,
      "▁surf": 4986,
      "▁daughter": 4987,
      "▁points": 4988,
      "▁poem": 4989,
      "▁lil": 4990,
      "▁better": 4991,
      "▁recip": 4992,
      "▁sleeve": 4993,
      "erate": 4994,
      "▁apples": 4995,
      "▁fits": 4996,
      "▁distur": 4997,
      "▁priorities": 4998,
      "▁staying": 4999,
      "ʒ": 5000,
      "vement": 5001,
      "unt": 5002,
      "▁motion": 5003,
      "▁rich": 5004,
      "bal": 5005,
      "▁hous": 5006,
      "▁presence": 5007,
      "lus": 5008,
      "▁es": 5009,
      "▁heat": 5010,
      "▁failure": 5011,
      "▁skills": 5012,
      "=----": 5013,
      "arks": 5014,
      "▁specify": 5015,
      "▁hoc": 5016,
      "▁dinner": 5017,
      "▁offering": 5018,
      "▁lean": 5019,
      "▁message": 5020,
      "▁apprec": 5021,
      "▁also": 5022,
      "▁collected": 5023,
      "▁evolved": 5024,
      "tai": 5025,
      "tivity": 5026,
      "▁produces": 5027,
      "▁package": 5028,
      "▁harm": 5029,
      "▁fought": 5030,
      "▁knowledge": 5031,
      "▁bir": 5032,
      "▁tomatoes": 5033,
      "▁cards": 5034,
      "▁artists": 5035,
      "nd": 5036,
      "▁style": 5037,
      "arian": 5038,
      "▁survived": 5039,
      "▁button": 5040,
      "▁wig": 5041,
      "▁recognition": 5042,
      "v": 5043,
      "▁hearts": 5044,
      "▁reviewed": 5045,
      "▁balances": 5046,
      "\"": 5047,
      "▁constitu": 5048,
      "▁vide": 5049,
      "▁boo": 5050,
      "▁morning": 5051,
      "▁stone": 5052,
      "▁bacon": 5053,
      "phere": 5054,
      "idence": 5055,
      "▁determine": 5056,
      "▁each": 5057,
      "▁inclu": 5058,
      "▁cycl": 5059,
      "▁proced": 5060,
      "▁contest": 5061,
      "▁recogn": 5062,
      "▁mul": 5063,
      "ually": 5064,
      "▁space": 5065,
      "ost": 5066,
      "lief": 5067,
      "ps": 5068,
      "œ": 5069,
      "▁spoken": 5070,
      "▁circ": 5071,
      "hip": 5072,
      "▁min": 5073,
      "▁e": 5074,
      "▁t": 5075,
      "▁los": 5076,
      "▁attitudes": 5077,
      "▁arrangement": 5078,
      "▁rabbit": 5079,
      "▁reasons": 5080,
      "▁throwing": 5081,
      "▁secret": 5082,
      "▁break": 5083,
      "▁legs": 5084,
      "▁gets": 5085,
      "▁journal": 5086,
      "ishing": 5087,
      "ocr": 5088,
      "▁sav": 5089,
      "ol": 5090,
      "▁rule": 5091,
      "▁coff": 5092,
      "▁chemicals": 5093,
      "p;": 5094,
      "▁socks": 5095,
      "ong": 5096,
      "▁those": 5097,
      "▁frid": 5098,
      "▁implications": 5099,
      "us": 5100,
      "▁road": 5101,
      "ero": 5102,
      "▁lack": 5103,
      "▁smiling": 5104,
      "▁seam": 5105,
      "▁measured": 5106,
      "▁deficiency": 5107,
      "▁written": 5108,
      "▁paperwork": 5109,
      "▁elephant": 5110,
      "asp": 5111,
      "adle": 5112,
      "▁neuro": 5113,
      "▁yester": 5114,
      "▁develop": 5115,
      "/2": 5116,
      "alized": 5117,
      "▁cake": 5118,
      "▁hun": 5119,
      "▁r": 5120,
      "▁environ": 5121,
      "▁inform": 5122,
      "▁certain": 5123,
      "▁conv": 5124,
      "▁grant": 5125,
      "▁pref": 5126,
      "▁coffee": 5127,
      ".xls": 5128,
      "▁listened": 5129,
      "titude": 5130,
      "hol": 5131,
      "▁prev": 5132,
      "▁america": 5133,
      "%": 5134,
      "▁headed": 5135,
      "alization": 5136,
      "▁clean": 5137,
      "▁upside": 5138,
      "▁far": 5139,
      "ests": 5140,
      "▁advis": 5141,
      "▁sti": 5142,
      "fts": 5143,
      "ading": 5144,
      "ials": 5145,
      "▁stepping": 5146,
      "▁jungle": 5147,
      "▁sign": 5148,
      "▁climate": 5149,
      "▁recipe": 5150,
      "▁km": 5151,
      "▁purchased": 5152,
      "▁permission": 5153,
      "▁suspected": 5154,
      "leg": 5155,
      "ghting": 5156,
      "ont": 5157,
      "▁desk": 5158,
      "▁effort": 5159,
      "▁messages": 5160,
      "▁beings": 5161,
      "▁arg": 5162,
      "▁increases": 5163,
      "▁lo": 5164,
      "▁accepted": 5165,
      "ater": 5166,
      "ease": 5167,
      "▁sonnets": 5168,
      "eting": 5169,
      "▁'ve": 5170,
      "▁beans": 5171,
      "iate": 5172,
      "▁ach": 5173,
      "▁manuscri": 5174,
      "▁opin": 5175,
      "▁plans": 5176,
      "▁loves": 5177,
      "▁becoming": 5178,
      "▁agric": 5179,
      ")": 5180,
      "▁201": 5181,
      "????????????????": 5182,
      "------------": 5183,
      "ensions": 5184,
      "▁pyram": 5185,
      "▁individ": 5186,
      "▁minds": 5187,
      "▁park": 5188,
      "tims": 5189,
      "cess": 5190,
      "▁execute": 5191,
      "▁lines": 5192,
      "▁recog": 5193,
      "▁holidays": 5194,
      "sul": 5195,
      "▁preserved": 5196,
      "key": 5197,
      "▁jan": 5198,
      "lo": 5199,
      "▁deliver": 5200,
      "▁priority": 5201,
      "▁ret": 5202,
      "sus": 5203,
      "▁towed": 5204,
      "▁addressing": 5205,
      "▁tape": 5206,
      "aled": 5207,
      "▁spec": 5208,
      "▁slept": 5209,
      "▁rose": 5210,
      "▁starts": 5211,
      "▁via": 5212,
      "▁killed": 5213,
      "acking": 5214,
      "▁!!!!!!!!!!!!!!!!!!!": 5215,
      "▁exc": 5216,
      "“": 5217,
      "ores": 5218,
      "▁reduces": 5219,
      "▁statis": 5220,
      "▁stretched": 5221,
      "tiv": 5222,
      "▁square": 5223,
      "▁appropri": 5224,
      "▁aven": 5225,
      "▁estimated": 5226,
      "▁denied": 5227,
      "▁describ": 5228,
      "▁addressed": 5229,
      "▁belong": 5230,
      "▁references": 5231,
      "ro": 5232,
      "▁opinions": 5233,
      "▁impro": 5234,
      "▁heav": 5235,
      "▁etc": 5236,
      "▁ho": 5237,
      "▁cooperation": 5238,
      "▁pulling": 5239,
      "▁era": 5240,
      "olves": 5241,
      "▁coordin": 5242,
      "▁terrorism": 5243,
      "▁gain": 5244,
      "ington": 5245,
      "▁adopt": 5246,
      "▁vegetables": 5247,
      "▁swallow": 5248,
      "▁cafe": 5249,
      "▁doubt": 5250,
      "ules": 5251,
      "itive": 5252,
      "ngth": 5253,
      "▁thy": 5254,
      "▁>": 5255,
      "▁increasing": 5256,
      "orage": 5257,
      "▁jumped": 5258,
      "▁made": 5259,
      "▁contrast": 5260,
      "▁said": 5261,
      "▁functions": 5262,
      "▁crimes": 5263,
      "▁approved": 5264,
      "▁skin": 5265,
      "▁assets": 5266,
      "▁august": 5267,
      "▁dre": 5268,
      "▁pepper": 5269,
      "umble": 5270,
      "▁rep": 5271,
      "▁rememb": 5272,
      "▁......": 5273,
      "ep": 5274,
      "▁especially": 5275,
      "▁sail": 5276,
      "▁making": 5277,
      "▁extre": 5278,
      "▁recognized": 5279,
      "▁charlotte": 5280,
      "iture": 5281,
      "ø": 5282,
      "▁siz": 5283,
      "▁besides": 5284,
      "▁off": 5285,
      "▁expectations": 5286,
      "▁corner": 5287,
      "▁markets": 5288,
      "▁piano": 5289,
      "▁breaking": 5290,
      "▁bom": 5291,
      "▁shuttle": 5292,
      "▁laws": 5293,
      "c": 5294,
      "ude": 5295,
      "itated": 5296,
      "▁medicine": 5297,
      "▁pra": 5298,
      "▁frame": 5299,
      "▁uses": 5300,
      "▁stretch": 5301,
      "▁balzac": 5302,
      "▁imagined": 5303,
      "▁quick": 5304,
      "▁scenar": 5305,
      "pos": 5306,
      "▁waters": 5307,
      "tion": 5308,
      "▁robo": 5309,
      "amples": 5310,
      "itled": 5311,
      "▁imagine": 5312,
      "▁vit": 5313,
      "▁caps": 5314,
      "itals": 5315,
      "▁certificate": 5316,
      "▁cooking": 5317,
      "▁painting": 5318,
      "▁diaper": 5319,
      "aur": 5320,
      "▁lawyers": 5321,
      "▁none": 5322,
      "▁enter": 5323,
      "▁fam": 5324,
      "abilities": 5325,
      "ocation": 5326,
      "▁bub": 5327,
      "▁wat": 5328,
      "▁divers": 5329,
      "ott": 5330,
      "ptions": 5331,
      "ction": 5332,
      "▁fair": 5333,
      "▁destroy": 5334,
      "cr": 5335,
      "▁earli": 5336,
      "▁inside": 5337,
      "ike": 5338,
      "▁studying": 5339,
      "neath": 5340,
      "▁p.m.": 5341,
      "▁realism": 5342,
      "▁phenomen": 5343,
      "▁acquired": 5344,
      "▁sky": 5345,
      "▁expressed": 5346,
      "ios": 5347,
      "▁tonight": 5348,
      "▁goals": 5349,
      "▁signing": 5350,
      "▁challen": 5351,
      "▁privacy": 5352,
      "▁engage": 5353,
      "▁code": 5354,
      "▁phase": 5355,
      "▁questions": 5356,
      "▁kn": 5357,
      ".com": 5358,
      "▁versions": 5359,
      "▁hope": 5360,
      "▁whil": 5361,
      "▁method": 5362,
      "▁dr": 5363,
      "▁areas": 5364,
      "ether": 5365,
      "▁foods": 5366,
      "▁led": 5367,
      "lities": 5368,
      "▁cred": 5369,
      "▁iv": 5370,
      "▁collapsed": 5371,
      "▁salad": 5372,
      "pletely": 5373,
      "▁gal": 5374,
      "ali": 5375,
      "unction": 5376,
      "phia": 5377,
      "▁pour": 5378,
      "over": 5379,
      "▁couple": 5380,
      "▁shop": 5381,
      "rote": 5382,
      "▁fees": 5383,
      "▁af": 5384,
      "ture": 5385,
      "▁officer": 5386,
      "▁kill": 5387,
      "▁—": 5388,
      "▁shr": 5389,
      "▁datash": 5390,
      "lish": 5391,
      "ration": 5392,
      "▁aff": 5393,
      "▁meetings": 5394,
      "▁pocketbook": 5395,
      "▁marked": 5396,
      "▁passed": 5397,
      "▁mo": 5398,
      "▁responsibilities": 5399,
      "▁ensure": 5400,
      "▁tickets": 5401,
      "▁donations": 5402,
      "▁camp": 5403,
      "▁friendly": 5404,
      "▁complaint": 5405,
      "▁banks": 5406,
      "attered": 5407,
      "▁demanding": 5408,
      "▁mov": 5409,
      "▁somebody": 5410,
      "▁experience": 5411,
      "▁hist": 5412,
      "▁cruise": 5413,
      "▁carbon": 5414,
      "▁u.": 5415,
      "▁minutes": 5416,
      "▁snow": 5417,
      "▁addiction": 5418,
      "▁pilot": 5419,
      "▁population": 5420,
      "▁valu": 5421,
      "lished": 5422,
      "eers": 5423,
      "▁lar": 5424,
      "▁browser": 5425,
      "▁continued": 5426,
      "▁myce": 5427,
      "▁bad": 5428,
      "▁definition": 5429,
      "owled": 5430,
      "▁ou": 5431,
      "▁declare": 5432,
      "ging": 5433,
      "▁univers": 5434,
      "ycle": 5435,
      "▁angeles": 5436,
      "▁roman": 5437,
      "▁says": 5438,
      "elled": 5439,
      "▁assumed": 5440,
      "▁buy": 5441,
      "ond": 5442,
      "▁leash": 5443,
      "▁lights": 5444,
      "▁resear": 5445,
      "▁initiatives": 5446,
      "▁organized": 5447,
      "▁tomorrow": 5448,
      "▁confid": 5449,
      "ush": 5450,
      "olis": 5451,
      "▁blood": 5452,
      "ided": 5453,
      "os": 5454,
      "iss": 5455,
      "▁pray": 5456,
      "▁intel": 5457,
      "▁intern": 5458,
      "▁files": 5459,
      "lium": 5460,
      "▁screen": 5461,
      "▁element": 5462,
      "▁mach": 5463,
      "▁princip": 5464,
      "zen": 5465,
      "▁often": 5466,
      "▁def": 5467,
      "▁easy": 5468,
      "▁pee": 5469,
      "even": 5470,
      "▁rock": 5471,
      "▁playwright": 5472,
      "erts": 5473,
      "▁gro": 5474,
      "▁methods": 5475,
      "▁damage": 5476,
      "veral": 5477,
      "▁transaction": 5478,
      "▁backs": 5479,
      "▁convinced": 5480,
      "acter": 5481,
      "▁portr": 5482,
      "mes": 5483,
      "▁veter": 5484,
      "▁machines": 5485,
      "omination": 5486,
      "▁shadow": 5487,
      "▁query": 5488,
      "▁dig": 5489,
      "▁beds": 5490,
      "erating": 5491,
      "▁incitement": 5492,
      "▁welc": 5493,
      "ssible": 5494,
      "▁reason": 5495,
      "▁confusion": 5496,
      "▁vodka": 5497,
      "▁brother": 5498,
      "▁bl": 5499,
      "zation": 5500,
      "▁represented": 5501,
      "d-": 5502,
      "▁garage": 5503,
      "ounced": 5504,
      "▁trips": 5505,
      "▁bal": 5506,
      "arg": 5507,
      "▁life": 5508,
      "▁track": 5509,
      "istence": 5510,
      "ally": 5511,
      "urn": 5512,
      "oned": 5513,
      "▁stage": 5514,
      "▁stamp": 5515,
      "▁flu": 5516,
      "aming": 5517,
      "▁mirror": 5518,
      "▁statute": 5519,
      "oder": 5520,
      "▁dividends": 5521,
      "▁**": 5522,
      "▁micro": 5523,
      "▁division": 5524,
      "▁destiny": 5525,
      "▁mu": 5526,
      "eor": 5527,
      "▁tric": 5528,
      "il": 5529,
      "♥": 5530,
      "▁sym": 5531,
      "▁named": 5532,
      "▁filled": 5533,
      "▁pair": 5534,
      "▁therap": 5535,
      "▁attr": 5536,
      "ana": 5537,
      "ca": 5538,
      "▁of": 5539,
      "omet": 5540,
      "▁wrap": 5541,
      "ates": 5542,
      "▁defeated": 5543,
      "▁ans": 5544,
      "fic": 5545,
      "▁dose": 5546,
      "asure": 5547,
      "▁shared": 5548,
      "icking": 5549,
      "▁note": 5550,
      "▁thought": 5551,
      "▁everything": 5552,
      "▁amongst": 5553,
      "³": 5554,
      "▁concrete": 5555,
      "inter": 5556,
      "▁lying": 5557,
      "▁send": 5558,
      "iency": 5559,
      "▁generated": 5560,
      "▁mycelium": 5561,
      "▁crimin": 5562,
      "▁crew": 5563,
      "▁headquarters": 5564,
      "▁phrase": 5565,
      "▁nail": 5566,
      "▁operating": 5567,
      "▁garb": 5568,
      "▁teasp": 5569,
      "▁built": 5570,
      "ward": 5571,
      "inist": 5572,
      "▁mem": 5573,
      "▁remembered": 5574,
      "▁opening": 5575,
      "▁modified": 5576,
      "▁cous": 5577,
      "▁walk": 5578,
      "goti": 5579,
      "▁motorcycle": 5580,
      "▁wiggle": 5581,
      "▁carriage": 5582,
      "▁surr": 5583,
      "▁exposed": 5584,
      "od": 5585,
      "▁feels": 5586,
      "▁lawyer": 5587,
      "▁entertain": 5588,
      "ister": 5589,
      "▁proposal": 5590,
      "▁res": 5591,
      "▁child": 5592,
      "ads": 5593,
      "▁rh": 5594,
      "▁football": 5595,
      "▁learned": 5596,
      "my": 5597,
      "▁furniture": 5598,
      "▁consu": 5599,
      "th": 5600,
      "pri": 5601,
      "▁cradle": 5602,
      "▁dad": 5603,
      "ption": 5604,
      "▁tre": 5605,
      "▁appreciation": 5606,
      "▁wil": 5607,
      "d": 5608,
      "men": 5609,
      "oir": 5610,
      "▁decisions": 5611,
      "▁talks": 5612,
      "▁http://": 5613,
      "ons": 5614,
      "▁vi": 5615,
      "▁manuf": 5616,
      "▁paintings": 5617,
      "▁costs": 5618,
      "▁somewhere": 5619,
      "▁pushed": 5620,
      "▁betw": 5621,
      "▁serves": 5622,
      "▁sac": 5623,
      "ologists": 5624,
      "▁wear": 5625,
      "▁dump": 5626,
      "▁helic": 5627,
      "▁affects": 5628,
      "▁++++": 5629,
      "▁smelled": 5630,
      "▁offici": 5631,
      "▁moun": 5632,
      "▁lead": 5633,
      "jo": 5634,
      "▁uv": 5635,
      "▁groups": 5636,
      "enting": 5637,
      "her": 5638,
      "▁dust": 5639,
      "▁+": 5640,
      "ital": 5641,
      "▁married": 5642,
      "▁newspapers": 5643,
      "▁dim": 5644,
      "▁aug": 5645,
      "▁friday": 5646,
      "▁anthrax": 5647,
      "▁2": 5648,
      "▁contacted": 5649,
      "!!!": 5650,
      "▁extent": 5651,
      "▁--": 5652,
      "itation": 5653,
      "▁creation": 5654,
      "▁agree": 5655,
      "▁scribb": 5656,
      "▁generators": 5657,
      "▁pr": 5658,
      "▁experien": 5659,
      "▁ticket": 5660,
      "resent": 5661,
      "▁once": 5662,
      "▁quarter": 5663,
      "▁suggests": 5664,
      "▁sell": 5665,
      "ian": 5666,
      "▁trains": 5667,
      "▁drink": 5668,
      "▁subst": 5669,
      "▁sequ": 5670,
      "▁ques": 5671,
      "▁undertake": 5672,
      "▁trust": 5673,
      "irus": 5674,
      "▁boil": 5675,
      "▁ba": 5676,
      "▁rang": 5677,
      "▁mouth": 5678,
      "uggles": 5679,
      "▁driver": 5680,
      "cri": 5681,
      "▁..........": 5682,
      "▁part": 5683,
      "▁changes": 5684,
      "▁cla": 5685,
      "▁started": 5686,
      "▁achieving": 5687,
      "▁sites": 5688,
      "▁shad": 5689,
      "▁literature": 5690,
      "▁contin": 5691,
      "▁refused": 5692,
      "▁mis": 5693,
      "▁performing": 5694,
      "▁absence": 5695,
      "ite": 5696,
      "bing": 5697,
      "ange": 5698,
      "ibility": 5699,
      "▁poop": 5700,
      "▁order": 5701,
      "▁president": 5702,
      "▁toll": 5703,
      "▁alternative": 5704,
      "▁language": 5705,
      "▁initial": 5706,
      "000": 5707,
      "apers": 5708,
      "oice": 5709,
      "▁denver": 5710,
      "▁bother": 5711,
      "▁portion": 5712,
      "▁landing": 5713,
      "▁god": 5714,
      "▁trying": 5715,
      "▁m": 5716,
      "▁dish": 5717,
      "▁focus": 5718,
      "▁ozone": 5719,
      "▁wonder": 5720,
      "▁blue": 5721,
      "▁basketball": 5722,
      "▁legislature": 5723,
      "▁traveled": 5724,
      "▁moisture": 5725,
      "▁link": 5726,
      "▁buying": 5727,
      "▁clown": 5728,
      "ocated": 5729,
      "/": 5730,
      "▁signature": 5731,
      "▁muscles": 5732,
      "inds": 5733,
      "▁driving": 5734,
      "▁attorn": 5735,
      "▁philosoph": 5736,
      "otion": 5737,
      "▁stopped": 5738,
      "}": 5739,
      "eep": 5740,
      "▁doughnut": 5741,
      "▁quoted": 5742,
      "▁verif": 5743,
      "▁believe": 5744,
      "▁sting": 5745,
      "▁chew": 5746,
      "▁por": 5747,
      "▁black": 5748,
      "▁serve": 5749,
      "▁bank": 5750,
      "▁employment": 5751,
      "▁petersburg": 5752,
      "▁tap": 5753,
      "▁test": 5754,
      "▁baking": 5755,
      "▁scenes": 5756,
      "▁occasion": 5757,
      "▁cont": 5758,
      "▁blan": 5759,
      "▁popcorn": 5760,
      "zing": 5761,
      "elf": 5762,
      "▁chose": 5763,
      "▁carrot": 5764,
      "cend": 5765,
      "▁drugs": 5766,
      "▁fly": 5767,
      "om": 5768,
      "▁difference": 5769,
      "▁passage": 5770,
      "gement": 5771,
      "▁breathe": 5772,
      "▁pill": 5773,
      "▁database": 5774,
      "▁turb": 5775,
      "▁managed": 5776,
      "▁contributed": 5777,
      "ρ": 5778,
      "▁cler": 5779,
      "__": 5780,
      "▁ants": 5781,
      "▁afternoon": 5782,
      "▁sex": 5783,
      "▁same": 5784,
      "▁mail": 5785,
      "orated": 5786,
      "ales": 5787,
      "▁choices": 5788,
      "ough": 5789,
      "▁cohes": 5790,
      "▁ladder": 5791,
      "▁welcome": 5792,
      "▁cultural": 5793,
      "▁cheap": 5794,
      "▁question": 5795,
      "▁.": 5796,
      "▁selling": 5797,
      "▁manager": 5798,
      "▁cages": 5799,
      "▁what": 5800,
      "▁fu": 5801,
      "▁cups": 5802,
      "▁mer": 5803,
      "▁capac": 5804,
      "avi": 5805,
      "▁enjo": 5806,
      "▁bas": 5807,
      "▁cris": 5808,
      "▁crisis": 5809,
      "▁roads": 5810,
      "▁interpre": 5811,
      "▁aut": 5812,
      "▁museum": 5813,
      "ayed": 5814,
      "&": 5815,
      "▁goat": 5816,
      "▁gener": 5817,
      "▁alleged": 5818,
      "craft": 5819,
      "▁pounds": 5820,
      "▁maintained": 5821,
      "▁bird": 5822,
      "▁allowed": 5823,
      "0": 5824,
      "ci": 5825,
      "▁elected": 5826,
      "▁balt": 5827,
      "▁neighb": 5828,
      "▁wondered": 5829,
      "▁development": 5830,
      "▁limousine": 5831,
      "▁neg": 5832,
      "▁boots": 5833,
      "▁horror": 5834,
      "fish": 5835,
      "aps": 5836,
      "-b": 5837,
      "▁profession": 5838,
      "▁excel": 5839,
      "nuts": 5840,
      "▁collection": 5841,
      "▁play+": 5842,
      "earch": 5843,
      "▁contains": 5844,
      "▁dey": 5845,
      "ss": 5846,
      "▁waste": 5847,
      "▁agreements": 5848,
      "ere": 5849,
      "▁watched": 5850,
      "ract": 5851,
      "▁twenty": 5852,
      "▁brush": 5853,
      "▁carrying": 5854,
      "▁califor": 5855,
      "▁potential": 5856,
      "eared": 5857,
      "▁crayon": 5858,
      "▁pm": 5859,
      "▁veg": 5860,
      "utation": 5861,
      "▁customs": 5862,
      "▁factors": 5863,
      "▁d'": 5864,
      "▁encour": 5865,
      "orti": 5866,
      "▁finish": 5867,
      "▁pull": 5868,
      "ical": 5869,
      "▁**********": 5870,
      "amus": 5871,
      "outs": 5872,
      "▁statistics": 5873,
      "ults": 5874,
      "iver": 5875,
      "▁errors": 5876,
      "▁bought": 5877,
      ".x": 5878,
      "▁grand": 5879,
      "▁sight": 5880,
      "▁convention": 5881,
      "vation": 5882,
      "hib": 5883,
      "▁shock": 5884,
      "yet": 5885,
      "olve": 5886,
      "▁cop": 5887,
      "▁phr": 5888,
      "▁populations": 5889,
      "▁hand": 5890,
      "▁divisions": 5891,
      "▁stops": 5892,
      "▁bec": 5893,
      "ev": 5894,
      "▁desert": 5895,
      "▁representation": 5896,
      "▁allow": 5897,
      "faction": 5898,
      "ede": 5899,
      "▁handled": 5900,
      "▁declar": 5901,
      "stop": 5902,
      "▁putting": 5903,
      "ex": 5904,
      "▁twist": 5905,
      "▁mist": 5906,
      "▁society": 5907,
      "▁ended": 5908,
      "▁venture": 5909,
      "ib": 5910,
      "▁put": 5911,
      "▁investigation": 5912,
      "▁rubber": 5913,
      "rows": 5914,
      "▁tied": 5915,
      "▁flash": 5916,
      "uses": 5917,
      "▁realised": 5918,
      "gest": 5919,
      "▁weapon": 5920,
      "▁insurance": 5921,
      "▁gard": 5922,
      "▁samples": 5923,
      "erved": 5924,
      "▁200": 5925,
      "ders": 5926,
      "idd": 5927,
      "h": 5928,
      "▁jeff": 5929,
      "▁lobby": 5930,
      "▁facul": 5931,
      "▁secretary": 5932,
      "ceived": 5933,
      "▁lifesty": 5934,
      "▁fan": 5935,
      "rely": 5936,
      "▁rece": 5937,
      "▁qa": 5938,
      "▁hyp": 5939,
      "-d": 5940,
      "at": 5941,
      "▁leader": 5942,
      "▁arr": 5943,
      "▁cher": 5944,
      "▁vanilla": 5945,
      "▁whe": 5946,
      "▁army": 5947,
      "▁indicates": 5948,
      "▁near": 5949,
      "▁chec": 5950,
      "▁arriving": 5951,
      "▁laughing": 5952,
      "3": 5953,
      "▁fav": 5954,
      "▁summ": 5955,
      "eak": 5956,
      "▁long": 5957,
      "▁expos": 5958,
      "▁poc": 5959,
      "▁laying": 5960,
      "den": 5961,
      "▁amid": 5962,
      "▁hanging": 5963,
      "▁limit": 5964,
      "▁prop": 5965,
      "▁gathered": 5966,
      "▁rising": 5967,
      "fare": 5968,
      "▁mystery": 5969,
      "ven": 5970,
      "▁own": 5971,
      "eled": 5972,
      "▁sea": 5973,
      "▁prem": 5974,
      "▁tooth": 5975,
      "ched": 5976,
      "omer": 5977,
      "▁terms": 5978,
      "▁congress": 5979,
      "-m": 5980,
      ".c": 5981,
      "areness": 5982,
      "ounce": 5983,
      "oni": 5984,
      "▁hamster": 5985,
      "ything": 5986,
      "▁cited": 5987,
      "▁getting": 5988,
      "▁att": 5989,
      "▁suit": 5990,
      "▁architecture": 5991,
      "▁requests": 5992,
      "▁maj": 5993,
      "▁thanks": 5994,
      "▁themes": 5995,
      "▁avocado": 5996,
      "▁declaration": 5997,
      "▁cuck": 5998,
      "gation": 5999,
      "▁locom": 6000,
      "art": 6001,
      "▁j": 6002,
      "ized": 6003,
      "▁fame": 6004,
      "▁wrong": 6005,
      "▁policies": 6006,
      "ault": 6007,
      "▁super": 6008,
      "ultural": 6009,
      "▁extr": 6010,
      "▁caused": 6011,
      "▁phoenix": 6012,
      "ifying": 6013,
      "▁ch": 6014,
      "▁user": 6015,
      "▁fields": 6016,
      "igg": 6017,
      "▁action": 6018,
      "▁employees": 6019,
      "ile": 6020,
      "ute": 6021,
      "▁landed": 6022,
      "▁*****": 6023,
      "▁wished": 6024,
      "▁tam": 6025,
      "isl": 6026,
      "▁---------------------------------------------------------------------------": 6027,
      "▁forgot": 6028,
      "▁day": 6029,
      "enc": 6030,
      "▁back": 6031,
      "▁live": 6032,
      "▁struck": 6033,
      "▁protection": 6034,
      "▁@": 6035,
      "▁anal": 6036,
      "▁decide": 6037,
      "▁pup": 6038,
      "alist": 6039,
      "▁runs": 6040,
      "▁speci": 6041,
      "▁subscri": 6042,
      "▁demonstrate": 6043,
      "▁francisco": 6044,
      "▁heard": 6045,
      "▁notic": 6046,
      "▁spirit": 6047,
      "▁discus": 6048,
      "▁feeling": 6049,
      "▁constitution": 6050,
      "▁lun": 6051,
      "onally": 6052,
      "▁keys": 6053,
      "ady": 6054,
      "▁friendship": 6055,
      "yn": 6056,
      "▁-----": 6057,
      "▁as400": 6058,
      "▁susp": 6059,
      "▁assoc": 6060,
      "do": 6061,
      "▁bunny": 6062,
      "iness": 6063,
      "▁cut": 6064,
      "▁perspective": 6065,
      "▁enti": 6066,
      "▁wars": 6067,
      "▁checking": 6068,
      "▁whatever": 6069,
      "athers": 6070,
      "▁majority": 6071,
      "▁chairs": 6072,
      "▁remember": 6073,
      "▁airlines": 6074,
      "▁victory": 6075,
      "▁elections": 6076,
      "ector": 6077,
      "▁influence": 6078,
      "▁right": 6079,
      "▁fl": 6080,
      "▁monaster": 6081,
      "▁sept": 6082,
      "▁miami": 6083,
      "liance": 6084,
      "▁placed": 6085,
      "▁guide": 6086,
      "fri": 6087,
      "▁knoc": 6088,
      "▁males": 6089,
      "ensus": 6090,
      "clock": 6091,
      "▁rent": 6092,
      "▁secon": 6093,
      "▁possibility": 6094,
      "▁lunch": 6095,
      "▁explan": 6096,
      "str": 6097,
      "▁argu": 6098,
      "arly": 6099,
      "▁flowers": 6100,
      "▁victims": 6101,
      "aked": 6102,
      "▁autumn": 6103,
      "▁egg": 6104,
      "▁winds": 6105,
      "▁networks": 6106,
      "both": 6107,
      "avor": 6108,
      "▁might": 6109,
      "atures": 6110,
      "▁established": 6111,
      "▁wash": 6112,
      "▁talent": 6113,
      "▁tools": 6114,
      "▁ok": 6115,
      "ight": 6116,
      "▁sle": 6117,
      "▁ideas": 6118,
      "les": 6119,
      "▁involving": 6120,
      "▁prepar": 6121,
      "time": 6122,
      "▁supp": 6123,
      "▁produce": 6124,
      "encies": 6125,
      "▁stro": 6126,
      "▁sa": 6127,
      "▁concerning": 6128,
      "em": 6129,
      "ych": 6130,
      "▁fung": 6131,
      "▁incre": 6132,
      "orting": 6133,
      "▁investi": 6134,
      "▁until": 6135,
      "▁attract": 6136,
      "uzz": 6137,
      "▁vacation": 6138,
      "onstr": 6139,
      "▁generate": 6140,
      "▁languages": 6141,
      "–": 6142,
      "ective": 6143,
      "▁foli": 6144,
      "ological": 6145,
      "▁tas": 6146,
      "▁diseas": 6147,
      "▁’ll": 6148,
      "iff": 6149,
      "▁conclude": 6150,
      "▁companies": 6151,
      "▁rights": 6152,
      "▁neighbor": 6153,
      "▁miles": 6154,
      "ients": 6155,
      "▁interaction": 6156,
      "▁legacy": 6157,
      "ligh": 6158,
      "▁arrest": 6159,
      "▁issues": 6160,
      "▁conclusions": 6161,
      "▁research": 6162,
      "ial": 6163,
      "▁time": 6164,
      "▁searching": 6165,
      "▁viol": 6166,
      "▁estimate": 6167,
      "▁week": 6168,
      "▁nature": 6169,
      "▁mosque": 6170,
      "▁local": 6171,
      "▁worship": 6172,
      "▁corn": 6173,
      "▁rice": 6174,
      "▁master": 6175,
      "▁jud": 6176,
      "▁witn": 6177,
      "edom": 6178,
      "eeds": 6179,
      "▁summer": 6180,
      "▁appe": 6181,
      "▁suggesting": 6182,
      "▁manage": 6183,
      "tes": 6184,
      "icing": 6185,
      "▁artist": 6186,
      "▁bed": 6187,
      "▁consequ": 6188,
      "acted": 6189,
      "▁reb": 6190,
      "▁tun": 6191,
      "olution": 6192,
      "▁'re": 6193,
      "▁bite": 6194,
      "▁fence": 6195,
      "▁camel": 6196,
      "▁from": 6197,
      "ergy": 6198,
      "▁edit": 6199,
      "▁tennis": 6200,
      "▁tire": 6201,
      "▁evening": 6202,
      "▁.?": 6203,
      "ians": 6204,
      "▁interconnect": 6205,
      "▁flag": 6206,
      "rying": 6207,
      "▁litt": 6208,
      "▁col": 6209,
      "▁swww": 6210,
      "▁jury": 6211,
      "ieties": 6212,
      "▁open": 6213,
      "▁leaf": 6214,
      "▁devoted": 6215,
      "▁sock": 6216,
      "out": 6217,
      "▁plaintiff": 6218,
      "▁p": 6219,
      "▁difficulty": 6220,
      "▁sake": 6221,
      "▁opposition": 6222,
      "▁clou": 6223,
      "▁whis": 6224,
      "mely": 6225,
      "▁q1": 6226,
      "▁trends": 6227,
      "▁inflation": 6228,
      "▁pled": 6229,
      "arters": 6230,
      "▁resul": 6231,
      "▁satellite": 6232,
      "▁confirm": 6233,
      "▁paris": 6234,
      "▁cage": 6235,
      "▁stepped": 6236,
      "inction": 6237,
      "▁paused": 6238,
      "▁sometime": 6239,
      "▁either": 6240,
      "▁h": 6241,
      "▁sy": 6242,
      "▁content": 6243,
      "▁property": 6244,
      "▁intervening": 6245,
      "operation": 6246,
      "ax": 6247,
      "iced": 6248,
      "▁bus": 6249,
      "▁abbre": 6250,
      "▁?!": 6251,
      "inental": 6252,
      "ma": 6253,
      "▁morn": 6254,
      "▁collecting": 6255,
      "▁provision": 6256,
      "ook": 6257,
      "▁transfer": 6258,
      "▁good": 6259,
      "▁dance": 6260,
      "▁cond": 6261,
      "li": 6262,
      "▁scen": 6263,
      "▁tent": 6264,
      "▁structures": 6265,
      "ager": 6266,
      "▁feat": 6267,
      "▁1": 6268,
      "▁offices": 6269,
      "osed": 6270,
      "▁significance": 6271,
      "are": 6272,
      "▁grumb": 6273,
      "▁memory": 6274,
      "sel": 6275,
      "▁evac": 6276,
      "▁sales": 6277,
      "▁cl": 6278,
      "▁reference": 6279,
      "▁criteria": 6280,
      "▁nursies": 6281,
      "▁inf": 6282,
      "alu": 6283,
      "▁dna": 6284,
      "______": 6285,
      "▁opposed": 6286,
      "▁responsibility": 6287,
      "▁rainbow": 6288,
      "▁anoder": 6289,
      "▁festiv": 6290,
      "ribb": 6291,
      "▁pitch": 6292,
      "▁tw": 6293,
      "▁provides": 6294,
      "ago": 6295,
      "▁inh": 6296,
      "▁lemon": 6297,
      "red": 6298,
      "▁teams": 6299,
      "▁menu": 6300,
      "▁core": 6301,
      "▁!!!?": 6302,
      "eline": 6303,
      "▁spre": 6304,
      "tiveness": 6305,
      "▁read": 6306,
      "▁print": 6307,
      "▁period": 6308,
      "okes": 6309,
      "▁shar": 6310,
      "▁accept": 6311,
      "▁celeb": 6312,
      "▁begin": 6313,
      "▁fax": 6314,
      "▁pip": 6315,
      "▁yourself": 6316,
      "▁perf": 6317,
      "▁funds": 6318,
      "rel": 6319,
      "▁interested": 6320,
      "▁objec": 6321,
      "▁swing": 6322,
      "▁could": 6323,
      "▁http://www.": 6324,
      "▁ble": 6325,
      "▁california": 6326,
      "▁narr": 6327,
      "rance": 6328,
      "nch": 6329,
      "▁lots": 6330,
      "lication": 6331,
      "▁except": 6332,
      "▁sep": 6333,
      "▁cost": 6334,
      "▁factory": 6335,
      "▁gr": 6336,
      "▁power": 6337,
      "cp": 6338,
      "▁white": 6339,
      "'t": 6340,
      "▁meals": 6341,
      "▁continue": 6342,
      "▁nap": 6343,
      "▁sol": 6344,
      "▁tested": 6345,
      "▁ground": 6346,
      "▁mot": 6347,
      "▁distingu": 6348,
      "▁virus": 6349,
      "▁knight": 6350,
      "ph": 6351,
      "▁conclu": 6352,
      "▁thousands": 6353,
      "▁jun": 6354,
      "▁payments": 6355,
      "▁objectives": 6356,
      "▁invitation": 6357,
      "▁slice": 6358,
      "aser": 6359,
      "uge": 6360,
      "west": 6361,
      "hing": 6362,
      "▁epis": 6363,
      "▁char": 6364,
      "▁fle": 6365,
      "▁schol": 6366,
      "▁ob": 6367,
      "urity": 6368,
      "ole": 6369,
      "s.": 6370,
      "▁paying": 6371,
      "▁duty": 6372,
      "udes": 6373,
      "jected": 6374,
      "▁accident": 6375,
      "▁sons": 6376,
      "▁agents": 6377,
      "met": 6378,
      "▁ord": 6379,
      "▁poster": 6380,
      "▁bot": 6381,
      "nesses": 6382,
      "▁isda": 6383,
      "▁cincinn": 6384,
      "▁starting": 6385,
      "oves": 6386,
      "▁go": 6387,
      "▁crit": 6388,
      "]": 6389,
      "▁not": 6390,
      "▁occ": 6391,
      "▁derived": 6392,
      "▁pres": 6393,
      "▁==----": 6394,
      "▁exists": 6395,
      "▁municip": 6396,
      "▁door": 6397,
      "▁ac": 6398,
      "olding": 6399,
      "tsbur": 6400,
      "▁kar": 6401,
      "▁never": 6402,
      "▁volunte": 6403,
      "▁toy": 6404,
      "ension": 6405,
      "ounts": 6406,
      "▁canada": 6407,
      "kle": 6408,
      "▁weather": 6409,
      "▁moved": 6410,
      "▁living": 6411,
      "acles": 6412,
      "ift": 6413,
      "ondon": 6414,
      "▁qaeda": 6415,
      "▁rate": 6416,
      "ics": 6417,
      "ateg": 6418,
      "▁mixed": 6419,
      "▁orig": 6420,
      ".ht": 6421,
      "▁pleasure": 6422,
      "▁helped": 6423,
      "ackers": 6424,
      "▁bike": 6425,
      "▁century": 6426,
      "ah": 6427,
      "ron": 6428,
      "▁inequ": 6429,
      "ub": 6430,
      "▁shape": 6431,
      "▁tunnel": 6432,
      "▁soon": 6433,
      "▁diapers": 6434,
      "▁trag": 6435,
      "ability": 6436,
      "▁notes": 6437,
      "▁basil": 6438,
      "▁called": 6439,
      "▁ir": 6440,
      "▁isd": 6441,
      "▁cousin": 6442,
      "▁jail": 6443,
      "▁service": 6444,
      "▁capital": 6445,
      "▁behaviors": 6446,
      "dy": 6447,
      "▁election": 6448,
      "▁crow": 6449,
      "▁worm": 6450,
      "▁seesaw": 6451,
      "▁scientist": 6452,
      "▁harry": 6453,
      "ars": 6454,
      "▁satur": 6455,
      "▁knees": 6456,
      "▁independ": 6457,
      "▁speaking": 6458,
      "▁introduction": 6459,
      "▁avail": 6460,
      "▁conflict": 6461,
      "ived": 6462,
      "▁reduction": 6463,
      "▁sod": 6464,
      "acle": 6465,
      "▁debate": 6466,
      "▁coup": 6467,
      "▁invol": 6468,
      "▁wolves": 6469,
      "▁tractor": 6470,
      "▁cfl": 6471,
      "▁pub": 6472,
      "▁repeat": 6473,
      "iration": 6474,
      "▁prod": 6475,
      "ousness": 6476,
      "▁admitted": 6477,
      "▁see": 6478,
      "▁treatment": 6479,
      "▁adjust": 6480,
      "▁gradu": 6481,
      "ien": 6482,
      "±": 6483,
      "▁gh": 6484,
      "▁attachment": 6485,
      "eignty": 6486,
      "▁anyone": 6487,
      "iated": 6488,
      "▁programme": 6489,
      "▁manufacturers": 6490,
      "▁...": 6491,
      "▁f": 6492,
      "▁testing": 6493,
      "tainly": 6494,
      "▁days": 6495,
      "▁loans": 6496,
      "▁architect": 6497,
      "▁london": 6498,
      "▁nash": 6499,
      "▁..": 6500,
      "▁target": 6501,
      "▁withdraw": 6502,
      "qual": 6503,
      "ette": 6504,
      "asis": 6505,
      "▁straps": 6506,
      "▁seized": 6507,
      "▁allows": 6508,
      "▁bron": 6509,
      "▁tourists": 6510,
      "son": 6511,
      "▁feet": 6512,
      "uations": 6513,
      "▁ignored": 6514,
      "ast": 6515,
      "▁‘": 6516,
      "▁belon": 6517,
      "▁map": 6518,
      "▁minus": 6519,
      "▁ham": 6520,
      "▁dal": 6521,
      "▁added": 6522,
      "▁chain": 6523,
      "▁audi": 6524,
      "▁bang": 6525,
      "▁initiative": 6526,
      "ud": 6527,
      "▁estim": 6528,
      "▁criticism": 6529,
      "▁amount": 6530,
      "▁matter": 6531,
      "▁anybody": 6532,
      "▁schema": 6533,
      "▁they": 6534,
      "▁microscope": 6535,
      "▁congrat": 6536,
      "▁term": 6537,
      "aith": 6538,
      "▁media": 6539,
      "rition": 6540,
      ".m": 6541,
      "▁expert": 6542,
      "▁layout": 6543,
      "8": 6544,
      "▁behalf": 6545,
      "▁version": 6546,
      "▁care": 6547,
      "▁currently": 6548,
      "tic": 6549,
      "▁mines": 6550,
      "▁improvement": 6551,
      "▁permitted": 6552,
      "▁providing": 6553,
      "yone": 6554,
      "▁served": 6555,
      "▁requi": 6556,
      "▁head": 6557,
      "view": 6558,
      "▁shell": 6559,
      "▁repe": 6560,
      "edly": 6561,
      "ation": 6562,
      "▁months": 6563,
      "[PAD]": 6564,
      "▁use": 6565,
      "▁observation": 6566,
      "▁operators": 6567,
      "tr": 6568,
      "▁dioxide": 6569,
      "▁attorney": 6570,
      "▁bit": 6571,
      "estiv": 6572,
      "▁filtering": 6573,
      "inded": 6574,
      "▁side": 6575,
      "na": 6576,
      "▁threw": 6577,
      "▁supplies": 6578,
      "illas": 6579,
      "tity": 6580,
      "▁install": 6581,
      "fact": 6582,
      "▁cheek": 6583,
      "▁ke": 6584,
      "▁interpret": 6585,
      "▁nest": 6586,
      "▁policeman": 6587,
      "▁certainly": 6588,
      "til": 6589,
      "asing": 6590,
      "▁hill": 6591,
      "▁air": 6592,
      "▁pace": 6593,
      "▁cons": 6594,
      "▁shade": 6595,
      "▁claimed": 6596,
      "apes": 6597,
      "▁supermar": 6598,
      "▁hav": 6599,
      "▁holding": 6600,
      "▁relax": 6601,
      "▁exchang": 6602,
      "▁versus": 6603,
      "▁pal": 6604,
      "▁ga": 6605,
      "▁repl": 6606,
      "night": 6607,
      "▁opportunities": 6608,
      "▁nephew": 6609,
      "▁batteries": 6610,
      "▁...................": 6611,
      "▁maint": 6612,
      "▁response": 6613,
      "jwww": 6614,
      "▁borders": 6615,
      "▁vers": 6616,
      "▁gu": 6617,
      "▁ourselves": 6618,
      "▁mys": 6619,
      "▁rules": 6620,
      "▁thir": 6621,
      ">": 6622,
      "▁goods": 6623,
      "▁towel": 6624,
      "▁surge": 6625,
      "omp": 6626,
      "▁wheat": 6627,
      ".s": 6628,
      "▁strive": 6629,
      "▁straw": 6630,
      "ih": 6631,
      "▁cart": 6632,
      "▁cigarette": 6633,
      "▁drawer": 6634,
      "par": 6635,
      "▁participation": 6636,
      "▁review": 6637,
      "eda": 6638,
      "▁future": 6639,
      "▁displ": 6640,
      "▁attacked": 6641,
      "▁edge": 6642,
      "▁wedding": 6643,
      "▁neph": 6644,
      "▁status": 6645,
      "orp": 6646,
      "▁accounts": 6647,
      "▁journals": 6648,
      "ployment": 6649,
      "▁gi": 6650,
      "bow": 6651,
      "▁winning": 6652,
      "▁prote": 6653,
      "▁digging": 6654,
      "nets": 6655,
      "▁restri": 6656,
      "▁dollar": 6657,
      "▁techniques": 6658,
      "▁village": 6659,
      "▁advice": 6660,
      "▁shipped": 6661,
      "ants": 6662,
      "cing": 6663,
      "iel": 6664,
      "▁reserve": 6665,
      "alism": 6666,
      "▁dies": 6667,
      "▁lat": 6668,
      "▁teen": 6669,
      "▁customer": 6670,
      "ibilities": 6671,
      "▁oblig": 6672,
      "▁z": 6673,
      "▁failed": 6674,
      "erving": 6675,
      "uting": 6676,
      "▁junk": 6677,
      "▁shoulders": 6678,
      "▁govern": 6679,
      "▁housing": 6680,
      "▁structure": 6681,
      "▁administrator": 6682,
      "[CLS]": 6683,
      "▁plat": 6684,
      "▁lord": 6685,
      "▁definitely": 6686,
      "▁poli": 6687,
      "▁gath": 6688,
      "▁saturday": 6689,
      "▁8": 6690,
      "▁trash": 6691,
      "per": 6692,
      "▁strateg": 6693,
      "▁leading": 6694,
      "▁suite": 6695,
      "▁hasid": 6696,
      "rit": 6697,
      "ises": 6698,
      "▁songs": 6699,
      "astruc": 6700,
      "ke": 6701,
      "inder": 6702,
      "nel": 6703,
      "▁tour": 6704,
      "▁responded": 6705,
      "▁beat": 6706,
      "▁beliefs": 6707,
      "▁pri": 6708,
      "▁shown": 6709,
      "▁prom": 6710,
      "▁generation": 6711,
      "▁to": 6712,
      "ighter": 6713,
      "▁included": 6714,
      "▁traditions": 6715,
      "ain": 6716,
      "▁how": 6717,
      "▁hund": 6718,
      "▁chapter": 6719,
      "warded": 6720,
      "▁wipe": 6721,
      "ger": 6722,
      "▁behavi": 6723,
      "iles": 6724,
      "astic": 6725,
      "▁fles": 6726,
      "ously": 6727,
      "▁cloth": 6728,
      "▁cream": 6729,
      "▁lip": 6730,
      "▁magic": 6731,
      "▁forwarded": 6732,
      "▁manip": 6733,
      "▁mama": 6734,
      "▁value": 6735,
      "▁pillow": 6736,
      "▁four": 6737,
      "▁faculty": 6738,
      "▁discussing": 6739,
      "▁rais": 6740,
      "▁anyth": 6741,
      "▁mount": 6742,
      "ale": 6743,
      "ze": 6744,
      "▁performance": 6745,
      "▁situation": 6746,
      "▁england": 6747,
      "▁su": 6748,
      "▁owe": 6749,
      "▁resulted": 6750,
      "elines": 6751,
      "▁independence": 6752,
      "▁tea": 6753,
      "owed": 6754,
      "aker": 6755,
      "▁explanations": 6756,
      "▁wel": 6757,
      "▁broke": 6758,
      "▁programs": 6759,
      "▁guy": 6760,
      "▁doing": 6761,
      "▁journey": 6762,
      "▁sought": 6763,
      "▁locked": 6764,
      "▁morality": 6765,
      "tions": 6766,
      "▁sandwich": 6767,
      "▁sauce": 6768,
      "▁bac": 6769,
      "▁lined": 6770,
      "option": 6771,
      "▁lives": 6772,
      "un": 6773,
      "▁je": 6774,
      "▁across": 6775,
      "▁ru": 6776,
      "▁enjoy": 6777,
      "sely": 6778,
      "ens": 6779,
      "▁contact": 6780,
      "▁missile": 6781,
      "▁church": 6782,
      "orm": 6783,
      "▁posed": 6784,
      "▁english": 6785,
      "▁naima": 6786,
      "▁beet": 6787,
      "▁one": 6788,
      "▁field": 6789,
      "▁graduate": 6790,
      "▁actors": 6791,
      "cularly": 6792,
      "erv": 6793,
      "▁epm": 6794,
      "▁lif": 6795,
      "▁helicopters": 6796,
      "▁cord": 6797,
      "▁uk": 6798,
      "▁photograph": 6799,
      "ying": 6800,
      "▁allowing": 6801,
      "▁vision": 6802,
      "▁arrang": 6803,
      "▁alt.": 6804,
      "▁it": 6805,
      "▁exploration": 6806,
      "tuce": 6807,
      "▁size": 6808,
      "▁mix": 6809,
      "▁our": 6810,
      "ren": 6811,
      "▁surve": 6812,
      "▁result": 6813,
      "▁are": 6814,
      "aze": 6815,
      "▁sir": 6816,
      "▁duckie": 6817,
      "▁arm": 6818,
      "mo": 6819,
      "▁occasions": 6820,
      "▁goal": 6821,
      "▁chick": 6822,
      "▁encourage": 6823,
      "ch": 6824,
      "ree": 6825,
      "▁credit": 6826,
      "▁domain": 6827,
      "▁ste": 6828,
      "ov": 6829,
      "▁montreal": 6830,
      "▁shoes": 6831,
      "round": 6832,
      "berries": 6833,
      "▁alter": 6834,
      "▁resist": 6835,
      "(": 6836,
      "▁entitled": 6837,
      "▁passing": 6838,
      "nic": 6839,
      "l": 6840,
      "alt": 6841,
      "ove": 6842,
      "▁flow": 6843,
      "▁parks": 6844,
      "cl": 6845,
      "▁express": 6846,
      "ilize": 6847,
      "!?": 6848,
      "ut": 6849,
      "▁bottles": 6850,
      "▁adults": 6851,
      "▁inviting": 6852,
      "▁depart": 6853,
      "b": 6854,
      "▁maintenance": 6855,
      "ry": 6856,
      "ruption": 6857,
      "▁forced": 6858,
      "ank": 6859,
      "▁vice": 6860,
      "▁distinction": 6861,
      "▁re-": 6862,
      "ening": 6863,
      "▁clos": 6864,
      "▁drag": 6865,
      "▁eigh": 6866,
      "▁observ": 6867,
      "▁.......": 6868,
      "war": 6869,
      "▁imm": 6870,
      "pping": 6871,
      "▁....": 6872,
      "▁using": 6873,
      "▁missiles": 6874,
      "irt": 6875,
      "yr": 6876,
      "▁fem": 6877,
      "▁mir": 6878,
      "ertain": 6879,
      "▁universities": 6880,
      "▁fing": 6881,
      "▁mosques": 6882,
      "▁arrived": 6883,
      "▁experiment": 6884,
      "▁improved": 6885,
      "▁retail": 6886,
      "▁hum": 6887,
      "▁filter": 6888,
      "▁hobby": 6889,
      "▁fate": 6890,
      "▁declined": 6891,
      "▁gave": 6892,
      "▁stones": 6893,
      "▁floor": 6894,
      "▁funded": 6895,
      "▁held": 6896,
      "▁tube": 6897,
      "▁means": 6898,
      "▁seemed": 6899,
      "▁answ": 6900,
      "▁ren": 6901,
      "▁bumble": 6902,
      "▁zone": 6903,
      "ainly": 6904,
      "▁facts": 6905,
      "▁tension": 6906,
      "▁face": 6907,
      "▁transportation": 6908,
      "otch": 6909,
      "▁pointed": 6910,
      "▁connec": 6911,
      "ategy": 6912,
      "!!!!": 6913,
      "▁operate": 6914,
      "▁library": 6915,
      "▁fi": 6916,
      "ression": 6917,
      "▁distinguish": 6918,
      "▁assess": 6919,
      "▁council": 6920,
      "▁grape": 6921,
      "▁separ": 6922,
      "▁ten": 6923,
      "▁beh": 6924,
      "ged": 6925,
      "▁alone": 6926,
      "enef": 6927,
      "▁papers": 6928,
      "▁pocket": 6929,
      "aced": 6930,
      "▁til": 6931,
      "▁unlike": 6932,
      "▁?": 6933,
      "▁close": 6934,
      "▁cohesion": 6935,
      "isted": 6936,
      "ligence": 6937,
      "▁pursue": 6938,
      "▁context": 6939,
      "ustration": 6940,
      "▁challenges": 6941,
      "▁repair": 6942,
      "▁bills": 6943,
      "▁thinks": 6944,
      "▁front": 6945,
      "▁som": 6946,
      "▁balls": 6947,
      "▁coord": 6948,
      "▁skip": 6949,
      "▁opens": 6950,
      "▁me": 6951,
      "urday": 6952,
      "▁9": 6953,
      "▁swa": 6954,
      ",000": 6955,
      "ement": 6956,
      "▁pie": 6957,
      "▁common": 6958,
      "▁tick": 6959,
      "▁visit": 6960,
      "▁bric": 6961,
      "????": 6962,
      "mos": 6963,
      "+----------------": 6964,
      "▁answer": 6965,
      "▁social": 6966,
      "▁estab": 6967,
      "▁harmon": 6968,
      "▁sush": 6969,
      "▁understand": 6970,
      "▁rail": 6971,
      "▁lake": 6972,
      "▁val": 6973,
      "▁laun": 6974,
      "▁june": 6975,
      "▁hoo": 6976,
      "-c": 6977,
      "▁unem": 6978,
      "▁international": 6979,
      "▁economy": 6980,
      "▁few": 6981,
      "▁butter": 6982,
      "▁assistant": 6983,
      "▁litter": 6984,
      "roduction": 6985,
      "▁com": 6986,
      "▁plane": 6987,
      "alk": 6988,
      "▁cheese": 6989,
      "▁potty": 6990,
      "▁clinics": 6991,
      "en": 6992,
      "▁ever": 6993,
      "▁other": 6994,
      "wor": 6995,
      "▁take": 6996,
      "▁nt": 6997,
      "▁fore": 6998,
      "entions": 6999,
      "ooth": 7000,
      "▁motor": 7001,
      "▁touch": 7002,
      "▁guest": 7003,
      "▁pig": 7004,
      "▁chee": 7005,
      "▁danger": 7006,
      "▁workers": 7007,
      "▁human": 7008,
      "▁seat": 7009,
      "ably": 7010,
      "▁port": 7011,
      "oh": 7012,
      "▁disapp": 7013,
      "▁spiders": 7014,
      "boy": 7015,
      "ames": 7016,
      "▁houses": 7017,
      "sive": 7018,
      "▁dating": 7019,
      "▁alt.animals": 7020,
      "▁.........": 7021,
      "fted": 7022,
      "▁picking": 7023,
      "▁gather": 7024,
      "▁eaten": 7025,
      "▁topics": 7026,
      "6": 7027,
      "▁missing": 7028,
      "low": 7029,
      "fully": 7030,
      "▁winter": 7031,
      "▁licensed": 7032,
      "▁gifts": 7033,
      "▁certi": 7034,
      "▁balance": 7035,
      "riendly": 7036,
      "▁turn": 7037,
      "▁compens": 7038,
      "af": 7039,
      "w": 7040,
      "tern": 7041,
      "▁youn": 7042,
      "▁scul": 7043,
      "▁nurs": 7044,
      "▁denti": 7045,
      "ri": 7046,
      "▁voted": 7047,
      "▁********************************": 7048,
      "▁inn": 7049,
      "ild": 7050,
      "//": 7051,
      "▁alco": 7052,
      "▁visitors": 7053,
      "▁rays": 7054,
      "▁recommended": 7055,
      "▁pilg": 7056,
      "▁efforts": 7057,
      "▁launch": 7058,
      "pop": 7059,
      "▁hedge": 7060,
      "ially": 7061,
      "amb": 7062,
      "here": 7063,
      "********************************": 7064,
      "▁spider": 7065,
      "▁supporters": 7066,
      "▁buc": 7067,
      "ums": 7068,
      "▁fiel": 7069,
      "een": 7070,
      "▁imag": 7071,
      "▁switch": 7072,
      "ten": 7073,
      "duc": 7074,
      "▁ol": 7075,
      "▁fli": 7076,
      "erm": 7077,
      "▁numbers": 7078,
      "tive": 7079,
      "▁airfare": 7080,
      "ert": 7081,
      "▁rolling": 7082,
      "▁tutor": 7083,
      "iving": 7084,
      "▁discover": 7085,
      "▁vill": 7086,
      "ds": 7087,
      "▁sin": 7088,
      "▁rebuild": 7089,
      "sing": 7090,
      "▁muscle": 7091,
      "▁squirrel": 7092,
      "lation": 7093,
      "▁house": 7094,
      "▁non-": 7095,
      "lic": 7096,
      "▁mag": 7097,
      "▁banan": 7098,
      "▁tax": 7099,
      "▁exhib": 7100,
      "▁obst": 7101,
      "▁sim": 7102,
      "▁commission": 7103,
      "▁beer": 7104,
      "ado": 7105,
      "▁fears": 7106,
      "▁finding": 7107,
      "▁legend": 7108,
      "▁info": 7109,
      "▁within": 7110,
      "▁writer": 7111,
      "▁global": 7112,
      "▁correspond": 7113,
      "▁elephants": 7114,
      "iti": 7115,
      "ure": 7116,
      "▁university": 7117,
      "▁seen": 7118,
      "king": 7119,
      "▁suggestions": 7120,
      "tle": 7121,
      "▁hey": 7122,
      "tually": 7123,
      "▁prices": 7124,
      "▁comed": 7125,
      "▁reduce": 7126,
      "▁per": 7127,
      "▁universe": 7128,
      "▁reduced": 7129,
      "▁ducks": 7130,
      "▁describing": 7131,
      "wood": 7132,
      "▁sun": 7133,
      "▁reef": 7134,
      "▁movies": 7135,
      "▁dou": 7136,
      "▁mic": 7137,
      "▁lamp": 7138,
      "▁determ": 7139,
      "▁calend": 7140,
      "▁interp": 7141,
      "~": 7142,
      "uma": 7143,
      "▁plays": 7144,
      "ancers": 7145,
      "·": 7146,
      "▁pride": 7147,
      "▁exa": 7148,
      "▁sides": 7149,
      "▁’ve": 7150,
      "▁mur": 7151,
      "ved": 7152,
      "▁toward": 7153,
      "▁onto": 7154,
      "ffic": 7155,
      "▁emerging": 7156,
      "▁rather": 7157,
      "ion": 7158,
      "bout": 7159,
      "▁copy": 7160,
      "▁bits": 7161,
      "▁south": 7162,
      "▁achievements": 7163,
      "▁corpor": 7164,
      "room": 7165,
      "▁pud": 7166,
      "▁stop": 7167,
      "▁citizens": 7168,
      "chen": 7169,
      "erences": 7170,
      "oun": 7171,
      "uth": 7172,
      "oint": 7173,
      "▁items": 7174,
      "ices": 7175,
      "▁file": 7176,
      "ays": 7177,
      "gry": 7178,
      "port": 7179,
      "▁bubble": 7180,
      "ican": 7181,
      "ilos": 7182,
      "▁wednesdays": 7183,
      "▁appl": 7184,
      "other": 7185,
      "▁processes": 7186,
      "ra": 7187,
      "ked": 7188,
      "▁silence": 7189,
      "▁adult": 7190,
      "q": 7191,
      "▁building": 7192,
      "▁class": 7193,
      "▁covered": 7194,
      "▁uhhuh": 7195,
      "▁acknowledge": 7196,
      "rigu": 7197,
      "▁energy": 7198,
      "▁opp": 7199,
      "▁slee": 7200,
      "▁early": 7201,
      "▁there": 7202,
      "▁lived": 7203,
      "▁popularity": 7204,
      "▁security": 7205,
      "▁squi": 7206,
      "▁respond": 7207,
      "▁keeping": 7208,
      "▁puts": 7209,
      "▁project": 7210,
      "ception": 7211,
      "▁spill": 7212,
      "▁internet": 7213,
      "ught": 7214,
      "▁letting": 7215,
      "▁resc": 7216,
      "ele": 7217,
      "▁words": 7218,
      "▁return": 7219,
      "▁cele": 7220,
      "le": 7221,
      "▁ther": 7222,
      "▁bags": 7223,
      "icated": 7224,
      "▁affair": 7225,
      "▁summary": 7226,
      "▁existence": 7227,
      "▁market": 7228,
      "▁choose": 7229,
      "▁campaign": 7230,
      "▁hippop": 7231,
      "ceptions": 7232,
      "▁claiming": 7233,
      "▁ingredients": 7234,
      "ators": 7235,
      "▁closed": 7236,
      "▁iran": 7237,
      "▁assemb": 7238,
      "where": 7239,
      "▁know": 7240,
      "▁_____": 7241,
      "▁carries": 7242,
      "ulation": 7243,
      "▁gent": 7244,
      "▁battery": 7245,
      "uring": 7246,
      "▁rad": 7247,
      "▁major": 7248,
      "▁if": 7249,
      "▁substances": 7250,
      "ords": 7251,
      "▁http": 7252,
      "▁song": 7253,
      "▁roof": 7254,
      "”": 7255,
      "▁waves": 7256,
      "▁apol": 7257,
      "▁galleries": 7258,
      "▁installed": 7259,
      "▁area": 7260,
      "ots": 7261,
      "ator": 7262,
      "▁answered": 7263,
      "▁hea": 7264,
      "▁stated": 7265,
      "▁fur": 7266,
      "mal": 7267,
      "teries": 7268,
      "▁professor": 7269,
      "▁late": 7270,
      "▁tradition": 7271,
      "▁purs": 7272,
      "σ": 7273,
      "itt": 7274,
      "▁trader": 7275,
      "▁hair": 7276,
      "▁flood": 7277,
      "▁lover": 7278,
      "iece": 7279,
      "▁discuss": 7280,
      "▁settlers": 7281,
      "▁checks": 7282,
      "▁years": 7283,
      "▁laughed": 7284,
      "▁sounded": 7285,
      "ror": 7286,
      "ney": 7287,
      "▁jose": 7288,
      "▁nat": 7289,
      "▁card": 7290,
      "tis": 7291,
      "▁daddy": 7292,
      "▁membership": 7293,
      "ho": 7294,
      "2d-": 7295,
      "▁unless": 7296,
      "▁happens": 7297,
      "▁q": 7298,
      "ms": 7299,
      "▁happy": 7300,
      "▁conversation": 7301,
      "▁soci": 7302,
      "▁targets": 7303,
      "▁multipl": 7304,
      "▁committee": 7305,
      "▁planet": 7306,
      "▁analysis": 7307,
      "▁arrested": 7308,
      "▁impris": 7309,
      "▁breakf": 7310,
      "▁recorded": 7311,
      "▁view": 7312,
      "▁roar": 7313,
      "▁instance": 7314,
      "▁save": 7315,
      "▁flavor": 7316,
      "▁chance": 7317,
      "ine": 7318,
      "’": 7319,
      "▁diplom": 7320,
      "▁very": 7321,
      "▁concerns": 7322,
      "ented": 7323,
      "▁initi": 7324,
      "▁eth": 7325,
      "eg": 7326,
      "▁unto": 7327,
      "▁ket": 7328,
      "▁gate": 7329,
      "°": 7330,
      "rou": 7331,
      "▁conse": 7332,
      "▁divid": 7333,
      "▁determined": 7334,
      "▁hop": 7335,
      "ends": 7336,
      "▁purposes": 7337,
      "▁would": 7338,
      "▁women": 7339,
      "▁figured": 7340,
      "▁flower": 7341,
      "berry": 7342,
      "▁bun": 7343,
      "▁afford": 7344,
      "▁wanted": 7345,
      "sure": 7346,
      "tives": 7347,
      "alf": 7348,
      "▁process": 7349,
      "▁commissioner": 7350,
      "▁store": 7351,
      "▁keeps": 7352,
      "▁disc": 7353,
      "ait": 7354,
      "▁prove": 7355,
      "la": 7356,
      "▁noted": 7357,
      "▁intend": 7358,
      "iating": 7359,
      "▁applies": 7360,
      "▁ris": 7361,
      "ential": 7362,
      "▁cult": 7363,
      "▁improving": 7364,
      "▁home": 7365,
      "▁l": 7366,
      "▁beetle": 7367,
      "▁*": 7368,
      "▁strip": 7369,
      "▁tourism": 7370,
      "▁blanket": 7371,
      "▁seating": 7372,
      "▁planning": 7373,
      "▁favour": 7374,
      "▁milwaukee": 7375,
      "put": 7376,
      "▁author": 7377,
      "▁racket": 7378,
      "▁actually": 7379,
      "▁percentage": 7380,
      "▁dragged": 7381,
      "▁payment": 7382,
      "▁sum": 7383,
      "▁exceed": 7384,
      "rup": 7385,
      "aging": 7386,
      "▁bulb": 7387,
      "▁united": 7388,
      "▁circle": 7389,
      "▁depth": 7390,
      "▁cri": 7391,
      "▁urs": 7392,
      "igration": 7393,
      "▁recently": 7394,
      "▁writing": 7395,
      "▁who": 7396,
      "▁numerous": 7397,
      "▁really": 7398,
      "▁study": 7399,
      "▁ml": 7400,
      "▁enjoying": 7401,
      "thy": 7402,
      "ber": 7403,
      "store": 7404,
      "▁washed": 7405,
      "▁campus": 7406,
      "▁surp": 7407,
      "▁practice": 7408,
      "▁platform": 7409,
      "▁recommendation": 7410,
      "▁rapporte": 7411,
      "▁line": 7412,
      "▁members": 7413,
      "▁award": 7414,
      "▁ll": 7415,
      "▁dar": 7416,
      "▁trip": 7417,
      "▁strawberry": 7418,
      "▁focused": 7419,
      "▁number": 7420,
      "▁bow": 7421,
      "sm": 7422,
      "gether": 7423,
      "▁studied": 7424,
      "▁travel": 7425,
      "▁gum": 7426,
      "wise": 7427,
      "▁lies": 7428,
      "ucks": 7429,
      "▁pages": 7430,
      "▁journ": 7431,
      "▁video": 7432,
      "ount": 7433,
      "peare": 7434,
      "▁destruction": 7435,
      "▁proble": 7436,
      "▁fungi": 7437,
      "▁oz": 7438,
      "▁taste": 7439,
      "▁electricity": 7440,
      "▁feelings": 7441,
      "▁consumption": 7442,
      "itting": 7443,
      "▁oakland": 7444,
      "▁l2": 7445,
      "owl": 7446,
      "▁done": 7447,
      "▁grandm": 7448,
      "▁steam": 7449,
      "use": 7450,
      "ograph": 7451,
      "▁attempt": 7452,
      "ition": 7453,
      "▁fellows": 7454,
      "▁evaluation": 7455,
      "▁bi": 7456,
      "unc": 7457,
      "▁increase": 7458,
      "▁spoon": 7459,
      "ements": 7460,
      "▁access": 7461,
      "▁feedback": 7462,
      "iled": 7463,
      "▁refuse": 7464,
      "▁referred": 7465,
      "nding": 7466,
      "▁tal": 7467,
      "umn": 7468,
      "▁sty": 7469,
      "ple": 7470,
      "▁consid": 7471,
      "ges": 7472,
      "▁terror": 7473,
      "▁shows": 7474,
      "▁sec": 7475,
      "▁requirement": 7476,
      "hether": 7477,
      "▁facilities": 7478,
      "sp": 7479,
      "▁kick": 7480,
      "▁weapons": 7481,
      "bur": 7482,
      "▁pretty": 7483,
      "▁paint": 7484,
      "▁job": 7485,
      "▁surrounded": 7486,
      "▁concentration": 7487,
      "▁sticks": 7488,
      "▁attended": 7489,
      "▁organ": 7490,
      "▁choice": 7491,
      "▁rain": 7492,
      "▁festival": 7493,
      "▁reviewing": 7494,
      "▁particip": 7495,
      "▁politics": 7496,
      "▁lawy": 7497,
      "▁num": 7498,
      "enix": 7499,
      "▁strength": 7500,
      "▁corners": 7501,
      "▁invited": 7502,
      "▁containing": 7503,
      "▁asks": 7504,
      "nut": 7505,
      "▁enron": 7506,
      "▁wait": 7507,
      "▁bombs": 7508,
      "▁stem": 7509,
      "▁requiring": 7510,
      "▁small": 7511,
      "▁saving": 7512,
      "▁fruits": 7513,
      "▁outfit": 7514,
      "oration": 7515,
      "▁submitted": 7516,
      "▁bur": 7517,
      "olog": 7518,
      "********": 7519,
      "▁rug": 7520,
      "r": 7521,
      "▁knock": 7522,
      "▁among": 7523,
      "▁short": 7524,
      "▁consul": 7525,
      "hered": 7526,
      "▁supper": 7527,
      "▁eas": 7528,
      "▁soc": 7529,
      "▁listening": 7530,
      "▁temperatures": 7531,
      "oods": 7532,
      "▁object": 7533,
      "▁objects": 7534,
      "▁while": 7535,
      "▁knife": 7536,
      "▁contribute": 7537,
      "fications": 7538,
      "action": 7539,
      "▁please": 7540,
      "ters": 7541,
      "affle": 7542,
      "rent": 7543,
      "▁debt": 7544,
      "▁maintaining": 7545,
      "▁convers": 7546,
      "▁tech": 7547,
      "▁tables": 7548,
      "▁faith": 7549,
      "▁rescue": 7550,
      "▁fruit": 7551,
      "▁worth": 7552,
      "▁tasks": 7553,
      "▁teh": 7554,
      "ode": 7555,
      "issed": 7556,
      "▁station": 7557,
      "ool": 7558,
      "▁wire": 7559,
      "▁food": 7560,
      "▁piece": 7561,
      "▁marsh": 7562,
      "▁pivottable": 7563,
      "▁properties": 7564,
      "osen": 7565,
      "t": 7566,
      "no": 7567,
      "▁w/": 7568,
      "porte": 7569,
      "▁equals": 7570,
      "▁laugh": 7571,
      "▁films": 7572,
      "▁sort": 7573,
      "▁translated": 7574,
      "▁function": 7575,
      "▁filters": 7576,
      "▁amended": 7577,
      "▁anoth": 7578,
      "▁fault": 7579,
      "cake": 7580,
      "▁_": 7581,
      "▁kids": 7582,
      "▁ben": 7583,
      "iful": 7584,
      "▁star": 7585,
      "▁rout": 7586,
      "gging": 7587,
      "▁focusing": 7588,
      "earance": 7589,
      "▁amb": 7590,
      "▁description": 7591,
      "▁chart": 7592,
      "▁convin": 7593,
      "▁sen": 7594,
      "fin": 7595,
      "ering": 7596,
      "▁fight": 7597,
      "oms": 7598,
      "outh": 7599,
      "▁meant": 7600,
      "ric": 7601,
      "oured": 7602,
      "++++": 7603,
      "▁concept": 7604,
      "books": 7605,
      "▁server": 7606,
      "ne": 7607,
      "▁trade": 7608,
      "▁email": 7609,
      "rons": 7610,
      "otte": 7611,
      "▁material": 7612,
      "▁.!": 7613,
      "▁jos": 7614,
      "▁spread": 7615,
      "▁rental": 7616,
      "▁place": 7617,
      "▁resources": 7618,
      "▁giraffe": 7619,
      "▁events": 7620,
      "▁advertising": 7621,
      "▁dom": 7622,
      "ac": 7623,
      "▁crackers": 7624,
      "forming": 7625,
      "▁half": 7626,
      "ils": 7627,
      "ael": 7628,
      "▁lessons": 7629,
      "▁interpreted": 7630,
      "▁dignity": 7631,
      "▁standing": 7632,
      "▁science": 7633,
      "▁pover": 7634,
      "ship": 7635,
      "▁under": 7636,
      "▁forth": 7637,
      "▁drove": 7638,
      "eth": 7639,
      "▁hole": 7640,
      "▁suppose": 7641,
      "▁april": 7642,
      "▁gift": 7643,
      "and": 7644,
      "▁lego": 7645,
      "ulating": 7646,
      "ists": 7647,
      "▁standard": 7648,
      "▁spokes": 7649,
      "▁favorite": 7650,
      "$$": 7651,
      "▁leads": 7652,
      "vail": 7653,
      "pec": 7654,
      "ision": 7655,
      "▁owner": 7656,
      "▁indust": 7657,
      "▁capacity": 7658,
      "▁referen": 7659,
      "▁reve": 7660,
      "ention": 7661,
      "▁tr": 7662,
      "▁regards": 7663,
      "mon": 7664,
      "▁stri": 7665,
      "▁ec": 7666,
      "▁kidding": 7667,
      "ann": 7668,
      "▁reconciliation": 7669,
      "▁specific": 7670,
      "▁argument": 7671,
      "▁poor": 7672,
      "▁alt": 7673,
      "▁educ": 7674,
      "▁factor": 7675,
      "▁facing": 7676,
      "▁mechanism": 7677,
      "▁detro": 7678,
      "▁slip": 7679,
      "▁div": 7680,
      "▁jokes": 7681,
      "▁ge": 7682,
      "ission": 7683,
      "▁boyfriend": 7684,
      "▁inv": 7685,
      "▁conserv": 7686,
      "▁psych": 7687,
      "xt": 7688,
      "ued": 7689,
      "▁tongue": 7690,
      "icals": 7691,
      "▁enthus": 7692,
      "coon": 7693,
      "eria": 7694,
      "▁important": 7695,
      "▁apr": 7696,
      "▁int": 7697,
      "orded": 7698,
      "ime": 7699,
      "▁past": 7700,
      "▁kittens": 7701,
      "▁modify": 7702,
      "▁fell": 7703,
      "▁adapt": 7704,
      "▁(": 7705,
      "▁democracy": 7706,
      "▁command": 7707,
      "▁involve": 7708,
      "▁coincidence": 7709,
      "ced": 7710,
      "lor": 7711,
      "▁extended": 7712,
      "▁la": 7713,
      "▁looking": 7714,
      "pol": 7715,
      "▁match": 7716,
      "erve": 7717,
      "▁pol": 7718,
      "igrants": 7719,
      "▁funnel": 7720,
      "quis": 7721,
      "▁address": 7722,
      "ous": 7723,
      "▁hurry": 7724,
      "▁infr": 7725,
      "▁their": 7726,
      "▁perhaps": 7727,
      "▁neighbour": 7728,
      "▁regre": 7729,
      "▁swit": 7730,
      "▁yet": 7731,
      "▁an": 7732,
      "▁seek": 7733,
      "▁----": 7734,
      "▁swe": 7735,
      "▁sent": 7736,
      "▁productivity": 7737,
      "lly": 7738,
      "▁gall": 7739,
      "▁stopover": 7740,
      "ι": 7741,
      "▁cargo": 7742,
      "▁meter": 7743,
      "▁acted": 7744,
      "▁cab": 7745,
      "▁caught": 7746,
      "▁remaining": 7747,
      "-": 7748,
      "▁...............": 7749,
      "▁huge": 7750,
      "▁indian": 7751,
      "▁framework": 7752,
      "isters": 7753,
      "▁rooms": 7754,
      "▁potatoes": 7755,
      "▁vet": 7756,
      "ity": 7757,
      "▁vessel": 7758,
      "▁problem": 7759,
      "????????????????????????????????": 7760,
      "▁pod": 7761,
      "▁mid": 7762,
      "▁dolly": 7763,
      "▁much": 7764,
      "▁mayonna": 7765,
      "land": 7766,
      "ind": 7767,
      "▁becomes": 7768,
      "gue": 7769,
      "▁ele": 7770,
      "▁bright": 7771,
      "▁aud": 7772,
      "ines": 7773,
      "▁grammar": 7774,
      "uro": 7775,
      "pet": 7776,
      "▁relating": 7777,
      "▁marry": 7778,
      "**": 7779,
      "▁beef": 7780,
      "respond": 7781,
      "▁mountains": 7782,
      "▁parents": 7783,
      "▁butt": 7784,
      "▁released": 7785,
      "▁audit": 7786,
      "▁bor": 7787,
      "▁sink": 7788,
      "▁crash": 7789,
      "▁merc": 7790,
      "▁dallas": 7791,
      "▁players": 7792,
      "▁e-mail": 7793,
      "gs": 7794,
      "▁dess": 7795,
      "▁refin": 7796,
      "▁lad": 7797,
      "ected": 7798,
      "▁cabin": 7799,
      "▁shares": 7800,
      "▁pittsbur": 7801,
      "▁innovations": 7802,
      "▁surv": 7803,
      "▁mush": 7804,
      "▁blog": 7805,
      "attle": 7806,
      "▁powers": 7807,
      "▁underst": 7808,
      "▁rec": 7809,
      "ourse": 7810,
      "▁cand": 7811,
      "▁poems": 7812,
      "▁saw": 7813,
      "▁thre": 7814,
      "φ": 7815,
      "2": 7816,
      "▁pract": 7817,
      "▁resistance": 7818,
      "▁’re": 7819,
      "vision": 7820,
      "▁insects": 7821,
      "▁loo": 7822,
      "▁progr": 7823,
      "oses": 7824,
      "▁photo": 7825,
      "▁generations": 7826,
      "rael": 7827,
      "eapolis": 7828,
      "13": 7829,
      "▁v": 7830,
      "▁iodised": 7831,
      "▁reconc": 7832,
      "▁advise": 7833,
      "zz": 7834,
      "▁forg": 7835,
      "▁dan": 7836,
      "teen": 7837,
      "pd": 7838,
      "▁nation": 7839,
      "▁hours": 7840,
      "airs": 7841,
      "▁routes": 7842,
      "▁requirements": 7843,
      "▁bear": 7844,
      "elling": 7845,
      "temp": 7846,
      "ulations": 7847,
      "▁mean": 7848,
      "▁laid": 7849,
      "▁support": 7850,
      "▁cave": 7851,
      "▁distance": 7852,
      "▁theatre": 7853,
      "▁mine": 7854,
      "▁education": 7855,
      "▁innov": 7856,
      "off": 7857,
      "▁concre": 7858,
      "rap": 7859,
      "▁poo": 7860,
      "icted": 7861,
      "▁conferences": 7862,
      "▁else": 7863,
      "▁colors": 7864,
      "▁counter": 7865,
      "▁reven": 7866,
      "▁rolls": 7867,
      "roduc": 7868,
      "ership": 7869,
      "▁arms": 7870,
      "overn": 7871,
      "▁admin": 7872,
      "▁assured": 7873,
      "go": 7874,
      "▁monks": 7875,
      "▁bronze": 7876,
      "▁metal": 7877,
      "▁parts": 7878,
      "▁ketchup": 7879,
      "▁impl": 7880,
      "▁provisions": 7881,
      "▁folks": 7882,
      "▁activities": 7883,
      "▁describes": 7884,
      "▁euro": 7885,
      "ruc": 7886,
      "ɔ": 7887,
      "▁partnership": 7888,
      "▁silver": 7889,
      "k": 7890,
      "▁draft": 7891,
      "▁equality": 7892,
      "tt": 7893,
      "ves": 7894,
      "▁fig": 7895,
      "▁promoting": 7896,
      "▁readers": 7897,
      "▁conflic": 7898,
      "▁participants": 7899,
      "▁snake": 7900,
      "▁returned": 7901,
      "▁win": 7902,
      "▁wom": 7903,
      "edness": 7904,
      "▁tasted": 7905,
      "▁orders": 7906,
      "▁gram": 7907,
      "▁guns": 7908,
      "ief": 7909,
      "ightly": 7910,
      "▁wid": 7911,
      "▁toile": 7912,
      "▁finger": 7913,
      "he": 7914,
      "▁birth": 7915,
      "ow": 7916,
      "▁leaves": 7917,
      "▁economic": 7918,
      "▁wood": 7919,
      "93": 7920,
      "vements": 7921,
      "crib": 7922,
      "uality": 7923,
      "imum": 7924,
      "▁’s": 7925,
      "appy": 7926,
      "aft": 7927,
      "▁mutation": 7928,
      "ledge": 7929,
      "ouch": 7930,
      "▁my": 7931,
      "▁tear": 7932,
      "▁reached": 7933,
      "▁artic": 7934,
      "▁transactions": 7935,
      "------": 7936,
      "ards": 7937,
      "bit": 7938,
      "▁moment": 7939,
      "▁ow": 7940,
      "▁appointment": 7941,
      "▁unemployment": 7942,
      "▁subjects": 7943,
      "▁offic": 7944,
      "▁species": 7945,
      "te": 7946,
      "▁prac": 7947,
      "▁produced": 7948,
      "▁pollution": 7949,
      "▁emissions": 7950,
      "▁seats": 7951,
      "▁examples": 7952,
      "▁tha": 7953,
      "afts": 7954,
      "▁rob": 7955,
      "pite": 7956,
      "▁ya": 7957,
      "bility": 7958,
      "▁applications": 7959,
      "ik": 7960,
      "▁lan": 7961,
      "selve": 7962,
      "▁agreed": 7963,
      "▁tags": 7964,
      "▁forward": 7965,
      "▁european": 7966,
      "▁hell": 7967,
      "▁officials": 7968,
      "▁change": 7969,
      "irc": 7970,
      "▁street": 7971,
      "▁cur": 7972,
      "▁cereal": 7973,
      "▁listed": 7974,
      "es": 7975,
      "▁used": 7976,
      "▁associated": 7977,
      "▁\"": 7978,
      "line": 7979,
      "aws": 7980,
      "▁'em": 7981,
      "▁bil": 7982,
      "▁inspired": 7983,
      "▁wilt": 7984,
      "▁connected": 7985,
      "▁stress": 7986,
      "▁schedule": 7987,
      "arr": 7988,
      "ticks": 7989,
      ".com/": 7990,
      "enders": 7991,
      "▁state": 7992,
      "▁feel": 7993,
      "▁rib": 7994,
      "▁citiz": 7995,
      "onds": 7996,
      "▁now": 7997,
      "▁sur": 7998,
      "▁consumers": 7999,
      "▁ins": 8000,
      "iveness": 8001,
      "ting": 8002,
      "▁mountain": 8003,
      "ought": 8004,
      "▁candidate": 8005,
      "▁agenda": 8006,
      "▁traffic": 8007,
      "▁possession": 8008,
      "▁ceiling": 8009,
      "▁college": 8010,
      "oth": 8011,
      "▁smal": 8012,
      "ries": 8013,
      "▁having": 8014,
      "ta": 8015,
      "▁rem": 8016,
      "nect": 8017,
      "ooks": 8018,
      "▁several": 8019,
      "▁eleph": 8020,
      "▁causing": 8021,
      "▁witch": 8022,
      "▁bell": 8023,
      "▁leaders": 8024,
      "asy": 8025,
      "▁repeated": 8026,
      "▁fund": 8027,
      "▁grab": 8028,
      "▁horses": 8029,
      "▁regulations": 8030,
      "eli": 8031,
      "▁inch": 8032,
      "ang": 8033,
      "▁pas": 8034,
      "▁benefit": 8035,
      "▁lear": 8036,
      "▁monarch": 8037,
      "▁lie": 8038,
      "asters": 8039,
      "▁pets": 8040,
      "▁cali": 8041,
      "ings": 8042,
      "esh": 8043,
      "▁games": 8044,
      "▁culture": 8045,
      "▁seal": 8046,
      "▁ah": 8047,
      "▁pronounced": 8048,
      "▁conc": 8049,
      "▁arrive": 8050,
      "▁today": 8051,
      "▁woke": 8052,
      "▁midnight": 8053,
      "omic": 8054,
      "emic": 8055,
      "nt": 8056,
      "tially": 8057,
      "▁milk": 8058,
      "▁toilet": 8059,
      "artment": 8060,
      "ts": 8061,
      "orders": 8062,
      "▁meaning": 8063,
      "owers": 8064,
      "▁chees": 8065,
      "▁[...": 8066,
      "▁blew": 8067,
      "▁<<": 8068,
      "▁ide": 8069,
      "▁colleagues": 8070,
      "▁source": 8071,
      "ok": 8072,
      "▁ca": 8073,
      "▁been": 8074,
      "▁program": 8075,
      "▁esc": 8076,
      "air": 8077,
      "iders": 8078,
      "itement": 8079,
      "ection": 8080,
      "▁meal": 8081,
      "▁profit": 8082,
      "▁the": 8083,
      "ample": 8084,
      "▁shel": 8085,
      "amed": 8086,
      "▁why": 8087,
      "▁base": 8088,
      "dge": 8089,
      "▁vegetable": 8090,
      "oring": 8091,
      "▁aspect": 8092,
      "yp": 8093,
      "---------------": 8094,
      "▁perceived": 8095,
      "▁we": 8096,
      "▁article": 8097,
      "aly": 8098,
      "▁spoke": 8099,
      "▁below": 8100,
      "▁chim": 8101,
      "▁tests": 8102,
      "▁age": 8103,
      "▁announced": 8104,
      "▁carried": 8105,
      "com": 8106,
      "of": 8107,
      "ring": 8108,
      "▁breath": 8109,
      "▁steps": 8110,
      "▁regard": 8111,
      "ocol": 8112,
      "▁prot": 8113,
      "▁define": 8114,
      "▁rocks": 8115,
      "▁processing": 8116,
      "▁high": 8117,
      "▁30": 8118,
      "eces": 8119,
      "▁extrem": 8120,
      "▁fo": 8121,
      "ea": 8122,
      "▁recruit": 8123,
      "▁yeah": 8124,
      "ternoon": 8125,
      "!": 8126,
      "▁gel": 8127,
      "▁op": 8128,
      "▁anticip": 8129,
      "▁airlin": 8130,
      "ned": 8131,
      "▁tou": 8132,
      "otes": 8133,
      "▁counterparty": 8134,
      "▁drawing": 8135,
      "▁forest": 8136,
      "▁maps": 8137,
      "▁n’t": 8138,
      "▁request": 8139,
      "az": 8140,
      "▁shopping": 8141,
      "dle": 8142,
      "▁funding": 8143,
      "▁!!!!!": 8144,
      "tain": 8145,
      "▁being": 8146,
      "igr": 8147,
      "▁le": 8148,
      "idding": 8149,
      "▁conce": 8150,
      "rol": 8151,
      "▁september": 8152,
      "gage": 8153,
      "▁shirt": 8154,
      "▁accordance": 8155,
      "▁inqu": 8156,
      "laim": 8157,
      "▁talk": 8158,
      "▁uh": 8159,
      "▁doll": 8160,
      "▁refriger": 8161,
      "▁teacher": 8162,
      "▁directive": 8163,
      "play": 8164,
      "ared": 8165,
      "▁novel": 8166,
      "▁puzzle": 8167,
      "▁wildlife": 8168,
      "orms": 8169,
      "▁alright": 8170,
      "▁qui": 8171,
      "▁ill": 8172,
      "▁doc": 8173,
      "▁pun": 8174,
      "ologies": 8175,
      "hes": 8176,
      "ember": 8177,
      "enty": 8178,
      "/he": 8179,
      "emb": 8180,
      "▁meet": 8181,
      "▁instit": 8182,
      ".pd": 8183,
      "▁students": 8184,
      "▁screwdriver": 8185,
      "ino": 8186,
      "ula": 8187,
      "▁participate": 8188,
      "▁blown": 8189,
      "▁stuff": 8190,
      "`s": 8191
    },
    "merges": [
      [
        "▁bun",
        "ny"
      ],
      [
        "▁st",
        "at"
      ],
      [
        "▁a",
        "ud"
      ],
      [
        "▁th",
        "rou"
      ],
      [
        "▁s",
        "ell"
      ],
      [
        "▁l",
        "ip"
      ],
      [
        "▁min",
        "ds"
      ],
      [
        "ak",
        "er"
      ],
      [
        "▁h",
        "orn"
      ],
      [
        "ain",
        "ed"
      ],
      [
        "▁t",
        "ex"
      ],
      [
        "▁j",
        "u"
      ],
      [
        "▁dinos",
        "aur"
      ],
      [
        "▁c",
        "re"
      ],
      [
        "ac",
        "h"
      ],
      [
        "▁l",
        "o"
      ],
      [
        "▁foc",
        "used"
      ],
      [
        "ti",
        "me"
      ],
      [
        "▁basket",
        "ball"
      ],
      [
        "▁",
        "urs"
      ],
      [
        "ar",
        "es"
      ],
      [
        "j",
        "ect"
      ],
      [
        "▁c",
        "ash"
      ],
      [
        "▁s",
        "ep"
      ],
      [
        "u",
        "is"
      ],
      [
        "r",
        "ong"
      ],
      [
        "▁infr",
        "astruc"
      ],
      [
        "▁me",
        "et"
      ],
      [
        "▁expl",
        "ore"
      ],
      [
        "ing",
        "ton"
      ],
      [
        "in",
        "ing"
      ],
      [
        "▁par",
        "tic"
      ],
      [
        "▁exchang",
        "e"
      ],
      [
        "▁su",
        "ch"
      ],
      [
        "▁who",
        "m"
      ],
      [
        "▁rep",
        "resent"
      ],
      [
        "▁pr",
        "ay"
      ],
      [
        "▁decl",
        "are"
      ],
      [
        "▁mech",
        "an"
      ],
      [
        "▁outf",
        "it"
      ],
      [
        "▁’",
        "’"
      ],
      [
        "'",
        "re"
      ],
      [
        "p",
        "tions"
      ],
      [
        "▁kitt",
        "en"
      ],
      [
        "▁down",
        "town"
      ],
      [
        "c",
        "t"
      ],
      [
        "▁cont",
        "rib"
      ],
      [
        "▁",
        "**"
      ],
      [
        "▁employ",
        "ment"
      ],
      [
        "▁inc",
        "lu"
      ],
      [
        "ear",
        "ed"
      ],
      [
        "▁cor",
        "p"
      ],
      [
        "rou",
        "nd"
      ],
      [
        "ke",
        "ys"
      ],
      [
        "▁e",
        "very"
      ],
      [
        "am",
        "es"
      ],
      [
        "ul",
        "ars"
      ],
      [
        "▁invest",
        "ig"
      ],
      [
        "gg",
        "ing"
      ],
      [
        "▁che",
        "w"
      ],
      [
        "▁grand",
        "m"
      ],
      [
        "▁fl",
        "y"
      ],
      [
        "▁teach",
        "ers"
      ],
      [
        "▁f",
        "i"
      ],
      [
        "el",
        "low"
      ],
      [
        "o",
        "s"
      ],
      [
        "▁",
        "ide"
      ],
      [
        "▁det",
        "er"
      ],
      [
        "▁go",
        "ne"
      ],
      [
        "▁bo",
        "il"
      ],
      [
        "bo",
        "at"
      ],
      [
        "**",
        "**"
      ],
      [
        "▁n",
        "ail"
      ],
      [
        "▁b",
        "ri"
      ],
      [
        "▁en",
        "v"
      ],
      [
        "▁c",
        "up"
      ],
      [
        "r",
        "ide"
      ],
      [
        "▁fu",
        "el"
      ],
      [
        "u",
        "lly"
      ],
      [
        "▁relig",
        "ion"
      ],
      [
        "▁ch",
        "anges"
      ],
      [
        "▁non",
        "stop"
      ],
      [
        "u",
        "me"
      ],
      [
        "▁c",
        "r"
      ],
      [
        "▁dep",
        "art"
      ],
      [
        "▁fun",
        "ny"
      ],
      [
        "▁experi",
        "ences"
      ],
      [
        "▁rep",
        "roduc"
      ],
      [
        "▁pu",
        "zz"
      ],
      [
        "en",
        "ces"
      ],
      [
        "▁happen",
        "ed"
      ],
      [
        "our",
        "n"
      ],
      [
        "▁sle",
        "ep"
      ],
      [
        "if",
        "f"
      ],
      [
        "▁bic",
        "ycle"
      ],
      [
        "▁ca",
        "use"
      ],
      [
        "er",
        "os"
      ],
      [
        "▁answ",
        "ered"
      ],
      [
        "▁tri",
        "c"
      ],
      [
        "▁ever",
        "ybody"
      ],
      [
        "▁tex",
        "ts"
      ],
      [
        "▁bo",
        "ot"
      ],
      [
        "▁minut",
        "es"
      ],
      [
        "▁dis",
        "p"
      ],
      [
        "o",
        "ard"
      ],
      [
        "▁bu",
        "y"
      ],
      [
        "ap",
        "ers"
      ],
      [
        "▁commun",
        "ities"
      ],
      [
        "m",
        "e"
      ],
      [
        "▁repl",
        "ace"
      ],
      [
        "▁en",
        "ough"
      ],
      [
        "um",
        "ents"
      ],
      [
        "us",
        "h"
      ],
      [
        "▁certific",
        "ate"
      ],
      [
        "▁ch",
        "ips"
      ],
      [
        "▁re",
        "placement"
      ],
      [
        "▁dri",
        "ving"
      ],
      [
        "▁ident",
        "ifies"
      ],
      [
        "▁e",
        "uropean"
      ],
      [
        "▁lim",
        "itations"
      ],
      [
        "▁b",
        "ills"
      ],
      [
        "▁potato",
        "es"
      ],
      [
        "▁bott",
        "les"
      ],
      [
        "▁comb",
        "ined"
      ],
      [
        "▁pret",
        "ending"
      ],
      [
        "▁se",
        "lection"
      ],
      [
        "▁stre",
        "am"
      ],
      [
        "ti",
        "ally"
      ],
      [
        "l",
        "o"
      ],
      [
        "an",
        "k"
      ],
      [
        "▁num",
        "bers"
      ],
      [
        "ak",
        "ing"
      ],
      [
        "▁rel",
        "ating"
      ],
      [
        "▁acc",
        "ident"
      ],
      [
        "▁contrib",
        "utions"
      ],
      [
        "▁c",
        "le"
      ],
      [
        "▁co",
        "m"
      ],
      [
        "▁respon",
        "se"
      ],
      [
        "▁chem",
        "icals"
      ],
      [
        "▁te",
        "ch"
      ],
      [
        "▁ign",
        "ore"
      ],
      [
        "▁c",
        "ast"
      ],
      [
        "▁co",
        "-"
      ],
      [
        "e",
        "arch"
      ],
      [
        "ous",
        "ness"
      ],
      [
        "▁m",
        "ed"
      ],
      [
        "▁",
        "—"
      ],
      [
        "▁di",
        "st"
      ],
      [
        "▁un",
        "cer"
      ],
      [
        "’",
        "s"
      ],
      [
        "in",
        "ds"
      ],
      [
        "▁reserv",
        "es"
      ],
      [
        "s",
        "cope"
      ],
      [
        "▁r",
        "ul"
      ],
      [
        "▁cur",
        "ves"
      ],
      [
        "▁tr",
        "ash"
      ],
      [
        "▁happ",
        "iness"
      ],
      [
        "m",
        "al"
      ],
      [
        "z",
        "e"
      ],
      [
        "▁maj",
        "or"
      ],
      [
        "▁ca",
        "pt"
      ],
      [
        "▁st",
        "ation"
      ],
      [
        "▁tr",
        "ain"
      ],
      [
        "▁id",
        "ent"
      ],
      [
        "▁m",
        "ake"
      ],
      [
        "▁disc",
        "uss"
      ],
      [
        "▁for",
        "g"
      ],
      [
        "▁laun",
        "ch"
      ],
      [
        "▁ord",
        "er"
      ],
      [
        "▁ing",
        "red"
      ],
      [
        "ta",
        "il"
      ],
      [
        "▁tr",
        "ained"
      ],
      [
        "▁ar",
        "ea"
      ],
      [
        "▁e",
        "ither"
      ],
      [
        "▁pa",
        "jamas"
      ],
      [
        "▁a",
        "ll"
      ],
      [
        "duc",
        "tion"
      ],
      [
        "▁inv",
        "ite"
      ],
      [
        "o",
        "te"
      ],
      [
        "al",
        "d"
      ],
      [
        "h",
        "es"
      ],
      [
        "t",
        "ch"
      ],
      [
        "▁hear",
        "t"
      ],
      [
        "wi",
        "se"
      ],
      [
        "sel",
        "f"
      ],
      [
        "▁descri",
        "ption"
      ],
      [
        "▁stud",
        "ent"
      ],
      [
        "ac",
        "es"
      ],
      [
        "▁pre",
        "sent"
      ],
      [
        "▁comp",
        "etition"
      ],
      [
        "op",
        "e"
      ],
      [
        "▁ho",
        "le"
      ],
      [
        "▁o",
        "thers"
      ],
      [
        "t",
        "ered"
      ],
      [
        "▁tal",
        "k"
      ],
      [
        "ure",
        "d"
      ],
      [
        "▁st",
        "ro"
      ],
      [
        "▁fir",
        "m"
      ],
      [
        "ap",
        "e"
      ],
      [
        "▁respon",
        "ded"
      ],
      [
        "▁se",
        "qu"
      ],
      [
        "▁neighb",
        "or"
      ],
      [
        "▁langu",
        "age"
      ],
      [
        "i",
        "ff"
      ],
      [
        "▁argu",
        "ed"
      ],
      [
        "d",
        "y"
      ],
      [
        "▁..",
        "."
      ],
      [
        "▁s",
        "ee"
      ],
      [
        "▁se",
        "esaw"
      ],
      [
        "e",
        "apolis"
      ],
      [
        "▁s",
        "m"
      ],
      [
        "▁laugh",
        "ing"
      ],
      [
        "▁shut",
        "tle"
      ],
      [
        "▁hors",
        "ie"
      ],
      [
        "en",
        "ti"
      ],
      [
        "▁d",
        "ies"
      ],
      [
        "▁kn",
        "ow"
      ],
      [
        "▁sec",
        "t"
      ],
      [
        "▁t",
        "alk"
      ],
      [
        "▁le",
        "t"
      ],
      [
        "▁head",
        "quarters"
      ],
      [
        "▁put",
        "ting"
      ],
      [
        "▁extre",
        "mely"
      ],
      [
        "c",
        "p"
      ],
      [
        "c",
        "inn"
      ],
      [
        "ur",
        "e"
      ],
      [
        "▁hum",
        "ans"
      ],
      [
        "▁design",
        "er"
      ],
      [
        "ol",
        "ution"
      ],
      [
        "▁rain",
        "bow"
      ],
      [
        "▁bl",
        "an"
      ],
      [
        "▁d",
        "ump"
      ],
      [
        "▁ch",
        "art"
      ],
      [
        "ink",
        "ing"
      ],
      [
        "▁g",
        "is"
      ],
      [
        "i",
        "z"
      ],
      [
        "an",
        "ced"
      ],
      [
        "▁b",
        "ring"
      ],
      [
        "▁meas",
        "ures"
      ],
      [
        "▁cry",
        "ing"
      ],
      [
        "▁them",
        "selves"
      ],
      [
        "▁resp",
        "ond"
      ],
      [
        "▁att",
        "r"
      ],
      [
        "▁d",
        "am"
      ],
      [
        "▁pean",
        "ut"
      ],
      [
        "▁te",
        "eth"
      ],
      [
        "oc",
        "ked"
      ],
      [
        "▁co",
        "ff"
      ],
      [
        "▁f",
        "re"
      ],
      [
        "▁sh",
        "it"
      ],
      [
        "▁_____",
        "__"
      ],
      [
        "▁f",
        "ash"
      ],
      [
        "▁sh",
        "irts"
      ],
      [
        "▁gr",
        "apes"
      ],
      [
        "▁mix",
        "ed"
      ],
      [
        "▁sm",
        "oke"
      ],
      [
        "▁on",
        "ce"
      ],
      [
        "d",
        "ed"
      ],
      [
        "▁co",
        "ur"
      ],
      [
        "▁infl",
        "u"
      ],
      [
        "c",
        "er"
      ],
      [
        "on",
        "y"
      ],
      [
        "s",
        "ed"
      ],
      [
        "▁arri",
        "ving"
      ],
      [
        "▁us",
        "es"
      ],
      [
        "el",
        "ines"
      ],
      [
        "▁!!!!!!!",
        "!!!"
      ],
      [
        "▁app",
        "ointment"
      ],
      [
        "ur",
        "al"
      ],
      [
        "us",
        "es"
      ],
      [
        "▁lad",
        "ies"
      ],
      [
        "▁dep",
        "arture"
      ],
      [
        "▁c",
        "on"
      ],
      [
        "os",
        "e"
      ],
      [
        "▁up",
        "side"
      ],
      [
        "▁counter",
        "fe"
      ],
      [
        "▁cult",
        "ures"
      ],
      [
        "▁per",
        "ceived"
      ],
      [
        "▁play",
        "s"
      ],
      [
        "▁h",
        "yp"
      ],
      [
        "▁rest",
        "ric"
      ],
      [
        "▁par",
        "ties"
      ],
      [
        "▁drag",
        "ged"
      ],
      [
        "▁l",
        "d"
      ],
      [
        "in",
        "ded"
      ],
      [
        "▁sing",
        "ing"
      ],
      [
        "▁ma",
        "g"
      ],
      [
        "▁pr",
        "in"
      ],
      [
        "▁infl",
        "ation"
      ],
      [
        "ent",
        "ure"
      ],
      [
        "▁'",
        "s"
      ],
      [
        "g",
        "s"
      ],
      [
        "▁tax",
        "i"
      ],
      [
        "▁estim",
        "ate"
      ],
      [
        "▁super",
        "mar"
      ],
      [
        "ur",
        "t"
      ],
      [
        "▁",
        "ord"
      ],
      [
        "▁d",
        "est"
      ],
      [
        "▁bri",
        "ght"
      ],
      [
        "▁mar",
        "ry"
      ],
      [
        "▁smo",
        "ke"
      ],
      [
        "▁m",
        "is"
      ],
      [
        "▁pr",
        "int"
      ],
      [
        "▁prof",
        "ession"
      ],
      [
        "▁lan",
        "tern"
      ],
      [
        "▁ri",
        "ght"
      ],
      [
        "▁e",
        "-m"
      ],
      [
        "▁h",
        "el"
      ],
      [
        "▁dec",
        "re"
      ],
      [
        "▁",
        "plus"
      ],
      [
        "▁consid",
        "ered"
      ],
      [
        "▁re",
        "as"
      ],
      [
        "▁st",
        "ated"
      ],
      [
        "▁oatme",
        "al"
      ],
      [
        "▁pro",
        "c"
      ],
      [
        "▁c",
        "orn"
      ],
      [
        "j",
        "o"
      ],
      [
        "▁t",
        "om"
      ],
      [
        "a",
        "ke"
      ],
      [
        "▁aug",
        "ust"
      ],
      [
        "▁ch",
        "ec"
      ],
      [
        "▁writ",
        "ten"
      ],
      [
        "▁sour",
        "ces"
      ],
      [
        "▁p",
        "ad"
      ],
      [
        "▁inc",
        "en"
      ],
      [
        "▁qu",
        "est"
      ],
      [
        "▁cond",
        "itions"
      ],
      [
        "▁miam",
        "i"
      ],
      [
        "▁di",
        "es"
      ],
      [
        "▁in",
        "equ"
      ],
      [
        "i",
        "oned"
      ],
      [
        "▁cont",
        "e"
      ],
      [
        "▁isd",
        "a"
      ],
      [
        "o",
        "ve"
      ],
      [
        "▁sc",
        "ul"
      ],
      [
        "▁na",
        "ima"
      ],
      [
        "▁d",
        "rops"
      ],
      [
        "▁h",
        "und"
      ],
      [
        "a",
        "q"
      ],
      [
        "▁path",
        "s"
      ],
      [
        "▁he",
        "at"
      ],
      [
        "os",
        "t"
      ],
      [
        "▁conduc",
        "t"
      ],
      [
        "▁sat",
        "ur"
      ],
      [
        "▁emer",
        "gency"
      ],
      [
        "▁l",
        "ake"
      ],
      [
        "▁htt",
        "p"
      ],
      [
        "n",
        "y"
      ],
      [
        "▁trans",
        "fer"
      ],
      [
        "▁purch",
        "asing"
      ],
      [
        "▁s",
        "ur"
      ],
      [
        "v",
        "ement"
      ],
      [
        "m",
        "p"
      ],
      [
        "r",
        "et"
      ],
      [
        "▁egg",
        "s"
      ],
      [
        "▁f",
        "le"
      ],
      [
        "▁exa",
        "ctly"
      ],
      [
        "▁proced",
        "ure"
      ],
      [
        "ott",
        "able"
      ],
      [
        "▁k",
        "ar"
      ],
      [
        "▁ref",
        "in"
      ],
      [
        "▁poin",
        "ts"
      ],
      [
        "▁pro",
        "pos"
      ],
      [
        "▁",
        "im"
      ],
      [
        "ens",
        "us"
      ],
      [
        "l",
        "ish"
      ],
      [
        "▁cris",
        "is"
      ],
      [
        "▁inv",
        "itation"
      ],
      [
        "▁be",
        "at"
      ],
      [
        "er",
        "ts"
      ],
      [
        "▁tast",
        "es"
      ],
      [
        "▁j",
        "uly"
      ],
      [
        "in",
        "n"
      ],
      [
        "c",
        "ing"
      ],
      [
        "▁t",
        "own"
      ],
      [
        "▁s",
        "ides"
      ],
      [
        "k",
        "et"
      ],
      [
        "▁n",
[...]
