{
  "version": "1.0",
  "truncation": null,
  "padding": null,
  "added_tokens": [
    {
      "id": 4089,
      "content": "[UNK]",
      "single_word": false,
      "lstrip": false,
      "rstrip": false,
      "normalized": false,
      "special": true
    },
    {
      "id": 4511,
      "content": "[CLS]",
      "single_word": false,
      "lstrip": false,
      "rstrip": false,
      "normalized": false,
      "special": true
    },
    {
      "id": 4648,
      "content": "[SEP]",
      "single_word": false,
      "lstrip": false,
      "rstrip": false,
      "normalized": false,
      "special": true
    },
    {
      "id": 6960,
      "content": "[MASK]",
      "single_word": false,
      "lstrip": false,
      "rstrip": false,
      "normalized": false,
      "special": true
    },
    {
      "id": 8043,
      "content": "[PAD]",
      "single_word": false,
      "lstrip": false,
      "rstrip": false,
      "normalized": false,
      "special": true
    }
  ],
  "normalizer": {
    "type": "Sequence",
    "normalizers": [
      {
        "type": "NFD"
      },
      {
        "type": "Lowercase"
      },
      {
        "type": "StripAccents"
      }
    ]
  },
  "pre_tokenizer": {
    "type": "Sequence",
    "pretokenizers": [
      {
        "type": "Metaspace",
        "replacement": "▁",
        "prepend_scheme": "always",
        "split": true
      }
    ]
  },
  "post_processor": {
    "type": "TemplateProcessing",
    "single": [
      {
        "SpecialToken": {
          "id": "[CLS]",
          "type_id": 0
        }
      },
      {
        "Sequence": {
          "id": "A",
          "type_id": 0
        }
      },
      {
        "SpecialToken": {
          "id": "[SEP]",
          "type_id": 0
        }
      }
    ],
    "pair": [
      {
        "SpecialToken": {
          "id": "[CLS]",
          "type_id": 0
        }
      },
      {
        "Sequence": {
          "id": "A",
          "type_id": 0
        }
      },
      {
        "SpecialToken": {
          "id": "[SEP]",
          "type_id": 0
        }
      },
      {
        "Sequence": {
          "id": "B",
          "type_id": 1
        }
      },
      {
        "SpecialToken": {
          "id": "[SEP]",
          "type_id": 1
        }
      }
    ],
    "special_tokens": {
      "[CLS]": {
        "id": "[CLS]",
        "ids": [
          4511
        ],
        "tokens": [
          "[CLS]"
        ]
      },
      "[SEP]": {
        "id": "[SEP]",
        "ids": [
          4648
        ],
        "tokens": [
          "[SEP]"
        ]
      }
    }
  },
  "decoder": {
    "type": "Metaspace",
    "replacement": "▁",
    "prepend_scheme": "always",
    "split": true
  },
  "model": {
    "type": "Unigram",
    "unk_id": 4089,
    "vocab": [
      [
        "▁maj",
        -6.857447257322732
      ],
      [
        "▁watch",
        -9.023160525265709
      ],
      [
        "▁dioxi",
        -9.83258278783569
      ],
      [
        "▁pow",
        -9.379593022376655
      ],
      [
        "▁media",
        -8.134514175208484
      ],
      [
        "▁j",
        -6.245568630105775
      ],
      [
        "ia",
        -7.044474574176757
      ],
      [
        "▁h",
        -9.64414646600412
      ],
      [
        "▁transformation",
        -9.839105266640372
      ],
      [
        "▁responsibilit",
        -8.302627399698519
      ],
      [
        "▁nation",
        -7.955822749522195
      ],
      [
        "eries",
        -8.900382303201846
      ],
      [
        "▁social",
        -6.614955515202298
      ],
      [
        "▁glimpse",
        -10.478087497394753
      ],
      [
        "▁po",
        -7.826023911263647
      ],
      [
        "▁th",
        -6.19741338827232
      ],
      [
        "▁seeker",
        -9.443402248073058
      ],
      [
        "▁crossing",
        -10.05621808064415
      ],
      [
        "▁rubb",
        -8.643654335528929
      ],
      [
        "▁partner",
        -9.35640111533454
      ],
      [
        "ho",
        -11.734257522352875
      ],
      [
        "▁manage",
        -8.370360364254418
      ],
      [
        "serve",
        -10.100496419794691
      ],
      [
        "▁distribut",
        -9.928409276909468
      ],
      [
        "ma",
        -6.56637832689829
      ],
      [
        "courage",
        -10.04988582663659
      ],
      [
        "▁acc",
        -10.057827661434171
      ],
      [
        "▁utilit",
        -9.5137537530257
      ],
      [
        "▁sump",
        -10.049072276037338
      ],
      [
        "over",
        -8.292291013070475
      ],
      [
        "▁puppet",
        -9.582397732649945
      ],
      [
        "▁abide",
        -10.677816934548815
      ],
      [
        "'s",
        -8.528530238255158
      ],
      [
        "▁gesture",
        -10.311474274199128
      ],
      [
        "▁over",
        -5.746199670579694
      ],
      [
        "▁parade",
        -10.315342448562175
      ],
      [
        "▁battl",
        -10.789798519796987
      ],
      [
        "▁execut",
        -10.411975526183868
      ],
      [
        "▁gun",
        -8.205066631914168
      ],
      [
        "▁mumm",
        -7.233669912628453
      ],
      [
        "▁tribe",
        -9.660655465665338
      ],
      [
        ")",
        -4.681454226988154
      ],
      [
        "▁spread",
        -8.61092097078106
      ],
      [
        "▁dead",
        -10.311433112274996
      ],
      [
        "rup",
        -9.93747918845523
      ],
      [
        "▁murder",
        -8.668398467351855
      ],
      [
        "▁glue",
        -10.025809881225593
      ],
      [
        "▁plott",
        -10.635998005245568
      ],
      [
        "▁dash",
        -10.195253487093881
      ],
      [
        "▁challenge",
        -9.903584821016157
      ],
      [
        "▁west",
        -9.275173103541295
      ],
      [
        "▁wai",
        -10.238905340473138
      ],
      [
        "▁a",
        -6.746763213277556
      ],
      [
        "ndo",
        -7.136043383997401
      ],
      [
        "▁regain",
        -10.626631285643823
      ],
      [
        "▁brush",
        -9.044226130735694
      ],
      [
        "▁ove",
        -9.615140633420575
      ],
      [
        "▁clarify",
        -9.869289628014036
      ],
      [
        "▁disturb",
        -9.744563884475317
      ],
      [
        "▁ingredient",
        -9.027129298032522
      ],
      [
        "-",
        -8.731955288757932
      ],
      [
        "tl",
        -8.50920686371289
      ],
      [
        "▁broc",
        -10.367495236729512
      ],
      [
        "▁a",
        -5.967256489737387
      ],
      [
        "▁fi",
        -10.440047787115914
      ],
      [
        "▁fuck",
        -10.176534600256034
      ],
      [
        "▁c",
        -7.115854882496244
      ],
      [
        "▁high",
        -6.500572263972546
      ],
      [
        "▁john",
        -6.479427457483174
      ],
      [
        "▁traffick",
        -10.271778482495607
      ],
      [
        "l",
        -3.3832330531517893
      ],
      [
        "te",
        -9.747775161545746
      ],
      [
        "▁li",
        -9.360770019549522
      ],
      [
        "x",
        -10.718458113282995
      ],
      [
        "saw",
        -9.503820530389424
      ],
      [
        "▁hearing",
        -8.870715649866485
      ],
      [
        "▁perse",
        -10.485845065096411
      ],
      [
        "▁goe",
        -7.72050638869013
      ],
      [
        "▁holder",
        -9.758475780076713
      ],
      [
        "ess",
        -7.730748269343373
      ],
      [
        "▁cheese",
        -7.783748479796582
      ],
      [
        "▁sap",
        -10.317405900592187
      ],
      [
        "▁mu",
        -7.392537216598347
      ],
      [
        "ley",
        -7.147190260073397
      ],
      [
        "europ",
        -6.79352500653621
      ],
      [
        "▁delight",
        -10.313223973084579
      ],
      [
        "▁breeze",
        -10.478095303592127
      ],
      [
        "▁snack",
        -9.443194014147078
      ],
      [
        "▁dose",
        -9.325416295288932
      ],
      [
        "▁slip",
        -10.621068442642704
      ],
      [
        "resume",
        -10.38287400397426
      ],
      [
        "▁go",
        -6.738425845394442
      ],
      [
        "be",
        -8.086772398805067
      ],
      [
        "ston",
        -4.6869837569322375
      ],
      [
        "▁park",
        -7.930236432806555
      ],
      [
        "▁purchase",
        -9.214062275991463
      ],
      [
        "▁scheme",
        -9.5812903902401
      ],
      [
        "t",
        -4.296542088812356
      ],
      [
        "se",
        -10.437721176173625
      ],
      [
        "▁score",
        -9.174898047653443
      ],
      [
        "iness",
        -8.758683916931057
      ],
      [
        "▁saturday",
        -7.459641993461222
      ],
      [
        "▁taco",
        -10.311424090806252
      ],
      [
        "▁jurisdiction",
        -10.043563670953969
      ],
      [
        "▁like",
        -9.658319359423471
      ],
      [
        "▁consumer",
        -8.871518677355962
      ],
      [
        "▁perceive",
        -9.231072865854188
      ],
      [
        "▁apri",
        -8.514934394064104
      ],
      [
        "▁releas",
        -9.691243766923812
      ],
      [
        "▁photo",
        -8.614610832051232
      ],
      [
        "be",
        -10.797699139960514
      ],
      [
        "▁dream",
        -8.56103977158605
      ],
      [
        "z",
        -8.474407620128483
      ],
      [
        "▁charl",
        -7.2220165585329275
      ],
      [
        "u",
        -5.9829718967998025
      ],
      [
        "aid",
        -8.194850112635836
      ],
      [
        "▁ooz",
        -10.75961585141122
      ],
      [
        "▁1",
        -4.047171860870492
      ],
      [
        "▁tap",
        -10.854487862826728
      ],
      [
        "▁every",
        -8.138839326173517
      ],
      [
        "▁guilt",
        -9.93246019163463
      ],
      [
        "w",
        -5.189900606426425
      ],
      [
        "ox",
        -9.739793619725758
      ],
      [
        "▁pre-",
        -10.375704894384878
      ],
      [
        "▁convert",
        -8.916979657935837
      ],
      [
        "phi",
        -7.256567440791212
      ],
      [
        "▁star",
        -7.691582309390991
      ],
      [
        "▁un",
        -6.526291615881251
      ],
      [
        "▁s",
        -9.170725578216292
      ],
      [
        "▁procedure",
        -8.43467800269547
      ],
      [
        "▁appetit",
        -10.179536821289629
      ],
      [
        "▁cart",
        -9.959941675902243
      ],
      [
        "med",
        -9.650791541270365
      ],
      [
        "▁hik",
        -9.657785929657823
      ],
      [
        "▁***",
        -11.706988063870577
      ],
      [
        "▁abo",
        -8.974191354937803
      ],
      [
        "▁examine",
        -8.958313668623635
      ],
      [
        "ai",
        -10.700825080080225
      ],
      [
        "ro",
        -9.323176805322918
      ],
      [
        "▁ball",
        -7.006350162614156
      ],
      [
        "ide",
        -9.572061885451374
      ],
      [
        "ke",
        -9.88780897297207
      ],
      [
        "▁26",
        -6.742655354865676
      ],
      [
        "▁sandal",
        -10.481370623882274
      ],
      [
        "▁speech",
        -8.766433705033648
      ],
      [
        "▁uni",
        -8.075029178804023
      ],
      [
        "▁please",
        -8.564434024630248
      ],
      [
        "▁broadcast",
        -10.011721082281243
      ],
      [
        "pane",
        -7.941965455979306
      ],
      [
        "▁abe",
        -6.601175893629714
      ],
      [
        "▁remain",
        -9.932727112706296
      ],
      [
        "▁under",
        -9.799071239036792
      ],
      [
        "▁mm",
        -6.005830975174888
      ],
      [
        "▁struggle",
        -9.509858791344382
      ],
      [
        "▁shadow",
        -9.213681156485315
      ],
      [
        "▁mark",
        -8.689154687632312
      ],
      [
        "al",
        -4.268364097368864
      ],
      [
        "bers",
        -9.995682861617386
      ],
      [
        "to",
        -7.034425037071648
      ],
      [
        "▁dangl",
        -10.375856842531736
      ],
      [
        "▁correct",
        -9.744555531978136
      ],
      [
        "▁milk",
        -10.625895806374423
      ],
      [
        "▁fear",
        -8.483064322946014
      ],
      [
        "▁deep",
        -7.726823443598322
      ],
      [
        "▁hard",
        -6.981459197999821
      ],
      [
        "▁tir",
        -7.751708177182447
      ],
      [
        "▁uh",
        -7.780351736788767
      ],
      [
        "do",
        -6.801638483122259
      ],
      [
        "▁type",
        -6.940202585849559
      ],
      [
        "h",
        -4.449069131649335
      ],
      [
        "▁along",
        -7.533964767221531
      ],
      [
        "▁hamburger",
        -10.169117797188472
      ],
      [
        "speci",
        -6.56809779980563
      ],
      [
        "▁joy",
        -10.327234075088032
      ],
      [
        "▁collar",
        -10.044566570726975
      ],
      [
        "▁astronaut",
        -10.168563666290055
      ],
      [
        "▁pole",
        -9.327281550076133
      ],
      [
        "que",
        -9.782683796486307
      ],
      [
        "▁marke",
        -9.593447865678037
      ],
      [
        "▁paris",
        -7.263201668754966
      ],
      [
        "▁ag",
        -6.359684494857314
      ],
      [
        "▁alter",
        -9.364013232035528
      ],
      [
        "ise",
        -8.75869414362368
      ],
      [
        "▁jingle",
        -10.311485866711227
      ],
      [
        "ooooo",
        -12.71015855894965
      ],
      [
        "▁weapon",
        -8.018213450539964
      ],
      [
        "▁historian",
        -10.479737026864797
      ],
      [
        "▁lip",
        -9.685395387948162
      ],
      [
        "▁jerk",
        -10.311443018932218
      ],
      [
        "akes",
        -9.879685453590378
      ],
      [
        "band",
        -10.015285009447695
      ],
      [
        "▁phone",
        -7.130847053332728
      ],
      [
        "▁concern",
        -8.185990702299588
      ],
      [
        "kee",
        -6.352695755114187
      ],
      [
        "hold",
        -10.892694620397984
      ],
      [
        "▁coincide",
        -10.251147162270897
      ],
      [
        "▁s",
        -6.320466937627674
      ],
      [
        "▁shoo",
        -10.576299720082153
      ],
      [
        "▁realize",
        -8.060523133677941
      ],
      [
        "▁ambition",
        -10.168957923494913
      ],
      [
        "ano",
        -9.319313698515801
      ],
      [
        "▁habitat",
        -10.224214726442963
      ],
      [
        "h",
        -4.6934243343720325
      ],
      [
        "▁secure",
        -9.59335314794649
      ],
      [
        "▁kid",
        -7.17027627458666
      ],
      [
        "aging",
        -9.831299807117691
      ],
      [
        "▁forward",
        -6.90085416688369
      ],
      [
        "▁mask",
        -9.381199401819691
      ],
      [
        "_",
        -4.773377875289404
      ],
      [
        "hi",
        -8.442534427418508
      ],
      [
        "▁peek",
        -10.38250772454571
      ],
      [
        "▁pretend",
        -8.139216432580561
      ],
      [
        "▁hi",
        -10.461023264164472
      ],
      [
        "-",
        -5.0561714688933765
      ],
      [
        "▁queries",
        -9.129900018636869
      ],
      [
        "▁consist",
        -9.283652398662763
      ],
      [
        "▁purchase",
        -8.519796011439709
      ],
      [
        "▁participa",
        -8.985418496914397
      ],
      [
        "mination",
        -9.0103642310771
      ],
      [
        "e",
        -9.487298196508139
      ],
      [
        "▁sight",
        -9.232842993372625
      ],
      [
        "amb",
        -8.817893283207418
      ],
      [
        "imate",
        -7.97804560746793
      ],
      [
        "national",
        -7.263849459139401
      ],
      [
        "▁refund",
        -9.9324577638119
      ],
      [
        "▁conclude",
        -8.698352782806548
      ],
      [
        "hos",
        -7.461527069413849
      ],
      [
        "▁babi",
        -9.710863577913036
      ],
      [
        "****************",
        -9.642473869126556
      ],
      [
        "l",
        -4.943432235573655
      ],
      [
        "▁mont",
        -7.067933171742557
      ],
      [
        "▁green",
        -6.684628782587111
      ],
      [
        "▁raccoon",
        -10.168563785399776
      ],
      [
        "▁enem",
        -8.800329903110963
      ],
      [
        "▁attack",
        -7.943107177091735
      ],
      [
        "▁wi",
        -9.007041050919739
      ],
      [
        "▁surgeon",
        -9.832682591874955
      ],
      [
        "▁core",
        -9.445388088282826
      ],
      [
        "opho",
        -10.490192829297412
      ],
      [
        "▁suitcase",
        -9.380706287225884
      ],
      [
        "ize",
        -10.360224280629454
      ],
      [
        "▁made",
        -5.751019815800901
      ],
      [
        "date",
        -10.016142449912378
      ],
      [
        "▁bear",
        -8.442463514443517
      ],
      [
        "▁enthusias",
        -10.164739898187397
      ],
      [
        "ly",
        -6.04520852120544
      ],
      [
        "▁they",
        -4.1663145534812855
      ],
      [
        "▁anyway",
        -6.660623151807425
      ],
      [
        "▁sh",
        -9.787824462077555
      ],
      [
        "▁da",
        -7.903378949837745
      ],
      [
        "▁crashe",
        -10.491287712122011
      ],
      [
        "ecess",
        -7.46000355533633
      ],
      [
        "▁travel",
        -7.316864703250338
      ],
      [
        "ty",
        -7.973812938011873
      ],
      [
        "▁fight",
        -7.564697244157758
      ],
      [
        "▁bac",
        -9.745094317498294
      ],
      [
        "▁theatre",
        -8.986130813212602
      ],
      [
        "man",
        -7.728453083879817
      ],
      [
        "▁revisit",
        -10.631252763409883
      ],
      [
        "▁earl",
        -7.23689365952583
      ],
      [
        "▁p",
        -9.237570785962834
      ],
      [
        "more",
        -7.0924871061843655
      ],
      [
        "▁veto",
        -10.626658189778096
      ],
      [
        "get",
        -10.22512405160739
      ],
      [
        "iff",
        -10.337316732871427
      ],
      [
        "+",
        -10.834960006133095
      ],
      [
        "▁de",
        -8.377010357385638
      ],
      [
        "▁nonstop",
        -7.470178213797659
      ],
      [
        "▁sham",
        -9.269197670990797
      ],
      [
        "▁shrugg",
        -10.177679289386054
      ],
      [
        "▁doll",
        -8.318560293411347
      ],
      [
        "▁squir",
        -10.478498111738991
      ],
      [
        "z",
        -6.815512705175174
      ],
      [
        "▁undertake",
        -9.547930132674637
      ],
      [
        "▁fixed",
        -7.9833664899746974
      ],
      [
        "stone",
        -9.685504819896853
      ],
      [
        "st",
        -8.625963840068751
      ],
      [
        "▁belong",
        -7.909109751690545
      ],
      [
        "os",
        -12.710612856818017
      ],
      [
        "▁charm",
        -9.933903789705345
      ],
      [
        "odge",
        -10.470298444545076
      ],
      [
        "▁bed",
        -7.087401626501282
      ],
      [
        "re",
        -6.5270678446587755
      ],
      [
        "▁tradition",
        -8.802224872004064
      ],
      [
        "▁hol",
        -8.13481318438749
      ],
      [
        "▁pollut",
        -9.209575413885586
      ],
      [
        "▁cons",
        -8.568533098711479
      ],
      [
        "▁mam",
        -8.545814601912113
      ],
      [
        "▁quote",
        -8.907245017758246
      ],
      [
        "▁theodor",
        -8.14327177728987
      ],
      [
        "▁cyclone",
        -9.581294308624113
      ],
      [
        "▁buck",
        -9.513928484040473
      ],
      [
        "▁en",
        -6.905990043207903
      ],
      [
        "out",
        -7.947446852270071
      ],
      [
        "▁guide",
        -9.62941378383745
      ],
      [
        "h",
        -8.082311726515218
      ],
      [
        "▁derivative",
        -10.31142080913969
      ],
      [
        "▁mar",
        -9.241948177397722
      ],
      [
        "▁transferr",
        -9.886727081633742
      ],
      [
        "▁medal",
        -10.314647386677157
      ],
      [
        "hav",
        -10.876058165513452
      ],
      [
        "▁emperor",
        -10.47809062571123
      ],
      [
        "▁enjoy",
        -6.958235282635592
      ],
      [
        "▁rust",
        -10.747334829047519
      ],
      [
        "▁stem",
        -9.93306088335769
      ],
      [
        "▁trace",
        -10.807113277960992
      ],
      [
        "▁o",
        -5.505108263201317
      ],
      [
        "ari",
        -7.987987158299443
      ],
      [
        "▁wel",
        -9.830800278409978
      ],
      [
        "▁ron",
        -7.821891287442616
      ],
      [
        "▁statue",
        -9.419598465920378
      ],
      [
        "rod",
        -10.717950917236367
      ],
      [
        "▁salar",
        -9.837365743787533
      ],
      [
        "▁leaf",
        -9.65821125057068
      ],
      [
        "rance",
        -9.824622775845105
      ],
      [
        "▁evacuation",
        -10.47838661528419
      ],
      [
        "▁four",
        -4.645122731153732
      ],
      [
        "▁operation",
        -8.343222112072963
      ],
      [
        "▁feel",
        -10.056595669203316
      ],
      [
        "---",
        -10.542734627330935
      ],
      [
        "▁eng",
        -7.5444635519219165
      ],
      [
        "▁member",
        -7.261225371284641
      ],
      [
        "▁representation",
        -9.268030705320479
      ],
      [
        "▁beetle",
        -9.741848658290843
      ],
      [
        "▁plant",
        -7.801000771904263
      ],
      [
        "nd",
        -9.236601350363305
      ],
      [
        "▁gotte",
        -9.31265395207345
      ],
      [
        "▁wiggle",
        -9.266315700927986
      ],
      [
        "▁as",
        -4.879682590360853
      ],
      [
        "▁official",
        -8.149951455968605
      ],
      [
        "▁schedule",
        -8.18328247692495
      ],
      [
        "▁pause",
        -10.168667172788542
      ],
      [
        "▁breath",
        -8.869964449020863
      ],
      [
        "▁priorit",
        -8.657516435318431
      ],
      [
        "▁expire",
        -9.633637099111574
      ],
      [
        "▁jam",
        -10.179894580085405
      ],
      [
        "▁un",
        -8.043236926596183
      ],
      [
        "'",
        -10.925660239071423
      ],
      [
        "on",
        -5.927544266561199
      ],
      [
        "enni",
        -10.15123836426241
      ],
      [
        "▁b",
        -5.988397352287272
      ],
      [
        "▁yawn",
        -10.008741128442212
      ],
      [
        "ward",
        -10.410958854975426
      ],
      [
        "▁def",
        -10.515031584064438
      ],
      [
        "▁jack",
        -10.311088618001431
      ],
      [
        "▁p&",
        -10.169818155883146
      ],
      [
        "▁influence",
        -9.142093804611845
      ],
      [
        "▁perspective",
        -9.380691818492878
      ],
      [
        "care",
        -9.7802010694752
      ],
      [
        "▁vine",
        -9.834151118667313
      ],
      [
        "▁silkie",
        -9.596420864349508
      ],
      [
        "i",
        -3.6573677594667693
      ],
      [
        "w",
        -10.925660239071423
      ],
      [
        "▁produc",
        -9.460620216478585
      ],
      [
        "▁switch",
        -10.043581477569818
      ],
      [
        "▁mine",
        -7.3549003857745685
      ],
      [
        "▁en",
        -7.426478329342391
      ],
      [
        "▁caus",
        -8.900027625784086
      ],
      [
        "▁diaper",
        -8.834255157020062
      ],
      [
        "▁i",
        -7.733415807312335
      ],
      [
        "▁over",
        -5.6506729416107095
      ],
      [
        "3",
        -9.480108316315999
      ],
      [
        "▁achievement",
        -8.985462631616706
      ],
      [
        "▁compound",
        -10.375576661577485
      ],
      [
        "▁ruin",
        -9.93246944173528
      ],
      [
        "▁deadline",
        -10.043718982158357
      ],
      [
        "▁care",
        -8.009467513872664
      ],
      [
        "▁murder",
        -9.744417734275082
      ],
      [
        "n",
        -4.842692419104057
      ],
      [
        "▁sign",
        -7.972831141163362
      ],
      [
        "▁spell",
        -8.438578417452812
      ],
      [
        "▁wiki",
        -7.863494163401468
      ],
      [
        "▁success",
        -8.22835123492166
      ],
      [
        "▁africa",
        -7.552096036445813
      ],
      [
        "▁cabin",
        -9.509593653344709
      ],
      [
        "▁chance",
        -7.8734742140238545
      ],
      [
        "▁valu",
        -10.742818018737335
      ],
      [
        "▁custom",
        -9.066796503252661
      ],
      [
        "▁creat",
        -8.00466740362287
      ],
      [
        "umn",
        -9.938407425915774
      ],
      [
        "▁dad",
        -6.918955971671499
      ],
      [
        "fe",
        -9.0361242398277
      ],
      [
        "et",
        -8.520137268692363
      ],
      [
        "▁speculat",
        -10.200711806280005
      ],
      [
        "d",
        -2.637497417406923
      ],
      [
        "▁bulldo",
        -8.344770114184284
      ],
      [
        "s",
        -3.6131603665375165
      ],
      [
        "old",
        -9.528845702195468
      ],
      [
        "▁populate",
        -9.76081277287819
      ],
      [
        "ssor",
        -9.727224045170528
      ],
      [
        "▁strain",
        -9.900034521624876
      ],
      [
        "gence",
        -9.482760417865883
      ],
      [
        "▁penn",
        -8.9934492646715
      ],
      [
        "▁adjust",
        -8.81943056587951
      ],
      [
        "▁protect",
        -7.6478212800122485
      ],
      [
        "▁play",
        -7.535513835809167
      ],
      [
        "▁f",
        -8.821102863888438
      ],
      [
        "▁revis",
        -10.14635234453716
      ],
      [
        "▁prison",
        -9.928667370485803
      ],
      [
        "t",
        -5.84145757418605
      ],
      [
        "at",
        -7.706429681576975
      ],
      [
        "so",
        -7.2618511862300625
      ],
      [
        "▁drag",
        -9.756971879213626
      ],
      [
        "armac",
        -10.478318597940175
      ],
      [
        "news",
        -8.123167760465929
      ],
      [
        "▁character",
        -8.063330563774318
      ],
      [
        "▁evacuate",
        -9.702572845947563
      ],
      [
        "▁occurr",
        -8.562198231586656
      ],
      [
        "▁chess",
        -9.382422995320233
      ],
      [
        "▁paper",
        -6.757763913029968
      ],
      [
        ":30",
        -6.570587185813982
      ],
      [
        "▁flame",
        -10.170222440554689
      ],
      [
        "▁review",
        -8.033199575130796
      ],
      [
        "▁regulation",
        -8.563391965210002
      ],
      [
        "▁dec",
        -7.5533179389977425
      ],
      [
        "one",
        -9.353132765357131
      ],
      [
        "▁natural",
        -6.989556970057124
      ],
      [
        "▁nap",
        -9.266580458096362
      ],
      [
        "▁remov",
        -10.48703154130754
      ],
      [
        "▁tour",
        -10.39720374638068
      ],
      [
        "▁lol",
        -7.00934076015975
      ],
      [
        "▁creature",
        -9.832738928701954
      ],
      [
        "▁front",
        -7.547496069364088
      ],
      [
        "▁previous",
        -8.331232841109763
      ],
      [
        "▁regret",
        -9.489790445532266
      ],
      [
        ":00",
        -6.2272021234326935
      ],
      [
        "claim",
        -10.101394393127407
      ],
      [
        "ounce",
        -10.561102899163927
      ],
      [
        "▁reserve",
        -9.027131472061019
      ],
      [
        "see",
        -9.049613460170495
      ],
      [
        "book",
        -8.577065229780844
      ],
      [
        "▁wiki",
        -9.38069209843947
      ],
      [
        "▁jun",
        -8.017949734447205
      ],
      [
        "▁cracker",
        -9.166293717274373
      ],
      [
        "▁harm",
        -10.044217544210303
      ],
      [
        "▁amaze",
        -9.86882489442777
      ],
      [
        "▁old",
        -5.586906487994287
      ],
      [
        "one",
        -8.816062925516773
      ],
      [
        "▁begu",
        -8.858236529005222
      ],
      [
        "▁bec",
        -7.535835746995769
      ],
      [
        "▁administrat",
        -9.83051153889679
      ],
      [
        "ed",
        -9.945768300263612
      ],
      [
        "u",
        -8.070949385963766
      ],
      [
        "▁husband",
        -8.262540490269071
      ],
      [
        "▁pr",
        -7.570935983409841
      ],
      [
        "▁movie",
        -7.368615550236844
      ],
      [
        "▁hall",
        -8.83419970445298
      ],
      [
        "ification",
        -9.79122310592978
      ],
      [
        "▁nam",
        -9.606888969482535
      ],
      [
        "f",
        -7.674786905690743
      ],
      [
        "▁mut",
        -10.40330330677357
      ],
      [
        "▁bar",
        -10.05648783414817
      ],
      [
        "▁o",
        -12.326071694749007
      ],
      [
        "▁chief",
        -9.7455041950685
      ],
      [
        "hol",
        -7.43404099862988
      ],
      [
        "▁banknote",
        -10.168586900889323
      ],
      [
        "tement",
        -9.38167277600336
      ],
      [
        "need",
        -9.922703557848802
      ],
      [
        "on",
        -8.1917012505937
      ],
      [
        "▁center",
        -8.283605353000647
      ],
      [
        "▁ab",
        -8.805039313032388
      ],
      [
        "!!!!!!!!!!!",
        -12.390566855407181
      ],
      [
        "▁drink",
        -7.16609013605316
      ],
      [
        "▁shout",
        -9.15195904554747
      ],
      [
        "d",
        -4.701714546391115
      ],
      [
        "▁redeem",
        -10.625537037087533
      ],
      [
        "oget",
        -6.134195808425582
      ],
      [
        "▁viewers",
        -10.492687098779108
      ],
      [
        "▁responsi",
        -7.657283662955391
      ],
      [
        "▁hundred",
        -5.955365271488084
      ],
      [
        "▁launch",
        -9.575753720745357
      ],
      [
        "-",
        -12.303800120175861
      ],
      [
        "▁s",
        -7.2016004436635175
      ],
      [
        "▁tend",
        -8.614622362102224
      ],
      [
        "▁emergenc",
        -8.834249770495031
      ],
      [
        "▁==",
        -12.464802984085608
      ],
      [
        "ment",
        -8.426674424199724
      ],
      [
        "▁wild",
        -8.928126600543223
      ],
      [
        "when",
        -7.381382499901413
      ],
      [
        "▁glu",
        -10.046870625064997
      ],
      [
        "al",
        -7.165407135913335
      ],
      [
        "▁protest",
        -9.534081895430205
      ],
      [
        "▁motive",
        -9.581355963563272
      ],
      [
        "▁resolve",
        -9.642685334669686
      ],
      [
        "▁conce",
        -10.279745226660157
      ],
      [
        "▁dat",
        -10.699679337279848
      ],
      [
        "▁skill",
        -10.015408049592523
      ],
      [
        "▁horror",
        -9.443191820153338
      ],
      [
        "▁attract",
        -8.538253893795229
      ],
      [
        "▁increas",
        -8.53900235210116
      ],
      [
        "sel",
        -8.826133072965293
      ],
      [
        "▁recieve",
        -10.175399798595071
      ],
      [
        "▁th",
        -6.672497760393611
      ],
      [
        "▁journey",
        -9.266312896645
      ],
      [
        "▁scribble",
        -9.534255413808545
      ],
      [
        "▁jam",
        -9.38264644013299
      ],
      [
        "▁ri",
        -10.490612159304728
      ],
      [
        "ing",
        -7.042262489258167
      ],
      [
        "p",
        -7.066816683755824
      ],
      [
        "cut",
        -10.581990512418892
      ],
      [
        "▁chase",
        -9.577074334807683
      ],
      [
        "▁part",
        -5.968521033017265
      ],
      [
        "▁t",
        -6.423821213326638
      ],
      [
        "▁organiz",
        -9.802144367307102
      ],
      [
        "nce",
        -8.780311225222537
      ],
      [
        "▁justify",
        -10.176005862372051
      ],
      [
        "▁sequence",
        -9.833258249385288
      ],
      [
        "▁adam",
        -6.007165886733898
      ],
      [
        "▁gd",
        -9.677506131788014
      ],
      [
        "▁waffle",
        -10.478437705019644
      ],
      [
        "▁dispute",
        -10.62732526487285
      ],
      [
        "▁modern",
        -7.2893754413007565
      ],
      [
        "▁putt",
        -8.158922509182146
      ],
      [
        "▁butt",
        -9.632738286865834
      ],
      [
        "▁bulb",
        -8.946151700017957
      ],
      [
        "▁outlier",
        -10.478089441859632
      ],
      [
        "▁root",
        -10.63104711627929
      ],
      [
        "re",
        -7.027030272216266
      ],
      [
        "▁book",
        -7.527313072312097
      ],
      [
        "▁barrel",
        -9.380803443474113
      ],
      [
        "▁prepar",
        -8.757126478595298
      ],
      [
        "▁second",
        -6.165745746144752
      ],
      [
        "yo",
        -13.477506734468584
      ],
      [
        "man",
        -6.863842658812744
      ],
      [
        "▁sensor",
        -10.044169751712335
      ],
      [
        "▁capacit",
        -8.204518063493495
      ],
      [
        "▁warm",
        -8.849171901022405
      ],
      [
        "▁guy",
        -6.662665736122084
      ],
      [
        "▁fr",
        -9.460009057332062
      ],
      [
        "▁grand",
        -9.672744787189396
      ],
      [
        "▁demo",
        -10.489005747887202
      ],
      [
        "▁kne",
        -7.241416540283398
      ],
      [
        "▁color",
        -7.3440757188292105
      ],
      [
        "▁fundamental",
        -7.691354906365133
      ],
      [
        "▁plan",
        -8.307157985587114
      ],
      [
        "▁tom",
        -7.088367988879393
      ],
      [
        "v",
        -13.477506734468584
      ],
      [
        "▁who",
        -5.033694261489916
      ],
      [
        "rote",
        -7.59018499466834
      ],
      [
        "▁opportunit",
        -7.860065178571203
      ],
      [
        "▁scare",
        -9.20458049062011
      ],
      [
        "made",
        -10.120059527937936
      ],
      [
        "`",
        -11.770631529841472
      ],
      [
        "▁street",
        -7.817149434523229
      ],
      [
        "▁",
        -2.345074069766005
      ],
      [
        "▁commence",
        -10.625801526851067
      ],
      [
        "▁telephone",
        -8.64366898574794
      ],
      [
        "▁squeak",
        -10.00903609307047
      ],
      [
        "▁burden",
        -9.741543482187087
      ],
      [
        "mas",
        -7.6727106750395855
      ],
      [
        "▁smash",
        -10.375470894077244
      ],
      [
        "▁wa",
        -9.499203125850554
      ],
      [
        "▁tit",
        -10.153702829967653
      ],
      [
        "▁soft",
        -7.795608770514
      ],
      [
        "avoc",
        -9.443192798288992
      ],
      [
        ".",
        -12.707635305583393
      ],
      [
        "stoo",
        -10.869723171068461
      ],
      [
        "▁finaliz",
        -10.632792941184837
      ],
      [
        "▁open",
        -6.700602120712368
      ],
      [
        "▁standing",
        -9.946149753824752
      ],
      [
        "▁termin",
        -10.373965785831599
      ],
      [
        "***",
        -10.264982179695927
      ],
      [
        "▁amuse",
        -10.312496843688429
      ],
      [
        "▁drugs",
        -10.202403620082183
      ],
      [
        "roni",
        -9.322274523378773
      ],
      [
        "▁quack",
        -10.043923585595316
      ],
      [
        "viation",
        -9.932510014133378
      ],
      [
        "▁phase",
        -9.446087853483489
      ],
      [
        "ed",
        -2.876766076595114
      ],
      [
        "▁care",
        -7.907577963490083
      ],
      [
        "▁197",
        -6.181383886766783
      ],
      [
        "x",
        -11.925660239071421
      ],
      [
        "ican",
        -7.78911050047105
      ],
      [
        "▁comic",
        -10.31759475833505
      ],
      [
        "▁color",
        -8.649343940973306
      ],
      [
        "▁poem",
        -9.321874441452813
      ],
      [
        "▁our",
        -5.4680531288304906
      ],
      [
        "▁nose",
        -7.584387430329614
      ],
      [
        "▁ba",
        -7.679762023073685
      ],
      [
        "▁pilgrimage",
        -10.479242220158891
      ],
      [
        "assembl",
        -10.043718005911346
      ],
      [
        "▁perform",
        -7.9516644364622575
      ],
      [
        "▁dictionar",
        -10.478101999684725
      ],
      [
        "▁chairman",
        -9.838018392246942
      ],
      [
        "▁national",
        -6.406663850264038
      ],
      [
        "▁'",
        -8.111149863688397
      ],
      [
        "▁thre",
        -8.490099273367072
      ],
      [
        "_",
        -4.900921085182438
      ],
      [
        "▁sea",
        -7.8568335953458535
      ],
      [
        "▁equi",
        -10.019267538536749
      ],
      [
        "ghett",
        -10.478087887358193
      ],
      [
        "c",
        -11.925660239071421
      ],
      [
        "▁full",
        -6.361760699344071
      ],
      [
        "utilize",
        -10.625463411992387
      ],
      [
        "▁down",
        -5.192616129128126
      ],
      [
        "▁close",
        -7.11502240079139
      ],
      [
        "▁personal",
        -7.73883688352381
      ],
      [
        "▁wiggl",
        -10.00883140088853
      ],
      [
        "▁ensur",
        -8.932108183470353
      ],
      [
        "▁wait",
        -9.070115980847888
      ],
      [
        "▁flexibilit",
        -10.043621901085356
      ],
      [
        "▁wait",
        -6.4435862654354095
      ],
      [
        "▁rack",
        -10.317762365568012
      ],
      [
        "et",
        -9.871479119652989
      ],
      [
        "▁drie",
        -10.430648335217084
      ],
      [
        "▁view",
        -8.258169616922892
      ],
      [
        "▁tin",
        -7.625313974643603
      ],
      [
        "▁children",
        -6.99475166268508
      ],
      [
        "te",
        -7.071888424677393
      ],
      [
        "store",
        -9.358133051782206
      ],
      [
        "among",
        -10.114427603570839
      ],
      [
        "▁financ",
        -10.47022895671235
      ],
      [
        "him",
        -8.090238517203447
      ],
      [
        "▁influence",
        -8.766513799053753
      ],
      [
        "▁buil",
        -7.856162297499796
      ],
      [
        "▁22",
        -6.821468071390161
      ],
      [
        "ge",
        -8.118621365486504
      ],
      [
        "ess",
        -8.366410517912175
      ],
      [
        "▁yoyo",
        -9.93245309735916
      ],
      [
        "▁attempt",
        -8.223376858434541
      ],
      [
        "▁agreement",
        -7.470177209775466
      ],
      [
        "▁pri",
        -8.56855636069049
      ],
      [
        "▁supporter",
        -9.344505160986092
      ],
      [
        "▁reception",
        -9.510043840464514
      ],
      [
        "▁!!!!",
        -9.976697986141936
      ],
      [
        "spos",
        -9.538910020897028
      ],
      [
        "▁quanti",
        -9.450793575165381
      ],
      [
        "l",
        -6.758199687090753
      ],
      [
        "|",
        -9.71992686283465
      ],
      [
        "ch",
        -7.364946314041537
      ],
      [
        "▁uphold",
        -10.644607613795992
      ],
      [
        "▁conten",
        -10.668644523220832
      ],
      [
        "▁rule",
        -9.498378461293761
      ],
      [
        "▁excite",
        -9.744419735341996
      ],
      [
        "▁north",
        -8.50620785573341
      ],
      [
        "▁devil",
        -10.16856422391466
      ],
      [
        "rench",
        -7.337084724346421
      ],
      [
        "▁ge",
        -9.980967270631677
      ],
      [
        "▁marginali",
        -10.375400389990173
      ],
      [
        "in",
        -12.605786362287859
      ],
      [
        "▁clean",
        -9.655289158902892
      ],
      [
        "▁-",
        -2.719908429384735
      ],
      [
        "▁harmonise",
        -10.379349057462107
      ],
      [
        "hap",
        -6.538456397502306
      ],
      [
        "sumption",
        -8.906948514148082
      ],
      [
        "▁dollar",
        -7.177247689325739
      ],
      [
        "▁exposure",
        -8.672626701065425
      ],
      [
        "▁knot",
        -9.741650603618048
      ],
      [
        "ula",
        -7.8655581337808815
      ],
      [
        "▁hatch",
        -10.617539123774906
      ],
      [
        "▁neuro",
        -9.832975608901673
      ],
      [
        "▁sara",
        -6.708077875948279
      ],
      [
        "▁source",
        -7.497524826586582
      ],
      [
        "comfort",
        -10.28341658038285
      ],
      [
        "▁emitt",
        -10.719279613934258
      ],
      [
        "-",
        -4.310181122036845
      ],
      [
        "iller",
        -10.0484584820878
      ],
      [
        "▁provocation",
        -10.478120540974157
      ],
      [
        "▁categor",
        -8.734676455708136
      ],
      [
        "▁tie",
        -8.758690664380818
      ],
      [
        "▁shop",
        -9.757703357156307
      ],
      [
        "▁bow",
        -9.319309472155522
      ],
      [
        "▁signoff",
        -10.169007027392642
      ],
      [
        "▁podcast",
        -10.478090394158311
      ],
      [
        "▁sleep",
        -8.339396154722916
      ],
      [
        "▁heat",
        -9.71226296886555
      ],
      [
        "▁mu",
        -5.496880053479114
      ],
      [
        "in",
        -5.972258428642646
      ],
      [
        "ar",
        -7.075727222635783
      ],
      [
        "it",
        -7.619367739875833
      ],
      [
        "▁finance",
        -8.801881982734644
      ],
      [
        "▁include",
        -7.061085876825674
      ],
      [
        "later",
        -5.988474399927434
      ],
      [
        "▁whistle",
        -10.168643884475337
      ],
      [
        "▁aut",
        -9.443540042609886
      ],
      [
        "ext",
        -10.389671360496573
      ],
      [
        "▁sand",
        -8.974879506789534
      ],
      [
        "▁lega",
        -9.870167179052643
      ],
      [
        "▁ki",
        -10.185540561033676
      ],
      [
        "▁)",
        -8.967339649659891
      ],
      [
        "whil",
        -8.721459407085504
      ],
      [
        "ar",
        -7.063891730229105
      ],
      [
        "thi",
        -6.816229796495275
      ],
      [
        "▁finish",
        -7.390927051909596
      ],
      [
        "▁specification",
        -9.93378901450235
      ],
      [
        "▁legislat",
        -8.766182293688123
      ],
      [
        "▁dry",
        -8.577557739989558
      ],
      [
        "▁stuff",
        -7.25333568292502
      ],
      [
        "change",
        -10.712926284232378
      ],
      [
        "▁punch",
        -8.91668404709228
      ],
      [
        "▁spann",
        -10.632733669214016
      ],
      [
        "v",
        -7.503686046903617
      ],
      [
        "ffici",
        -8.176448879623912
      ],
      [
        "▁scho",
        -7.858178035989682
      ],
      [
        "▁guid",
        -9.610319329752725
      ],
      [
        "▁12",
        -5.2458269485953
      ],
      [
        "▁fresh",
        -10.486459178515858
      ],
      [
        "▁sacrifice",
        -10.37539229013642
      ],
      [
        "▁rep",
        -8.553982279391816
      ],
      [
        "▁quit",
        -10.552507898864086
      ],
      [
        "▁mari",
        -7.872290944246012
      ],
      [
        "16",
        -7.239998889600365
      ],
      [
        "▁conference",
        -8.244049964880816
      ],
      [
        "▁null",
        -10.168588341146233
      ],
      [
        "ding",
        -8.718424413211814
      ],
      [
        "median",
        -9.565374174195526
      ],
      [
        "▁demonstrat",
        -10.908466487076097
      ],
      [
        "▁message",
        -7.615139767616978
      ],
      [
        "▁trick",
        -9.747989662756476
      ],
      [
        "▁manage",
        -8.279946590380614
      ],
      [
        "▁emerge",
        -9.38954857975813
      ],
      [
        "b",
        -6.825311492901869
      ],
      [
        "rism",
        -10.079538751435921
      ],
      [
        "▁truth",
        -8.434678051742662
      ],
      [
        "▁half",
        -7.816980987758747
      ],
      [
        "▁cr",
        -10.644824002594692
      ],
      [
        "▁tra",
        -9.899202451065905
      ],
      [
        "fish",
        -10.141618837800078
      ],
      [
        "▁fi",
        -4.740511853306687
      ],
      [
        "▁dismiss",
        -10.270601876005362
      ],
      [
        "▁behave",
        -10.532273809375848
      ],
      [
        "▁achiev",
        -8.898995402808437
      ],
      [
        "itin",
        -10.316880181283805
      ],
      [
        "▁floor",
        -7.290125546862132
      ],
      [
        "▁income",
        -8.734229316251902
      ],
      [
        "*****",
        -11.55114666431147
      ],
      [
        "▁f",
        -6.753051150091313
      ],
      [
        "▁low",
        -7.220900580056894
      ],
      [
        "▁alr",
        -8.353446800509932
      ],
      [
        "fu",
        -10.147369292473178
      ],
      [
        "stain",
        -10.313602985264431
      ],
      [
        "▁south",
        -8.766453831079225
      ],
      [
        "00",
        -9.443160033069033
      ],
      [
        "low",
        -8.699569245665831
      ],
      [
        "▁qa",
        -7.134338267906523
      ],
      [
        "▁reach",
        -7.623129132054625
      ],
      [
        "▁advertis",
        -9.567759333588402
      ],
      [
        "▁.",
        -6.602433684213669
      ],
      [
        "▁design",
        -8.065859001859366
      ],
      [
        "▁swimm",
        -10.312671658300086
      ],
      [
        "6-1.",
        -10.246768575089591
      ],
      [
        "ded",
        -7.664095298121266
      ],
      [
        "noth",
        -9.805417396928092
      ],
      [
        "▁cook",
        -9.087263499668673
      ],
      [
        "rruption",
        -10.47812232107072
      ],
      [
        "▁case",
        -6.766255565750259
      ],
      [
        "▁error",
        -8.45848812011001
      ],
      [
        "▁reduc",
        -9.075227997464417
      ],
      [
        "▁broadcast",
        -10.043564257625047
      ],
      [
        "▁luna",
        -10.311493632266902
      ],
      [
        "ho",
        -13.331044045789548
      ],
      [
        "▁con",
        -7.391996245884695
      ],
      [
        "▁possession",
        -9.321868746742632
      ],
      [
        "ics",
        -9.228339716804667
      ],
      [
        "▁unemploy",
        -9.443191815892131
      ],
      [
        "▁animal",
        -7.010915132886302
      ],
      [
        "al",
        -5.95872636162754
      ],
      [
        "▁fo",
        -9.41100533512987
      ],
      [
        "▁hen",
        -9.482406925259264
      ],
      [
        "▁!!!!!!!!!!",
        -11.835042718013746
      ],
      [
        "▁stimulat",
        -10.175392293971926
      ],
      [
        "caution",
        -10.313106949365295
      ],
      [
        "▁ethic",
        -10.106411276763613
      ],
      [
        "▁necessit",
        -10.311621534634128
      ],
      [
        "▁sonnet",
        -9.443496170470588
      ],
      [
        "▁hurry",
        -9.44378856143484
      ],
      [
        "▁til",
        -10.08890471521851
      ],
      [
        "▁steve",
        -8.197645767411604
      ],
      [
        "▁a",
        -6.484556626444801
      ],
      [
        "▁consult",
        -9.7445485960796
      ],
      [
        "▁oakl",
        -6.086037196608399
      ],
      [
        "▁locat",
        -10.01479985419384
      ],
      [
        "▁sleep",
        -7.3867615725125875
      ],
      [
        "face",
        -10.243692146314638
      ],
      [
        "▁snap",
        -10.478402003196383
      ],
      [
        "▁flower",
        -8.052303817238657
      ],
      [
        "30",
        -10.4478146354789
      ],
      [
        "oh",
        -5.75281353938016
      ],
      [
        "▁unit",
        -9.1792037657963
      ],
      [
        "x",
        -7.618871757219306
      ],
      [
        "▁favorite",
        -8.985470494079461
      ],
      [
        "▁prisoner",
        -10.317368970083539
      ],
      [
        "▁micro",
        -8.074317963048511
      ],
      [
        "▁david",
        -7.478392607824284
      ],
      [
        "▁ar",
        -7.66241252467595
      ],
      [
        "▁broad",
        -7.998462488971848
      ],
      [
        "▁midd",
        -8.306769047425984
      ],
      [
        "▁pas",
        -7.821620048628746
      ],
      [
        "ther",
        -5.232010347024702
      ],
      [
        "grit",
        -9.680295578975322
      ],
      [
        "▁abilit",
        -8.308255114723913
      ],
      [
        "▁substitute",
        -10.822485321768516
      ],
      [
        "▁before",
        -6.6514196137008295
      ],
      [
        "▁ld2d-#693",
        -9.741439701413563
      ],
      [
        "▁g",
        -7.240861415586582
      ],
      [
        "▁resort",
        -9.832941410940595
      ],
      [
        "janu",
        -7.393387375893962
      ],
      [
        "▁carpet",
        -9.933102369277792
      ],
      [
        "▁recommend",
        -6.895939823875512
      ],
      [
        "▁embedd",
        -9.869434000832122
      ],
      [
        "▁go",
        -8.927866664186887
      ],
      [
        "▁b",
        -12.241560312219251
      ],
      [
        "▁vaccine",
        -9.443191815895995
      ],
      [
        "▁bonus",
        -10.311509067043472
      ],
      [
        "ctiv",
        -7.934144041055749
      ],
      [
        "fect",
        -7.810865185202944
      ],
      [
        "▁twin",
        -10.036331833435995
      ],
      [
        "wise",
        -7.250263014346251
      ],
      [
        "▁warning",
        -9.322523548590858
      ],
      [
        "▁pr",
        -10.218333311133517
      ],
      [
        "▁limb",
        -9.26887499946334
      ],
      [
        "▁be",
        -6.418192732652731
      ],
      [
        "▁jump",
        -7.577736165724097
      ],
      [
        "▁aisle",
        -10.16878598241533
      ],
      [
        "▁neighbourhood",
        -10.478590480680744
      ],
      [
        "▁c",
        -8.031073055678037
      ],
      [
        "▁up",
        -5.004285843445531
      ],
      [
        "▁datasheet",
        -9.74336760542837
      ],
      [
        "▁arrange",
        -8.659840971283762
      ],
      [
        "▁tickl",
        -10.852215701959326
      ],
      [
        "▁needle",
        -10.056080016695127
      ],
      [
        "▁sub",
        -9.632716355258115
      ],
      [
        "▁cave",
        -9.443398871818205
      ],
      [
        "▁trim",
        -9.877510487838935
      ],
      [
        "▁acquir",
        -9.511154169961484
      ],
      [
        "n",
        -4.701494973042649
      ],
      [
        "▁ic",
        -10.087142151144363
      ],
      [
        "▁f",
        -11.570644583811621
      ],
      [
        "l",
        -12.810278406305953
      ],
      [
        "▁plane",
        -7.9561906955276624
      ],
      [
        "▁wield",
        -10.625537843783844
      ],
      [
        "▁qui",
        -6.449378746013751
      ],
      [
        "auti",
        -6.786796365666034
      ],
      [
        "▁bad",
        -6.056861771555049
      ],
      [
        "bye",
        -10.141625867656577
      ],
      [
        "▁bye",
        -9.081440733831304
      ],
      [
        "▁breakfast",
        -7.594144308081172
      ],
      [
        "▁d",
        -8.290619015603834
      ],
      [
        "▁refus",
        -9.153500385357804
      ],
      [
        "▁shift",
        -9.381692674594017
      ],
      [
        "▁mouth",
        -7.657204202022357
      ],
      [
        "▁an",
        -8.976284814517962
      ],
      [
        "▁modification",
        -9.932459618861449
      ],
      [
        "paper",
        -10.449487438695558
      ],
      [
        "e",
        -6.537752415107047
      ],
      [
        "apri",
        -7.848198512512113
      ],
      [
        "▁wors",
        -7.1919873934551335
      ],
      [
        "o'",
        -8.648213831454742
      ],
      [
        "▁doubt",
        -9.444180129155395
      ],
      [
        "ful",
        -5.211743761945356
      ],
      [
        "chart",
        -10.44924708289613
      ],
      [
        "3",
        -4.193572430795962
      ],
      [
        "▁where",
        -10.478087686671172
      ],
      [
        "box",
        -10.140336236912844
      ],
      [
        "▁marshmallow",
        -10.043563668324929
      ],
      [
        "ic",
        -6.031345409737585
      ],
      [
        "▁book",
        -6.375498404792042
      ],
      [
        "▁association",
        -9.932475310555724
      ],
      [
        "le",
        -8.50795881827378
      ],
      [
        "▁tag",
        -8.949890713114671
      ],
      [
        "lock",
        -7.984002137820483
      ],
      [
        "▁frown",
        -10.6265895858662
      ],
      [
        "qu",
        -8.710015999172573
      ],
      [
        "▁mean",
        -7.964630717571043
      ],
      [
        "▁opposit",
        -9.963977092705836
      ],
      [
        "▁pepper",
        -8.94547645040062
      ],
      [
        "▁sp",
        -9.924592366094707
      ],
      [
        "ove",
        -8.910776172545935
      ],
      [
        "▁pro",
        -9.513928353263147
      ],
      [
        "▁hand",
        -6.509592599776984
      ],
      [
        "▁commissioner",
        -8.882450708279292
      ],
      [
        "10",
        -6.928772068030854
      ],
      [
        "▁entr",
        -9.10589569215248
      ],
      [
        "▁waiver",
        -9.658246616052157
      ],
      [
        "▁reader",
        -10.310168380411652
      ],
      [
        "▁!",
        -6.89487113485091
      ],
      [
        "▁scream",
        -10.47855434010183
      ],
      [
        "▁re",
        -6.479732183788573
      ],
      [
        "▁interpret",
        -9.041564964558667
      ],
      [
        "▁he",
        -4.958886955881843
      ],
      [
        "▁heating",
        -10.228058095822544
      ],
      [
        "▁merit",
        -9.932611268407722
      ],
      [
        "▁arrangement",
        -8.907001401053535
      ],
      [
        "▁gang",
        -10.045658481465521
      ],
      [
        "▁offens",
        -10.311505269826505
      ],
      [
        "▁menu",
        -8.509550482838769
      ],
      [
        "▁further",
        -7.053770262695196
      ],
      [
        "▁basic",
        -7.651982902971502
      ],
      [
        "▁implement",
        -8.187586598347401
      ],
      [
        "▁clos",
        -8.852234879791947
      ],
      [
        "▁count",
        -9.263433872488331
      ],
      [
        "▁advisor",
        -10.044284176287123
      ],
      [
        "▁place",
        -7.751819224249484
      ],
      [
        "▁wri",
        -10.516370978935342
      ],
      [
        "s",
        -7.035194481589116
      ],
      [
        "▁cra",
        -9.160877755352242
      ],
      [
        "▁appropriation",
        -10.314873539879196
      ],
      [
        "at",
        -10.166605929081395
      ],
      [
        "▁bec",
        -7.4976419712532465
      ],
      [
        "competenc",
        -10.451242898877934
      ],
      [
        "▁on",
        -11.41378886164738
      ],
      [
        "▁issu",
        -10.119700466224016
      ],
      [
        "▁skip",
        -9.439206609939403
      ],
      [
        "▁stampede",
        -10.478088391886331
      ],
      [
        "▁adorn",
        -10.627364208440655
      ],
      [
        "▁believe",
        -6.538158286587613
      ],
      [
        "▁spin",
        -10.01953923692014
      ],
      [
        "access",
        -7.2958226824187085
      ],
      [
        "▁clown",
        -9.380694964829365
      ],
      [
        "▁drawer",
        -9.382167151703479
      ],
      [
        "▁sponsor",
        -9.633815477170808
      ],
      [
        "▁reject",
        -9.212291352067611
      ],
      [
        "round",
        -9.631591919258668
      ],
      [
        "▁boom",
        -8.799956975837176
      ],
      [
        "rate",
        -8.26366824356731
      ],
      [
        "▁parl",
        -7.871464198784225
      ],
      [
        "▁missile",
        -9.11607336693124
      ],
      [
        "▁bar",
        -8.014284079122854
      ],
      [
        "▁direct",
        -7.339736906234009
      ],
      [
        "▁board",
        -9.283379317465256
      ],
      [
        "▁her",
        -10.048054623692373
      ],
      [
        "▁provid",
        -8.342887990288133
      ],
      [
        "▁yo",
        -9.375395264527263
      ],
      [
        "▁venture",
        -9.741578806257742
      ],
      [
        "▁sea",
        -7.285182294581472
      ],
      [
        "▁sha",
        -7.984547637263843
      ],
      [
        "▁practice",
        -9.269161214107651
      ],
      [
        "▁flap",
        -10.31206837058798
      ],
      [
        "ride",
        -9.738160804075996
      ],
      [
        "▁satisf",
        -10.373382612376304
      ],
      [
        "▁tho",
        -9.772827531104562
      ],
      [
        "▁alarm",
        -9.83247594093188
      ],
      [
        "▁wide",
        -7.946241760470722
      ],
      [
        "▁district",
        -9.32186828856534
      ],
      [
        "cial",
        -6.719047619607357
      ],
      [
        "ta",
        -10.326169070098572
      ],
      [
        "s",
        -10.83641398548844
      ],
      [
        "▁rise",
        -9.168278348737832
      ],
      [
        "▁disclose",
        -10.175851081647977
      ],
      [
        "▁dish",
        -8.351199429928243
      ],
      [
        "whe",
        -9.046355872460186
      ],
      [
        "▁eas",
        -6.711564089444368
      ],
      [
        "wo",
        -10.600779294355887
      ],
      [
        "▁article",
        -7.833984339081877
      ],
      [
        "▁libert",
        -9.840976542847187
      ],
      [
        "▁.........",
        -13.962818968391918
      ],
      [
        "▁grave",
        -9.871797101247015
      ],
      [
        "▁alway",
        -5.519820572217111
      ],
      [
        "▁pl",
        -8.598750982367946
      ],
      [
        "▁foot",
        -7.771647652021123
      ],
      [
        "▁import",
        -8.672629005611883
      ],
      [
        "▁hydro",
        -10.346595844043808
      ],
      [
        "▁183",
        -7.019067651698266
      ],
      [
        "▁visit",
        -8.48183351503077
      ],
      [
        "▁attachment",
        -9.38069327839617
      ],
      [
        "▁insert",
        -10.175394578197603
      ],
      [
        "▁industr",
        -7.900611714730798
      ],
      [
        "ember",
        -6.199609196682592
      ],
      [
        "▁wagon",
        -9.658452516791476
      ],
      [
        "am",
        -8.15785297872382
      ],
      [
        "ut",
        -8.476736712929485
      ],
      [
        ".",
        -7.015451316975299
      ],
      [
        "even",
        -6.785405311067583
      ],
      [
        "ov",
        -8.666308487738302
      ],
      [
        "1990",
        -10.32191230298927
      ],
      [
        "▁continu",
        -8.721055627285242
      ],
      [
        "▁inde",
        -7.740820838136441
      ],
      [
        "▁pe",
        -10.776425122448485
      ],
      [
        "side",
        -7.369361114905498
      ],
      [
        "▁estimate",
        -9.510453898365832
      ],
      [
        "▁twa",
        -7.598795238109675
      ],
      [
        "tivit",
        -9.56664369631667
      ],
      [
        "ight",
        -10.37757982285585
      ],
      [
        "▁headache",
        -9.932916739713136
      ],
      [
        "operation",
        -8.706799928977901
      ],
      [
        "▁their",
        -5.253175569214527
      ],
      [
        "e",
        -2.362962577693258
      ],
      [
        "▁organism",
        -10.478480382672421
      ],
      [
        "▁lover",
        -9.757954892333617
      ],
      [
        "▁biographer",
        -10.311724200680686
      ],
      [
        "▁introduce",
        -8.200117681523333
      ],
      [
        "▁citizens",
        -8.082082154941343
      ],
      [
        "cient",
        -7.904563397838827
      ],
      [
        "▁wood",
        -8.782335898887274
      ],
      [
        "tle",
        -10.418884200008671
      ],
      [
        "is",
        -6.944029365249887
      ],
      [
        "land",
        -6.085513073209679
      ],
      [
        "▁cite",
        -9.5459805419673
      ],
      [
        "▁rip",
        -9.553219506168208
      ],
      [
        "▁life",
        -6.384941048694096
      ],
      [
        "las",
        -5.086626234963578
      ],
      [
        "▁incident",
        -9.741543517985093
      ],
      [
        "a",
        -2.8896488760980406
      ],
      [
        "▁b",
        -6.612012272435213
      ],
      [
        "▁nephew",
        -9.581287054010563
      ],
      [
        "r",
        -6.977308910407106
      ],
      [
        "ural",
        -7.5258585411169365
      ],
      [
        "▁la",
        -6.3692025320130305
      ],
      [
        "▁crea",
        -10.184132669760583
      ],
      [
        "▁magic",
        -8.869883196569416
      ],
      [
        "▁cord",
        -9.743720257441481
      ],
      [
        "▁germ",
        -10.47783251470314
      ],
      [
        "▁justice",
        -9.27507449992458
      ],
      [
        "▁bench",
        -9.070628859021998
      ],
      [
        "ving",
        -10.055450030235306
      ],
      [
        "▁return",
        -6.980570236197516
      ],
      [
        "▁easi",
        -7.509591222627236
      ],
      [
        "▁seek",
        -7.794721868270505
      ],
      [
        "▁refrigerator",
        -9.32186828906544
      ],
      [
        "▁operat",
        -9.416450268859371
      ],
      [
        "ur",
        -10.396299161178206
      ],
      [
        "day",
        -6.084199428082167
      ],
      [
        "▁define",
        -8.349527247807606
      ],
      [
        "it",
        -7.260575928949906
      ],
      [
        "▁act",
        -8.184328326643946
      ],
      [
        "▁do",
        -3.6858831645663166
      ],
      [
        "▁love",
        -7.769609219161098
      ],
      [
        "way",
        -8.529593107927441
      ],
      [
        "▁room",
        -6.348326913782922
      ],
      [
        "▁brows",
        -10.640354212315016
      ],
      [
        "flow",
        -10.448959186711233
      ],
      [
        "▁cotton",
        -10.311430222833653
      ],
      [
        "▁mi",
        -6.488952051932996
      ],
      [
        "▁holiday",
        -8.834250061649984
      ],
      [
        "an",
        -6.60307352696869
      ],
      [
        "▁irritate",
        -10.625395056527775
      ],
      [
        "quino",
        -8.773385744816004
      ],
      [
        "▁persist",
        -10.011515116857513
      ],
      [
        "dl",
        -7.48629222181447
      ],
      [
        "▁car",
        -5.9330606637143335
      ],
      [
        "nea",
        -7.945544065619691
      ],
      [
        "▁fat",
        -9.267775342048555
      ],
      [
        "▁carrot",
        -9.213758261629874
      ],
      [
        "▁colleague",
        -8.869964055884736
      ],
      [
        "▁racket",
        -9.581509376659149
      ],
      [
        "▁wh",
        -11.28246861509878
      ],
      [
        "▁recruit",
        -9.633814215439674
      ],
      [
        "▁evil",
        -10.169570604029722
      ],
      [
        "▁stage",
        -10.400845360312383
      ],
      [
        "▁tendenc",
        -10.043565039755261
      ],
      [
        "▁shin",
        -9.889384735954986
      ],
      [
        "ole",
        -10.281403234543092
      ],
      [
        "▁special",
        -10.06592085425807
      ],
      [
        "▁enhanc",
        -10.85834910070067
      ],
      [
        "sed",
        -9.03492534491834
      ],
      [
        "▁money",
        -6.849227266054632
      ],
      [
        "▁ja",
        -7.665119366539596
      ],
      [
        "k",
        -12.810278406305976
      ],
      [
        "▁server",
        -8.766511607554843
      ],
      [
        "▁rate",
        -9.543643414632466
      ],
      [
        "▁shelter",
        -10.175393356959152
      ],
      [
        "▁need",
        -7.807323209568863
      ],
      [
        "▁trot",
        -10.311520276117324
      ],
      [
        "et",
        -7.538849910540658
      ],
      [
        "de",
        -11.783538262690449
      ],
      [
        "▁day",
        -5.4961141046960105
      ],
      [
        "▁shipp",
        -9.449519615975987
      ],
      [
        "▁stir",
        -9.615253065266337
      ],
      [
        "▁develope",
        -9.24935252557629
      ],
      [
        "▁cur",
        -6.97220494149292
      ],
      [
        "day",
        -7.523400618805455
      ],
      [
        "▁fellow",
        -8.985462957017655
      ],
      [
        "▁embass",
        -10.311423030527196
      ],
      [
        "▁inherit",
        -10.175392321062581
      ],
      [
        "▁delic",
        -7.956604256464347
      ],
      [
        "▁sales",
        -8.468221335980761
      ],
      [
        "▁civil",
        -7.471119864049314
      ],
      [
        "at",
        -8.319654424440706
      ],
      [
        "▁personalit",
        -9.268178252832595
      ],
      [
        "▁spawn",
        -9.869151390240038
      ],
      [
        "ibbl",
        -10.901737029058694
      ],
      [
        "▁audio",
        -9.581288851362638
      ],
      [
        "▁blackline",
        -10.625395653823658
      ],
      [
        "▁turn",
        -6.08920135787137
      ],
      [
        "▁pai",
        -7.895712621623877
      ],
      [
        "▁untie",
        -10.533536848777011
      ],
      [
        "▁public",
        -6.428328946192325
      ],
      [
        "▁snow",
        -8.458627805202916
      ],
      [
        "▁realit",
        -8.70365614522089
      ],
      [
        "▁breast",
        -9.163686956920605
      ],
      [
        "▁kitchen",
        -8.132407598659622
      ],
      [
        "▁suck",
        -8.73240815058813
      ],
      [
        "▁groan",
        -10.375972410080676
      ],
      [
        ")",
        -10.47808747583602
      ],
      [
        "ti",
        -10.591217614813804
      ],
      [
        "ordina",
        -7.871416324313955
      ],
      [
        "▁re",
        -7.5452357933588035
      ],
      [
        "▁grocer",
        -10.139649708021647
      ],
      [
        "▁substance",
        -9.322373368480726
      ],
      [
        "▁confi",
        -10.375219821549669
      ],
      [
        "▁present",
        -8.169805048700837
      ],
      [
        "▁preach",
        -10.37663299543736
      ],
      [
        "▁crash",
        -9.80506277058945
      ],
      [
        "co",
        -7.935002140716888
      ],
      [
        "struction",
        -9.54637997427448
      ],
      [
        "▁cow",
        -8.12918535580175
      ],
      [
        "▁north",
        -8.98546511561299
      ],
      [
        "▁police",
        -7.798697232003613
      ],
      [
        "▁forgot",
        -7.758661021247899
      ],
      [
        "▁water",
        -6.4204695883288725
      ],
      [
        "▁mem",
        -7.151990926484831
      ],
      [
        "▁node",
        -10.31191411472076
      ],
      [
        "▁br",
        -7.532766402496921
      ],
      [
        "▁wil",
        -10.327329674474207
      ],
      [
        "s",
        -3.9323488869734184
      ],
      [
        "▁shi",
        -10.039041304799147
      ],
      [
        "▁…",
        -9.511839873390812
      ],
      [
        "▁development",
        -7.574209184252957
      ],
      [
        "aid",
        -9.630977552723204
      ],
      [
        "zer",
        -8.173010513886414
      ],
      [
        "▁cuc",
        -10.476904919396546
      ],
      [
        "▁trailer",
        -10.178357649269438
      ],
      [
        "▁deposit",
        -10.026892857274389
      ],
      [
        "▁iraq",
        -6.530461722568982
      ],
      [
        "▁tip",
        -8.907128063167825
      ],
      [
        "▁win",
        -8.000208710302205
      ],
      [
        "▁vot",
        -10.234130492254568
      ],
      [
        "au",
        -8.086235558981384
      ],
      [
        "▁solid",
        -9.832503138086418
      ],
      [
        "the",
        -10.76682349143477
      ],
      [
        "▁cool",
        -10.015080797584833
      ],
      [
        "▁attend",
        -9.932252416928602
      ],
      [
        "▁bad",
        -7.974493665338207
      ],
      [
        "▁manag",
        -9.33288579656999
      ],
      [
        "▁ci",
        -9.885358328715993
      ],
      [
        "▁tug",
        -9.843642176028455
      ],
      [
        "▁damage",
        -8.614669710349514
      ],
      [
        "▁confirm",
        -10.16561532443104
      ],
      [
        "▁j",
        -10.299932557909178
      ],
      [
        "▁butter",
        -10.375994616189736
      ],
      [
        "off",
        -9.985765931793292
      ],
      [
        "▁he",
        -5.355777969941404
      ],
      [
        "▁ab",
        -10.632331053805617
      ],
      [
        "▁lab",
        -8.947815574425299
      ],
      [
        "▁martyr",
        -10.168573203927544
      ],
      [
        "▁shopp",
        -9.08431180265642
      ],
      [
        "▁mega",
        -10.478109438129735
      ],
      [
        "ssion",
        -10.67220306730987
      ],
      [
        "have",
        -7.697358281809178
      ],
      [
        "▁milita",
        -6.883185739735112
      ],
      [
        "dication",
        -9.786311544574872
      ],
      [
        "▁lesson",
        -8.586864124707883
      ],
      [
        "▁catch",
        -10.171712212850156
      ],
      [
        "▁drug",
        -8.726279282209656
      ],
      [
        "▁propa",
        -9.663845459789218
      ],
      [
        "▁disease",
        -8.834912829291406
      ],
      [
        "imbu",
        -10.377921179753463
      ],
      [
        "▁",
        -0.7082085629404791
      ],
      [
        "ffici",
        -7.440923749614953
      ],
      [
        "▁lifetime",
        -9.588708709730007
      ],
      [
        "us",
        -7.778989704250542
      ],
      [
        "▁currenc",
        -8.872606577401568
      ],
      [
        "▁fore",
        -7.543247836527128
      ],
      [
        "▁desp",
        -10.033352711740962
      ],
      [
        "hin",
        -10.355812176309545
      ],
      [
        "▁'",
        -6.425214222828881
      ],
      [
        "▁manuscript",
        -9.832452607263809
      ],
      [
        "▁bus",
        -7.029018912513156
      ],
      [
        "▁host",
        -8.873476020623873
      ],
      [
        "▁friendship",
        -9.384532456352517
      ],
      [
        "▁napkin",
        -9.443301200456755
      ],
      [
        "▁talks",
        -10.05377393254538
      ],
      [
        "▁hik",
        -9.740819368342196
      ],
      [
        "up",
        -8.61674309158935
      ],
      [
        "houston",
        -6.467223978381896
      ],
      [
        "▁cp",
        -10.24823103657162
      ],
      [
        "enter",
        -10.448906609960481
      ],
      [
        "▁tha",
        -7.359273592220826
      ],
      [
        "▁donkey",
        -8.945462649578014
      ],
      [
        "i",
        -1.9310834849042582
      ],
      [
        "▁belt",
        -9.071581916342634
      ],
      [
        "▁pitt",
        -5.113689389671724
      ],
      [
        "▁official",
        -7.866087547902182
      ],
      [
        "▁imagination",
        -9.509859484957754
      ],
      [
        "▁pant",
        -8.360173283303356
      ],
      [
        "▁ho",
        -7.724711078792276
      ],
      [
        "til",
        -7.784555654766264
      ],
      [
        "rec",
        -7.563249920027834
      ],
      [
        "▁glamo",
        -10.478378978892671
      ],
      [
        "▁me",
        -10.002102740585853
      ],
      [
        "▁elect",
        -8.201859762683116
      ],
      [
        "▁artwork",
        -9.116738628827703
      ],
      [
        "▁remark",
        -9.758327908940744
      ],
      [
        "▁service",
        -6.238057699702934
      ],
      [
        "tter",
        -5.970593096106856
      ],
      [
        "f",
        -6.725442176541105
      ],
      [
        "s",
        -2.358705181573896
      ],
      [
        "d",
        -8.02655417968824
      ],
      [
        "▁chick",
        -10.06294707112952
      ],
      [
        "▁constitution",
        -9.321868286477239
      ],
      [
        "▁amount",
        -7.224863221509553
      ],
      [
        "▁normal",
        -7.658449048554527
      ],
      [
        "▁policy",
        -7.910434335849836
      ],
      [
        "▁represent",
        -7.84192061450014
      ],
      [
        "******",
        -12.400348347525032
      ],
      [
        "▁file",
        -9.438616817551106
      ],
      [
        "▁inside",
        -9.447963448757417
      ],
      [
        "▁wa",
        -9.240034987883696
      ],
      [
        "ive",
        -9.23570791855251
      ],
      [
        "▁bucket",
        -9.164000623366793
      ],
      [
        "▁statute",
        -9.832630637764234
      ],
      [
        "▁extinction",
        -10.311420809354187
      ],
      [
        "▁salon",
        -9.070931807543687
      ],
      [
        "▁jet",
        -10.3223052354361
      ],
      [
        "▁erupt",
        -10.625393422511785
      ],
      [
        "▁disconnect",
        -10.62582991372099
      ],
      [
        "▁je",
        -9.260676277086452
      ],
      [
        "▁sick",
        -10.31997887223781
      ],
      [
        "▁concept",
        -8.140055907335825
      ],
      [
        "▁die",
        -7.499057144464232
      ],
      [
        "▁minimum",
        -9.65831688067269
      ],
      [
        "r",
        -3.522172518100258
      ],
      [
        "ning",
        -9.687942859426633
      ],
      [
        "front",
        -9.80325519509126
      ],
      [
        "▁flash",
        -9.741789642363958
      ],
      [
        "▁eve",
        -10.794610569481222
      ],
      [
        "▁integr",
        -9.389237436494293
      ],
      [
        "▁well",
        -9.849151427434666
      ],
      [
        "▁behavior",
        -8.411422188514766
      ],
      [
        "2",
        -3.9783356324857158
      ],
      [
        "▁import",
        -6.248272192306516
      ],
      [
        "▁opposite",
        -9.941378997809423
      ],
      [
        "▁butter",
        -8.345608358905267
      ],
      [
        "▁relation",
        -9.42822566816844
      ],
      [
        "▁process",
        -9.845681825194033
      ],
      [
        "▁passage",
        -9.51034207510007
      ],
      [
        "ect",
        -7.2808766303213615
      ],
      [
        "▁fift",
        -7.892158422901294
      ],
      [
        "▁legend",
        -9.741740352001576
      ],
      [
        "justice",
        -10.449253037710472
      ],
      [
        "▁devis",
        -10.417779703652418
      ],
      [
        "▁fee",
        -7.293889344751351
      ],
      [
        "▁fun",
        -8.057654127280278
      ],
      [
        "▁peanut",
        -8.643214816130586
      ],
      [
        "▁accept",
        -7.361994743307135
      ],
      [
        "▁flesh",
        -10.627978240501086
      ],
      [
        "▁factor",
        -8.189929229033773
      ],
      [
        "▁expense",
        -9.26631281678947
      ],
      [
        "▁bio",
        -10.16132662632902
      ],
      [
        "▁aris",
        -9.957506700012306
      ],
      [
        "▁executive",
        -10.168563666285158
      ],
      [
        "▁n",
        -6.745757626619826
      ],
      [
        "ter",
        -10.90600459164882
      ],
      [
        "▁an",
        -9.820616148417278
      ],
      [
        "cula",
        -6.981336390567085
      ],
      [
        "▁deserve",
        -9.026390977354469
      ],
      [
        "time",
        -8.173483455380751
      ],
      [
        "▁workshop",
        -10.045044622110344
      ],
      [
        "tell",
        -9.824890703584874
      ],
      [
        "▁create",
        -6.916483019848426
      ],
      [
        "reach",
        -10.181496406513034
      ],
      [
        "▁system",
        -6.9398149609144
      ],
      [
        "ver",
        -9.663487915502344
      ],
      [
        "d",
        -5.393842617965879
      ],
      [
        "▁cheer",
        -9.936456910521928
      ],
      [
        "▁apply",
        -7.699492334367162
      ],
      [
        "▁we",
        -8.206342723049602
      ],
      [
        "▁god",
        -7.15099595577349
      ],
      [
        "ball",
        -10.48814541215298
      ],
      [
        "▁ap",
        -8.127609042448702
      ],
      [
        "▁str",
        -10.283080049208492
      ],
      [
        "▁spin",
        -9.491922129630511
      ],
      [
        "▁hoo",
        -9.584353781544689
      ],
      [
        "▁bell",
        -8.590022486048687
      ],
      [
        "▁obe",
        -10.183250280997688
      ],
      [
        "20",
        -6.596750384748944
      ],
      [
        "like",
        -8.617602280843219
      ],
      [
        "▁becom",
        -9.051990026645438
      ],
      [
        "▁nurse",
        -9.324863712695528
      ],
      [
        "’",
        -11.119861525668208
      ],
      [
        "▁coat",
        -8.876064912658153
      ],
      [
        "▁invoice",
        -9.933254968084041
      ],
      [
        "▁proposal",
        -8.017529911369257
      ],
      [
        "▁anyw",
        -8.205410913995946
      ],
      [
        "▁spill",
        -8.918939825192812
      ],
      [
        "▁photograph",
        -8.407724657426023
      ],
      [
        "▁ignore",
        -8.690690195797188
      ],
      [
        "▁incentive",
        -9.658210131166685
      ],
      [
        "▁mark",
        -8.602526147128756
      ],
      [
        "▁recruit",
        -9.658260560098347
      ],
      [
        "m",
        -6.7697770087744225
      ],
      [
        "▁work",
        -5.663812961351836
      ],
      [
        "▁blame",
        -9.251880993408966
      ],
      [
        "▁whi",
        -8.851405274144836
      ],
      [
        "▁further",
        -10.175394279011858
      ],
      [
        "rice",
        -8.905740230946392
      ],
      [
        "▁slow",
        -7.370680472423794
      ],
      [
        "the",
        -9.636382313932263
      ],
      [
        "▁tourist",
        -8.345985481563359
      ],
      [
        "▁th",
        -5.732750877800902
      ],
      [
        "rd",
        -10.269543147334288
      ],
      [
        "▁un",
        -8.043704201988048
      ],
      [
        "zip",
        -10.382085699359514
      ],
      [
        "▁become",
        -6.846957219988554
      ],
      [
        "own",
        -5.651585842620452
      ],
      [
        "▁enj",
        -8.734207004164254
      ],
      [
        "▁continu",
        -9.162919533482437
      ],
      [
        "▁non",
        -8.674722093820106
      ],
      [
        "▁",
        -1.2052669954522912
      ],
      [
        "worker",
        -10.162252488594282
      ],
      [
        "o",
        -3.511903393270858
      ],
      [
        "▁heat",
        -8.163568203107523
      ],
      [
        "▁return",
        -7.873398513639633
      ],
      [
        "▁explanation",
        -9.027129298081528
      ],
      [
        "▁bedroom",
        -8.64422850433244
      ],
      [
        "▁oz",
        -9.137037997620245
      ],
      [
        "▁spore",
        -9.933658151585346
      ],
      [
        "▁structure",
        -10.030556818710727
      ],
      [
        "▁de",
        -7.219112376193933
      ],
      [
        "▁af",
        -7.921499307680733
      ],
      [
        "▁w",
        -7.847448350576819
      ],
      [
        "w",
        -10.77059528735586
      ],
      [
        "▁craft",
        -9.980202977849949
      ],
      [
        "▁s",
        -8.496574491134888
      ],
      [
        "▁bright",
        -9.932767681080811
      ],
      [
        "▁diversi",
        -9.008337697717035
      ],
      [
        "▁option",
        -7.566828296068894
      ],
      [
        "▁angle",
        -9.664900863863325
      ],
      [
        "a",
        -4.91602068502491
      ],
      [
        "▁preci",
        -8.670177033616888
      ],
      [
        "▁sq",
        -7.710816908113082
      ],
      [
        "▁air",
        -6.710709306119191
      ],
      [
        "den",
        -7.186659619903961
      ],
      [
        "fect",
        -8.121719426551081
      ],
      [
        "▁arena",
        -10.31142155077861
      ],
      [
        "▁urin",
        -10.170709112332403
      ],
      [
        "_",
        -6.861397086100121
      ],
      [
        "ch",
        -8.972212749644818
      ],
      [
        "▁satellite",
        -9.658210131534917
      ],
      [
        "talk",
        -10.479824262373102
      ],
      [
        "▁bow",
        -10.024494802162101
      ],
      [
        "▁sleeve",
        -9.381688578896325
      ],
      [
        "port",
        -6.55451838609997
      ],
      [
        "ish",
        -9.880878086315288
      ],
      [
        "▁action",
        -7.276562651268119
      ],
      [
        "▁restriction",
        -8.76643443619235
      ],
      [
        "▁update",
        -9.307863758981759
      ],
      [
        "▁invent",
        -9.024819165760555
      ],
      [
        "an",
        -6.1992261327886515
      ],
      [
        "▁fac",
        -8.919032331187946
      ],
      [
        "▁ruin",
        -9.15065426852602
      ],
      [
        "▁tosse",
        -10.644474014296277
      ],
      [
        "tten",
        -10.152820242262626
      ],
      [
        "ripp",
        -9.84662978482131
      ],
      [
        "▁adult",
        -8.323474390737916
      ],
      [
        "consider",
        -10.409560436766172
      ],
      [
        "▁resemble",
        -10.110033204562358
      ],
      [
        "▁ah",
        -6.656152075760502
      ],
      [
        "▁restore",
        -10.187625731101289
      ],
      [
        "▁peer",
        -10.482920879412195
      ],
      [
        "▁bat",
        -10.208943555846732
      ],
      [
        "a",
        -6.510816364016302
      ],
      [
        "▁couple",
        -7.461414667047673
      ],
      [
        "???",
        -11.494198687124818
      ],
      [
        "o",
        -4.218861851373661
      ],
      [
        "▁museum",
        -8.945497853215379
      ],
      [
        "▁27",
        -7.027180110542156
      ],
      [
        "▁ear",
        -8.608959492643725
      ],
      [
        "▁climb",
        -10.478446798661686
      ],
      [
        "rap",
        -8.34558805081588
      ],
      [
        "hat",
        -3.789532303880037
      ],
      [
        "▁project",
        -7.2878303884677615
      ],
      [
        "emur",
        -10.160589290341289
      ],
      [
        "▁reflection",
        -9.658300076612434
      ],
      [
        "o",
        -6.877907499943204
      ],
      [
        "▁motorcycle",
        -9.74207944448204
      ],
      [
        "▁wel",
        -5.239750120745514
      ],
      [
        "▁guide",
        -10.114764973786704
      ],
      [
        "▁to",
        -4.828081713777489
      ],
      [
        "▁pitch",
        -10.161647705842817
      ],
      [
        "▁spo",
        -9.650555169275561
      ],
      [
        "▁shak",
        -10.315322505285643
      ],
      [
        "ting",
        -8.98173346743335
      ],
      [
        "▁provok",
        -10.902337150025188
      ],
      [
        "▁pillar",
        -10.178921218949782
      ],
      [
        "▁explore",
        -8.748329199679617
      ],
      [
        "°",
        -9.832452555148787
      ],
      [
        "▁fourt",
        -7.691191378294574
      ],
      [
        "▁twenty",
        -4.856647518973699
      ],
      [
        "▁essen",
        -10.285053785862953
      ],
      [
        "▁download",
        -9.761589825058374
      ],
      [
        "▁flea",
        -10.478223214156458
      ],
      [
        "▁bag",
        -7.377551392854941
      ],
      [
        "ominate",
        -10.358807714120648
      ],
      [
        "▁ap",
        -9.847267070324452
      ],
      [
        "▁put",
        -9.763840839421757
      ],
      [
        "ese",
        -10.064450891872804
      ],
      [
        "▁sun",
        -7.433204145044102
      ],
      [
        "▁domain",
        -8.986130548023178
      ],
      [
        "just",
        -8.055736815112477
      ],
      [
        "▁arm",
        -10.372080532130106
      ],
      [
        "▁thank",
        -6.299459731837786
      ],
      [
        "▁hop",
        -8.4796290412475
      ],
      [
        "▁tea",
        -7.953361561601022
      ],
      [
        "▁witch",
        -8.94574356719767
      ],
      [
        "▁trend",
        -9.266345340291124
      ],
      [
        "▁crop",
        -8.907638766652807
      ],
      [
        "ney",
        -7.546892535134333
      ],
      [
        "▁vice",
        -9.58771189663863
      ],
      [
        "▁flourish",
        -10.0116362904511
      ],
      [
        "▁coin",
        -9.12443808050526
      ],
      [
        "▁sati",
        -9.936428151836573
      ],
      [
        "▁issue",
        -6.999615269412318
      ],
      [
        "▁research",
        -9.634070957828724
      ],
      [
        "▁burger",
        -10.043564040542806
      ],
      [
        "▁as",
        -5.1827083301970625
      ],
      [
        "▁gon",
        -5.350338757148288
      ],
      [
        "▁featur",
        -10.061648558782196
      ],
      [
        "▁cal",
        -10.619753329121082
      ],
      [
        "▁at",
        -5.040331045484084
      ],
      [
        "^",
        -12.810278406305976
      ],
      [
        "▁twi",
        -10.305617047588104
      ],
      [
        "▁habit",
        -9.706853260140193
      ],
      [
        "▁response",
        -7.78380407390446
      ],
      [
        "▁distortion",
        -9.83245264931206
      ],
      [
        "▁out",
        -4.814863351036432
      ],
      [
        "▁ga",
        -9.703023709009663
      ],
      [
        "spear",
        -7.586705536594994
      ],
      [
        "▁collapse",
        -9.496938658474816
      ],
      [
        "▁hope",
        -7.864830532406359
      ],
      [
        "▁convention",
        -9.443579037821992
      ],
      [
        "▁province",
        -9.832452555591455
      ],
      [
        "▁fro",
        -8.847864777376085
      ],
      [
        "▁not",
        -7.200425170962376
      ],
      [
        "▁image",
        -7.7013420655101665
      ],
      [
        "ilar",
        -7.306926894076488
      ],
      [
        "▁deal",
        -7.6621603068830595
      ],
      [
        "▁correction",
        -10.47845195931671
      ],
      [
        "m",
        -9.599321042075394
      ],
      [
        "ary",
        -6.703871217344126
      ],
      [
        "▁lea",
        -9.958561884498923
      ],
      [
        "▁v",
        -10.549009922820545
      ],
      [
        "▁investigation",
        -9.443191824327275
      ],
      [
        "▁red",
        -6.333813204650047
      ],
      [
        "▁retail",
        -9.741658743099881
      ],
      [
        "so",
        -4.878830597655819
      ],
      [
        "ou",
        -11.026065425264347
      ],
      [
        "▁t",
        -13.04700383885649
      ],
      [
        "▁thousand",
        -8.345085550502363
      ],
      [
        "▁de",
        -7.133759330193251
      ],
      [
        "▁apple",
        -8.476774976489743
      ],
      [
        "cam",
        -9.914933689913788
      ],
      [
        "▁giv",
        -7.7686710010646545
      ],
      [
        "▁im",
        -9.894906499032036
      ],
      [
        "▁cabinet",
        -9.581781104127993
      ],
      [
        "w",
        -5.491188161949157
      ],
      [
        "▁dance",
        -9.069633632679107
      ],
      [
        "y",
        -7.14930709824996
      ],
      [
        "▁oct",
        -7.1764947533015455
      ],
      [
        "▁music",
        -7.972009113673491
      ],
      [
        "stocks",
        -10.476555285444363
      ],
      [
        "▁pie",
        -8.549657019654116
      ],
      [
        "▁brood",
        -10.636847841274632
      ],
      [
        "▁brass",
        -9.858999046579305
      ],
      [
        "▁pay",
        -10.103371136813596
      ],
      [
        "▁mus",
        -7.898406140039116
      ],
      [
        "option",
        -9.871558426280306
      ],
      [
        "▁addresse",
        -10.190085052801976
      ],
      [
        "▁troop",
        -8.88261025089947
      ],
      [
        "natur",
        -8.720647510231409
      ],
      [
        "▁b",
        -6.06939314395327
      ],
      [
        "▁lawyer",
        -9.116789359470388
      ],
      [
        "▁miles",
        -8.558676269094883
      ],
      [
        "▁ban",
        -10.428852256605355
      ],
      [
        "hack",
        -10.762165975807862
      ],
      [
        "▁distribut",
        -9.58729289509313
      ],
      [
        "n",
        -5.575385108590868
      ],
      [
        "▁prove",
        -8.168219478103088
      ],
      [
        "▁promise",
        -9.326314229778646
      ],
      [
        "▁twist",
        -9.28344110355502
      ],
      [
        "z",
        -9.606113698618241
      ],
      [
        "▁very",
        -4.371071920638461
      ],
      [
        "▁rug",
        -8.870858554524848
      ],
      [
        "take",
        -10.449393313937941
      ],
      [
        "▁pet",
        -8.290529470470272
      ],
      [
        "▁tactic",
        -9.93245263116778
      ],
      [
        "▁wash",
        -9.562430866275564
      ],
      [
        "▁e-mail",
        -10.625392700940735
      ],
      [
        "▁dilemma",
        -10.043563675822394
      ],
      [
        "▁smith",
        -8.118485197165942
      ],
      [
        "▁hope",
        -6.850381843185085
      ],
      [
        "▁die",
        -8.442731206985323
      ],
      [
        "▁carolin",
        -8.18586582049517
      ],
      [
        "▁dancer",
        -9.84440278851889
      ],
      [
        "▁recipient",
        -9.027129302476204
      ],
      [
        "found",
        -10.741834212598294
      ],
      [
        "..........",
        -12.04219046270542
      ],
      [
        "▁ye",
        -3.803495247716296
      ],
      [
        "▁cheer",
        -10.62581300808273
      ],
      [
        "every",
        -9.010438236282951
      ],
      [
        "......",
        -13.08817150327664
      ],
      [
        "ail",
        -5.888541626445163
      ],
      [
        "▁crude",
        -10.168979826233446
      ],
      [
        "▁electrici",
        -8.870619976574817
      ],
      [
        "er",
        -7.476797335921252
      ],
      [
        "ler",
        -7.9267521491267745
      ],
      [
        "▁laws",
        -9.153349621042818
      ],
      [
        "▁witness",
        -9.833534972258853
      ],
      [
        "oration",
        -10.352117164425074
      ],
      [
        "▁roar",
        -8.86883153585313
      ],
      [
        "▁reg",
        -8.561505855911198
      ],
      [
        "▁stream",
        -10.17670891606647
      ],
      [
        "▁living",
        -8.587309508565035
      ],
      [
        "▁kick",
        -8.610188776671855
      ],
      [
        "ou",
        -5.693854455428379
      ],
      [
        "▁figur",
        -10.8475558747127
      ],
      [
        "▁ch",
        -10.895776834788458
      ],
      [
        "▁folk",
        -8.87055880957285
      ],
      [
        "▁database",
        -8.458505744186802
      ],
      [
        "▁beer",
        -8.677945605712432
      ],
      [
        "▁originate",
        -9.98649700429147
      ],
      [
        "▁cran",
        -10.284948769392962
      ],
      [
        "▁communicate",
        -9.521573590225628
      ],
      [
        "▁starv",
        -10.001618699123265
      ],
      [
        "▁east",
        -9.951012184715315
      ],
      [
        "@",
        -7.670182493857346
      ],
      [
        "▁size",
        -7.987348668473763
      ],
      [
        "▁dress",
        -7.954474158369253
      ],
      [
        "▁slipp",
        -10.346942668688209
      ],
      [
        "▁in",
        -3.238740417683939
      ],
      [
        "▁sett",
        -10.051318922042409
      ],
      [
        "▁technique",
        -8.70292561369053
      ],
      [
        "▁moon",
        -8.346365243200546
      ],
      [
        "▁violation",
        -9.747088522125686
      ],
      [
        "▁safe",
        -7.253644350897147
      ],
      [
        "ever",
        -7.831432693761964
      ],
      [
        "▁hack",
        -10.430233966129034
      ],
      [
        "cus",
        -11.32627823208435
      ],
      [
        "▁steer",
        -10.377419313835233
      ],
      [
        "is",
        -7.450562292556078
      ],
      [
        "▁raid",
        -10.516207023691686
      ],
      [
        "▁bull",
        -9.548255683571162
      ],
      [
        "as",
        -6.594058164000631
      ],
      [
        "▁distribute",
        -8.56609744035245
      ],
      [
        "▁blade",
        -10.478155066573871
      ],
      [
        "▁woman",
        -7.470582795975447
      ],
      [
        "▁alcohol",
        -9.580641248903397
      ],
      [
        "▁promotion",
        -9.93422212188284
      ],
      [
        "▁dinosaur",
        -7.860065911231059
      ],
      [
        "▁train",
        -6.973347792705907
      ],
      [
        "▁phenomen",
        -9.509887503628374
      ],
      [
        "▁rail",
        -9.027036592884569
      ],
      [
        "▁major",
        -10.167813786983906
      ],
      [
        "▁sigh",
        -10.151819997786745
      ],
      [
        "were",
        -7.167827169458954
      ],
      [
        "▁match",
        -8.674039640167207
      ],
      [
        "▁agree",
        -7.253405628739583
      ],
      [
        "▁antiquit",
        -10.478122441557241
      ],
      [
        "▁:",
        -3.3193574782257853
      ],
      [
        "▁combin",
        -9.986583167913757
      ],
      [
        "▁paul",
        -6.298893274257382
      ],
      [
        "▁fulfil",
        -10.925225358278373
      ],
      [
        "▁intervention",
        -9.321982871887034
      ],
      [
        "hi",
        -12.596011167150566
      ],
      [
        "▁bullet",
        -10.1702710180191
      ],
      [
        "▁com",
        -8.832857722999751
      ],
      [
        "▁vlog",
        -10.008831551294957
      ],
      [
        "▁scrub",
        -10.62674829632352
      ],
      [
        "re",
        -6.446717059356223
      ],
      [
        "▁30",
        -5.898121181112609
      ],
      [
        "bit",
        -10.395113566442866
      ],
      [
        "▁d",
        -8.66826635577538
      ],
      [
        "▁st",
        -7.41836189483927
      ],
      [
        "▁office",
        -7.4078300031256905
      ],
      [
        "▁device",
        -9.581378628984087
      ],
      [
        "▁us",
        -7.358446331476809
      ],
      [
        "tic",
        -9.403450833930673
      ],
      [
        "…",
        -9.197828780273426
      ],
      [
        "▁tank",
        -8.127586083884673
      ],
      [
        "▁arro",
        -10.48379927902003
      ],
      [
        "▁here",
        -4.079579998525942
      ],
      [
        "▁713",
        -7.230148690097462
      ],
      [
        "▁hand",
        -8.679727894075862
      ],
      [
        "▁filter",
        -8.242819720730548
      ],
      [
        "▁cub",
        -10.178088082832152
      ],
      [
        "▁reef",
        -10.043679167539183
      ],
      [
        "▁wis",
        -10.212814281994461
      ],
      [
        "▁one",
        -6.966178114737579
      ],
      [
        "▁oak",
        -10.311421415825702
      ],
      [
        "the",
        -3.8465712775810488
      ],
      [
        "▁grocery",
        -10.069814988109352
      ],
      [
        "▁deficit",
        -10.478139663741402
      ],
      [
        "▁sway",
        -9.869892786801692
      ],
      [
        "d",
        -10.889404706649984
      ],
      [
        "▁declare",
        -8.58821911898314
      ],
      [
        "▁frequenc",
        -9.932452681896283
      ],
      [
        "▁photographer",
        -9.67128213877443
      ],
      [
        "▁suppose",
        -7.33864174470321
      ],
      [
        "hes",
        -13.2536395611446
      ],
      [
        "▁sa",
        -7.430530327026167
      ],
      [
        "...",
        -9.194120139503523
      ],
      [
        "▁dangerou",
        -7.459571200643842
      ],
      [
        "▁candle",
        -9.51122299036663
      ],
      [
        "▁farm",
        -8.668726834322579
      ],
      [
        "▁son",
        -7.85973837239382
      ],
      [
        "▁poop",
        -9.933861429641063
      ],
      [
        "▁arrest",
        -9.02482456647259
      ],
      [
        "▁company",
        -7.105910475001366
      ],
      [
        "ve",
        -10.92566035959162
      ],
      [
        "▁bludger",
        -10.16856382070927
      ],
      [
        "▁relat",
        -7.4710557473296095
      ],
      [
        "▁imme",
        -7.436168493080066
      ],
      [
        "▁",
        -2.3835752038720184
      ],
      [
        "▁jame",
        -7.865659626642098
      ],
      [
        "▁ink",
        -10.066560903524092
      ],
      [
        "▁beach",
        -7.958057162960993
      ],
      [
        "▁man",
        -10.605370595596376
      ],
      [
        "il",
        -8.987538704904058
      ],
      [
        "▁setup",
        -9.934394976607848
      ],
      [
        "▁retreat",
        -10.176327441615475
      ],
      [
        "tak",
        -10.428216044294754
      ],
      [
        "ile",
        -9.708903642958688
      ],
      [
        "▁people",
        -5.360554706050555
      ],
      [
        "▁sacrifice",
        -10.043563696924217
      ],
      [
        "▁donation",
        -9.443279745870836
      ],
      [
        "▁wage",
        -10.14960788978259
      ],
      [
        "▁easter",
        -8.082890581363323
      ],
      [
        "▁forget",
        -7.8047061598920475
      ],
      [
        "▁swirl",
        -10.175406740353349
      ],
      [
        "▁restaurant",
        -7.400886071833667
      ],
      [
        "▁gasp",
        -10.378746515845485
      ],
      [
        "▁move",
        -8.744981265391734
      ],
      [
        "▁detr",
        -7.449546577722738
      ],
      [
        "▁augu",
        -7.725175373662181
      ],
      [
        "▁interrupt",
        -9.634030986194858
      ],
      [
        "-",
        -7.3813609241780345
      ],
      [
        "ed",
        -7.667241707785551
      ],
      [
        "▁national",
        -10.22161994619283
      ],
      [
        "▁diffe",
        -5.787677870707446
      ],
      [
        "▁white",
        -6.200269289236962
      ],
      [
        "hem",
        -13.98800345435682
      ],
      [
        "▁displacement",
        -10.478088065840637
      ],
      [
        "▁countryside",
        -10.315552231403695
      ],
      [
        "▁decrease",
        -10.083583195963014
      ],
      [
        "▁biologist",
        -10.314429902656084
      ],
      [
        "vious",
        -7.665292336190957
      ],
      [
        "▁chris",
        -7.724535802396346
      ],
      [
        "▁storm",
        -8.678012312929695
      ],
      [
        "▁admir",
        -10.305262758912646
      ],
      [
        "▁pant",
        -10.695635090295202
      ],
      [
        "▁eight",
        -5.45617522748721
      ],
      [
        "▁thr",
        -4.171737371864407
      ],
      [
        "▁key",
        -7.989087423222255
      ],
      [
        "▁defend",
        -9.145912033232495
      ],
      [
        "l",
        -6.794751193104145
      ],
      [
        "▁mix",
        -8.5503199672976
      ],
      [
        "▁opene",
        -8.74931724052817
      ],
      [
        "g",
        -7.363773323253889
      ],
      [
        "▁leave",
        -5.929274021604734
      ],
      [
        "▁l",
        -7.140823422198627
      ],
      [
        "▁engag",
        -9.627667754802872
      ],
      [
        "???????????????",
        -11.531210826536753
      ],
      [
        "stic",
        -7.534921122713111
      ],
      [
        "▁hi",
        -7.870383075677771
      ],
      [
        "▁premise",
        -10.04356582982004
      ],
      [
        ".p",
        -9.785991924742376
      ],
      [
        "▁19",
        -5.4772626976529235
      ],
      [
        "▁host",
        -9.21702998140385
      ],
      [
        "▁ceremon",
        -9.380727667000725
      ],
      [
        "▁discre",
        -9.889866715559883
      ],
      [
        "▁throw",
        -7.132923699682043
      ],
      [
        "▁flat",
        -9.510339086191456
      ],
      [
        "▁direct",
        -8.924893410825268
      ],
      [
        "▁lime",
        -9.94046785593176
      ],
      [
        "▁launche",
        -9.575119852612355
      ],
      [
        "ill",
        -6.113903373785595
      ],
      [
        "son",
        -6.743524344788223
      ],
      [
        "▁mar",
        -10.893390436884685
      ],
      [
        "▁linguist",
        -9.741565060704097
      ],
      [
        "▁l",
        -7.596338058749842
      ],
      [
        "los",
        -7.9449831393304695
      ],
      [
        "▁compose",
        -9.919159873909146
      ],
      [
        "her",
        -6.563763909055743
      ],
      [
        "▁imagine",
        -7.707056211457395
      ],
      [
        "▁chip",
        -9.266984302386167
      ],
      [
        "▁fair",
        -7.1859296782387645
      ],
      [
        "▁mono",
        -10.08376023885325
      ],
      [
        "▁lie",
        -8.265551593608722
      ],
      [
        "q",
        -9.800444346575167
      ],
      [
        "▁travell",
        -9.466626765177278
      ],
      [
        "▁tell",
        -5.587525770223458
      ],
      [
        "▁song",
        -7.90134858487282
      ],
      [
        "▁grant",
        -9.510985659495148
      ],
      [
        "ushi",
        -9.821008903553398
      ],
      [
        "on",
        -7.624307359401639
      ],
      [
        "tamus",
        -10.043597376167806
      ],
      [
        "▁fireplace",
        -10.043969186340442
      ],
      [
        "▁pets",
        -9.883283541296876
      ],
      [
        "▁stair",
        -8.946089853091692
      ],
      [
        "▁application",
        -7.747447782748036
      ],
      [
        "o",
        -4.793831298333829
      ],
      [
        "▁snake",
        -8.366634401972762
      ],
      [
        "▁dislike",
        -10.478087604011655
      ],
      [
        "some",
        -7.51383462932265
      ],
      [
        "▁facilitate",
        -9.255807223988535
      ],
      [
        "le",
        -7.176542200528467
      ],
      [
        "▁bureaucrac",
        -10.478087475910883
      ],
      [
        "inst",
        -8.782413885317776
      ],
      [
        "▁hard",
        -9.510160289820025
      ],
      [
        "wear",
        -9.50268727033338
      ],
      [
        "pers",
        -10.164047001889516
      ],
      [
        "▁strike",
        -9.657676681140334
      ],
      [
        "▁sustain",
        -9.360408394516764
      ],
      [
        "▁altho",
        -5.5250653344630365
      ],
      [
        "▁migrant",
        -9.741544029328535
      ],
      [
        "▁fore",
        -8.875958785712601
      ],
      [
        "▁passenger",
        -9.163684977299738
      ],
      [
        "▁int",
        -10.265843692874196
      ],
      [
        "f",
        -7.065378831211644
      ],
      [
        "▁l",
        -8.778396597872348
      ],
      [
        "▁hide",
        -8.394334826868617
      ],
      [
        "th",
        -10.632252390293505
      ],
      [
        "f",
        -7.031933244243013
      ],
      [
        "▁water",
        -8.917076026260121
      ],
      [
        "k",
        -8.0487623810021
      ],
      [
        "▁somethin",
        -5.952656046882825
      ],
      [
        "80",
        -9.709582900095205
      ],
      [
        "▁engineer",
        -9.074445447439107
      ],
      [
        "▁silk",
        -10.02158906228241
      ],
      [
        "lapse",
        -10.65405080993284
      ],
      [
        "▁concert",
        -9.832466062967107
      ],
      [
        "▁reache",
        -8.944570140040254
      ],
      [
        "▁**",
        -12.566425383930483
      ],
      [
        "▁acco",
        -7.520476654430368
      ],
      [
        "▁planet",
        -9.3979372174134
      ],
      [
        "▁seri",
        -10.321124942300685
      ],
      [
        "▁medi",
        -9.759319758737579
      ],
      [
        "oodle",
        -9.733990722970542
      ],
      [
        "▁fox",
        -9.510721416966518
      ],
      [
        "▁full",
        -7.93093681457866
      ],
      [
        "▁actual",
        -5.810481059005921
      ],
      [
        "▁out",
        -8.692340457552184
      ],
      [
        "▁indiana",
        -6.683291016335712
      ],
      [
        "▁budd",
        -9.83479341263727
      ],
      [
        "folio",
        -9.747405819280413
      ],
      [
        "p",
        -12.303800120175861
      ],
      [
        "um",
        -7.820486637040139
      ],
      [
        "▁merry",
        -10.311562012135614
      ],
      [
        "▁reason",
        -10.009210640656498
      ],
      [
        "▁sha",
        -13.234491823502221
      ],
      [
        "▁pop",
        -8.33074473435071
      ],
      [
        "ensit",
        -9.668138476392487
      ],
      [
        "position",
        -9.27791253734052
      ],
      [
        "▁unit",
        -7.415342760985423
      ],
      [
        "▁crash",
        -9.65948020652196
      ],
      [
        "▁bombing",
        -9.67806263534846
      ],
      [
        "▁glass",
        -7.596778940768909
      ],
      [
        "▁blue",
        -6.5873585788894955
      ],
      [
        "take",
        -8.759793077145687
      ],
      [
        "▁inequalit",
        -9.834593048663695
      ],
      [
        "▁like",
        -6.445794770201078
      ],
      [
        "own",
        -10.007235938739907
      ],
      [
        "▁momm",
        -9.359677822079155
      ],
      [
        "t",
        -3.4258600649643967
      ],
      [
        "▁take",
        -4.974076290965646
      ],
      [
        "▁self",
        -8.061876020721876
      ],
      [
        "▁companion",
        -9.741544387230658
      ],
      [
        "ns",
        -8.02361305157211
      ],
      [
        "▁line",
        -6.6770462408157485
      ],
      [
        "ping",
        -9.953780143698378
      ],
      [
        "▁consequence",
        -8.869964057305099
      ],
      [
        "▁affliction",
        -10.478099743973928
      ],
      [
        "▁digest",
        -10.625928985642805
      ],
      [
        "▁pu",
        -9.421400638928933
      ],
      [
        "▁assure",
        -9.165045670762654
      ],
      [
        "use",
        -7.908039679543822
      ],
      [
        "oda",
        -9.598543676064127
      ],
      [
        "▁burba",
        -8.115613950414248
      ],
      [
        "▁scatter",
        -9.744561475935429
      ],
      [
        "▁cit",
        -6.592476101966075
      ],
      [
        "eve",
        -8.019325585688978
      ],
      [
        "▁edition",
        -9.27012928550668
      ],
      [
        "▁vision",
        -9.581746079296831
      ],
      [
        "▁re-",
        -8.721355501734267
      ],
      [
        "▁film",
        -9.644025275941754
      ],
      [
        "▁billion",
        -9.94549627622234
      ],
      [
        "▁nas",
        -7.995428706728628
      ],
      [
        "ans",
        -9.158890225761015
      ],
      [
        "equalit",
        -9.936023995758362
      ],
      [
        "▁gate",
        -9.322810100779016
      ],
      [
        "▁haven",
        -10.31150213191052
      ],
      [
        "▁vo",
        -8.73743961872993
      ],
      [
        "▁grinn",
        -10.375513543070928
      ],
      [
        "red",
        -7.0567063380842345
      ],
      [
        "▁fr",
        -10.375037312392115
      ],
      [
        "▁dispatch",
        -10.625392605441588
      ],
      [
        "▁grumble",
        -9.37715068505765
      ],
      [
        "▁study",
        -7.4287601947056805
      ],
      [
        "▁pre",
        -9.48871481673236
      ],
      [
        "▁scramble",
        -10.446661496406358
      ],
      [
        "m",
        -6.75560743591618
      ],
      [
        "▁repl",
        -9.65872061320422
      ],
      [
        "??????",
        -13.834852348222816
      ],
      [
        "▁entre",
        -9.868671359559812
      ],
      [
        "▁friendl",
        -6.990607316596084
      ],
      [
        "ro",
        -6.707930556601703
      ],
      [
        "▁typ",
        -10.187016976403662
      ],
      [
        "with",
        -6.357203910909968
      ],
      [
        "▁over",
        -8.272295625658716
      ],
      [
        "▁repl",
        -9.938027662388718
      ],
      [
        "▁declin",
        -10.481085221215592
      ],
      [
        "▁photograph",
        -10.625392292143463
      ],
      [
        "▁san",
        -10.932787746396986
      ],
      [
        "uck",
        -7.511765706610095
      ],
      [
        "▁chair",
        -7.344083995458193
      ],
      [
        "▁produce",
        -10.041587167376884
      ],
      [
        "size",
        -10.322464044988804
      ],
      [
        "▁ju",
        -7.046426280978536
      ],
      [
        "eve",
        -8.935744439810868
      ],
      [
        "▁,",
        -8.528595320707595
      ],
      [
        "▁addiction",
        -9.070838951611458
      ],
      [
        "▁rag",
        -9.507646288732989
      ],
      [
        "▁argue",
        -8.347926044747924
      ],
      [
        "▁consen",
        -10.468635673292233
      ],
      [
        "▁misse",
        -9.445020434371587
      ],
      [
        "▁newsgroup",
        -10.478087475831313
      ],
      [
        "p",
        -6.261203873790647
      ],
      [
        "▁exhibit",
        -8.76643739439555
      ],
      [
        "▁hub",
        -10.311767299707947
      ],
      [
        "▁slide",
        -9.214512084772013
      ],
      [
        "▁seal",
        -9.65013339640241
      ],
      [
        "▁balance",
        -8.631981310546628
      ],
      [
        "morali",
        -9.048172186870596
      ],
      [
        "z",
        -7.912454580094243
      ],
      [
        "▁lei",
        -10.344054938680742
      ],
      [
        "c",
        -11.810278406305967
      ],
      [
        "▁manager",
        -8.083298486136126
      ],
      [
        "▁link",
        -8.066670525857202
      ],
      [
        "▁spot",
        -8.412956151146375
      ],
      [
        "▁h",
        -8.916932938285054
      ],
      [
        "▁gentlem",
        -9.443197883293191
      ],
      [
        "▁cycle",
        -8.801435737907514
      ],
      [
        "▁monument",
        -10.478104984721632
      ],
      [
        "▁bottle",
        -7.783840008315933
      ],
      [
        "▁30",
        -10.337790973081397
      ],
      [
        "▁boot",
        -8.388737397828894
      ],
      [
        "▁variation",
        -10.17180641548762
      ],
      [
        "▁drown",
        -9.870890040557228
      ],
      [
        "▁scrambl",
        -10.842858263543658
      ],
      [
        "ford",
        -8.026490547434761
      ],
      [
        "▁butterfl",
        -9.741785089965461
      ],
      [
        "▁lo",
        -9.872435665564206
      ],
      [
        "▁strengthen",
        -8.731130213921778
      ],
      [
        "▁sample",
        -8.512179984263629
      ],
      [
        "▁cru",
        -7.9234238892248285
      ],
      [
        "whi",
        -12.327535299766522
      ],
      [
        "ego",
        -7.42484466472511
      ],
      [
        "▁oops",
        -10.478096675441094
      ],
      [
        "▁issue",
        -8.748243023434334
      ],
      [
        "▁blurr",
        -10.63355714758253
      ],
      [
        "▁accu",
        -10.480079441333451
      ],
      [
        "▁wol",
        -8.434804508809464
      ],
      [
        "▁when",
        -4.481408849397259
      ],
      [
        "_",
        -4.628726667259624
      ],
      [
        "tieth",
        -7.971235901375047
      ],
      [
        "▁correlat",
        -10.311441171469403
      ],
      [
        "▁soccer",
        -9.932452558319127
      ],
      [
        "▁delay",
        -10.177329925685466
      ],
      [
        "▁contest",
        -9.932455248278025
      ],
      [
        "ther",
        -8.47414026107005
      ],
      [
        "▁vi",
        -7.775419079759793
      ],
      [
        "ge",
        -10.770099656260387
      ],
      [
        "i",
        -10.976929076213445
      ],
      [
        "rash",
        -9.251421443656648
      ],
      [
        "i",
        -6.6023963422251715
      ],
      [
        "us",
        -7.413537036870654
      ],
      [
        "▁grow",
        -6.92731896607752
      ],
      [
        "▁frog",
        -9.581672629396119
      ],
      [
        "▁pen",
        -7.993685199276275
      ],
      [
        "▁deny",
        -9.146163163487419
      ],
      [
        "▁cost",
        -7.911166214463438
      ],
      [
        "▁miracle",
        -9.832454434981408
      ],
      [
        "▁c",
        -10.38064014631411
      ],
      [
        "driver",
        -9.804116711190055
      ],
      [
        "am",
        -9.348096544946763
      ],
      [
        "easure",
        -8.950023644685064
      ],
      [
        "ow",
        -10.63668798588578
      ],
      [
        "ha",
        -9.035947903990632
      ],
      [
        "▁your",
        -4.441892259932327
      ],
      [
        "▁loom",
        -9.907731769756356
      ],
      [
        "▁recreat",
        -10.70394653736732
      ],
      [
        "▁true",
        -7.013220592988147
      ],
      [
        "▁game",
        -6.622316878463927
      ],
      [
        "▁distinguishe",
        -10.872842718039843
      ],
      [
        "▁snail",
        -10.479364337058927
      ],
      [
        "▁examination",
        -9.834506141507767
      ],
      [
        "▁open",
        -6.446986532387996
      ],
      [
        "shield",
        -10.478093015078253
      ],
      [
        "▁establishe",
        -8.806470403235926
      ],
      [
        "poss",
        -7.811921508220285
      ],
      [
        "▁governor",
        -8.945652937520293
      ],
      [
        "▁breathe",
        -9.516654301960559
      ],
      [
        "▁attempt",
        -8.347490172119276
      ],
      [
        "▁bi",
        -10.199353731952977
      ],
      [
        "▁hell",
        -5.579624852051386
      ],
      [
        "▁cigarette",
        -8.985465769722769
      ],
      [
        "▁de",
        -12.371289160620995
      ],
      [
        "cess",
        -8.12800404947045
      ],
      [
        "▁l2",
        -9.027214197266304
      ],
      [
        ",",
        -12.303800120175861
      ],
      [
        "▁signal",
        -10.051595307348432
      ],
      [
        "▁extra",
        -7.540099437940393
      ],
      [
        "2000",
        -6.951704688285504
      ],
      [
        "▁address",
        -7.874162269279834
      ],
      [
        "▁form",
        -7.229122621167228
      ],
      [
        "▁tee",
        -9.365736800867616
      ],
      [
        "▁posture",
        -10.170262785309287
      ],
      [
        "▁tar",
        -10.485595936565819
      ],
      [
        "▁wish",
        -7.590511462557424
      ],
      [
        "bru",
        -10.441868013413668
      ],
      [
        "▁he",
        -10.616994790772573
      ],
      [
        "▁se",
        -8.137492929324807
      ],
      [
        "▁aero",
        -10.044048415234588
      ],
      [
        "▁difference",
        -7.554805897182178
      ],
      [
        "▁puzzle",
        -9.027165540054115
      ],
      [
        "▁acknowledge",
        -8.931292194758996
      ],
      [
        "▁imbalance",
        -10.478087883550936
      ],
      [
        "▁24",
        -6.130851856374793
      ],
      [
        "in",
        -5.083038796106618
      ],
      [
        "▁store",
        -9.504469540613755
      ],
      [
        "▁version",
        -8.186765236228165
      ],
      [
        "g",
        -6.634938445940061
      ],
      [
        "▁su",
        -10.788157649018785
      ],
      [
        "▁percentile",
        -9.58153912434964
      ],
      [
        "ddy",
        -5.879950562827224
      ],
      [
        "▁capture",
        -9.024939351066113
      ],
      [
        "▁fall",
        -8.348343070069276
      ],
      [
        "▁questionnaire",
        -10.168566563943742
      ],
      [
        "ow",
        -10.59600381348684
      ],
      [
        "▁therap",
        -9.92280910702701
      ],
      [
        "▁herself",
        -8.8392699528665
      ],
      [
        "whom",
        -12.043381109938869
      ],
      [
        "▁big",
        -5.164406598255679
      ],
      [
        "▁doubt",
        -8.869964094868962
      ],
      [
        "▁manifest",
        -10.175392300343594
      ],
      [
        "ral",
        -8.016779290424797
      ],
      [
        "▁trial",
        -8.70364064888658
      ],
      [
        "ship",
        -8.1003433660678
      ],
      [
        "▁convenience",
        -10.04555216926118
      ],
      [
        "▁a",
        -6.7575449706751805
      ],
      [
        "tant",
        -8.52930762960571
      ],
      [
        "their",
        -8.058235903390358
      ],
      [
        "▁framework",
        -9.380809947685547
      ],
      [
        "▁hot",
        -9.934891728178796
      ],
      [
        "ect",
        -8.392790093430735
      ],
      [
        "▁pro",
        -7.211453933737824
      ],
      [
        "▁sussex",
        -10.043565725045854
      ],
      [
        "▁remov",
        -9.423419825005226
      ],
      [
        "▁stoo",
        -7.955751216508731
      ],
      [
        "▁ma",
        -9.960001483257194
      ],
      [
        "me",
        -9.191639290919905
      ],
      [
        "▁overcom",
        -9.453494955362853
      ],
      [
        "▁cruise",
        -8.36649979935896
      ],
      [
        "▁group",
        -6.551206806115292
      ],
      [
        "▁smil",
        -9.50237129738461
      ],
      [
        "▁studie",
        -8.538202096197887
      ],
      [
        "▁excit",
        -7.715559899848859
      ],
      [
        "▁imitate",
        -10.625401619832912
      ],
      [
        "order",
        -10.78633352338949
      ],
      [
        "hen",
        -10.440661133426483
      ],
      [
        "▁release",
        -8.105118794128881
      ],
      [
        "x",
        -6.8356093943361715
      ],
      [
        "▁pric",
        -9.645675780764389
      ],
      [
        "ext",
        -7.384595250247742
      ],
      [
        "tual",
        -7.579520106252326
      ],
      [
        "▁happ",
        -6.402222187584118
      ],
      [
        "▁walnut",
        -10.31142117162906
      ],
      [
        "th",
        -6.309957278833341
      ],
      [
        "▁crack",
        -9.443154426765508
      ],
      [
        "▁o",
        -8.679273466658742
      ],
      [
        "▁198",
        -6.3983027320668455
      ],
      [
        "▁negl",
        -10.069552675287053
      ],
      [
        "▁soldier",
        -8.559834592022623
      ],
      [
        "▁du",
        -7.062173102212168
      ],
      [
        "▁eight",
        -8.005479420499876
      ],
      [
        "▁award",
        -9.323229112969685
      ],
      [
        "▁male",
        -8.770454009161357
      ],
      [
        "▁answer",
        -7.712560922150142
      ],
      [
        "▁abuse",
        -9.670066704243322
      ],
      [
        "▁snitch",
        -9.027129822722571
      ],
      [
        "tel",
        -6.390730603715606
      ],
      [
        "der",
        -8.717765614167256
      ],
      [
        "g",
        -6.332895806031361
      ],
      [
        "▁participant",
        -8.643242187848868
      ],
      [
        "▁retirement",
        -10.478087476832744
      ],
      [
        "lead",
        -10.849130457767261
      ],
      [
        "▁pivot",
        -8.167808600547229
      ],
      [
        "▁max",
        -7.877351992172711
      ],
      [
        "▁hop",
        -9.152285245745427
      ],
      [
        "▁african",
        -9.932452555284357
      ],
      [
        "internet",
        -7.721423258524315
      ],
      [
        "▁thirty",
        -6.236320257616949
      ],
      [
        "▁confuse",
        -9.869219782717705
      ],
      [
        "▁prosecution",
        -10.478142001718494
      ],
      [
        "▁lips",
        -9.719866257334784
      ],
      [
        "▁flaw",
        -10.478534292911437
      ],
      [
        "▁debat",
        -10.713720410635402
      ],
      [
        "▁muscle",
        -8.643249073655777
      ],
      [
        "▁cheek",
        -9.116271362969329
      ],
      [
        "write",
        -10.243468297120735
      ],
      [
        "▁wide",
        -7.446101654657866
      ],
      [
        "ril",
        -10.273143339308954
      ],
      [
        "▁ma",
        -6.304844418931761
      ],
      [
        "▁approval",
        -9.070624288846865
      ],
      [
        "▁christ",
        -7.36976644832508
      ],
      [
        "▁circulation",
        -10.478551477562982
      ],
      [
        "▁arrive",
        -6.562010512051669
      ],
      [
        "▁induce",
        -10.80572455868166
      ],
      [
        "▁terroris",
        -9.692110474991043
      ],
      [
        "▁v",
        -9.037258117128296
      ],
      [
        "▁use",
        -7.600385125792782
      ],
      [
        "▁geometr",
        -9.832452556562618
      ],
      [
        "▁occasion",
        -8.945462645161735
      ],
      [
        "ntl",
        -7.392382711792216
      ],
      [
        "▁coun",
        -8.182471114272303
      ],
      [
        "▁inspire",
        -8.503818338936204
      ],
      [
        "▁hobb",
        -9.658215798356625
      ],
      [
        "▁struggl",
        -9.521311690635905
      ],
      [
        "▁choos",
        -9.792600345038931
      ],
      [
        "7",
        -4.60064973905525
      ],
      [
        "▁wh",
        -8.504649692519411
      ],
      [
        "▁pyjama",
        -10.168627413474013
      ],
      [
        "▁teacher",
        -7.873619862410153
      ],
      [
        "▁dis",
        -7.815554582323649
      ],
      [
        "abilit",
        -8.39627629970846
      ],
      [
        "ors",
        -9.10970472908617
      ],
      [
        "as",
        -11.470631745927642
      ],
      [
        "▁dart",
        -10.392097974342066
      ],
      [
        "▁we",
        -7.785271393941958
      ],
      [
        "▁the",
        -4.368852518839425
      ],
      [
        "▁18",
        -10.47810612584275
      ],
      [
        "▁schema",
        -9.213681416883272
      ],
      [
        "▁wander",
        -8.971707719183435
      ],
      [
        "▁trading",
        -9.213933338225194
      ],
      [
        "▁wheel",
        -8.344733574160065
      ],
      [
        "'",
        -7.020587200860748
      ],
      [
        "sional",
        -8.704326575182758
      ],
      [
        "▁wear",
        -7.030136924463811
      ],
      [
        "▁stung",
        -9.877622477097226
      ],
      [
        "▁gift",
        -8.834250175797372
      ],
      [
        "gravi",
        -10.41451753372031
      ],
      [
        "▁role",
        -7.713394119115296
      ],
      [
        "tub",
        -10.43985570016054
      ],
      [
        "▁attack",
        -8.166821387077388
      ],
      [
        "se",
        -9.772779987905816
      ],
      [
        "polis",
        -6.347576075027921
      ],
      [
        "▁t",
        -6.898672730060253
      ],
      [
        "hen",
        -8.519365525476521
      ],
      [
        "▁side",
        -6.997650488674012
      ],
      [
        "▁rep",
        -9.867386652042782
      ],
      [
        "anger",
        -9.9270300317696
      ],
      [
        "▁sill",
        -7.937500207333644
      ],
      [
        "▁port",
        -9.02812463210362
      ],
      [
        "▁license",
        -7.714373685688653
      ],
      [
        "@",
        -8.595300215537408
      ],
      [
        "▁study",
        -7.7240553395548215
      ],
      [
        "▁facult",
        -9.44319272643382
      ],
      [
        "▁9",
        -5.844827498647503
      ],
      [
        "▁radio",
        -9.168300683045704
      ],
      [
        "en",
        -8.751449335392588
      ],
      [
        "▁story",
        -7.433748548895226
      ],
      [
        "▁intention",
        -9.444195720317976
      ],
      [
        "bye",
        -10.073461457925822
      ],
      [
        "▁picnic",
        -9.932452693334858
      ],
      [
        "▁attache",
        -7.394647312444762
      ],
      [
        "▁force",
        -7.557981985303784
      ],
      [
        "kind",
        -10.142108149495071
      ],
      [
        "play",
        -9.488572692942682
      ],
      [
        "▁news",
        -7.82434630253525
      ],
      [
        "▁under",
        -6.340505141486626
      ],
      [
        "enti",
        -7.448158532075222
      ],
      [
        "ful",
        -10.167951341588209
      ],
      [
        "ies",
        -5.031238300067517
      ],
      [
        "cl",
        -8.406018093479394
      ],
      [
        "reign",
        -9.89945485337232
      ],
      [
        "▁flirt",
        -10.04356388777919
      ],
      [
        "▁frighten",
        -9.371537629658254
      ],
      [
        "▁injur",
        -8.907001186153192
      ],
      [
        "place",
        -10.485953568001074
      ],
      [
        "▁record",
        -7.5373828275716885
      ],
      [
        "u",
        -6.499139571092141
      ],
      [
        "▁thes",
        -5.533559998489873
      ],
      [
        "▁pan",
        -8.412407082814198
      ],
      [
        "▁settlement",
        -8.482894320347894
      ],
      [
        "p",
        -12.707635305583393
      ],
      [
        "▁robe",
        -9.834361434176191
      ],
      [
        "▁poke",
        -10.394302352299231
      ],
      [
        ".com",
        -6.826641828781151
      ],
      [
        "??????????????",
        -12.538317500656397
      ],
      [
        "▁da",
        -9.772392388497229
      ],
      [
        "▁kind",
        -6.261891426841048
      ],
      [
        "▁scholars",
        -9.138665206539113
      ],
      [
        "▁crack",
        -9.930502658329292
      ],
      [
        "▁long",
        -5.9475030239275535
      ],
      [
        "▁combine",
        -8.909592838836332
      ],
      [
        "ate",
        -6.574916599541596
      ],
      [
        "per",
        -9.673279734835035
      ],
      [
        "▁slipper",
        -9.932598562571425
      ],
      [
        "▁rinse",
        -9.443591173236342
      ],
      [
        "▁",
        -1.4632797141835407
      ],
      [
        "▁woo",
        -10.717288508642952
      ],
      [
        "▁treatment",
        -8.224203125336462
      ],
      [
        "▁human",
        -8.482192532011421
      ],
      [
        "▁whe",
        -5.420825829967308
      ],
      [
        "▁lifeboat",
        -10.47969278294324
      ],
      [
        "▁bear",
        -7.360132999224704
      ],
      [
        "tune",
        -10.929424129663762
      ],
      [
        "thi",
        -6.8860194020758145
      ],
      [
        "eeze",
        -9.860992117487132
      ],
      [
        "▁coup",
        -9.406067899645254
      ],
      [
        "▁transport",
        -6.551204268895229
      ],
      [
        "▁my",
        -4.589203075656636
      ],
      [
        "▁will",
        -7.750242860318302
      ],
      [
        "▁support",
        -7.791086554025293
      ],
      [
        "▁vet",
        -8.460127117410035
      ],
      [
        "▁mood",
        -9.741972737502858
      ],
      [
        "▁sweep",
        -9.443273260985471
      ],
      [
        "▁get",
        -7.116919860684064
      ],
      [
        "n",
        -3.9840298251398396
      ],
      [
        "▁co-",
        -10.04111309660749
      ],
      [
        "▁trouble",
        -10.26382174396791
      ],
      [
        "▁compli",
        -10.167324929111334
      ],
      [
        "▁implie",
        -10.237241191681681
      ],
      [
        "soft",
        -8.13557542886307
      ],
      [
        "▁slave",
        -9.323722979969912
      ],
      [
        "▁mall",
        -10.313986456134485
      ],
      [
        "_",
        -4.735940816345124
      ],
      [
        "▁privilege",
        -10.311420809841486
      ],
      [
        "ring",
        -8.252052990872272
      ],
      [
        "▁si",
        -9.685769216740752
      ],
      [
        "people",
        -10.44885955789322
      ],
      [
        "elis",
        -10.48136681684532
      ],
      [
        "▁secretary",
        -9.386189950558073
      ],
      [
        "oose",
        -10.347214178633786
      ],
      [
        "▁blend",
        -9.745200252277224
      ],
      [
        "▁whi",
        -7.838578414173485
      ],
      [
        "▁fun",
        -7.0666474588122075
      ],
      [
        "▁component",
        -8.559834586312872
      ],
      [
        "▁qualif",
        -10.175397551008206
      ],
      [
        "▁supplie",
        -10.008725627222375
      ],
      [
        "▁puree",
        -10.65186179012632
      ],
      [
        "▁scan",
        -10.478473965379566
      ],
      [
        "▁difficult",
        -8.58686161280669
      ],
      [
        "▁professor",
        -9.163681188559885
      ],
      [
        "▁ec",
        -9.68779426660954
      ],
      [
        "▁artist",
        -8.735376271474497
      ],
      [
        "ustration",
        -10.478086452736964
      ],
      [
        "▁scar",
        -9.346191034147209
      ],
      [
        "▁teas",
        -10.466909815684023
      ],
      [
        "▁shark",
        -8.734237118671734
      ],
      [
        "▁tapp",
        -10.63256093317306
      ],
      [
        "ember",
        -8.225164263272159
      ],
      [
        "▁bri",
        -7.255424553734033
      ],
      [
        "▁ambulance",
        -9.741543479186685
      ],
      [
        "▁bumble",
        -10.311415947889712
      ],
      [
        "▁13",
        -6.263667675102136
      ],
      [
        "▁proof",
        -9.58128873305953
      ],
      [
        "ze",
        -8.312436807530913
      ],
      [
        "▁handl",
        -9.298413936634732
      ],
      [
        "▁gul",
        -9.634751169641923
      ],
      [
        "our",
        -9.506348543388656
      ],
      [
        "▁them",
        -5.092080749922367
      ],
      [
        "▁prof",
        -7.238375070861989
      ],
      [
        "▁mr",
        -7.896021837232597
      ],
      [
        "▁cooperate",
        -10.289929180076712
      ],
      [
        "▁couch",
        -9.027210197927108
      ],
      [
        "▁sick",
        -7.475486946130546
      ],
      [
        "▁chain",
        -9.26746505774749
      ],
      [
        "▁age",
        -7.404160730253256
      ],
      [
        "▁de",
        -8.417906198579672
      ],
      [
        ":",
        -5.121007365794226
      ],
      [
        "▁clean",
        -7.614144936595171
      ],
      [
        "▁meal",
        -7.53508169907918
      ],
      [
        "▁combination",
        -9.266320671612789
      ],
      [
        "▁thumb",
        -10.043650345028263
      ],
      [
        "▁result",
        -7.336087268751497
      ],
      [
        "▁total",
        -9.44332033181501
      ],
      [
        "▁thir",
        -6.7330901287301295
      ],
      [
        "▁snow",
        -10.181697362301412
      ],
      [
        "▁dough",
        -10.478437635622662
      ],
      [
        "▁execution",
        -9.380691824212551
      ],
      [
        ".",
        -9.207163296872874
      ],
      [
        "▁patron",
        -9.658555747168112
      ],
      [
        "▁password",
        -9.07061301446638
      ],
      [
        "▁pound",
        -9.659825297907616
      ],
      [
        "▁b",
        -7.648519175846715
      ],
      [
        "-",
        -7.370494258630909
      ],
      [
        "ill",
        -9.91318832139466
      ],
      [
        "▁rot",
        -9.968061565417258
      ],
      [
        "ty",
        -6.352900199569566
      ],
      [
        "▁accuse",
        -9.549325570419432
      ],
      [
        "▁ag",
        -6.715931851231953
      ],
      [
        "un",
        -10.4123632502803
      ],
      [
        "▁attach",
        -8.472043201166423
      ],
      [
        "▁wou",
        -10.722851391669158
      ],
      [
        "▁interv",
        -9.789696287311628
      ],
      [
        "1",
        -9.23224862620524
      ],
      [
        "▁eng",
        -10.25273593114125
      ],
      [
        "▁chat",
        -10.874452233654198
      ],
      [
        "▁fall",
        -8.083480341028192
      ],
      [
        "▁labor",
        -8.761224404792216
      ],
      [
        "▁1000",
        -7.038940544104604
      ],
      [
        "▁may",
        -6.779272039943928
      ],
      [
        "x",
        -11.810278406305976
      ],
      [
        "▁mis",
        -8.939237127720832
      ],
      [
        "▁laptop",
        -9.932541075857486
      ],
      [
        "▁trauma",
        -10.478169929648537
      ],
      [
        "▁erect",
        -10.625758497566927
      ],
      [
        "wel",
        -6.919180219810257
      ],
      [
        "▁iodise",
        -9.633679491367857
      ],
      [
        "▁black",
        -8.874137879298832
      ],
      [
        "▁inter",
        -7.535341276052472
      ],
      [
        "▁inhabitant",
        -9.932452555209595
      ],
      [
        "▁hung",
        -8.973203302111912
      ],
      [
        "▁‘",
        -9.549274777276095
      ],
      [
        "▁addi",
        -7.638614242434944
      ],
      [
        "▁open",
        -10.162086317739519
      ],
      [
        "▁continu",
        -10.311424078597842
      ],
      [
        "▁highe",
        -7.676130664473138
      ],
      [
        "▁refiner",
        -10.045979931265448
      ],
      [
        "▁tide",
        -10.04794766281312
      ],
      [
        "ex",
        -7.917704102461412
      ],
      [
        "n",
        -2.772310985610549
      ],
      [
        "thing",
        -9.637428031156196
      ],
      [
        "▁potential",
        -9.070608812100978
      ],
      [
        "▁tomato",
        -9.116074948136232
      ],
      [
        "▁dc",
        -6.365641411491042
      ],
      [
        "▁was",
        -3.43571718377914
      ],
      [
        "\"",
        -10.311420809169354
      ],
      [
        "▁betray",
        -10.625406250415974
      ],
      [
        "will",
        -7.214694535384876
      ],
      [
        "▁dis",
        -8.158128006785697
      ],
      [
        "▁search",
        -8.706829101337929
      ],
      [
        "us",
        -9.889961405511787
      ],
      [
        "▁hers",
        -11.553708895953593
      ],
      [
        "find",
        -10.480563060966622
      ],
      [
        "▁fax",
        -8.367731496243298
      ],
      [
        "id",
        -9.150834025689743
      ],
      [
        "▁yours",
        -8.946628168237133
      ],
      [
        "▁common",
        -6.83188665264987
      ],
      [
        "▁fri",
        -10.080089720829372
      ],
      [
        "▁measurement",
        -10.491193569796549
      ],
      [
        "▁charge",
        -8.439795741126993
      ],
      [
        "▁execute",
        -8.568324959413838
      ],
      [
        "▁soul",
        -9.581340066709412
      ],
      [
        "▁",
        -2.7487932397236445
      ],
      [
        "ry",
        -5.935161893856904
      ],
      [
        "du",
        -9.905751175123552
      ],
      [
        "▁river",
        -8.090330104877932
      ],
      [
        "▁acc",
        -8.65599519659119
      ],
      [
        "▁to",
        -4.677054644818611
      ],
      [
        "▁universit",
        -6.830723950781339
      ],
      [
        "lie",
        -10.919322018784746
      ],
      [
        "▁decid",
        -9.515190966093696
      ],
      [
        "▁push",
        -7.134800138392693
      ],
      [
        "▁posting",
        -10.37065834027445
      ],
      [
        "▁cane",
        -10.236130633693405
      ],
      [
        "▁central",
        -7.4373745921425565
      ],
      [
        "▁contribute",
        -8.721181520426635
      ],
      [
        "▁some",
        -6.593686694992894
      ],
      [
        "▁hav",
        -6.718104064181433
      ],
      [
        "▁y",
        -7.196631002114044
      ],
      [
        "▁tin",
        -10.311558949266844
      ],
      [
        "appoint",
        -9.820632183439093
      ],
      [
        "▁nutri",
        -10.185098990768767
      ],
      [
        "▁race",
        -10.098467062379358
      ],
      [
        "▁fli",
        -8.794802858492993
      ],
      [
        "▁glo",
        -6.858729859080638
      ],
      [
        "▁compell",
        -10.206612722808206
      ],
      [
        "▁save",
        -7.460705679004733
      ],
      [
        "▁http://www.",
        -6.947532056671934
      ],
      [
        "▁revolve",
        -10.375847210616396
      ],
      [
        "an",
        -5.83024036355754
      ],
      [
        "▁meter",
        -9.282452525213323
      ],
      [
        "▁scor",
        -10.321892684714753
      ],
      [
        "▁inhabit",
        -10.625392670092056
      ],
      [
        "▁prospect",
        -9.582539537829536
      ],
      [
        "’",
        -8.311179329526977
      ],
      [
        "try",
        -10.806614037023778
      ],
      [
        "▁impos",
        -10.386393876069558
      ],
      [
        "▁woul",
        -4.259042174156751
      ],
      [
        "▁gen",
        -8.45962649845638
      ],
      [
        "oft",
        -8.189491322782379
      ],
      [
        "h",
        -10.741453583244953
      ],
      [
        "▁confine",
        -10.01031553379752
      ],
      [
        "▁ba",
        -9.265962170939932
      ],
      [
        "▁drive",
        -7.535443308692442
      ],
      [
        "nt",
        -6.784027279257939
      ],
      [
        "15",
        -7.223810882306033
      ],
      [
        "▁ka",
        -8.12182212431856
      ],
      [
        "▁argument",
        -8.344733563153426
      ],
      [
        "▁pinkie",
        -10.381136391048475
      ],
      [
        "▁loose",
        -9.91719019069716
      ],
      [
        "▁starve",
        -10.671814694506962
      ],
      [
        "▁administer",
        -9.869445995718653
      ],
      [
        "▁school",
        -6.2720497289037445
      ],
      [
        "▁haircut",
        -9.581289596362732
      ],
      [
        "▁may",
        -8.43527097577199
      ],
      [
        "▁philosopher",
        -9.747579314689496
      ],
      [
        "▁sidewalk",
        -10.311510543660399
      ],
      [
        "▁contractor",
        -10.182672357837623
      ],
      [
        "▁w",
        -6.776476851865281
      ],
      [
        "▁zero",
        -9.658366870343272
      ],
      [
        "ditio",
        -8.621133447474186
      ],
      [
        "be",
        -6.697446996375136
      ],
      [
        "▁right",
        -5.1005143013985395
      ],
      [
        "jama",
        -9.832594929102502
      ],
      [
        "▁meaning",
        -8.400218153223122
      ],
      [
        "---=",
        -11.805652056917825
      ],
      [
        "view",
        -9.802889951959092
      ],
      [
        "▁assist",
        -8.6107164910709
      ],
      [
        "▁rush",
        -9.239331250726643
      ],
      [
        "igh",
        -5.036196688107231
      ],
      [
        "▁cru",
        -10.12290408374924
      ],
      [
        "▁organisation",
        -9.743140507542506
      ],
      [
        "▁confirm",
        -8.120681179643658
      ],
      [
        "▁thought",
        -6.440770853893309
      ],
      [
        "▁200",
        -4.117685212654387
      ],
      [
        "▁yield",
        -9.868829274536594
      ],
      [
        "mend",
        -10.733043506709068
      ],
      [
        "ame",
        -7.426956483309218
      ],
      [
        "▁parti",
        -6.861010162495646
      ],
      [
        "▁be",
        -8.62999915460435
      ],
      [
        "▁preserve",
        -8.929681157232357
      ],
      [
        "gerate",
        -10.630341867991998
      ],
      [
        "▁circle",
        -8.186126248434904
      ],
      [
        "▁effort",
        -7.584043291601842
      ],
      [
        "▁vary",
        -9.359706773186014
      ],
      [
        "▁resolution",
        -9.2663408302195
      ],
      [
        "init",
        -10.056374199785903
      ],
      [
        "▁stri",
        -10.475735365547074
      ],
      [
        "w",
        -9.481007900587642
      ],
      [
        "▁uncover",
        -10.011779050975925
      ],
      [
        "▁good",
        -8.017658864517365
      ],
      [
        "▁mention",
        -7.452521818109262
      ],
      [
        "▁pair",
        -8.643719165176428
      ],
      [
        "▁depth",
        -9.741571441746204
      ],
      [
        "▁santa",
        -7.828247684451885
      ],
      [
        "▁horizon",
        -10.3114232865109
      ],
      [
        "▁import",
        -9.36022865385811
      ],
      [
        "▁balle",
        -10.093251058642034
      ],
      [
        "▁hair",
        -6.924100644744937
      ],
      [
        "▁chine",
        -7.694773257057641
      ],
      [
        "▁proceeding",
        -10.04683587419129
      ],
      [
        "▁swallow",
        -9.360870468050315
      ],
      [
        "▁church",
        -7.970711372483725
      ],
      [
        "▁detect",
        -9.868983059034266
      ],
      [
        "▁preference",
        -9.74160851350668
      ],
      [
        "▁summar",
        -9.444373925956139
      ],
      [
        "fect",
        -10.172550138150612
      ],
      [
        "▁clari",
        -10.176021471547495
      ],
      [
        "▁l",
        -8.926943481680606
      ],
      [
        "▁hel",
        -7.245677028959271
      ],
      [
        "▁fire",
        -9.940502150780308
      ],
      [
        "▁banana",
        -7.833921770675492
      ],
      [
        "ve",
        -8.003873727964752
      ],
      [
        "▁8",
        -5.378483124250874
      ],
      [
        "▁dropp",
        -8.034717269481467
      ],
      [
        "▁noon",
        -7.352017504151937
      ],
      [
        "▁supermarket",
        -9.443191817184985
      ],
      [
        "▁into",
        -10.290003604354238
      ],
      [
        "▁taste",
        -8.03348461793793
      ],
      [
        "▁surprise",
        -8.428916050822538
      ],
      [
        "mean",
        -10.691352949278098
      ],
      [
        "▁graduate",
        -9.446778138083845
      ],
      [
        "▁follow",
        -9.923551782139565
      ],
      [
        "▁spen",
        -7.682695389956869
      ],
      [
        "▁skull",
        -10.47808748123636
      ],
      [
        "lish",
        -7.486043090698206
      ],
      [
        "▁the",
        -6.346201117748008
      ],
      [
        "▁searche",
        -10.83581030148908
      ],
      [
        "▁secret",
        -9.263603085467608
      ],
      [
        "ger",
        -9.612068100403569
      ],
      [
        "▁guard",
        -10.186341535648904
      ],
      [
        "▁label",
        -10.355302092054442
      ],
      [
        "▁mash",
        -10.426853426740696
      ],
      [
        "ri",
        -7.652799231426132
      ],
      [
        "▁crosse",
        -9.570410585567108
      ],
      [
        "board",
        -8.405918832407734
      ],
      [
        "▁prayer",
        -9.74279293205722
      ],
      [
        "▁thu",
        -7.14223778953757
      ],
      [
        "▁as",
        -3.75801648861614
      ],
      [
        "lla",
        -8.058951747127011
      ],
      [
        "▁snapp",
        -10.38397597213953
      ],
      [
        "▁pair",
        -10.36062250477091
      ],
      [
        "▁lamp",
        -9.83446941057554
      ],
      [
        "▁sav",
        -8.80767445096748
      ],
      [
        "u",
        -6.695873815508354
      ],
      [
        "▁monkey",
        -8.61472652705576
      ],
      [
        "▁yoursel",
        -11.298076311955574
      ],
      [
        "▁asyl",
        -9.443433050952798
      ],
      [
        "▁graduat",
        -10.44486437396971
      ],
      [
        "▁phone",
        -10.678461662260656
      ],
      [
        "▁stretch",
        -8.470534988847277
      ],
      [
        "ver",
        -10.035555650788583
      ],
      [
        "▁poison",
        -10.16856380568569
      ],
      [
        "▁&",
        -7.590436870188816
      ],
      [
        "▁few",
        -5.7598031210673275
      ],
      [
        "▁cia",
        -8.198506413697595
      ],
      [
        "▁bath",
        -8.303532035429582
      ],
      [
        "o",
        -6.147997236814882
      ],
      [
        "▁end",
        -7.739997475527317
      ],
      [
        "▁chew",
        -9.28732838811906
      ],
      [
        "▁mic",
        -10.1472245002664
      ],
      [
        "▁occupie",
        -10.015946637038471
      ],
      [
        "▁surger",
        -9.031069330271883
      ],
      [
        "$",
        -2.9390045157878664
      ],
      [
        "▁prompt",
        -9.633647593099667
      ],
      [
        "▁council",
        -8.411420583481057
      ],
      [
        "....",
        -10.519573882973248
      ],
      [
        "▁outcome",
        -9.116068155599613
      ],
      [
        "under",
        -9.182318398461064
      ],
      [
        "▁reform",
        -9.266312742308433
      ],
      [
        "▁harmoni",
        -9.46735727679679
      ],
      [
        "▁object",
        -8.096048912572734
      ],
      [
        "▁mosquito",
        -8.985462637806355
      ],
      [
        "ry",
        -7.523030787789639
      ],
      [
        "▁ya",
        -10.057489520944593
      ],
      [
        "don",
        -10.84529255792158
      ],
      [
        "▁legislature",
        -9.658827205395198
      ],
      [
        "▁pancake",
        -9.443247035101018
      ],
      [
        "▁beak",
        -10.176123964362276
      ],
      [
        "immer",
        -10.191896286391911
      ],
      [
        "ean",
        -6.912683510075581
      ],
      [
        "▁pee",
        -9.708701147288654
      ],
      [
        "▁wishe",
        -10.189281587511434
      ],
      [
        "call",
        -9.530055495173215
      ],
      [
        "ar",
        -7.490341792618619
      ],
      [
        "▁band",
        -7.8768139205400205
      ],
      [
        "u",
        -6.759958710825652
      ],
      [
        "idence",
        -8.04967354055037
      ],
      [
        "▁realiz",
        -9.581739309166915
      ],
      [
        "▁investigate",
        -9.19726521086874
      ],
      [
        "▁autofilter",
        -10.478087475862782
      ],
      [
        "▁d",
        -9.912457131010228
      ],
      [
        "▁fl",
        -9.123103646870387
      ],
      [
        "▁exist",
        -7.503767107828424
      ],
      [
        "▁plant",
        -8.843420525445511
      ],
      [
        "▁commemorate",
        -10.625392293112027
      ],
      [
        "▁catch",
        -7.591525767138456
      ],
      [
        "▁insurgen",
        -10.462637252522907
      ],
      [
        "▁pu",
        -8.024501646245906
      ],
      [
        "▁19",
        -8.869082596647845
      ],
      [
        "▁federa",
        -10.332670709717277
      ],
      [
        "am",
        -10.163570533105496
      ],
      [
        "▁futur",
        -7.5775376312960425
      ],
      [
        "ation",
        -7.644780144348216
      ],
      [
        "f",
        -11.770631529841472
      ],
      [
        "p",
        -6.298850307926004
      ],
      [
        "▁mirror",
        -9.16368115391498
      ],
      [
        "▁conversation",
        -8.150007798550908
      ],
      [
        "▁reproduce",
        -9.569795676745812
      ],
      [
        "▁fort",
        -10.314988974047635
      ],
      [
        "▁jungle",
        -9.832663204563305
      ],
      [
        "ou",
        -10.954094405007352
      ],
      [
        "▁range",
        -8.557594847570074
      ],
      [
        "▁preparation",
        -9.510744207159851
      ],
      [
        "▁transmit",
        -9.360635752733137
      ],
      [
        "▁design",
        -8.26674546974375
      ],
      [
        "▁border",
        -8.533574103399857
      ],
      [
        "▁volley",
        -9.658227605325472
      ],
      [
        "▁de",
        -5.409566925574605
      ],
      [
        "▁burst",
        -9.360641045467792
      ],
      [
        "▁clo",
        -10.295927559147533
      ],
      [
        "▁quiet",
        -7.850034831659617
      ],
      [
        "que",
        -7.66350698841917
      ],
      [
        "▁proponent",
        -10.478087491319082
      ],
      [
        "o",
        -3.6856562933200667
      ],
      [
        "▁old",
        -10.045073492676194
      ],
      [
        "▁representative",
        -9.027129298129587
      ],
      [
        "▁committ",
        -9.169860122076315
      ],
      [
        "▁may",
        -5.707054092143263
      ],
      [
        "▁reference",
        -8.458550413807325
      ],
      [
        "▁yea",
        -3.1381024377751405
      ],
      [
        "▁awe",
        -7.865995048863473
      ],
      [
        "▁tho",
        -7.397496751881506
      ],
      [
        "▁in",
        -6.084031962839865
      ],
      [
        "▁regret",
        -10.4784258319985
      ],
      [
        "▁hole",
        -7.90442746601085
      ],
      [
        "line",
        -10.53283153023056
      ],
      [
        "▁connect",
        -7.758087071008227
      ],
      [
        "once",
        -6.213434230210199
      ],
      [
        "▁mh",
        -7.060644527996921
      ],
      [
        "▁fifty",
        -6.704799539162922
      ],
      [
        "o",
        -7.324375830066715
      ],
      [
        "▁announc",
        -9.965328572264347
      ],
      [
        "▁chas",
        -9.420418471900824
      ],
      [
        "nife",
        -9.968633044333236
      ],
      [
        "oit",
        -7.519334603687979
      ],
      [
        "▁request",
        -8.139182503322722
      ],
      [
        "ark",
        -6.704365819447248
      ],
      [
        "f",
        -8.905782894141495
      ],
      [
        "▁ser",
        -9.191056608469014
      ],
      [
        "▁crew",
        -9.213698959530468
      ],
      [
        "▁congress",
        -9.932486090523886
      ],
      [
        "▁emerg",
        -8.615334838944051
      ],
      [
        "▁mo",
        -7.521077073156516
      ],
      [
        "▁group",
        -9.455178163551826
      ],
      [
        "ea",
        -5.383019325135234
      ],
      [
        "▁apr",
        -7.877193718819188
      ],
      [
        "▁interest",
        -7.265897409932136
      ],
      [
        "▁sell",
        -7.902661868973678
      ],
      [
        "▁turbine",
        -10.311436950952247
      ],
      [
        "▁dealership",
        -10.16922777972238
      ],
      [
        "▁16",
        -5.674082561475753
      ],
      [
        "▁herb",
        -10.311891627915845
      ],
      [
        "ha",
        -6.934556625686796
      ],
      [
        "▁administration",
        -8.243004971578467
      ],
      [
        "ibl",
        -7.063379830970228
      ],
      [
        "▁los",
        -7.057733230058732
      ],
      [
        "!!!!!!!!!!!!!!!!",
        -11.398152869348259
      ],
      [
        "nel",
        -10.24856504160751
      ],
      [
        "t",
        -10.200270897839118
      ],
      [
        "▁damage",
        -10.01846366361378
      ],
      [
        "▁refin",
        -10.629002319716383
      ],
      [
        "l",
        -4.932719265569361
      ],
      [
        "▁arr",
        -10.519175412347684
      ],
      [
        "▁---",
        -13.632274009623938
      ],
      [
        "all",
        -9.743397621993072
      ],
      [
        "▁clue",
        -10.311430031315185
      ],
      [
        "▁diplomat",
        -10.172144159024244
      ],
      [
        "▁barbe",
        -10.287511451416286
      ],
      [
        "pe",
        -10.887219134304972
      ],
      [
        "vast",
        -7.990380720071707
      ],
      [
        "▁wake",
        -9.582720807250949
      ],
      [
        "***********",
        -13.214685143023583
      ],
      [
        "▁block",
        -10.009711536990975
      ],
      [
        "▁inspect",
        -10.0433158813013
      ],
      [
        "▁lemon",
        -9.321876442471432
      ],
      [
        "▁so",
        -5.253845430228908
      ],
      [
        "ter",
        -8.43024249196058
      ],
      [
        "▁calculation",
        -9.748487955400993
      ],
      [
        "▁challenge",
        -8.434678002469287
      ],
      [
        "▁pub",
        -9.831197356994187
      ],
      [
        "▁!!!!!!",
        -11.169643353147766
      ],
      [
        "me",
        -6.477495628531309
      ],
      [
        "▁fifth",
        -10.311462552055064
      ],
      [
        "▁per",
        -7.430482432399975
      ],
      [
        "▁environment",
        -7.621629614681291
      ],
      [
        "tch",
        -9.642814818948555
      ],
      [
        "▁girlfriend",
        -9.213681151983868
      ],
      [
        "▁fred",
        -7.8904347155719
      ],
      [
        "▁sense",
        -7.750445178819784
      ],
      [
        "▁tail",
        -8.243658856647176
      ],
      [
        "bilit",
        -9.898765232465216
      ],
      [
        "▁slamm",
        -10.009632995353966
      ],
      [
        "▁ensure",
        -7.629783506026659
      ],
      [
        "▁search",
        -8.734181033605674
      ],
      [
        "▁31",
        -6.916304381332294
      ],
      [
        "▁inter",
        -9.644798076540013
      ],
      [
        "▁contrast",
        -9.832840227342045
      ],
      [
        "4",
        -11.925660239071421
      ],
      [
        "▁ke",
        -10.90274096604903
      ],
      [
        "▁turtle",
        -9.443198909095313
      ],
      [
        "▁theor",
        -7.771401675521966
      ],
      [
        "▁tree",
        -7.647058368700216
      ],
      [
        "▁fork",
        -8.800100567789393
      ],
      [
        "▁sci",
        -9.02717255070333
      ],
      [
        "▁slow",
        -8.013294368004054
      ],
      [
        "▁rib",
        -10.240881038840335
      ],
      [
        "▁popul",
        -7.521468241169353
      ],
      [
        "▁transform",
        -8.774449849456001
      ],
      [
        "▁lead",
        -8.916592703493912
      ],
      [
        "▁dream",
        -8.880148528208505
      ],
      [
        "▁merc",
        -9.657655232278682
      ],
      [
        "▁recognize",
        -8.349560514077385
      ],
      [
        "▁reviewer",
        -10.381986077776578
      ],
      [
        "▁dragon",
        -8.672661210948856
      ],
      [
        "▁sophie",
        -7.655266909516397
      ],
      [
        "ando",
        -7.666706014460984
      ],
      [
        "▁kill",
        -7.261076649944989
      ],
      [
        "en",
        -6.148540717910841
      ],
      [
        "-of-",
        -10.478127098251766
      ],
      [
        "▁dignitar",
        -10.481343213429334
      ],
      [
        "▁conven",
        -7.885878787922632
      ],
      [
        "▁modif",
        -9.646394137373857
      ],
      [
        "▁sail",
        -10.059779411460987
      ],
      [
        "▁zoo",
        -8.943335343706313
      ],
      [
        "▁culture",
        -7.7127541932162895
      ],
      [
        "▁shake",
        -8.986524122660615
      ],
      [
        "▁lifestyle",
        -10.04357506465448
      ],
      [
        "▁credit",
        -7.970849002082531
      ],
      [
        "▁econom",
        -7.335703225022494
      ],
      [
        "▁shape",
        -8.559841931066671
      ],
      [
        "▁approache",
        -9.709797117148533
      ],
      [
        "▁conc",
        -9.91060146893159
      ],
      [
        "urt",
        -9.548632580859042
      ],
      [
        "▁wed",
        -8.587793194012125
      ],
      [
        "▁democra",
        -8.204517512304484
      ],
      [
        "▁kim",
        -8.11252277798879
      ],
      [
        "ther",
        -6.293876075097796
      ],
      [
        "▁standard",
        -7.821104384456373
      ],
      [
        "▁28",
        -6.9538572842738215
      ],
      [
        "▁hat",
        -7.6682878549409885
      ],
      [
        "e",
        -2.385192269340089
      ],
      [
        "▁onion",
        -9.5827381725271
      ],
      [
        "▁dsl",
        -10.479692607224008
      ],
      [
        "▁sixt",
        -7.576990953156584
      ],
      [
        "▁session",
        -8.735426023231296
      ],
      [
        "w",
        -10.416994930697198
      ],
      [
        "▁section",
        -7.943632582100809
      ],
      [
        "▁reli",
        -9.559505983540118
      ],
      [
        "o",
        -2.9644061227609466
      ],
      [
        "▁smell",
        -9.02713459295668
      ],
      [
        "▁bill",
        -7.873931900599553
      ],
      [
        "▁drain",
        -10.400311397150432
      ],
      [
        "▁indi",
        -7.465164143036595
      ],
      [
        "▁sai",
        -5.08691055481988
      ],
      [
        "▁rent",
        -8.812025043454252
      ],
      [
        "▁ta",
        -7.87035940525164
      ],
      [
        "▁ne",
        -8.796498959570256
      ],
      [
        "ent",
        -6.026292739638931
      ],
      [
        "duction",
        -9.955830203958485
      ],
      [
        "▁worm",
        -8.778651203284511
      ],
      [
        "▁until",
        -5.5638749337406646
      ],
      [
        "▁mumm",
        -8.263391583249586
      ],
      [
        "ce",
        -7.959106722472015
      ],
      [
        "▁seal",
        -9.795116074734663
      ],
      [
        "▁aim",
        -8.734736249555842
      ],
      [
        "▁complaint",
        -9.16377508377708
      ],
      [
        "▁join",
        -7.607559899605136
      ],
      [
        "▁pencil",
        -7.957362655688842
      ],
      [
        "▁freez",
        -9.373485835187363
      ],
      [
        "w",
        -6.333928096726785
      ],
      [
        "nut",
        -10.288200556941751
      ],
      [
        "i",
        -5.226793519697355
      ],
      [
        "▁evolve",
        -9.219395974338203
      ],
      [
        "▁future",
        -7.735724419636411
      ],
      [
        "▁mount",
        -9.769367600247483
      ],
      [
        "house",
        -9.17373789675909
      ],
      [
        "paren",
        -10.30847398351828
      ],
      [
        "▁afghan",
        -7.654135857073388
      ],
      [
        "▁distraction",
        -10.311674564771128
      ],
      [
        "▁pilgrim",
        -9.931784944451753
      ],
      [
        "▁mov",
        -7.166072223475298
      ],
      [
        "▁mass",
        -8.637428662886489
      ],
      [
        "▁grasp",
        -9.74422081448763
      ],
      [
        "▁tali",
        -7.99954522766248
      ],
      [
        "▁bound",
        -9.29915380952337
      ],
      [
        "▁mumble",
        -10.815691446803775
      ],
      [
        "ella",
        -10.043137959892569
      ],
      [
        "..",
        -11.6166454357157
      ],
      [
        "▁updat",
        -10.536455177965198
      ],
      [
        "▁bone",
        -8.306542484947698
      ],
      [
        "▁fift",
        -6.809914963440578
      ],
      [
        "▁bigge",
        -7.078989222751551
      ],
      [
        "▁s",
        -7.322693861522412
      ],
      [
        "up",
        -8.197078957846688
      ],
      [
        "▁scar",
        -7.32148577914158
      ],
      [
        "um",
        -6.370038527405928
      ],
      [
        "▁shal",
        -7.0325008928194634
      ],
      [
        "▁gender",
        -8.799865249404151
      ],
      [
        "▁tru",
        -8.165888052248134
      ],
      [
        "▁non",
        -9.736001375380885
      ],
      [
        "rou",
        -13.078869863422529
      ],
      [
        "▁sure",
        -7.88818404366309
      ],
      [
        "▁grab",
        -8.865392312630064
      ],
      [
        "where",
        -9.151435274764282
      ],
      [
        "▁fulfill",
        -9.642500085794326
      ],
      [
        "▁separat",
        -10.065088249422699
      ],
      [
        "▁defen",
        -8.693305300581061
      ],
      [
        "▁m",
        -7.860570558349283
      ],
      [
        "▁batter",
        -8.907787144003969
      ],
      [
        "▁scream",
        -9.212301766933104
      ],
      [
        "▁facilitat",
        -10.740991877085413
      ],
      [
        "▁degree",
        -8.458500456789384
      ],
      [
        "▁endure",
        -10.262424684064626
      ],
      [
        "▁admitt",
        -9.049564673083047
      ],
      [
        "ch",
        -6.898701418822459
      ],
      [
        "▁burrow",
        -10.37549242892569
      ],
      [
        "▁pass",
        -7.307761619104325
      ],
      [
        "ar",
        -9.38103595699485
      ],
      [
        "▁gold",
        -9.072506341394234
      ],
      [
        "▁lay",
        -8.993712181744897
      ],
      [
        "dden",
        -9.234145617308972
      ],
      [
        "▁northwest",
        -7.949741795771725
      ],
      [
        "ton",
        -6.145707367483075
      ],
      [
        "gan",
        -8.131540927195683
      ],
      [
        "name",
        -10.014082813206283
      ],
      [
        "anda",
        -9.494988259922325
      ],
      [
        "▁envelope",
        -10.04356533501362
      ],
      [
        "k",
        -6.263707711466566
      ],
      [
        "▁noise",
        -8.098294393333555
      ],
      [
        "▁applie",
        -8.02839247144541
      ],
      [
        "▁gain",
        -9.581684816428659
      ],
      [
        "ate",
        -9.333053910738457
      ],
      [
        "▁initial",
        -9.744629739606761
      ],
      [
        "▁uh",
        -9.389550920122323
      ],
      [
        "▁main",
        -9.604988173365818
      ],
      [
        "\"",
        -4.22482060981751
      ],
      [
        "▁hay",
        -10.073175787595765
      ],
      [
        "▁bra",
        -10.329208443165776
      ],
      [
        "▁female",
        -8.945464546028534
      ],
      [
        "lf",
        -10.491965744396772
      ],
      [
        "▁til",
        -7.702134073707958
      ],
      [
        "hi",
        -8.444637064165939
      ],
      [
        "▁infrastructure",
        -8.985462631383285
      ],
      [
        "fall",
        -10.44913791816686
      ],
      [
        "▁!!!",
        -8.822914129701736
      ],
      [
        "▁cheap",
        -6.93449626107068
      ],
      [
        "▁copyright",
        -9.163750764274534
      ],
      [
        "ous",
        -9.31929528214864
      ],
      [
        "col",
        -9.956482041849828
      ],
      [
        "▁sold",
        -8.854102639208472
      ],
      [
        "▁overlook",
        -10.177590616902979
      ],
      [
        "▁fetch",
        -10.625931497039932
      ],
      [
        "▁cla",
        -8.970224559497991
      ],
      [
        "ade",
        -10.292959900391407
      ],
      [
        "▁corre",
        -8.345117940549926
      ],
      [
        "▁explain",
        -7.175392007103508
      ],
      [
        "▁traffic",
        -8.566881773455638
      ],
      [
        "▁relie",
        -10.659589895323899
      ],
      [
        "▁heart",
        -7.759572302676073
      ],
      [
        "}",
        -12.810278406305976
      ],
      [
        "▁mix",
        -9.932527115394517
      ],
      [
        "▁surviv",
        -10.024275122411353
      ],
      [
        "▁wizard",
        -9.213690646161602
      ],
      [
        "aw",
        -8.635393372690027
      ],
      [
        "▁bapti",
        -10.37546376694726
      ],
      [
        "▁sneak",
        -10.175420924835324
      ],
      [
        "▁air",
        -10.67813353537053
      ],
      [
        "▁right",
        -5.710999127079453
      ],
      [
        "▁some",
        -7.348423636734813
      ],
      [
        "some",
        -9.946535093477788
      ],
      [
        "▁context",
        -8.45855282937924
      ],
      [
        "▁connection",
        -7.61466503604316
      ],
      [
        "o",
        -1.7235607545640583
      ],
      [
        "▁manipulat",
        -10.052665959694068
      ],
      [
        "▁function",
        -8.600432456786713
      ],
      [
        "▁pee",
        -10.467221939763736
      ],
      [
        "▁ten",
        -9.023708091545878
      ],
      [
        "▁fall",
        -6.9143533266820105
      ],
      [
        "a",
        -6.448424639862955
      ],
      [
        "not",
        -11.552459937114449
      ],
      [
        "▁mailing",
        -9.772490220096303
      ],
      [
        "live",
        -9.89933851013537
      ],
      [
        "loom",
        -9.95367131910094
      ],
      [
        "▁block",
        -8.283216882473358
      ],
      [
        ".",
        -5.947944720095198
      ],
      [
        "▁owl",
        -9.11945768531276
      ],
      [
        "▁television",
        -8.614639390121889
      ],
      [
        "▁end",
        -6.739883479636791
      ],
      [
        "▁|",
        -9.776609991678534
      ],
      [
        "▁horri",
        -7.955748089930601
      ],
      [
        "▁uneas",
        -10.480245968805804
      ],
      [
        "ing",
        -4.779772680984797
      ],
      [
        "▁commit",
        -9.261825638492802
      ],
      [
        "▁shopp",
        -9.16044125195079
      ],
      [
        "▁weed",
        -10.050799561790944
      ],
      [
        "e",
        -2.645353623077794
      ],
      [
        "▁resident",
        -9.116082830048633
      ],
      [
        "▁fight",
        -8.505620009204055
      ],
      [
        "▁cfl",
        -9.658437296826058
      ],
      [
        "ank",
        -8.738675237881283
      ],
      [
        "▁cann",
        -10.728253680964114
      ],
      [
        "▁cocktail",
        -9.163681619188505
      ],
      [
        "▁rain",
        -8.486530141529618
      ],
      [
        "▁chemical",
        -9.658211123781356
      ],
      [
        "oo",
        -9.878847520174034
      ],
      [
        "▁working",
        -9.630485778023157
      ],
      [
        "▁volunteer",
        -10.375392290115844
      ],
      [
        "t",
        -3.1149023117862136
      ],
      [
        "▁class",
        -6.403744672749082
      ],
      [
        "ble",
        -5.978990578455024
      ],
      [
        "▁colon",
        -9.682707836136814
      ],
      [
        "▁eat",
        -5.6316209781590745
      ],
      [
        "▁pest",
        -10.170011801776939
      ],
      [
        "▁sho",
        -9.52780869862372
      ],
      [
        "▁birth",
        -8.459303743729803
      ],
      [
        "▁scan",
        -9.737810668730376
      ],
      [
        "▁ticket",
        -7.535020697226221
      ],
      [
        "▁crom",
        -7.7478749589033615
      ],
      [
        "▁punchline",
        -10.16861098985807
      ],
      [
        "west",
        -10.449300959167823
      ],
      [
        "▁allow",
        -6.980942798830301
      ],
      [
        "▁link",
        -8.421431361608825
      ],
      [
        "▁coordinate",
        -10.16197504060843
      ],
      [
        "posit",
        -7.967205595113234
      ],
      [
        "▁mor",
        -10.373848790221787
      ],
      [
        "q",
        -12.653795411026692
      ],
      [
        "▁invit",
        -9.374430122357591
      ],
      [
        "▁indulge",
        -10.818112787769977
      ],
      [
        "▁dock",
        -10.173436548819772
      ],
      [
        "mati",
        -8.045520387487993
      ],
      [
        "▁staff",
        -7.393159803991294
      ],
      [
        "▁circum",
        -8.834702671699095
      ],
      [
        "▁programme",
        -7.912663589678015
      ],
      [
        "▁lid",
        -10.156945349963571
      ],
      [
        "▁comply",
        -9.87055798824609
      ],
      [
        "ris",
        -9.549743311446143
      ],
      [
        "▁load",
        -9.475426092019175
      ],
      [
        "ia",
        -9.181991915677653
      ],
      [
        "▁enhance",
        -9.303382760367844
      ],
      [
        "▁interference",
        -9.934309827760803
      ],
      [
        "▁container",
        -8.559834600291872
      ],
      [
        "▁abs",
        -7.929212495987686
      ],
      [
        "▁gestur",
        -10.625480362094574
      ],
      [
        "▁discover",
        -7.971377119603126
      ],
      [
        "▁pledge",
        -9.93344376307912
      ],
      [
        "▁finding",
        -9.117059468458862
      ],
      [
        "usage",
        -10.175119138425652
      ],
      [
        "▁sunn",
        -7.90078657461334
      ],
      [
        "▁regist",
        -10.15113999063487
      ],
      [
        "ulation",
        -10.00868232657313
      ],
      [
        "▁variet",
        -8.907081076270885
      ],
      [
        "ison",
        -9.573485616330778
      ],
      [
        "▁maca",
        -9.381155799440126
      ],
      [
        "▁killing",
        -10.480455023788721
      ],
      [
        "▁in",
        -6.281002056505654
      ],
      [
        "ou",
        -7.021157929762656
      ],
      [
        "▁arab",
        -7.922878414017
      ],
      [
        "de",
        -9.88178093873111
      ],
      [
        "▁alignment",
        -10.478087475860553
      ],
      [
        "l",
        -4.549207338544624
      ],
      [
        "▁del",
        -7.011511549919968
      ],
      [
        "my",
        -7.634247853704349
      ],
      [
        "bal",
        -6.877981207083328
      ],
      [
        "▁flight",
        -4.001524655543676
      ],
      [
        "▁camp",
        -8.344948655146622
      ],
      [
        "▁confident",
        -7.905161831773092
      ],
      [
        "▁dissolve",
        -10.105309963409216
      ],
      [
        "▁lift",
        -8.780738111600888
      ],
      [
        "press",
        -10.826854624701987
      ],
      [
        "▁experience",
        -7.033909671510695
      ],
      [
        "▁wea",
        -10.862787046391805
      ],
      [
        "▁pres",
        -8.41671137336538
      ],
      [
        "▁listing",
        -9.529002587312338
      ],
      [
        "▁",
        -1.879078986922659
      ],
      [
        "mber",
        -8.428850243476228
      ],
      [
        "▁bitter",
        -10.492026624987842
      ],
      [
        "▁disappear",
        -9.025395337929355
      ],
      [
        "▁patch",
        -10.056316755322294
      ],
      [
        "os",
        -12.781528412373152
      ],
      [
        "let",
        -9.138793533962309
      ],
      [
        "▁bus",
        -6.093146094794693
      ],
      [
        "▁instructor",
        -9.26631273092033
      ],
      [
        "▁greet",
        -9.449912237348501
      ],
      [
        "▁picture",
        -6.878422063643678
      ],
      [
        "▁replication",
        -8.766446382709848
      ],
      [
        "▁crush",
        -9.942898433164837
      ],
      [
        "▁sub",
        -8.852001780456561
      ],
      [
        "eaten",
        -9.340308157443427
      ],
      [
        "▁pal",
        -10.320627127912795
      ],
      [
        "▁bank",
        -8.324786031029777
      ],
      [
        "▁lake",
        -10.3121927841109
      ],
      [
        "▁check",
        -7.097397547130876
      ],
      [
        "▁hur",
        -9.186143461070277
      ],
      [
        "▁how",
        -3.9468069168529585
      ],
      [
        "▁accus",
        -10.52253176873698
      ],
      [
        "▁sculpture",
        -10.311482384522627
      ],
      [
        "til",
        -11.286878612999539
      ],
      [
        "▁deem",
        -9.891283968357795
      ],
      [
        "▁lives",
        -7.982512962908001
      ],
      [
        "tw",
        -7.916974077212662
      ],
      [
        "uch",
        -7.227515523436938
      ],
      [
        "▁el",
        -6.533844654885006
      ],
      [
        "▁o",
        -7.903254943525872
      ],
      [
        "i",
        -5.936780311896299
      ],
      [
        "▁proper",
        -7.637566247573738
      ],
      [
        "▁reveal",
        -8.538070794943604
      ],
      [
        "▁contribut",
        -10.048690260992384
      ],
      [
        "?",
        -3.0869681674060505
      ],
      [
        "▁order",
        -7.583793869267323
      ],
      [
        "▁notice",
        -7.764069890327629
      ],
      [
        "▁infant",
        -10.478212970368643
      ],
      [
        "g",
        -5.178950778187781
      ],
      [
        "▁el",
        -10.044991722288888
      ],
      [
        "▁course",
        -7.165218298829887
      ],
      [
        "ought",
        -6.8320619203240085
      ],
      [
        "▁objection",
        -10.330526733564435
      ],
      [
        "▁interfere",
        -9.777141484942666
      ],
      [
        "▁command",
        -10.62548692865132
      ],
      [
        "70",
        -9.564426440769548
      ],
      [
        "▁middle",
        -7.4367583756290685
      ],
      [
        "50",
        -7.18634710901155
      ],
      [
        "▁for",
        -9.860075519042379
      ],
      [
        "about",
        -5.6244658561614616
      ],
      [
        "c",
        -8.638626362649182
      ],
      [
        "dy",
        -7.034797477489856
      ],
      [
        "▁board",
        -7.985128363847397
      ],
      [
        "a",
        -4.198425366036542
      ],
      [
        "▁diet",
        -9.659111843152662
      ],
      [
        "air",
        -9.863738752138108
      ],
      [
        "▁fold",
        -9.934215100072015
      ],
      [
        "unch",
        -8.84368774892314
      ],
      [
        "▁mal",
        -10.318862991163943
      ],
      [
        "▁is",
        -5.984605269276846
      ],
      [
        "▁propose",
        -7.770609407272636
      ],
      [
        "▁a",
        -7.328050195040754
      ],
      [
        "onom",
        -10.424784851626734
      ],
      [
        "▁opening",
        -9.326116643926756
      ],
      [
        "▁hos",
        -10.361831095360914
      ],
      [
        "shion",
        -9.388551227826458
      ],
      [
        "ul",
        -10.976443136227793
      ],
      [
        "il",
        -8.254661469791888
      ],
      [
        "▁exhibit",
        -9.744631614273729
      ],
      [
        "▁ta",
        -10.072473554409317
      ],
      [
        "▁notify",
        -9.870591608504503
      ],
      [
        "ask",
        -9.977614852147653
      ],
      [
        "▁home",
        -7.733616494262922
      ],
      [
        "▁round",
        -6.771939825028797
      ],
      [
        "▁smil",
        -9.314460057221783
      ],
      [
        "▁realist",
        -9.512115403760777
      ],
      [
        "▁chatt",
        -9.936794027109697
      ],
      [
        "▁fool",
        -10.009721697508247
      ],
      [
        "▁shop",
        -7.725417539475279
      ],
      [
        "ifie",
        -9.611724502068638
      ],
      [
        "▁retire",
        -9.444789595873507
      ],
      [
        "▁clean",
        -6.800035557967786
      ],
      [
        "▁hold",
        -6.661459958134625
      ],
      [
        "▁driver",
        -8.516979853551323
      ],
      [
        "▁shorts",
        -8.897727633416498
      ],
      [
        "▁toy",
        -8.023577309993033
      ],
      [
        "4",
        -12.653795411026692
      ],
      [
        "▁encourag",
        -9.505242886454067
      ],
      [
        "▁threaten",
        -8.917157554625366
      ],
      [
        "▁cease",
        -10.009110307138279
      ],
      [
        "▁da",
        -6.107615017882473
      ],
      [
        "▁frame",
        -10.176085804513754
      ],
      [
        "▁lipstick",
        -9.443205265692821
      ],
      [
        "▁lead",
        -7.517633113995592
      ],
      [
        "▁th",
        -10.302050805264074
      ],
      [
        "▁run",
        -7.094404592042268
      ],
      [
        "▁asia",
        -8.182623868838574
      ],
      [
        "▁r",
        -9.969176708666446
      ],
      [
        "▁ghost",
        -10.043563706315043
      ],
      [
        "▁forth",
        -7.988309909754861
      ],
      [
        "fro",
        -6.468812278161513
      ],
      [
        "▁buyer",
        -10.170525317354862
      ],
      [
        "▁medicine",
        -8.86996407110515
      ],
      [
        "her",
        -5.452626015079912
      ],
      [
        "▁clerk",
        -9.932511117542752
      ],
      [
        "▁website",
        -7.759370888662832
      ],
      [
        "▁since",
        -7.934695465107252
      ],
      [
        "▁pursu",
        -10.419236846894616
      ],
      [
        "_",
        -5.0347307007443804
      ],
      [
        "which",
        -9.187918605841523
      ],
      [
        "▁n",
        -7.809789423261544
      ],
      [
        "▁agricultur",
        -8.985462633002282
      ],
      [
        "▁tape",
        -9.659539614078282
      ],
      [
        "▁verb",
        -10.312051313476276
      ],
      [
        "/",
        -7.232475893671974
      ],
      [
        "▁junk",
        -9.74972743905216
      ],
      [
        "tuck",
        -8.669650365756599
      ],
      [
        "▁fund",
        -7.776618826048621
      ],
      [
        "▁grow",
        -7.887514679181603
      ],
      [
        "▁fisher",
        -10.184979742462675
      ],
      [
        "▁methodolog",
        -10.478719948864317
      ],
      [
        "▁stirr",
        -10.061708180234708
      ],
      [
        "cent",
        -7.652589887132629
      ],
      [
        "ri",
        -7.889601173781799
      ],
      [
        "▁mid",
        -8.851268335651802
      ],
      [
        "▁'",
        -9.87189667263921
      ],
      [
        "▁regard",
        -7.5181281910160465
      ],
      [
        "▁stretch",
        -9.741543471276824
      ],
      [
        "▁steak",
        -9.581287186681173
      ],
      [
        "▁establishment",
        -9.32186828647601
      ],
      [
        "▁help",
        -5.928976135903622
      ],
      [
        "▁clip",
        -9.885490016400016
      ],
      [
        "▁sex",
        -8.672957965481944
      ],
      [
        "▁regulate",
        -9.549000205309792
      ],
      [
        "▁leadership",
        -9.164731686197655
      ],
      [
        "▁robot",
        -8.643210821603734
      ],
      [
        "▁costume",
        -9.833075528249209
      ],
      [
        "▁credit",
        -10.1754412401974
      ],
      [
        "tee",
        -10.42556880571614
      ],
      [
        "▁any",
        -6.715036310546548
      ],
      [
        "worth",
        -9.935261138702403
      ],
      [
        "▁ale",
        -10.346992826483437
      ],
      [
        "▁’",
        -6.974791146606354
      ],
      [
        "▁francisco",
        -4.794485198345533
      ],
      [
        "osom",
        -10.327438458095175
      ],
      [
        "gement",
        -9.861560595753975
      ],
      [
        "▁date",
        -7.53918411477349
      ],
      [
        "▁transport",
        -8.917221765190645
      ],
      [
        "▁mother",
        -6.8068784291021425
      ],
      [
        ",000",
        -5.495299463876596
      ],
      [
        "▁7",
        -5.116752489530167
      ],
      [
        "▁50",
        -6.284704129324478
      ],
      [
        "▁under",
        -8.799861585944255
      ],
      [
        "▁investor",
        -10.043568193384113
      ],
      [
        "l",
        -2.7651899767306247
      ],
      [
        "▁perception",
        -9.832508425015654
      ],
      [
        "▁withh",
        -10.743861655046864
      ],
      [
        "▁experiment",
        -9.321924672669933
      ],
      [
        "▁terminate",
        -10.195252930988616
      ],
      [
        "o",
        -4.2167080953592855
      ],
      [
        "▁histor",
        -7.4881948809157155
      ],
      [
        "▁laundr",
        -9.5812871377601
      ],
      [
        "▁dresse",
        -10.044180213408815
      ],
      [
        "▁flew",
        -9.36325101694856
      ],
      [
        "▁dog",
        -6.62866431641075
      ],
      [
        "▁cell",
        -8.459878110010623
      ],
      [
        "▁touch",
        -7.580939470623513
      ],
      [
        "▁bait",
        -10.481875419894672
      ],
      [
        "▁favor",
        -9.658199611832691
      ],
      [
        "▁humanit",
        -9.446547690867309
      ],
      [
        "r",
        -6.214075330236206
      ],
      [
        "▁close",
        -7.658641754651466
      ],
      [
        "ve",
        -6.8879324377722195
      ],
      [
        "▁portion",
        -8.987352364803463
      ],
      [
        "ma",
        -8.848380702663485
      ],
      [
        "▁trouble",
        -7.942873021801521
      ],
      [
        "▁leader",
        -8.094015602585047
      ],
      [
        "▁negotiate",
        -9.602901677874033
      ],
      [
        "▁hoop",
        -10.4806175510995
      ],
      [
        "▁look",
        -7.759599288001831
      ],
      [
        "▁conquer",
        -9.869148430134826
      ],
      [
        "was",
        -6.42545466381976
      ],
      [
        "cil",
        -8.125382901305478
      ],
      [
        "▁ok",
        -6.289238687970232
      ],
      [
        "ident",
        -8.330886959715489
      ],
      [
        "f",
        -2.549806178690007
      ],
      [
        "▁nomin",
        -10.207628193064897
      ],
      [
        "▁dal",
        -9.845751914320635
      ],
      [
        "0",
        -3.7401553914094876
      ],
      [
        "ook",
        -6.641626205827474
      ],
      [
        "▁dump",
        -10.311523922038784
      ],
      [
        "an",
        -6.937153073438732
      ],
      [
        "▁un",
        -9.036505284817567
      ],
      [
        "▁ski",
        -8.993610014085876
      ],
      [
        "▁fill",
        -7.527319955195336
      ],
      [
        "▁short",
        -6.594763792945896
      ],
      [
        "▁spell",
        -9.116449070466883
      ],
      [
        "▁alon",
        -6.861000914725314
      ],
      [
        "▁sink",
        -9.117489400141833
      ],
      [
        "▁six",
        -4.954665155508478
      ],
      [
        "▁i.e",
        -8.226114344461658
      ],
      [
        "cy",
        -7.229001024844951
      ],
      [
        "▁special",
        -6.647498610834503
      ],
      [
        "▁fuck",
        -6.7434761088481165
      ],
      [
        "▁spokes",
        -9.581358810417829
      ],
      [
        "act",
        -10.680303424290246
      ],
      [
        "'",
        -2.6782468275802227
      ],
      [
        "stance",
        -8.677677773136766
      ],
      [
        "90",
        -9.51373280599091
      ],
      [
        "▁short",
        -8.507369351158612
      ],
      [
        "▁comedie",
        -10.119718902882997
      ],
      [
        "▁on",
        -10.014838674734882
      ],
      [
        "▁compare",
        -8.265165019192352
      ],
      [
        "▁background",
        -8.870225562580584
      ],
      [
        "▁ever",
        -12.15183873490786
      ],
      [
        "▁schedul",
        -10.321479502451563
      ],
      [
        "▁supplement",
        -10.625392290116027
      ],
      [
        "▁sad",
        -7.6620558953530065
      ],
      [
        "▁counsel",
        -9.580007950562056
      ],
      [
        "ere",
        -8.9394830435864
      ],
      [
        "-1.",
        -10.096028326650174
      ],
      [
        "▁strain",
        -9.322086905482461
      ],
      [
        "0,000",
        -6.702078868623037
      ],
      [
        "▁coal",
        -9.611870560384462
      ],
      [
        "▁browser",
        -9.322198669518736
      ],
      [
        "▁nation",
        -7.571347819551489
      ],
      [
        "▁ma",
        -8.871582108237307
      ],
      [
        "olog",
        -9.970036248989807
      ],
      [
        "▁count",
        -7.906853085517547
      ],
      [
        "▁able",
        -7.6495260571032535
      ],
      [
        "▁fair",
        -9.393591398248333
      ],
      [
        "▁top",
        -7.469842661496501
      ],
      [
        "▁wrongdo",
        -10.47809787307616
      ],
      [
        "▁generat",
        -10.55862731145518
      ],
      [
        "▁rub",
        -10.181023131672797
      ],
      [
        "htm",
        -10.478580287080504
      ],
      [
        "les",
        -6.373733205880214
      ],
      [
        "▁white",
        -10.312417600768068
      ],
      [
        "▁stripe",
        -10.186641478257322
      ],
      [
        ".......",
        -12.587104664338753
      ],
      [
        "dia",
        -7.541339966809506
      ],
      [
        "e",
        -2.8147556323144673
      ],
      [
        "pid",
        -7.692223382223148
      ],
      [
        "▁yog",
        -8.586928512660682
      ],
      [
        "nce",
        -9.633685273708124
      ],
      [
        "▁hit",
        -6.806185863543326
      ],
      [
        "▁attraction",
        -10.168565118973497
      ],
      [
        "la",
        -7.180731558632907
      ],
      [
        "ender",
        -10.060553613759668
      ],
      [
        "▁bus",
        -7.721834652949936
      ],
      [
        "▁per",
        -8.702681030109439
      ],
      [
        "hat",
        -8.562382551748577
      ],
      [
        "▁books",
        -8.136321539696524
      ],
      [
        "▁tol",
        -6.346755550568246
      ],
      [
        "▁describe",
        -7.5151118278972
      ],
      [
        "▁implication",
        -9.932452559014926
      ],
      [
        "▁incre",
        -7.7695118524192175
      ],
      [
        "▁bend",
        -10.581775695953139
      ],
      [
        "▁cohe",
        -9.444212131344544
      ],
      [
        "y",
        -3.318207956350367
      ],
      [
        "▁opinion",
        -8.223376923876422
      ],
      [
        "ine",
        -7.742409514085935
      ],
      [
        "ware",
        -8.806526905624937
      ],
      [
        "ha",
        -10.934007455383558
      ],
      [
        "▁dynamic",
        -10.478242762475983
      ],
      [
        "▁anim",
        -10.048456932340963
      ],
      [
        "▁nightmare",
        -10.168566008552348
      ],
      [
        "abl",
        -5.607246216433183
      ],
      [
        "▁compete",
        -9.235698832012206
      ],
      [
        "inea",
        -9.834162489750044
      ],
      [
        "▁verifie",
        -10.375418645198057
      ],
      [
        "all",
        -4.386146326760171
      ],
      [
        "j",
        -7.504078469675668
      ],
      [
        "▁calculate",
        -9.310419178133518
      ],
      [
        "▁name",
        -6.11990368963511
      ],
      [
        "▁sweet",
        -7.823057984112986
      ],
      [
        "ll",
        -7.494378486819105
      ],
      [
        "▁ginger",
        -9.741677275434357
      ],
      [
        "▁tout",
        -10.65239863272653
      ],
      [
        "▁stickerbird",
        -10.478107772197356
      ],
      [
        "▁bea",
        -8.474180868184007
      ],
      [
        "▁sa",
        -6.480620694170948
      ],
      [
        "cour",
        -7.539159453764968
      ],
      [
        "▁change",
        -7.0637789164897855
      ],
      [
        "▁worr",
        -10.04522427940678
      ],
      [
        "▁tanker",
        -10.206479733833913
      ],
      [
        "▁guid",
        -10.266932113027929
      ],
      [
        "▁dark",
        -6.90249271216322
      ],
      [
        "!!!!!!!!!!",
        -11.368032386117479
      ],
      [
        "▁survive",
        -8.607826943963538
      ],
      [
        "▁date",
        -9.442067739645166
      ],
      [
        "▁honey",
        -7.772873581494038
      ],
      [
        "▁cleric",
        -10.043649586500365
      ],
      [
        "was",
        -10.878403380983059
      ],
      [
        "▁think",
        -9.117919803422634
      ],
      [
        "ever",
        -5.359099294543228
      ],
      [
        "▁adher",
        -10.78762004185267
      ],
      [
        "mm",
        -7.223101977105708
      ],
      [
        "had",
        -6.878629606664507
      ],
      [
        "▁employee",
        -8.411628908552277
      ],
      [
        "▁set",
        -6.866630984593461
      ],
      [
        "==",
        -11.055194985824045
      ],
      [
        "▁prototype",
        -10.311435478775955
      ],
      [
        "▁signif",
        -7.341198651552321
      ],
      [
        "▁march",
        -10.177172228681894
      ],
      [
        "istic",
        -7.463813450001007
      ],
      [
        "▁plann",
        -7.863411079835668
      ],
      [
        "y",
        -4.983554208410508
      ],
      [
        "▁fear",
        -9.030068234004945
      ],
      [
        "▁urg",
        -10.520385126965376
      ],
      [
        "terior",
        -9.757292973133069
      ],
      [
        "▁launch",
        -8.712884229565557
      ],
      [
        "▁linen",
        -10.343316845761477
      ],
      [
        "▁trad",
        -10.855223293350779
      ],
      [
        "ial",
        -6.617192983272803
      ],
      [
        "or",
        -10.502977190467442
      ],
      [
        "▁foundation",
        -9.380692105471816
      ],
      [
        "is",
        -6.551512324352629
      ],
      [
        "▁compensate",
        -9.885234912673681
      ],
      [
        "▁cut",
        -6.988656765585494
      ],
      [
        "▁celebrit",
        -9.932452555332661
      ],
      [
        "▁total",
        -7.535130883252613
      ],
      [
        "▁activit",
        -7.555303408704813
      ],
      [
        "▁vince",
        -8.013397112940913
      ],
      [
        "▁jan",
        -10.046087971980814
      ],
      [
        "▁tu",
        -7.134000349017217
      ],
      [
        "▁accumulate",
        -9.740560952098114
      ],
      [
        "▁test",
        -7.409318584347679
      ],
      [
        "them",
        -7.937344547440428
      ],
      [
        "▁prett",
        -8.028456882690731
      ],
      [
        "▁question",
        -8.819725000861384
      ],
      [
        "▁cooperat",
        -10.251539058825845
      ],
      [
        "▁explor",
        -10.52139996216673
      ],
      [
        "▁ira",
        -7.262090301229988
      ],
      [
        "▁victor",
        -9.512015144633525
      ],
      [
        "▁distract",
        -10.175439502399023
      ],
      [
        "▁swim",
        -8.318377595961834
      ],
      [
        "▁india",
        -6.8284129241768845
      ],
      [
        "▁bid",
        -10.274640935456999
      ],
      [
        "▁specialist",
        -9.322072655267839
      ],
      [
        "▁co-",
        -9.663858971024158
      ],
      [
        "▁publisher",
        -10.16944571848499
      ],
      [
        "▁pott",
        -8.202917943242564
      ],
      [
        "!!!",
        -8.681878390748496
      ],
      [
        "ail",
        -9.681458968930224
      ],
      [
        "▁agenc",
        -8.482917741653795
      ],
      [
        "▁staircase",
        -10.168597615764945
      ],
      [
        "▁poster",
        -9.27616675498206
      ],
      [
        "ough",
        -10.108039659684
      ],
      [
        "whos",
        -11.20766598766508
      ],
      [
        "▁carry",
        -7.445290508333796
      ],
      [
        "▁discount",
        -9.658262393509371
      ],
      [
        "▁sausage",
        -10.478146019963807
      ],
      [
        "▁form",
        -8.023580180085943
      ],
      [
        "▁less",
        -7.67796879066546
      ],
      [
        "▁frank",
        -8.179533920758434
      ],
      [
        "▁market",
        -7.2040971256635995
      ],
      [
        "d",
        -7.194719984116379
      ],
      [
        "▁cin",
        -7.291606847389111
      ],
      [
        "▁hr",
        -9.751769619127106
      ],
      [
        "▁deck",
        -9.837384603774545
      ],
      [
        "▁toilet",
        -9.509908100297093
      ],
      [
        "▁t",
        -8.151778055974345
      ],
      [
        "▁off",
        -9.035770746731274
      ],
      [
        "▁desire",
        -9.167987726756941
      ],
      [
        "▁headline",
        -9.448079850305144
      ],
      [
        "hin",
        -7.547082465230565
      ],
      [
        "▁film",
        -8.20481657086809
      ],
      [
        "▁chapter",
        -8.945552049744197
      ],
      [
        "▁platform",
        -9.50985848261799
      ],
      [
        "▁lose",
        -8.279256091155556
      ],
      [
        "▁arrang",
        -10.40749958314272
      ],
      [
        "▁world",
        -6.250982526172646
      ],
      [
        "▁father",
        -6.919600024684173
      ],
      [
        "▁vitamin",
        -10.311420810576843
      ],
      [
        "▁extend",
        -8.23777162680596
      ],
      [
        "e",
[...]
