{
  "version": "1.0",
  "truncation": null,
  "padding": null,
  "added_tokens": [
    {
      "id": 3278,
      "content": "[PAD]",
      "single_word": false,
      "lstrip": false,
      "rstrip": false,
      "normalized": false,
      "special": true
    },
    {
      "id": 3840,
      "content": "[MASK]",
      "single_word": false,
      "lstrip": false,
      "rstrip": false,
      "normalized": false,
      "special": true
    },
    {
      "id": 3938,
      "content": "[UNK]",
      "single_word": false,
      "lstrip": false,
      "rstrip": false,
      "normalized": false,
      "special": true
    },
    {
      "id": 6460,
      "content": "[CLS]",
      "single_word": false,
      "lstrip": false,
      "rstrip": false,
      "normalized": false,
      "special": true
    },
    {
      "id": 6666,
      "content": "[SEP]",
      "single_word": false,
      "lstrip": false,
      "rstrip": false,
      "normalized": false,
      "special": true
    }
  ],
  "normalizer": {
    "type": "Sequence",
    "normalizers": [
      {
        "type": "NFD"
      },
      {
        "type": "Lowercase"
      },
      {
        "type": "StripAccents"
      }
    ]
  },
  "pre_tokenizer": {
    "type": "Sequence",
    "pretokenizers": [
      {
        "type": "Metaspace",
        "replacement": "▁",
        "prepend_scheme": "always",
        "split": true
      }
    ]
  },
  "post_processor": {
    "type": "TemplateProcessing",
    "single": [
      {
        "SpecialToken": {
          "id": "[CLS]",
          "type_id": 0
        }
      },
      {
        "Sequence": {
          "id": "A",
          "type_id": 0
        }
      },
      {
        "SpecialToken": {
          "id": "[SEP]",
          "type_id": 0
        }
      }
    ],
    "pair": [
      {
        "SpecialToken": {
          "id": "[CLS]",
          "type_id": 0
        }
      },
      {
        "Sequence": {
          "id": "A",
          "type_id": 0
        }
      },
      {
        "SpecialToken": {
          "id": "[SEP]",
          "type_id": 0
        }
      },
      {
        "Sequence": {
          "id": "B",
          "type_id": 1
        }
      },
      {
        "SpecialToken": {
          "id": "[SEP]",
          "type_id": 1
        }
      }
    ],
    "special_tokens": {
      "[CLS]": {
        "id": "[CLS]",
        "ids": [
          6460
        ],
        "tokens": [
          "[CLS]"
        ]
      },
      "[SEP]": {
        "id": "[SEP]",
        "ids": [
          6666
        ],
        "tokens": [
          "[SEP]"
        ]
      }
    }
  },
  "decoder": {
    "type": "Metaspace",
    "replacement": "▁",
    "prepend_scheme": "always",
    "split": true
  },
  "model": {
    "type": "BPE",
    "dropout": null,
    "unk_token": "[UNK]",
    "continuing_subword_prefix": null,
    "end_of_word_suffix": null,
    "fuse_unk": false,
    "byte_fallback": false,
    "ignore_merges": false,
    "vocab": {
      "!!!!!!!!": 0,
      "iss": 1,
      "▁candy": 2,
      "ming": 3,
      "ensity": 4,
      "▁squirt": 5,
      "▁slipped": 6,
      "itate": 7,
      "▁cognition": 8,
      "▁chat": 9,
      "orum": 10,
      "▁introduc": 11,
      "▁allocated": 12,
      "▁circles": 13,
      "▁interv": 14,
      "▁there": 15,
      "▁date": 16,
      "▁circum": 17,
      "▁dies": 18,
      "▁ec": 19,
      "▁involved": 20,
      "▁ha": 21,
      "▁must": 22,
      "▁proble": 23,
      "▁airplan": 24,
      "▁boots": 25,
      "▁tells": 26,
      "▁form": 27,
      ".c": 28,
      "timate": 29,
      "▁forgotten": 30,
      "▁areas": 31,
      "ensus": 32,
      "▁resources": 33,
      "▁recommended": 34,
      "▁q": 35,
      "ived": 36,
      "▁paint": 37,
      "tly": 38,
      "▁pun": 39,
      "▁wanted": 40,
      "▁football": 41,
      "▁establish": 42,
      "▁appears": 43,
      "▁guidelines": 44,
      "▁created": 45,
      "▁bathroom": 46,
      "▁wedding": 47,
      "▁wait": 48,
      "cross": 49,
      "cked": 50,
      "▁laundry": 51,
      "▁old": 52,
      "▁buy": 53,
      "▁map": 54,
      "▁iran": 55,
      "▁well": 56,
      "▁watch": 57,
      "▁employees": 58,
      "▁suff": 59,
      "▁replication": 60,
      "▁childhood": 61,
      "▁squ": 62,
      "▁pile": 63,
      "▁y": 64,
      "▁daily": 65,
      "one": 66,
      "▁bench": 67,
      "cape": 68,
      "▁transmed": 69,
      "▁spend": 70,
      "▁buc": 71,
      "▁u": 72,
      "hing": 73,
      "▁headed": 74,
      "inction": 75,
      "▁!!!?": 76,
      "▁gives": 77,
      "▁gallon": 78,
      "▁fig": 79,
      "▁once": 80,
      "▁indian": 81,
      "▁hard": 82,
      "▁practices": 83,
      "▁mar": 84,
      "onstr": 85,
      "avor": 86,
      "tsbur": 87,
      "iration": 88,
      "400": 89,
      "▁rip": 90,
      "▁oblig": 91,
      "▁felt": 92,
      "ier": 93,
      "▁finance": 94,
      "▁ra": 95,
      "---": 96,
      "▁driver": 97,
      "▁donkey": 98,
      "▁identify": 99,
      "▁fail": 100,
      "▁will": 101,
      "▁spons": 102,
      "▁amendment": 103,
      "aling": 104,
      "▁sir": 105,
      "▁with": 106,
      "ributed": 107,
      "▁commission": 108,
      "▁upside": 109,
      "▁first": 110,
      "▁forward": 111,
      "▁trees": 112,
      "▁hasid": 113,
      "....": 114,
      "▁mid-": 115,
      "▁outcome": 116,
      "▁papers": 117,
      "▁management": 118,
      "ally": 119,
      "▁coinc": 120,
      "▁cradle": 121,
      "▁mistakes": 122,
      "ging": 123,
      "▁conduct": 124,
      "▁...................": 125,
      "▁indic": 126,
      "▁ever": 127,
      "▁distributed": 128,
      "▁dried": 129,
      "▁reserve": 130,
      "▁boy": 131,
      "▁sometimes": 132,
      "hood": 133,
      "▁partnership": 134,
      "round": 135,
      "▁info": 136,
      "ble": 137,
      "ans": 138,
      "az": 139,
      "▁forehead": 140,
      "▁nut": 141,
      "▁continent": 142,
      "▁outc": 143,
      "▁said": 144,
      "▁demon": 145,
      "▁inn": 146,
      "▁obtained": 147,
      "▁mat": 148,
      "▁inves": 149,
      "▁cfl": 150,
      "▁oil": 151,
      "▁control": 152,
      "▁bec": 153,
      "▁tires": 154,
      "▁jobs": 155,
      "▁support": 156,
      "▁reality": 157,
      "▁enjoyed": 158,
      "▁alleged": 159,
      "▁darkness": 160,
      "ings": 161,
      "▁known": 162,
      "ures": 163,
      "elines": 164,
      "▁soldier": 165,
      "▁********************************": 166,
      "▁funds": 167,
      "▁pur": 168,
      "ect": 169,
      "id": 170,
      "▁tragedies": 171,
      "▁divid": 172,
      "lled": 173,
      "end": 174,
      "▁prot": 175,
      "▁draw": 176,
      "▁lean": 177,
      "▁party": 178,
      "▁blood": 179,
      "▁abilities": 180,
      "▁wipe": 181,
      "▁equip": 182,
      "ix": 183,
      "gest": 184,
      "erence": 185,
      "▁campaign": 186,
      "▁scan": 187,
      "▁ice": 188,
      "▁programs": 189,
      "▁phone": 190,
      "loy": 191,
      "▁soft": 192,
      "▁updates": 193,
      "▁server": 194,
      "”": 195,
      "▁bon": 196,
      "most": 197,
      "tion": 198,
      "lite": 199,
      "▁gent": 200,
      "fro": 201,
      "memb": 202,
      "▁starting": 203,
      "onom": 204,
      "▁window": 205,
      "▁examination": 206,
      "▁song": 207,
      "▁scored": 208,
      "osite": 209,
      "▁mm": 210,
      "▁rap": 211,
      "▁become": 212,
      "▁enh": 213,
      "▁devoted": 214,
      "▁developing": 215,
      "▁filed": 216,
      "▁fligh": 217,
      "▁autumn": 218,
      "▁sim": 219,
      "▁limitations": 220,
      "▁lion": 221,
      "▁wolves": 222,
      "fo": 223,
      "▁airline": 224,
      "▁jury": 225,
      "▁associated": 226,
      "▁strength": 227,
      "▁rising": 228,
      "▁sources": 229,
      "nic": 230,
      "▁painting": 231,
      "▁does": 232,
      "il": 233,
      "ything": 234,
      "▁realised": 235,
      "▁analy": 236,
      "coon": 237,
      "▁ask": 238,
      "▁schedule": 239,
      "arr": 240,
      "▁lil": 241,
      "▁encouraged": 242,
      "ify": 243,
      "▁globe": 244,
      "▁interpre": 245,
      "▁kiss": 246,
      "▁read": 247,
      "▁profession": 248,
      "▁quartile": 249,
      "▁myce": 250,
      "▁clothes": 251,
      "▁mood": 252,
      "ological": 253,
      "▁proposals": 254,
      "▁bri": 255,
      "ium": 256,
      "▁stic": 257,
      "▁-----": 258,
      "▁bulldozer": 259,
      "▁tracks": 260,
      "▁ob": 261,
      "put": 262,
      "▁hospital": 263,
      "▁transp": 264,
      "▁wished": 265,
      "ius": 266,
      "▁mud": 267,
      "--------+----------------": 268,
      "▁baking": 269,
      "▁hun": 270,
      "▁alter": 271,
      "▁reached": 272,
      "▁received": 273,
      "ulate": 274,
      "▁sunlight": 275,
      "st": 276,
      "fl": 277,
      "▁delta": 278,
      "▁dna": 279,
      "▁amounts": 280,
      "▁cycl": 281,
      "▁surrounded": 282,
      "'s": 283,
      "▁consumers": 284,
      "scope": 285,
      "▁alth": 286,
      "▁straps": 287,
      "ensions": 288,
      "▁implications": 289,
      "▁hous": 290,
      "▁rank": 291,
      "80s": 292,
      "▁n": 293,
      "▁stopping": 294,
      "▁cap": 295,
      "overs": 296,
      "▁facilitate": 297,
      "▁limb": 298,
      "▁'ll": 299,
      "▁dr": 300,
      "▁meth": 301,
      "▁call": 302,
      "▁crossed": 303,
      "inating": 304,
      "hen": 305,
      "▁[...]": 306,
      "▁using": 307,
      "icted": 308,
      "▁beneath": 309,
      "▁infr": 310,
      "▁pulling": 311,
      "▁farm": 312,
      "▁concerns": 313,
      "▁fruits": 314,
      "eding": 315,
      "▁communic": 316,
      "▁beetle": 317,
      "▁introduce": 318,
      "▁credit": 319,
      "▁methods": 320,
      "avery": 321,
      "▁gel": 322,
      "▁hopes": 323,
      "▁bot": 324,
      "ry": 325,
      "ph": 326,
      "▁points": 327,
      "▁lan": 328,
      "equ": 329,
      "jamas": 330,
      "▁analysts": 331,
      "▁legos": 332,
      "▁americans": 333,
      "ς": 334,
      "▁scar": 335,
      "..": 336,
      "pen": 337,
      "▁sav": 338,
      "▁lif": 339,
      "▁destiny": 340,
      "val": 341,
      "▁potato": 342,
      "▁tort": 343,
      "te": 344,
      "atched": 345,
      "▁ill": 346,
      "▁arguing": 347,
      "▁escaped": 348,
      "▁adults": 349,
      "ointed": 350,
      "▁animals": 351,
      "ends": 352,
      "ayed": 353,
      "▁bird": 354,
      "▁conte": 355,
      "ns": 356,
      "liament": 357,
      "▁agency": 358,
      "▁showing": 359,
      "ned": 360,
      "▁pilot": 361,
      "▁tastes": 362,
      "▁excel": 363,
      "oss": 364,
      "iate": 365,
      "▁alternative": 366,
      "▁accum": 367,
      "▁ki": 368,
      "ef": 369,
      "▁charged": 370,
      "▁assigned": 371,
      "▁l2": 372,
      "▁sandwiches": 373,
      "ention": 374,
      "▁determ": 375,
      "▁overalls": 376,
      "▁tribe": 377,
      "▁plenty": 378,
      "▁unit": 379,
      "▁alt.": 380,
      "oh": 381,
      "▁mess": 382,
      "▁milit": 383,
      "▁pret": 384,
      "▁comment": 385,
      "rong": 386,
      "ama": 387,
      "ghting": 388,
      "▁offici": 389,
      "▁youn": 390,
      "▁messages": 391,
      "▁chairs": 392,
      "eren": 393,
      "uggle": 394,
      "▁resc": 395,
      "▁co": 396,
      "▁across": 397,
      "▁appe": 398,
      "als": 399,
      "ocado": 400,
      "▁demanding": 401,
      "plus": 402,
      "egr": 403,
      "utor": 404,
      "rition": 405,
      "scrib": 406,
      "▁constituency": 407,
      "▁ded": 408,
      "▁sle": 409,
      "▁twist": 410,
      "▁hosting": 411,
      "▁die": 412,
      "ourse": 413,
      "▁biting": 414,
      "idence": 415,
      "▁yellow": 416,
      "▁ce": 417,
      "▁neighbor": 418,
      "▁thir": 419,
      "▁candidate": 420,
      "ders": 421,
      "centi": 422,
      "▁chemicals": 423,
      "rec": 424,
      "ame": 425,
      "▁son": 426,
      "rors": 427,
      "ables": 428,
      "▁parti": 429,
      "lic": 430,
      "▁squirrel": 431,
      "uted": 432,
      "▁project": 433,
      "▁exposure": 434,
      "▁staring": 435,
      "▁peanuts": 436,
      "▁schools": 437,
      "▁ey": 438,
      "ree": 439,
      "▁dolph": 440,
      "▁here": 441,
      "ctly": 442,
      "sel": 443,
      "▁any": 444,
      "▁fixed": 445,
      "▁bus": 446,
      "▁acquis": 447,
      "▁studio": 448,
      "vest": 449,
      "▁boston": 450,
      "▁threw": 451,
      "▁wrong": 452,
      "uals": 453,
      "▁minutes": 454,
      "▁currently": 455,
      "▁wish": 456,
      "ination": 457,
      "▁eigh": 458,
      "etition": 459,
      "▁markets": 460,
      "▁transportation": 461,
      "ilities": 462,
      "▁scre": 463,
      "▁assumed": 464,
      "▁sword": 465,
      "derstand": 466,
      "lig": 467,
      "▁mir": 468,
      "▁las": 469,
      "▁dragon": 470,
      "▁vend": 471,
      "▁prof": 472,
      "ower": 473,
      "▁contracts": 474,
      "▁median": 475,
      "▁‘’": 476,
      "▁initi": 477,
      "itt": 478,
      "▁formed": 479,
      "▁fr": 480,
      "▁simply": 481,
      "▁aim": 482,
      "▁master": 483,
      "iliation": 484,
      "▁load": 485,
      "estiv": 486,
      "ak": 487,
      "▁dirt": 488,
      "▁grown": 489,
      "uk": 490,
      "=----": 491,
      "rote": 492,
      "▁policeman": 493,
      "ror": 494,
      "▁greetings": 495,
      "▁he": 496,
      "time": 497,
      "▁governor": 498,
      "unt": 499,
      "▁speech": 500,
      "▁loss": 501,
      "▁foreigners": 502,
      "▁spaces": 503,
      "▁roo": 504,
      "▁condition": 505,
      "▁candidates": 506,
      "ience": 507,
      "ences": 508,
      "▁goods": 509,
      "▁kitchen": 510,
      "educ": 511,
      "▁captain": 512,
      "▁ach": 513,
      ".": 514,
      "▁sentence": 515,
      "pful": 516,
      "▁political": 517,
      "▁satisf": 518,
      "oration": 519,
      "▁breakf": 520,
      "▁18": 521,
      "▁oneself": 522,
      "z": 523,
      "▁sush": 524,
      "▁bu": 525,
      "▁legs": 526,
      "▁dest": 527,
      "▁orange": 528,
      "▁innov": 529,
      "▁seen": 530,
      "▁root": 531,
      "▁6": 532,
      "}": 533,
      "▁concern": 534,
      "▁vic": 535,
      "▁mult": 536,
      "▁describes": 537,
      "tially": 538,
      "▁numbers": 539,
      "▁giraffe": 540,
      "oring": 541,
      "ips": 542,
      "▁component": 543,
      "▁chest": 544,
      "ounds": 545,
      "it": 546,
      "▁floor": 547,
      "▁califor": 548,
      "▁technologies": 549,
      "▁zoo": 550,
      "▁steak": 551,
      "ised": 552,
      "zz": 553,
      "▁appropri": 554,
      "▁aimed": 555,
      "▁instit": 556,
      "▁h": 557,
      "▁facing": 558,
      "he": 559,
      "cake": 560,
      "▁losing": 561,
      "▁hors": 562,
      "▁accordance": 563,
      "▁bud": 564,
      "▁orient": 565,
      "▁popularity": 566,
      "▁dey": 567,
      "▁plot": 568,
      "ington": 569,
      "▁browser": 570,
      "▁grain": 571,
      "lo": 572,
      "▁pip": 573,
      "▁holes": 574,
      "▁been": 575,
      "▁ga": 576,
      "▁danger": 577,
      "tain": 578,
      "▁wiggle": 579,
      "▁vacuum": 580,
      "▁ther": 581,
      "ced": 582,
      "ngth": 583,
      "▁tug": 584,
      "ids": 585,
      "oint": 586,
      "▁today": 587,
      "▁lady": 588,
      "▁innovation": 589,
      "nuts": 590,
      "▁tra": 591,
      "▁dump": 592,
      "vement": 593,
      "▁cloth": 594,
      "▁sector": 595,
      ",": 596,
      "▁shoo": 597,
      "▁municip": 598,
      "▁course": 599,
      "▁scientist": 600,
      "▁stuff": 601,
      "▁watched": 602,
      "▁deal": 603,
      "enef": 604,
      "▁alread": 605,
      "▁hundreds": 606,
      "▁recording": 607,
      "▁temperatures": 608,
      "▁cruise": 609,
      "▁explore": 610,
      "ism": 611,
      "▁print": 612,
      "▁attorney": 613,
      "▁ens": 614,
      "ones": 615,
      "▁picking": 616,
      "▁giving": 617,
      "▁often": 618,
      "rested": 619,
      "▁fears": 620,
      "▁side": 621,
      "▁band": 622,
      "ically": 623,
      "▁attracted": 624,
      "▁health": 625,
      "▁magic": 626,
      "plet": 627,
      "▁pill": 628,
      "▁balloons": 629,
      "▁gang": 630,
      "▁proc": 631,
      "▁subscrib": 632,
      "▁enemy": 633,
      "dle": 634,
      "cess": 635,
      "▁la": 636,
      "liance": 637,
      "▁mushroom": 638,
      "▁already": 639,
      "▁engine": 640,
      "▁colour": 641,
      "▁fund": 642,
      "▁15": 643,
      "▁coat": 644,
      "▁mo": 645,
      "bit": 646,
      "▁haircut": 647,
      "▁assoc": 648,
      "▁reflects": 649,
      "mentation": 650,
      "▁”": 651,
      "▁taxi": 652,
      "▁snake": 653,
      "▁fre": 654,
      "▁profile": 655,
      "▁fold": 656,
      "▁increase": 657,
      "ily": 658,
      "ames": 659,
      "▁cro": 660,
      "▁situations": 661,
      "▁doll": 662,
      "▁investig": 663,
      "▁concent": 664,
      "sts": 665,
      "▁un": 666,
      "▁stret": 667,
      "▁helic": 668,
      "▁traveling": 669,
      "▁posted": 670,
      "▁dol": 671,
      "φ": 672,
      "ternoon": 673,
      "▁tasks": 674,
      "▁submitted": 675,
      "▁holiday": 676,
      "un": 677,
      "lar": 678,
      "▁sk": 679,
      "▁dress": 680,
      "▁uses": 681,
      "▁juice": 682,
      "u": 683,
      "▁attitudes": 684,
      "▁econom": 685,
      "▁indicated": 686,
      "olding": 687,
      "▁restaur": 688,
      "▁orig": 689,
      "olve": 690,
      "▁centuries": 691,
      "▁persp": 692,
      "▁element": 693,
      "▁comments": 694,
      "▁manuscri": 695,
      "▁marketing": 696,
      "▁posts": 697,
      "▁spacetime": 698,
      "ront": 699,
      "▁temper": 700,
      "▁mystery": 701,
      "mb": 702,
      "▁count": 703,
      "yed": 704,
      "▁muscles": 705,
      "▁ships": 706,
      "▁jurisd": 707,
      "▁dep": 708,
      "▁conv": 709,
      "▁chips": 710,
      "▁email": 711,
      "▁bub": 712,
      "▁potential": 713,
      "▁booked": 714,
      "▁neither": 715,
      "▁complaint": 716,
      "▁transf": 717,
      "▁vod": 718,
      "▁math": 719,
      "▁pati": 720,
      "▁track": 721,
      "▁atlan": 722,
      "▁epm": 723,
      "▁real": 724,
      "▁pattern": 725,
      "▁blanket": 726,
      "emb": 727,
      "▁want": 728,
      "▁command": 729,
      "▁war": 730,
      ".com/": 731,
      "▁let": 732,
      "▁rock": 733,
      "▁artic": 734,
      "▁ur": 735,
      "▁silver": 736,
      "&": 737,
      "▁worship": 738,
      "▁dying": 739,
      "▁relating": 740,
      "▁sub": 741,
      "no": 742,
      "▁collab": 743,
      "▁worked": 744,
      "▁conviction": 745,
      "▁machine": 746,
      "▁detail": 747,
      "▁dragged": 748,
      "tive": 749,
      "▁apolog": 750,
      "▁freezer": 751,
      "sm": 752,
      "▁collap": 753,
      "unic": 754,
      "▁you": 755,
      "▁faculty": 756,
      "▁magazine": 757,
      "▁corners": 758,
      "▁resume": 759,
      "▁activities": 760,
      "▁licen": 761,
      "▁hr": 762,
      "▁priorities": 763,
      "▁=": 764,
      "uggles": 765,
      "ru": 766,
      "rol": 767,
      "▁remains": 768,
      "p": 769,
      "▁dri": 770,
      "▁after": 771,
      "▁world": 772,
      "▁....................": 773,
      "▁rule": 774,
      "▁changed": 775,
      "erest": 776,
      "▁creates": 777,
      "▁pajamas": 778,
      "▁cabb": 779,
      "▁star": 780,
      "▁units": 781,
      "▁satur": 782,
      "▁product": 783,
      "▁presence": 784,
      "uring": 785,
      "bs": 786,
      "▁instance": 787,
      "ending": 788,
      "atives": 789,
      "▁select": 790,
      "▁high": 791,
      "▁guerr": 792,
      "▁doc": 793,
      "▁prop": 794,
      "▁passing": 795,
      "▁equals": 796,
      "▁big": 797,
      "min": 798,
      "▁ribbon": 799,
      "ian": 800,
      "▁marry": 801,
      "▁attempted": 802,
      "hin": 803,
      "▁expect": 804,
      "cakes": 805,
      "▁advice": 806,
      "▁approach": 807,
      "▁found": 808,
      "▁themselves": 809,
      "▁rates": 810,
      "▁islands": 811,
      "▁|": 812,
      "▁rom": 813,
      "▁ago": 814,
      "▁produc": 815,
      "▁involving": 816,
      "▁clean": 817,
      "▁----------------------------------------------------------------------": 818,
      "▁accord": 819,
      "▁click": 820,
      "ondon": 821,
      "▁chall": 822,
      "unc": 823,
      "ł": 824,
      "▁water": 825,
      "▁advise": 826,
      "▁screen": 827,
      "▁shame": 828,
      "berry": 829,
      "▁vide": 830,
      "▁accounts": 831,
      "▁discount": 832,
      "▁within": 833,
      "▁fi": 834,
      "uate": 835,
      "▁distribution": 836,
      "▁artist": 837,
      "ribb": 838,
      "▁delivery": 839,
      "ians": 840,
      "very": 841,
      "▁201": 842,
      "▁cla": 843,
      "▁denied": 844,
      "▁economists": 845,
      "▁package": 846,
      "▁poo": 847,
      "▁spring": 848,
      "aying": 849,
      "▁km": 850,
      "▁perhap": 851,
      "▁spin": 852,
      "▁dose": 853,
      "▁sushi": 854,
      "▁mer": 855,
      "▁laughter": 856,
      "ay": 857,
      "▁journ": 858,
      "▁loc": 859,
      "▁toile": 860,
      "▁assassination": 861,
      "ο": 862,
      "ici": 863,
      "▁com": 864,
      "▁components": 865,
      "eda": 866,
      "▁beds": 867,
      "▁south": 868,
      "oma": 869,
      "▁brows": 870,
      "▁pas": 871,
      "ym": 872,
      "▁til": 873,
      "▁chan": 874,
      "▁gone": 875,
      "▁countries": 876,
      "▁sti": 877,
      "▁sty": 878,
      "▁judgments": 879,
      "▁purple": 880,
      "▁continental": 881,
      "▁adm": 882,
      "▁whose": 883,
      "engers": 884,
      "▁preferred": 885,
      "--": 886,
      "▁gym": 887,
      "▁=---": 888,
      "▁receiving": 889,
      "ε": 890,
      "▁gri": 891,
      "▁tiger": 892,
      "ergy": 893,
      "ern": 894,
      "ters": 895,
      "▁glass": 896,
      "▁artworks": 897,
      "▁studies": 898,
      "▁minimum": 899,
      "▁literature": 900,
      "▁dance": 901,
      "▁legisl": 902,
      "▁planning": 903,
      "zen": 904,
      "▁houses": 905,
      "▁neighbors": 906,
      "▁ready": 907,
      "▁vol": 908,
      "▁got": 909,
      "▁nearly": 910,
      "ev": 911,
      "▁who's": 912,
      "▁registered": 913,
      "▁ev": 914,
      "▁waited": 915,
      "▁eng": 916,
      "ipl": 917,
      "os": 918,
      "iod": 919,
      "lent": 920,
      "▁chief": 921,
      "ate": 922,
      "▁pro": 923,
      "▁encourage": 924,
      "▁request": 925,
      "▁quino": 926,
      "ne": 927,
      "ros": 928,
      "▁fa": 929,
      "nies": 930,
      "▁woman": 931,
      "sc": 932,
      "▁achie": 933,
      "▁tem": 934,
      "▁unf": 935,
      "▁completed": 936,
      "▁aven": 937,
      "iders": 938,
      "▁medic": 939,
      "▁wondering": 940,
      "▁killed": 941,
      "▁blame": 942,
      "▁wines": 943,
      "▁failure": 944,
      "▁hoped": 945,
      "▁beauty": 946,
      "▁hang": 947,
      "▁`": 948,
      "waukee": 949,
      "5": 950,
      "▁dancing": 951,
      "▁past": 952,
      "▁shar": 953,
      "tern": 954,
      "▁lick": 955,
      "▁becoming": 956,
      "ring": 957,
      "▁famili": 958,
      "▁flo": 959,
      "▁buses": 960,
      "▁phones": 961,
      "▁important": 962,
      "▁mold": 963,
      "▁ang": 964,
      "▁symbol": 965,
      "▁wake": 966,
      "▁nat": 967,
      "▁spec": 968,
      "▁staff": 969,
      "ors": 970,
      "▁bulb": 971,
      "ears": 972,
      "uter": 973,
      "▁refer": 974,
      "▁atmos": 975,
      "▁whatever": 976,
      "▁ceo": 977,
      "umble": 978,
      "▁oatmeal": 979,
      "▁faced": 980,
      "ocation": 981,
      "▁doing": 982,
      "▁arms": 983,
      "▁lip": 984,
      "▁drawn": 985,
      "▁takes": 986,
      "re": 987,
      "ash": 988,
      "iency": 989,
      "▁hearings": 990,
      "▁oct": 991,
      "▁seed": 992,
      "▁place": 993,
      "▁violation": 994,
      "dly": 995,
      "tics": 996,
      "▁phase": 997,
      "▁arrange": 998,
      "▁characteris": 999,
      "▁rein": 1000,
      "ody": 1001,
      "▁nume": 1002,
      "▁television": 1003,
      "ton": 1004,
      "▁firm": 1005,
      "art": 1006,
      "▁mig": 1007,
      "aces": 1008,
      "▁teeth": 1009,
      "▁wh": 1010,
      "▁afric": 1011,
      "abb": 1012,
      "▁spiders": 1013,
      "▁swee": 1014,
      "▁holds": 1015,
      "▁bric": 1016,
      "▁telephone": 1017,
      "den": 1018,
      "▁jur": 1019,
      "▁welfare": 1020,
      "lin": 1021,
      "▁assemb": 1022,
      "▁cats": 1023,
      "▁microscope": 1024,
      "/200": 1025,
      "cause": 1026,
      "▁shut": 1027,
      "artment": 1028,
      "▁discussion": 1029,
      "▁pockets": 1030,
      "ages": 1031,
      "rying": 1032,
      "▁models": 1033,
      "▁asking": 1034,
      "▁containing": 1035,
      "▁cookies": 1036,
      "▁ca": 1037,
      "▁hide": 1038,
      "▁debated": 1039,
      "▁seeds": 1040,
      "▁purpos": 1041,
      "▁thre": 1042,
      "▁spirit": 1043,
      "▁pron": 1044,
      "▁som": 1045,
      "izes": 1046,
      "▁vegetables": 1047,
      "▁agencies": 1048,
      "▁solution": 1049,
      "▁waiver": 1050,
      "ibilities": 1051,
      "▁test": 1052,
      "++": 1053,
      "imore": 1054,
      "▁under": 1055,
      "▁workforce": 1056,
      "▁curr": 1057,
      "▁theat": 1058,
      "▁implementing": 1059,
      "▁rob": 1060,
      "▁dinosaurs": 1061,
      "rently": 1062,
      "▁rental": 1063,
      "▁plate": 1064,
      "▁traders": 1065,
      "▁influenced": 1066,
      "▁windows": 1067,
      "pathy": 1068,
      "▁clothing": 1069,
      "▁blew": 1070,
      "town": 1071,
      "▁files": 1072,
      "▁tips": 1073,
      "%": 1074,
      "ver": 1075,
      "vation": 1076,
      "ye": 1077,
      "▁recognized": 1078,
      "▁female": 1079,
      "fer": 1080,
      "ender": 1081,
      "▁archit": 1082,
      "temp": 1083,
      "▁defin": 1084,
      "▁me": 1085,
      "▁id": 1086,
      "▁scene": 1087,
      "▁waters": 1088,
      "▁meetings": 1089,
      "aid": 1090,
      "ted": 1091,
      "▁russ": 1092,
      "▁detroit": 1093,
      "▁programme": 1094,
      "▁indianapolis": 1095,
      "93": 1096,
      "▁particular": 1097,
      "▁reported": 1098,
      "▁stop": 1099,
      "▁missed": 1100,
      "▁profit": 1101,
      "▁suggest": 1102,
      "▁uhhuh": 1103,
      "▁expression": 1104,
      "▁such": 1105,
      "attered": 1106,
      "▁sweater": 1107,
      "▁lives": 1108,
      "▁behavi": 1109,
      "▁mother": 1110,
      "▁pretending": 1111,
      "▁itself": 1112,
      "▁still": 1113,
      "▁bear": 1114,
      "▁var": 1115,
      "▁intervention": 1116,
      "▁concepts": 1117,
      "▁alt": 1118,
      "▁yourself": 1119,
      "atures": 1120,
      "▁parliament": 1121,
      "ield": 1122,
      "▁fash": 1123,
      "enda": 1124,
      "▁compete": 1125,
      "▁bubbles": 1126,
      "▁besides": 1127,
      "▁scenes": 1128,
      "ka": 1129,
      "▁vote": 1130,
      "lief": 1131,
      "▁shopping": 1132,
      "▁meeting": 1133,
      "▁suicide": 1134,
      "ucks": 1135,
      "-------": 1136,
      "▁charl": 1137,
      "▁coordination": 1138,
      "▁eval": 1139,
      "▁lots": 1140,
      "▁from": 1141,
      "▁jews": 1142,
      "▁words": 1143,
      "▁seat": 1144,
      "▁remembered": 1145,
      "▁bill": 1146,
      "▁fir": 1147,
      "▁thanks": 1148,
      "amole": 1149,
      "ields": 1150,
      "ck": 1151,
      "▁bits": 1152,
      "ach": 1153,
      "ust": 1154,
      "▁coup": 1155,
      "▁assessing": 1156,
      "▁taxes": 1157,
      "▁hoof": 1158,
      "▁bean": 1159,
      "▁leash": 1160,
      "orted": 1161,
      "▁photograph": 1162,
      "rectly": 1163,
      "▁provide": 1164,
      "▁burn": 1165,
      "▁democracy": 1166,
      "▁votes": 1167,
      "ected": 1168,
      "▁burden": 1169,
      "▁pa": 1170,
      "▁contained": 1171,
      "▁feel": 1172,
      "▁feet": 1173,
      "▁generation": 1174,
      "▁sy": 1175,
      "elled": 1176,
      "mped": 1177,
      "abit": 1178,
      "▁barrel": 1179,
      "▁assault": 1180,
      "ct": 1181,
      "▁bil": 1182,
      "▁grapes": 1183,
      "▁cooking": 1184,
      "▁location": 1185,
      "▁junk": 1186,
      "▁trunk": 1187,
      "au": 1188,
      "iece": 1189,
      "▁fur": 1190,
      "▁dism": 1191,
      "▁enthusi": 1192,
      "▁therefore": 1193,
      "ron": 1194,
      "▁mod": 1195,
      "▁pittsburgh": 1196,
      "▁angel": 1197,
      "kle": 1198,
      "▁get": 1199,
      "oll": 1200,
      "ʒ": 1201,
      "▁hole": 1202,
      "▁‘": 1203,
      "▁pocketbook": 1204,
      "▁store": 1205,
      "▁anywhere": 1206,
      "0s": 1207,
      "▁fung": 1208,
      "▁shade": 1209,
      "▁flavor": 1210,
      "usted": 1211,
      "▁method": 1212,
      "ival": 1213,
      "▁dogs": 1214,
      "▁categories": 1215,
      "▁circ": 1216,
      "▁cream": 1217,
      "enc": 1218,
      "▁pir": 1219,
      "▁s": 1220,
      "▁pay": 1221,
      "und": 1222,
      "▁dry": 1223,
      "▁flew": 1224,
      "▁search": 1225,
      "▁sake": 1226,
      "acter": 1227,
      "▁washing": 1228,
      "==": 1229,
      "ch": 1230,
      "ression": 1231,
      "ω": 1232,
      "osing": 1233,
      "▁assass": 1234,
      "▁released": 1235,
      "▁fries": 1236,
      "▁connected": 1237,
      "pond": 1238,
      "▁harmonisation": 1239,
      "▁weapon": 1240,
      "▁habit": 1241,
      "▁nation": 1242,
      "▁jul": 1243,
      "▁partner": 1244,
      "ulation": 1245,
      "▁cabinet": 1246,
      "tification": 1247,
      "▁dem": 1248,
      "iction": 1249,
      "▁endeav": 1250,
      "aos": 1251,
      "▁tiny": 1252,
      "stances": 1253,
      "▁jud": 1254,
      "▁20": 1255,
      "▁persu": 1256,
      "▁generations": 1257,
      "▁card": 1258,
      "ounts": 1259,
      "▁discus": 1260,
      "▁contributed": 1261,
      "gets": 1262,
      "▁explan": 1263,
      "▁ro": 1264,
      "esting": 1265,
      "▁relation": 1266,
      "▁tech": 1267,
      "▁minus": 1268,
      "nect": 1269,
      "▁inclu": 1270,
      "▁emerging": 1271,
      "▁narr": 1272,
      "▁understood": 1273,
      "▁ladies": 1274,
      "▁bearing": 1275,
      "▁paths": 1276,
      "▁sheep": 1277,
      "▁wel": 1278,
      "▁pros": 1279,
      "▁talking": 1280,
      "urop": 1281,
      "ithstanding": 1282,
      "▁remain": 1283,
      "▁makes": 1284,
      "ato": 1285,
      "▁declined": 1286,
      "▁declared": 1287,
      "qu": 1288,
      "1": 1289,
      "▁isl": 1290,
      "▁walls": 1291,
      "▁trading": 1292,
      "▁statute": 1293,
      "icate": 1294,
      "ock": 1295,
      "▁launch": 1296,
      "▁regar": 1297,
      "!!!": 1298,
      "▁appearance": 1299,
      "oir": 1300,
      "gle": 1301,
      "▁hav": 1302,
      "▁forth": 1303,
      "▁tutor": 1304,
      "ords": 1305,
      "▁ability": 1306,
      "▁uncle": 1307,
      "▁collected": 1308,
      "▁difficulty": 1309,
      "og": 1310,
      "▁nail": 1311,
      "po": 1312,
      "▁speaking": 1313,
      "▁summer": 1314,
      "▁apartment": 1315,
      "▁beaches": 1316,
      "▁carried": 1317,
      "af": 1318,
      "▁grew": 1319,
      "▁instructor": 1320,
      "▁ten": 1321,
      "▁periods": 1322,
      "▁capt": 1323,
      "▁chem": 1324,
      "asm": 1325,
      "▁confid": 1326,
      "ger": 1327,
      "▁propos": 1328,
      "▁swe": 1329,
      "▁administrator": 1330,
      "▁disease": 1331,
      "▁checked": 1332,
      "▁ants": 1333,
      "▁bedroom": 1334,
      "▁gram": 1335,
      "▁functions": 1336,
      "▁hos": 1337,
      "▁cor": 1338,
      "▁see": 1339,
      "▁neighborhood": 1340,
      "roph": 1341,
      "▁ben": 1342,
      "ography": 1343,
      "▁joh": 1344,
      "▁visa": 1345,
      "west": 1346,
      "▁pover": 1347,
      "▁prosec": 1348,
      "▁ai": 1349,
      "▁container": 1350,
      "▁lands": 1351,
      "▁pri": 1352,
      "son": 1353,
      "▁trends": 1354,
      "▁option": 1355,
      "▁response": 1356,
      "▁located": 1357,
      "▁publication": 1358,
      "ration": 1359,
      "▁pumpkin": 1360,
      "▁innovations": 1361,
      "▁bom": 1362,
      "▁congratulations": 1363,
      "▁congratulate": 1364,
      "▁loves": 1365,
      "appy": 1366,
      "▁immigration": 1367,
      "pre": 1368,
      "▁teaching": 1369,
      "▁dad": 1370,
      "▁ide": 1371,
      "▁spent": 1372,
      "▁preven": 1373,
      "▁public": 1374,
      "ills": 1375,
      "▁possibilities": 1376,
      "▁focus": 1377,
      "▁mice": 1378,
      "▁underneath": 1379,
      "▁associate": 1380,
      "▁eff": 1381,
      "▁reasons": 1382,
      "▁hed": 1383,
      "▁seek": 1384,
      "e": 1385,
      "ud": 1386,
      "▁towns": 1387,
      "▁luck": 1388,
      "▁minds": 1389,
      "▁disl": 1390,
      "ark": 1391,
      "▁campus": 1392,
      "▁dining": 1393,
      "sually": 1394,
      "▁trouble": 1395,
      "ili": 1396,
      "▁section": 1397,
      "uff": 1398,
      "▁secretary": 1399,
      "enture": 1400,
      "▁operate": 1401,
      "fare": 1402,
      "▁frag": 1403,
      "▁temperature": 1404,
      "▁prin": 1405,
      "▁shipped": 1406,
      "▁revised": 1407,
      "▁properties": 1408,
      "▁government": 1409,
      "▁military": 1410,
      "▁adv": 1411,
      "duction": 1412,
      "▁corp": 1413,
      "ano": 1414,
      "erating": 1415,
      "▁while": 1416,
      "▁her": 1417,
      "eli": 1418,
      "▁citizen": 1419,
      "­": 1420,
      "▁syrup": 1421,
      "▁ones": 1422,
      "▁diseas": 1423,
      "▁ship": 1424,
      "▁approval": 1425,
      "▁concl": 1426,
      "▁prevail": 1427,
      "▁themes": 1428,
      "sul": 1429,
      "ature": 1430,
      "▁...............": 1431,
      "irt": 1432,
      "▁care": 1433,
      "▁hit": 1434,
      "ires": 1435,
      "▁cases": 1436,
      "lication": 1437,
      "▁pride": 1438,
      "▁wee": 1439,
      "▁bike": 1440,
      "rel": 1441,
      "▁camera": 1442,
      "▁cereal": 1443,
      "▁organ": 1444,
      "▁insp": 1445,
      "▁resear": 1446,
      "▁sauce": 1447,
      "▁conn": 1448,
      "ɔ": 1449,
      "▁possibility": 1450,
      "▁n't": 1451,
      "▁banks": 1452,
      "▁lessons": 1453,
      "▁item": 1454,
      "+": 1455,
      "ober": 1456,
      "▁combination": 1457,
      "▁repres": 1458,
      "▁argued": 1459,
      "▁magn": 1460,
      "▁chec": 1461,
      "▁conserv": 1462,
      "▁sus": 1463,
      "▁sup": 1464,
      "▁laugh": 1465,
      "▁subject": 1466,
      "▁estim": 1467,
      "▁fighting": 1468,
      "▁ge": 1469,
      "ously": 1470,
      "▁colleag": 1471,
      "▁killing": 1472,
      "ing": 1473,
      "ruc": 1474,
      "▁trave": 1475,
      "▁designer": 1476,
      "▁oper": 1477,
      "oving": 1478,
      "▁em": 1479,
      "▁insight": 1480,
      "fully": 1481,
      "py": 1482,
      "aged": 1483,
      "▁recipe": 1484,
      "▁groups": 1485,
      "▁**********": 1486,
      "▁shel": 1487,
      "x": 1488,
      "▁friend": 1489,
      "ace": 1490,
      "▁thinking": 1491,
      "▁opposition": 1492,
      "▁student": 1493,
      "▁living": 1494,
      "▁topic": 1495,
      "▁recorder": 1496,
      "gl": 1497,
      "▁those": 1498,
      "▁exploration": 1499,
      "▁suggesting": 1500,
      "tr": 1501,
      "jection": 1502,
      "▁sett": 1503,
      "ound": 1504,
      "aks": 1505,
      "▁rac": 1506,
      "▁monit": 1507,
      "eted": 1508,
      "▁suppl": 1509,
      "▁adapted": 1510,
      "▁principles": 1511,
      "▁frequ": 1512,
      "▁**": 1513,
      "ci": 1514,
      "red": 1515,
      "▁bell": 1516,
      "inking": 1517,
      "ager": 1518,
      "lions": 1519,
      "▁states": 1520,
      "ity": 1521,
      "▁limous": 1522,
      "▁motiv": 1523,
      "ession": 1524,
      "lem": 1525,
      "mos": 1526,
      "▁mummy": 1527,
      "▁longer": 1528,
      "▁oak": 1529,
      ".d": 1530,
      "▁therap": 1531,
      "▁knoc": 1532,
      "j": 1533,
      "▁risk": 1534,
      "▁ac": 1535,
      "▁colors": 1536,
      "▁perio": 1537,
      "▁princip": 1538,
      "▁prepared": 1539,
      "▁lighting": 1540,
      "row": 1541,
      "▁pounds": 1542,
      "▁foods": 1543,
      "ur": 1544,
      "▁working": 1545,
      "▁diseases": 1546,
      "▁judge": 1547,
      "▁fac": 1548,
      "▁distric": 1549,
      "▁bulld": 1550,
      "▁guarantee": 1551,
      "▁st": 1552,
      "▁operation": 1553,
      "▁statistics": 1554,
      "▁contributions": 1555,
      "ored": 1556,
      "▁ducks": 1557,
      "▁femur": 1558,
      "▁election": 1559,
      "uration": 1560,
      "▁counterparty": 1561,
      "azed": 1562,
      "▁trip": 1563,
      "▁testing": 1564,
      "▁kinds": 1565,
      "▁fl": 1566,
      "▁chocolate": 1567,
      "▁player": 1568,
      "▁bags": 1569,
      "mes": 1570,
      "▁claim": 1571,
      "▁init": 1572,
      "▁treated": 1573,
      "▁arch": 1574,
      "▁ep": 1575,
      "▁milwaukee": 1576,
      "▁material": 1577,
      "aganda": 1578,
      "▁horses": 1579,
      "▁-----------------------------------------------------------------------": 1580,
      "whether": 1581,
      "▁till": 1582,
      "▁lets": 1583,
      "▁recru": 1584,
      "▁better": 1585,
      "▁pref": 1586,
      "▁mathematics": 1587,
      "▁protection": 1588,
      "▁right": 1589,
      "▁sh": 1590,
      "▁sust": 1591,
      "#": 1592,
      "▁hum": 1593,
      "arture": 1594,
      "▁peanut": 1595,
      "▁loved": 1596,
      "▁stretch": 1597,
      "▁pages": 1598,
      "▁finding": 1599,
      "self": 1600,
      "▁boom": 1601,
      "fin": 1602,
      "ands": 1603,
      "acy": 1604,
      "▁settle": 1605,
      "▁pennies": 1606,
      "tic": 1607,
      "▁deb": 1608,
      "▁promote": 1609,
      "▁leave": 1610,
      "▁fallen": 1611,
      "▁analyses": 1612,
      "▁comedy": 1613,
      "▁fire": 1614,
      "▁expectations": 1615,
      "▁scul": 1616,
      "▁trou": 1617,
      "▁phenomenon": 1618,
      "▁introducing": 1619,
      "▁fight": 1620,
      "▁mistake": 1621,
      "▁boot": 1622,
      "essing": 1623,
      "▁forb": 1624,
      "▁title": 1625,
      "▁shirts": 1626,
      "ax": 1627,
      "▁environment": 1628,
      "▁resour": 1629,
      "▁bottle": 1630,
      "▁tables": 1631,
      "tes": 1632,
      "bles": 1633,
      "▁exchang": 1634,
      "▁pipeline": 1635,
      "▁offer": 1636,
      "▁ballet": 1637,
      "▁birds": 1638,
      "▁lawyer": 1639,
      "▁drove": 1640,
      "▁condem": 1641,
      "▁'": 1642,
      "▁edition": 1643,
      "rib": 1644,
      "▁self": 1645,
      "eared": 1646,
      "▁destroy": 1647,
      "▁astride": 1648,
      "▁repl": 1649,
      "▁dust": 1650,
      "▁definitely": 1651,
      "▁black": 1652,
      "▁sol": 1653,
      "▁off": 1654,
      "▁discussing": 1655,
      "▁ban": 1656,
      "▁ag": 1657,
      "ster": 1658,
      "acket": 1659,
      "▁keeping": 1660,
      "▁midnight": 1661,
      "▁hours": 1662,
      "tainly": 1663,
      "ording": 1664,
      "ital": 1665,
      "omer": 1666,
      "▁sky": 1667,
      "▁dark": 1668,
      "nec": 1669,
      "▁target": 1670,
      "▁celebr": 1671,
      "▁need": 1672,
      "▁vi": 1673,
      "▁gained": 1674,
      "anded": 1675,
      "▁ambul": 1676,
      "▁other": 1677,
      "30": 1678,
      "inter": 1679,
      "▁covered": 1680,
      "▁mixed": 1681,
      "▁phr": 1682,
      "▁blog": 1683,
      "▁cab": 1684,
      "▁imm": 1685,
      "▁scen": 1686,
      "▁requ": 1687,
      "▁reef": 1688,
      "//": 1689,
      "ssi": 1690,
      ".xls": 1691,
      "iac": 1692,
      "▁fear": 1693,
      "▁pyram": 1694,
      "**********************************": 1695,
      "▁attemp": 1696,
      "▁connecting": 1697,
      "▁too": 1698,
      "▁instructions": 1699,
      "lights": 1700,
      "▁spos": 1701,
      "al": 1702,
      "▁buildings": 1703,
      "ologies": 1704,
      "▁americ": 1705,
      "▁decline": 1706,
      "▁texts": 1707,
      "▁rain": 1708,
      "titudes": 1709,
      "▁statement": 1710,
      "▁string": 1711,
      "aked": 1712,
      "▁swa": 1713,
      "eg": 1714,
      "ulture": 1715,
      "▁programmes": 1716,
      "▁smoke": 1717,
      "here": 1718,
      "▁gd": 1719,
      "▁hate": 1720,
      "action": 1721,
      "ab": 1722,
      "▁wizard": 1723,
      "▁negotiations": 1724,
      "▁~": 1725,
      "▁case": 1726,
      "▁alliance": 1727,
      "sters": 1728,
      "ued": 1729,
      "▁round": 1730,
      "orth": 1731,
      "▁language": 1732,
      "▁products": 1733,
      "▁unity": 1734,
      "▁super": 1735,
      "otes": 1736,
      "▁patience": 1737,
      "▁european": 1738,
      "▁gold": 1739,
      "ush": 1740,
      "▁total": 1741,
      "▁fares": 1742,
      "veland": 1743,
      "▁tip": 1744,
      "▁invest": 1745,
      "▁tun": 1746,
      "▁dollar": 1747,
      "▁then": 1748,
      "ety": 1749,
      "▁assistance": 1750,
      "▁played": 1751,
      "ning": 1752,
      "▁passed": 1753,
      "asses": 1754,
      "que": 1755,
      "▁investigate": 1756,
      "▁shared": 1757,
      "uling": 1758,
      "▁foot": 1759,
      "▁jam": 1760,
      "▁drag": 1761,
      "ular": 1762,
      "▁backs": 1763,
      "▁pool": 1764,
      "ilar": 1765,
      "ride": 1766,
      "▁pizza": 1767,
      "▁tor": 1768,
      "▁acquired": 1769,
      "?": 1770,
      "▁emergency": 1771,
      "▁qui": 1772,
      "▁written": 1773,
      "▁burst": 1774,
      "▁wearing": 1775,
      "th": 1776,
      "▁american": 1777,
      "▁i": 1778,
      "▁establishing": 1779,
      "uzz": 1780,
      "eal": 1781,
      "▁theater": 1782,
      "▁lear": 1783,
      "▁variety": 1784,
      "▁agreements": 1785,
      "▁compos": 1786,
      "lications": 1787,
      "▁enem": 1788,
      "_": 1789,
      "▁kar": 1790,
      "▁cock": 1791,
      "ency": 1792,
      "▁dish": 1793,
      "▁flat": 1794,
      "▁rope": 1795,
      "▁young": 1796,
      "tally": 1797,
      "▁boo": 1798,
      "▁cand": 1799,
      "ounded": 1800,
      "bre": 1801,
      "▁smiling": 1802,
      "▁lifted": 1803,
      "▁session": 1804,
      "▁tam": 1805,
      "▁conditions": 1806,
      "ants": 1807,
      "▁hund": 1808,
      "▁frozen": 1809,
      "▁every": 1810,
      "▁virus": 1811,
      "▁whether": 1812,
      "enom": 1813,
      "▁abs": 1814,
      "▁essence": 1815,
      "▁cry": 1816,
      "▁gro": 1817,
      "▁conference": 1818,
      "gs": 1819,
      "▁since": 1820,
      "iated": 1821,
      "▁inte": 1822,
      "▁adult": 1823,
      "▁weekend": 1824,
      "▁ladder": 1825,
      "▁positions": 1826,
      "▁extension": 1827,
      "ine": 1828,
      "▁week": 1829,
      "▁detective": 1830,
      "▁attributed": 1831,
      "ι": 1832,
      "▁destination": 1833,
      "\"": 1834,
      "▁rabb": 1835,
      "adas": 1836,
      "▁restriction": 1837,
      "▁references": 1838,
      "▁facil": 1839,
      "▁ham": 1840,
      "ht": 1841,
      "▁point": 1842,
      "▁m": 1843,
      "dit": 1844,
      "ustration": 1845,
      "▁boil": 1846,
      "▁actors": 1847,
      "▁england": 1848,
      "▁drug": 1849,
      "▁wednesday": 1850,
      "▁organizations": 1851,
      "▁nonstop": 1852,
      "▁administration": 1853,
      "▁ignored": 1854,
      "ologists": 1855,
      "▁tasted": 1856,
      "▁legislature": 1857,
      "▁show": 1858,
      "▁recipient": 1859,
      "ɑ": 1860,
      "▁thought": 1861,
      "▁sheet": 1862,
      "▁appreciated": 1863,
      "▁ve": 1864,
      ",000": 1865,
      "▁financ": 1866,
      "▁power": 1867,
      "▁mode": 1868,
      "▁soda": 1869,
      "▁kicked": 1870,
      "▁laughing": 1871,
      "▁fee": 1872,
      "▁mouse": 1873,
      "▁******************************************************************": 1874,
      "▁harm": 1875,
      "▁belly": 1876,
      "▁depends": 1877,
      "▁pupp": 1878,
      "▁assuming": 1879,
      "▁payments": 1880,
      "▁clay": 1881,
      "▁argue": 1882,
      "▁ears": 1883,
      "▁stranger": 1884,
      "▁palace": 1885,
      "#693": 1886,
      "▁crush": 1887,
      "▁stood": 1888,
      "ves": 1889,
      "▁memory": 1890,
      "▁soli": 1891,
      "ceptions": 1892,
      "▁marshmall": 1893,
      "ogn": 1894,
      "▁supermarket": 1895,
      "▁audio": 1896,
      "ount": 1897,
      "▁’re": 1898,
      "augh": 1899,
      "▁book": 1900,
      "▁ver": 1901,
      "om": 1902,
      "ghts": 1903,
      "▁skip": 1904,
      "▁ordered": 1905,
      "face": 1906,
      "aste": 1907,
      "pl": 1908,
      "@": 1909,
      "▁sac": 1910,
      "▁necess": 1911,
      "▁territory": 1912,
      "▁voices": 1913,
      "uc": 1914,
      "▁requi": 1915,
      "▁dom": 1916,
      "▁bod": 1917,
      "▁stores": 1918,
      "▁slide": 1919,
      "▁membership": 1920,
      "▁sail": 1921,
      "▁children": 1922,
      "▁sp": 1923,
      "ative": 1924,
      "▁considering": 1925,
      "▁switch": 1926,
      "▁experts": 1927,
      "ʁ": 1928,
      "▁recog": 1929,
      "irts": 1930,
      "▁urs": 1931,
      "▁dere": 1932,
      "▁dead": 1933,
      "aps": 1934,
      "uth": 1935,
      "ase": 1936,
      "▁dign": 1937,
      "▁composition": 1938,
      "▁tickle": 1939,
      "▁grow": 1940,
      "▁bought": 1941,
      "mented": 1942,
      "▁him": 1943,
      "▁harry": 1944,
      "▁doubts": 1945,
      "▁month": 1946,
      "▁clo": 1947,
      "▁.....": 1948,
      "iny": 1949,
      "▁applied": 1950,
      "▁refl": 1951,
      "▁least": 1952,
      "▁greet": 1953,
      "▁pin": 1954,
      "▁verif": 1955,
      "▁dates": 1956,
      "▁reserves": 1957,
      "▁main": 1958,
      "kn": 1959,
      "n": 1960,
      "▁ped": 1961,
      "ivid": 1962,
      "▁personal": 1963,
      "▁!!!": 1964,
      "okes": 1965,
      "▁conducted": 1966,
      "teries": 1967,
      "mely": 1968,
      "inate": 1969,
      "▁none": 1970,
      "▁ele": 1971,
      "▁twenty": 1972,
      "▁hidden": 1973,
      "▁iss": 1974,
      "▁interpreted": 1975,
      "▁traged": 1976,
      "▁begun": 1977,
      "▁lantern": 1978,
      "▁mirror": 1979,
      "urday": 1980,
      "anc": 1981,
      "------": 1982,
      "▁polaroids": 1983,
      "▁supply": 1984,
      "▁sometime": 1985,
      "▁gather": 1986,
      "▁was": 1987,
      "▁director": 1988,
      "▁fork": 1989,
      "▁maintained": 1990,
      "▁notebook": 1991,
      "▁cer": 1992,
      "▁play+": 1993,
      "atisfaction": 1994,
      "▁forget": 1995,
      "▁meow": 1996,
      "ag": 1997,
      "▁societies": 1998,
      "▁moment": 1999,
      "▁application": 2000,
      "▁'ve": 2001,
      "mar": 2002,
      "▁learning": 2003,
      "ts": 2004,
      "acting": 2005,
      "▁pair": 2006,
      "▁cash": 2007,
      "med": 2008,
      "oods": 2009,
      "▁turned": 2010,
      "▁starts": 2011,
      "perity": 2012,
      "▁uk": 2013,
      "▁pillow": 2014,
      "▁sept": 2015,
      ".m": 2016,
      "iling": 2017,
      "▁snack": 2018,
      "▁knife": 2019,
      "ukee": 2020,
      "ology": 2021,
      "▁quick": 2022,
      "▁foll": 2023,
      "▁heard": 2024,
      "▁poc": 2025,
      "ality": 2026,
      "▁u.": 2027,
      "▁maintenance": 2028,
      "cr": 2029,
      "▁roof": 2030,
      "▁destroyed": 2031,
      "▁ticket": 2032,
      "ateg": 2033,
      "▁moon": 2034,
      "iti": 2035,
      "minated": 2036,
      "▁on": 2037,
      "▁]": 2038,
      "▁cars": 2039,
      "▁fulf": 2040,
      "ged": 2041,
      "▁contract": 2042,
      "portun": 2043,
      "▁frame": 2044,
      "▁wrap": 2045,
      "▁possession": 2046,
      "inally": 2047,
      "▁incom": 2048,
      "h": 2049,
      "▁fungi": 2050,
      "aping": 2051,
      "▁relationships": 2052,
      "gging": 2053,
      "▁by": 2054,
      "ping": 2055,
      "▁cross": 2056,
      "▁honey": 2057,
      "▁’ve": 2058,
      "▁mis": 2059,
      "orized": 2060,
      "land": 2061,
      "igration": 2062,
      "▁whom": 2063,
      "▁tv": 2064,
      "▁flood": 2065,
      "▁millions": 2066,
      "ung": 2067,
      "▁conse": 2068,
      "▁define": 2069,
      "▁later": 2070,
      "▁bor": 2071,
      "▁syn": 2072,
      "▁port": 2073,
      "▁time": 2074,
      "▁traveler": 2075,
      "▁debate": 2076,
      "▁columb": 2077,
      "▁explanation": 2078,
      "▁pr": 2079,
      "▁nights": 2080,
      "ind": 2081,
      "▁america": 2082,
      "????": 2083,
      "riendly": 2084,
      "itical": 2085,
      "▁anth": 2086,
      "▁balance": 2087,
      "▁controls": 2088,
      "▁shop": 2089,
      "eces": 2090,
      "▁recip": 2091,
      "▁restri": 2092,
      "▁ad": 2093,
      "idden": 2094,
      "bb": 2095,
      "icked": 2096,
      "▁staying": 2097,
      "▁depart": 2098,
      "▁parents": 2099,
      "▁existence": 2100,
      "▁surv": 2101,
      "▁tub": 2102,
      "care": 2103,
      "▁pittsbur": 2104,
      "▁before": 2105,
      "▁mayonna": 2106,
      "ased": 2107,
      "▁joined": 2108,
      "▁last": 2109,
      "▁resulting": 2110,
      "▁chosen": 2111,
      "▁lettuce": 2112,
      "▁unless": 2113,
      "▁ski": 2114,
      "pd": 2115,
      "▁standing": 2116,
      "▁wear": 2117,
      "…": 2118,
      "▁addressed": 2119,
      "▁period": 2120,
      "▁sear": 2121,
      "▁enjoying": 2122,
      "ertain": 2123,
      "▁ear": 2124,
      "▁priv": 2125,
      "▁sod": 2126,
      "▁poll": 2127,
      "ess": 2128,
      "▁mor": 2129,
      "enix": 2130,
      "zing": 2131,
      "▁consideration": 2132,
      "▁geomet": 2133,
      "icular": 2134,
      "ril": 2135,
      "▁committed": 2136,
      "▁smelled": 2137,
      "▁code": 2138,
      "▁ap": 2139,
      "▁quinoa": 2140,
      "▁progress": 2141,
      "▁free": 2142,
      "▁ph": 2143,
      "▁club": 2144,
      "ven": 2145,
      "corn": 2146,
      "▁sunsh": 2147,
      "ester": 2148,
      "anger": 2149,
      "▁dow": 2150,
      "▁toilet": 2151,
      "ape": 2152,
      "▁experim": 2153,
      "▁law": 2154,
      "▁sleep": 2155,
      "olved": 2156,
      "▁funeral": 2157,
      "▁attempting": 2158,
      "▁arab": 2159,
      "▁divers": 2160,
      "▁handled": 2161,
      "--------": 2162,
      "▁photo": 2163,
      "▁macaroni": 2164,
      "inus": 2165,
      "ooks": 2166,
      "▁rights": 2167,
      "uscri": 2168,
      "▁needed": 2169,
      "▁watching": 2170,
      "▁coupons": 2171,
      "ably": 2172,
      "ving": 2173,
      "▁accepted": 2174,
      "▁vine": 2175,
      "▁drinking": 2176,
      "co": 2177,
      "▁16": 2178,
      "▁sc": 2179,
      "nch": 2180,
      "▁kn": 2181,
      "▁incorporated": 2182,
      "▁candid": 2183,
      "ea": 2184,
      "▁hill": 2185,
      "alism": 2186,
      "▁ov": 2187,
      "▁eas": 2188,
      "–": 2189,
      "▁mornings": 2190,
      "▁yog": 2191,
      "▁strip": 2192,
      "ville": 2193,
      "▁bottles": 2194,
      "▁avoiding": 2195,
      "▁lesson": 2196,
      "▁sight": 2197,
      "▁nose": 2198,
      "oked": 2199,
      "▁tail": 2200,
      "▁b/c": 2201,
      "ults": 2202,
      "▁fields": 2203,
      "▁beard": 2204,
      "▁tac": 2205,
      "imum": 2206,
      "▁waiter": 2207,
      "▁corn": 2208,
      "▁regime": 2209,
      "▁addiction": 2210,
      "▁bag": 2211,
      "▁mater": 2212,
      "▁illust": 2213,
      "uch": 2214,
      "▁jew": 2215,
      "▁vessel": 2216,
      "▁breakfast": 2217,
      "▁regions": 2218,
      "▁agree": 2219,
      "▁shift": 2220,
      "▁in": 2221,
      "lers": 2222,
      "▁stayed": 2223,
      "▁sons": 2224,
      "ost": 2225,
      "met": 2226,
      "▁j": 2227,
      "▁number": 2228,
      "▁wilt": 2229,
      "ective": 2230,
      "▁meas": 2231,
      "▁add": 2232,
      "▁belongs": 2233,
      "▁refrigerator": 2234,
      "▁returned": 2235,
      "▁hands": 2236,
      "▁order": 2237,
      "▁documents": 2238,
      "ference": 2239,
      "lly": 2240,
      "▁break": 2241,
      "▁toward": 2242,
      "▁lawy": 2243,
      "▁attempts": 2244,
      "▁insects": 2245,
      "nel": 2246,
      "▁about": 2247,
      "▁’": 2248,
      "ees": 2249,
      "▁update": 2250,
      "operation": 2251,
      "oxide": 2252,
      "▁ir": 2253,
      "▁p": 2254,
      "ec": 2255,
      "▁pract": 2256,
      "▁engineering": 2257,
      "▁trav": 2258,
      "▁bound": 2259,
      "▁poor": 2260,
      "viously": 2261,
      "ticks": 2262,
      "▁tens": 2263,
      "▁veg": 2264,
      "▁cond": 2265,
      "tie": 2266,
      "▁depend": 2267,
      "▁special": 2268,
      "▁guards": 2269,
      "▁---------------------------------": 2270,
      "▁trained": 2271,
      "▁nav": 2272,
      "tering": 2273,
      "di": 2274,
      "▁dated": 2275,
      "itation": 2276,
      "▁atop": 2277,
      "▁united": 2278,
      "▁http://www": 2279,
      "▁unles": 2280,
      "▁swimming": 2281,
      "▁computers": 2282,
      "ailed": 2283,
      "▁explain": 2284,
      "▁exception": 2285,
      "▁flex": 2286,
      "▁highl": 2287,
      "▁abandoned": 2288,
      "$": 2289,
      "head": 2290,
      "▁assured": 2291,
      "▁imagined": 2292,
      "▁resistance": 2293,
      "imed": 2294,
      "▁called": 2295,
      "eign": 2296,
      "▁chicken": 2297,
      "▁s’": 2298,
      "▁opportunity": 2299,
      "▁standards": 2300,
      "▁ours": 2301,
      "▁prosp": 2302,
      "▁helping": 2303,
      "ening": 2304,
      "▁factory": 2305,
      "▁jellyfish": 2306,
      "▁paperwork": 2307,
      "ums": 2308,
      "▁options": 2309,
      "▁females": 2310,
      "▁wants": 2311,
      "▁pig": 2312,
      "▁readers": 2313,
      "▁av": 2314,
      "▁wol": 2315,
      "▁o": 2316,
      "▁format": 2317,
      "▁disp": 2318,
      "▁face": 2319,
      "urn": 2320,
      "▁knowing": 2321,
      "ections": 2322,
      "ero": 2323,
      "▁job": 2324,
      "▁going": 2325,
      "ense": 2326,
      "▁monarch": 2327,
      "▁brought": 2328,
      "▁continued": 2329,
      "▁premium": 2330,
      "▁oz": 2331,
      "▁recommendation": 2332,
      "▁wand": 2333,
      "▁anyone": 2334,
      "▁facilities": 2335,
      "▁reas": 2336,
      "▁average": 2337,
      "alty": 2338,
      "▁limited": 2339,
      "▁ab": 2340,
      "▁mov": 2341,
      "▁tongue": 2342,
      "▁kill": 2343,
      "▁everybody": 2344,
      "▁destruction": 2345,
      "▁candle": 2346,
      "▁treatments": 2347,
      "▁hire": 2348,
      "▁export": 2349,
      "▁restaurant": 2350,
      "book": 2351,
      "ana": 2352,
      "▁money": 2353,
      "▁jwww": 2354,
      "▁constitu": 2355,
      "▁rapporteur": 2356,
      "▁family": 2357,
      "▁sting": 2358,
      "▁representative": 2359,
      "▁lat": 2360,
      "bow": 2361,
      "▁nature": 2362,
      "▁exa": 2363,
      "▁during": 2364,
      "fir": 2365,
      "▁tha": 2366,
      "ently": 2367,
      "tions": 2368,
      "elt": 2369,
      "▁tomatoes": 2370,
      "ro": 2371,
      "▁beginning": 2372,
      "▁champ": 2373,
      "oard": 2374,
      "apes": 2375,
      "▁oppose": 2376,
      "▁stre": 2377,
      "▁sandwic": 2378,
      "▁rode": 2379,
      "▁apprec": 2380,
      "down": 2381,
      "ican": 2382,
      "▁construc": 2383,
      "▁california": 2384,
      "▁cage": 2385,
      "▁receive": 2386,
      "▁dam": 2387,
      "▁voted": 2388,
      "▁bunny": 2389,
      "▁april": 2390,
      "▁balances": 2391,
      "onds": 2392,
      "▁funny": 2393,
      "▁imp": 2394,
      "▁sure": 2395,
      "▁4": 2396,
      "▁ow": 2397,
      "▁audit": 2398,
      "▁welc": 2399,
      "▁scienti": 2400,
      "▁rapporte": 2401,
      "▁respons": 2402,
      "▁charlotte": 2403,
      "▁aff": 2404,
      "▁crimin": 2405,
      "▁notw": 2406,
      "▁reach": 2407,
      "!!": 2408,
      "▁award": 2409,
      "▁puzzle": 2410,
      "▁!!!!!!!!!!!!!!!": 2411,
      "▁acc": 2412,
      "▁brings": 2413,
      "▁hom": 2414,
      "▁motor": 2415,
      "▁hip": 2416,
      "▁image": 2417,
      "ilize": 2418,
      "▁pointed": 2419,
      "▁congr": 2420,
      "▁locked": 2421,
      "▁choo": 2422,
      ".m.": 2423,
      "|": 2424,
      "ets": 2425,
      "▁size": 2426,
      "▁minn": 2427,
      "akes": 2428,
      "▁london": 2429,
      "▁cr": 2430,
      "▁upd": 2431,
      "ocked": 2432,
      "▁arrive": 2433,
      "▁ackn": 2434,
      "▁eleph": 2435,
      "▁bul": 2436,
      "▁army": 2437,
      "▁contin": 2438,
      "▁gover": 2439,
      "▁door": 2440,
      "▁tap": 2441,
      "▁expand": 2442,
      "uit": 2443,
      "▁manual": 2444,
      "▁baby": 2445,
      "▁host": 2446,
      "▁grandma": 2447,
      "cl": 2448,
      "▁lie": 2449,
      "▁criticism": 2450,
      "▁teh": 2451,
      "▁cleveland": 2452,
      "ays": 2453,
      "ive": 2454,
      "▁travelling": 2455,
      "yth": 2456,
      "▁….": 2457,
      "iam": 2458,
      "lect": 2459,
      "▁airport": 2460,
      "▁gradu": 2461,
      "erve": 2462,
      "▁objec": 2463,
      "▁@": 2464,
      "▁threat": 2465,
      "ely": 2466,
      "eeds": 2467,
      "▁nice": 2468,
      "b": 2469,
      "▁kissed": 2470,
      "▁abo": 2471,
      "ges": 2472,
      "▁glow": 2473,
      "++++": 2474,
      "▁defeated": 2475,
      "▁figure": 2476,
      "▁reminder": 2477,
      "▁but": 2478,
      "▁afternoon": 2479,
      "▁as400": 2480,
      "▁gain": 2481,
      "▁handle": 2482,
      "__": 2483,
      "▁proceed": 2484,
      "****************": 2485,
      "ds": 2486,
      "▁denver": 2487,
      "▁schema": 2488,
      "▁&amp;": 2489,
      "▁rats": 2490,
      "▁elev": 2491,
      "▁conver": 2492,
      "ito": 2493,
      "▁accomplish": 2494,
      "▁shower": 2495,
      "▁attached": 2496,
      "▁legal": 2497,
      "▁intercon": 2498,
      "▁person": 2499,
      "▁mop": 2500,
      "▁inven": 2501,
      "▁and": 2502,
      "▁stair": 2503,
      "ard": 2504,
      "▁phot": 2505,
      "▁vice": 2506,
      "huh": 2507,
      "gel": 2508,
      "▁neg": 2509,
      "urity": 2510,
      "ounced": 2511,
      "▁’ll": 2512,
      "▁feeling": 2513,
      "▁supports": 2514,
      "▁victims": 2515,
      "▁uhh": 2516,
      "oot": 2517,
      "▁amended": 2518,
      "▁squeeze": 2519,
      "▁drinks": 2520,
      "▁terrorist": 2521,
      "▁weeks": 2522,
      "▁performances": 2523,
      "ok": 2524,
      "ain": 2525,
      "▁investment": 2526,
      "▁flies": 2527,
      "▁path": 2528,
      "▁follows": 2529,
      "entiality": 2530,
      "³": 2531,
      "▁sorry": 2532,
      "▁guard": 2533,
      "▁bowl": 2534,
      "▁pet": 2535,
      "▁described": 2536,
      "▁whe": 2537,
      "arked": 2538,
      "▁episode": 2539,
      "▁buck": 2540,
      "▁leads": 2541,
      "▁dealer": 2542,
      "ight": 2543,
      "▁looks": 2544,
      "▁speed": 2545,
      "▁shake": 2546,
      "▁shirt": 2547,
      "▁trust": 2548,
      "ugged": 2549,
      "▁inh": 2550,
      "▁numerous": 2551,
      "▁skin": 2552,
      "▁decre": 2553,
      "▁password": 2554,
      "0th": 2555,
      "▁profess": 2556,
      "▁penc": 2557,
      "▁hotel": 2558,
      "uation": 2559,
      "aint": 2560,
      "▁hur": 2561,
      "▁demonstrated": 2562,
      "akers": 2563,
      "▁friends": 2564,
      "▁displayed": 2565,
      "uments": 2566,
      "▁pick": 2567,
      "cer": 2568,
      "▁warming": 2569,
      "▁ri": 2570,
      "▁edge": 2571,
      "▁racket": 2572,
      "▁relax": 2573,
      "▁text": 2574,
      "▁sm": 2575,
      "go": 2576,
      "▁elevator": 2577,
      "▁conduc": 2578,
      "▁poems": 2579,
      "▁theatre": 2580,
      "▁despite": 2581,
      "cope": 2582,
      "▁electricity": 2583,
      "▁roar": 2584,
      "▁grill": 2585,
      "▁>>": 2586,
      "ure": 2587,
      "▁usually": 2588,
      "▁suggestions": 2589,
      "▁’s": 2590,
      "▁politics": 2591,
      "ys": 2592,
      "▁poetry": 2593,
      "▁interp": 2594,
      "-m": 2595,
      "alize": 2596,
      "▁estimated": 2597,
      "▁mr": 2598,
      "▁occ": 2599,
      "word": 2600,
      "inal": 2601,
      "▁own": 2602,
      "▁council": 2603,
      "▁nobody": 2604,
      "▁destro": 2605,
      "▁terror": 2606,
      "asters": 2607,
      "ishment": 2608,
      "▁vodka": 2609,
      "▁clin": 2610,
      "▁ann": 2611,
      "▁patient": 2612,
      "▁recon": 2613,
      "▁recommendations": 2614,
      "iness": 2615,
      "▁cited": 2616,
      "▁appreciation": 2617,
      "▁farmer": 2618,
      "▁threatened": 2619,
      "▁stress": 2620,
      "▁museum": 2621,
      "▁values": 2622,
      "▁por": 2623,
      "▁procedure": 2624,
      "▁monitor": 2625,
      "▁undert": 2626,
      "of": 2627,
      "mon": 2628,
      "▁stomach": 2629,
      "▁include": 2630,
      "▁gath": 2631,
      "▁toronto": 2632,
      "▁cell": 2633,
      "▁valu": 2634,
      "▁identifies": 2635,
      "▁marriage": 2636,
      "oder": 2637,
      "tices": 2638,
      "▁bye": 2639,
      "rop": 2640,
      "▁responses": 2641,
      "▁future": 2642,
      "▁major": 2643,
      "aughter": 2644,
      "▁supper": 2645,
      "-w": 2646,
      "ural": 2647,
      "od": 2648,
      "▁pollution": 2649,
      "▁waves": 2650,
      "▁ket": 2651,
      "▁which": 2652,
      "▁neighb": 2653,
      "▁rin": 2654,
      "▁heart": 2655,
      "▁rocks": 2656,
      "▁psychology": 2657,
      "vert": 2658,
      "▁productivity": 2659,
      "spite": 2660,
      "bby": 2661,
      "▁riding": 2662,
      "▁surp": 2663,
      "▁dr.": 2664,
      "____": 2665,
      "▁installing": 2666,
      "▁sand": 2667,
      "▁grab": 2668,
      "▁_": 2669,
      "▁told": 2670,
      "▁anticip": 2671,
      "▁calling": 2672,
      "ativity": 2673,
      "▁everyone": 2674,
      "heet": 2675,
      "▁plain": 2676,
      "ball": 2677,
      "▁peop": 2678,
      "▁iodised": 2679,
      ".com": 2680,
      "▁prayer": 2681,
      "▁always": 2682,
      "▁getting": 2683,
      "▁nt": 2684,
      "ipped": 2685,
      "▁stone": 2686,
      "▁lacking": 2687,
      "▁sen": 2688,
      "▁flav": 2689,
      "▁strike": 2690,
      "▁squir": 2691,
      "▁im": 2692,
      "ord": 2693,
      "▁everything": 2694,
      "▁doughnut": 2695,
      "erate": 2696,
      "▁notch": 2697,
      "ios": 2698,
      "av": 2699,
      "▁bun": 2700,
      "▁comes": 2701,
      "ied": 2702,
      "▁cha": 2703,
      "▁pled": 2704,
      "▁reve": 2705,
      "▁surrounding": 2706,
      "▁alt.animals": 2707,
      "▁inch": 2708,
      "▁!!!!!!!": 2709,
      "▁may": 2710,
      "▁thous": 2711,
      "ument": 2712,
      "▁growing": 2713,
      "▁teach": 2714,
      "▁fate": 2715,
      "▁scribb": 2716,
      "▁th": 2717,
      "▁pop": 2718,
      "▁boat": 2719,
      "▁talk": 2720,
      "▁our": 2721,
      "▁homeopath": 2722,
      "▁speci": 2723,
      "▁fer": 2724,
      "▁hor": 2725,
      "rism": 2726,
      "tile": 2727,
      "▁particip": 2728,
      "▁vs.": 2729,
      "▁solve": 2730,
      "▁reflection": 2731,
      "▁advertis": 2732,
      "▁than": 2733,
      "▁pull": 2734,
      "▁unc": 2735,
      "oice": 2736,
      "▁louis": 2737,
      "▁listening": 2738,
      "▁p.m.": 2739,
      "▁property": 2740,
      "▁uv": 2741,
      "ann": 2742,
      "▁dating": 2743,
      "ade": 2744,
      "3": 2745,
      "▁connect": 2746,
      "▁accept": 2747,
      "bers": 2748,
      "la": 2749,
      "tered": 2750,
      "▁becom": 2751,
      "▁end": 2752,
      "sets": 2753,
      "▁huge": 2754,
      "eth": 2755,
      "▁move": 2756,
      "▁passage": 2757,
      "▁ld2d-": 2758,
      "▁parakeet": 2759,
      "ioned": 2760,
      "▁---=": 2761,
      "▁des": 2762,
      "▁married": 2763,
      "▁filtering": 2764,
      "▁....": 2765,
      "▁cig": 2766,
      "`": 2767,
      "▁incen": 2768,
      "iring": 2769,
      "▁official": 2770,
      "▁tray": 2771,
      "▁winds": 2772,
      "▁rece": 2773,
      "▁missile": 2774,
      "▁expert": 2775,
      "▁jump": 2776,
      "▁crap": 2777,
      "▁passion": 2778,
      "▁entering": 2779,
      "ber": 2780,
      "▁sin": 2781,
      "▁knows": 2782,
      "eel": 2783,
      "▁bic": 2784,
      "mall": 2785,
      "gue": 2786,
      "erc": 2787,
      "▁occupation": 2788,
      "ress": 2789,
      "ug": 2790,
      "▁gun": 2791,
      "▁elephant": 2792,
      "ners": 2793,
      "▁leg": 2794,
      "orded": 2795,
      "▁did": 2796,
      "▁default": 2797,
      "ond": 2798,
      "▁clar": 2799,
      "▁artists": 2800,
      "▁sought": 2801,
      "▁mosques": 2802,
      "▁cray": 2803,
      "edly": 2804,
      "fri": 2805,
      "▁pretend": 2806,
      "▁cleaning": 2807,
      "ined": 2808,
      "▁monster": 2809,
      "▁k": 2810,
      "ded": 2811,
      "▁friendly": 2812,
      "bon": 2813,
      "▁late": 2814,
      "hether": 2815,
      "▁acceptance": 2816,
      "▁sou": 2817,
      "▁forwarded": 2818,
      "wa": 2819,
      "isters": 2820,
      "ressing": 2821,
      "▁craw": 2822,
      "▁cust": 2823,
      "▁surround": 2824,
      "▁says": 2825,
      "▁helped": 2826,
      "▁festival": 2827,
      "▁congrat": 2828,
      "▁prec": 2829,
      "▁stand": 2830,
      "▁networks": 2831,
      "▁large": 2832,
      "▁minut": 2833,
      "▁offering": 2834,
      "▁der": 2835,
      "▁english": 2836,
      "▁cake": 2837,
      "▁leaves": 2838,
      "ength": 2839,
      "▁decisions": 2840,
      "porte": 2841,
      "▁envelop": 2842,
      "▁she": 2843,
      "▁procedures": 2844,
      "▁car": 2845,
      "▁checking": 2846,
      "▁prove": 2847,
      "▁opp": 2848,
      "▁observ": 2849,
      "2d-": 2850,
      "▁spa": 2851,
      "▁selection": 2852,
      "king": 2853,
      "▁montreal": 2854,
      "▁although": 2855,
      "▁contro": 2856,
      "▁suggests": 2857,
      "qui": 2858,
      "▁spoon": 2859,
      "▁wrest": 2860,
      "▁banjo": 2861,
      "▁non-": 2862,
      "ifying": 2863,
      "▁happiness": 2864,
      "me": 2865,
      "▁friday": 2866,
      "▁de": 2867,
      "goti": 2868,
      "▁|--------+----------------------->": 2869,
      "▁exceed": 2870,
      "▁notwithstanding": 2871,
      "▁hi": 2872,
      "▁colle": 2873,
      "▁backed": 2874,
      "▁receipt": 2875,
      "▁improvement": 2876,
      "utes": 2877,
      "wood": 2878,
      "----------------": 2879,
      "eers": 2880,
      "▁circumstances": 2881,
      "▁que": 2882,
      "anim": 2883,
      "▁jelly": 2884,
      "▁served": 2885,
      "▁transformation": 2886,
      "t": 2887,
      "▁nap": 2888,
      "▁reference": 2889,
      "iousness": 2890,
      "ainly": 2891,
      "iced": 2892,
      "▁mids": 2893,
      "usion": 2894,
      "afts": 2895,
      "▁placed": 2896,
      "▁rate": 2897,
      "▁penalty": 2898,
      "pec": 2899,
      "▁targets": 2900,
      "▁charges": 2901,
      "▁giant": 2902,
      "▁resist": 2903,
      "night": 2904,
      "▁security": 2905,
      "▁siz": 2906,
      "ick": 2907,
      "so": 2908,
      "▁certainly": 2909,
      "▁int": 2910,
      "▁system": 2911,
      "▁pit": 2912,
      "▁pen": 2913,
      "tims": 2914,
      "▁hour": 2915,
      "▁bew": 2916,
      "▁even": 2917,
      "▁reduction": 2918,
      "alist": 2919,
      "▁fri": 2920,
      "▁construction": 2921,
      "▁smo": 2922,
      "▁suspect": 2923,
      "▁video": 2924,
      "▁consciousness": 2925,
      "▁st.": 2926,
      "▁depar": 2927,
      "▁hold": 2928,
      "▁true": 2929,
      "▁key": 2930,
      "▁elephants": 2931,
      "▁playing": 2932,
      "▁cir": 2933,
      "▁kept": 2934,
      "▁u.s.": 2935,
      "▁doub": 2936,
      "age": 2937,
      "▁folks": 2938,
      "asy": 2939,
      "▁apple": 2940,
      "▁stopped": 2941,
      "▁charge": 2942,
      "▁bush": 2943,
      "ocracy": 2944,
      "▁cos": 2945,
      "▁suffered": 2946,
      "▁spoke": 2947,
      "tc": 2948,
      "▁mind": 2949,
      "▁climate": 2950,
      "▁guest": 2951,
      "▁convention": 2952,
      "chang": 2953,
      "▁oppos": 2954,
      "▁mid": 2955,
      "▁collaboration": 2956,
      "▁consequ": 2957,
      "▁prev": 2958,
      "iving": 2959,
      "▁attr": 2960,
      "▁fingers": 2961,
      "▁article": 2962,
      "▁fiction": 2963,
      "▁onto": 2964,
      "▁erase": 2965,
      "▁vendors": 2966,
      "▁chap": 2967,
      "▁channel": 2968,
      "▁poster": 2969,
      "aq": 2970,
      "▁identifying": 2971,
      "▁regulation": 2972,
      "yond": 2973,
      "▁·": 2974,
      "▁experien": 2975,
      "▁coincidence": 2976,
      "▁obst": 2977,
      "▁8": 2978,
      "amas": 2979,
      "▁orders": 2980,
      "pp": 2981,
      "le": 2982,
      "cha": 2983,
      "ley": 2984,
      "▁queries": 2985,
      "orate": 2986,
      "▁ven": 2987,
      "▁ought": 2988,
      "▁diaper": 2989,
      "ticians": 2990,
      "▁amid": 2991,
      "▁reaching": 2992,
      "esh": 2993,
      "▁bat": 2994,
      "▁sugg": 2995,
      "▁cod": 2996,
      "ile": 2997,
      "▁development": 2998,
      "▁liked": 2999,
      "▁specify": 3000,
      "▁mul": 3001,
      "ortion": 3002,
      "▁effects": 3003,
      "isions": 3004,
      "▁asked": 3005,
      "d": 3006,
      "▁whis": 3007,
      "▁spell": 3008,
      "▁mus": 3009,
      "▁good": 3010,
      "▁counter": 3011,
      "ership": 3012,
      "▁-----------------------------------------------------------------": 3013,
      "▁tro": 3014,
      "itement": 3015,
      "!!!!": 3016,
      "▁scissors": 3017,
      "respond": 3018,
      "nets": 3019,
      "▁soil": 3020,
      "▁°": 3021,
      "▁writ": 3022,
      "▁nursies": 3023,
      "▁crop": 3024,
      "▁founder": 3025,
      "▁cerem": 3026,
      "▁cri": 3027,
      "▁considered": 3028,
      "▁pictures": 3029,
      "▁defense": 3030,
      "▁pipe": 3031,
      "▁changes": 3032,
      "▁canc": 3033,
      "veral": 3034,
      "▁wondered": 3035,
      "▁napkin": 3036,
      "ularly": 3037,
      "▁derived": 3038,
      "get": 3039,
      "▁shark": 3040,
      "▁bent": 3041,
      "▁resolution": 3042,
      "▁stock": 3043,
      "inental": 3044,
      "▁struck": 3045,
      "▁laura": 3046,
      "▁pud": 3047,
      "▁fits": 3048,
      "▁network": 3049,
      "▁amidst": 3050,
      "▁finds": 3051,
      "▁males": 3052,
      "▁tr": 3053,
      "▁fever": 3054,
      "▁liquid": 3055,
      "anks": 3056,
      "actor": 3057,
      "▁sweep": 3058,
      "0": 3059,
      "▁e-mail": 3060,
      "°": 3061,
      "▁http://www.": 3062,
      "▁************************************************": 3063,
      "ultural": 3064,
      "▁we": 3065,
      "’": 3066,
      "▁momma": 3067,
      "▁receives": 3068,
      "▁sort": 3069,
      "icke": 3070,
      "▁blocks": 3071,
      "▁sat": 3072,
      "▁restrictions": 3073,
      "-1.doc": 3074,
      "▁temples": 3075,
      "day": 3076,
      "ability": 3077,
      "▁create": 3078,
      "▁shit": 3079,
      "▁ou": 3080,
      "▁xml": 3081,
      "▁cele": 3082,
      "ought": 3083,
      "▁sell": 3084,
      "▁es": 3085,
      "▁fem": 3086,
      "overy": 3087,
      "itting": 3088,
      "▁conversations": 3089,
      "▁ok": 3090,
      "▁bears": 3091,
      "▁principle": 3092,
      "▁levels": 3093,
      "▁internet": 3094,
      "▁feature": 3095,
      "▁eliminate": 3096,
      "orders": 3097,
      "▁miss": 3098,
      "▁social": 3099,
      "▁features": 3100,
      "▁benefits": 3101,
      "hea": 3102,
      "▁novelist": 3103,
      "▁hey": 3104,
      "▁governments": 3105,
      "▁associ": 3106,
      "▁debt": 3107,
      "atme": 3108,
      "▁conclu": 3109,
      "▁resulted": 3110,
      "▁hiking": 3111,
      "▁novel": 3112,
      "▁liter": 3113,
      "▁caught": 3114,
      "▁fought": 3115,
      "▁go": 3116,
      "▁polaro": 3117,
      "▁'m": 3118,
      "▁discover": 3119,
      "pletely": 3120,
      "▁violence": 3121,
      "▁list": 3122,
      "▁newspaper": 3123,
      "▁cott": 3124,
      "▁carbon": 3125,
      "▁leader": 3126,
      "▁families": 3127,
      "l": 3128,
      "ury": 3129,
      "▁win": 3130,
      "▁front": 3131,
      "▁pressure": 3132,
      "▁flower": 3133,
      "▁carries": 3134,
      "▁contribution": 3135,
      "▁india": 3136,
      "▁factor": 3137,
      "▁ident": 3138,
      "▁based": 3139,
      "▁adjust": 3140,
      "▁beef": 3141,
      "▁extended": 3142,
      "▁regist": 3143,
      "angu": 3144,
      "▁poop": 3145,
      "▁struggle": 3146,
      "to": 3147,
      "▁filled": 3148,
      "▁doggie": 3149,
      "load": 3150,
      "▁plays": 3151,
      "▁shorts": 3152,
      "iating": 3153,
      "▁hambur": 3154,
      "▁gamb": 3155,
      "▁cultures": 3156,
      "▁becomes": 3157,
      "▁meat": 3158,
      "▁claims": 3159,
      "irst": 3160,
      "▁colon": 3161,
      "▁----==": 3162,
      "▁snakes": 3163,
      "▁silk": 3164,
      "▁rolling": 3165,
      "▁reinfor": 3166,
      "▁factors": 3167,
      "▁structure": 3168,
      "▁muse": 3169,
      "▁arrang": 3170,
      "▁landed": 3171,
      "arm": 3172,
      "▁cat": 3173,
      "▁toast": 3174,
      "pt": 3175,
      "▁ends": 3176,
      "▁fat": 3177,
      "▁crops": 3178,
      "▁alone": 3179,
      "▁brass": 3180,
      "▁emphas": 3181,
      "▁basil": 3182,
      "fting": 3183,
      "▁evolving": 3184,
      "stop": 3185,
      "mping": 3186,
      "gage": 3187,
      "▁petersburg": 3188,
      "▁walks": 3189,
      "otion": 3190,
      "▁took": 3191,
      "▁subs": 3192,
      "▁...": 3193,
      "▁letters": 3194,
      "struc": 3195,
      "▁resource": 3196,
      "▁bi": 3197,
      "▁reservation": 3198,
      "gation": 3199,
      "▁anthrax": 3200,
      "▁appointed": 3201,
      "▁visited": 3202,
      "▁address": 3203,
      "▁done": 3204,
      "▁captured": 3205,
      "▁wore": 3206,
      "▁figures": 3207,
      "▁opens": 3208,
      "em": 3209,
      "▁hea": 3210,
      "▁scenar": 3211,
      "▁newark": 3212,
      "▁performed": 3213,
      "▁guerrillas": 3214,
      "▁decade": 3215,
      "▁gcp": 3216,
      "▁li": 3217,
      "▁report": 3218,
      "▁cried": 3219,
      "▁court": 3220,
      "led": 3221,
      "▁somebody": 3222,
      "▁goat": 3223,
      "▁january": 3224,
      "▁provisions": 3225,
      "▁origins": 3226,
      "▁cow": 3227,
      "▁monaster": 3228,
      "▁stro": 3229,
      "▁si": 3230,
      "▁alle": 3231,
      "▁each": 3232,
      "▁wor": 3233,
      "▁conflict": 3234,
      "▁euro": 3235,
      "▁attended": 3236,
      "▁lamb": 3237,
      "▁home": 3238,
      "tling": 3239,
      "▁poli": 3240,
      "▁fam": 3241,
      "▁october": 3242,
      "▁realism": 3243,
      "ws": 3244,
      "▁pushing": 3245,
      "▁promoting": 3246,
      "▁peters": 3247,
      "oney": 3248,
      "ution": 3249,
      "▁amb": 3250,
      "at": 3251,
      "▁split": 3252,
      "cp": 3253,
      "gement": 3254,
      "iqu": 3255,
      "▁writing": 3256,
      "▁jo": 3257,
      "▁shad": 3258,
      "adel": 3259,
      "▁complex": 3260,
      "▁turb": 3261,
      "onents": 3262,
      "▁flights": 3263,
      "▁death": 3264,
      "▁extend": 3265,
      "low": 3266,
      "▁hamb": 3267,
      "▁impacts": 3268,
      "▁radiation": 3269,
      "▁bran": 3270,
      "▁asks": 3271,
      "▁skill": 3272,
      "▁cart": 3273,
      "▁surgery": 3274,
      "▁spending": 3275,
      "ino": 3276,
      "▁website": 3277,
      "[PAD]": 3278,
      "ales": 3279,
      "ych": 3280,
      "▁hobby": 3281,
      "▁crimes": 3282,
      "▁attack": 3283,
      "▁figured": 3284,
      "▁pilg": 3285,
      "iation": 3286,
      "ributing": 3287,
      "▁great": 3288,
      "▁long": 3289,
      "orts": 3290,
      "tit": 3291,
      "auce": 3292,
      "▁goals": 3293,
      "▁philadelphia": 3294,
      "▁exper": 3295,
      "ment": 3296,
      "▁genius": 3297,
      "▁rum": 3298,
      "lines": 3299,
      "▁grape": 3300,
      "▁'s": 3301,
      "▁opposed": 3302,
      "▁soul": 3303,
      "▁kil": 3304,
      "▁mosque": 3305,
      "ply": 3306,
      "▁theory": 3307,
      "▁objectives": 3308,
      "sing": 3309,
      "▁depending": 3310,
      "▁re": 3311,
      "▁cous": 3312,
      "nt": 3313,
      "▁attitude": 3314,
      "▁enjo": 3315,
      "▁december": 3316,
      "▁removed": 3317,
      "yn": 3318,
      "▁privacy": 3319,
      "ut": 3320,
      "▁wig": 3321,
      "▁rent": 3322,
      "▁glove": 3323,
      "▁dealing": 3324,
      "▁into": 3325,
      "▁l": 3326,
      "▁china": 3327,
      "▁technique": 3328,
      "▁most": 3329,
      "asion": 3330,
      "▁church": 3331,
      "▁alt.animals.": 3332,
      "▁mech": 3333,
      "▁signs": 3334,
      "▁ate": 3335,
      "structed": 3336,
      "▁surface": 3337,
      "▁customs": 3338,
      "▁cook": 3339,
      "▁claimed": 3340,
      "own": 3341,
      "atch": 3342,
      "▁confidence": 3343,
      "▁shoulder": 3344,
      "▁goose": 3345,
      "adle": 3346,
      "▁adoption": 3347,
      "▁rules": 3348,
      "▁duckie": 3349,
      "/he": 3350,
      "▁flir": 3351,
      "▁paper": 3352,
      "▁dis": 3353,
      "▁them": 3354,
      "▁these": 3355,
      "▁v": 3356,
      "▁discuss": 3357,
      "▁philosophy": 3358,
      "▁falls": 3359,
      "▁pony": 3360,
      "▁acted": 3361,
      "kets": 3362,
      "▁ensure": 3363,
      "formed": 3364,
      "▁purchase": 3365,
      "▁http": 3366,
      "▁introduction": 3367,
      "▁pot": 3368,
      "▁ignore": 3369,
      "▁coach": 3370,
      "▁cost": 3371,
      "▁suggestion": 3372,
      "▁send": 3373,
      "▁realized": 3374,
      "▁faith": 3375,
      "▁efficiency": 3376,
      "▁below": 3377,
      "gy": 3378,
      "▁beside": 3379,
      "per": 3380,
      "▁rescue": 3381,
      "▁appear": 3382,
      "▁sit": 3383,
      "▁gum": 3384,
      "▁recruit": 3385,
      "▁july": 3386,
      "ruption": 3387,
      "▁inst": 3388,
      "▁celeb": 3389,
      "▁knew": 3390,
      "erts": 3391,
      "▁fle": 3392,
      "▁officials": 3393,
      "▁return": 3394,
      "iff": 3395,
      "ik": 3396,
      "▁par": 3397,
      "▁guar": 3398,
      "▁piece": 3399,
      "▁yesterday": 3400,
      "▁concerning": 3401,
      "▁ingredients": 3402,
      "▁pow": 3403,
      "▁stands": 3404,
      "▁quite": 3405,
      "▁office": 3406,
      "▁tons": 3407,
      "my": 3408,
      "tee": 3409,
      "enn": 3410,
      "▁invented": 3411,
      "▁_______": 3412,
      "ner": 3413,
      "▁emer": 3414,
      "▁notes": 3415,
      "ises": 3416,
      "▁fab": 3417,
      "▁reads": 3418,
      "▁distingu": 3419,
      "▁?!": 3420,
      "▁import": 3421,
      "▁wing": 3422,
      "▁escape": 3423,
      "ong": 3424,
      "aming": 3425,
      "▁interesting": 3426,
      "▁community": 3427,
      "▁having": 3428,
      "fts": 3429,
      "loyed": 3430,
      "y": 3431,
      "▁probably": 3432,
      "▁eye": 3433,
      "▁compli": 3434,
      "▁lying": 3435,
      "ou": 3436,
      "▁financial": 3437,
      "▁ld": 3438,
      "▁all": 3439,
      "▁story": 3440,
      "▁-----------------": 3441,
      "▁novels": 3442,
      "▁touched": 3443,
      "igh": 3444,
      "▁leaned": 3445,
      "▁environ": 3446,
      "--------------------------------": 3447,
      "eti": 3448,
      "▁structures": 3449,
      "or": 3450,
      "nd": 3451,
      "▁flooding": 3452,
      "ude": 3453,
      "▁income": 3454,
      "ll": 3455,
      "enings": 3456,
      "hip": 3457,
      "▁where": 3458,
      "▁never": 3459,
      "ati": 3460,
      "ex": 3461,
      "▁consid": 3462,
      "essions": 3463,
      "▁approached": 3464,
      "▁himself": 3465,
      "▁balt": 3466,
      "▁dinner": 3467,
      "alt": 3468,
      "▁schem": 3469,
      "urs": 3470,
      "▁land": 3471,
      "▁inspired": 3472,
      "ilos": 3473,
      "▁spea": 3474,
      "▁fin": 3475,
      "▁diet": 3476,
      "-1": 3477,
      "ause": 3478,
      "▁admit": 3479,
      "aft": 3480,
      "▁beings": 3481,
      "▁crack": 3482,
      "▁failed": 3483,
      "derst": 3484,
      "▁island": 3485,
      "▁spe": 3486,
      "ware": 3487,
      "▁founded": 3488,
      "▁writers": 3489,
      "▁an": 3490,
      "br": 3491,
      "▁balls": 3492,
      "▁nails": 3493,
      "▁goes": 3494,
      "▁sees": 3495,
      "▁ginger": 3496,
      "▁swit": 3497,
      "▁wheat": 3498,
      "▁cycle": 3499,
      "▁farrier": 3500,
      "▁potatoes": 3501,
      "keys": 3502,
      "ows": 3503,
      "▁substance": 3504,
      "▁mailings": 3505,
      "▁agriculture": 3506,
      "▁deny": 3507,
      "oul": 3508,
      "raph": 3509,
      "▁raise": 3510,
      "▁white": 3511,
      "anges": 3512,
      "▁fantasy": 3513,
      "res": 3514,
      "atory": 3515,
      "inist": 3516,
      "▁hand": 3517,
      "▁develop": 3518,
      "aroni": 3519,
      "▁measure": 3520,
      "oup": 3521,
      "▁nove": 3522,
      "chen": 3523,
      "ific": 3524,
      "▁sea": 3525,
      "▁throw": 3526,
      "▁when": 3527,
      "▁oath": 3528,
      "♥": 3529,
      "▁plat": 3530,
      "▁bar": 3531,
      "▁serves": 3532,
      "▁generate": 3533,
      "▁acknowledge": 3534,
      "atic": 3535,
      "▁offic": 3536,
      "▁articles": 3537,
      "▁airlines": 3538,
      "º": 3539,
      "▁welcomed": 3540,
      "▁peace": 3541,
      "▁litt": 3542,
      "▁cas": 3543,
      "β": 3544,
      "▁?!?": 3545,
      "▁vict": 3546,
      "▁trans": 3547,
      "▁expos": 3548,
      "▁implemented": 3549,
      "▁awareness": 3550,
      "▁crisis": 3551,
      "▁helicop": 3552,
      "▁drama": 3553,
      "▁jacket": 3554,
      "▁one": 3555,
      "izing": 3556,
      "ien": 3557,
      "▁bed": 3558,
      "▁posed": 3559,
      "▁chocol": 3560,
      "oc": 3561,
      "ped": 3562,
      "▁suck": 3563,
      "▁fol": 3564,
      "ablish": 3565,
      "]": 3566,
      "▁drink": 3567,
      "▁through": 3568,
      "▁heat": 3569,
      "▁bos": 3570,
      "▁manufact": 3571,
      "▁caps": 3572,
      "▁very": 3573,
      "▁ar": 3574,
      "▁disapp": 3575,
      "▁hurt": 3576,
      "▁specific": 3577,
      "▁aboard": 3578,
      "▁revolution": 3579,
      "▁temp": 3580,
      "edness": 3581,
      "ai": 3582,
      "▁headquarters": 3583,
      "▁feelings": 3584,
      "▁passengers": 3585,
      "▁sur": 3586,
      "▁trash": 3587,
      "▁--": 3588,
      "▁damage": 3589,
      "▁mur": 3590,
      "▁soon": 3591,
      "▁decades": 3592,
      "▁dogg": 3593,
      "▁identi": 3594,
      "▁tampa": 3595,
      "▁arr": 3596,
      "▁surge": 3597,
      "▁matters": 3598,
      "▁prohibited": 3599,
      "▁memories": 3600,
      "▁document": 3601,
      "inning": 3602,
      "▁contacted": 3603,
      "▁rub": 3604,
      "▁crayons": 3605,
      "ease": 3606,
      "▁give": 3607,
      "house": 3608,
      "arily": 3609,
      "▁angeles": 3610,
      "▁visits": 3611,
      "vision": 3612,
      "ifies": 3613,
      "▁locom": 3614,
      "▁mist": 3615,
      "▁snitch": 3616,
      "▁elect": 3617,
      "▁preparation": 3618,
      "stit": 3619,
      "▁zone": 3620,
      "▁particularly": 3621,
      "▁horn": 3622,
      "man": 3623,
      "▁sleeping": 3624,
      "▁published": 3625,
      "▁dre": 3626,
      "▁floating": 3627,
      "▁screwdriver": 3628,
      "▁permitted": 3629,
      "▁participating": 3630,
      "▁state": 3631,
      "'t": 3632,
      "▁cris": 3633,
      "▁wik": 3634,
      "ret": 3635,
      "▁current": 3636,
      "▁crash": 3637,
      "▁tric": 3638,
      "iously": 3639,
      "▁mechanism": 3640,
      "▁eaten": 3641,
      "▁boxes": 3642,
      "▁referred": 3643,
      "et": 3644,
      "▁equ": 3645,
      "▁caused": 3646,
      "▁sang": 3647,
      "▁examples": 3648,
      "opath": 3649,
      "▁requirements": 3650,
      "▁review": 3651,
      "jo": 3652,
      "ding": 3653,
      "▁shed": 3654,
      "▁granted": 3655,
      "▁wr": 3656,
      "▁obl": 3657,
      "▁parent": 3658,
      "▁butt": 3659,
      "▁unemployment": 3660,
      "▁constit": 3661,
      "ered": 3662,
      "▁exactly": 3663,
      "▁climb": 3664,
      "▁vacc": 3665,
      "ms": 3666,
      "cro": 3667,
      "▁replaced": 3668,
      "▁poverty": 3669,
      "▁cheap": 3670,
      "▁patients": 3671,
      "▁design": 3672,
      "▁cells": 3673,
      "alk": 3674,
      "▁refin": 3675,
      "on": 3676,
      "key": 3677,
      "▁bottom": 3678,
      "▁for": 3679,
      "▁tube": 3680,
      "▁knees": 3681,
      "▁yea": 3682,
      "▁lunch": 3683,
      "▁.!": 3684,
      "eys": 3685,
      "▁lit": 3686,
      "▁toll": 3687,
      "read": 3688,
      "▁fut": 3689,
      "▁ter": 3690,
      "▁cuck": 3691,
      "▁how": 3692,
      "▁forgot": 3693,
      "▁mot": 3694,
      "▁translation": 3695,
      "omet": 3696,
      "▁liber": 3697,
      "▁accident": 3698,
      "▁events": 3699,
      "▁covering": 3700,
      "use": 3701,
      "▁eur": 3702,
      "▁price": 3703,
      "▁log": 3704,
      "▁pup": 3705,
      "▁pour": 3706,
      "▁institutions": 3707,
      "▁summary": 3708,
      "▁surr": 3709,
      "books": 3710,
      "▁arrives": 3711,
      "light": 3712,
      "▁kitt": 3713,
      "▁injury": 3714,
      "70s": 3715,
      "ault": 3716,
      "▁bir": 3717,
      "▁tear": 3718,
      "▁device": 3719,
      "▁fall": 3720,
      "▁festivals": 3721,
      "▁data": 3722,
      "▁propose": 3723,
      "▁generators": 3724,
      "▁murder": 3725,
      "▁locations": 3726,
      "idding": 3727,
      "▁used": 3728,
      "yst": 3729,
      "▁imagination": 3730,
      "▁decide": 3731,
      "ˈ": 3732,
      "▁radio": 3733,
      "▁intentions": 3734,
      "▁mouth": 3735,
      "▁users": 3736,
      "▁laund": 3737,
      "lan": 3738,
      "▁light": 3739,
      "ite": 3740,
      "▁informed": 3741,
      "ere": 3742,
      "▁uti": 3743,
      "aced": 3744,
      "▁managers": 3745,
      "▁{": 3746,
      "▁hoping": 3747,
      "ook": 3748,
      "▁chickens": 3749,
      "▁walking": 3750,
      "app": 3751,
      "▁causing": 3752,
      "▁bron": 3753,
      "▁q1": 3754,
      "▁obsf": 3755,
      "▁betw": 3756,
      "▁sor": 3757,
      "▁out": 3758,
      "▁shadow": 3759,
      "icult": 3760,
      "▁arriving": 3761,
      "orter": 3762,
      "▁borders": 3763,
      "▁cabbage": 3764,
      "ils": 3765,
      "▁environments": 3766,
      "ception": 3767,
      "▁ya": 3768,
      "▁practicing": 3769,
      "▁september": 3770,
      "▁wrote": 3771,
      "▁conclusion": 3772,
      "▁expanded": 3773,
      "▁preserved": 3774,
      "90s": 3775,
      "▁field": 3776,
      "▁pack": 3777,
      "▁residents": 3778,
      "▁ignor": 3779,
      "▁commissioner": 3780,
      "▁proved": 3781,
      "▁reply": 3782,
      "▁pee": 3783,
      "▁linked": 3784,
      "▁arrangements": 3785,
      "▁block": 3786,
      "▁four": 3787,
      "▁barn": 3788,
      "▁dinosaur": 3789,
      "▁grant": 3790,
      "▁transition": 3791,
      "▁set": 3792,
      "▁perhaps": 3793,
      "outs": 3794,
      "▁invite": 3795,
      "▁strive": 3796,
      "▁coast": 3797,
      "lor": 3798,
      "▁commit": 3799,
      "ozer": 3800,
      "▁meet": 3801,
      "▁declar": 3802,
      "▁team": 3803,
      "▁mention": 3804,
      "ointment": 3805,
      "tiveness": 3806,
      "ren": 3807,
      "▁questioned": 3808,
      "▁signed": 3809,
      "▁doubt": 3810,
      "▁ling": 3811,
      "▁spir": 3812,
      "ancers": 3813,
      "▁signing": 3814,
      "▁phenomen": 3815,
      "agement": 3816,
      "ctions": 3817,
      "▁research": 3818,
      "▁refuge": 3819,
      "▁up": 3820,
      "▁aqu": 3821,
      "▁sum": 3822,
      "▁lun": 3823,
      "ima": 3824,
      "eav": 3825,
      "▁intern": 3826,
      "ign": 3827,
      "▁sights": 3828,
      "▁critics": 3829,
      "▁desk": 3830,
      "▁phil": 3831,
      "▁definition": 3832,
      "fe": 3833,
      "▁mountains": 3834,
      "▁destruc": 3835,
      "▁licenses": 3836,
      "▁doctors": 3837,
      "▁grumb": 3838,
      "▁worms": 3839,
      "[MASK]": 3840,
      "▁char": 3841,
      "bing": 3842,
      "▁crit": 3843,
      "orated": 3844,
      "▁citizens": 3845,
      "▁importance": 3846,
      "forcement": 3847,
      "ways": 3848,
      "▁gas": 3849,
      "▁vs": 3850,
      "▁publish": 3851,
      "▁being": 3852,
      "▁thurs": 3853,
      "▁name": 3854,
      "▁experienced": 3855,
      "▁sticks": 3856,
      "▁led": 3857,
      "▁science": 3858,
      "etro": 3859,
      "▁actor": 3860,
      "itive": 3861,
      "▁sal": 3862,
      "▁length": 3863,
      "▁day": 3864,
      "▁neuro": 3865,
      "▁manuf": 3866,
      "▁bunch": 3867,
      "▁planet": 3868,
      "ri": 3869,
      "▁lack": 3870,
      "asi": 3871,
      "▁yelling": 3872,
      "▁shuttle": 3873,
      "▁per": 3874,
      "▁deficiency": 3875,
      "▁tre": 3876,
      "▁vehicle": 3877,
      "▁routine": 3878,
      "▁…": 3879,
      "▁motorc": 3880,
      "▁doctor": 3881,
      "▁vet": 3882,
      "olis": 3883,
      "▁domain": 3884,
      "▁category": 3885,
      "▁member": 3886,
      "cery": 3887,
      "▁topics": 3888,
      "mber": 3889,
      "ition": 3890,
      "▁che": 3891,
      "▁smal": 3892,
      "mit": 3893,
      "tician": 3894,
      "▁morality": 3895,
      "velop": 3896,
      "▁retail": 3897,
      "▁s/he": 3898,
      "▁origin": 3899,
      "▁cincinnati": 3900,
      "▁lar": 3901,
      "▁delive": 3902,
      "unction": 3903,
      "rier": 3904,
      "acked": 3905,
      "▁ourselves": 3906,
      "▁fox": 3907,
      "ence": 3908,
      "▁tot": 3909,
      "nis": 3910,
      "▁awa": 3911,
      "ert": 3912,
      "▁babies": 3913,
      "airs": 3914,
      "▁participate": 3915,
      "▁kittens": 3916,
      "▁recall": 3917,
      "▁grandmother": 3918,
      "▁experiment": 3919,
      "▁mom": 3920,
      "▁ho": 3921,
      "▁economy": 3922,
      "▁basis": 3923,
      "a": 3924,
      "▁authors": 3925,
      "▁welcome": 3926,
      "▁cont": 3927,
      "▁fing": 3928,
      "▁installed": 3929,
      "▁kid": 3930,
      "▁funnel": 3931,
      "▁subst": 3932,
      "▁survey": 3933,
      "▁clown": 3934,
      "▁stepping": 3935,
      "▁[": 3936,
      "▁moun": 3937,
      "[UNK]": 3938,
      "▁achieve": 3939,
      "▁yester": 3940,
      "ake": 3941,
      "▁laser": 3942,
      "irus": 3943,
      "▁able": 3944,
      "▁guests": 3945,
      "▁partners": 3946,
      "mp": 3947,
      "ado": 3948,
      "eness": 3949,
      "ork": 3950,
      "▁harmon": 3951,
      "wear": 3952,
      "▁drill": 3953,
      "▁w/": 3954,
      "▁might": 3955,
      "▁/": 3956,
      "▁singing": 3957,
      "▁scr": 3958,
      "iciency": 3959,
      "▁indicate": 3960,
      "▁coll": 3961,
      "ops": 3962,
      "▁improved": 3963,
      "▁authorities": 3964,
      "▁saw": 3965,
      "▁straw": 3966,
      "▁examining": 3967,
      "verage": 3968,
      "▁israel": 3969,
      "▁......": 3970,
      "▁refusing": 3971,
      "▁liqu": 3972,
      "the": 3973,
      "chup": 3974,
      "inded": 3975,
      "▁concrete": 3976,
      "▁rul": 3977,
      "▁elections": 3978,
      "▁ic": 3979,
      "▁bur": 3980,
      "pan": 3981,
      "▁lemon": 3982,
      "sh": 3983,
      "▁guit": 3984,
      "▁gift": 3985,
      "lie": 3986,
      "▁'re": 3987,
      "wic": 3988,
      "acks": 3989,
      "ary": 3990,
      "▁manage": 3991,
      "▁met": 3992,
      "▁[...": 3993,
      "▁soc": 3994,
      "▁transfer": 3995,
      "asa": 3996,
      "▁square": 3997,
      "▁movement": 3998,
      "▁top": 3999,
      "▁cocktail": 4000,
      "-p": 4001,
      "ady": 4002,
      "▁pra": 4003,
      "▁enable": 4004,
      "▁isd": 4005,
      "▁victory": 4006,
      "nels": 4007,
      "ations": 4008,
      "rup": 4009,
      "▁possible": 4010,
      "eak": 4011,
      "▁'em": 4012,
      "▁“": 4013,
      "inks": 4014,
      "▁al": 4015,
      "▁cam": 4016,
      "▁repeat": 4017,
      "▁gdp": 4018,
      "orities": 4019,
      "▁allow": 4020,
      "phia": 4021,
      "pping": 4022,
      "▁affected": 4023,
      "▁counterfe": 4024,
      "▁hippop": 4025,
      "▁fence": 4026,
      "▁fly": 4027,
      "▁licensor": 4028,
      "▁seats": 4029,
      "▁jokes": 4030,
      "▁according": 4031,
      "ports": 4032,
      "œ": 4033,
      "▁games": 4034,
      "epend": 4035,
      "▁hero": 4036,
      "▁named": 4037,
      "gry": 4038,
      "oodle": 4039,
      "▁motorcycle": 4040,
      "▁what": 4041,
      "▁stories": 4042,
      "<": 4043,
      "▁sounds": 4044,
      "ical": 4045,
      "▁mechanics": 4046,
      "▁disability": 4047,
      "ery": 4048,
      "▁ret": 4049,
      "▁images": 4050,
      "▁ceiling": 4051,
      "▁jumped": 4052,
      "▁source": 4053,
      "▁toys": 4054,
      "▁paying": 4055,
      "▁shakes": 4056,
      "▁developed": 4057,
      "▁seeing": 4058,
      "▁conclude": 4059,
      "▁belie": 4060,
      "▁adopt": 4061,
      "▁prices": 4062,
      "▁no": 4063,
      "uality": 4064,
      "▁wife": 4065,
      "▁talked": 4066,
      "▁streets": 4067,
      "▁apply": 4068,
      "ob": 4069,
      "▁preparing": 4070,
      "▁earth": 4071,
      "▁answers": 4072,
      "▁swung": 4073,
      "▁obtain": 4074,
      "▁amendments": 4075,
      "burg": 4076,
      "erted": 4077,
      "▁emails": 4078,
      "iety": 4079,
      "▁naima": 4080,
      "pa": 4081,
      "▁interf": 4082,
      "our": 4083,
      "▁c": 4084,
      "▁defined": 4085,
      "▁selected": 4086,
      "lish": 4087,
      "ufact": 4088,
      "▁tab": 4089,
      "tually": 4090,
      "▁cur": 4091,
      "am": 4092,
      "▁rose": 4093,
      "astic": 4094,
      "▁conform": 4095,
      "▁furniture": 4096,
      "▁bad": 4097,
      "▁proof": 4098,
      "▁impression": 4099,
      "▁complete": 4100,
      "▁reminded": 4101,
      "▁amongst": 4102,
      "int": 4103,
      "▁percentage": 4104,
      "icul": 4105,
      "ane": 4106,
      "ʃ": 4107,
      "keep": 4108,
      "ww": 4109,
      "▁polic": 4110,
      "▁seemed": 4111,
      "▁verse": 4112,
      "‘": 4113,
      "▁pricing": 4114,
      "▁revenue": 4115,
      "/2": 4116,
      "eb": 4117,
      "urch": 4118,
      "uries": 4119,
      "tiles": 4120,
      "▁op": 4121,
      "▁vlog": 4122,
      "▁something": 4123,
      "▁his": 4124,
      "▁hot": 4125,
      "▁actually": 4126,
      "ground": 4127,
      "▁blow": 4128,
      "▁occas": 4129,
      "▁lined": 4130,
      "▁personality": 4131,
      "▁reproduc": 4132,
      "▁opportun": 4133,
      "ney": 4134,
      "men": 4135,
      "vol": 4136,
      "▁keeps": 4137,
      "▁cows": 4138,
      "▁degrees": 4139,
      "▁feels": 4140,
      "rew": 4141,
      "▁approved": 4142,
      "▁negoti": 4143,
      "▁tunnel": 4144,
      "▁nothing": 4145,
      "▁chalk": 4146,
      "yone": 4147,
      "▁leading": 4148,
      "▁greeted": 4149,
      "▁far": 4150,
      "▁soy": 4151,
      "▁calls": 4152,
      "tick": 4153,
      "ank": 4154,
      "isting": 4155,
      "▁thoughts": 4156,
      "tery": 4157,
      "▁gathered": 4158,
      "▁pace": 4159,
      "▁preserve": 4160,
      "▁directive": 4161,
      "▁avoided": 4162,
      "▁helicopters": 4163,
      "▁ingred": 4164,
      "▁pie": 4165,
      "▁mass": 4166,
      "▁heads": 4167,
      "0's": 4168,
      "▁traveled": 4169,
      "arks": 4170,
      "ting": 4171,
      "▁integr": 4172,
      "▁authority": 4173,
      "aw": 4174,
      "▁concluded": 4175,
      "ly": 4176,
      "........": 4177,
      "isf": 4178,
      "bed": 4179,
      "acles": 4180,
      "▁yeah": 4181,
      "▁enough": 4182,
      "ement": 4183,
      "▁cler": 4184,
      "▁populations": 4185,
      "▁explo": 4186,
      "▁help": 4187,
      "lf": 4188,
      "aches": 4189,
      "▁describe": 4190,
      "▁would": 4191,
      "▁hop": 4192,
      "▁helps": 4193,
      "▁opin": 4194,
      "▁islamists": 4195,
      "▁global": 4196,
      "▁arrested": 4197,
      "up": 4198,
      "erent": 4199,
      "ility": 4200,
      "æ": 4201,
      "boy": 4202,
      "▁business": 4203,
      "'": 4204,
      "▁prod": 4205,
      "▁rep": 4206,
      "ided": 4207,
      "▁driving": 4208,
      "▁dar": 4209,
      "▁plan": 4210,
      "▁live": 4211,
      "and": 4212,
      "▁powers": 4213,
      "▁august": 4214,
      "▁content": 4215,
      "▁aside": 4216,
      "▁became": 4217,
      "tainty": 4218,
      "▁perf": 4219,
      "▁flag": 4220,
      "▁hung": 4221,
      "ither": 4222,
      "▁thro": 4223,
      "▁reflected": 4224,
      "ass": 4225,
      "craft": 4226,
      "▁diss": 4227,
      "▁_____": 4228,
      "▁sens": 4229,
      "▁adver": 4230,
      "▁architect": 4231,
      "▁activ": 4232,
      "path": 4233,
      "▁learned": 4234,
      "▁allig": 4235,
      "▁recorded": 4236,
      "▁finger": 4237,
      "▁swinging": 4238,
      "▁switched": 4239,
      "▁apar": 4240,
      "▁so": 4241,
      "clo": 4242,
      "▁march": 4243,
      "▁concre": 4244,
      "▁measures": 4245,
      "▁explained": 4246,
      "▁organized": 4247,
      "▁alar": 4248,
      "ized": 4249,
      "▁viol": 4250,
      "ig": 4251,
      "▁vis": 4252,
      "▁fair": 4253,
      "▁!.": 4254,
      "▁favour": 4255,
      "▁cooperation": 4256,
      "derstanding": 4257,
      "rest": 4258,
      "utions": 4259,
      "▁season": 4260,
      "ali": 4261,
      "▁astr": 4262,
      "▁estab": 4263,
      "▁former": 4264,
      "rops": 4265,
      "▁wild": 4266,
      "▁influ": 4267,
      "▁tire": 4268,
      "▁intervening": 4269,
      "ant": 4270,
      "ighter": 4271,
      "▁versus": 4272,
      "▁thri": 4273,
      "▁towed": 4274,
      "▁columns": 4275,
      "rent": 4276,
      "▁freedoms": 4277,
      "ep": 4278,
      "ize": 4279,
      "▁iraq": 4280,
      "▁mike": 4281,
      "▁.......": 4282,
      "▁elbow": 4283,
      "▁applications": 4284,
      "▁hal": 4285,
      "▁;": 4286,
      "▁soci": 4287,
      "ed": 4288,
      "▁are": 4289,
      "▁absence": 4290,
      "▁fortune": 4291,
      "ffic": 4292,
      "▁jus": 4293,
      "eline": 4294,
      "▁agre": 4295,
      "ca": 4296,
      "alization": 4297,
      "▁if": 4298,
      "▁educated": 4299,
      "▁oc": 4300,
      "▁sched": 4301,
      "▁tomato": 4302,
      "▁majority": 4303,
      "▁realize": 4304,
      "▁seeking": 4305,
      "▁vegetable": 4306,
      "neath": 4307,
      "▁promise": 4308,
      "▁general": 4309,
      "r": 4310,
      "ear": 4311,
      "▁leaf": 4312,
      "▁accomm": 4313,
      "▁items": 4314,
      "▁transl": 4315,
      "▁airports": 4316,
      "▁serving": 4317,
      "▁appointment": 4318,
      "▁role": 4319,
      "ces": 4320,
      "ses": 4321,
      "fications": 4322,
      "▁broad": 4323,
      "▁shakespeare": 4324,
      "erved": 4325,
      "▁tele": 4326,
      "pts": 4327,
      "▁kitty": 4328,
      "▁until": 4329,
      "▁ground": 4330,
      "tt": 4331,
      "▁inv": 4332,
      "▁pyr": 4333,
      "are": 4334,
      "▁amount": 4335,
      "▁tourism": 4336,
      "▁distance": 4337,
      "▁stamp": 4338,
      "fact": 4339,
      "▁seas": 4340,
      "▁consequences": 4341,
      "▁dal": 4342,
      "erm": 4343,
      "▁collection": 4344,
      "▁mine": 4345,
      "▁rout": 4346,
      "00": 4347,
      "kin": 4348,
      "berries": 4349,
      "▁sugges": 4350,
      "acing": 4351,
      "▁centre": 4352,
      "▁withdraw": 4353,
      "▁di": 4354,
      "▁stated": 4355,
      "case": 4356,
      "er": 4357,
      "ives": 4358,
      "for": 4359,
      "▁range": 4360,
      "ated": 4361,
      "▁imprisoned": 4362,
      "▁outside": 4363,
      "▁interview": 4364,
      "enance": 4365,
      "▁terrorists": 4366,
      "ope": 4367,
      "ip": 4368,
      "▁govern": 4369,
      "▁worm": 4370,
      "▁buttons": 4371,
      "▁br": 4372,
      "▁their": 4373,
      "▁salad": 4374,
      "▁connections": 4375,
      "▁cages": 4376,
      "▁meter": 4377,
      "▁post": 4378,
      "tles": 4379,
      "▁dishes": 4380,
      "▁people": 4381,
      "ul": 4382,
      "▁3": 4383,
      "▁space": 4384,
      "ild": 4385,
      "rous": 4386,
      "▁crow": 4387,
      "▁spr": 4388,
      "avi": 4389,
      "▁miles": 4390,
      "▁islam": 4391,
      "v": 4392,
      "!?": 4393,
      "▁pu": 4394,
      "uma": 4395,
      "▁techniqu": 4396,
      "▁anything": 4397,
      "ashed": 4398,
      "▁declaration": 4399,
      "▁:?": 4400,
      "ast": 4401,
      "▁epis": 4402,
      "▁purchased": 4403,
      "vely": 4404,
      "▁fare": 4405,
      "▁..": 4406,
      "leum": 4407,
      "▁regarding": 4408,
      "▁sections": 4409,
      "▁documented": 4410,
      "▁division": 4411,
      "▁avo": 4412,
      "ise": 4413,
      "ove": 4414,
      "▁micro": 4415,
      "▁indicates": 4416,
      "▁shoes": 4417,
      "▁rooms": 4418,
      "▁dev": 4419,
      "▁monkey": 4420,
      "▁gallery": 4421,
      "lation": 4422,
      "υ": 4423,
      "▁teen": 4424,
      "▁coo": 4425,
      "▁implement": 4426,
      "▁invitation": 4427,
      "▁ensuring": 4428,
      "▁targ": 4429,
      "▁sectors": 4430,
      "▁wonder": 4431,
      "▁ran": 4432,
      "de": 4433,
      "▁independ": 4434,
      "▁businesses": 4435,
      "▁basket": 4436,
      "▁corner": 4437,
      "▁collapsed": 4438,
      "force": 4439,
      "▁quality": 4440,
      "▁throu": 4441,
      "▁inequ": 4442,
      "▁details": 4443,
      "▁landscape": 4444,
      "▁producers": 4445,
      "▁administ": 4446,
      "▁defend": 4447,
      "either": 4448,
      "▁acts": 4449,
      "▁desert": 4450,
      "▁saved": 4451,
      "▁direc": 4452,
      "▁teams": 4453,
      "▁memoir": 4454,
      "▁generated": 4455,
      "▁incorp": 4456,
      "ction": 4457,
      "▁start": 4458,
      "▁representatives": 4459,
      "um": 4460,
      "▁built": 4461,
      "▁mycelium": 4462,
      "▁navy": 4463,
      "▁lord": 4464,
      ".x": 4465,
      "▁filtered": 4466,
      "inn": 4467,
      "▁score": 4468,
      "▁pivottable": 4469,
      "▁toy": 4470,
      "ful": 4471,
      "ation": 4472,
      "▁rang": 4473,
      "▁milk": 4474,
      "▁finished": 4475,
      "ater": 4476,
      "osed": 4477,
      "▁houston": 4478,
      "driver": 4479,
      "▁..........": 4480,
      "tivity": 4481,
      "iles": 4482,
      "▁homes": 4483,
      "▁appeared": 4484,
      "▁easy": 4485,
      "lies": 4486,
      "▁women": 4487,
      "▁executed": 4488,
      "▁acknowled": 4489,
      "▁negotiated": 4490,
      "▁samples": 4491,
      "▁muscle": 4492,
      "▁steam": 4493,
      "▁ess": 4494,
      "▁texas": 4495,
      "eeze": 4496,
      "▁---------------------------------------------------------------------------": 4497,
      "▁restaurants": 4498,
      "clock": 4499,
      "▁copy": 4500,
      "▁cancel": 4501,
      "▁knight": 4502,
      "▁charm": 4503,
      "▁dolphin": 4504,
      "'clock": 4505,
      "▁sentences": 4506,
      "▁deliver": 4507,
      "oves": 4508,
      "ually": 4509,
      "▁insurance": 4510,
      "▁adam": 4511,
      "onal": 4512,
      "▁shr": 4513,
      "▁picture": 4514,
      "▁examine": 4515,
      "▁interests": 4516,
      "▁surprised": 4517,
      "ecess": 4518,
      "▁movies": 4519,
      "▁feed": 4520,
      "▁crowd": 4521,
      "▁farmers": 4522,
      "▁stars": 4523,
      "▁justice": 4524,
      "▁increases": 4525,
      "oices": 4526,
      "▁declare": 4527,
      "amp": 4528,
      "▁village": 4529,
      "▁trib": 4530,
      "▁dispute": 4531,
      "▁rather": 4532,
      "▁degree": 4533,
      "▁smoking": 4534,
      "▁beautiful": 4535,
      "ull": 4536,
      "▁sil": 4537,
      "▁confir": 4538,
      "lection": 4539,
      "▁next": 4540,
      "eria": 4541,
      "ote": 4542,
      "▁truth": 4543,
      "bout": 4544,
      "▁body": 4545,
      "▁message": 4546,
      "▁sss": 4547,
      "▁making": 4548,
      "▁belong": 4549,
      "▁pursu": 4550,
      "▁button": 4551,
      "▁mu": 4552,
      "▁faces": 4553,
      "▁employ": 4554,
      "▁stopover": 4555,
      "▁bands": 4556,
      "▁gras": 4557,
      "▁increasing": 4558,
      "▁achieving": 4559,
      "▁guessed": 4560,
      "▁gains": 4561,
      "ights": 4562,
      "▁discovered": 4563,
      "▁packed": 4564,
      "▁away": 4565,
      "▁lobby": 4566,
      "▁elected": 4567,
      "://": 4568,
      "▁decision": 4569,
      "▁pursue": 4570,
      "fore": 4571,
      "▁jun": 4572,
      "▁cop": 4573,
      "▁typ": 4574,
      "▁except": 4575,
      "▁trying": 4576,
      "▁descri": 4577,
      "dge": 4578,
      "▁tent": 4579,
      "▁hammer": 4580,
      "oted": 4581,
      "▁entitled": 4582,
      "▁terrorism": 4583,
      "▁display": 4584,
      "▁libr": 4585,
      "▁achievements": 4586,
      "▁ti": 4587,
      "▁salt": 4588,
      "▁exerc": 4589,
      "▁wheels": 4590,
      "▁cigar": 4591,
      "▁stud": 4592,
      "itions": 4593,
      "▁lifetime": 4594,
      "▁med": 4595,
      "is": 4596,
      "▁please": 4597,
      "▁mission": 4598,
      "▁proposal": 4599,
      "▁status": 4600,
      "▁adapt": 4601,
      "▁pets": 4602,
      "▁infl": 4603,
      "▁down": 4604,
      "▁problems": 4605,
      "ances": 4606,
      "essment": 4607,
      "▁foreign": 4608,
      "▁action": 4609,
      "▁men": 4610,
      "▁days": 4611,
      "▁father": 4612,
      "▁negot": 4613,
      "qual": 4614,
      "▁thursday": 4615,
      "▁adding": 4616,
      "▁gentle": 4617,
      "▁broom": 4618,
      "▁stepped": 4619,
      "▁fish": 4620,
      "▁guys": 4621,
      "▁expanding": 4622,
      "▁hope": 4623,
      "▁enforcement": 4624,
      "namon": 4625,
      "▁happening": 4626,
      "▁determined": 4627,
      "▁bac": 4628,
      "ps": 4629,
      "eor": 4630,
      "▁think": 4631,
      "▁mommy": 4632,
      "▁raised": 4633,
      "▁strugg": 4634,
      "▁repa": 4635,
      "ech": 4636,
      "istic": 4637,
      "▁photos": 4638,
      "as": 4639,
      "▁vot": 4640,
      "▁ll": 4641,
      "▁youth": 4642,
      "▁hosp": 4643,
      "▁mountain": 4644,
      "▁closed": 4645,
      "▁rat": 4646,
      "ada": 4647,
      "▁vaccine": 4648,
      "▁aft": 4649,
      "▁chic": 4650,
      "▁eats": 4651,
      "▁electric": 4652,
      "▁belief": 4653,
      "▁timing": 4654,
      "ten": 4655,
      "▁near": 4656,
      "▁broken": 4657,
      "▁trad": 4658,
      "▁f": 4659,
      "ale": 4660,
      "▁paul": 4661,
      "▁suitcase": 4662,
      "▁sci": 4663,
      "ules": 4664,
      "▁11": 4665,
      "▁exercise": 4666,
      "▁fli": 4667,
      "log": 4668,
      "▁ruin": 4669,
      "▁wolf": 4670,
      "▁evalu": 4671,
      "▁bandaid": 4672,
      "▁taken": 4673,
      "▁counterfeiting": 4674,
      "▁researchers": 4675,
      "▁earliest": 4676,
      "issors": 4677,
      "▁style": 4678,
      "antly": 4679,
      "▁attacked": 4680,
      "ptions": 4681,
      "uting": 4682,
      "▁purse": 4683,
      "ν": 4684,
      "▁workers": 4685,
      "ange": 4686,
      "▁advance": 4687,
      "▁behalf": 4688,
      "▁phys": 4689,
      "▁consc": 4690,
      "▁whale": 4691,
      "▁hair": 4692,
      "icians": 4693,
      "▁seam": 4694,
      "▁jail": 4695,
      "▁somewhere": 4696,
      "▁—": 4697,
      "▁quan": 4698,
      "▁heading": 4699,
      "tai": 4700,
      "str": 4701,
      "ould": 4702,
      "ithst": 4703,
      "ceived": 4704,
      "▁swim": 4705,
      "▁baseball": 4706,
      "▁buil": 4707,
      "▁neph": 4708,
      "mans": 4709,
      "▁horror": 4710,
      "▁newsp": 4711,
      "▁strateg": 4712,
      "▁capac": 4713,
      "▁taste": 4714,
      "arg": 4715,
      "▁represent": 4716,
      "▁brother": 4717,
      "▁hy": 4718,
      "ams": 4719,
      "▁falling": 4720,
      "otted": 4721,
      "▁gr": 4722,
      "ins": 4723,
      "▁arrival": 4724,
      "apse": 4725,
      "omed": 4726,
      "▁rag": 4727,
      "▁laid": 4728,
      "aughters": 4729,
      "▁multipl": 4730,
      "▁airfare": 4731,
      "ict": 4732,
      "▁oh": 4733,
      "▁anyth": 4734,
      "▁enron": 4735,
      "▁particles": 4736,
      "▁fees": 4737,
      "▁thru": 4738,
      "▁intelligence": 4739,
      "▁tick": 4740,
      "▁write": 4741,
      "www": 4742,
      "▁forest": 4743,
      "ida": 4744,
      "lando": 4745,
      "overed": 4746,
      "▁miracle": 4747,
      "onto": 4748,
      "▁shall": 4749,
      "▁gal": 4750,
      "▁trials": 4751,
      "nut": 4752,
      "▁jose": 4753,
      "▁opportunities": 4754,
      "▁agenda": 4755,
      "ent": 4756,
      "▁reviewed": 4757,
      "▁platform": 4758,
      "#6": 4759,
      "▁cause": 4760,
      "▁prett": 4761,
      "ved": 4762,
      "▁service": 4763,
      "▁continu": 4764,
      "▁revers": 4765,
      "▁exh": 4766,
      "orting": 4767,
      "ocated": 4768,
      "▁six": 4769,
      "▁accommod": 4770,
      "rou": 4771,
      "½": 4772,
      "▁volume": 4773,
      "▁se": 4774,
      "▁modify": 4775,
      "▁character": 4776,
      "▁survive": 4777,
      "▁airlin": 4778,
      "▁1970s": 4779,
      "▁serv": 4780,
      "▁analys": 4781,
      "agon": 4782,
      "▁sports": 4783,
      "ion": 4784,
      "------->": 4785,
      "▁cast": 4786,
      "▁directions": 4787,
      "ous": 4788,
      "rif": 4789,
      "▁promp": 4790,
      "▁gh": 4791,
      "▁bucket": 4792,
      "▁contains": 4793,
      "▁frost": 4794,
      "▁washed": 4795,
      "▁activity": 4796,
      "vening": 4797,
      "????????????????????????????????": 4798,
      "▁implementation": 4799,
      "▁chr": 4800,
      "ele": 4801,
      "▁consum": 4802,
      "▁solid": 4803,
      "▁counsel": 4804,
      "▁evolution": 4805,
      "ortant": 4806,
      "ctive": 4807,
      "amus": 4808,
      "▁b/": 4809,
      "▁num": 4810,
      "▁pm": 4811,
      "▁pepper": 4812,
      "▁tas": 4813,
      "▁examined": 4814,
      "▁holidays": 4815,
      "ship": 4816,
      "▁fellow": 4817,
      "usions": 4818,
      "▁goal": 4819,
      "itals": 4820,
      "▁certific": 4821,
      "▁availability": 4822,
      "spec": 4823,
      "hib": 4824,
      "▁sex": 4825,
      "inder": 4826,
      "▁hearing": 4827,
      "inging": 4828,
      "▁deck": 4829,
      "erful": 4830,
      "mate": 4831,
      "▁thy": 4832,
      "▁exist": 4833,
      "▁hat": 4834,
      "hus": 4835,
      "▁convin": 4836,
      "▁spear": 4837,
      "▁cre": 4838,
      "▁maps": 4839,
      "▁adopted": 4840,
      "▁whoever": 4841,
      "igned": 4842,
      "▁modified": 4843,
      "▁rel": 4844,
      "▁shore": 4845,
      "omm": 4846,
      "ates": 4847,
      "▁boss": 4848,
      "▁copies": 4849,
      "▁deployed": 4850,
      "▁represents": 4851,
      "▁clou": 4852,
      "▁term": 4853,
      "▁agents": 4854,
      "▁percenti": 4855,
      "▁pulled": 4856,
      "/": 4857,
      "arl": 4858,
      "▁chance": 4859,
      "▁treatment": 4860,
      "▁observed": 4861,
      "elf": 4862,
      "enders": 4863,
      "▁though": 4864,
      "▁included": 4865,
      "▁resul": 4866,
      "▁occasion": 4867,
      "▁account": 4868,
      "▁correc": 4869,
      "▁teasp": 4870,
      "▁marked": 4871,
      "▁weapons": 4872,
      "▁gets": 4873,
      "makers": 4874,
      "eignty": 4875,
      "▁socks": 4876,
      "▁hiding": 4877,
      "▁arrangement": 4878,
      "▁foundation": 4879,
      "▁dro": 4880,
      "▁signature": 4881,
      "▁exp": 4882,
      "▁contacts": 4883,
      "▁regarded": 4884,
      "▁stick": 4885,
      "ingly": 4886,
      "▁treat": 4887,
      "esday": 4888,
      "▁kit": 4889,
      "▁jungle": 4890,
      "do": 4891,
      "▁slee": 4892,
      "▁showed": 4893,
      "ʊ": 4894,
      "▁uni": 4895,
      "▁production": 4896,
      "atis": 4897,
      "▁comm": 4898,
      "▁introduced": 4899,
      "▁hurts": 4900,
      "▁truck": 4901,
      "▁stage": 4902,
      "umn": 4903,
      "▁smell": 4904,
      "▁moisture": 4905,
      "▁stay": 4906,
      "▁worry": 4907,
      "let": 4908,
      "band": 4909,
      "▁birth": 4910,
      "xim": 4911,
      "▁web": 4912,
      "▁approve": 4913,
      "life": 4914,
      "▁relig": 4915,
      "▁videos": 4916,
      ".s": 4917,
      "selves": 4918,
      "▁stem": 4919,
      "▁handed": 4920,
      "▁offers": 4921,
      "▁settlement": 4922,
      "▁ru": 4923,
      "▁dwww": 4924,
      "▁contain": 4925,
      "▁refriger": 4926,
      "▁puts": 4927,
      "▁hitting": 4928,
      "▁corpor": 4929,
      "▁run": 4930,
      "pos": 4931,
      "ickness": 4932,
      "▁plant": 4933,
      "ty": 4934,
      "▁bread": 4935,
      "▁arrest": 4936,
      "▁raining": 4937,
      "▁newspapers": 4938,
      "▁occur": 4939,
      "▁reduced": 4940,
      "▁this": 4941,
      "▁applying": 4942,
      "▁lap": 4943,
      "▁managed": 4944,
      "▁refused": 4945,
      "orm": 4946,
      "▁powder": 4947,
      "▁speaker": 4948,
      "imb": 4949,
      "▁bott": 4950,
      "ule": 4951,
      "illed": 4952,
      "▁momm": 4953,
      "▁really": 4954,
      "▁peoples": 4955,
      "▁landing": 4956,
      "how": 4957,
      "cience": 4958,
      "▁provided": 4959,
      "▁respon": 4960,
      "▁thrown": 4961,
      "▁pho": 4962,
      "▁investigation": 4963,
      "▁sussex": 4964,
      "▁same": 4965,
      "aur": 4966,
      "▁steps": 4967,
      "duc": 4968,
      "▁provision": 4969,
      "gh": 4970,
      "▁uh": 4971,
      "▁graduate": 4972,
      "▁query": 4973,
      "asts": 4974,
      "▁connection": 4975,
      "▁feedback": 4976,
      "les": 4977,
      "▁wan": 4978,
      "▁agent": 4979,
      "▁few": 4980,
      "▁ble": 4981,
      "ide": 4982,
      "urt": 4983,
      "“": 4984,
      "▁strong": 4985,
      "▁bills": 4986,
      "▁understand": 4987,
      "▁yard": 4988,
      "▁reduc": 4989,
      "way": 4990,
      "urned": 4991,
      "ication": 4992,
      "▁neighbour": 4993,
      "▁judg": 4994,
      "▁miam": 4995,
      "▁town": 4996,
      "▁integration": 4997,
      "▁accompanied": 4998,
      "tw": 4999,
      "▁shoe": 5000,
      "hic": 5001,
      "▁lies": 5002,
      "▁expensive": 5003,
      "▁explanations": 5004,
      "▁belt": 5005,
      "▁copied": 5006,
      "▁2": 5007,
      "▁letting": 5008,
      "▁sending": 5009,
      "▁basketball": 5010,
      "ired": 5011,
      "▁okay": 5012,
      "▁third": 5013,
      "▁challenge": 5014,
      "▁anim": 5015,
      "▁wars": 5016,
      "▁manufacturers": 5017,
      "▁tummy": 5018,
      "▁plane": 5019,
      "▁life": 5020,
      "▁je": 5021,
      "ol": 5022,
      "▁infrastruc": 5023,
      "▁doors": 5024,
      "thin": 5025,
      "▁god": 5026,
      "▁dividends": 5027,
      "▁apr": 5028,
      "▁avocado": 5029,
      "▁comple": 5030,
      "▁renew": 5031,
      "igg": 5032,
      "een": 5033,
      "▁pops": 5034,
      "▁bodies": 5035,
      "ling": 5036,
      "▁shows": 5037,
      "▁rail": 5038,
      "▁rise": 5039,
      "▁paintings": 5040,
      "▁opened": 5041,
      "▁atlanta": 5042,
      "▁policy": 5043,
      "▁sitting": 5044,
      "esthe": 5045,
      "▁operator": 5046,
      "▁walked": 5047,
      "▁???": 5048,
      "▁priority": 5049,
      "▁sent": 5050,
      "▁encour": 5051,
      "▁butterfl": 5052,
      "▁overcome": 5053,
      "▁cheek": 5054,
      "▁univers": 5055,
      "▁tags": 5056,
      "fic": 5057,
      "▁gis": 5058,
      "▁divided": 5059,
      "▁officer": 5060,
      "▁storm": 5061,
      "▁aesthe": 5062,
      "▁unto": 5063,
      "q": 5064,
      "▁elements": 5065,
      "▁company": 5066,
      "▁degre": 5067,
      "▁benef": 5068,
      "▁def": 5069,
      "▁journey": 5070,
      "▁year": 5071,
      "▁coffee": 5072,
      "ried": 5073,
      "ipping": 5074,
      "boat": 5075,
      "▁route": 5076,
      "hol": 5077,
      "▁interact": 5078,
      "▁layout": 5079,
      "▁reduces": 5080,
      "olving": 5081,
      "▁strain": 5082,
      "▁detro": 5083,
      "▁sad": 5084,
      "▁,?": 5085,
      "▁returning": 5086,
      "▁beach": 5087,
      "▁tri": 5088,
      "▁rib": 5089,
      "▁fighter": 5090,
      "▁industries": 5091,
      "stem": 5092,
      "illion": 5093,
      "▁news": 5094,
      "▁contact": 5095,
      "▁waitress": 5096,
      "▁tal": 5097,
      "▁div": 5098,
      "▁pil": 5099,
      "▁color": 5100,
      "▁t": 5101,
      "▁roared": 5102,
      "▁join": 5103,
      "2": 5104,
      "eer": 5105,
      "▁bone": 5106,
      "▁existed": 5107,
      "▁alco": 5108,
      "▁allowed": 5109,
      "dy": 5110,
      "▁incident": 5111,
      "▁choose": 5112,
      "udes": 5113,
      "igning": 5114,
      "▁offered": 5115,
      "********": 5116,
      "order": 5117,
      "▁rush": 5118,
      "▁links": 5119,
      "▁significance": 5120,
      "ities": 5121,
      "▁esc": 5122,
      "icated": 5123,
      "▁held": 5124,
      "ket": 5125,
      "▁noise": 5126,
      "▁tradition": 5127,
      "▁downtown": 5128,
      "▁emp": 5129,
      "antee": 5130,
      "▁ext": 5131,
      "▁advised": 5132,
      "▁lose": 5133,
      "▁regre": 5134,
      "▁thread": 5135,
      "▁accompan": 5136,
      "+----------------": 5137,
      "▁release": 5138,
      "▁en": 5139,
      "ector": 5140,
      "▁tourists": 5141,
      "ject": 5142,
      "▁conc": 5143,
      "▁gar": 5144,
      "▁jar": 5145,
      "▁donations": 5146,
      "▁forces": 5147,
      "▁sovereignty": 5148,
      "▁phrase": 5149,
      "amed": 5150,
      "▁substances": 5151,
      "▁prom": 5152,
      "▁battery": 5153,
      "ployment": 5154,
      "▁initiated": 5155,
      "▁insights": 5156,
      "▁mathema": 5157,
      "all": 5158,
      "asing": 5159,
      "▁difficult": 5160,
      "▁saf": 5161,
      "▁bones": 5162,
      "▁arrived": 5163,
      "▁hurry": 5164,
      "▁middle": 5165,
      "▁susp": 5166,
      "$$": 5167,
      "za": 5168,
      "▁wid": 5169,
      "elling": 5170,
      "▁independence": 5171,
      "▁racing": 5172,
      "▁punch": 5173,
      "▁attem": 5174,
      "oop": 5175,
      "▁dreamed": 5176,
      "▁anoth": 5177,
      "▁grows": 5178,
      "▁vehicles": 5179,
      "▁mush": 5180,
      "▁cartoons": 5181,
      "▁30": 5182,
      "▁three": 5183,
      "▁full": 5184,
      "ials": 5185,
      "▁vision": 5186,
      "▁infrastructure": 5187,
      "▁pants": 5188,
      "ah": 5189,
      "ison": 5190,
      "igrants": 5191,
      "se": 5192,
      "sed": 5193,
      ".ht": 5194,
      "ther": 5195,
      "tis": 5196,
      "▁cher": 5197,
      "▁together": 5198,
      "▁meals": 5199,
      "▁spl": 5200,
      "▁impl": 5201,
      "▁deaths": 5202,
      "▁submit": 5203,
      "▁spread": 5204,
      "▁conde": 5205,
      "▁struc": 5206,
      "▁gall": 5207,
      "tim": 5208,
      "▁swallow": 5209,
      "▁inflation": 5210,
      "▁antiqu": 5211,
      "▁author": 5212,
      "▁writes": 5213,
      "igr": 5214,
      "▁consul": 5215,
      "▁answered": 5216,
      "ilosoph": 5217,
      "▁cros": 5218,
      "less": 5219,
      "eries": 5220,
      "oph": 5221,
      "ades": 5222,
      "▁culture": 5223,
      "pensive": 5224,
      "▁station": 5225,
      "▁rememb": 5226,
      "▁argument": 5227,
      "▁find": 5228,
      "▁cin": 5229,
      "▁systems": 5230,
      "▁waste": 5231,
      "▁aud": 5232,
      "▁claiming": 5233,
      "▁mum": 5234,
      "▁chee": 5235,
      "▁bit": 5236,
      "▁miami": 5237,
      "eapolis": 5238,
      "uses": 5239,
      "▁launched": 5240,
      "animals": 5241,
      "gan": 5242,
      "▁guil": 5243,
      "▁statements": 5244,
      "▁yet": 5245,
      "its": 5246,
      "▁tried": 5247,
      "▁&": 5248,
      "ators": 5249,
      "▁offices": 5250,
      "▁firms": 5251,
      "▁site": 5252,
      "▁put": 5253,
      "▁assume": 5254,
      "▁designs": 5255,
      "une": 5256,
      "▁client": 5257,
      "▁compon": 5258,
      "isture": 5259,
      "▁communities": 5260,
      "apping": 5261,
      "▁jeep": 5262,
      "▁comput": 5263,
      "▁imple": 5264,
      "▁popcorn": 5265,
      "hibited": 5266,
      "▁different": 5267,
      "ization": 5268,
      "▁department": 5269,
      "▁chim": 5270,
      "▁pe": 5271,
      "▁opposite": 5272,
      "utiful": 5273,
      "▁mile": 5274,
      "▁represented": 5275,
      "omach": 5276,
      "▁drop": 5277,
      "yet": 5278,
      "▁absorb": 5279,
      "▁medicine": 5280,
      "▁daughter": 5281,
      "▁causes": 5282,
      "▁rev": 5283,
      "▁solutions": 5284,
      "ician": 5285,
      "▁recomm": 5286,
      "▁fellows": 5287,
      "▁fill": 5288,
      "ished": 5289,
      "▁allies": 5290,
      "▁writer": 5291,
      "▁copyright": 5292,
      "pers": 5293,
      "▁tax": 5294,
      "gin": 5295,
      "▁question": 5296,
      "▁race": 5297,
      "▁demonstrate": 5298,
      "▁tennis": 5299,
      "▁garden": 5300,
      "▁looking": 5301,
      "io": 5302,
      "▁hoo": 5303,
      "▁happy": 5304,
      "onally": 5305,
      "▁beliefs": 5306,
      "isl": 5307,
      "▁ign": 5308,
      "▁putting": 5309,
      "▁cover": 5310,
      "over": 5311,
      "▁songs": 5312,
      "aging": 5313,
      "sus": 5314,
      "raw": 5315,
      "▁compared": 5316,
      "gether": 5317,
      "---------------": 5318,
      "▁characteristics": 5319,
      "▁costs": 5320,
      ">": 5321,
      "▁reg": 5322,
      "▁seating": 5323,
      "▁ord": 5324,
      "iture": 5325,
      "▁decl": 5326,
      "▁savings": 5327,
      "▁mic": 5328,
      "▁anal": 5329,
      "▁inf": 5330,
      "▁!!": 5331,
      "▁direction": 5332,
      "▁agreed": 5333,
      "▁meant": 5334,
      "▁height": 5335,
      "▁measured": 5336,
      "▁paragraph": 5337,
      "▁transit": 5338,
      "pite": 5339,
      "▁force": 5340,
      "▁prepar": 5341,
      "▁pod": 5342,
      "▁zero": 5343,
      "▁assets": 5344,
      "▁back": 5345,
      "tor": 5346,
      "▁whil": 5347,
      "▁mechanic": 5348,
      "▁bright": 5349,
      "▁patterns": 5350,
      "▁quote": 5351,
      "▁moving": 5352,
      "▁blown": 5353,
      "▁bow": 5354,
      "▁information": 5355,
      "iding": 5356,
      "▁capability": 5357,
      "•": 5358,
      "▁desire": 5359,
      "▁strategies": 5360,
      "▁between": 5361,
      "▁commitment": 5362,
      "▁lay": 5363,
      "lities": 5364,
      "▁mr.": 5365,
      "alsa": 5366,
      "▁including": 5367,
      "▁tourist": 5368,
      "^": 5369,
      "icing": 5370,
      "ral": 5371,
      "orti": 5372,
      "▁dun": 5373,
      "▁ye": 5374,
      "▁also": 5375,
      "ics": 5376,
      "play": 5377,
      "tingu": 5378,
      "▁camp": 5379,
      "ified": 5380,
      "▁weekends": 5381,
      "▁type": 5382,
      "▁happens": 5383,
      "▁require": 5384,
      "▁francisco": 5385,
      "▁fright": 5386,
      "hold": 5387,
      "ore": 5388,
      "▁laws": 5389,
      "▁da": 5390,
      "▁deals": 5391,
      "▁swww": 5392,
      "▁closing": 5393,
      "▁climbed": 5394,
      "▁rocket": 5395,
      "▁highligh": 5396,
      "▁ju": 5397,
      "▁bas": 5398,
      "ald": 5399,
      "rance": 5400,
      "▁evolved": 5401,
      "ird": 5402,
      "▁puppy": 5403,
      "iew": 5404,
      "▁follow": 5405,
      "▁reserv": 5406,
      "▁licens": 5407,
      "▁coun": 5408,
      "▁housing": 5409,
      "▁interference": 5410,
      "▁microphone": 5411,
      "▁bridge": 5412,
      "▁editors": 5413,
      "▁passes": 5414,
      "9": 5415,
      "uty": 5416,
      "▁strategy": 5417,
      "▁expertise": 5418,
      "aph": 5419,
      "ying": 5420,
      "▁owned": 5421,
      "▁ris": 5422,
      "▁soldiers": 5423,
      "▁tel": 5424,
      "▁remind": 5425,
      "ivers": 5426,
      "▁noticed": 5427,
      "▁either": 5428,
      "▁reading": 5429,
      "▁moral": 5430,
      "▁san": 5431,
      "▁reception": 5432,
      "ection": 5433,
      "kes": 5434,
      "▁scenario": 5435,
      "▁concept": 5436,
      "▁audience": 5437,
      "ulars": 5438,
      "ential": 5439,
      "▁playw": 5440,
      "▁ports": 5441,
      "other": 5442,
      "▁roads": 5443,
      "emic": 5444,
      "▁wo": 5445,
      "▁egg": 5446,
      "▁foli": 5447,
      "▁listing": 5448,
      "rates": 5449,
      "idd": 5450,
      "▁rice": 5451,
      "▁runs": 5452,
      "▁fun": 5453,
      "▁gardens": 5454,
      "▁second": 5455,
      "▁fav": 5456,
      "▁services": 5457,
      "▁pink": 5458,
      "▁emb": 5459,
      "~": 5460,
      "▁displ": 5461,
      "▁evac": 5462,
      "▁proper": 5463,
      "▁border": 5464,
      "▁owe": 5465,
      "▁duties": 5466,
      "▁slip": 5467,
      "▁prep": 5468,
      "▁visit": 5469,
      "li": 5470,
      "▁tree": 5471,
      "▁entities": 5472,
      "areness": 5473,
      "▁commitments": 5474,
      "▁feat": 5475,
      "out": 5476,
      "▁expansion": 5477,
      "▁produced": 5478,
      "▁vint": 5479,
      "▁ques": 5480,
      "aded": 5481,
      "▁affect": 5482,
      "▁invol": 5483,
      "side": 5484,
      "▁bee": 5485,
      "▁anybody": 5486,
      "▁purposes": 5487,
      "▁separ": 5488,
      "▁believes": 5489,
      "▁qu": 5490,
      "ean": 5491,
      "▁turtle": 5492,
      "ticip": 5493,
      "▁manner": 5494,
      "top": 5495,
      "▁elim": 5496,
      "ching": 5497,
      "▁involve": 5498,
      "eng": 5499,
      "▁meaning": 5500,
      "▁chees": 5501,
      "▁interconnect": 5502,
      "arters": 5503,
      "▁specialist": 5504,
      "affle": 5505,
      "▁inspection": 5506,
      "cent": 5507,
      "▁alongside": 5508,
      "▁enti": 5509,
      "▁fault": 5510,
      "▁knocked": 5511,
      "▁recover": 5512,
      "▁rolled": 5513,
      "▁,": 5514,
      "▁november": 5515,
      "▁languages": 5516,
      "▁arrow": 5517,
      "▁university": 5518,
      "▁inter": 5519,
      "▁tests": 5520,
      "▁shape": 5521,
      "▁satellite": 5522,
      "▁breath": 5523,
      "ief": 5524,
      "▁deter": 5525,
      "ists": 5526,
      "ements": 5527,
      "▁note": 5528,
      "▁filters": 5529,
      "▁techn": 5530,
      "▁effort": 5531,
      "▁clos": 5532,
      "▁belon": 5533,
      "uce": 5534,
      "▁weake": 5535,
      "▁vari": 5536,
      "▁police": 5537,
      "▁senators": 5538,
      "▁rad": 5539,
      "▁the": 5540,
      "▁eggs": 5541,
      "room": 5542,
      "▁sw": 5543,
      "▁200": 5544,
      "▁sales": 5545,
      "▁afford": 5546,
      "▁investi": 5547,
      "▁love": 5548,
      "▁behind": 5549,
      "▁coc": 5550,
      "▁dolphins": 5551,
      "▁pretty": 5552,
      "▁carol": 5553,
      "▁>": 5554,
      "na": 5555,
      "▁pre": 5556,
      "ugh": 5557,
      "▁thank": 5558,
      "▁exclu": 5559,
      "▁rif": 5560,
      "▁rainbow": 5561,
      "▁believe": 5562,
      "▁technology": 5563,
      "▁asylum": 5564,
      "gar": 5565,
      "▁kick": 5566,
      "▁htt": 5567,
      "▁wit": 5568,
      "▁ripped": 5569,
      "▁local": 5570,
      "▁allowing": 5571,
      "▁tu": 5572,
      "▁spotted": 5573,
      "▁make": 5574,
      "isation": 5575,
      "—": 5576,
      "ran": 5577,
      "▁non": 5578,
      "▁heav": 5579,
      "▁hearts": 5580,
      "olog": 5581,
      "ers": 5582,
      "▁worksh": 5583,
      "▁collect": 5584,
      "▁bull": 5585,
      "▁robot": 5586,
      "▁transport": 5587,
      "▁legacy": 5588,
      "▁!!!!!!!!!!": 5589,
      "bility": 5590,
      "▁pushed": 5591,
      "▁york": 5592,
      "phis": 5593,
      "rons": 5594,
      "▁res": 5595,
      "cre": 5596,
      "▁fell": 5597,
      "▁hell": 5598,
      "▁ignorance": 5599,
      "▁seems": 5600,
      "▁quickly": 5601,
      "▁cleaned": 5602,
      "list": 5603,
      "oured": 5604,
      "▁sticker": 5605,
      "isd": 5606,
      "▁equipment": 5607,
      "w": 5608,
      "tiff": 5609,
      "▁rene": 5610,
      "▁half": 5611,
      "▁guidance": 5612,
      "▁eyes": 5613,
      "peare": 5614,
      "ecks": 5615,
      "inea": 5616,
      "▁str": 5617,
      "▁initiative": 5618,
      "▁separate": 5619,
      "▁mou": 5620,
      "▁continues": 5621,
      "▁b": 5622,
      "▁couch": 5623,
      "ze": 5624,
      ";": 5625,
      "ael": 5626,
      "!": 5627,
      "▁happ": 5628,
      "▁tag": 5629,
      "▁wall": 5630,
      "▁salon": 5631,
      "mission": 5632,
      "▁obs": 5633,
      "▁certificate": 5634,
      "▁joke": 5635,
      "place": 5636,
      "▁gen": 5637,
      "wor": 5638,
      "ycle": 5639,
      "ines": 5640,
      "▁press": 5641,
      "▁reform": 5642,
      "▁woke": 5643,
      "▁committee": 5644,
      "▁depth": 5645,
      "▁philosoph": 5646,
      "▁dim": 5647,
      "▁traffic": 5648,
      "▁gir": 5649,
      "▁shock": 5650,
      "▁fabric": 5651,
      "▁check": 5652,
      "▁includes": 5653,
      "▁produce": 5654,
      "▁execute": 5655,
      "▁sant": 5656,
      "▁lasted": 5657,
      "▁sites": 5658,
      "▁heels": 5659,
      "ident": 5660,
      "▁equality": 5661,
      "ache": 5662,
      "zac": 5663,
      "esaw": 5664,
      "▁repeated": 5665,
      "▁growth": 5666,
      "▁fed": 5667,
      "▁exists": 5668,
      "▁kind": 5669,
      "▁forwar": 5670,
      "▁secon": 5671,
      "▁reduce": 5672,
      "▁bro": 5673,
      "▁defic": 5674,
      "▁fro": 5675,
      "▁trade": 5676,
      "▁attend": 5677,
      "▁wiz": 5678,
      "▁documentation": 5679,
      "▁running": 5680,
      "▁garbage": 5681,
      "▁ties": 5682,
      "▁toes": 5683,
      "▁walk": 5684,
      "lit": 5685,
      "▁mechan": 5686,
      "▁continue": 5687,
      "▁relations": 5688,
      "▁refri": 5689,
      "alu": 5690,
      "▁announced": 5691,
      "▁hams": 5692,
      "▁trial": 5693,
      "▁operations": 5694,
      "▁seven": 5695,
      "▁tank": 5696,
      "▁nations": 5697,
      "pped": 5698,
      "▁minister": 5699,
      "▁(": 5700,
      "▁column": 5701,
      "ir": 5702,
      "▁enter": 5703,
      "▁analyst": 5704,
      "▁ed": 5705,
      "▁surprise": 5706,
      "ott": 5707,
      "▁is": 5708,
      "▁types": 5709,
      "▁transaction": 5710,
      "etter": 5711,
      "resent": 5712,
      "▁piv": 5713,
      "▁ml": 5714,
      "▁outfit": 5715,
      "▁notic": 5716,
      "▁pat": 5717,
      "▁behaviors": 5718,
      "▁materials": 5719,
      "▁demonstr": 5720,
      "▁matter": 5721,
      "onna": 5722,
      "itled": 5723,
      "▁correspond": 5724,
      "▁:": 5725,
      "▁dollars": 5726,
      "▁arti": 5727,
      "▁codes": 5728,
      "▁mont": 5729,
      "tures": 5730,
      "▁statue": 5731,
      "faction": 5732,
      "oms": 5733,
      "▁actress": 5734,
      "aring": 5735,
      "▁cooked": 5736,
      "astruc": 5737,
      "▁valley": 5738,
      "▁haf": 5739,
      "▁continuing": 5740,
      "ification": 5741,
      "▁speak": 5742,
      "▁participation": 5743,
      "▁!!!!!!!!!!!!!": 5744,
      "▁mayor": 5745,
      "▁model": 5746,
      "▁presented": 5747,
      "uum": 5748,
      "▁further": 5749,
      "▁vers": 5750,
      "▁brush": 5751,
      "▁poet": 5752,
      "▁lists": 5753,
      "▁assu": 5754,
      "▁circle": 5755,
      "alth": 5756,
      "▁base": 5757,
      "▁hyp": 5758,
      "▁outf": 5759,
      "▁daddy": 5760,
      "▁http://": 5761,
      "eral": 5762,
      "▁rem": 5763,
      "▁vegas": 5764,
      "▁comed": 5765,
      "▁trail": 5766,
      "▁<<": 5767,
      "▁gi": 5768,
      "▁practice": 5769,
      "▁-------------------------------------------------": 5770,
      "▁draft": 5771,
      "▁rot": 5772,
      "▁dessert": 5773,
      "▁individuals": 5774,
      "g": 5775,
      "▁provides": 5776,
      "rem": 5777,
      "▁transactions": 5778,
      "▁close": 5779,
      "▁ta": 5780,
      "ories": 5781,
      "▁imag": 5782,
      "▁asyl": 5783,
      "▁beans": 5784,
      "▁means": 5785,
      "▁fit": 5786,
      "ie": 5787,
      "owed": 5788,
      "▁labor": 5789,
      "▁e-m": 5790,
      "▁era": 5791,
      "▁limit": 5792,
      "itely": 5793,
      "▁its": 5794,
      "▁permission": 5795,
      "▁sharing": 5796,
      "▁recognize": 5797,
      "▁driven": 5798,
      "inity": 5799,
      "idents": 5800,
      "▁cru": 5801,
      "ious": 5802,
      "est": 5803,
      "▁huh": 5804,
      "▁knee": 5805,
      "▁energy": 5806,
      "▁earthqu": 5807,
      "ff": 5808,
      "▁saturday": 5809,
      "▁requests": 5810,
      "ke": 5811,
      "ract": 5812,
      "▁spears": 5813,
      "▁datab": 5814,
      "▁affects": 5815,
      "▁delete": 5816,
      "apolis": 5817,
      "iry": 5818,
      "▁compar": 5819,
      "istan": 5820,
      "▁yours": 5821,
      "▁bea": 5822,
      "▁sover": 5823,
      "▁operating": 5824,
      "▁machines": 5825,
      "roduc": 5826,
      "▁lot": 5827,
      "▁petroleum": 5828,
      "itated": 5829,
      "quarters": 5830,
      "▁af": 5831,
      "▁r": 5832,
      "▁cards": 5833,
      "▁mad": 5834,
      "▁veter": 5835,
      "aser": 5836,
      "▁lin": 5837,
      "▁profits": 5838,
      "▁folio": 5839,
      "▁spokes": 5840,
      "▁spray": 5841,
      "fted": 5842,
      "▁turning": 5843,
      "ional": 5844,
      "ha": 5845,
      "▁tell": 5846,
      "▁flight": 5847,
      "▁uncer": 5848,
      "▁advertising": 5849,
      "ating": 5850,
      "oses": 5851,
      "▁app": 5852,
      "▁aircraft": 5853,
      "orage": 5854,
      "▁pos": 5855,
      "▁noted": 5856,
      "▁players": 5857,
      "▁incitement": 5858,
      "▁cheese": 5859,
      "▁touch": 5860,
      "▁horse": 5861,
      "hered": 5862,
      "▁constitution": 5863,
      "▁initiatives": 5864,
      "▁inc": 5865,
      "▁required": 5866,
      "mited": 5867,
      "▁oatme": 5868,
      "▁picked": 5869,
      "▁be": 5870,
      "▁discovery": 5871,
      "▁john": 5872,
      "ons": 5873,
      "alized": 5874,
      "▁seesaw": 5875,
      "▁marsh": 5876,
      "▁coordin": 5877,
      "quis": 5878,
      "▁months": 5879,
      "▁it's": 5880,
      "▁thing": 5881,
      "▁more": 5882,
      "4": 5883,
      "▁garage": 5884,
      "▁morning": 5885,
      "ator": 5886,
      "▁mil": 5887,
      "▁.?": 5888,
      "▁aunt": 5889,
      "▁performing": 5890,
      "▁earli": 5891,
      "▁!!!!!!!!!!!!!!!!!!!": 5892,
      "▁object": 5893,
      "▁drawer": 5894,
      "▁disc": 5895,
      "▁planes": 5896,
      "▁prem": 5897,
      "▁partic": 5898,
      "▁situation": 5899,
      "arians": 5900,
      "▁scam": 5901,
      "▁exch": 5902,
      "bly": 5903,
      "▁center": 5904,
      "▁squi": 5905,
      "ider": 5906,
      "▁val": 5907,
      "▁-": 5908,
      "▁act": 5909,
      "▁moments": 5910,
      "▁correspondence": 5911,
      "▁capital": 5912,
      "▁departing": 5913,
      "▁regard": 5914,
      "▁baltimore": 5915,
      "ats": 5916,
      "▁politicians": 5917,
      "asp": 5918,
      "gency": 5919,
      "▁''": 5920,
      "dered": 5921,
      "▁word": 5922,
      "el": 5923,
      "▁contrib": 5924,
      "i": 5925,
      "▁les": 5926,
      "▁auth": 5927,
      "▁pitch": 5928,
      "▁box": 5929,
      "▁grand": 5930,
      "▁class": 5931,
      "▁chair": 5932,
      "▁glasses": 5933,
      "▁some": 5934,
      "ligh": 5935,
      "teen": 5936,
      "▁issue": 5937,
      "▁fact": 5938,
      "yp": 5939,
      "s": 5940,
      "ards": 5941,
      "▁filter": 5942,
      "▁ing": 5943,
      "oun": 5944,
      "▁attachment": 5945,
      "▁left": 5946,
      "▁enj": 5947,
      "ill": 5948,
      "▁street": 5949,
      "ory": 5950,
      "▁quest": 5951,
      "▁challenges": 5952,
      "▁scholars": 5953,
      "▁perspective": 5954,
      "▁pancakes": 5955,
      "▁pass": 5956,
      "ament": 5957,
      "ula": 5958,
      "▁limousine": 5959,
      "cently": 5960,
      "▁bacon": 5961,
      "▁regards": 5962,
      "ib": 5963,
      "▁members": 5964,
      "▁projected": 5965,
      "▁changing": 5966,
      "▁re-": 5967,
      "13": 5968,
      "▁los": 5969,
      "ho": 5970,
      "iv": 5971,
      "▁bang": 5972,
      "▁purchasing": 5973,
      "▁slope": 5974,
      "▁influence": 5975,
      "▁humanity": 5976,
      "ox": 5977,
      "▁affair": 5978,
      "▁passport": 5979,
      "▁yoga": 5980,
      "uations": 5981,
      "▁rec": 5982,
      "wi": 5983,
      "▁shops": 5984,
      "▁uniform": 5985,
      "▁|--------+----------------": 5986,
      "lling": 5987,
      "▁winning": 5988,
      "uits": 5989,
      "▁have": 5990,
      "▁cinnamon": 5991,
      "ulating": 5992,
      "▁espec": 5993,
      "even": 5994,
      "▁audi": 5995,
      "▁fiel": 5996,
      "▁explos": 5997,
      "▁edit": 5998,
      "▁drive": 5999,
      "pet": 6000,
      "uly": 6001,
      "▁cookie": 6002,
      "ched": 6003,
      "icide": 6004,
      "▁occasions": 6005,
      "▁consider": 6006,
      "▁views": 6007,
      "▁conflic": 6008,
      "warded": 6009,
      "▁gap": 6010,
      "otyp": 6011,
      "▁banan": 6012,
      "▁capacity": 6013,
      "6": 6014,
      "ember": 6015,
      "rap": 6016,
      "▁alligator": 6017,
      "▁g": 6018,
      "edom": 6019,
      "▁abe": 6020,
      "▁tex": 6021,
      "▁sweetie": 6022,
      "▁skills": 6023,
      "▁reputation": 6024,
      "▁turns": 6025,
      "roleum": 6026,
      "▁humans": 6027,
      "▁theme": 6028,
      "▁promised": 6029,
      "▁dist": 6030,
      "▁shares": 6031,
      "▁international": 6032,
      "▁fant": 6033,
      "▁animal": 6034,
      "▁spot": 6035,
      "oli": 6036,
      "▁bath": 6037,
      "▁eat": 6038,
      "▁consumer": 6039,
      "▁breaking": 6040,
      "owled": 6041,
      "▁pieces": 6042,
      "▁problem": 6043,
      "riage": 6044,
      "jwww": 6045,
      "kers": 6046,
      "iful": 6047,
      "▁several": 6048,
      "▁soup": 6049,
      "▁sense": 6050,
      "arly": 6051,
      "ularity": 6052,
      "ottable": 6053,
      "▁maintaining": 6054,
      "▁cups": 6055,
      "▁new": 6056,
      "▁express": 6057,
      "ar": 6058,
      "rating": 6059,
      "▁coop": 6060,
      "▁busy": 6061,
      "▁dall": 6062,
      "ounce": 6063,
      "▁etc.": 6064,
      "ologist": 6065,
      "▁nashville": 6066,
      "▁spoken": 6067,
      "▁east": 6068,
      "▁seconds": 6069,
      "▁cargo": 6070,
      "-b": 6071,
      "▁jih": 6072,
      "▁cheapest": 6073,
      "▁pers": 6074,
      "▁succeed": 6075,
      "...": 6076,
      "▁wire": 6077,
      "±": 6078,
      "rigu": 6079,
      "▁appro": 6080,
      "▁install": 6081,
      "▁century": 6082,
      "▁bugs": 6083,
      "▁chef": 6084,
      "▁potty": 6085,
      "olution": 6086,
      "▁penny": 6087,
      "▁trains": 6088,
      "enced": 6089,
      "der": 6090,
      "▁o'clock": 6091,
      "esty": 6092,
      "▁bl": 6093,
      "iting": 6094,
      "▁example": 6095,
      "▁license": 6096,
      "▁added": 6097,
      "▁)": 6098,
      "▁gender": 6099,
      "▁leadership": 6100,
      "ic": 6101,
      "▁adventure": 6102,
      "▁casual": 6103,
      "▁iodine": 6104,
      "▁sem": 6105,
      "▁herself": 6106,
      "▁small": 6107,
      "▁to": 6108,
      "ishing": 6109,
      "----------": 6110,
      "▁weather": 6111,
      "▁oven": 6112,
      "ognition": 6113,
      "▁decided": 6114,
      "▁just": 6115,
      "▁compens": 6116,
      "▁assessment": 6117,
      "▁describing": 6118,
      "both": 6119,
      "▁computer": 6120,
      "body": 6121,
      "▁dinos": 6122,
      "▁cultural": 6123,
      "▁airplane": 6124,
      "▁managing": 6125,
      "iver": 6126,
      "view": 6127,
      "▁involvement": 6128,
      "c": 6129,
      "ties": 6130,
      "▁teacher": 6131,
      "tuce": 6132,
      "▁canada": 6133,
      "nesses": 6134,
      "erv": 6135,
      "cut": 6136,
      "▁requested": 6137,
      "▁wal": 6138,
      "par": 6139,
      "▁school": 6140,
      "ension": 6141,
      "ategy": 6142,
      "▁achieved": 6143,
      "▁ant": 6144,
      "▁lego": 6145,
      "eled": 6146,
      "▁idea": 6147,
      "▁tonight": 6148,
      "▁techniques": 6149,
      "▁exam": 6150,
      "▁behavior": 6151,
      "▁brooms": 6152,
      "▁learn": 6153,
      "▁quantity": 6154,
      "▁tend": 6155,
      "▁tale": 6156,
      "▁task": 6157,
      "▁consumption": 6158,
      "▁beer": 6159,
      "▁supermar": 6160,
      "▁owl": 6161,
      "ler": 6162,
      "ump": 6163,
      "000": 6164,
      "▁core": 6165,
      "▁sound": 6166,
      "right": 6167,
      "ute": 6168,
      "▁red": 6169,
      "▁yoy": 6170,
      "▁sump": 6171,
      "▁philadel": 6172,
      "yl": 6173,
      "▁z": 6174,
      "▁keep": 6175,
      "▁stones": 6176,
      "d-": 6177,
      "▁carry": 6178,
      "▁x3": 6179,
      "μ": 6180,
      "▁phenom": 6181,
      "▁hes": 6182,
      "▁advantage": 6183,
      "her": 6184,
      "▁broke": 6185,
      "▁surve": 6186,
      "▁happen": 6187,
      "oting": 6188,
      "▁recr": 6189,
      "▁ple": 6190,
      "tured": 6191,
      "ife": 6192,
      "▁avail": 6193,
      "ple": 6194,
      "▁position": 6195,
      "▁secret": 6196,
      "▁opinions": 6197,
      "▁male": 6198,
      "illing": 6199,
      "▁ursula": 6200,
      "▁crawl": 6201,
      "erving": 6202,
      "▁pocket": 6203,
      "▁little": 6204,
      "agraph": 6205,
      "▁connec": 6206,
      "▁as": 6207,
      "▁pep": 6208,
      "▁\"": 6209,
      "▁lake": 6210,
      "ior": 6211,
      "▁jeff": 6212,
      "ew": 6213,
      "▁representation": 6214,
      "pop": 6215,
      "gth": 6216,
      "▁dat": 6217,
      "????????": 6218,
      "▁entertain": 6219,
      "aking": 6220,
      "▁silence": 6221,
      "▁guarant": 6222,
      "▁provin": 6223,
      "▁stretched": 6224,
      "▁impact": 6225,
      "▁objects": 6226,
      "▁outs": 6227,
      "▁planned": 6228,
      "▁know": 6229,
      "▁architecture": 6230,
      "▁someth": 6231,
      "▁fuel": 6232,
      "▁hug": 6233,
      "▁wine": 6234,
      "tity": 6235,
      "▁!!!!!": 6236,
      "▁times": 6237,
      "ete": 6238,
      "▁arguments": 6239,
      "▁tow": 6240,
      "▁hear": 6241,
      "------------": 6242,
      "▁etc": 6243,
      "▁software": 6244,
      "▁poem": 6245,
      "▁prevent": 6246,
      "icals": 6247,
      "▁alright": 6248,
      "▁occurred": 6249,
      "▁counterpar": 6250,
      "▁saying": 6251,
      "▁mama": 6252,
      "▁survived": 6253,
      "▁moved": 6254,
      "▁10": 6255,
      "uss": 6256,
      "▁x": 6257,
      "iel": 6258,
      "▁dentist": 6259,
      "▁sizes": 6260,
      "▁editor": 6261,
      "not": 6262,
      "▁inviting": 6263,
      "ih": 6264,
      "▁rays": 6265,
      "▁lad": 6266,
      "▁col": 6267,
      "ʻ": 6268,
      "▁estate": 6269,
      "▁now": 6270,
      "▁instr": 6271,
      "▁could": 6272,
      "▁mosquito": 6273,
      "▁denti": 6274,
      "▁best": 6275,
      "▁shell": 6276,
      "▁waiting": 6277,
      "▁***": 6278,
      "▁reflect": 6279,
      "▁stirrup": 6280,
      "jec": 6281,
      "▁shown": 6282,
      "▁iron": 6283,
      "bol": 6284,
      "ocol": 6285,
      "▁dy": 6286,
      "▁********": 6287,
      "▁house": 6288,
      "▁hist": 6289,
      "liday": 6290,
      "▁ne": 6291,
      "▁manufactur": 6292,
      "▁universe": 6293,
      "form": 6294,
      "▁ton": 6295,
      "▁–": 6296,
      "cinn": 6297,
      "▁tar": 6298,
      "isms": 6299,
      "▁hers": 6300,
      "▁'d": 6301,
      "▁winter": 6302,
      "▁secure": 6303,
      "ousness": 6304,
      "lion": 6305,
      "uffs": 6306,
      "wn": 6307,
      "▁listened": 6308,
      "erves": 6309,
      "anda": 6310,
      "▁responsibility": 6311,
      "▁assistant": 6312,
      "erences": 6313,
      "▁things": 6314,
      "▁exhib": 6315,
      "▁cult": 6316,
      "uropean": 6317,
      "nam": 6318,
      "▁chasing": 6319,
      "es": 6320,
      "▁films": 6321,
      "▁cove": 6322,
      "▁grandm": 6323,
      "▁experiences": 6324,
      "acking": 6325,
      "▁cracker": 6326,
      "hap": 6327,
      "▁extrem": 6328,
      "▁increased": 6329,
      "▁grit": 6330,
      "▁comb": 6331,
      "▁pix": 6332,
      "▁repe": 6333,
      "ead": 6334,
      "ising": 6335,
      "▁panel": 6336,
      "rely": 6337,
      "ood": 6338,
      "arch": 6339,
      "▁grav": 6340,
      "▁dressed": 6341,
      "▁attach": 6342,
      "▁dece": 6343,
      "ve": 6344,
      "▁.........": 6345,
      "▁underm": 6346,
      "ris": 6347,
      "overn": 6348,
      "▁den": 6349,
      "▁bringing": 6350,
      "▁less": 6351,
      "▁file": 6352,
      "▁pad": 6353,
      "▁study": 6354,
      "ance": 6355,
      "▁quarter": 6356,
      "▁at": 6357,
      "▁emissions": 6358,
      "▁laughed": 6359,
      "earch": 6360,
      "▁forced": 6361,
      "ather": 6362,
      "▁legislation": 6363,
      "ey": 6364,
      "▁distur": 6365,
      "▁pasta": 6366,
      "cles": 6367,
      "tle": 6368,
      "▁begins": 6369,
      "▁game": 6370,
      "arity": 6371,
      "ma": 6372,
      "ments": 6373,
      "▁cliff": 6374,
      "box": 6375,
      "inoc": 6376,
      "▁protected": 6377,
      "istence": 6378,
      "▁aw": 6379,
      "▁come": 6380,
      ":": 6381,
      "▁sister": 6382,
      "▁emerged": 6383,
      "▁arri": 6384,
      "▁w": 6385,
      "▁throughout": 6386,
      "ode": 6387,
      "▁boys": 6388,
      "▁civili": 6389,
      "mo": 6390,
      "ideration": 6391,
      "vail": 6392,
      "▁!!!!": 6393,
      "▁why": 6394,
      "▁finally": 6395,
      "▁library": 6396,
      "▁searching": 6397,
      "rows": 6398,
      "▁implem": 6399,
      "▁diego": 6400,
      "o": 6401,
      "▁fore": 6402,
      "▁selling": 6403,
      "▁prac": 6404,
      "▁subjects": 6405,
      "▁appl": 6406,
      "eric": 6407,
      "▁occup": 6408,
      "forming": 6409,
      "▁abuse": 6410,
      "▁stops": 6411,
      "ift": 6412,
      "▁jos": 6413,
      "▁human": 6414,
      "sure": 6415,
      "▁.": 6416,
      "fish": 6417,
      "plan": 6418,
      "eets": 6419,
      "▁cl": 6420,
      "▁george": 6421,
      "▁distinguish": 6422,
      "▁receip": 6423,
      "▁should": 6424,
      "ric": 6425,
      "▁cupboard": 6426,
      "▁worth": 6427,
      "▁reviews": 6428,
      "irl": 6429,
      "▁convers": 6430,
      "▁moves": 6431,
      "▁suit": 6432,
      "▁dignity": 6433,
      "tled": 6434,
      "lined": 6435,
      ".doc": 6436,
      "▁ride": 6437,
      "▁wond": 6438,
      "thing": 6439,
      "▁tom": 6440,
      "otte": 6441,
      "▁weight": 6442,
      "▁weekday": 6443,
      "▁contest": 6444,
      "eland": 6445,
      "iron": 6446,
      "▁contents": 6447,
      "▁mixture": 6448,
      "ading": 6449,
      "▁it": 6450,
      "▁issues": 6451,
      "▁lamp": 6452,
      "using": 6453,
      "********************************": 6454,
      "▁pump": 6455,
      "▁orlando": 6456,
      "▁cent": 6457,
      "▁cartoon": 6458,
      "akistan": 6459,
      "[CLS]": 6460,
      "ulations": 6461,
      "▁eating": 6462,
      "▁satel": 6463,
      "▁stuck": 6464,
      "▁sl": 6465,
      "▁errors": 6466,
      "▁sar": 6467,
      "▁swing": 6468,
      "works": 6469,
      "▁brief": 6470,
      "uge": 6471,
      "leg": 6472,
      "▁arg": 6473,
      "▁mark": 6474,
      "▁classes": 6475,
      "▁organiz": 6476,
      "▁sel": 6477,
      "▁that": 6478,
      "▁wildlife": 6479,
      "▁dropped": 6480,
      "▁presentation": 6481,
      "▁among": 6482,
      "▁neck": 6483,
      "▁traff": 6484,
      "cept": 6485,
      "▁country": 6486,
      "▁0": 6487,
      "inds": 6488,
      "ints": 6489,
      "▁conf": 6490,
      "▁cons": 6491,
      "▁answer": 6492,
      "ars": 6493,
      "▁comp": 6494,
      "▁perceived": 6495,
      "▁wiki": 6496,
      "▁cli": 6497,
      "▁anti": 6498,
      "▁****": 6499,
      "▁communication": 6500,
      "▁conversation": 6501,
      "▁courses": 6502,
      "essed": 6503,
      "▁undertake": 6504,
      "▁sink": 6505,
      "-d": 6506,
      "chie": 6507,
      "▁attacks": 6508,
      "▁head": 6509,
      "▁citiz": 6510,
      "▁prefer": 6511,
      "▁lab": 6512,
      "oy": 6513,
      "▁phoenix": 6514,
      "old": 6515,
      "▁carriage": 6516,
      "▁fort": 6517,
      "act": 6518,
      "▁uncertainty": 6519,
      "eds": 6520,
      "▁remarks": 6521,
      "ge": 6522,
      "▁seal": 6523,
      "oo": 6524,
      "▁movie": 6525,
      "▁une": 6526,
      "▁room": 6527,
      "▁pledged": 6528,
      "real": 6529,
      "auc": 6530,
      "▁ways": 6531,
      "²": 6532,
      "▁allows": 6533,
      "▁towel": 6534,
      "▁stir": 6535,
      "r.": 6536,
      "▁accep": 6537,
      "▁against": 6538,
      "▁19": 6539,
      "▁robo": 6540,
      "▁dough": 6541,
      "▁projects": 6542,
      "reds": 6543,
      "ks": 6544,
      "▁jeans": 6545,
      "▁sug": 6546,
      "▁incl": 6547,
      "▁boyfriend": 6548,
      "ummy": 6549,
      "ieties": 6550,
      "▁journal": 6551,
      "con": 6552,
      "▁diff": 6553,
      "▁parts": 6554,
      "inated": 6555,
      "▁evidence": 6556,
      "ened": 6557,
      "▁fo": 6558,
      "▁menti": 6559,
      "▁welf": 6560,
      "▁river": 6561,
      "▁use": 6562,
      "▁remove": 6563,
      "line": 6564,
      "▁surpr": 6565,
      "tch": 6566,
      "▁reason": 6567,
      "ward": 6568,
      "▁wagon": 6569,
      "▁pub": 6570,
      "▁stri": 6571,
      "orn": 6572,
      "▁entity": 6573,
      "▁around": 6574,
      "▁food": 6575,
      "▁enjoy": 6576,
      "▁stairs": 6577,
      "▁rever": 6578,
      "▁reveal": 6579,
      "▁artwork": 6580,
      "▁wednesdays": 6581,
      "cally": 6582,
      "ais": 6583,
      "▁guinea": 6584,
      "▁lock": 6585,
      "▁acqui": 6586,
      "▁page": 6587,
      "▁heel": 6588,
      "▁rele": 6589,
      "▁companies": 6590,
      "▁evaluation": 6591,
      "▁society": 6592,
      "▁park": 6593,
      "▁datash": 6594,
      "▁vehic": 6595,
      "▁taught": 6596,
      "▁others": 6597,
      "▁printed": 6598,
      "▁portion": 6599,
      "▁checks": 6600,
      "▁union": 6601,
      "ited": 6602,
      "oon": 6603,
      "▁portr": 6604,
      "▁earned": 6605,
      "▁girl": 6606,
      "▁works": 6607,
      "▁christ": 6608,
      "▁mac": 6609,
      "▁duty": 6610,
      "formation": 6611,
      "anced": 6612,
      "▁manag": 6613,
      "▁cave": 6614,
      "▁listed": 6615,
      "▁magaz": 6616,
      "▁crying": 6617,
      "▁duel": 6618,
      "apers": 6619,
      "▁bronze": 6620,
      "▁geor": 6621,
      "▁owner": 6622,
      "▁thousands": 6623,
      "ang": 6624,
      "▁criteria": 6625,
      "▁say": 6626,
      "σ": 6627,
      "▁pl": 6628,
      "▁drawing": 6629,
      "ire": 6630,
      "▁opening": 6631,
      "▁grounds": 6632,
      "▁signific": 6633,
      "▁birthday": 6634,
      "▁scribble": 6635,
      "▁followed": 6636,
      "▁findings": 6637,
      "▁wealth": 6638,
      "▁night": 6639,
      "cean": 6640,
      "oe": 6641,
      "▁row": 6642,
      "▁concer": 6643,
      "▁sugar": 6644,
      "friend": 6645,
      "itations": 6646,
      "▁remained": 6647,
      "▁dou": 6648,
      "▁designed": 6649,
      "▁pal": 6650,
      "▁religion": 6651,
      "▁psych": 6652,
      "in": 6653,
      "▁incre": 6654,
      "ell": 6655,
      "ture": 6656,
      "▁abbre": 6657,
      "asure": 6658,
      "wise": 6659,
      "▁developer": 6660,
      "▁crackers": 6661,
      "▁conferences": 6662,
      "has": 6663,
      "▁a": 6664,
      "▁needs": 6665,
      "[SEP]": 6666,
      "aws": 6667,
      "▁wi": 6668,
      "▁were": 6669,
      "ee": 6670,
      "apped": 6671,
      "▁expecting": 6672,
      "▁leaving": 6673,
      "▁concerned": 6674,
      "▁missing": 6675,
      "*": 6676,
      "▁due": 6677,
      "▁nasa": 6678,
      "----": 6679,
      "▁+": 6680,
      "oral": 6681,
      "ides": 6682,
      "▁bal": 6683,
      "eep": 6684,
      "▁balloon": 6685,
      "▁combined": 6686,
      "▁conce": 6687,
      "rate": 6688,
      "ressed": 6689,
      "encies": 6690,
      "▁excellent": 6691,
      "▁wa": 6692,
      "uated": 6693,
      "▁affairs": 6694,
      "▁du": 6695,
      "▁inside": 6696,
      "▁user": 6697,
      "▁identified": 6698,
      "▁throwing": 6699,
      "▁depos": 6700,
      "reat": 6701,
      "▁withd": 6702,
      "▁supp": 6703,
      "▁scheduled": 6704,
      "▁many": 6705,
      "▁bel": 6706,
      "▁yes": 6707,
      "alls": 6708,
      "ə": 6709,
      "▁focused": 6710,
      "▁digging": 6711,
      "▁listen": 6712,
      "▁coming": 6713,
      "▁link": 6714,
      "▁gl": 6715,
      "▁dav": 6716,
      "▁else": 6717,
      "▁*****": 6718,
      "ites": 6719,
      "enty": 6720,
      "▁bananas": 6721,
      "hes": 6722,
      "▁history": 6723,
      "▁establishment": 6724,
      "▁tested": 6725,
      "▁seventh": 6726,
      "▁knowledge": 6727,
      "im": 6728,
      "us": 6729,
      "▁noon": 6730,
      "▁setup": 6731,
      "illas": 6732,
      "eas": 6733,
      "▁rug": 6734,
      "ption": 6735,
      "inu": 6736,
      "ores": 6737,
      "▁nov": 6738,
      "▁function": 6739,
      "▁tur": 6740,
      "▁troops": 6741,
      "▁um": 6742,
      "olves": 6743,
      "▁beat": 6744,
      "come": 6745,
      "▁following": 6746,
      "ledge": 6747,
      "rael": 6748,
      "▁seem": 6749,
      "▁ma": 6750,
      "▁dess": 6751,
      "▁crayon": 6752,
      "▁extent": 6753,
      "ashing": 6754,
      "ested": 6755,
      "▁camel": 6756,
      "▁not": 6757,
      "▁citi": 6758,
      "ago": 6759,
      "nia": 6760,
      "▁produces": 6761,
      "▁developments": 6762,
      "▁upon": 6763,
      "▁processes": 6764,
      "▁surf": 6765,
      "lus": 6766,
      "▁ba": 6767,
      "▁inhabit": 6768,
      "▁ah": 6769,
      "▁board": 6770,
      "▁dra": 6771,
      "ackers": 6772,
      "▁sch": 6773,
      "▁nurs": 6774,
      "ρ": 6775,
      "oth": 6776,
      "▁payment": 6777,
      "▁sequ": 6778,
      "ult": 6779,
      "▁destin": 6780,
      "▁vill": 6781,
      "▁poles": 6782,
      "▁poss": 6783,
      "▁cali": 6784,
      "▁myself": 6785,
      "ever": 6786,
      "▁po": 6787,
      "▁way": 6788,
      "▁prov": 6789,
      "if": 6790,
      "ients": 6791,
      "nce": 6792,
      "▁puzz": 6793,
      "▁dig": 6794,
      "ny": 6795,
      "▁highly": 6796,
      "▁hoc": 6797,
      "▁ended": 6798,
      "▁lines": 6799,
      "▁soap": 6800,
      "ister": 6801,
      "▁gon": 6802,
      "▁expl": 6803,
      "ceed": 6804,
      "ails": 6805,
      "▁years": 6806,
      "▁mili": 6807,
      "▁fan": 6808,
      "oking": 6809,
      "ybody": 6810,
      "inger": 6811,
      "▁consu": 6812,
      "▁cred": 6813,
      "imp": 6814,
      "▁witch": 6815,
      "▁comparison": 6816,
      "▁grammar": 6817,
      "▁commun": 6818,
      "▁gulf": 6819,
      "ograph": 6820,
      "alf": 6821,
      "▁organization": 6822,
      "▁hamster": 6823,
      "▁mach": 6824,
      "orrow": 6825,
      "▁con": 6826,
      "▁monks": 6827,
      "▁soccer": 6828,
      "▁amer": 6829,
      "▁revision": 6830,
      "ual": 6831,
      "▁sing": 6832,
      "▁grad": 6833,
      "▁classroom": 6834,
      "uary": 6835,
      "▁smile": 6836,
      "▁bars": 6837,
      "▁recently": 6838,
      "uding": 6839,
      "pol": 6840,
      "▁age": 6841,
      "▁started": 6842,
      "▁tool": 6843,
      "aly": 6844,
      "▁pi": 6845,
      "▁scientists": 6846,
      "roduction": 6847,
      "thers": 6848,
      "▁imagine": 6849,
      "▁qaeda": 6850,
      "ub": 6851,
      "ulf": 6852,
      "▁another": 6853,
      "rog": 6854,
      "ploy": 6855,
      "▁lead": 6856,
      "▁tolerate": 6857,
      "▁van": 6858,
      "▁fans": 6859,
      "▁issued": 6860,
      "▁fishing": 6861,
      "itional": 6862,
      "▁7": 6863,
      "▁suffer": 6864,
      "zations": 6865,
      "▁breast": 6866,
      "=": 6867,
      "umin": 6868,
      "sp": 6869,
      "cend": 6870,
      "▁above": 6871,
      "▁match": 6872,
      "owl": 6873,
      "llow": 6874,
      "▁sec": 6875,
      "ei": 6876,
      "▁attention": 6877,
      "▁el": 6878,
      "▁sonnets": 6879,
      "▁thinks": 6880,
      "oil": 6881,
      "▁gu": 6882,
      "▁mosqu": 6883,
      "ist": 6884,
      "▁aspect": 6885,
      "▁chang": 6886,
      "▁dialog": 6887,
      "▁music": 6888,
      "▁west": 6889,
      "▁dail": 6890,
      "ached": 6891,
      "▁sun": 6892,
      "▁befor": 6893,
      "▁visiting": 6894,
      "▁cere": 6895,
      "elly": 6896,
      "▁venture": 6897,
      "▁chapter": 6898,
      "▁tic": 6899,
      "zer": 6900,
      "▁purch": 6901,
      "anted": 6902,
      "entions": 6903,
      "▁dolly": 6904,
      "▁ball": 6905,
      "▁invited": 6906,
      "▁exchange": 6907,
      "eck": 6908,
      "▁child": 6909,
      "▁ser": 6910,
      "▁taking": 6911,
      "▁career": 6912,
      "ta": 6913,
      "▁12": 6914,
      "▁roles": 6915,
      "▁dw": 6916,
      "▁shadows": 6917,
      "▁saving": 6918,
      "p;": 6919,
      "▁gifts": 6920,
      "iz": 6921,
      "▁safety": 6922,
      "aped": 6923,
      "▁seattle": 6924,
      "acamole": 6925,
      "rax": 6926,
      "▁replace": 6927,
      "xts": 6928,
      "tice": 6929,
      "▁looked": 6930,
      "▁inj": 6931,
      "▁butter": 6932,
      "▁flu": 6933,
      "▁look": 6934,
      "▁spre": 6935,
      "ample": 6936,
      "▁webs": 6937,
      "▁revealed": 6938,
      "▁rh": 6939,
      "▁ocean": 6940,
      "▁exposed": 6941,
      "▁frid": 6942,
      "▁calendar": 6943,
      "▁gn": 6944,
      "▁subscri": 6945,
      "▁bumble": 6946,
      "▁places": 6947,
      "▁available": 6948,
      "▁began": 6949,
      "▁two": 6950,
      "▁ent": 6951,
      "▁respect": 6952,
      "umb": 6953,
      "▁lim": 6954,
      "▁cutting": 6955,
      "▁interviewed": 6956,
      "▁conclusions": 6957,
      "▁household": 6958,
      "oles": 6959,
      "▁employment": 6960,
      "aze": 6961,
      "su": 6962,
      "▁aug": 6963,
      "▁curves": 6964,
      "▁district": 6965,
      "▁level": 6966,
      "▁dire": 6967,
      "▁ke": 6968,
      "▁veget": 6969,
      "eros": 6970,
      "▁))": 6971,
      "▁again": 6972,
      "ugg": 6973,
      "▁discip": 6974,
      "▁drank": 6975,
      "▁questions": 6976,
      "▁census": 6977,
      "▁tragedy": 6978,
      "enth": 6979,
      "▁requirement": 6980,
      "▁laying": 6981,
      "▁effect": 6982,
      "▁rabbits": 6983,
      "▁discussions": 6984,
      "lik": 6985,
      "▁line": 6986,
      "▁disaster": 6987,
      "▁strengthen": 6988,
      "owers": 6989,
      "▁mon": 6990,
      "otch": 6991,
      "▁low": 6992,
      "▁climbing": 6993,
      "▁divisions": 6994,
      "▁departure": 6995,
      "▁inform": 6996,
      "▁stability": 6997,
      "▁pencil": 6998,
      "ce": 6999,
      "▁coverage": 7000,
      "ecting": 7001,
      "▁madam": 7002,
      "▁wat": 7003,
      "ot": 7004,
      "▁bomb": 7005,
      "▁spider": 7006,
      "▁mich": 7007,
      "acle": 7008,
      "fort": 7009,
      "▁te": 7010,
      "▁routes": 7011,
      "▁witn": 7012,
      "▁advant": 7013,
      "▁of": 7014,
      "▁net": 7015,
      "▁ozone": 7016,
      "▁ceremony": 7017,
      "▁sli": 7018,
      "▁lost": 7019,
      "ribution": 7020,
      "▁chick": 7021,
      "▁terr": 7022,
      "▁murders": 7023,
      "▁yo": 7024,
      "▁iod": 7025,
      "▁tour": 7026,
      "pe": 7027,
      "ony": 7028,
      "ambment": 7029,
      "▁proced": 7030,
      "▁common": 7031,
      "▁mem": 7032,
      "▁plus": 7033,
      "▁expected": 7034,
      "▁cries": 7035,
      "▁vac": 7036,
      "ught": 7037,
      "’s": 7038,
      "▁versions": 7039,
      "amples": 7040,
      "▁build": 7041,
      "▁fashion": 7042,
      "▁drops": 7043,
      "▁group": 7044,
      "▁*": 7045,
      "▁att": 7046,
      "tise": 7047,
      "lim": 7048,
      "ertainly": 7049,
      "▁sha": 7050,
      "selve": 7051,
      "▁bother": 7052,
      "▁improving": 7053,
      "▁estimate": 7054,
      "▁goo": 7055,
      "▁background": 7056,
      "ented": 7057,
      "eet": 7058,
      "si": 7059,
      "ema": 7060,
      "▁santorum": 7061,
      "`s": 7062,
      "▁risks": 7063,
      "▁flowers": 7064,
      "▁sale": 7065,
      "▁applies": 7066,
      "▁sarah": 7067,
      "▁lifesty": 7068,
      "▁view": 7069,
      "ible": 7070,
      "▁wom": 7071,
      "▁remember": 7072,
      "ia": 7073,
      "▁providing": 7074,
      "ancing": 7075,
      "▁terms": 7076,
      "▁shelf": 7077,
      "▁brand": 7078,
      "▁ste": 7079,
      "▁enthus": 7080,
      "▁quoted": 7081,
      "▁del": 7082,
      "▁volunte": 7083,
      "▁my": 7084,
      "▁d": 7085,
      "▁indust": 7086,
      "alog": 7087,
      "ained": 7088,
      "▁remaining": 7089,
      "cc": 7090,
      "▁aut": 7091,
      "ml": 7092,
      "▁expressed": 7093,
      "▁directed": 7094,
      "fication": 7095,
      "otw": 7096,
      "▁co-": 7097,
      "▁education": 7098,
      "ects": 7099,
      "▁your": 7100,
      "▁batteries": 7101,
      "▁roc": 7102,
      "▁deteri": 7103,
      "▁enc": 7104,
      "▁flash": 7105,
      "▁difficulties": 7106,
      "▁det": 7107,
      "▁critic": 7108,
      "▁supporting": 7109,
      "▁hall": 7110,
      "{": 7111,
      "▁proposed": 7112,
      "▁ideas": 7113,
      "▁early": 7114,
      "▁dilem": 7115,
      "▁gener": 7116,
      "▁furn": 7117,
      "▁serve": 7118,
      "▁change": 7119,
      "▁earlier": 7120,
      "els": 7121,
      "▁convinced": 7122,
      "▁industry": 7123,
      "ue": 7124,
      "▁husband": 7125,
      "▁blink": 7126,
      "▁pred": 7127,
      "▁’’": 7128,
      "where": 7129,
      "▁wind": 7130,
      "▁’m": 7131,
      "ough": 7132,
      "ls": 7133,
      "▁jan": 7134,
      "▁volley": 7135,
      "▁inquiry": 7136,
      "▁chew": 7137,
      "▁sandwich": 7138,
      "▁intend": 7139,
      "▁art": 7140,
      "▁tops": 7141,
      "▁focusing": 7142,
      "uts": 7143,
      "▁airl": 7144,
      "▁chicago": 7145,
      "▁enab": 7146,
      "▁share": 7147,
      "▁friendship": 7148,
      "▁ind": 7149,
      "▁extr": 7150,
      "▁horsie": 7151,
      "ions": 7152,
      "▁air": 7153,
      "▁sym": 7154,
      "k": 7155,
      "▁came": 7156,
      "▁’d": 7157,
      "▁officers": 7158,
      "▁event": 7159,
      "▁roman": 7160,
      "odes": 7161,
      "ort": 7162,
      "▁intel": 7163,
      "▁holding": 7164,
      "▁carrot": 7165,
      "▁tractor": 7166,
      "ime": 7167,
      "▁girls": 7168,
      "▁reducing": 7169,
      "▁reven": 7170,
      "ooth": 7171,
      "▁pres": 7172,
      "**": 7173,
      "▁evenings": 7174,
      "▁settings": 7175,
      "▁cle": 7176,
      "att": 7177,
      "▁sock": 7178,
      "enti": 7179,
      "▁aims": 7180,
      "ac": 7181,
      "▁ps": 7182,
      "aled": 7183,
      "▁mys": 7184,
      "▁happened": 7185,
      "▁access": 7186,
      "▁forms": 7187,
      "-s": 7188,
      "ad": 7189,
      "ient": 7190,
      "ose": 7191,
      "▁because": 7192,
      "▁aid": 7193,
      "▁confirmed": 7194,
      "▁lik": 7195,
      "cri": 7196,
      "ods": 7197,
      "▁apples": 7198,
      "▁!?": 7199,
      "▁students": 7200,
      "▁species": 7201,
      "▁interpret": 7202,
      "▁sunday": 7203,
      "lished": 7204,
      "▁bite": 7205,
      "▁advis": 7206,
      "▁counterfeit": 7207,
      "▁latest": 7208,
      "▁certi": 7209,
      "▁characters": 7210,
      "▁pointing": 7211,
      "▁paused": 7212,
      "ots": 7213,
      "oin": 7214,
      "▁supposed": 7215,
      "▁dec": 7216,
      "▁records": 7217,
      "▁bet": 7218,
      "crib": 7219,
      "outh": 7220,
      "▁sour": 7221,
      "▁shoot": 7222,
      "pr": 7223,
      "▁sew": 7224,
      "▁fil": 7225,
      "▁festiv": 7226,
      "sex": 7227,
      "▁setting": 7228,
      "▁ref": 7229,
      "▁can": 7230,
      ".pd": 7231,
      "▁achievement": 7232,
      "▁cupcakes": 7233,
      "▁demand": 7234,
      "▁choice": 7235,
      "▁funded": 7236,
      "▁believed": 7237,
      "????????????????": 7238,
      "▁plants": 7239,
      "▁spill": 7240,
      "▁tension": 7241,
      "▁market": 7242,
      "▁sme": 7243,
      "oke": 7244,
      "▁loans": 7245,
      "▁chairman": 7246,
      "▁parking": 7247,
      "▁guid": 7248,
      "ies": 7249,
      "▁instead": 7250,
      "▁plastic": 7251,
      "ulated": 7252,
      "▁difficul": 7253,
      "▁categ": 7254,
      "com": 7255,
      "ld": 7256,
      "▁addressing": 7257,
      "▁regret": 7258,
      "ack": 7259,
      "▁discre": 7260,
      "▁confusion": 7261,
      "▁fu": 7262,
      "▁without": 7263,
      "uled": 7264,
      "▁apol": 7265,
      "▁along": 7266,
      "osen": 7267,
      "▁cincinn": 7268,
      "▁wheel": 7269,
      "unte": 7270,
      "▁determine": 7271,
      "▁fles": 7272,
      "▁king": 7273,
      "ansion": 7274,
      "aith": 7275,
      "▁pic": 7276,
      "▁performance": 7277,
      "ina": 7278,
      "▁entry": 7279,
      "ink": 7280,
      "▁carro": 7281,
      "▁fame": 7282,
      "▁weap": 7283,
      "▁admitted": 7284,
      "▁stat": 7285,
      "▁diapers": 7286,
      "gu": 7287,
      "▁princ": 7288,
      "▁17": 7289,
      "▁a.m.": 7290,
      "8": 7291,
      "▁interested": 7292,
      "▁sect": 7293,
      "▁accomp": 7294,
      "ague": 7295,
      "ume": 7296,
      "ancy": 7297,
      "gre": 7298,
      "ligence": 7299,
      "▁dresses": 7300,
      "▁cup": 7301,
      "▁given": 7302,
      "▁parties": 7303,
      "mitted": 7304,
      "****": 7305,
      "ssible": 7306,
      "▁suc": 7307,
      "ness": 7308,
      "▁turn": 7309,
      "▁value": 7310,
      "▁plaintiff": 7311,
      "▁fax": 7312,
      "mer": 7313,
      "▁parad": 7314,
      "’t": 7315,
      "▁man": 7316,
      "▁carrying": 7317,
      "▁books": 7318,
      "▁distinction": 7319,
      "▁much": 7320,
      "▁collecting": 7321,
      "▁franc": 7322,
      "▁ins": 7323,
      "▁prote": 7324,
      "▁rest": 7325,
      "ices": 7326,
      "▁atmosphere": 7327,
      "▁lawyers": 7328,
      "enience": 7329,
      "thy": 7330,
      "bo": 7331,
      "ansas": 7332,
      "▁road": 7333,
      "vers": 7334,
      "▁mentioned": 7335,
      "▁argu": 7336,
      "▁gate": 7337,
      "des": 7338,
      "rated": 7339,
      "▁adop": 7340,
      "-c": 7341,
      "op": 7342,
      "▁dream": 7343,
      "▁had": 7344,
      "▁1": 7345,
      "▁theirs": 7346,
      "lity": 7347,
      "▁process": 7348,
      "▁processing": 7349,
      "gr": 7350,
      "▁freedom": 7351,
      "▁competition": 7352,
      "▁crossing": 7353,
      "unct": 7354,
      "▁north": 7355,
      "▁chess": 7356,
      "ining": 7357,
      "▁has": 7358,
      "ission": 7359,
      "▁woud": 7360,
      "aper": 7361,
      "▁`s": 7362,
      "▁rubber": 7363,
      "ice": 7364,
      "▁nor": 7365,
      "▁metal": 7366,
      "▁dipl": 7367,
      "▁observation": 7368,
      "▁diplom": 7369,
      "▁clear": 7370,
      "ike": 7371,
      "orld": 7372,
      "▁ass": 7373,
      "actions": 7374,
      "anding": 7375,
      "ow": 7376,
      "▁sep": 7377,
      "▁thou": 7378,
      "▁uvb": 7379,
      "▁suggested": 7380,
      "▁ex": 7381,
      "▁dollie": 7382,
      "▁population": 7383,
      "▁palm": 7384,
      "▁banj": 7385,
      "▁wash": 7386,
      "▁lou": 7387,
      "▁yourselves": 7388,
      "▁licensed": 7389,
      "▁settled": 7390,
      "▁civ": 7391,
      "▁administr": 7392,
      "▁pray": 7393,
      "bal": 7394,
      "▁insur": 7395,
      "rim": 7396,
      "store": 7397,
      "▁ketchup": 7398,
      "▁dallas": 7399,
      "▁duck": 7400,
      "▁creation": 7401,
      ".pdf": 7402,
      "▁creating": 7403,
      "▁ol": 7404,
      "jected": 7405,
      "iled": 7406,
      "▁trips": 7407,
      "▁addition": 7408,
      "oud": 7409,
      "▁cohesion": 7410,
      "▁went": 7411,
      "▁mut": 7412,
      "unk": 7413,
      "▁hanging": 7414,
      "▁obt": 7415,
      "▁viewed": 7416,
      "til": 7417,
      "▁facul": 7418,
      "▁admin": 7419,
      "▁tou": 7420,
      "▁bug": 7421,
      "ases": 7422,
      "▁agreement": 7423,
      "▁din": 7424,
      "▁regulations": 7425,
      "▁poin": 7426,
      "▁finish": 7427,
      "▁tea": 7428,
      "▁<": 7429,
      "▁try": 7430,
      "▁guacamole": 7431,
      "▁bicycle": 7432,
      "▁wood": 7433,
      "▁operators": 7434,
      "▁execution": 7435,
      "▁dan": 7436,
      "▁recommend": 7437,
      ")": 7438,
      "▁sisters": 7439,
      "▁exec": 7440,
      "▁fix": 7441,
      "ouch": 7442,
      "▁pronounced": 7443,
      "▁keys": 7444,
      "ries": 7445,
      "▁schol": 7446,
      "ental": 7447,
      "▁propaganda": 7448,
      "earance": 7449,
      "▁minute": 7450,
      "▁impro": 7451,
      "▁natural": 7452,
      "▁begin": 7453,
      "▁tast": 7454,
      "▁adj": 7455,
      "laim": 7456,
      "abilities": 7457,
      "▁pleasure": 7458,
      "▁adap": 7459,
      "itch": 7460,
      "uh": 7461,
      "▁suspected": 7462,
      "issed": 7463,
      "▁calend": 7464,
      "▁seekers": 7465,
      "-": 7466,
      "▁na": 7467,
      "▁issu": 7468,
      "set": 7469,
      "▁plans": 7470,
      "▁chose": 7471,
      "▁acting": 7472,
      "vel": 7473,
      "▁save": 7474,
      "▁apart": 7475,
      "erry": 7476,
      "arian": 7477,
      "▁customers": 7478,
      "zed": 7479,
      "▁notice": 7480,
      "▁cupcake": 7481,
      "board": 7482,
      "▁only": 7483,
      "▁improve": 7484,
      "enting": 7485,
      "▁behin": 7486,
      "▁ahead": 7487,
      "▁cold": 7488,
      "▁priest": 7489,
      "▁n’t": 7490,
      "▁cohes": 7491,
      "▁sho": 7492,
      "▁scale": 7493,
      "▁individual": 7494,
      "▁sides": 7495,
      "▁dreams": 7496,
      "▁chances": 7497,
      "ra": 7498,
      "▁---": 7499,
      "back": 7500,
      "▁ren": 7501,
      "▁jihad": 7502,
      "▁yogurt": 7503,
      "▁attract": 7504,
      "▁munic": 7505,
      "▁photography": 7506,
      "▁guy": 7507,
      "aign": 7508,
      "phere": 7509,
      "▁brothers": 7510,
      "ont": 7511,
      "▁adds": 7512,
      "ues": 7513,
      "en": 7514,
      "tors": 7515,
      "▁like": 7516,
      "▁inqu": 7517,
      "▁summ": 7518,
      "▁mas": 7519,
      "▁giraff": 7520,
      "▁descriptions": 7521,
      "▁glo": 7522,
      "ath": 7523,
      "▁poodle": 7524,
      "ool": 7525,
      "▁president": 7526,
      "worms": 7527,
      "▁ld2d-#693": 7528,
      "▁talent": 7529,
      "▁series": 7530,
      "▁capture": 7531,
      "▁meal": 7532,
      "▁?": 7533,
      "athers": 7534,
      "▁talks": 7535,
      "▁won": 7536,
      "▁initial": 7537,
      "▁awarded": 7538,
      "aster": 7539,
      "▁rolls": 7540,
      "______": 7541,
      "▁died": 7542,
      "▁arranged": 7543,
      "pse": 7544,
      "ares": 7545,
      "▁record": 7546,
      "▁requires": 7547,
      "▁hedge": 7548,
      "▁litter": 7549,
      "▁supporters": 7550,
      "▁mi": 7551,
      "ept": 7552,
      "▁names": 7553,
      "▁stol": 7554,
      "▁training": 7555,
      "▁amend": 7556,
      "▁resp": 7557,
      "▁loan": 7558,
      "▁feathers": 7559,
      "▁boats": 7560,
      "aus": 7561,
      "▁bubble": 7562,
      "▁recent": 7563,
      "▁responded": 7564,
      "▁manager": 7565,
      "▁supported": 7566,
      "▁refuse": 7567,
      "▁morn": 7568,
      "▁facts": 7569,
      "▁travel": 7570,
      "▁arm": 7571,
      "▁warning": 7572,
      "▁tape": 7573,
      "▁media": 7574,
      "▁lo": 7575,
      "▁contrast": 7576,
      "▁crime": 7577,
      "▁visitors": 7578,
      "▁table": 7579,
      "▁fruit": 7580,
      "▁opinion": 7581,
      "▁standard": 7582,
      "▁roll": 7583,
      "oned": 7584,
      "unch": 7585,
      "▁describ": 7586,
      "▁participants": 7587,
      "isted": 7588,
      "gers": 7589,
      "▁june": 7590,
      "▁loo": 7591,
      "gg": 7592,
      "▁tie": 7593,
      "▁gard": 7594,
      "port": 7595,
      "▁paid": 7596,
      "▁mag": 7597,
      "▁existing": 7598,
      "▁organize": 7599,
      "▁kitten": 7600,
      "▁challen": 7601,
      "▁respond": 7602,
      "▁am": 7603,
      "▁menu": 7604,
      "like": 7605,
      "▁someone": 7606,
      "▁----": 7607,
      "▁throat": 7608,
      "▁presents": 7609,
      "▁sold": 7610,
      "▁efforts": 7611,
      "▁mix": 7612,
      "▁dog": 7613,
      "▁snow": 7614,
      "uis": 7615,
      "▁sleeve": 7616,
      "▁chart": 7617,
      "▁beyond": 7618,
      "▁crew": 7619,
      "ail": 7620,
      "▁mathematician": 7621,
      "owing": 7622,
      "gery": 7623,
      "▁medium": 7624,
      "ering": 7625,
      "▁facility": 7626,
      "▁hay": 7627,
      "▁cabin": 7628,
      "illa": 7629,
      "▁le": 7630,
      "ision": 7631,
      "▁gave": 7632,
      "▁qa": 7633,
      "▁screw": 7634,
      "▁enterpr": 7635,
      "▁ending": 7636,
      "▁aband": 7637,
      "▁responsibilities": 7638,
      "ss": 7639,
      "orp": 7640,
      "▁wave": 7641,
      "sive": 7642,
      "▁universities": 7643,
      "▁balzac": 7644,
      "▁asc": 7645,
      "vements": 7646,
      "ole": 7647,
      "▁calc": 7648,
      "umbled": 7649,
      "▁rais": 7650,
      "▁hon": 7651,
      "▁part": 7652,
      "▁prepare": 7653,
      "s.": 7654,
      "▁memphis": 7655,
      "▁exhibit": 7656,
      "▁requiring": 7657,
      "▁girlfriend": 7658,
      "▁ans": 7659,
      "vil": 7660,
      "▁coord": 7661,
      "▁beg": 7662,
      "ome": 7663,
      "ked": 7664,
      "▁interaction": 7665,
      "pri": 7666,
      "▁currency": 7667,
      "▁flow": 7668,
      "ɛ": 7669,
      "▁kidding": 7670,
      "be": 7671,
      "▁chain": 7672,
      "omp": 7673,
      "▁restric": 7674,
      "asis": 7675,
      "▁favor": 7676,
      "air": 7677,
      "m": 7678,
      "rs": 7679,
      "▁guide": 7680,
      "▁database": 7681,
      "▁settlers": 7682,
      "▁dealt": 7683,
      "▁lic": 7684,
      "▁mail": 7685,
      "▁compare": 7686,
      "lets": 7687,
      "ashington": 7688,
      "eration": 7689,
      "▁don": 7690,
      "aker": 7691,
      "▁wil": 7692,
      "icking": 7693,
      "▁sa": 7694,
      "▁beh": 7695,
      "▁actions": 7696,
      "▁percent": 7697,
      "▁5": 7698,
      "nesday": 7699,
      "lium": 7700,
      "▁bo": 7701,
      "▁sn": 7702,
      "▁sign": 7703,
      "▁arts": 7704,
      "▁quinn": 7705,
      "▁individ": 7706,
      "▁ring": 7707,
      "▁statis": 7708,
      "▁++++": 7709,
      "lu": 7710,
      "▁sev": 7711,
      "▁est": 7712,
      "▁promotion": 7713,
      "▁towards": 7714,
      "placement": 7715,
      "▁banana": 7716,
      "eting": 7717,
      "▁assess": 7718,
      "▁or": 7719,
      "▁er": 7720,
      "▁catch": 7721,
      "▁college": 7722,
      "▁confirm": 7723,
      "▁playwright": 7724,
      "▁professor": 7725,
      "▁___________": 7726,
      "tride": 7727,
      "▁purs": 7728,
      "ighb": 7729,
      "▁mos": 7730,
      "▁result": 7731,
      "▁enjambment": 7732,
      "▁coff": 7733,
      "▁vanilla": 7734,
      "sely": 7735,
      "▁": 7736,
      "▁cities": 7737,
      "▁min": 7738,
      "▁mrs": 7739,
      "▁hotels": 7740,
      "▁notion": 7741,
      "▁do": 7742,
      "▁turkey": 7743,
      "▁policies": 7744,
      "▁journals": 7745,
      "▁translated": 7746,
      "ightly": 7747,
      "▁slept": 7748,
      "▁discussed": 7749,
      "▁inches": 7750,
      "ap": 7751,
      "▁soldi": 7752,
      "▁whole": 7753,
      "▁blan": 7754,
      "▁experi": 7755,
      "ky": 7756,
      "umes": 7757,
      "ocity": 7758,
      "ish": 7759,
      "▁warned": 7760,
      "ains": 7761,
      "▁dese": 7762,
      "▁tickets": 7763,
      "▁iv": 7764,
      "▁us": 7765,
      "▁tools": 7766,
      "▁econ": 7767,
      "▁gotten": 7768,
      "▁!!!!!!": 7769,
      "▁drew": 7770,
      "▁bab": 7771,
      "▁description": 7772,
      "▁docum": 7773,
      "▁success": 7774,
      "▁entertainment": 7775,
      "ov": 7776,
      "▁vess": 7777,
      "▁cigarette": 7778,
      "ø": 7779,
      "▁play": 7780,
      "bur": 7781,
      "▁nest": 7782,
      "▁garb": 7783,
      "mal": 7784,
      "▁survival": 7785,
      "▁made": 7786,
      "▁owners": 7787,
      "▁trag": 7788,
      "titude": 7789,
      "▁area": 7790,
      "▁rabbit": 7791,
      "▁maint": 7792,
      "zation": 7793,
      "▁agric": 7794,
      "▁reports": 7795,
      "▁manip": 7796,
      "▁sample": 7797,
      "▁error": 7798,
      "work": 7799,
      "▁und": 7800,
      "▁step": 7801,
      "▁exc": 7802,
      "▁unlike": 7803,
      "ribute": 7804,
      "▁containers": 7805,
      "▁nur": 7806,
      "▁altern": 7807,
      "ents": 7808,
      "▁fired": 7809,
      "ority": 7810,
      "▁telling": 7811,
      "▁interface": 7812,
      "▁impris": 7813,
      "▁vit": 7814,
      "▁cafe": 7815,
      "ours": 7816,
      "▁flying": 7817,
      "▁proce": 7818,
      "▁cord": 7819,
      "jects": 7820,
      "▁fe": 7821,
      "▁gre": 7822,
      "▁version": 7823,
      "▁colleagues": 7824,
      "ully": 7825,
      "·": 7826,
      "▁educ": 7827,
      "[": 7828,
      "ince": 7829,
      "▁aspects": 7830,
      "▁analysis": 7831,
      "▁stream": 7832,
      "irc": 7833,
      "nding": 7834,
      "▁economic": 7835,
      "ave": 7836,
      "cing": 7837,
      "▁reaction": 7838,
      "(": 7839,
      "▁branches": 7840,
      "▁studied": 7841,
      "ial": 7842,
      "ended": 7843,
      "▁cowboy": 7844,
      "▁trader": 7845,
      "▁interpretation": 7846,
      "▁established": 7847,
      "▁five": 7848,
      "▁quack": 7849,
      "▁choices": 7850,
      "acts": 7851,
      "▁shoulders": 7852,
      "wh": 7853,
      "▁region": 7854,
      "▁drugs": 7855,
      "▁knock": 7856,
      "utation": 7857,
      "▁camer": 7858,
      "inc": 7859,
      "mm": 7860,
      "▁missiles": 7861,
      "▁city": 7862,
      "▁monday": 7863,
      "▁sto": 7864,
      "▁refers": 7865,
      "▁via": 7866,
      "▁europe": 7867,
      "▁intended": 7868,
      "▁excuse": 7869,
      "bir": 7870,
      "ette": 7871,
      "▁distribute": 7872,
      "▁foc": 7873,
      "▁push": 7874,
      "▁percentiles": 7875,
      "issions": 7876,
      "uf": 7877,
      "▁identity": 7878,
      "▁suffering": 7879,
      "▁traditions": 7880,
      "▁maj": 7881,
      "▁quar": 7882,
      "▁tw": 7883,
      "▁take": 7884,
      "▁worn": 7885,
      "7": 7886,
      "▁program": 7887,
      "▁film": 7888,
      "tives": 7889,
      "▁tomorrow": 7890,
      "ft": 7891,
      "option": 7892,
      "▁recognition": 7893,
      "▁brain": 7894,
      "▁expense": 7895,
      "war": 7896,
      "alities": 7897,
      "river": 7898,
      "ocent": 7899,
      "▁tours": 7900,
      "▁bombs": 7901,
      "rit": 7902,
      "▁favorite": 7903,
      "▁asp": 7904,
      "▁attempt": 7905,
      "iveness": 7906,
      "▁maintain": 7907,
      "▁rich": 7908,
      "▁anoder": 7909,
      "▁letter": 7910,
      "err": 7911,
      "▁cal": 7912,
      "omination": 7913,
      "▁they": 7914,
      "ede": 7915,
      "▁employed": 7916,
      "▁results": 7917,
      "▁mount": 7918,
      "▁moth": 7919,
      "'re": 7920,
      "off": 7921,
      "▁over": 7922,
      "▁lea": 7923,
      "▁underst": 7924,
      "▁rags": 7925,
      "▁custom": 7926,
      "▁intrigu": 7927,
      "▁absor": 7928,
      "▁ber": 7929,
      "▁territ": 7930,
      "uro": 7931,
      "ests": 7932,
      "▁storage": 7933,
      "▁!": 7934,
      "▁bre": 7935,
      "▁sounded": 7936,
      "▁cy": 7937,
      "▁polar": 7938,
      "laimed": 7939,
      "aries": 7940,
      "▁breathe": 7941,
      "f": 7942,
      "▁defe": 7943,
      "▁reviewing": 7944,
      "▁plaster": 7945,
      "▁leaders": 7946,
      "▁cancer": 7947,
      "▁---------------------------------------------------------------------": 7948,
      "▁jumping": 7949,
      "ately": 7950,
      "▁contr": 7951,
      "aves": 7952,
      "ener": 7953,
      "▁env": 7954,
      "▁rebuil": 7955,
      "ches": 7956,
      "ibility": 7957,
      "▁congress": 7958,
      "▁forg": 7959,
      "▁bring": 7960,
      "▁delivered": 7961,
      "▁handling": 7962,
      "▁compl": 7963,
      "▁legend": 7964,
      "▁both": 7965,
      "▁movements": 7966,
      "aff": 7967,
      "▁customer": 7968,
      "ads": 7969,
      "▁understanding": 7970,
      "uil": 7971,
      "▁lover": 7972,
      "▁tos": 7973,
      "▁appreciate": 7974,
      "▁guns": 7975,
      "▁transform": 7976,
      "orms": 7977,
      "tiv": 7978,
      "▁kansas": 7979,
      "▁short": 7980,
      "▁suppose": 7981,
      "▁framework": 7982,
      "▁suite": 7983,
      "ational": 7984,
      "alists": 7985,
      "▁green": 7986,
      "▁dc": 7987,
      "▁lips": 7988,
      "▁extre": 7989,
      "▁relief": 7990,
      "mpl": 7991,
      "amb": 7992,
      "▁slice": 7993,
      "▁strawberry": 7994,
      "▁wou": 7995,
      "▁retired": 7996,
      "▁contribute": 7997,
      "ared": 7998,
      "▁blue": 7999,
      "aurs": 8000,
      "▁economies": 8001,
      "ght": 8002,
      "▁stillman": 8003,
      "▁especially": 8004,
      "▁dioxide": 8005,
      "▁assist": 8006,
      "erated": 8007,
      "▁repair": 8008,
      "▁consult": 8009,
      "▁tied": 8010,
      "▁laun": 8011,
      "▁hel": 8012,
      "oni": 8013,
      "▁nephew": 8014,
      "ait": 8015,
      "▁nash": 8016,
      "▁open": 8017,
      "▁!!!!!!!!!!!": 8018,
      "▁voice": 8019,
      "▁alcohol": 8020,
      "▁parks": 8021,
      "▁pan": 8022,
      "▁building": 8023,
      "▁nine": 8024,
      "▁librarians": 8025,
      "▁counc": 8026,
      "▁grass": 8027,
      "60s": 8028,
      "▁equival": 8029,
      "▁predators": 8030,
      "▁reconciliation": 8031,
      "▁galleries": 8032,
      "▁perform": 8033,
      "▁tack": 8034,
      "▁buying": 8035,
      "ens": 8036,
      "▁couple": 8037,
      "▁vacation": 8038,
      "ether": 8039,
      "▁relationship": 8040,
      "▁budget": 8041,
      "▁theories": 8042,
      "▁==----": 8043,
      "used": 8044,
      "▁clinics": 8045,
      "▁isda": 8046,
      "▁mel": 8047,
      "▁har": 8048,
      "▁purpose": 8049,
      "▁motion": 8050,
      "tail": 8051,
      "▁mean": 8052,
      "▁9": 8053,
      "▁199": 8054,
      "▁clock": 8055,
      "ocks": 8056,
      "▁ch": 8057,
      "ker": 8058,
      "▁wed": 8059,
      "▁guess": 8060,
      "ith": 8061,
      "▁su": 8062,
      "cularly": 8063,
      "▁national": 8064,
      "sent": 8065,
      "ocr": 8066,
      "▁kids": 8067,
      "▁progr": 8068,
      "▁reconc": 8069,
      "ourn": 8070,
      "ictions": 8071,
      "▁who": 8072,
      "acters": 8073,
      "▁fine": 8074,
      "▁train": 8075,
      "▁engage": 8076,
      "▁almost": 8077,
      "▁piano": 8078,
      "▁concentration": 8079,
      "▁hus": 8080,
      "??": 8081,
      "▁paris": 8082,
      "▁prosperity": 8083,
      "▁instruc": 8084,
      "▁interest": 8085,
      "▁pol": 8086,
      "▁differences": 8087,
      "▁promoted": 8088,
      "oor": 8089,
      "▁tooth": 8090,
      "▁pain": 8091,
      "phone": 8092,
      "▁teachers": 8093,
      "▁seized": 8094,
      "▁mutation": 8095,
      "vailable": 8096,
      "▁defining": 8097,
      "nly": 8098,
      "▁wip": 8099,
      "ti": 8100,
      "ellow": 8101,
      "▁d'": 8102,
      "uck": 8103,
      "▁protect": 8104,
      "▁??": 8105,
      "▁lights": 8106,
      "▁e": 8107,
      "attle": 8108,
      "▁studying": 8109,
      "▁recogn": 8110,
      "▁avoid": 8111,
      "▁battle": 8112,
      "▁experience": 8113,
      "▁tol": 8114,
      "▁spokesman": 8115,
      "▁tuesday": 8116,
      "riend": 8117,
      "▁pean": 8118,
      "▁funding": 8119,
      "acted": 8120,
      "an": 8121,
      "▁unem": 8122,
      "ured": 8123,
      "▁attorn": 8124,
      "▁mines": 8125,
      "▁confidentiality": 8126,
      "▁oakland": 8127,
      "▁certain": 8128,
      "▁accused": 8129,
      "▁diversity": 8130,
      "▁wanting": 8131,
      "▁referen": 8132,
      "▁beet": 8133,
      "able": 8134,
      "▁context": 8135,
      "▁langu": 8136,
      "▁difference": 8137,
      "▁prison": 8138,
      "▁reb": 8139,
      "▁parake": 8140,
      "▁however": 8141,
      "▁noone": 8142,
      "▁?????": 8143,
      "bably": 8144,
      "▁compan": 8145,
      "oved": 8146,
      "▁grid": 8147,
      "▁deli": 8148,
      "▁work": 8149,
      "▁interviews": 8150,
      "▁cour": 8151,
      "▁extremely": 8152,
      "ially": 8153,
      "cle": 8154,
      "▁present": 8155,
      "▁discipline": 8156,
      "▁rebuild": 8157,
      "yr": 8158,
      "▁shot": 8159,
      "ter": 8160,
      "aining": 8161,
      "▁laur": 8162,
      "▁washington": 8163,
      "▁eth": 8164,
      "omic": 8165,
      "▁answ": 8166,
      "▁benefit": 8167,
      "ouse": 8168,
      "▁disappeared": 8169,
      "▁replacement": 8170,
      "▁bank": 8171,
      "▁evening": 8172,
      "raction": 8173,
      "▁cut": 8174,
      "▁merc": 8175,
      "▁&am": 8176,
      "▁likes": 8177,
      "▁entered": 8178,
      "▁supplies": 8179,
      "▁maybe": 8180,
      "▁persons": 8181,
      "▁gol": 8182,
      "▁piz": 8183,
      "▁vom": 8184,
      "▁born": 8185,
      "▁lived": 8186,
      "ich": 8187,
      "xt": 8188,
      "▁branch": 8189,
      "isco": 8190,
      "▁cousin": 8191
    },
    "merges": [
      [
        "▁hold",
        "s"
      ],
      [
        "▁dem",
        "onstr"
      ],
      [
        "▁ha",
        "f"
      ],
      [
        "▁show",
        "n"
      ],
      [
        "▁swim",
        "ming"
      ],
      [
        "▁qu",
        "ery"
      ],
      [
        "▁resul",
        "ting"
      ],
      [
        "▁es",
        "timate"
      ],
      [
        "▁star",
        "t"
      ],
      [
        "▁lad",
        "y"
      ],
      [
        "*",
        "*"
      ],
      [
        "b",
        "ably"
      ],
      [
        "▁h",
        "ope"
      ],
      [
        "o",
        "ke"
      ],
      [
        "▁med",
        "ia"
      ],
      [
        "▁fil",
        "ter"
      ],
      [
        "▁be",
        "a"
      ],
      [
        "▁b",
        "/"
      ],
      [
        "d",
        "i"
      ],
      [
        "ph",
        "one"
      ],
      [
        "▁look",
        "s"
      ],
      [
        "▁w",
        "ould"
      ],
      [
        "ti",
        "ally"
      ],
      [
        "▁mum",
        "my"
      ],
      [
        "▁teach",
        "ing"
      ],
      [
        "▁dec",
        "isions"
      ],
      [
        "▁squ",
        "ir"
      ],
      [
        "▁",
        "z"
      ],
      [
        "aw",
        "s"
      ],
      [
        "▁re",
        "nt"
      ],
      [
        "▁move",
        "s"
      ],
      [
        "g",
        "ers"
      ],
      [
        "▁fund",
        "ed"
      ],
      [
        "▁imp",
        "acts"
      ],
      [
        "▁r",
        "ank"
      ],
      [
        "▁st",
        "y"
      ],
      [
        "ec",
        "ts"
      ],
      [
        "▁ad",
        "ults"
      ],
      [
        "t",
        "her"
      ],
      [
        "▁ma",
        "ss"
      ],
      [
        "ov",
        "e"
      ],
      [
        "our",
        "ed"
      ],
      [
        "▁s",
        "ake"
      ],
      [
        "t",
        "ling"
      ],
      [
        "▁princ",
        "ip"
      ],
      [
        "▁n",
        "either"
      ],
      [
        "▁imp",
        "ortant"
      ],
      [
        "e",
        "qu"
      ],
      [
        "ak",
        "istan"
      ],
      [
        "▁fir",
        "st"
      ],
      [
        "▁bod",
        "y"
      ],
      [
        "▁mod",
        "e"
      ],
      [
        "▁poll",
        "ution"
      ],
      [
        "▁p",
        "il"
      ],
      [
        "▁",
        "r"
      ],
      [
        "s",
        "ter"
      ],
      [
        "▁outc",
        "ome"
      ],
      [
        "▁lear",
        "n"
      ],
      [
        "▁a",
        "d"
      ],
      [
        "▁produc",
        "t"
      ],
      [
        "▁min",
        "imum"
      ],
      [
        "▁mo",
        "on"
      ],
      [
        "▁gr",
        "av"
      ],
      [
        "▁stay",
        "ing"
      ],
      [
        "▁",
        "id"
      ],
      [
        "o",
        "tion"
      ],
      [
        "ee",
        "ds"
      ],
      [
        "▁w",
        "al"
      ],
      [
        "▁b",
        "all"
      ],
      [
        "▁pr",
        "on"
      ],
      [
        "▁col",
        "l"
      ],
      [
        "▁h",
        "om"
      ],
      [
        "▁op",
        "p"
      ],
      [
        "▁f",
        "at"
      ],
      [
        "▁mo",
        "ment"
      ],
      [
        "z",
        "z"
      ],
      [
        "▁fem",
        "ales"
      ],
      [
        "▁char",
        "acter"
      ],
      [
        "▁squir",
        "rel"
      ],
      [
        "▁cigar",
        "ette"
      ],
      [
        "▁pro",
        "c"
      ],
      [
        "ti",
        "me"
      ],
      [
        "▁invest",
        "ment"
      ],
      [
        "▁p",
        "oles"
      ],
      [
        "▁play",
        "ed"
      ],
      [
        "▁rul",
        "es"
      ],
      [
        "▁est",
        "ab"
      ],
      [
        "▁",
        "/"
      ],
      [
        "y",
        "m"
      ],
      [
        "a",
        "x"
      ],
      [
        "▁w",
        "it"
      ],
      [
        "mp",
        "ed"
      ],
      [
        "▁fore",
        "head"
      ],
      [
        "▁an",
        "oth"
      ],
      [
        "▁re",
        "le"
      ],
      [
        "▁e",
        "igh"
      ],
      [
        "st",
        "it"
      ],
      [
        "▁objec",
        "tives"
      ],
      [
        "▁ra",
        "ised"
      ],
      [
        "▁d",
        "ar"
      ],
      [
        "ac",
        "e"
      ],
      [
        "▁c",
        "ages"
      ],
      [
        "▁in",
        "st"
      ],
      [
        "as",
        "h"
      ],
      [
        "▁stic",
        "ks"
      ],
      [
        "▁car",
        "bon"
      ],
      [
        "i",
        "fe"
      ],
      [
        "▁s",
        "ink"
      ],
      [
        "▁recru",
        "it"
      ],
      [
        "▁cl",
        "os"
      ],
      [
        "▁********************************",
        "**********************************"
      ],
      [
        "ic",
        "ke"
      ],
      [
        "on",
        "al"
      ],
      [
        "w",
        "here"
      ],
      [
        "▁e",
        "qu"
      ],
      [
        "▁sh",
        "orts"
      ],
      [
        "l",
        "l"
      ],
      [
        "▁disc",
        "us"
      ],
      [
        "el",
        "ly"
      ],
      [
        "▁counterfeit",
        "ing"
      ],
      [
        "▁trag",
        "ed"
      ],
      [
        "▁f",
        "low"
      ],
      [
        "▁per",
        "iod"
      ],
      [
        "as",
        "ion"
      ],
      [
        "ti",
        "ms"
      ],
      [
        "▁l",
        "ock"
      ],
      [
        "▁ev",
        "olution"
      ],
      [
        "▁ra",
        "ise"
      ],
      [
        "▁h",
        "is"
      ],
      [
        "▁bur",
        "den"
      ],
      [
        "▁so",
        "me"
      ],
      [
        "▁sh",
        "oot"
      ],
      [
        "is",
        "f"
      ],
      [
        "▁1",
        "5"
      ],
      [
        "▁vide",
        "os"
      ],
      [
        "f",
        "o"
      ],
      [
        "▁",
        "li"
      ],
      [
        "▁cl",
        "osed"
      ],
      [
        "▁coinc",
        "idence"
      ],
      [
        "▁i",
        "s"
      ],
      [
        "▁o",
        "ught"
      ],
      [
        "▁for",
        "mer"
      ],
      [
        "▁gir",
        "ls"
      ],
      [
        "r",
        "ates"
      ],
      [
        "▁re",
        "ne"
      ],
      [
        "▁ter",
        "ms"
      ],
      [
        "▁sol",
        "id"
      ],
      [
        "▁break",
        "f"
      ],
      [
        "▁o",
        "atme"
      ],
      [
        "▁dec",
        "ision"
      ],
      [
        "b",
        "e"
      ],
      [
        "▁ill",
        "ust"
      ],
      [
        "▁he",
        "ad"
      ],
      [
        "a",
        "z"
      ],
      [
        "▁ac",
        "cess"
      ],
      [
        "▁cal",
        "c"
      ],
      [
        "▁con",
        "c"
      ],
      [
        "▁d",
        "c"
      ],
      [
        "▁att",
        "ached"
      ],
      [
        "▁isl",
        "am"
      ],
      [
        "▁resp",
        "ect"
      ],
      [
        "▁rel",
        "ations"
      ],
      [
        "on",
        "y"
      ],
      [
        "▁s",
        "igned"
      ],
      [
        "▁sch",
        "ed"
      ],
      [
        "▁char",
        "ges"
      ],
      [
        "▁begin",
        "ning"
      ],
      [
        "ac",
        "ts"
      ],
      [
        "▁dat",
        "ab"
      ],
      [
        "▁dep",
        "loyed"
      ],
      [
        "▁gr",
        "ass"
      ],
      [
        "▁profess",
        "or"
      ],
      [
        "▁s",
        "ar"
      ],
      [
        "▁pi",
        "ano"
      ],
      [
        "▁myce",
        "lium"
      ],
      [
        "▁cre",
        "ating"
      ],
      [
        "om",
        "s"
      ],
      [
        "a",
        "nd"
      ],
      [
        "en",
        "ds"
      ],
      [
        "▁in",
        "side"
      ],
      [
        "▁r",
        "oc"
      ],
      [
        "▁!!!",
        "!!!"
      ],
      [
        "▁we",
        "st"
      ],
      [
        "▁highl",
        "igh"
      ],
      [
        "▁m",
        "oon"
      ],
      [
        "▁a",
        "ug"
      ],
      [
        "▁fa",
        "ir"
      ],
      [
        "▁t",
        "ooth"
      ],
      [
        "▁prin",
        "ted"
      ],
      [
        "in",
        "ity"
      ],
      [
        "ou",
        "r"
      ],
      [
        "▁tr",
        "a"
      ],
      [
        "▁integr",
        "ation"
      ],
      [
        "▁jus",
        "tice"
      ],
      [
        "▁bus",
        "h"
      ],
      [
        "▁pl",
        "astic"
      ],
      [
        "▁open",
        "s"
      ],
      [
        "▁tal",
        "king"
      ],
      [
        "▁bott",
        "le"
      ],
      [
        "▁for",
        "ce"
      ],
      [
        "h",
        "e"
      ],
      [
        "er",
        "ve"
      ],
      [
        "▁anal",
        "ys"
      ],
      [
        "▁char",
        "acters"
      ],
      [
        "▁w",
        "agon"
      ],
      [
        "▁sh",
        "eet"
      ],
      [
        "▁turn",
        "ing"
      ],
      [
        "▁cand",
        "id"
      ],
      [
        "▁sur",
        "ve"
      ],
      [
        "▁conse",
        "qu"
      ],
      [
        "▁nash",
        "ville"
      ],
      [
        "▁coup",
        "le"
      ],
      [
        "▁c",
        "ake"
      ],
      [
        "u",
        "ne"
      ],
      [
        "▁extre",
        "mely"
      ],
      [
        "l",
        "es"
      ],
      [
        "augh",
        "ters"
      ],
      [
        "▁b",
        "alt"
      ],
      [
        "▁v",
        "oice"
      ],
      [
        "▁tele",
        "phone"
      ],
      [
        "▁o",
        "u"
      ],
      [
        "!!",
        "!"
      ],
      [
        "▁him",
        "self"
      ],
      [
        "▁wor",
        "n"
      ],
      [
        "▁for",
        "ces"
      ],
      [
        "▁bl",
        "an"
      ],
      [
        "▁all",
        "ow"
      ],
      [
        "▁u",
        "s"
      ],
      [
        "▁qu",
        "est"
      ],
      [
        "▁w",
        "ind"
      ],
      [
        "ri",
        "m"
      ],
      [
        "ra",
        "x"
      ],
      [
        "▁w",
        "ood"
      ],
      [
        "▁ass",
        "ured"
      ],
      [
        "▁human",
        "ity"
      ],
      [
        "▁h",
        "ard"
      ],
      [
        "▁phenomen",
        "on"
      ],
      [
        "▁feat",
        "ure"
      ],
      [
        "▁s",
        "c"
      ],
      [
        "m",
        "ent"
      ],
      [
        "enti",
        "al"
      ],
      [
        "▁",
        "p"
      ],
      [
        "▁m",
        "ade"
      ],
      [
        "▁sent",
        "ences"
      ],
      [
        "▁en",
        "d"
      ],
      [
        "ti",
        "t"
      ],
      [
        "▁achie",
        "vements"
      ],
      [
        "▁sec",
        "ret"
      ],
      [
        "▁prod",
        "uce"
      ],
      [
        "▁spl",
        "it"
      ],
      [
        "▁d",
        "al"
      ],
      [
        "▁gl",
        "o"
      ],
      [
        "▁und",
        "er"
      ],
      [
        "▁aff",
        "airs"
      ],
      [
        "▁relations",
        "hip"
      ],
      [
        "▁co",
        "ll"
      ],
      [
        "▁f",
        "ed"
      ],
      [
        "▁o",
        "cc"
      ],
      [
        "▁reserv",
        "e"
      ],
      [
        "r",
        "ition"
      ],
      [
        "▁sy",
        "n"
      ],
      [
        "ro",
        "n"
      ],
      [
        "▁capt",
        "ured"
      ],
      [
        "▁qu",
        "oted"
      ],
      [
        "▁e",
        "very"
      ],
      [
        "re",
        "ad"
      ],
      [
        "▁y",
        "ester"
      ],
      [
        "▁inter",
        "f"
      ],
      [
        "oun",
        "ds"
      ],
      [
        "▁sp",
        "r"
      ],
      [
        "▁prom",
        "ised"
      ],
      [
        "al",
        "k"
      ],
      [
        "▁proc",
        "essing"
      ],
      [
        "▁ther",
        "ap"
      ],
      [
        "app",
        "ing"
      ],
      [
        "▁le",
        "aves"
      ],
      [
        "▁di",
        "vers"
      ],
      [
        "▁serv",
        "ing"
      ],
      [
        "mp",
        "ing"
      ],
      [
        "▁mount",
        "ain"
      ],
      [
        "▁for",
        "m"
      ],
      [
        "▁aw",
        "ard"
      ],
      [
        "at",
        "ely"
      ],
      [
        "▁stri",
        "ke"
      ],
      [
        "▁co",
        "de"
      ],
      [
        "▁mod",
        "ify"
      ],
      [
        "▁",
        "jo"
      ],
      [
        "ul",
        "t"
      ],
      [
        "▁micro",
        "scope"
      ],
      [
        "▁insp",
        "ection"
      ],
      [
        "▁h",
        "ear"
      ],
      [
        "▁1",
        "2"
      ],
      [
        "▁ne",
        "goti"
      ],
      [
        "▁i",
        "mp"
      ],
      [
        "▁t",
        "ie"
      ],
      [
        "ab",
        "lish"
      ],
      [
        "▁at",
        "t"
      ],
      [
        "▁h",
        "abit"
      ],
      [
        "▁sp",
        "lit"
      ],
      [
        "▁sugges",
        "tion"
      ],
      [
        "▁wel",
        "c"
      ],
      [
        "▁|--------+----------------",
        "------->"
      ],
      [
        "at",
        "h"
      ],
      [
        "▁",
        ";"
      ],
      [
        "▁pro",
        "ved"
      ],
      [
        "▁a",
        "ft"
      ],
      [
        "i",
        "s"
      ],
      [
        "▁establish",
        "ment"
      ],
      [
        "ont",
        "o"
      ],
      [
        "▁w",
        "ith"
      ],
      [
        "▁ackn",
        "owled"
      ],
      [
        "o",
        "ck"
      ],
      [
        "▁conflic",
        "t"
      ],
      [
        "▁m",
        "atch"
      ],
      [
        "es",
        "ts"
      ],
      [
        "▁t",
        "est"
      ],
      [
        "▁my",
        "ce"
      ],
      [
        "▁b",
        "os"
      ],
      [
        "▁t",
        "hen"
      ],
      [
        "▁contain",
        "er"
      ],
      [
        "ta",
        "in"
      ],
      [
        "o",
        "or"
      ],
      [
        "▁",
        "ign"
      ],
      [
        "gh",
        "t"
      ],
      [
        "▁init",
        "ial"
      ],
      [
        "▁produc",
        "ed"
      ],
      [
        "▁cost",
        "s"
      ],
      [
        "at",
        "ion"
      ],
      [
        "ac",
        "les"
      ],
      [
        "▁t",
        "owed"
      ],
      [
        "▁compan",
        "y"
      ],
      [
        "▁earli",
        "er"
      ],
      [
        "▁aud",
        "i"
      ],
      [
        "▁a",
        "be"
      ],
      [
        "▁trans",
        "p"
      ],
      [
        "▁res",
        "ear"
      ],
      [
        "▁re",
        "ad"
      ],
      [
        "▁pay",
        "ment"
      ],
      [
        "▁r",
        "out"
      ],
      [
        "▁c",
        "am"
      ],
      [
        "▁den",
        "ied"
      ],
      [
        "▁serve",
        "s"
      ],
      [
        "ook",
        "s"
      ],
      [
        "▁s",
        "ev"
      ],
      [
        "or",
        "s"
      ],
      [
        "m",
        "m"
      ],
      [
        "▁fil",
        "ms"
      ],
      [
        "▁rec",
        "ognition"
      ],
      [
        "or",
        "ities"
      ],
      [
        "▁avail",
        "ability"
      ],
      [
        "▁pur",
        "pos"
      ],
      [
        "▁destro",
        "y"
      ],
      [
        "▁h",
        "ot"
      ],
      [
        "▁record",
        "ing"
      ],
      [
        "▁c",
        "ried"
      ],
      [
        "▁dest",
        "in"
      ],
      [
        "▁wa",
        "iver"
      ],
      [
        "▁sme",
        "lled"
      ],
      [
        "▁c",
        "abb"
      ],
      [
        "g",
        "el"
      ],
      [
        "▁regar",
        "d"
      ],
      [
        "▁bo",
        "ats"
      ],
      [
        "▁kit",
        "chen"
      ],
      [
        "▁la",
        "b"
      ],
      [
        "d",
        "er"
      ],
      [
        "▁h",
        "op"
      ],
      [
        "a",
        "ll"
      ],
      [
        "▁sci",
        "ence"
      ],
      [
        "▁expl",
        "ore"
      ],
      [
        "▁t",
        "ested"
      ],
      [
        "m",
        "l"
      ],
      [
        "b",
        "les"
      ],
      [
        "ult",
        "ure"
      ],
      [
        "▁trad",
        "er"
      ],
      [
        "▁env",
        "iron"
      ],
      [
        "▁determ",
        "ined"
[...]
