{
  "version": "1.0",
  "truncation": null,
  "padding": null,
  "added_tokens": [
    {
      "id": 720,
      "content": "[CLS]",
      "single_word": false,
      "lstrip": false,
      "rstrip": false,
      "normalized": false,
      "special": true
    },
    {
      "id": 1022,
      "content": "[SEP]",
      "single_word": false,
      "lstrip": false,
      "rstrip": false,
      "normalized": false,
      "special": true
    },
    {
      "id": 1522,
      "content": "[MASK]",
      "single_word": false,
      "lstrip": false,
      "rstrip": false,
      "normalized": false,
      "special": true
    },
    {
      "id": 3767,
      "content": "[PAD]",
      "single_word": false,
      "lstrip": false,
      "rstrip": false,
      "normalized": false,
      "special": true
    },
    {
      "id": 3974,
      "content": "[UNK]",
      "single_word": false,
      "lstrip": false,
      "rstrip": false,
      "normalized": false,
      "special": true
    }
  ],
  "normalizer": {
    "type": "Sequence",
    "normalizers": [
      {
        "type": "NFD"
      },
      {
        "type": "Lowercase"
      },
      {
        "type": "StripAccents"
      }
    ]
  },
  "pre_tokenizer": {
    "type": "Sequence",
    "pretokenizers": [
      {
        "type": "Metaspace",
        "replacement": "▁",
        "prepend_scheme": "always",
        "split": true
      }
    ]
  },
  "post_processor": {
    "type": "TemplateProcessing",
    "single": [
      {
        "SpecialToken": {
          "id": "[CLS]",
          "type_id": 0
        }
      },
      {
        "Sequence": {
          "id": "A",
          "type_id": 0
        }
      },
      {
        "SpecialToken": {
          "id": "[SEP]",
          "type_id": 0
        }
      }
    ],
    "pair": [
      {
        "SpecialToken": {
          "id": "[CLS]",
          "type_id": 0
        }
      },
      {
        "Sequence": {
          "id": "A",
          "type_id": 0
        }
      },
      {
        "SpecialToken": {
          "id": "[SEP]",
          "type_id": 0
        }
      },
      {
        "Sequence": {
          "id": "B",
          "type_id": 1
        }
      },
      {
        "SpecialToken": {
          "id": "[SEP]",
          "type_id": 1
        }
      }
    ],
    "special_tokens": {
      "[CLS]": {
        "id": "[CLS]",
        "ids": [
          720
        ],
        "tokens": [
          "[CLS]"
        ]
      },
      "[SEP]": {
        "id": "[SEP]",
        "ids": [
          1022
        ],
        "tokens": [
          "[SEP]"
        ]
      }
    }
  },
  "decoder": {
    "type": "Metaspace",
    "replacement": "▁",
    "prepend_scheme": "always",
    "split": true
  },
  "model": {
    "type": "Unigram",
    "unk_id": 3974,
    "vocab": [
      [
        "▁mr",
        -7.014939835080128
      ],
      [
        "▁maj",
        -6.857447257322732
      ],
      [
        "unch",
        -8.727674962482121
      ],
      [
        "▁get",
        -7.116919860684064
      ],
      [
        "▁install",
        -8.573909449201338
      ],
      [
        "house",
        -8.931180413125478
      ],
      [
        "ent",
        -5.270498460199944
      ],
      [
        "n",
        -3.9840298251398396
      ],
      [
        "phone",
        -8.728371290137284
      ],
      [
        "▁decade",
        -8.168497327405545
      ],
      [
        "▁tape",
        -7.992135511469011
      ],
      [
        "▁abo",
        -8.974191354937807
      ],
      [
        "▁nine",
        -5.672094930765971
      ],
      [
        "▁drop",
        -9.04181994981553
      ],
      [
        "p",
        -7.377066839702568
      ],
      [
        "▁die",
        -8.442731206985325
      ],
      [
        "er",
        -10.542953920852197
      ],
      [
        "▁???",
        -12.710326831142815
      ],
      [
        "▁park",
        -7.8258503620912805
      ],
      [
        "▁fri",
        -7.673051705287245
      ],
      [
        "_",
        -4.735940816345124
      ],
      [
        "▁a",
        -6.484556626444803
      ],
      [
        "▁thi",
        -5.276488441522115
      ],
      [
        "tra",
        -8.956646271249955
      ],
      [
        "▁social",
        -6.614955515202298
      ],
      [
        "▁th",
        -6.19741338827232
      ],
      [
        "oul",
        -4.862598188843797
      ],
      [
        "▁smil",
        -9.217982295975613
      ],
      [
        "▁advance",
        -8.998727169652906
      ],
      [
        "▁recipient",
        -9.080391683828804
      ],
      [
        "▁fun",
        -7.0666474588122075
      ],
      [
        "rice",
        -8.991501378877212
      ],
      [
        "▁cold",
        -6.679730130703026
      ],
      [
        "onto",
        -6.611941573515393
      ],
      [
        "▁area",
        -6.633506172057675
      ],
      [
        "▁repair",
        -8.464728831185955
      ],
      [
        "▁figure",
        -8.81969664369825
      ],
      [
        "▁home",
        -6.828055413329658
      ],
      [
        "t",
        -4.62181170820774
      ],
      [
        "▁season",
        -8.359062764414066
      ],
      [
        "eeth",
        -8.36355984555763
      ],
      [
        "▁gotte",
        -9.31265395207345
      ],
      [
        "▁sound",
        -8.056004596801618
      ],
      [
        "▁on",
        -6.294171641857381
      ],
      [
        "land",
        -8.787627065923703
      ],
      [
        "▁over",
        -5.746199670579694
      ],
      [
        "▁companie",
        -8.276659249114067
      ],
      [
        "eat",
        -8.359058933190482
      ],
      [
        "▁every",
        -8.96049418921693
      ],
      [
        "ick",
        -9.001756191552666
      ],
      [
        "▁sun",
        -7.487139292978851
      ],
      [
        "▁cam",
        -6.278293092448769
      ],
      [
        "▁lawyer",
        -9.170622383221856
      ],
      [
        "▁attribut",
        -9.360514952474078
      ],
      [
        "▁histor",
        -7.541387607600669
      ],
      [
        "t",
        -2.1315584869245665
      ],
      [
        "▁p",
        -6.583243332153931
      ],
      [
        ")",
        -4.681454226988154
      ],
      [
        "nd",
        -12.030856372203953
      ],
      [
        "▁with",
        -3.805476671507483
      ],
      [
        "▁spread",
        -8.61092097078106
      ],
      [
        "▁behavior",
        -8.46468457431364
      ],
      [
        "00",
        -5.601908175947245
      ],
      [
        "▁bri",
        -7.255424553734033
      ],
      [
        "f",
        -6.608821903122247
      ],
      [
        "▁ride",
        -7.57088732838403
      ],
      [
        "▁country",
        -6.907077576185934
      ],
      [
        "▁fail",
        -7.908578032639164
      ],
      [
        "less",
        -6.3768290441130455
      ],
      [
        "y",
        -4.5693853521597925
      ],
      [
        "▁ye",
        -3.803495247716297
      ],
      [
        "▁+++++",
        -12.167530999473765
      ],
      [
        "▁repeat",
        -8.378574859061423
      ],
      [
        "▁a",
        -7.227841123730135
      ],
      [
        "▁them",
        -5.092080749922367
      ],
      [
        "▁handl",
        -9.298413936634732
      ],
      [
        "▁prof",
        -7.238375070861989
      ],
      [
        "▁lesson",
        -8.640130335876776
      ],
      [
        "▁suggestion",
        -8.725884969313293
      ],
      [
        "▁mess",
        -9.163694913339114
      ],
      [
        "ou",
        -7.021157929762654
      ],
      [
        "elief",
        -9.094887767904577
      ],
      [
        "▁t",
        -7.45890416965616
      ],
      [
        "de",
        -9.881780938731108
      ],
      [
        "▁garden",
        -8.221071439506012
      ],
      [
        "▁engineer",
        -9.130106004983062
      ],
      [
        "▁deliver",
        -8.049358438413172
      ],
      [
        "▁cracker",
        -9.219869338542086
      ],
      [
        "im",
        -8.854489551847179
      ],
      [
        "▁nai",
        -7.200946706543447
      ],
      [
        "▁wednesday",
        -6.714008221289247
      ],
      [
        "ible",
        -7.187702115575742
      ],
      [
        "▁watch",
        -6.422132444968376
      ],
      [
        "▁cha",
        -8.659152392222113
      ],
      [
        "ight",
        -7.544412920616464
      ],
      [
        "▁de",
        -8.417906198579672
      ],
      [
        "go",
        -8.652390594870235
      ],
      [
        "▁brush",
        -9.044226130735694
      ],
      [
        "▁front",
        -7.601454435138757
      ],
      [
        ":",
        -5.121007365794226
      ],
      [
        "▁clean",
        -7.614144936595171
      ],
      [
        "!!!!!",
        -11.849555816551455
      ],
      [
        "▁most",
        -5.67441530637149
      ],
      [
        "▁thir",
        -6.7330901287301295
      ],
      [
        "▁hi",
        -8.633197166119896
      ],
      [
        "▁shel",
        -8.997054439256805
      ],
      [
        "▁welcome",
        -8.867113751641234
      ],
      [
        ".",
        -9.207163296872874
      ],
      [
        "fe",
        -8.44210562283323
      ],
      [
        "▁power",
        -7.272494128467484
      ],
      [
        "ment",
        -6.494612436723121
      ],
      [
        "▁interview",
        -8.977517289680325
      ],
      [
        "▁a",
        -5.967256489737387
      ],
      [
        "▁percent",
        -8.275786676170393
      ],
      [
        "head",
        -7.109249811403601
      ],
      [
        "▁basket",
        -8.960263834465621
      ],
      [
        "+",
        -11.925660239071421
      ],
      [
        "▁high",
        -6.500572263972546
      ],
      [
        "be",
        -8.581302110008355
      ],
      [
        "▁m",
        -8.808938386214283
      ],
      [
        "▁jew",
        -9.08070588184273
      ],
      [
        "l",
        -3.3832330531517893
      ],
      [
        "’",
        -9.207163296872874
      ],
      [
        "▁doggie",
        -7.647428703439606
      ],
      [
        "▁division",
        -8.923227004739918
      ],
      [
        "▁li",
        -9.360770019549522
      ],
      [
        "▁production",
        -8.652641772090615
      ],
      [
        "▁mrs",
        -8.86825412372855
      ],
      [
        "▁reach",
        -7.623129132054624
      ],
      [
        "▁analys",
        -8.234448528554164
      ],
      [
        "▁nail",
        -8.613228145572283
      ],
      [
        "▁ship",
        -7.8008861890366905
      ],
      [
        "▁head",
        -8.281523441147987
      ],
      [
        "▁cause",
        -8.151481569636447
      ],
      [
        "▁ag",
        -6.715931851231953
      ],
      [
        "▁run",
        -8.669301778733283
      ],
      [
        "ched",
        -9.337331019732819
      ],
      [
        "▁wou",
        -10.722851391669158
      ],
      [
        "▁sevent",
        -6.850670197274426
      ],
      [
        "▁lead",
        -8.918931910255136
      ],
      [
        "▁facilit",
        -8.561140157760299
      ],
      [
        "▁keep",
        -6.147582535994962
      ],
      [
        "i",
        -5.936780311896298
      ],
      [
        "▁salt",
        -8.316899565779925
      ],
      [
        "?????????????",
        -12.70099418020655
      ],
      [
        "▁argument",
        -8.397995949455344
      ],
      [
        "▁submitt",
        -9.234876957290208
      ],
      [
        "▁iodi",
        -8.853030213415847
      ],
      [
        "v",
        -6.9140258171198665
      ],
      [
        "▁lion",
        -8.731586927554355
      ],
      [
        "europ",
        -6.79352500653621
      ],
      [
        "as",
        -4.369503812218433
      ],
      [
        "▁yog",
        -8.640146853951949
      ],
      [
        "▁francisco",
        -4.790806721901821
      ],
      [
        "▁desk",
        -8.08663677729701
      ],
      [
        "▁dirt",
        -8.787455502718792
      ],
      [
        "▁license",
        -9.164949153563807
      ],
      [
        "▁north",
        -7.0466915970605415
      ],
      [
        "_",
        -4.384580076550113
      ],
      [
        "x",
        -11.810278406305976
      ],
      [
        "▁inter",
        -8.790763503864412
      ],
      [
        "▁church",
        -8.315477948920822
      ],
      [
        "ame",
        -5.336550110322487
      ],
      [
        "▁si",
        -6.321408593340358
      ],
      [
        "ertain",
        -6.8715652381419625
      ],
      [
        "▁tw",
        -3.110490919801345
      ],
      [
        "▁wh",
        -6.667104945947118
      ],
      [
        "▁decision",
        -7.63734364821517
      ],
      [
        "t",
        -4.296542088812356
      ],
      [
        "se",
        -10.437721176173625
      ],
      [
        "book",
        -8.557311059629232
      ],
      [
        "▁remind",
        -8.351327217733763
      ],
      [
        "▁mission",
        -8.834349610863262
      ],
      [
        "ed",
        -6.795748025181246
      ],
      [
        "▁ears",
        -8.75287983146355
      ],
      [
        "▁score",
        -9.174898047653443
      ],
      [
        "▁ga",
        -7.345565621664554
      ],
      [
        "b",
        -6.513028744717354
      ],
      [
        "▁giv",
        -7.768671001064653
      ],
      [
        "it",
        -6.529377036237729
      ],
      [
        "▁top",
        -7.426473898343171
      ],
      [
        "dle",
        -8.646695640848325
      ],
      [
        "▁industr",
        -7.953873036340948
      ],
      [
        "▁hung",
        -8.973203302111912
      ],
      [
        "▁perceive",
        -9.231072865854188
      ],
      [
        "▁‘",
        -9.549274777276095
      ],
      [
        "=---",
        -11.804144771854496
      ],
      [
        "▁whil",
        -4.621993292267832
      ],
      [
        "▁quartile",
        -9.080391684523477
      ],
      [
        "▁exact",
        -7.130971277767781
      ],
      [
        "▁librar",
        -9.21681979529707
      ],
      [
        "▁reveal",
        -8.538070794943602
      ],
      [
        "▁inter",
        -6.952119591150534
      ],
      [
        "▁play",
        -5.482863547825015
      ],
      [
        "▁b",
        -7.005897978310937
      ],
      [
        "▁locate",
        -8.166922333003015
      ],
      [
        "▁person",
        -6.833138349476712
      ],
      [
        "▁per",
        -8.404674377646222
      ],
      [
        "▁one",
        -5.634758520204922
      ],
      [
        "▁mumm",
        -8.316246375597277
      ],
      [
        "ex",
        -7.917704102461412
      ],
      [
        "n",
        -2.772310985610549
      ],
      [
        "▁vote",
        -8.217560882040823
      ],
      [
        "▁associate",
        -8.574150142076096
      ],
      [
        "▁ever",
        -6.10819088353339
      ],
      [
        "▁swing",
        -9.217164200865096
      ],
      [
        "▁friends",
        -7.159530320313447
      ],
      [
        "port",
        -6.54582352667329
      ],
      [
        "▁involve",
        -7.945953540093921
      ],
      [
        "▁argu",
        -9.357744420874603
      ],
      [
        "▁it",
        -4.990832559725664
      ],
      [
        "u",
        -5.9829718967998025
      ],
      [
        "▁technique",
        -8.756187999620044
      ],
      [
        "aid",
        -8.194850112635836
      ],
      [
        "▁was",
        -3.43571718377914
      ],
      [
        "▁dal",
        -5.1031312299685965
      ],
      [
        "will",
        -7.214694535384876
      ],
      [
        "oh",
        -5.752813539380159
      ],
      [
        "▁wind",
        -8.257774807265097
      ],
      [
        "▁note",
        -7.834116089145225
      ],
      [
        "▁search",
        -8.706829101337929
      ],
      [
        "▁skin",
        -8.445097928105328
      ],
      [
        "n",
        -5.575385108590866
      ],
      [
        "▁lives",
        -8.02548169330824
      ],
      [
        "us",
        -9.889961405511787
      ],
      [
        "▁hers",
        -11.553708895953593
      ],
      [
        "1",
        -12.707635305583393
      ],
      [
        "▁per",
        -7.269413434404994
      ],
      [
        "▁period",
        -7.413159132792199
      ],
      [
        "▁contribution",
        -8.640123998122538
      ],
      [
        "▁enem",
        -8.85305883298894
      ],
      [
        "▁update",
        -8.923317144802338
      ],
      [
        "id",
        -9.150834025689743
      ],
      [
        "w",
        -5.189900606426425
      ],
      [
        "more",
        -5.176001385946601
      ],
      [
        "▁sentence",
        -8.923232579359775
      ],
      [
        "'s",
        -8.603282909460837
      ],
      [
        "▁farm",
        -8.66168905096403
      ],
      [
        "▁convert",
        -8.916979657935837
      ],
      [
        "-------",
        -13.306664066647068
      ],
      [
        "▁un",
        -6.526291615881251
      ],
      [
        "al",
        -4.268364097368865
      ],
      [
        "▁yours",
        -8.946628168237133
      ],
      [
        "▁common",
        -6.83188665264987
      ],
      [
        "/",
        -13.8724705263812
      ],
      [
        "▁black",
        -6.4204126115163564
      ],
      [
        "▁human",
        -8.534914647556718
      ],
      [
        "▁filter",
        -8.221198041400385
      ],
      [
        "ough",
        -6.757999109291238
      ],
      [
        "▁execute",
        -8.568324959413838
      ],
      [
        "▁kind",
        -6.315144828800624
      ],
      [
        "ry",
        -5.935161893856904
      ],
      [
        "du",
        -9.905751175123552
      ],
      [
        "what",
        -6.6959009818164335
      ],
      [
        "▁***",
        -11.706988063870577
      ],
      [
        "▁raise",
        -7.862368665323697
      ],
      [
        "▁focus",
        -8.049303936102298
      ],
      [
        "▁to",
        -4.677054644818611
      ],
      [
        "ro",
        -9.323176805322918
      ],
      [
        "▁--",
        -8.092250728111036
      ],
      [
        "▁us",
        -6.5218719918286725
      ],
      [
        "▁pig",
        -8.466027118186767
      ],
      [
        "▁push",
        -7.134800138392693
      ],
      [
        "▁website",
        -7.812616912668437
      ],
      [
        "▁opportunit",
        -7.913327564373368
      ],
      [
        "▁start",
        -8.136081255425534
      ],
      [
        "▁divide",
        -9.190883552998816
      ],
      [
        "h",
        -2.3558809577216078
      ],
      [
        "▁port",
        -8.79142650264601
      ],
      [
        "world",
        -7.278688094485754
      ],
      [
        "▁breath",
        -8.923226530042513
      ],
      [
        "tic",
        -7.116147008177121
      ],
      [
        "▁dirt",
        -7.284134994020468
      ],
      [
        "nix",
        -6.475345516831926
      ],
      [
        "▁please",
        -8.564434024630248
      ],
      [
        "▁unit",
        -9.179203765796299
      ],
      [
        "▁some",
        -6.593686694992894
      ],
      [
        "h",
        -5.561550694199753
      ],
      [
        "▁hav",
        -6.718104064181433
      ],
      [
        "▁shut",
        -8.40855525823017
      ],
      [
        "ho",
        -11.734257522352872
      ],
      [
        "▁tire",
        -8.998754855652784
      ],
      [
        "▁ball",
        -6.965149594291776
      ],
      [
        "▁iraq",
        -6.531904846313313
      ],
      [
        "▁uncle",
        -8.6130988394805
      ],
      [
        "▁fli",
        -8.794802858492993
      ],
      [
        "▁under",
        -8.853288240153757
      ],
      [
        "▁glo",
        -6.858729859080638
      ],
      [
        "▁save",
        -7.460705679004733
      ],
      [
        "night",
        -8.138923327664049
      ],
      [
        "▁right",
        -6.802273882806462
      ],
      [
        "st.",
        -6.038947423780039
      ],
      [
        "to",
        -7.034425037071648
      ],
      [
        "▁jump",
        -7.5777361657240965
      ],
      [
        "▁assum",
        -9.165025065780606
      ],
      [
        "▁advise",
        -8.642676767136889
      ],
      [
        "ver",
        -10.035555650788586
      ],
      [
        "ober",
        -7.368781672293722
      ],
      [
        "▁pillow",
        -8.511750185376151
      ],
      [
        "▁goat",
        -8.923842016975591
      ],
      [
        "▁hard",
        -6.981459197999821
      ],
      [
        "do",
        -6.801638483122259
      ],
      [
        "h",
        -4.449069131649335
      ],
      [
        "▁block",
        -8.33682074244903
      ],
      [
        "_",
        -4.3303563868877815
      ],
      [
        "▁j",
        -8.51712425535688
      ],
      [
        "▁main",
        -6.743124854223845
      ],
      [
        "▁along",
        -7.533964767221531
      ],
      [
        "u",
        -5.646689165622992
      ],
      [
        "an",
        -5.83024036355754
      ],
      [
        "speci",
        -6.56809779980563
      ],
      [
        "end",
        -9.343969701357597
      ],
      [
        "▁apple",
        -8.377477888894493
      ],
      [
        "▁attempt",
        -8.276639244496826
      ],
      [
        "-",
        -6.765722548819912
      ],
      [
        "ition",
        -8.98917662145875
      ],
      [
        "▁ant",
        -8.07381301185632
      ],
      [
        "▁burn",
        -8.440427037942076
      ],
      [
        "▁journal",
        -8.997948731912663
      ],
      [
        "▁turn",
        -7.996151635643568
      ],
      [
        "’",
        -8.311179329526977
      ],
      [
        "▁tradition",
        -8.85559007076512
      ],
      [
        "▁alter",
        -9.364013232035528
      ],
      [
        "▁woul",
        -4.259042174156751
      ],
      [
        "h",
        -10.741453583244953
      ],
      [
        "le",
        -6.457472216553487
      ],
      [
        "▁wake",
        -8.394018509598096
      ],
      [
        "8",
        -4.553569007344787
      ],
      [
        "tractor",
        -8.891746071782972
      ],
      [
        "▁cap",
        -8.92355394024561
      ],
      [
        "▁achievement",
        -9.038725017173912
      ],
      [
        "▁comparison",
        -9.123870045291513
      ],
      [
        "▁respect",
        -9.024946751241243
      ],
      [
        "▁hot",
        -6.460844592279476
      ],
      [
        "▁rat",
        -8.5438792815511
      ],
      [
        "▁drive",
        -7.535443308692442
      ],
      [
        "ooooo",
        -12.71015855894965
      ],
      [
        "▁supplie",
        -9.108504337108789
      ],
      [
        "▁floor",
        -7.3433658249617775
      ],
      [
        "▁bodi",
        -9.08411765006877
      ],
      [
        "▁impress",
        -9.443579547563832
      ],
      [
        "ze",
        -8.353582342943577
      ],
      [
        "▁st",
        -7.966507023412857
      ],
      [
        "▁rise",
        -9.218409482139297
      ],
      [
        "do",
        -8.922653752225703
      ],
      [
        "▁dragg",
        -9.154571963846962
      ],
      [
        "▁example",
        -6.887981254285923
      ],
      [
        "▁head",
        -6.621197649136684
      ],
      [
        "inst",
        -6.754258181145743
      ],
      [
        "▁gra",
        -8.822380734139827
      ],
      [
        "▁goal",
        -8.0871612786386
      ],
      [
        "▁w",
        -6.776476851865281
      ],
      [
        "▁onl",
        -6.357181621155046
      ],
      [
        "▁opene",
        -8.749317240528171
      ],
      [
        "be",
        -6.697446996375136
      ],
      [
        "▁right",
        -5.1005143013985395
      ],
      [
        "▁clothes",
        -7.876537458663101
      ],
      [
        "▁entit",
        -8.853128391993668
      ],
      [
        "---=",
        -11.805652056917825
      ],
      [
        "which",
        -9.18791860584152
      ],
      [
        "line",
        -8.559509135766652
      ],
      [
        "▁ag",
        -6.359684494857313
      ],
      [
        "▁d",
        -6.385383206556362
      ],
      [
        "▁realize",
        -8.060523133677941
      ],
      [
        "g",
        -7.307917268225807
      ],
      [
        "an",
        -7.7820359094516975
      ],
      [
        "▁surround",
        -8.139335840369649
      ],
      [
        "▁experience",
        -8.330738398453974
      ],
      [
        "▁measure",
        -8.120096173602686
      ],
      [
        "▁chance",
        -7.926723705839864
      ],
      [
        "▁component",
        -8.613096972182158
      ],
      [
        "▁assist",
        -8.6107164910709
      ],
      [
        "▁rush",
        -9.239331250726643
      ],
      [
        "un",
        -11.720693959703446
      ],
      [
        "h",
        -4.6934243343720325
      ],
      [
        "igh",
        -5.036196688107231
      ],
      [
        "▁else",
        -6.193820371878903
      ],
      [
        "▁me",
        -7.74768556160828
      ],
      [
        "▁forward",
        -6.90085416688369
      ],
      [
        "cy",
        -7.222176989584035
      ],
      [
        "▁fan",
        -8.18867338589732
      ],
      [
        "▁confirm",
        -8.120681179643658
      ],
      [
        "▁identit",
        -9.050786148158148
      ],
      [
        "_",
        -4.773377875289404
      ],
      [
        "hi",
        -8.442534427418508
      ],
      [
        "▁policy",
        -7.960275059831719
      ],
      [
        "▁cr",
        -8.980690296263411
      ],
      [
        "p",
        -7.867165043582133
      ],
      [
        "▁thought",
        -6.440770853893309
      ],
      [
        "▁plant",
        -7.857294334963626
      ],
      [
        "▁appreciate",
        -8.071396535783002
      ],
      [
        "▁pretend",
        -8.139216432580561
      ],
      [
        "▁transaction",
        -8.613097129415841
      ],
      [
        "▁fellow",
        -9.03872549137705
      ],
      [
        "ame",
        -7.426956483309218
      ],
      [
        "▁parti",
        -6.861010162495646
      ],
      [
        "-",
        -5.0561714688933765
      ],
      [
        "▁window",
        -7.532858349745301
      ],
      [
        "▁action",
        -7.3292821016335585
      ],
      [
        "▁preserve",
        -8.929681157232357
      ],
      [
        "en",
        -7.409934509845575
      ],
      [
        "▁room",
        -6.401687799269684
      ],
      [
        "▁shape",
        -9.294041601447182
      ],
      [
        "re",
        -7.538895177674713
      ],
      [
        "▁consist",
        -9.283652398662763
      ],
      [
        "▁vary",
        -9.359706773186014
      ],
      [
        "▁7",
        -5.116752489530166
      ],
      [
        "▁pa",
        -8.437070639283338
      ],
      [
        "▁purchase",
        -8.519796011439709
      ],
      [
        "▁kitt",
        -7.981335639531539
      ],
      [
        "e",
        -9.487298196508139
      ],
      [
        "h",
        -3.294768851479734
      ],
      [
        "pear",
        -6.47487379413309
      ],
      [
        "ning",
        -8.758933472931854
      ],
      [
        "▁anyway",
        -7.149342360070847
      ],
      [
        "ood",
        -9.143526128380993
      ],
      [
        "▁char",
        -6.425993185079167
      ],
      [
        "be",
        -8.086772398805063
      ],
      [
        "▁fin",
        -7.13921038761765
      ],
      [
        "▁miles",
        -8.581393473223175
      ],
      [
        "▁household",
        -9.081135028646244
      ],
      [
        "▁get",
        -4.421414040666525
      ],
      [
        "enti",
        -9.138469515775558
      ],
      [
        "▁quote",
        -8.960267051637665
      ],
      [
        "▁import",
        -9.36022865385811
      ],
      [
        "▁realise",
        -9.285368907153273
      ],
      [
        "national",
        -7.263849459139401
      ],
      [
        "▁ass",
        -8.863973836113304
      ],
      [
        "▁son",
        -7.88314789012954
      ],
      [
        "▁step",
        -7.532545737177429
      ],
      [
        "▁standard",
        -7.874378960239033
      ],
      [
        "wha",
        -11.428549959890994
      ],
      [
        "▁differ",
        -9.364938636273932
      ],
      [
        "▁be",
        -8.335218369223364
      ],
      [
        "▁photograph",
        -8.458866092533235
      ],
      [
        "hos",
        -7.461527069413849
      ],
      [
        "▁conclude",
        -8.698352782806548
      ],
      [
        "**********",
        -11.18260191905142
      ],
      [
        "▁swallow",
        -9.360870468050315
      ],
      [
        "****************",
        -9.642473869126556
      ],
      [
        "amb",
        -8.749151654427784
      ],
      [
        "▁bump",
        -9.283223577838324
      ],
      [
        "▁track",
        -8.420159885183455
      ],
      [
        "▁l",
        -8.926943481680606
      ],
      [
        "▁teach",
        -8.290834019702363
      ],
      [
        "l",
        -4.943432235573655
      ],
      [
        "▁mom",
        -6.897876860616451
      ],
      [
        "▁receiv",
        -8.281500766022912
      ],
      [
        "ic",
        -7.61690669834341
      ],
      [
        "▁green",
        -6.684628782587111
      ],
      [
        "▁8",
        -5.378483124250874
      ],
      [
        "nition",
        -8.895316967619639
      ],
      [
        "▁devote",
        -9.360415018845844
      ],
      [
        "▁key",
        -7.996897666659143
      ],
      [
        "▁dropp",
        -8.034717269481467
      ],
      [
        "illa",
        -8.639674084766057
      ],
      [
        "▁stop",
        -7.914255812273738
      ],
      [
        "que",
        -8.90760469344174
      ],
      [
        "▁transport",
        -8.917221765190643
      ],
      [
        "▁detail",
        -7.8368594232199715
      ],
      [
        "▁al",
        -8.703377934073089
      ],
      [
        "▁melt",
        -9.28704839047327
      ],
      [
        "▁com",
        -6.276845960926167
      ],
      [
        "▁camp",
        -8.355780418229038
      ],
      [
        "▁?!?",
        -13.944841065246216
      ],
      [
        "▁interpret",
        -9.041564964558665
      ],
      [
        "ler",
        -8.888776760020352
      ],
      [
        "▁cin",
        -7.1514701452127625
      ],
      [
        "▁paint",
        -8.81800342621576
      ],
      [
        "▁o",
        -7.106158376632667
      ],
      [
        "▁gre",
        -8.641113811258577
      ],
      [
        "x",
        -12.039036616560043
      ],
      [
        "▁taste",
        -8.03348461793793
      ],
      [
        "▁made",
        -5.751019815800901
      ],
      [
        "▁surprise",
        -8.428916050822538
      ],
      [
        "▁language",
        -6.993077345197551
      ],
      [
        "c",
        -6.066413695157375
      ],
      [
        "▁love",
        -6.439965781634038
      ],
      [
        "▁way",
        -5.50502050497518
      ],
      [
        "▁spen",
        -7.682695389956869
      ],
      [
        "▁bear",
        -8.442463514443517
      ],
      [
        "**************",
        -12.319171940456222
      ],
      [
        "ly",
        -6.04520852120544
      ],
      [
        "▁they",
        -4.1663145534812855
      ],
      [
        "▁threat",
        -8.355886072813451
      ],
      [
        "▁airline",
        -5.684454962162794
      ],
      [
        "tial",
        -9.050003660931548
      ],
      [
        "keep",
        -9.170125644337697
      ],
      [
        "▁vo",
        -8.480415664306676
      ],
      [
        "▁the",
        -6.346201117748008
      ],
      [
        "▁sight",
        -8.88751215706042
      ],
      [
        "b",
        -4.560883194902893
      ],
      [
        "▁dinner",
        -7.171712369692247
      ],
      [
        "▁understanding",
        -8.516439428350697
      ],
      [
        "▁away",
        -5.529427344981297
      ],
      [
        "▁road",
        -7.599567740137317
      ],
      [
        "▁aunt",
        -8.960865426247896
      ],
      [
        "▁travel",
        -7.316864703250338
      ],
      [
        "hav",
        -7.464751966707239
      ],
      [
        "ra",
        -7.674826693567061
      ],
      [
        "▁stand",
        -6.8487066663305365
      ],
      [
        "▁reco",
        -8.925900762925233
      ],
      [
        "_______",
        -12.708394161505037
      ],
      [
        "▁box",
        -7.371362901652741
      ],
      [
        "▁earl",
        -7.23689365952583
      ],
      [
        "▁material",
        -8.151479862451207
      ],
      [
        "▁p",
        -9.237570785962834
      ],
      [
        "more",
        -7.0924871061843655
      ],
      [
        "da",
        -11.222074835862148
      ],
      [
        "get",
        -10.22512405160739
      ],
      [
        "▁number",
        -6.210399829628592
      ],
      [
        "▁email",
        -7.578773222760409
      ],
      [
        "▁bench",
        -9.123873400302152
      ],
      [
        "▁health",
        -7.667920062814694
      ],
      [
        "▁as",
        -3.75801648861614
      ],
      [
        "ive",
        -8.374109375573966
      ],
      [
        "▁\"",
        -8.960736102532653
      ],
      [
        "out",
        -6.242361992765792
      ],
      [
        "▁sudden",
        -7.4773120002241225
      ],
      [
        "▁augu",
        -7.777317604258952
      ],
      [
        "ke",
        -8.411514511320403
      ],
      [
        "▁tor",
        -6.5943201541225385
      ],
      [
        "▁insect",
        -9.217858816956213
      ],
      [
        "ne",
        -12.213083490762878
      ],
      [
        "▁fixed",
        -7.9833664899746974
      ],
      [
        "▁un",
        -9.036505284817565
      ],
      [
        "▁effort",
        -7.637305677985079
      ],
      [
        "us",
        -7.413537036870659
      ],
      [
        "▁!!!!!!!!!!!!!",
        -13.199573544020165
      ],
      [
        "air",
        -9.133000384208778
      ],
      [
        "▁sav",
        -8.80767445096748
      ],
      [
        "▁yoursel",
        -11.298076311955574
      ],
      [
        "mber",
        -8.492872498582962
      ],
      [
        "n",
        -4.5571833613477795
      ],
      [
        "▁stretch",
        -8.470534988847277
      ],
      [
        "come",
        -8.677123893348812
      ],
      [
        "▁fee",
        -7.367416307645309
      ],
      [
        "▁theor",
        -7.824664755149863
      ],
      [
        "s",
        -4.934659831115517
      ],
      [
        "▁enjoy",
        -6.958235282635593
      ],
      [
        "▁record",
        -7.590202869594289
      ],
      [
        "▁exchange",
        -8.819696765247082
      ],
      [
        "work",
        -8.921642084877405
      ],
      [
        "▁price",
        -6.71495658941383
      ],
      [
        "▁soon",
        -6.254854376229238
      ],
      [
        "]",
        -6.107285657565928
      ],
      [
        "n",
        -2.150777991036591
      ],
      [
        "re",
        -11.340506330349147
      ],
      [
        "▁&",
        -7.590436870188816
      ],
      [
        "▁o",
        -5.5051082632013175
      ],
      [
        "▁fight",
        -7.564697244157757
      ],
      [
        "ting",
        -8.398526626205726
      ],
      [
        "▁charge",
        -8.49326477627249
      ],
      [
        "▁beg",
        -7.530272615901482
      ],
      [
        "▁few",
        -5.7598031210673275
      ],
      [
        "uh",
        -5.177654103719439
      ],
      [
        "▁–",
        -9.00060687934901
      ],
      [
        "es",
        -6.876952332114524
      ],
      [
        "▁inch",
        -8.93084191236678
      ],
      [
        "▁varie",
        -9.44308354851523
      ],
      [
        "▁forward",
        -8.407128460924563
      ],
      [
        "nt",
        -7.926099267872553
      ],
      [
        "l",
        -8.214727387657476
      ],
      [
        "o",
        -6.147997236814882
      ],
      [
        "▁track",
        -9.041973619179506
      ],
      [
        "▁extreme",
        -7.084282788287229
      ],
      [
        "▁en",
        -6.905990043207903
      ],
      [
        "▁15",
        -5.4561862377902095
      ],
      [
        "▁chew",
        -9.28732838811906
      ],
      [
        "▁hair",
        -6.961946290224792
      ],
      [
        "▁bu",
        -8.90277890318454
      ],
      [
        "ego",
        -6.75241437602735
      ],
      [
        "▁dc",
        -6.315017702654553
      ],
      [
        "▁analyst",
        -8.828343842181374
      ],
      [
        "_",
        -5.969535083399892
      ],
      [
        "▁sort",
        -7.713349633957149
      ],
      [
        "h",
        -8.082311726515218
      ],
      [
        "▁uh",
        -4.032163193927326
      ],
      [
        "....",
        -10.519573882973248
      ],
      [
        "board",
        -8.347606507677906
      ],
      [
        "▁painting",
        -8.517545254412695
      ],
      [
        "▁defeat",
        -9.024964534526536
      ],
      [
        "▁cover",
        -8.443252732364815
      ],
      [
        "▁amaz",
        -7.2975510369699
      ],
      [
        "under",
        -9.182318398461064
      ],
      [
        "in",
        -8.465254429914015
      ],
      [
        "▁now",
        -4.075357952692865
      ],
      [
        "▁sil",
        -9.205538703859592
      ],
      [
        "i",
        -6.532200686243054
      ],
      [
        "ocus",
        -8.960841532056333
      ],
      [
        "d",
        -1.5741834082059167
      ],
      [
        "▁theatre",
        -9.038725393975731
      ],
      [
        "▁urge",
        -9.411700244063756
      ],
      [
        "▁propert",
        -7.4131640324254855
      ],
      [
        "▁_______",
        -11.336214334389922
      ],
      [
        "▁approve",
        -8.250127600697594
      ],
      [
        "▁dut",
        -8.881334110534642
      ],
      [
        "thin",
        -5.708700200719424
      ],
      [
        "▁good",
        -4.598078696122425
      ],
      [
        "▁where",
        -4.295607078995645
      ],
      [
        "▁four",
        -4.645122731153732
      ],
      [
        "▁license",
        -7.767979767270777
      ],
      [
        "ean",
        -6.912683510075581
      ],
      [
        "▁bottom",
        -8.185669981593628
      ],
      [
        "▁reason",
        -7.171711951534217
      ],
      [
        "▁scene",
        -8.51176739934912
      ],
      [
        "▁guest",
        -8.725903771755222
      ],
      [
        "▁manner",
        -8.69659031270747
      ],
      [
        "p",
        -6.326571753016402
      ],
      [
        "▁ser",
        -8.254649309589142
      ],
      [
        "▁ones",
        -10.697747661474345
      ],
      [
        "▁taste",
        -9.080392337325485
      ],
      [
        "▁k",
        -7.910325609427668
      ],
      [
        "u",
        -6.759958710825652
      ],
      [
        "w",
        -3.847734666333153
      ],
      [
        "f",
        -7.281137016091158
      ],
      [
        "▁consequence",
        -8.923226441705136
      ],
      [
        "▁wel",
        -3.673063769073643
      ],
      [
        "▁secret",
        -9.080240977205818
      ],
      [
        "▁institution",
        -8.35588601986888
      ],
      [
        "▁balzac",
        -6.776892985365578
      ],
      [
        "▁smoke",
        -9.40119212792208
      ],
      [
        "▁form",
        -7.096046790120671
      ],
      [
        "▁application",
        -7.800710161798443
      ],
      [
        "nd",
        -9.236601350363305
      ],
      [
        "▁investigate",
        -9.19726521086874
      ],
      [
        "de",
        -8.535528435239922
      ],
      [
        "entl",
        -5.672554744168814
      ],
      [
        "how",
        -6.8343150304575
      ],
      [
        "ll",
        -7.494378486819104
      ],
      [
        "t",
        -1.4210259656718716
      ],
      [
        "▁d",
        -9.912457131010228
      ],
      [
        "be",
        -5.8753117268286665
      ],
      [
        "▁as",
        -4.879682590360853
      ],
      [
        ".....",
        -11.977458560269762
      ],
      [
        "▁exist",
        -7.503767107828424
      ],
      [
        "▁plant",
        -8.843420525445511
      ],
      [
        "▁pizza",
        -8.239267472957323
      ],
      [
        "▁catch",
        -7.591525767138456
      ],
      [
        "▁breakfast",
        -7.647406688366276
      ],
      [
        "▁wait",
        -9.120835427364886
      ],
      [
        "▁charge",
        -7.853354768533049
      ],
      [
        "▁spot",
        -9.193999268676993
      ],
      [
        "'",
        -10.925660239071423
      ],
      [
        "▁ye",
        -7.575686894615634
      ],
      [
        "▁securit",
        -7.617404688247977
      ],
      [
        "▁ran",
        -7.978711642626029
      ],
      [
        "▁break",
        -8.613115703612863
      ],
      [
        "ampa",
        -7.290181793402967
      ],
      [
        "▁why",
        -4.973704831338078
      ],
      [
        "▁fe",
        -8.914030362010491
      ],
      [
        "▁ca",
        -13.8725705263812
      ],
      [
        "f",
        -11.770631529841472
      ],
      [
        "are",
        -6.0074420158852755
      ],
      [
        "▁emergenc",
        -8.887512155990327
      ],
      [
        "▁insur",
        -8.854232753615449
      ],
      [
        "▁bet",
        -8.661264295031007
      ],
      [
        "▁tha",
        -2.389866280899322
      ],
      [
        "f",
        -6.619575894914962
      ],
      [
        "stance",
        -8.735518472573066
      ],
      [
        "shoul",
        -8.078104899454067
      ],
      [
        "put",
        -9.176596761033803
      ],
      [
        "▁onl",
        -4.832955045729422
      ],
      [
        "_",
        -5.537490390474223
      ],
      [
        "▁design",
        -8.26674546974375
      ],
      [
        "▁mo",
        -6.386859315429376
      ],
      [
        "▁again",
        -5.055600915647587
      ],
      [
        "▁out",
        -5.28307788551118
      ],
      [
        "▁body",
        -7.683297788188867
      ],
      [
        "i",
        -3.6573677594667693
      ],
      [
        "w",
        -10.925660239071423
      ],
      [
        "l",
        -5.233182386482137
      ],
      [
        "▁pattern",
        -9.03872503190598
      ],
      [
        "ff",
        -8.67386596568681
      ],
      [
        "ing",
        -6.502982686062672
      ],
      [
        "▁burst",
        -9.360641045467792
      ],
      [
        "▁waste",
        -9.124935399848116
      ],
      [
        "▁stair",
        -8.999039406325553
      ],
      [
        "▁find",
        -5.481086058264582
      ],
      [
        "▁mine",
        -7.3549003857745685
      ],
      [
        "▁en",
        -7.426478329342391
      ],
      [
        "▁version",
        -8.239352138778676
      ],
      [
        "▁caus",
        -8.900027625784086
      ],
      [
        "▁location",
        -7.827006929804737
      ],
      [
        "ware",
        -8.746836292309021
      ],
      [
        "▁legislat",
        -8.819380215675938
      ],
      [
        "▁committ",
        -9.169860122076315
      ],
      [
        "oit",
        -7.371655096310108
      ],
      [
        "▁i",
        -7.733415807312335
      ],
      [
        "▁cu",
        -9.169193689893886
      ],
      [
        "▁over",
        -5.6506729416107095
      ],
      [
        "▁may",
        -5.707054092143263
      ],
      [
        "▁yea",
        -3.1381024377751405
      ],
      [
        "▁eye",
        -6.7141217215007565
      ],
      [
        "ativ",
        -7.238220533460433
      ],
      [
        "▁fact",
        -6.925250659712235
      ],
      [
        "▁support",
        -7.841740516479839
      ],
      [
        "▁r",
        -7.87590649442421
      ],
      [
        "▁tho",
        -7.397496751881506
      ],
      [
        "▁flavor",
        -8.923226451209459
      ],
      [
        "▁ten",
        -8.99943448455471
      ],
      [
        "▁match",
        -8.72612906053959
      ],
      [
        "▁connect",
        -7.758087071008227
      ],
      [
        "r",
        -4.205444117082512
      ],
      [
        "once",
        -6.213434230210199
      ],
      [
        "sumption",
        -8.960145236628982
      ],
      [
        "▁to",
        -7.774833365148701
      ],
      [
        "o",
        -7.324375830066715
      ],
      [
        "e",
        -4.756996595538276
      ],
      [
        "ian",
        -8.886281959573067
      ],
      [
        "▁stick",
        -8.88287745030825
      ],
      [
        "▁women",
        -7.4795736776521835
      ],
      [
        "las",
        -4.934397653464572
      ],
      [
        "▁chas",
        -9.420418471900824
      ],
      [
        "▁sunday",
        -7.388268224229664
      ],
      [
        "n",
        -11.31025614719772
      ],
      [
        "n",
        -4.842692419104057
      ],
      [
        "▁spell",
        -8.438578417452812
      ],
      [
        "▁anthr",
        -8.613108446781391
      ],
      [
        "▁request",
        -8.139182503322722
      ],
      [
        "[CLS]",
        0.0
      ],
      [
        "▁plen",
        -8.647142468445018
      ],
      [
        "▁happen",
        -6.11653004623147
      ],
      [
        "f",
        -8.905782894141495
      ],
      [
        "▁lo",
        -6.736748336690294
      ],
      [
        "ness",
        -6.8247538409090795
      ],
      [
        "▁office",
        -7.1373626323419215
      ],
      [
        "▁creat",
        -8.00466740362287
      ],
      [
        "▁election",
        -7.9961323812441565
      ],
      [
        "▁critic",
        -8.295871385758812
      ],
      [
        "▁depart",
        -7.211735076250526
      ],
      [
        "▁desire",
        -9.432100138663028
      ],
      [
        "@",
        -7.3736348295890375
      ],
      [
        "▁risk",
        -9.094089437034025
      ],
      [
        "▁no",
        -3.1231490279289718
      ],
      [
        "-",
        -11.770631529841472
      ],
      [
        "▁emerg",
        -8.615334838944051
      ],
      [
        "▁china",
        -6.612034642802275
      ],
      [
        "▁couple",
        -7.514746374831105
      ],
      [
        "▁carbon",
        -9.216979986582473
      ],
      [
        "d",
        -2.637497417406923
      ],
      [
        "ea",
        -5.383019325135234
      ],
      [
        "▁cats",
        -8.802696259025517
      ],
      [
        "▁for",
        -3.676327704226436
      ],
      [
        "▁talk",
        -8.134830892226333
      ],
      [
        "▁v",
        -8.292371398184915
      ],
      [
        "ville",
        -6.999420822601101
      ],
      [
        "▁deliver",
        -8.613097418887598
      ],
      [
        "▁4",
        -4.753496389042687
      ],
      [
        "▁motor",
        -9.123911414460832
      ],
      [
        "er",
        -8.07393420408636
      ],
      [
        "▁hav",
        -4.47068279899715
      ],
      [
        "▁f",
        -6.537668415611798
      ],
      [
        "ever",
        -6.0073375635282105
      ],
      [
        "▁[",
        -9.009499651994831
      ],
      [
        "ting",
        -6.1285489463278005
      ],
      [
        "▁stone",
        -8.85394363141789
      ],
      [
        "▁'",
        -9.685211806328248
      ],
      [
        "▁sell",
        -7.902661868973678
      ],
      [
        "▁adjust",
        -8.81943056587951
      ],
      [
        "▁ex",
        -7.967285712976986
      ],
      [
        "▁good",
        -8.071050115508168
      ],
      [
        "▁protect",
        -7.6478212800122485
      ],
      [
        "▁con",
        -7.505145151995536
      ],
      [
        "▁cross",
        -8.458026529841618
      ],
      [
        "▁launch",
        -8.712884229565555
      ],
      [
        "▁16",
        -5.674082561475753
      ],
      [
        "▁f",
        -8.821102863888438
      ],
      [
        "▁bowl",
        -7.9974941474846455
      ],
      [
        "▁factor",
        -8.245975372245494
      ],
      [
        "at",
        -7.706429681576975
      ],
      [
        "ha",
        -6.934556625686796
      ],
      [
        "ia",
        -7.981307519787568
      ],
      [
        "▁urs",
        -7.133812843592847
      ],
      [
        "oth",
        -8.842116098097984
      ],
      [
        "▁occurr",
        -8.562198231586656
      ],
      [
        "right",
        -7.391738418087057
      ],
      [
        "▁land",
        -7.404660408373981
      ],
      [
        "▁ju",
        -7.014867216967266
      ],
      [
        "▁magazine",
        -9.16932449015297
      ],
      [
        "le",
        -7.288360568497718
      ],
      [
        "▁you",
        -2.8335956024408713
      ],
      [
        "▁restriction",
        -8.819697656088554
      ],
      [
        "▁option",
        -7.62054058722151
      ],
      [
        "▁lean",
        -9.096300030768612
      ],
      [
        "▁carry",
        -7.4452905083337955
      ],
      [
        "▁review",
        -8.033199575130796
      ],
      [
        "!!!!!!!!!!!!!!!!",
        -11.398152869348259
      ],
      [
        "▁departure",
        -9.216943541934365
      ],
      [
        "▁lik",
        -5.142726697149617
      ],
      [
        "▁includ",
        -6.833177670588736
      ],
      [
        "▁dream",
        -8.613097274712779
      ],
      [
        "lta",
        -6.941091916973401
      ],
      [
        "one",
        -9.353132765357131
      ],
      [
        "▁tool",
        -8.37730071642854
      ],
      [
        "know",
        -8.628820432861547
      ],
      [
        "▁natural",
        -6.989556970057124
      ],
      [
        "t",
        -10.200270897839118
      ],
      [
        "an",
        -6.580590713007868
      ],
      [
        "▁touch",
        -8.923433775887512
      ],
      [
        "=",
        -11.380897020098319
      ],
      [
        "▁yell",
        -8.971970784677987
      ],
      [
        "▁context",
        -8.511867129123324
      ],
      [
        "l",
        -4.932719265569361
      ],
      [
        "▁n",
        -6.357557291452977
      ],
      [
        "▁offer",
        -6.973364069203791
      ],
      [
        "▁generation",
        -8.377496851346336
      ],
      [
        "▁out",
        -8.39537814174334
      ],
      [
        "▁oct",
        -7.141142473970356
      ],
      [
        "ndo",
        -6.446814175920227
      ],
      [
        "▁ar",
        -6.245121969360562
      ],
      [
        "▁socks",
        -9.213747370597716
      ],
      [
        "▁---",
        -13.632274009623938
      ],
      [
        "▁5",
        -4.72417599646302
      ],
      [
        "ary",
        -8.994954858971788
      ],
      [
        "▁food",
        -6.213060860252179
      ],
      [
        "▁approval",
        -9.123869944711316
      ],
      [
        "▁cast",
        -9.323984159509102
      ],
      [
        "full",
        -6.272233315765132
      ],
      [
        "an",
        -13.70487764730738
      ],
      [
        "men",
        -8.575510800501588
      ],
      [
        "▁injur",
        -8.960264418577658
      ],
      [
        "▁than",
        -5.888803821775666
      ],
      [
        "▁writ",
        -7.110939147606393
      ],
      [
        "pe",
        -10.887219134304972
      ],
      [
        "▁hate",
        -8.40402299196232
      ],
      [
        "▁server",
        -8.820251348788805
      ],
      [
        "▁cycle",
        -8.853030354716765
      ],
      [
        "▁seattle",
        -6.803437356597682
      ],
      [
        "▁mr",
        -7.273031942122844
      ],
      [
        "▁vehicle",
        -8.887512158809358
      ],
      [
        "***********",
        -13.214685143023583
      ],
      [
        "▁feature",
        -8.853030808034571
      ],
      [
        "▁so",
        -5.253845430228908
      ],
      [
        "▁um",
        -3.615304440315332
      ],
      [
        "▁sea",
        -7.316940977426711
      ],
      [
        "▁",
        -3.252429650460364
      ],
      [
        "▁success",
        -8.46278105745426
      ],
      [
        "▁re",
        -7.545235793358803
      ],
      [
        "see",
        -9.049613460170495
      ],
      [
        "▁help",
        -7.578754029107365
      ],
      [
        "another",
        -8.42639901100924
      ],
      [
        "▁participa",
        -9.038718271847005
      ],
      [
        "sing",
        -8.692224253441063
      ],
      [
        "▁target",
        -8.787438022389779
      ],
      [
        "▁!!!!!!",
        -11.169643353147766
      ],
      [
        "▁village",
        -9.216944207104724
      ],
      [
        "▁real",
        -6.083406281355136
      ],
      [
        "▁drink",
        -7.166090136053161
      ],
      [
        "▁couch",
        -9.080520989673364
      ],
      [
        "▁translate",
        -8.960122599722936
      ],
      [
        "j",
        -11.770631529841472
      ],
      [
        "▁fina",
        -6.594469095657319
      ],
      [
        "▁old",
        -5.586906487994287
      ],
      [
        "▁corner",
        -8.119334718825932
      ],
      [
        "▁predict",
        -9.147860661032121
      ],
      [
        "▁animal",
        -7.064213837031686
      ],
      [
        "c",
        -7.9821038333714105
      ],
      [
        "ate",
        -7.545575350373912
      ],
      [
        "▁pipe",
        -9.080226385174704
      ],
      [
        "ww",
        -11.310312733422174
      ],
      [
        "!!!!!!!!!!!!!!",
        -12.258495128023615
      ],
      [
        "▁agricultur",
        -9.038725017166328
      ],
      [
        "▁brother",
        -7.9269424963659185
      ],
      [
        "▁centre",
        -8.960702528767762
      ],
      [
        "▁blow",
        -7.619058735936671
      ],
      [
        "---------------",
        -9.361054628922307
      ],
      [
        "f",
        -7.674786905690743
      ],
      [
        "▁line",
        -6.69490420323131
      ],
      [
        "▁in",
        -5.990964429098376
      ],
      [
        "▁trans",
        -8.7484308455886
      ],
      [
        "4",
        -11.925660239071421
      ],
      [
        "▁o",
        -12.326071694749007
      ],
      [
        "▁conversation",
        -8.203273469637574
      ],
      [
        "▁apr",
        -7.080204494422818
      ],
      [
        "▁matter",
        -8.916816432592363
      ],
      [
        "▁sh",
        -8.27688201579792
      ],
      [
        "i",
        -5.516102924902142
      ],
      [
        "z",
        -6.965394004070415
      ],
      [
        "▁mess",
        -9.13529534665706
      ],
      [
        "us",
        -8.503979686221008
      ],
      [
        "tha",
        -8.930932078915008
      ],
      [
        "m",
        -6.224220405310532
      ],
      [
        "▁field",
        -7.094005265707065
      ],
      [
        "▁transform",
        -8.774449849456001
      ],
      [
        "on",
        -8.1917012505937
      ],
      [
        "▁presiden",
        -6.716120448889351
      ],
      [
        "▁product",
        -7.144694182176071
      ],
      [
        "!!!!!!!!!!!",
        -12.390566855407181
      ],
      [
        "▁base",
        -7.837463717445983
      ],
      [
        "▁sometime",
        -6.090063230110807
      ],
      [
        "▁dream",
        -8.880148528208505
      ],
      [
        "▁fund",
        -8.889089241995938
      ],
      [
        "▁shout",
        -9.15195904554747
      ],
      [
        "▁sky",
        -8.1025562247717
      ],
      [
        "d",
        -4.701714546391115
      ],
      [
        "▁recognize",
        -8.349560514077385
      ],
      [
        "▁israel",
        -7.042396580929527
      ],
      [
        "▁di",
        -7.278837625506097
      ],
      [
        "▁definition",
        -8.960263751426002
      ],
      [
        "▁toy",
        -8.068826245788582
      ],
      [
        "▁grammar",
        -8.960263484107442
      ],
      [
        "oget",
        -6.134195808425582
      ],
      [
        "▁kill",
        -7.261076649944989
      ],
      [
        "▁tour",
        -8.278112356519683
      ],
      [
        "man",
        -7.72214053945189
      ],
      [
        "▁shorts",
        -8.977787828377705
      ],
      [
        "▁hundred",
        -5.955365271488084
      ],
      [
        "▁condition",
        -7.96776251162614
      ],
      [
        "▁sever",
        -6.308517651343796
      ],
      [
        "-",
        -12.303800120175861
      ],
      [
        "▁s",
        -7.2016004436635175
      ],
      [
        "▁tend",
        -8.614622362102224
      ],
      [
        "▁joke",
        -7.754459953938312
      ],
      [
        "▁officer",
        -8.74250288138926
      ],
      [
        "▁bubble",
        -8.960263613129376
      ],
      [
        "▁==",
        -12.464802984085608
      ],
      [
        "read",
        -5.745973914349878
      ],
      [
        "ing",
        -7.042262489258168
      ],
      [
        "▁baby",
        -6.500569538443069
      ],
      [
        "am",
        -8.439299181712826
      ],
      [
        "▁diaper",
        -8.887514306500762
      ],
      [
        "▁shake",
        -8.986524122660615
      ],
      [
        "▁mam",
        -8.621617564024271
      ],
      [
        "▁hire",
        -8.685795281176249
      ],
      [
        "▁convince",
        -9.062312165094493
      ],
      [
        "▁small",
        -5.796754880294776
      ],
      [
        "▁mass",
        -8.556257492946397
      ],
      [
        "▁shark",
        -8.78743890752177
      ],
      [
        "sible",
        -5.963259940662837
      ],
      [
        "▁educat",
        -8.055407797618354
      ],
      [
        "▁mak",
        -6.4717039681631645
      ],
      [
        "in",
        -5.083038796106619
      ],
      [
        "▁199",
        -5.317256283957202
      ],
      [
        "▁liv",
        -7.570239989097204
      ],
      [
        "us",
        -3.920615676271252
      ],
      [
        "▁ga",
        -8.863395213066191
      ],
      [
        "ther",
        -6.293876075097796
      ],
      [
        "▁pro",
        -8.176086083262977
      ],
      [
        "!!!!!!!!!!!!!",
        -12.159030662584136
      ],
      [
        "▁attract",
        -8.538253893795229
      ],
      [
        "ice",
        -7.482348072578886
      ],
      [
        "▁blog",
        -9.172052559729341
      ],
      [
        "t",
        -2.591311722972385
      ],
      [
        "▁increas",
        -8.53900235210116
      ],
      [
        "sel",
        -8.826133072965293
      ],
      [
        "▁gender",
        -8.853335522894143
      ],
      [
        "ta",
        -8.247675919960207
      ],
      [
        "ve",
        -8.736942800002197
      ],
      [
        "▁bring",
        -6.61685591217293
      ],
      [
        "w",
        -10.416994930697198
      ],
      [
        "▁brain",
        -8.315635872117745
      ],
      [
        "ent",
        -8.214593509377867
      ],
      [
        "▁identifie",
        -8.504044139166487
      ],
      [
        "o",
        -2.9644061227609466
      ],
      [
        "▁members",
        -7.951723226772981
      ],
      [
        "p",
        -7.066816683755824
      ],
      [
        "kee",
        -6.30219827073261
      ],
      [
        "ves",
        -8.373917024390437
      ],
      [
        "▁rent",
        -8.812025043454252
      ],
      [
        "ver",
        -8.129848097289846
      ],
      [
        "▁l",
        -6.916928039762629
      ],
      [
        "▁sai",
        -5.08691055481988
      ],
      [
        "▁hope",
        -8.404095197514982
      ],
      [
        "▁a",
        -6.757544970675181
      ],
      [
        "▁crayon",
        -9.123908582995679
      ],
      [
        "ester",
        -7.614889363662998
      ],
      [
        "en",
        -7.180770542726827
      ],
      [
        "l",
        -6.205539044539956
      ],
      [
        "▁salad",
        -8.58678531671425
      ],
      [
        "▁acquire",
        -9.042177457619601
      ],
      [
        "▁until",
        -5.5638749337406646
      ],
      [
        "▁recommendation",
        -9.123869944701418
      ],
      [
        "▁bone",
        -8.35735672345666
      ],
      [
        "▁mont",
        -6.667462772909576
      ],
      [
        "▁go",
        -3.9477519069450997
      ],
      [
        "▁administration",
        -8.29629837316273
      ],
      [
        "ce",
        -7.959106722472015
      ],
      [
        "▁aim",
        -8.734736249555842
      ],
      [
        "ant",
        -7.8051910514453535
      ],
      [
        "▁edge",
        -8.887526414877552
      ],
      [
        "▁join",
        -7.607559899605136
      ],
      [
        "▁vegetable",
        -8.819704383473985
      ],
      [
        "▁freez",
        -9.373485835187363
      ],
      [
        "w",
        -6.333928096726785
      ],
      [
        "▁work",
        -6.025187949164228
      ],
      [
        "▁us",
        -5.578402828284721
      ],
      [
        "▁plate",
        -8.488221259044355
      ],
      [
        "▁potential",
        -9.123870011242285
      ],
      [
        "▁lady",
        -8.623778655961548
      ],
      [
        "ca",
        -8.459737813616309
      ],
      [
        "▁mid",
        -8.839557943166152
      ],
      [
        "▁evolve",
        -9.219395974338203
      ],
      [
        "▁modern",
        -7.2893754413007565
      ],
      [
        "▁moment",
        -7.619365472594727
      ],
      [
        "▁tickle",
        -8.881831433664225
      ],
      [
        "the",
        -9.636382313932264
      ],
      [
        "tic",
        -8.826549957298703
      ],
      [
        "▁settle",
        -8.543389365197694
      ],
      [
        "▁t",
        -6.581326392513223
      ],
      [
        "▁increase",
        -7.819773319320149
      ],
      [
        "▁toe",
        -8.966091677453129
      ],
      [
        "▁jeff",
        -7.3557505486389685
      ],
      [
        "▁el",
        -8.913344358678842
      ],
      [
        "▁outcome",
        -9.169327741677735
      ],
      [
        "nex",
        -7.029111693797481
      ],
      [
        "▁ap",
        -8.967049891672927
      ],
      [
        "▁militar",
        -8.670152628754188
      ],
      [
        "ly",
        -8.960168132771331
      ],
      [
        "..",
        -11.6166454357157
      ],
      [
        "▁bound",
        -9.29915380952337
      ],
      [
        "▁book",
        -7.527313072312097
      ],
      [
        "▁basil",
        -8.538931470237134
      ],
      [
        "▁prepar",
        -8.757126478595298
      ],
      [
        "▁bigge",
        -7.078989222751551
      ],
      [
        "▁second",
        -6.165745746144752
      ],
      [
        "▁universit",
        -8.58728298759465
      ],
      [
        "hap",
        -6.538456397502309
      ],
      [
        "yo",
        -13.477506734468584
      ],
      [
        "▁gas",
        -7.89051597573011
      ],
      [
        "▁strong",
        -6.705735057937477
      ],
      [
        "▁when",
        -3.9318797654183104
      ],
      [
        "[SEP]",
        0.0
      ],
      [
        "▁qu",
        -8.601907235679407
      ],
      [
        "▁shal",
        -7.0325008928194634
      ],
      [
        "▁grape",
        -9.080648317134184
      ],
      [
        "▁all",
        -8.40291871959889
      ],
      [
        "▁i",
        -8.414006726853913
      ],
      [
        "▁point",
        -8.002162580788006
      ],
      [
        "ling",
        -8.21018651045376
      ],
      [
        "▁diversi",
        -9.0397668880492
      ],
      [
        "os",
        -12.71061285681801
      ],
      [
        "▁grab",
        -8.865392312630064
      ],
      [
        "▁m",
        -7.860570558349283
      ],
      [
        "▁band",
        -7.930891841909928
      ],
      [
        "▁commitment",
        -9.080391694616416
      ],
      [
        "f",
        -6.192928136779798
      ],
      [
        "▁problem",
        -6.648347422405645
      ],
      [
        "▁note",
        -8.02542655364769
      ],
      [
        "▁communication",
        -8.587966616284092
      ],
      [
        "▁risk",
        -8.221085933683746
      ],
      [
        "uff",
        -9.023314099977823
      ],
      [
        "▁scream",
        -9.212301766933104
      ],
      [
        "_",
        -4.6553638775550565
      ],
      [
        "▁admitt",
        -9.049564673083047
      ],
      [
        "▁+",
        -12.232017845449422
      ],
      [
        "ch",
        -6.898701418822459
      ],
      [
        "▁se",
        -8.094494879163094
      ],
      [
        "▁basi",
        -8.241400965249298
      ],
      [
        "▁kne",
        -7.241416540283398
      ],
      [
        "▁travel",
        -8.450296626252157
      ],
      [
        "▁pre",
        -7.769928746563558
      ],
      [
        "▁root",
        -8.239340229963744
      ],
      [
        "▁pass",
        -7.307761619104325
      ],
      [
        "▁maintain",
        -7.770155367477616
      ],
      [
        "▁prevent",
        -8.187350387670167
      ],
      [
        "▁plan",
        -8.307157985587114
      ],
      [
        "▁terrorist",
        -8.924389204432252
      ],
      [
        "▁doctor",
        -7.66802303774338
      ],
      [
        "▁br",
        -9.147238720845868
      ],
      [
        "▁edit",
        -9.326390060793624
      ],
      [
        "v",
        -13.477506734468584
      ],
      [
        "▁solution",
        -8.15147945569067
      ],
      [
        "▁who",
        -5.033694261489916
      ],
      [
        "rote",
        -7.59018499466834
      ],
      [
        "▁authorit",
        -8.358083064351424
      ],
      [
        "▁scare",
        -9.20458049062011
      ],
      [
        "dden",
        -9.234145617308972
      ],
      [
        "▁revise",
        -9.03800813273054
      ],
      [
        "`",
        -11.770631529841472
      ],
      [
        "▁waste",
        -9.038733443818636
      ],
      [
        "▁mode",
        -8.233712274669234
      ],
      [
        "r",
        -9.881310152285408
      ],
      [
        "▁wipe",
        -8.779911817932993
      ],
      [
        "▁deploy",
        -9.293957825282968
      ],
      [
        "lack",
        -8.294906127598889
      ],
      [
        "▁tent",
        -8.937311135461075
      ],
      [
        "▁strateg",
        -8.536140307071953
      ],
      [
        "▁",
        -2.345074069766005
      ],
      [
        "▁applie",
        -8.02839247144541
      ],
      [
        "▁so",
        -3.7744192074049634
      ],
      [
        "▁group",
        -6.604477869223665
      ],
      [
        "no",
        -9.393120652578663
      ],
      [
        "▁constituenc",
        -9.080391683828726
      ],
      [
        "▁is",
        -3.8415759029393852
      ],
      [
        "▁music",
        -8.025187445522462
      ],
      [
        "ep",
        -8.964188828874324
      ],
      [
        "▁judge",
        -8.853096160210683
      ],
      [
        "▁receive",
        -7.005589039321805
      ],
      [
        "head",
        -9.05129821171414
      ],
      [
        "▁fix",
        -7.571761303624871
      ],
      [
        "▁peanut",
        -8.696493613361936
      ],
      [
        "▁leg",
        -7.482530775623637
      ],
      [
        "▁background",
        -8.92346809754456
      ],
      [
        "ll",
        -5.776077771667073
      ],
      [
        "s",
        -2.358705181573894
      ],
      [
        "\"",
        -4.22482060981751
      ],
      [
        "all",
        -9.143859500098722
      ],
      [
        "scope",
        -9.16932384945806
      ],
      [
        "▁speci",
        -8.30999454821696
      ],
      [
        "▁feel",
        -6.135129679347383
      ],
      [
        ".",
        -12.707635305583393
      ],
      [
        "▁unfortuna",
        -7.549589134851153
      ],
      [
        "▁was",
        -6.010289631052778
      ],
      [
        "▁u",
        -12.73122369669515
      ],
      [
        "▁repair",
        -9.288645750649827
      ],
      [
        "±",
        -11.925660239071421
      ],
      [
        "▁open",
        -6.700602120712368
      ],
      [
        "▁seem",
        -6.245683384999831
      ],
      [
        "***",
        -10.264982179695927
      ],
      [
        "lf",
        -10.491965744396772
      ],
      [
        "dr.",
        -7.360445003958612
      ],
      [
        "em",
        -13.645521914879932
      ],
      [
        "▁bar",
        -7.855849417329391
      ],
      [
        "▁bec",
        -7.535835746995765
      ],
      [
        "▁blood",
        -8.376891329485353
      ],
      [
        "hi",
        -8.444637064165939
      ],
      [
        "▁camera",
        -8.511750096923526
      ],
      [
        "▁iran",
        -6.869489833685237
      ],
      [
        "▁18",
        -5.485808363114372
      ],
      [
        "▁viol",
        -8.99574909449927
      ],
      [
        "▁rock",
        -8.05554008577477
      ],
      [
        "lock",
        -8.024586378018121
      ],
      [
        "▁hang",
        -7.880202537394021
      ],
      [
        "ed",
        -2.876766076595114
      ],
      [
        "▁grant",
        -8.406788658269399
      ],
      [
        "▁!!!",
        -8.822914129701736
      ],
      [
        "to",
        -8.826207245373501
      ],
      [
        "▁god",
        -9.044494760744112
      ],
      [
        "▁cheap",
        -6.93449626107068
      ],
      [
        "x",
        -11.925660239071421
      ],
      [
        "▁follow",
        -6.362041922472536
      ],
      [
        "▁design",
        -8.117580129951966
      ],
      [
        "▁color",
        -8.649343940973306
      ],
      [
        "eather",
        -8.465370609516151
      ],
      [
        "operation",
        -8.758089899944205
      ],
      [
        "▁strawberr",
        -9.080391708709893
      ],
      [
        "▁our",
        -5.4680531288304906
      ],
      [
        "▁player",
        -8.327969841936287
      ],
      [
        "▁muscle",
        -8.696473256240786
      ],
      [
        "▁questions",
        -7.464146785644244
      ],
      [
        "▁sold",
        -8.854102639208472
      ],
      [
        "z",
        -8.709992816899392
      ],
      [
        "▁belief",
        -8.488470225120022
      ],
      [
        "▁perform",
        -7.9516644364622575
      ],
      [
        "x",
        -7.839595997550478
      ],
      [
        "al",
        -7.346946077370534
      ],
      [
        "▁national",
        -6.406663850264038
      ],
      [
        "pm",
        -6.061094385241822
      ],
      [
        "▁button",
        -7.657751460610127
      ],
      [
        "▁'",
        -8.111149863688397
      ],
      [
        "▁explain",
        -7.175392007103508
      ],
      [
        "_",
        -4.900921085182438
      ],
      [
        "rent",
        -5.521074983472676
      ],
      [
        "f",
        -10.765301919425882
      ],
      [
        "}",
        -12.810278406305976
      ],
      [
        "▁pull",
        -7.056814369868906
      ],
      [
        "▁pain",
        -8.48439456547764
      ],
      [
        "▁sweep",
        -9.443273260985471
      ],
      [
        "▁spell",
        -9.169341109524526
      ],
      [
        "▁adult",
        -8.376719370603144
      ],
      [
        "▁living",
        -8.640218886045767
      ],
      [
        "c",
        -11.925660239071421
      ],
      [
        "!?!?",
        -12.27640857922021
      ],
      [
        "▁christ",
        -7.30092852555713
      ],
      [
        "▁full",
        -6.361760699344071
      ],
      [
        "▁right",
        -5.710999127079453
      ],
      [
        "▁actor",
        -9.084292713292339
      ],
      [
        "▁treat",
        -9.12244813113502
      ],
      [
        "▁some",
        -7.348423636734813
      ],
      [
        "▁down",
        -5.192616129128126
      ],
      [
        "some",
        -9.946535093477788
      ],
      [
        "▁discuss",
        -7.343250401243637
      ],
      [
        "▁close",
        -7.11502240079139
      ],
      [
        "▁mother",
        -6.859878365255122
      ],
      [
        "ar",
        -7.227971639397844
      ],
      [
        "▁qa",
        -7.083499219665282
      ],
      [
        "▁hole",
        -7.9566186601214826
      ],
      [
        "o",
        -1.7235607545640583
      ],
      [
        "access",
        -7.293715939656362
      ],
      [
        "▁second",
        -8.667901781798514
      ],
      [
        "▁wa",
        -8.825879020264775
      ],
      [
        "real",
        -7.172033070632411
      ],
      [
        "▁high",
        -5.9769864595916316
      ],
      [
        "▁fall",
        -6.9143533266820105
      ],
      [
        "▁treatment",
        -8.277292309821547
      ],
      [
        "6",
        -9.21689912153365
      ],
      [
        "▁ensur",
        -8.932108183470353
      ],
      [
        "▁knowledge",
        -8.1184193394843
      ],
      [
        "▁time",
        -5.0334879187466575
      ],
      [
        "▁evening",
        -7.092884842754999
      ],
      [
        "▁color",
        -7.397563484698041
      ],
      [
        "not",
        -11.552459937114449
      ],
      [
        "▁earl",
        -6.294145863916422
      ],
      [
        "▁spoke",
        -7.662118865388581
      ],
      [
        "▁relationship",
        -8.295977476132588
      ],
      [
        "▁woman",
        -7.523440864577599
      ],
      [
        "▁post",
        -7.878502570412045
      ],
      [
        "▁wait",
        -6.4435862654354095
      ],
      [
        "▁elephant",
        -8.756187999539797
      ],
      [
        "▁motion",
        -9.171786867028842
      ],
      [
        "▁shot",
        -9.34252858618312
      ],
      [
        "sburg",
        -4.9979293475784194
      ],
      [
        "▁stream",
        -9.127246834577521
      ],
      [
        "▁objective",
        -8.923805520080826
      ],
      [
        "▁income",
        -8.787455464565479
      ],
      [
        "▁trust",
        -8.121345029439361
      ],
      [
        "▁expert",
        -8.18567096301599
      ],
      [
        "▁story",
        -7.486752696585063
      ],
      [
        "▁us",
        -7.3584463314768165
      ],
      [
        "▁meeting",
        -7.541541333205604
      ],
      [
        "▁",
        -2.8219036520832894
      ],
      [
        "▁tummy",
        -8.819696909708828
      ],
      [
        "▁view",
        -8.258169616922892
      ],
      [
        "▁rec",
        -7.0072767537993075
      ],
      [
        "▁be",
        -5.041130330655389
      ],
      [
        "▁procedure",
        -8.487940389310216
      ],
      [
        "▁bean",
        -9.085577157622819
      ],
      [
        "among",
        -10.114427603570839
      ],
      [
        "him",
        -8.090238517203447
      ],
      [
        "▁buil",
        -7.856162297499796
      ],
      [
        "craft",
        -7.606995803735217
      ],
      [
        "▁pos",
        -6.272087047022914
      ],
      [
        "▁",
        -1.302891434072171
      ],
      [
        "ing",
        -4.779772680984797
      ],
      [
        "▁yellow",
        -6.965176970186363
      ],
      [
        "enti",
        -7.448158532075223
      ],
      [
        "▁stage",
        -8.698019412692508
      ],
      [
        "▁commit",
        -9.261825638492802
      ],
      [
        "ng",
        -9.119444186113508
      ],
      [
        "▁!!!!",
        -9.976697986141936
      ],
      [
        "lo",
        -13.605216885803905
      ],
      [
        "▁worry",
        -8.610892468635155
      ],
      [
        "▁hard",
        -6.2698592650442055
      ],
      [
        "▁i",
        -7.352216322514234
      ],
      [
        "▁cle",
        -6.736947481450366
      ],
      [
        "▁soldier",
        -8.613096971445692
      ],
      [
        "e",
        -2.645353623077794
      ],
      [
        "▁bike",
        -8.315481499947122
      ],
      [
        "▁cent",
        -9.220380689968312
      ],
      [
        "l",
        -6.758199687090753
      ],
      [
        "▁euro",
        -8.640126199585442
      ],
      [
        "▁enable",
        -8.485653695965325
      ],
      [
        "ighten",
        -9.43439811874087
      ],
      [
        "▁rain",
        -8.486530141529618
      ],
      [
        "▁be",
        -5.640815374565242
      ],
      [
        "‘",
        -9.32263420951717
      ],
      [
        "▁need",
        -4.9754309386742674
      ],
      [
        "▁th",
        -5.467207919803627
      ],
      [
        "▁expresse",
        -9.135886798223652
      ],
      [
        "▁regard",
        -7.888147346547675
      ],
      [
        "▁past",
        -8.048516230934672
      ],
      [
        "▁introduc",
        -9.281475121368487
      ],
      [
        "in",
        -12.605786362287859
      ],
      [
        "n",
        -4.908729745083298
      ],
      [
        "▁noise",
        -8.151601393382219
      ],
      [
        "▁press",
        -8.466229944950781
      ],
      [
        "▁shirt",
        -7.814540921048392
      ],
      [
        "▁tip",
        -8.960367179529511
      ],
      [
        "ble",
        -5.978990578455024
      ],
      [
        "▁bye",
        -9.135951588317361
      ],
      [
        "ium",
        -9.014128226028207
      ],
      [
        "▁eat",
        -5.6316209781590745
      ],
      [
        "o",
        -3.931859826234785
      ],
      [
        "▁resource",
        -8.295870183493776
      ],
      [
        "▁",
        -2.7000107461934846
      ],
      [
        "▁candidate",
        -8.853029512456077
      ],
      [
        "▁program",
        -7.647282493021374
      ],
      [
        "▁consumer",
        -8.928115725001415
      ],
      [
        "▁phil",
        -5.248908426229393
      ],
      [
        "-",
        -4.310181122036845
      ],
      [
        "▁guy",
        -6.71676782140044
      ],
      [
        "▁gather",
        -8.61079917971708
      ],
      [
        "▁use",
        -7.267892017966105
      ],
      [
        "▁allow",
        -6.980942798830301
      ],
      [
        "▁guideline",
        -8.923318864321372
      ],
      [
        "▁link",
        -8.421431361608825
      ],
      [
        "▁sugar",
        -8.640386033794908
      ],
      [
        "▁million",
        -8.726548101755789
      ],
      [
        "y",
        -3.633985897988561
      ],
      [
        "▁in",
        -6.281002056505655
      ],
      [
        "▁monkey",
        -8.668030493454614
      ],
      [
        "▁title",
        -8.725911657682675
      ],
      [
        "q",
        -12.653795411026692
      ],
      [
        "ty",
        -6.4139229126522626
      ],
      [
        "▁invit",
        -9.374430122357591
      ],
      [
        "▁spoon",
        -8.92323371423474
      ],
      [
        "▁educate",
        -9.404391758100541
      ],
      [
        "▁negotiation",
        -9.216943538611048
      ],
      [
        "▁notion",
        -9.218018960954858
      ],
      [
        "▁south",
        -8.819705341495732
      ],
      [
        "like",
        -9.262996894325436
      ],
      [
        "▁cake",
        -8.203548630724674
      ],
      [
        "▁situation",
        -7.721124396179961
      ],
      [
        "▁cloth",
        -8.512111151513707
      ],
      [
        "▁je",
        -8.718464131816196
      ],
      [
        "__________",
        -11.310280138036862
      ],
      [
        "▁unite",
        -7.293944788822664
      ],
      [
        "▁quin",
        -6.679816597294388
      ],
      [
        "in",
        -5.972258428642646
      ],
      [
        "rface",
        -8.40120130145402
      ],
      [
        "ar",
        -7.075727222635783
      ],
      [
        "it",
        -7.619367739875833
      ],
      [
        "▁enhance",
        -9.303382760367844
      ],
      [
        "▁include",
        -7.061085876825674
      ],
      [
        "later",
        -5.988474399927434
      ],
      [
        "▁place",
        -5.97552090107049
      ],
      [
        "▁ph",
        -9.177900458162007
      ],
      [
        "▁sh",
        -6.53497480056053
      ],
      [
        "▁develop",
        -7.219263868034156
      ],
      [
        "▁picture",
        -6.931677517984828
      ],
      [
        "▁shopp",
        -9.220916901356512
      ],
      [
        "▁young",
        -6.413958168445247
      ],
      [
        "▁discover",
        -7.971377119603126
      ],
      [
        "▁micro",
        -8.276639694658613
      ],
      [
        "▁cla",
        -8.892573238075416
      ],
      [
        "e",
        -2.9350059145542584
      ],
      [
        "▁leadership",
        -9.217985862125818
      ],
      [
        "dom",
        -9.194902981039345
      ],
      [
        "▁reserve",
        -9.087036763724031
      ],
      [
        "▁fear",
        -8.536699310275022
      ],
      [
        "▁rest",
        -7.612453355379895
      ],
      [
        "nforcement",
        -8.960943401215788
      ],
      [
        "q",
        -8.106977222159463
      ],
      [
        "▁cruise",
        -8.419777201115817
      ],
      [
        "▁hold",
        -9.043810112066787
      ],
      [
        "▁dress",
        -7.922935736617031
      ],
      [
        "▁structure",
        -8.086462457065844
      ],
      [
        "www",
        -6.037551421693644
      ],
      [
        "g",
        -6.2422419029866925
      ],
      [
        "▁hop",
        -9.20339929580699
      ],
      [
        "▁muc",
        -5.922368473306233
      ],
      [
        "▁)",
        -8.967339649659891
      ],
      [
        "2",
        -11.770631529841472
      ],
      [
        "ar",
        -7.063891730229105
      ],
      [
        "▁bread",
        -8.026877142638188
      ],
      [
        "j",
        -11.707635305543437
      ],
      [
        "”",
        -6.5176806785063475
      ],
      [
        "m",
        -6.234681282410025
      ],
      [
        "▁finish",
        -7.390927051909596
      ],
      [
        "▁individual",
        -8.561140155979066
      ],
      [
        "▁dis",
        -7.527970165719957
      ],
      [
        "b",
        -3.4366148757197568
      ],
      [
        "▁poet",
        -8.536914196757197
      ],
      [
        "▁t",
        -8.51074744854803
      ],
      [
        "y",
        -4.796594636724666
      ],
      [
        "▁let",
        -5.2663932256078825
      ],
      [
        "l",
        -4.549207338544624
      ],
      [
        "▁punch",
        -8.91668404709228
      ],
      [
        "my",
        -7.634247853704349
      ],
      [
        "bal",
        -6.877981207083328
      ],
      [
        "▁earth",
        -8.119381326187579
      ],
      [
        "▁ma",
        -6.872057889626475
      ],
      [
        "~",
        -10.976945072972644
      ],
      [
        "▁task",
        -8.441965495667365
      ],
      [
        "f",
        -2.4516511753350763
      ],
      [
        "▁12",
        -5.2458269485953
      ],
      [
        "▁plane",
        -8.011060126255805
      ],
      [
        "ma",
        -6.048419740934698
      ],
      [
        "land",
        -6.1809296492348205
      ],
      [
        "▁com",
        -8.165395837160537
      ],
      [
        "▁midd",
        -8.343516139132237
      ],
      [
        "▁flow",
        -8.690843722762539
      ],
      [
        "▁lift",
        -8.780738111600888
      ],
      [
        "▁m",
        -7.008065295960894
      ],
      [
        "▁b/",
        -11.153795423368507
      ],
      [
        "▁distance",
        -8.820178708496165
      ],
      [
        "▁crowd",
        -8.960264387560278
      ],
      [
        "▁hi",
        -8.97664959386464
      ],
      [
        "▁death",
        -7.343368173056893
      ],
      [
        "ding",
        -8.718424413211814
      ],
      [
        "▁sample",
        -8.565606250306262
      ],
      [
        "▁metal",
        -8.46514143867087
      ],
      [
        "▁round",
        -6.825245326216084
      ],
      [
        "s",
        -3.5612652791976194
      ],
      [
        "▁manage",
        -8.279946590380614
      ],
      [
        "▁emerge",
        -9.38954857975813
      ],
      [
        "b",
        -6.825311492901869
      ],
      [
        "ha",
        -9.950407672530257
      ],
      [
        "▁listen",
        -7.39626607878537
      ],
      [
        "▁sound",
        -7.578300442165294
      ],
      [
        "▁finishe",
        -8.079018015374686
      ],
      [
        "▁reduce",
        -8.267613503121149
      ],
      [
        "as",
        -7.54452203721696
      ],
      [
        "shal",
        -10.060319638891782
      ],
      [
        "▁s",
        -9.316698377377922
      ],
      [
        "▁",
        -1.879078986922659
      ],
      [
        "▁credit",
        -7.967762469353025
      ],
      [
        "▁fi",
        -4.740511853306687
      ],
      [
        "▁yard",
        -9.01493607806211
      ],
      [
        "▁disappear",
        -9.025395337929355
      ],
      [
        "▁achiev",
        -8.898995402808437
      ],
      [
        "os",
        -12.781528412373152
      ],
      [
        "▁de",
        -7.396430300391956
      ],
      [
        "▁identify",
        -8.689334217799146
      ],
      [
        "▁publish",
        -8.886603719170564
      ],
      [
        "▁near",
        -6.854433502134984
      ],
      [
        "▁council",
        -8.464680849402349
      ],
      [
        "▁ingredient",
        -9.080391683931541
      ],
      [
        "▁vlog",
        -9.16964198116683
      ],
      [
        "▁relat",
        -9.299645529150311
      ],
      [
        "▁fun",
        -8.108338126141614
      ],
      [
        "s",
        -3.2318891890768686
      ],
      [
        "let",
        -9.138793533962309
      ],
      [
        "▁re",
        -7.705712950666446
      ],
      [
        "stead",
        -6.393450791899518
      ],
      [
        "▁advantage",
        -8.81969606449028
      ],
      [
        "▁row",
        -8.627311835288015
      ],
      [
        "▁competition",
        -8.66806701648105
      ],
      [
        "*****",
        -11.55114666431147
      ],
      [
        "▁kansa",
        -6.811230330250781
      ],
      [
        "▁order",
        -7.583793869267324
      ],
      [
        "▁club",
        -9.216943576577803
      ],
      [
        "▁du",
        -6.791389539449149
      ],
      [
        "▁low",
        -7.220900580056894
      ],
      [
        "▁do",
        -4.354884306024818
      ],
      [
        "▁stopover",
        -8.08654176274725
      ],
      [
        "▁bother",
        -8.347322225484815
      ],
      [
        "▁involv",
        -8.65187780475025
      ],
      [
        "eaten",
        -9.340308157443427
      ],
      [
        "▁site",
        -7.516176501886119
      ],
      [
        "▁tha",
        -6.431820319444926
      ],
      [
        "▁no",
        -4.9331048382079015
      ],
      [
        "▁check",
        -7.097397547130876
      ],
      [
        "▁speed",
        -8.819700786291069
      ],
      [
        "▁europe",
        -6.770604656035175
      ],
      [
        "▁how",
        -3.9468069168529585
      ],
      [
        "▁.",
        -6.602433684213669
      ],
      [
        "??????????????",
        -12.538317500656396
      ],
      [
        "ami",
        -6.501920155674308
      ],
      [
        "ie",
        -6.594805163020693
      ],
      [
        "▁television",
        -8.667901775903628
      ],
      [
        "t",
        -5.349699802262843
      ],
      [
        "▁chair",
        -7.3967621303258415
      ],
      [
        "th",
        -6.262439557465997
      ],
      [
        "▁flower",
        -8.072579386229501
      ],
      [
        "other",
        -9.529450321587992
      ],
      [
        "▁capacit",
        -8.257771740324742
      ],
      [
        "▁other",
        -7.578754887362799
      ],
      [
        "is",
        -7.100956944055459
      ],
      [
        "▁paris",
        -7.236939178226198
      ],
      [
        "noth",
        -9.805417396928092
      ],
      [
        "▁disease",
        -8.887706631383795
      ],
      [
        "side",
        -6.036964273039711
      ],
      [
        "▁ticket",
        -7.5882770451074295
      ],
      [
        "▁column",
        -8.853072240777845
      ],
      [
        "▁boom",
        -8.853038175197817
      ],
      [
        "tw",
        -7.916974077212662
      ],
      [
        "uch",
        -7.227515523436938
      ],
      [
        "g",
        -6.769506707442068
      ],
      [
        "ion",
        -7.111931306513912
      ],
      [
        "▁el",
        -6.533844654885006
      ],
      [
        "▁o",
        -7.903254943525872
      ],
      [
        "c",
        -6.008928337258087
      ],
      [
        "ca",
        -7.141411780500674
      ],
      [
        "▁reduc",
        -9.075227997464417
      ],
      [
        "?",
        -3.0869681674060505
      ],
      [
        "▁instruction",
        -8.889123347279588
      ],
      [
        "ho",
        -13.331044045789548
      ],
      [
        "▁notice",
        -7.764069890327629
      ],
      [
        "ou",
        -10.303329679541383
      ],
      [
        "▁",
        -3.5515534901066914
      ],
      [
        "▁reading",
        -9.22078153821079
      ],
      [
        "ought",
        -6.8320619203240085
      ],
      [
        "ession",
        -9.21685874672712
      ],
      [
        "▁saturday",
        -7.445814912608575
      ],
      [
        "▁fit",
        -7.675468551801042
      ],
      [
        "iction",
        -8.944265896315288
      ],
      [
        "▁louis",
        -7.042205573267505
      ],
      [
        "▁separate",
        -8.89988291275871
      ],
      [
        "▁request",
        -8.086417664276423
      ],
      [
        "et",
        -6.968554700762771
      ],
      [
        "o",
        -4.757238422636543
      ],
      [
        "about",
        -5.6244658561614616
      ],
      [
        "ago",
        -6.457454052720728
      ],
      [
        "le",
        -6.872979158718937
      ],
      [
        "▁lack",
        -8.703374223642642
      ],
      [
        "▁!!!!!!!!!!",
        -11.835042718013746
      ],
      [
        "▁day",
        -5.5497980852745314
      ],
      [
        "dy",
        -7.034797477489856
      ],
      [
        "ton",
        -6.705703888198631
      ],
      [
        "ship",
        -7.965780243568245
      ],
      [
        "▁official",
        -8.203213841529262
      ],
      [
        "▁ask",
        -5.920381038087149
      ],
      [
        "▁sp",
        -8.107831717624427
      ],
      [
        "▁insist",
        -9.443311260613681
      ],
      [
        "▁expression",
        -8.85313211333125
      ],
      [
        "▁arrow",
        -9.124038588751858
      ],
      [
        "▁ok",
        -3.6625702522183037
      ],
      [
        "ter",
        -7.3650132156232075
      ],
      [
        "▁handle",
        -8.361116241446648
      ],
      [
        "▁lego",
        -8.426974812277754
      ],
      [
        "▁produce",
        -7.63749091094875
      ],
      [
        "s",
        -3.4323096462437865
      ],
      [
        "▁orla",
        -6.661679213327271
      ],
      [
        "▁til",
        -10.08890471521851
      ],
      [
        "▁concern",
        -8.239254382881619
      ],
      [
        "in",
        -8.591787719139312
      ],
      [
        "doc",
        -8.597775714188025
      ],
      [
        "▁examine",
        -8.958313668623637
      ],
      [
        "▁dial",
        -9.286248255548502
      ],
      [
        "▁mumm",
        -7.223584635370784
      ],
      [
        "▁apri",
        -8.581647655106377
      ],
      [
        "------------",
        -10.60948215331309
      ],
      [
        "▁requir",
        -9.106318260961466
      ],
      [
        "▁is",
        -5.984605269276846
      ],
      [
        "▁suffer",
        -7.928009550386038
      ],
      [
        "▁propose",
        -7.770609407272636
      ],
      [
        "▁copy",
        -8.533434250249996
      ],
      [
        "▁impact",
        -8.355891721003994
      ],
      [
        "▁portion",
        -9.041464865639405
      ],
      [
        "al",
        -5.958726361627539
      ],
      [
        "e",
        -4.22288634209055
      ],
      [
        "through",
        -8.833708491403344
      ],
      [
        "▁sleep",
        -7.3867615725125875
      ],
      [
        "ul",
        -10.976443136227793
      ],
      [
        "1",
        -3.8535279155612745
      ],
      [
        "▁favorite",
        -9.038734018345819
      ],
      [
        "▁hurt",
        -7.0391796372335245
      ],
      [
        "▁famil",
        -6.726079805847224
      ],
      [
        "▁bill",
        -8.275429721219602
      ],
      [
        "▁minne",
        -7.23532669724779
      ],
      [
        "[MASK]",
        0.0
      ],
      [
        "▁e",
        -8.78083358381152
      ],
      [
        "▁change",
        -7.11650615464455
      ],
      [
        "▁whos",
        -8.171894668355208
      ],
      [
        "▁contact",
        -8.028097009870914
      ],
      [
        "▁split",
        -9.212272108411229
      ],
      [
        "▁house",
        -6.352613214970077
      ],
      [
        "▁ar",
        -7.66241252467595
      ],
      [
        "▁promote",
        -8.608173117278714
      ],
      [
        "ther",
        -5.232010347024702
      ],
      [
        "▁insight",
        -9.123869944823143
      ],
      [
        "▁=",
        -10.684975132019087
      ],
      [
        "▁fo",
        -9.554142235997762
      ],
      [
        "▁result",
        -7.909088133194663
      ],
      [
        "▁exception",
        -9.217022488961776
      ],
      [
        "{",
        -11.810278406305976
      ],
      [
        "▁rug",
        -8.92323814933704
      ],
      [
        "ed",
        -8.296107233484799
      ],
      [
        "▁man",
        -4.986646391547884
      ],
      [
        "▁commission",
        -7.48348264406183
      ],
      [
        "▁crime",
        -8.85303165273744
      ],
      [
        "▁before",
        -6.6514196137008295
      ],
      [
        "▁do",
        -9.172013762299397
      ],
      [
        "ft",
        -6.965664792887015
      ],
      [
        "ologi",
        -7.274968840286015
      ],
      [
        "▁g",
        -7.240861415586582
      ],
      [
        "▁book",
        -6.396482390770306
      ],
      [
        "▁recommend",
        -6.895939823875512
      ],
      [
        "▁search",
        -8.787444009487338
      ],
      [
        "▁b",
        -12.241560312219251
      ],
      [
        "msel",
        -8.064757822162456
      ],
      [
        "for",
        -5.767560284088035
      ],
      [
        "▁alr",
        -5.228749683775931
      ],
      [
        "▁stomach",
        -9.216943613267615
      ],
      [
        "er",
        -5.680025428898938
      ],
      [
        "▁clean",
        -6.800035557967786
      ],
      [
        "▁hold",
        -6.661459958134625
      ],
      [
        "▁range",
        -8.5386288540977
      ],
      [
        "▁chose",
        -8.649066045350407
      ],
      [
        "▁ca",
        -8.744876320400493
      ],
      [
        "▁hand",
        -6.527532593615033
      ],
      [
        "4",
        -12.653795411026692
      ],
      [
        "p",
        -8.268707774345442
      ],
      [
        "▁black",
        -8.889279194876657
      ],
      [
        "▁progress",
        -8.561140223292318
      ],
      [
        "▁threaten",
        -8.917157554625366
      ],
      [
        ",",
        -2.0458494590007046
      ],
      [
        "▁obs",
        -9.217082718623141
      ],
      [
        "wise",
        -7.250263014346251
      ],
      [
        "▁write",
        -6.549067944212382
      ],
      [
        "▁lead",
        -7.517633113995592
      ],
      [
        "d",
        -6.0617374306317595
      ],
      [
        "▁run",
        -7.094404592042268
      ],
      [
        "al",
        -6.561525238534631
      ],
      [
        "▁be",
        -6.418192732652731
      ],
      [
        "▁poor",
        -6.827153171806246
      ],
      [
        "washington",
        -5.483334395984937
      ],
      [
        "▁read",
        -6.125286429904584
      ],
      [
        "▁c",
        -8.031073055678037
      ],
      [
        "▁screw",
        -9.283484327322988
      ],
      [
        "▁up",
        -5.004285843445531
      ],
      [
        "▁even",
        -4.814484194664957
      ],
      [
        "▁arrange",
        -8.659840971283762
      ],
      [
        "▁job",
        -6.805931174749688
      ],
      [
        "▁award",
        -9.145675020118118
      ],
      [
        "et",
        -7.922763757749793
      ],
      [
        "ie",
        -7.494042399448487
      ],
      [
        "?!?!",
        -12.176023693039138
      ],
      [
        "tri",
        -9.101197223960183
      ],
      [
        "▁side",
        -7.051965038694226
      ],
      [
        "o",
        -5.874656600078544
      ],
      [
        "ball",
        -8.210648347070492
      ],
      [
        "k",
        -12.28153641900687
      ],
      [
        "fro",
        -6.468812278161513
      ],
      [
        "--------------",
        -9.810432193692524
      ],
      [
        "▁attack",
        -7.996132152971002
      ],
      [
        "her",
        -5.452626015079912
      ],
      [
        "▁pepper",
        -8.998725359353813
      ],
      [
        "▁bit",
        -6.857625465961402
      ],
      [
        "▁f",
        -11.570644583811621
      ],
      [
        "▁prett",
        -6.0774269011538085
      ],
      [
        "d",
        -6.601197211229196
      ],
      [
        "_",
        -5.0347307007443804
      ],
      [
        "n",
        -1.763362936029182
      ],
      [
        "l",
        -12.810278406305953
      ],
      [
        "▁counterfeit",
        -9.12387052553453
      ],
      [
        "▁bal",
        -5.2300750565320575
      ],
      [
        "▁mar",
        -8.75615458481245
      ],
      [
        "▁commissioner",
        -8.943416559594128
      ],
      [
        "▁up",
        -5.080133948048412
      ],
      [
        "▁york",
        -5.898067754643051
      ],
      [
        "▁religion",
        -8.787439871338812
      ],
      [
        "▁over",
        -9.078225487752855
      ],
      [
        "▁assert",
        -9.360228417382928
      ],
      [
        "no",
        -6.988244225294416
      ],
      [
        "/",
        -7.232475893671974
      ],
      [
        "▁improvement",
        -8.887513307970934
      ],
      [
        "▁dollar",
        -7.2304002448944455
      ],
      [
        "rash",
        -9.043467120679367
      ],
      [
        "▁qui",
        -6.449378746013751
      ],
      [
        "auti",
        -6.786796365666034
      ],
      [
        "▁re",
        -6.6888841805121
      ],
      [
        "t",
        -4.811365475966638
      ],
      [
        "▁fall",
        -8.40636749201184
      ],
      [
        "at",
        -6.784203456775905
      ],
      [
        "▁cheek",
        -9.169775389142758
      ],
      [
        "tuck",
        -8.669650365756599
      ],
      [
        "▁bad",
        -6.056861771555049
      ],
      [
        "nt",
        -6.7840272792579395
      ],
      [
        "al",
        -7.304549979831504
      ],
      [
        "▁ma",
        -8.539376449403816
      ],
      [
        "▁has",
        -5.672018519169682
      ],
      [
        "▁c",
        -7.464378526851302
      ],
      [
        "icide",
        -8.696793154669027
      ],
      [
        "▁b",
        -8.653977413552017
      ],
      [
        "▁improv",
        -8.76572397638179
      ],
      [
        "▁style",
        -8.040434908053214
      ],
      [
        "▁sat",
        -7.888505393270265
      ],
      [
        "ies",
        -5.048707314614969
      ],
      [
        "ibilit",
        -9.001138243070544
      ],
      [
        "▁to",
        -4.877779908052065
      ],
      [
        "▁obtain",
        -8.438158095999771
      ],
      [
        "▁refus",
        -9.153500385357804
      ],
      [
        "▁west",
        -7.166625736712081
      ],
      [
        "▁mo",
        -7.225016705620557
      ],
      [
        "▁doll",
        -8.370678581328722
      ],
      [
        "▁regard",
        -7.5181281910160465
      ],
      [
        "▁someon",
        -6.931479858311979
      ],
      [
        "▁wors",
        -7.1919873934551335
      ],
      [
        "▁department",
        -8.397995948961373
      ],
      [
        "▁artist",
        -8.789916690104217
      ],
      [
        "▁of",
        -6.502938737333261
      ],
      [
        "ful",
        -5.211743761945356
      ],
      [
        "▁programme",
        -7.940340874201702
      ],
      [
        "3",
        -4.193572430795962
      ],
      [
        "m",
        -8.111314411788435
      ],
      [
        "▁circum",
        -8.887957862928076
      ],
      [
        "▁2",
        -4.236268747166906
      ],
      [
        "▁contin",
        -6.974975256262
      ],
      [
        "position",
        -9.0127388001521
      ],
      [
        "▁idea",
        -6.938774514926831
      ],
      [
        "toward",
        -10.5930503330447
      ],
      [
        "ic",
        -6.031345409737585
      ],
      [
        "▁california",
        -6.985563614707918
      ],
      [
        "countries",
        -7.335963384501514
      ],
      [
        "▁avoid",
        -7.722032801214737
      ],
      [
        "▁advi",
        -8.535265685975862
      ],
      [
        "le",
        -8.50795881827378
      ],
      [
        "ious",
        -7.178441696046659
      ],
      [
        "▁film",
        -8.22144721329392
      ],
      [
        "▁know",
        -4.428565868834826
      ],
      [
        "▁daughter",
        -8.070792421223594
      ],
      [
        "▁seven",
        -5.479252271885461
      ],
      [
        "▁initiate",
        -8.949744924277967
      ],
      [
        "▁up",
        -8.336977202845489
      ],
      [
        "▁fai",
        -8.907171450632363
      ],
      [
        "▁any",
        -6.715036310546548
      ],
      [
        "▁vega",
        -6.635007151032915
      ],
      [
        "▁cra",
        -8.744690332634075
      ],
      [
        "▁test",
        -7.462644608207331
      ],
      [
        "▁exhibit",
        -8.81969606406947
      ],
      [
        "▁business",
        -6.864580627149187
      ],
      [
        "▁cook",
        -7.633903245864477
      ],
      [
        "ove",
        -8.910776172545935
      ],
      [
        "▁dish",
        -8.4211822727429
      ],
      [
        "ve",
        -7.530189962329173
      ],
      [
        "▁translation",
        -8.99873334862642
      ],
      [
        "▁’",
        -6.974791146606354
      ],
      [
        "!",
        -5.002391128270716
      ],
      [
        "▁face",
        -7.117703378230014
      ],
      [
        "▁200",
        -4.117685212654388
      ],
      [
        "▁owner",
        -7.884099749778288
      ],
      [
        "▁participat",
        -9.424939284286868
      ],
      [
        "▁owl",
        -9.175415697930676
      ],
      [
        "▁lot",
        -6.288690508911256
      ],
      [
        "▁war",
        -6.948448303733125
      ],
      [
        "▁!",
        -6.89487113485091
      ],
      [
        "▁expectation",
        -8.923317100997785
      ],
      [
        "▁leaders",
        -8.367335737972816
      ],
      [
        "▁....",
        -10.744960055570607
      ],
      [
        "s",
        -1.9627050752487971
      ],
      [
        "▁cupcake",
        -8.923229193394047
      ],
      [
        "▁recover",
        -9.084213408520743
      ],
      [
        "th",
        -6.985667254388133
      ],
      [
        ",000",
        -5.495299463876596
      ],
      [
        "▁the",
        -11.09220806935517
      ],
      [
        "▁re",
        -6.479732183788573
      ],
      [
        "▁schedule",
        -8.203213840140062
      ],
      [
        "ism",
        -7.472621997880676
      ],
      [
        "l",
        -2.7651899767306247
      ],
      [
        "y",
        -7.530712123467332
      ],
      [
        "▁may",
        -6.751293367918482
      ],
      [
        "▁boot",
        -8.336177477453067
      ],
      [
        "▁mention",
        -7.452521818109263
      ],
      [
        "▁disaster",
        -8.56114092810419
      ],
      [
        "▁colleague",
        -8.923226441787417
      ],
      [
        "▁producer",
        -9.125157861239522
      ],
      [
        "▁bro",
        -9.263525512982532
      ],
      [
        "an",
        -6.937153073438733
      ],
      [
        "▁free",
        -6.313294049760262
      ],
      [
        "▁population",
        -7.9540082905450475
      ],
      [
        "▁flew",
        -9.36325101694856
      ],
      [
        "▁pick",
        -6.856487804306816
      ],
      [
        "▁mon",
        -7.089104440324166
      ],
      [
        "▁further",
        -7.053770262695196
      ],
      [
        "▁close",
        -6.872122316633374
      ],
      [
        "▁hel",
        -7.620303600731841
      ],
      [
        "p",
        -5.293431670462068
      ],
      [
        "▁touch",
        -7.580939470623513
      ],
      [
        "▁implement",
        -8.187586598347401
      ],
      [
        "▁owe",
        -9.309170567773855
      ],
      [
        "▁clos",
        -8.852234879791947
      ],
      [
        "age",
        -7.2273634382216105
      ],
      [
        "▁place",
        -7.751819224249484
      ],
      [
        "▁l2",
        -9.080618184187369
      ],
      [
        "▁b",
        -6.17573805327475
      ],
      [
        "▁close",
        -7.658641754651466
      ],
      [
        "s",
        -7.035194481589116
      ],
      [
        "▁female",
        -8.998725728600236
      ],
      [
        "▁counter",
        -8.670369497165364
      ],
      [
        "▁nove",
        -8.8533477689531
      ],
      [
        "▁statement",
        -8.283199658757818
      ],
      [
        "▁thought",
        -8.010624944413088
      ],
      [
        "▁watch",
        -8.960381965628684
      ],
      [
        "▁length",
        -9.12387115911736
      ],
      [
        "▁increase",
        -8.820130774719802
      ],
      [
        "was",
        -6.42545466381976
      ],
      [
        "▁bec",
        -7.4976419712532465
      ],
      [
        "ar",
        -9.38103595699485
      ],
      [
        "▁ok",
        -6.289238687970232
      ],
      [
        "f",
        -2.549806178690007
      ],
      [
        "▁mean",
        -8.018083086506497
      ],
      [
        "0",
        -3.7401553914094876
      ],
      [
        "ry",
        -7.477042467158304
      ],
      [
        "▁check",
        -8.168428947603775
      ],
      [
        "▁customer",
        -7.382587718953526
      ],
      [
        "▁meat",
        -8.134994082727193
      ],
      [
        "ook",
        -6.641626205827474
      ],
      [
        "▁select",
        -8.188532584885873
      ],
      [
        "ise",
        -8.626926506208594
      ],
      [
        "▁light",
        -6.78941206518117
      ],
      [
        "sept",
        -8.855690496192993
      ],
      [
        "▁d",
        -7.837953371148171
      ],
      [
        "▁short",
        -6.594763792945896
      ],
      [
        "any",
        -8.672174552810601
      ],
      [
        "▁alon",
        -6.861000914725314
      ],
      [
        "▁belt",
        -9.123914738777307
      ],
      [
        "▁marriage",
        -8.296146752465667
      ],
      [
        "▁roll",
        -8.827099005855356
      ],
      [
        "h",
        -4.22858231472119
      ],
      [
        "▁defend",
        -9.145912033232495
      ],
      [
        "▁thi",
        -3.955288045893009
      ],
      [
        "he",
        -6.877013255523378
      ],
      [
        "▁banana",
        -7.8871828307701115
      ],
      [
        "▁chang",
        -8.008629503993417
      ],
      [
        "▁photo",
        -8.667899914117745
      ],
      [
        "▁six",
        -4.954665155508478
      ],
      [
        "▁skip",
        -9.439206609939403
      ],
      [
        "▁believe",
        -6.538158286587613
      ],
      [
        "▁reserve",
        -9.08039827298765
      ],
      [
        "most",
        -5.889693681307584
      ],
      [
        "▁meal",
        -7.588571484021917
      ],
      [
        "▁special",
        -6.647498610834503
      ],
      [
        "thou",
        -5.2755113615352185
      ],
      [
        "▁reject",
        -9.212291352067611
      ],
      [
        "▁budget",
        -8.56114044043177
      ],
      [
        "▁democra",
        -8.257771320516436
      ],
      [
        "’",
        -5.269098193125767
      ],
      [
        "the",
        -3.846571277581047
      ],
      [
        "'",
        -2.6782468275802227
      ],
      [
        "to",
        -7.662555047320671
      ],
      [
        "▁board",
        -9.283379317465256
      ],
      [
        "▁speaker",
        -9.123869945045707
      ],
      [
        "▁mo",
        -7.666721555623176
      ],
      [
        "▁tail",
        -8.29666352688395
      ],
      [
        "▁stay",
        -6.40850852053221
      ],
      [
        "▁buy",
        -6.587746264825932
      ],
      [
        "▁compare",
        -8.265165019192352
      ],
      [
        "▁provid",
        -8.342887990288133
      ],
      [
        "▁attitude",
        -9.123876819431771
      ],
      [
        "▁rest",
        -8.780464668951797
      ],
      [
        "▁transit",
        -9.178403805848987
      ],
      [
        "m",
        -5.207345861107033
      ],
      [
        "▁computer",
        -7.800936317011006
      ],
      [
        "el",
        -7.5636873367490205
      ],
      [
        "▁f",
        -7.008989567983062
      ],
      [
        "▁yo",
        -9.375395264527263
      ],
      [
        "▁ever",
        -12.15183873490786
      ],
      [
        "▁neighborhood",
        -9.217080965888098
      ],
      [
        "▁choice",
        -8.118419686609656
      ],
      [
        "v",
        -8.861028352406292
      ],
      [
        "on",
        -6.905645557616413
      ],
      [
        "▁comment",
        -9.027458153108224
      ],
      [
        "▁practice",
        -9.269161214107651
      ],
      [
        "▁infrastructure",
        -9.038725017166236
      ],
      [
        "▁among",
        -7.2254285659457125
      ],
      [
        "ere",
        -8.9394830435864
      ],
      [
        "m",
        -6.009894094785829
      ],
      [
        "▁ha",
        -8.56060294069948
      ],
      [
        "▁schedule",
        -8.64038540932323
      ],
      [
        "▁engl",
        -7.3562289671656025
      ],
      [
        "▁conference",
        -8.297386519511708
      ],
      [
        "and",
        -5.572005516136555
      ],
      [
        "▁ring",
        -8.950678526810764
      ],
      [
        "u",
        -6.695873815508355
      ],
      [
        "▁!!!!!",
        -12.942034343401446
      ],
      [
        "▁region",
        -7.788957528186415
      ],
      [
        "cial",
        -6.719047619607357
      ],
      [
        "▁count",
        -7.906853085517547
      ],
      [
        "or",
        -6.111125828243201
      ],
      [
        "re",
        -6.527067844658776
      ],
      [
        "▁destroy",
        -8.407121557018147
      ],
      [
        "▁blink",
        -8.916741760491483
      ],
      [
        "s",
        -10.83641398548844
      ],
      [
        "o",
        -10.13682536586598
      ],
      [
        "▁leader",
        -8.143862894022408
      ],
      [
        "▁fund",
        -7.831147418397853
      ],
      [
        "▁eas",
        -6.711564089444368
      ],
      [
        "y",
        -5.527089822828086
      ],
      [
        "wo",
        -10.600779294355887
      ],
      [
        "▁dust",
        -8.854501243006426
      ],
      [
        "▁march",
        -7.222956755173649
      ],
      [
        "▁character",
        -8.115500986336793
      ],
      [
        "-------------",
        -10.209257586536696
      ],
      [
        "les",
        -6.373733205880214
      ],
      [
        "on",
        -5.903321937222155
      ],
      [
        "▁law",
        -7.098797919527961
      ],
      [
        "▁construct",
        -9.18317412548558
      ],
      [
        "ine",
        -8.892046660633094
      ],
      [
        "▁fa",
        -8.84211047302638
      ],
      [
        "all",
        -4.386146326760172
      ],
      [
        "▁meet",
        -6.995432217300358
      ],
      [
        "▁remain",
        -7.1574462234480425
      ],
      [
        "c",
        -6.21880737096162
      ],
      [
        "dia",
        -7.541339966809506
      ],
      [
        "▁dec",
        -8.623105624318299
      ],
      [
        "e",
        -2.8147556323144673
      ],
      [
        "▁show",
        -7.743656537800783
      ],
      [
        "▁first",
        -5.646883055112838
      ],
      [
        "us",
        -5.9074583295142755
      ],
      [
        "▁star",
        -7.9398788526223925
      ],
      [
        "▁toda",
        -6.263055244653625
      ],
      [
        "t",
        -4.857854609021998
      ],
      [
        "t",
        -2.4878868855370015
      ],
      [
        "▁hit",
        -6.806185863543326
      ],
      [
        "▁shoe",
        -7.413234866447684
      ],
      [
        "▁affect",
        -7.947152464864956
      ],
      [
        "hat",
        -8.562382551748577
      ],
      [
        "’",
        -13.8725705263812
      ],
      [
        ".",
        -7.015451316975299
      ],
      [
        "/",
        -7.238871675863226
      ],
      [
        "▁tol",
        -6.346755550568246
      ],
      [
        "i",
        -6.571173088739063
      ],
      [
        "▁an",
        -3.3571725720660046
      ],
      [
        "want",
        -9.323151046085508
      ],
      [
        "▁describe",
        -7.5151118278972
      ],
      [
        "▁b",
        -6.612012272435214
      ],
      [
        "fo",
        -12.318804377466208
      ],
      [
        "▁deal",
        -7.63485871442625
      ],
      [
        "▁boxe",
        -8.874440659223083
      ],
      [
        "d",
        -11.061985573933999
      ],
      [
        "am",
        -10.163570533105498
      ],
      [
        "y",
        -3.318207956350367
      ],
      [
        "k",
        -6.493615516649109
      ],
      [
        "r",
        -6.977308910407107
      ],
      [
        "▁hotel",
        -7.607651031530639
      ],
      [
        "▁assume",
        -8.180302739335136
      ],
      [
        "side",
        -7.369361114905498
      ],
      [
        "▁cowboy",
        -8.787438184076839
      ],
      [
        "▁being",
        -9.097558310234282
      ],
      [
        "▁table",
        -7.183063846806957
      ],
      [
        "▁list",
        -7.114475899614571
      ],
      [
        "in",
        -11.810314756811064
      ],
      [
        "abl",
        -5.607246216433183
      ],
      [
        "l",
        -6.794751193104144
      ],
      [
        "▁compete",
        -9.235698832012206
      ],
      [
        "▁influence",
        -9.142093804611847
      ],
      [
        "▁their",
        -5.253175569214527
      ],
      [
        "ou",
        -10.954094405007353
      ],
      [
        "e",
        -2.362962577693258
      ],
      [
        "▁abilit",
        -8.366522322577062
      ],
      [
        "▁introduce",
        -8.200117681523333
      ],
      [
        "▁bucket",
        -9.217655545489059
      ],
      [
        "▁calculate",
        -9.310419178133518
      ],
      [
        "▁staff",
        -7.4458154894044215
      ],
      [
        "b",
        -6.600494456860562
      ],
      [
        "r",
        -5.70560366719482
      ],
      [
        "shed",
        -9.252416951702072
      ],
      [
        "is",
        -6.944029365249887
      ],
      [
        "▁tourist",
        -8.39882020912513
      ],
      [
        "▁hi",
        -7.87038307567777
      ],
      [
        "the",
        -8.91627304626879
      ],
      [
        "▁finding",
        -9.16960617209487
      ],
      [
        "▁print",
        -9.00754385471476
      ],
      [
        "an",
        -7.701249963484149
      ],
      [
        "▁orange",
        -9.080391736416026
      ],
      [
        "▁occur",
        -8.661361815316443
      ],
      [
        "▁shoot",
        -8.514553830619484
      ],
      [
        "on",
        -6.870845246803458
      ],
      [
        "▁look",
        -7.8127469088293395
      ],
      [
        "▁draft",
        -8.35588602613353
      ],
      [
        "▁cheape",
        -6.199647512997842
      ],
      [
        "cour",
        -7.539159453764968
      ],
      [
        "▁art",
        -7.570361026728683
      ],
      [
        "get",
        -8.247055403809407
      ],
      [
        "▁citizens",
        -8.155322500037236
      ],
      [
        "▁build",
        -7.533699094761116
      ],
      [
        "▁network",
        -8.56120687954466
      ],
      [
        "▁storm",
        -8.729885739033914
      ],
      [
        "▁little",
        -4.980723849944373
      ],
      [
        "▁independen",
        -8.790922294957042
      ],
      [
        "▁mosquito",
        -9.038725017162863
      ],
      [
        "▁string",
        -8.586849946021276
      ],
      [
        "▁dark",
        -6.90249271216322
      ],
      [
        "!!!!!!!!!!",
        -11.368032386117479
      ],
      [
        "en",
        -6.61927047716217
      ],
      [
        "-----------",
        -10.993459808798361
      ],
      [
        "b",
        -10.475491467591679
      ],
      [
        "▁return",
        -6.980570236197516
      ],
      [
        "▁definit",
        -7.0146932277584275
      ],
      [
        "▁easi",
        -7.509591222627236
      ],
      [
        "h",
        -5.354454608136791
      ],
      [
        "▁peter",
        -6.731808973412266
      ],
      [
        "▁seek",
        -7.794721868270505
      ],
      [
        "▁chic",
        -6.464542883881845
      ],
      [
        "▁no",
        -8.615805374393982
      ],
      [
        "▁survive",
        -8.607826943963538
      ],
      [
        "▁date",
        -9.442067739645166
      ],
      [
        "▁operat",
        -9.416450268859371
      ],
      [
        "▁domain",
        -9.038725487086722
      ],
      [
        "ice",
        -7.594983220700396
      ],
      [
        "▁define",
        -8.349527247807606
      ],
      [
        "table",
        -8.106033439616613
      ],
      [
        "zer",
        -8.224015679755048
      ],
      [
        "▁operator",
        -8.696852753789948
      ],
      [
        "▁answer",
        -7.765823468089585
      ],
      [
        "ever",
        -5.359099294543228
      ],
      [
        "▁do",
        -3.6858831645663166
      ],
      [
        "easure",
        -8.95922014463483
      ],
      [
        ".........",
        -12.385442840267194
      ],
      [
        "▁london",
        -6.999199217919589
      ],
      [
        "▁debate",
        -8.667951627681566
      ],
      [
        "▁hamster",
        -8.923268485611915
      ],
      [
        "side",
        -8.980075690553763
      ],
      [
        "a",
        -5.205257851429506
      ],
      [
        "had",
        -6.878629606664507
      ],
      [
        "▁set",
        -6.866630984593461
      ],
      [
        "▁temperature",
        -8.61309738066222
      ],
      [
        ".com",
        -6.587277844321584
      ],
      [
        "▁pollut",
        -8.998981184762249
      ],
      [
        "==",
        -11.055194985824045
      ],
      [
        "▁sa",
        -6.480620694170947
      ],
      [
        "▁balance",
        -8.696548268984998
      ],
      [
        "ee",
        -5.7134182807115295
      ],
      [
        "long",
        -7.46212460326381
      ],
      [
        "▁hel",
        -7.2456770289592685
      ],
      [
        "▁plann",
        -7.863411079835668
      ],
      [
        "y",
        -4.983554208410508
      ],
      [
        "abo",
        -12.396353484691211
      ],
      [
        "▁think",
        -4.867037107920854
      ],
      [
        "es",
        -6.190263414163087
      ],
      [
        "▁fear",
        -9.030068234004945
      ],
      [
        "enth",
        -7.251062652065433
      ],
      [
        "▁default",
        -9.217288104727706
      ],
      [
        "▁cocktail",
        -9.216943537778427
      ],
      [
        "dl",
        -7.48629222181447
      ],
      [
        "▁submit",
        -9.415786562877546
      ],
      [
        "▁momm",
        -6.828298447791853
      ],
      [
        "est",
        -5.834993291504394
      ],
      [
        "ial",
        -6.617192983272803
      ],
      [
        "nea",
        -7.945544065619691
      ],
      [
        "or",
        -10.502977190467442
      ],
      [
        "ary",
        -6.493998529129069
      ],
      [
        "▁fort",
        -6.67782007577805
      ],
      [
        "der",
        -8.163473377761157
      ],
      [
        "is",
        -6.551512324352629
      ],
      [
        "▁toward",
        -7.687252074323171
      ],
      [
        "▁determine",
        -8.031306582582058
      ],
      [
        "▁cut",
        -6.988656765585494
      ],
      [
        "▁absorb",
        -9.024768821123665
      ],
      [
        "▁2000",
        -6.054635009603185
      ],
      [
        "oo",
        -8.60499018695634
      ],
      [
        "▁wh",
        -11.28246861509878
      ],
      [
        "a",
        -3.0361378326562036
      ],
      [
        "▁proposal",
        -8.070792294359805
      ],
      [
        "▁t",
        -8.001755625623433
      ],
      [
        "g",
        -10.925660239071423
      ],
      [
        "▁question",
        -6.940774554299401
      ],
      [
        "▁noon",
        -7.405467602068381
      ],
      [
        "er",
        -6.115462792319051
      ],
      [
        "▁exposure",
        -8.725884969735624
      ],
      [
        "▁understand",
        -6.771795786522425
      ],
      [
        "▁dinosaur",
        -7.9133275646061625
      ],
      [
        "▁card",
        -7.589935950633074
      ],
      [
        "▁college",
        -8.335478059122593
      ],
      [
        "you",
        -5.734888952612068
      ],
      [
        "▁toys",
        -8.159783368775788
      ],
      [
        "▁mem",
        -7.00957768529491
      ],
      [
        "them",
        -7.937344547440428
      ],
      [
        "▁husband",
        -8.315477941053604
      ],
      [
        "o'",
        -8.68854734644149
      ],
      [
        "▁selection",
        -9.038725031528884
      ],
      [
        "▁question",
        -8.819725000861384
      ],
      [
        "▁capital",
        -8.086431809773359
      ],
      [
        "▁horse",
        -6.9619067546765585
      ],
      [
        "▁quarter",
        -9.052956694032652
      ],
      [
        "▁learn",
        -6.838105611386304
      ],
      [
        "▁benefit",
        -8.68921933497451
      ],
      [
        "▁drug",
        -8.56114018085187
      ],
      [
        "▁restaurant",
        -7.454148241575403
      ],
      [
        "▁scal",
        -8.854262280581608
      ],
      [
        "y",
        -3.3126902011208665
      ],
      [
        "▁ira",
        -7.262090301229988
      ],
      [
        "der",
        -10.23364092298107
      ],
      [
        "▁di",
        -5.822008523961465
      ],
      [
        "▁plast",
        -8.960500173831377
      ],
      [
        "▁boy",
        -7.019460252455515
      ],
      [
        "▁honey",
        -7.824669930291182
      ],
      [
        "▁interview",
        -8.102322380121585
      ],
      [
        "▁swim",
        -8.318377595961834
      ],
      [
        "orrow",
        -7.122672146595612
      ],
      [
        "istan",
        -7.3368647541375855
      ],
      [
        "▁knee",
        -8.887543496794647
      ],
      [
        "k",
        -12.810278406305976
      ],
      [
        "▁la",
        -6.234224018822062
      ],
      [
        "!!!",
        -8.681878390748496
      ],
      [
        "hes",
        -13.253639561144595
      ],
      [
        "ibl",
        -7.063379830970229
      ],
      [
        "▁girl",
        -6.706055643739547
      ],
      [
        "de",
        -11.783538262690449
      ],
      [
        "ome",
        -6.109716119437731
      ],
      [
        "▁los",
        -7.057733230058733
      ],
      [
        "▁gu",
        -9.008634678794184
      ],
      [
        "▁worm",
        -8.83306646032122
      ],
      [
        "whos",
        -11.20766598766508
      ],
      [
        "b",
        -4.738268993203795
      ],
      [
        "▁simpl",
        -6.887166233920471
      ],
      [
        "e",
        -3.6987654616553973
      ],
      [
        "▁cur",
        -6.97220494149292
      ],
      [
        "▁-",
        -7.106383807340567
      ],
      [
        "(",
        -4.690054248533107
      ],
      [
        "▁campaign",
        -8.1348127820024
      ],
      [
        "▁address",
        -8.459391630396816
      ],
      [
        "▁morning",
        -6.000120143286302
      ],
      [
        "▁form",
        -8.023580180085943
      ],
      [
        "▁s",
        -5.346467888196824
      ],
      [
        "p",
        -6.379676684275523
      ],
      [
        "n",
        -6.489548559025758
      ],
      [
        "▁collect",
        -7.953103109768135
      ],
      [
        "▁may",
        -8.487805845481695
      ],
      [
        "▁birth",
        -8.512832860482522
      ],
      [
        "’",
        -10.78153641900687
      ],
      [
        "▁force",
        -7.61123154497988
      ],
      [
        "▁stepp",
        -8.664658010126121
      ],
      [
        "▁turn",
        -6.08920135787137
      ],
      [
        "▁pai",
        -7.895712621623877
      ],
      [
        "▁what",
        -4.999866406006407
      ],
      [
        "time",
        -8.13541454372015
      ],
      [
        "d",
        -5.9477191613994504
      ],
      [
        "▁public",
        -6.428328946192325
      ],
      [
        "ed",
        -4.3347423109077265
      ],
      [
        "▁t",
        -8.151778055974345
      ],
      [
        "▁mis",
        -8.779490857735354
      ],
      [
        "hin",
        -7.547082465230565
      ],
      [
        "c",
        -4.327503421637194
      ],
      [
        "▁with",
        -4.952485445949646
      ],
      [
        "▁cigarette",
        -9.038725180902146
      ],
      [
        "▁lose",
        -8.279256091155556
      ],
      [
        "▁guarantee",
        -8.611129027755467
      ],
      [
        "▁suck",
        -8.73240815058813
      ],
      [
        "got",
        -9.258822941761718
      ],
      [
        "k",
        -6.427881069140615
      ],
      [
        "▁?",
        -7.157961543371248
      ],
      [
        "▁cur",
        -8.932579823331764
      ],
      [
        "ar",
        -7.07018078104631
      ],
      [
        "_",
        -4.456929594736267
      ],
      [
        "▁uh",
        -11.519265493247671
      ],
      [
        "▁cream",
        -8.61376063903139
      ],
      [
        "▁depend",
        -7.769878710648066
      ],
      [
        "▁extend",
        -8.23777162680596
      ],
      [
        "▁india",
        -6.824040119082205
      ],
      [
        "▁expe",
        -7.313414294763917
      ],
      [
        "me",
        -7.2795455667260525
      ],
      [
        "▁sit",
        -6.330185365203777
      ],
      [
        "its",
        -9.144228443891327
      ],
      [
        "cal",
        -5.9443159686160865
      ],
      [
        "▁an",
        -4.119119639414189
      ],
      [
        "▁image",
        -7.75459209629341
      ],
      [
        "▁smell",
        -9.08039181275079
      ],
      [
        "▁god",
        -7.141342431366642
      ],
      [
        "▁guess",
        -7.080943056021663
      ],
      [
        "▁sector",
        -8.376727164926757
      ],
      [
        "▁monitor",
        -9.212469515995753
      ],
      [
        "▁writer",
        -7.998063626797059
      ],
      [
        "▁return",
        -7.92666092283588
      ],
      [
        "u",
        -4.005956395885905
      ],
      [
        "ted",
        -6.37783168450767
      ],
      [
        "▁express",
        -8.509294847339676
      ],
      [
        "▁br",
        -7.532766402496921
      ],
      [
        "▁d",
        -8.048528589403645
      ],
      [
        "▁beat",
        -8.139941333584396
      ],
      [
        "▁wil",
        -10.327329674474207
      ],
      [
        "▁crawl",
        -9.283315065899274
      ],
      [
        "▁…",
        -9.511839873390812
      ],
      [
        "▁fare",
        -6.2435985812318675
      ],
      [
        "d",
        -6.638356827931881
      ],
      [
        "▁19",
        -8.920953055251385
      ],
      [
        "go",
        -8.520333324768856
      ],
      [
        "▁3",
        -4.562374329675668
      ],
      [
        "▁appear",
        -7.128079295413724
      ],
      [
        "▁of",
        -5.372005060076645
      ],
      [
        "▁direction",
        -8.419735081117501
      ],
      [
        "▁continue",
        -6.897750134033349
      ],
      [
        "er",
        -5.41592212726871
      ],
      [
        "▁pitt",
        -5.109957628049473
      ],
      [
        "▁lay",
        -7.83455951931724
      ],
      [
        "rican",
        -6.621653965549827
      ],
      [
        "▁laugh",
        -7.709788335891905
      ],
      [
        "▁cook",
        -9.135021460988003
      ],
      [
        "▁thu",
        -7.206479342278372
      ],
      [
        "▁co",
        -7.3283963749532015
      ],
      [
        "▁an",
        -8.896794612141756
      ],
      [
        "▁mil",
        -6.217874905444641
      ],
      [
        "▁all",
        -7.233537423515028
      ],
      [
        "▁nov",
        -7.36011616109744
      ],
      [
        "▁on",
        -2.700071180263146
      ],
      [
        "▁discussion",
        -8.37671935351842
      ],
      [
        "▁desire",
        -9.216946150353202
      ],
      [
        "▁roman",
        -6.825919429447128
      ],
      [
        "▁other",
        -7.476001329729437
      ],
      [
        "ament",
        -7.898664581102432
      ],
      [
        "▁heat",
        -8.060452690975215
      ],
      [
        "▁observe",
        -8.234673799315816
      ],
      [
        "▁lower",
        -9.36524903874381
      ],
      [
        "b",
        -12.153426364471347
      ],
      [
        "with",
        -6.357203910909967
      ],
      [
        "▁model",
        -7.942408274525652
      ],
      [
        "▁tomato",
        -9.169339671254274
      ],
      [
        "▁rabbit",
        -8.397995949098288
      ],
      [
        "▁give",
        -5.251596077870293
      ],
      [
        "▁cover",
        -7.530766538554042
      ],
      [
        "▁investment",
        -8.853029441446814
      ],
      [
        "s",
        -3.9323488869734176
      ],
      [
        "▁farmer",
        -9.007456608702139
      ],
      [
        "▁manag",
        -9.33288579656999
      ],
      [
        "formation",
        -6.3930203049447325
      ],
      [
        "/",
        -11.20763530558339
      ],
      [
        "ember",
        -8.060200352206877
      ],
      [
        "▁tow",
        -8.99433038713105
      ],
      [
        "ation",
        -5.7578209231489765
      ],
      [
        "ton",
        -8.749021132259392
      ],
      [
        "▁gym",
        -9.080716098112397
      ],
      [
        "▁publishe",
        -8.041078949278049
      ],
      [
        "▁climb",
        -7.986495884101737
      ],
      [
        "ous",
        -7.400129012987348
      ],
      [
        "▁piece",
        -6.96781455293655
      ],
      [
        "▁freedom",
        -8.086429968389753
      ],
      [
        "▁he",
        -5.355777969941404
      ],
      [
        "lotte",
        -6.652468871357016
      ],
      [
        "▁press",
        -8.660236372359865
      ],
      [
        "▁horsie",
        -8.151480814514752
      ],
      [
        "led",
        -7.211734321165092
      ],
      [
        "▁ab",
        -9.672168907805968
      ],
      [
        "▁name",
        -7.643043092503144
      ],
      [
        "▁battle",
        -9.080431227822888
      ],
      [
        "c",
        -5.4427826379247595
      ],
      [
        "▁target",
        -9.02478317640449
      ],
      [
        "▁shopp",
        -9.08431180265642
      ],
      [
        "▁document",
        -8.81970296046568
      ],
      [
        "have",
        -7.697358281809178
      ],
      [
        "▁milita",
        -6.883185739735112
      ],
      [
        "▁dead",
        -6.792772852962086
      ],
      [
        "e",
        -2.3851922693400898
      ],
      [
        "▁creation",
        -8.730163473427641
      ],
      [
        "someon",
        -9.75135018918097
      ],
      [
        "morali",
        -9.03331627519425
      ],
      [
        "at",
        -12.52779412194787
      ],
      [
        "▁shakes",
        -6.50389683421445
      ],
      [
        "▁profit",
        -9.16933028764747
      ],
      [
        "▁shot",
        -8.853393027899449
      ],
      [
        "▁more",
        -4.831757204896697
      ],
      [
        "▁train",
        -6.987818898136919
      ],
      [
        "▁worth",
        -6.937472774448308
      ],
      [
        "ough",
        -11.681371392484522
      ],
      [
        "polis",
        -6.346417235986102
      ],
      [
        "•",
        -12.810278406305976
      ],
      [
        "▁troop",
        -8.923226469682913
      ],
      [
        "▁smoke",
        -9.029108372842545
      ],
      [
        "▁process",
        -6.9619146280502155
      ],
      [
        "▁",
        -0.7082085629404791
      ],
      [
        "mike",
        -7.140322264104477
      ],
      [
        "▁se",
        -7.33151326224715
      ],
      [
        "us",
        -7.778989704250542
      ],
      [
        "our",
        -8.602635877523241
      ],
      [
        "▁on",
        -5.373374977856898
      ],
      [
        "▁t",
        -6.541443342038364
      ],
      [
        "ent",
        -6.026292739638932
      ],
      [
        "▁rise",
        -9.231808899821043
      ],
      [
        "▁medicine",
        -8.923226637889027
      ],
      [
        "▁rang",
        -8.982017603045382
      ],
      [
        "▁fi",
        -8.896282388839595
      ],
      [
        "hin",
        -10.355812176309545
      ],
      [
        "▁fl",
        -9.30286718829165
      ],
      [
        "▁remove",
        -7.971838894142863
      ],
      [
        "▁'",
        -6.425214222828881
      ],
      [
        "!!!!!!!",
        -11.238141621059212
      ],
      [
        "▁feather",
        -9.171252181532425
      ],
      [
        "▁earn",
        -8.527899775111031
      ],
      [
        "▁bus",
        -7.029018912513156
      ],
      [
        "▁we",
        -5.969460857835287
      ],
      [
        "6",
        -4.586613867475252
      ],
      [
        "▁george",
        -6.776890662826511
      ],
      [
        "▁agreement",
        -7.523439646606449
      ],
      [
        "▁setting",
        -8.853650404090555
      ],
      [
        "▁host",
        -8.873476020623873
      ],
      [
        "▁invest",
        -8.92347630255485
      ],
      [
        "▁interest",
        -6.45681399413694
      ],
      [
        "ney",
        -7.371820333774097
      ],
      [
        "ka",
        -8.551583514202843
      ],
      [
        "h",
        -6.8467432452806625
      ],
      [
        "▁its",
        -6.201980132509921
      ],
      [
        "s",
        -3.279426749827511
      ],
      [
        "▁look",
        -4.774514457323837
      ],
      [
        "▁runn",
        -7.605528184991227
      ],
      [
        "n",
        -3.4248351833273194
      ],
      [
        "▁year",
        -5.479954968956782
      ],
      [
        "▁funn",
        -6.8697663908629885
      ],
      [
        "▁real",
        -4.874120198670135
      ],
      [
        "il",
        -8.027275832760731
      ],
      [
        "▁smile",
        -9.168788834185621
      ],
      [
        "▁engage",
        -9.027959368460433
      ],
      [
        "▁test",
        -8.14215972269377
      ],
      [
        "▁tha",
        -7.359273592220826
      ],
      [
        "▁salon",
        -9.124555536515611
      ],
      [
        "i",
        -1.9310834849042582
      ],
      [
        "▁exercise",
        -9.331770677504128
      ],
      [
        "▁cash",
        -8.420087610225682
      ],
      [
        "▁mos",
        -6.7054045308103385
      ],
      [
        "i",
        -11.770631529841472
      ],
      [
        "▁letter",
        -7.204077513325634
      ],
      [
        "▁j",
        -6.0592118436648414
      ],
      [
        "▁contact",
        -8.56114018444546
      ],
      [
        "bec",
        -10.574143790540935
      ],
      [
        "▁batter",
        -8.960493656070703
      ],
      [
        "▁boat",
        -7.6099188262353135
      ],
      [
        "▁puzzle",
        -9.080392369097337
      ],
      [
        "ide",
        -11.89009109688605
      ],
      [
        "kin",
        -9.038414802321533
      ],
      [
        "til",
        -7.784555654766264
      ],
      [
        "▁specify",
        -9.283681199074485
      ],
      [
        "▁element",
        -8.134821157340216
      ],
      [
        "▁wonder",
        -7.394909470106592
      ],
      [
        "rec",
        -7.563249920027834
      ],
      [
        "▁police",
        -7.852645463891125
      ],
      [
        "▁elect",
        -8.201859762683116
      ],
      [
        "▁wild",
        -8.939851203304796
      ],
      [
        "▁project",
        -9.443500858672703
      ],
      [
        "▁dress",
        -8.469099679585577
      ],
      [
        "▁mill",
        -5.806332795739784
      ],
      [
        "tter",
        -5.970593096106856
      ],
      [
        "ish",
        -6.666207458055393
      ],
      [
        "▁neck",
        -8.151479540815174
      ],
      [
        "▁climate",
        -8.397996040818356
      ],
      [
        "▁mor",
        -5.345130170783909
      ],
      [
        "▁thank",
        -6.722052781598699
      ],
      [
        "▁serve",
        -6.80670337700455
      ],
      [
        "▁represent",
        -7.84192061450014
      ],
      [
        "******",
        -12.400348347525032
      ],
      [
        "▁be",
        -4.961294813347506
      ],
      [
        "per",
        -8.726136413540848
      ],
      [
        "▁file",
        -9.438616817551106
      ],
      [
        "▁coast",
        -8.561146812783505
      ],
      [
        "▁wo",
        -7.25034794109828
      ],
      [
        "▁wa",
        -9.240034987883696
      ],
      [
        "▁propos",
        -9.210258085636664
      ],
      [
        "▁shoulder",
        -8.69647340710104
      ],
      [
        "▁present",
        -7.660713438513456
      ],
      [
        "▁stole",
        -9.362240009490456
      ],
      [
        "light",
        -8.505484290822253
      ],
      [
        "o",
        -1.7919375046051371
      ],
      [
        "▁egg",
        -7.872640054151842
      ],
      [
        "th",
        -6.565100117342233
      ],
      [
        "k",
        -6.601882593626262
      ],
      [
        "▁life",
        -6.429225869129951
      ],
      [
        "▁bird",
        -7.366092448597783
      ],
      [
        "▁x",
        -8.282674863649182
      ],
      [
        "▁function",
        -8.64634731649623
      ],
      [
        "▁safe",
        -8.102367068433871
      ],
      [
        "*************",
        -12.63592864490868
      ],
      [
        "▁beer",
        -8.73728739810678
      ],
      [
        "wh",
        -8.549184731091053
      ],
      [
        "call",
        -6.4707648400225155
      ],
      [
        "rself",
        -10.493759088762307
      ],
      [
        "▁n",
        -6.7457576266198265
      ],
      [
        "i",
        -2.7294335593499106
      ],
      [
        "▁lock",
        -8.433810179311402
      ],
      [
        "rew",
        -8.562748343629995
      ],
      [
        "!!!!!!",
        -10.71985271599892
      ],
      [
        "▁technolog",
        -7.913327574475932
      ],
      [
        "ve",
        -6.412359021217133
      ],
      [
        "▁vs",
        -8.84932320378803
      ],
      [
        "log",
        -9.09133382759933
      ],
      [
        "▁excuse",
        -9.212314087949528
      ],
      [
        "▁defin",
        -9.375465394046818
      ],
      [
        "r",
        -3.522172518100258
      ],
      [
        "▁wol",
        -8.488718645100919
      ],
      [
        "▁heel",
        -9.123887803495048
      ],
      [
        "▁state",
        -6.817692271492893
      ],
      [
        "▁escape",
        -8.36135136895972
      ],
      [
        "▁market",
        -7.237160547891797
      ],
      [
        "no",
        -9.062106600164439
      ],
      [
        "▁back",
        -4.76794666312063
      ],
      [
        "▁live",
        -6.4022916255705535
      ],
      [
        "2",
        -3.9783356324857158
      ],
      [
        "▁import",
        -6.248272192306516
      ],
      [
        "▁pet",
        -8.137475773635654
      ],
      [
        "▁tree",
        -7.701735158572218
      ],
      [
        "▁feature",
        -9.064491124353996
      ],
      [
        "der",
        -7.243585232811172
      ],
      [
        "ten",
        -6.696279519574173
      ],
      [
        "▁modify",
        -9.146879595428274
      ],
      [
        "▁glass",
        -7.651089530657508
      ],
      [
        "ect",
        -7.2808766303213615
      ],
      [
        "▁float",
        -8.688947204043847
      ],
      [
        "▁talk",
        -5.949477257980686
      ],
      [
        "▁ride",
        -8.524860939973944
      ],
      [
        "▁matter",
        -7.505720524888654
      ],
      [
        "te",
        -9.340799971988403
      ],
      [
        ".",
        -5.674697410906373
      ],
      [
        "aw",
        -8.635393372690029
      ],
      [
        "▁review",
        -7.607760851354363
      ],
      [
        "▁feed",
        -7.955860455662812
      ],
      [
        "▁face",
        -8.031543205840347
      ],
      [
        "▁researcher",
        -9.117416334669539
      ],
      [
        "▁container",
        -8.613096975124025
      ],
      [
        "▁break",
        -7.4288678891284174
      ],
      [
        "en",
        -7.943837636808619
      ],
      [
        "w",
        -11.8417824549845
      ],
      [
        "▁whom",
        -8.815811107281924
      ],
      [
        "hey",
        -12.24726347818536
      ],
      [
        "▁bulldo",
        -8.397997323665685
      ],
      [
        "▁earlie",
        -6.343694260173169
      ],
      [
        "e",
        -3.866122931705931
      ],
      [
        "▁john",
        -6.43859690850405
      ],
      [
        "son",
        -6.585038971921413
      ],
      [
        "▁rid",
        -8.692506648163228
      ],
      [
        "▁an",
        -9.820616148417278
      ],
      [
        "cula",
        -6.981336390567085
      ],
      [
        "id",
        -8.85045198564125
      ],
      [
        "▁deserve",
        -9.026390977354469
      ],
      [
        "▁coin",
        -9.174805655911044
      ],
      [
        "▁sub",
        -8.41573437559284
      ],
      [
        "▁beginning",
        -8.487940388594948
      ],
      [
        "▁sing",
        -8.947672389427074
      ],
      [
        "▁create",
        -6.916483019848426
      ],
      [
        "me",
        -6.4774956285313054
      ],
      [
        "▁spot",
        -8.421205824207409
      ],
      [
        "▁notice",
        -8.756197793068267
      ],
      [
        "ist",
        -7.242823323859881
      ],
      [
        "▁apply",
        -7.699492334367162
      ],
      [
        "▁pan",
        -8.389795976554957
      ],
      [
        "▁experience",
        -7.087068893496163
      ],
      [
        "v",
        -9.394206695612269
      ],
      [
        "▁dark",
        -8.923229564487128
      ],
      [
        "▁relax",
        -9.119215601218187
      ],
      [
        "▁milk",
        -6.873830041159017
      ],
      [
        "h",
        -9.530401437393046
      ],
      [
        "▁wood",
        -8.739854070160543
      ],
      [
        "▁leave",
        -8.756191816197287
      ],
      [
        "ture",
        -7.81960982533579
      ],
      [
        "▁tak",
        -6.7177223722927
      ],
      [
        "▁blanket",
        -8.536227541970277
      ],
      [
        "▁kitten",
        -8.697743301369814
      ],
      [
        "▁remember",
        -6.274852527604202
      ],
      [
        "▁achieve",
        -8.147531663921677
      ],
      [
        "▁don",
        -7.62514930603924
      ],
      [
        "▁goin",
        -8.291618189562122
      ],
      [
        "▁sales",
        -8.522653410349296
      ],
      [
        "▁export",
        -8.573721919488909
      ],
      [
        "done",
        -6.783452192464883
      ],
      [
        "▁research",
        -7.669431016892204
      ],
      [
        "▁chapter",
        -8.998945280624355
      ],
      [
        "▁accept",
        -7.361994743307134
      ],
      [
        "▁late",
        -6.267339765221746
      ],
      [
        "▁bo",
        -8.678440275998891
      ],
      [
        "▁audience",
        -8.561140524512687
      ],
      [
        "▁enj",
        -8.787562149609283
      ],
      [
        "▁becom",
        -9.051990026645438
      ],
      [
        "▁prefer",
        -8.702774858518639
      ],
      [
        "’",
        -11.119861525668208
      ],
      [
        "▁media",
        -8.184776128102005
      ],
      [
        "▁m",
        -6.109562226064083
      ],
      [
        "▁|",
        -9.776609991678535
      ],
      [
        "▁din",
        -9.103629886181892
      ],
      [
        "...............",
        -11.214670331718136
      ],
      [
        "▁part",
        -6.0202728201655535
      ],
      [
        "*",
        -8.693194179626392
      ],
      [
        "▁pant",
        -8.438104137289418
      ],
      [
        "▁warm",
        -8.897398393907192
      ],
      [
        "ins",
        -12.167094736746972
      ],
      [
        "▁team",
        -7.489339765579031
      ],
      [
        "▁eggs",
        -8.027339936300349
      ],
      [
        "▁other",
        -4.5395040691075765
      ],
      [
        "▁litera",
        -8.853048086727451
      ],
      [
        "▁ignore",
        -8.690690195797188
      ],
      [
        "▁spill",
        -8.918939825192812
      ],
      [
        "r",
        -5.4322971977959815
      ],
      [
        "▁mark",
        -8.602526147128756
      ],
      [
        "▁rule",
        -7.6151996098267976
      ],
      [
        "▁10",
        -4.650404494469818
      ],
      [
        "m",
        -6.7697770087744225
      ],
      [
        "u",
        -6.253982068141724
      ],
      [
        "▁bag",
        -7.431370248626756
      ],
      [
        "▁work",
        -5.663812961351836
      ],
      [
        "|",
        -9.719926862834651
      ],
      [
        "▁whi",
        -8.851405274144836
      ],
      [
        "▁consider",
        -6.853368035562674
      ],
      [
        "▁barn",
        -8.51471468490503
      ],
      [
        "▁silver",
        -9.080660755062715
      ],
      [
        "rose",
        -8.623280558283351
      ],
      [
        "▁blame",
        -9.251880993408966
      ],
      [
        "▁putt",
        -8.158922509182144
      ],
      [
        "▁variet",
        -8.960510686661943
      ],
      [
        "▁m",
        -6.931104861536911
      ],
      [
        "▁bea",
        -8.239717167025468
      ],
      [
        "ught",
        -8.207422363822905
      ],
      [
        "▁benefit",
        -8.295870014757623
      ],
      [
        "▁loan",
        -8.442527330374492
      ],
      [
        "▁slow",
        -7.370680472423794
      ],
      [
        "▁machine",
        -8.23925300745611
      ],
      [
        "▁le",
        -6.641113467851519
      ],
      [
        "▁grow",
        -7.940441023343274
      ],
      [
        "▁conduct",
        -8.47053861262362
      ],
      [
        "▁voice",
        -7.637528279142687
      ],
      [
        "▁display",
        -7.855065846435074
      ],
      [
        "▁bunn",
        -8.640832405419772
      ],
      [
        "▁content",
        -8.136052123603282
      ],
      [
        "▁over",
        -8.25197773416436
      ],
      [
        "3",
        -10.925660239071423
      ],
      [
        "equ",
        -7.362634272841502
      ],
      [
        "▁become",
        -6.846957219988554
      ],
      [
        "▁employ",
        -8.875024277893623
      ],
      [
        "▁tha",
        -6.391787174921178
      ],
      [
        "▁responsibilit",
        -8.355886019880021
      ],
      [
        "▁majorit",
        -8.613444370554797
      ],
      [
        "▁foot",
        -7.82486781085991
      ],
      [
        "▁scientist",
        -8.887514103807998
      ],
      [
        "▁no",
        -6.625414240065368
      ],
      [
        "ain",
        -7.576259667897785
      ],
      [
        "▁list",
        -5.604972914754906
      ],
      [
        "ar",
        -9.595809148025694
      ],
      [
        "▁back",
        -8.43778236464935
      ],
      [
        "ive",
        -5.025022787645253
      ],
      [
        "▁continu",
        -9.162919533482437
      ],
      [
        "▁expect",
        -7.097626935970076
      ],
      [
        "▁unt",
        -9.905702178190086
      ],
      [
        "▁map",
        -8.564418347291952
      ],
      [
        "▁demonstrate",
        -8.616039356357
      ],
      [
        "▁",
        -1.2052669954522912
      ],
      [
        "▁base",
        -6.930850999991949
      ],
      [
        "▁’",
        -9.7081408527352
      ],
      [
        "at",
        -7.578884631351963
      ],
      [
        "ark",
        -6.658144165809635
      ],
      [
        "o",
        -3.511903393270858
      ],
      [
        "ound",
        -5.61124075279864
      ],
      [
        "▁co",
        -7.042445747343085
      ],
      [
        "▁hid",
        -8.684293292126576
      ],
      [
        "▁connection",
        -7.667928412339712
      ],
      [
        "▁ski",
        -9.001797112228406
      ],
      [
        "ng",
        -8.371015105561044
      ],
      [
        "out",
        -8.075003317222457
      ],
      [
        "ast",
        -10.037434414241018
      ],
      [
        "ur",
        -7.477857332032502
      ],
      [
        "nature",
        -8.174529554141163
      ],
      [
        "▁challenge",
        -8.487940388277236
      ],
      [
        "▁interact",
        -9.212624344128375
      ],
      [
        "h",
        -3.151586959751487
      ],
      [
        "▁adam",
        -5.987733709603641
      ],
      [
        "igator",
        -8.96026744878542
      ],
      [
        "▁moon",
        -8.400073716858397
      ],
      [
        "▁de",
        -7.219112376193933
      ],
      [
        "▁counterpart",
        -8.667901870700764
      ],
      [
        "▁w",
        -7.847448350576819
      ],
      [
        "w",
        -10.77059528735586
      ],
      [
        "▁17",
        -5.757736140466072
      ],
      [
        "▁cry",
        -8.09243984520767
      ],
      [
        "▁sheet",
        -8.476896875009034
      ],
      [
        "▁mathematic",
        -8.852888984169859
      ],
      [
        "▁advance",
        -9.410256147462524
      ],
      [
        "▁",
        -2.5121035408022987
      ],
      [
        "▁destination",
        -9.040245096768253
      ],
      [
        "▁error",
        -8.51175283318299
      ],
      [
        "th",
        -8.014660046279783
      ],
      [
        "▁incorporate",
        -8.867489578700768
      ],
      [
        "▁regulation",
        -8.616781001454438
      ],
      [
        "alit",
        -8.760430665631885
      ],
      [
        "▁s",
        -8.496574491134888
      ],
      [
        "▁result",
        -7.389348607007523
      ],
      [
        "▁bear",
        -7.413292550567692
      ],
      [
        "back",
        -9.051409592315476
      ],
      [
        "a",
        -4.91602068502491
      ],
      [
        "ver",
        -10.086671659406761
      ],
      [
        "own",
        -5.6515858426204515
      ],
      [
        "▁refuse",
        -8.380345088153414
      ],
      [
        "tion",
        -7.539051037622932
      ],
      [
        "▁_",
        -6.233767671506926
      ],
      [
        "way",
        -8.266928592843282
      ],
      [
        "▁coat",
        -8.93179522025958
      ],
      [
        "▁video",
        -7.732112971538104
      ],
      [
        "▁col",
        -9.076627203047325
      ],
      [
        "▁sand",
        -8.788186726567911
      ],
      [
        "▁atm",
        -8.398147954647921
      ],
      [
        "▁new",
        -4.7645933626070915
      ],
      [
        "▁co",
        -7.205937425386225
      ],
      [
        "▁word",
        -6.806647864047421
      ],
      [
        "▁show",
        -4.68195076631695
      ],
      [
        "▁abou",
        -5.1502907813187875
      ],
      [
        "▁renew",
        -9.44365457632963
      ],
      [
        "ia",
        -6.46572768572054
      ],
      [
        "u",
        -6.3640258478089775
      ],
      [
        "▁camel",
        -8.276640801306392
      ],
      [
        "▁carrie",
        -8.115915210446387
      ],
      [
        "▁city",
        -5.7496977402763685
      ],
      [
        "▁bee",
        -8.770994446920016
      ],
      [
        "▁reference",
        -8.511931062686745
      ],
      [
        "yo",
        -12.726913103948085
      ],
      [
        "▁conflict",
        -8.667901780410334
      ],
      [
        "3",
        -8.78716293598233
      ],
      [
        "s",
        -3.328190644063051
      ],
      [
        "he",
        -7.549205452271605
      ],
      [
        "▁government",
        -6.9218414706134155
      ],
      [
        "m",
        -6.820629931865919
      ],
      [
        "****",
        -11.697598525938803
      ],
      [
        "▁learn",
        -8.315480642049883
      ],
      [
        "▁update",
        -9.307863758981759
      ],
      [
        "▁document",
        -7.777317582949337
      ],
      [
        "▁invent",
        -9.024819165760555
      ],
      [
        "an",
        -6.1992261327886515
      ],
      [
        "▁salt",
        -6.804731664629929
      ],
      [
        "▁`",
        -11.296918948688285
      ],
      [
        "▁tax",
        -7.951376515584673
      ],
      [
        "▁bak",
        -9.180767045850283
      ],
      [
        "▁generate",
        -8.75601484485504
      ],
      [
        "▁fac",
        -8.919032331187946
      ],
      [
        "▁presen",
        -9.010606025669624
      ],
      [
        "▁revenue",
        -9.038725017397873
      ],
      [
        "ure",
        -8.118158498829867
      ],
      [
        "▁unit",
        -8.169113657763326
      ],
      [
        "oursel",
        -8.941083358478036
      ],
      [
        "for",
        -4.020786215354944
      ],
      [
        "▁control",
        -8.942475958787753
      ],
      [
        "▁ruin",
        -9.15065426852602
      ],
      [
        "▁train",
        -8.089393905948796
      ],
      [
        "ming",
        -8.557360031403563
      ],
      [
        "_",
        -4.472959159980312
      ],
      [
        "▁initiative",
        -8.853065530383738
      ],
      [
        "▁claim",
        -7.677906900628578
      ],
      [
        "▁think",
        -9.16935776696436
      ],
      [
        "▁stick",
        -8.470154685681408
      ],
      [
        "▁bab",
        -8.268382899817947
      ],
      [
        "hood",
        -8.759441653776195
      ],
      [
        "look",
        -8.924097104575832
      ],
      [
        ";",
        -10.425660239071421
      ],
      [
        "▁compar",
        -9.282297036030215
      ],
      [
        "▁soft",
        -9.169325191605537
      ],
      [
        "▁course",
        -7.218541794418536
      ],
      [
        "▁activit",
        -7.6076596541254045
      ],
      [
        "▁age",
        -7.465010556708252
      ],
      [
        "▁announce",
        -8.549351832378417
      ],
      [
        "▁lay",
        -9.031733995253749
      ],
      [
        "???",
        -11.494198687124818
      ],
      [
        "▁etc",
        -7.824802520377602
      ],
      [
        "▁studi",
        -8.067920754521662
      ],
      [
        "▁dad",
        -6.9723032167585135
      ],
      [
        "▁cause",
        -7.574801675711839
      ],
      [
        "▁towel",
        -8.96078834267023
      ],
      [
        "ring",
        -8.252052990872274
      ],
      [
        "▁201",
        -4.629308400060953
      ],
      [
        "a",
        -7.313902365806135
      ],
      [
        "▁texa",
        -6.900880991406102
      ],
      [
        "▁smell",
        -8.186978174367109
      ],
      [
        "▁bulb",
        -8.998727861188419
      ],
      [
        "▁clear",
        -6.855258059848384
      ],
      [
        "▁cell",
        -8.511821794266265
      ],
      [
        "hat",
        -3.789532303880037
      ],
      [
        "▁h",
        -9.29136992389374
      ],
      [
        "▁feed",
        -8.908070109428966
      ],
      [
        "▁great",
        -5.158725407219528
      ],
      [
        "▁whole",
        -6.270126945865008
      ],
      [
        "9",
        -4.443752773287558
      ],
      [
        "▁monday",
        -7.278818467358424
      ],
      [
        "▁suggest",
        -7.269309469923409
      ],
      [
        "▁lea",
        -6.746900389964052
      ],
      [
        "▁culture",
        -7.765854417341588
      ],
      [
        "o",
        -6.877907499943204
      ],
      [
        "▁bec",
        -3.613577850939203
      ],
      [
        "politic",
        -6.515086073278683
      ],
      [
        "▁mail",
        -8.441975209823594
      ],
      [
        "▁ha",
        -4.961582746137714
      ],
      [
        "▁class",
        -6.435839001181261
      ],
      [
        "▁representative",
        -9.080391683828603
      ],
      [
        "▁cage",
        -8.12056574427752
      ],
      [
        "ac",
        -7.160388903002505
      ],
      [
        "▁g",
        -7.277611285017578
      ],
      [
        "day",
        -6.145358451807306
      ],
      [
        "▁employ",
        -8.639894297964336
      ],
      [
        "▁wel",
        -5.239750120745514
      ],
      [
        "g",
        -6.263157292022805
      ],
      [
        "▁>",
        -9.582936923105237
      ],
      [
        "▁to",
        -4.828081713777489
      ],
      [
        "ch",
        -5.570015910585939
      ],
      [
        "▁bel",
        -7.316235749878892
      ],
      [
        "▁first",
        -4.829267318650501
      ],
      [
        "▁nonstop",
        -7.5234409521077446
      ],
      [
        "quino",
        -8.831166503390318
      ],
      [
        "▁birthday",
        -7.589134761512645
      ],
      [
        "▁un",
        -9.15275983330257
      ],
      [
        "▁tri",
        -8.25020254601136
      ],
      [
        "▁explore",
        -8.748329199679617
      ],
      [
        "▁worth",
        -7.288217349982408
      ],
      [
        "▁quote",
        -8.970656992345866
      ],
      [
        "m",
        -3.877617167919065
      ],
      [
        "ne",
        -7.416934719219764
      ],
      [
        "▁world",
        -6.304401061820538
      ],
      [
        "▁at",
        -5.040331045484085
      ],
      [
        "▁th",
        -11.03572952159127
      ],
      [
        "ze",
        -8.312436807530915
      ],
      [
        "▁spring",
        -8.671751084428612
      ],
      [
        "▁fina",
        -7.557620854095129
      ],
      [
        "▁u.s.",
        -7.293928547996556
      ],
      [
        "▁folk",
        -8.923229581741735
      ],
      [
        "▁9",
        -5.844827498647502
      ],
      [
        "▁laura",
        -6.068239547282948
      ],
      [
        "▁system",
        -6.993077346444125
      ],
      [
        "x",
        -6.627227203346112
      ],
      [
        "r",
        -4.802076662594015
      ],
      [
        "ese",
        -10.064450891872804
      ],
      [
        "▁gift",
        -8.887512291008537
      ],
      [
        "▁a",
        -6.746763213277558
      ],
      [
        "▁i",
        -5.301129070997394
      ],
      [
        "room",
        -8.530008135399292
      ],
      [
        "▁thank",
        -6.299459731837786
      ],
      [
        "c",
        -5.811834898890697
      ],
      [
        "▁north",
        -9.038733475063662
      ],
      [
        "▁un",
        -9.477616961067127
      ],
      [
        "▁hop",
        -8.4796290412475
      ],
      [
        "▁miss",
        -7.4404016868154
      ],
      [
        "▁earlie",
        -7.181797654149654
      ],
      [
        "▁estimate",
        -8.098732058245108
      ],
      [
        "▁member",
        -7.293888133461845
      ],
      [
        "alism",
        -8.92810922664592
      ],
      [
        "▁nice",
        -5.79534187277514
      ],
      [
        "uh",
        -13.441672283788352
      ],
      [
        "▁organization",
        -8.221079316054567
      ],
      [
        "sh",
        -9.209405661343489
      ],
      [
        "$",
        -11.28153641900687
      ],
      [
        "▁electrici",
        -8.923226442855446
      ],
      [
        "▁evolv",
        -9.307357676860246
      ],
      [
        "▁order",
        -7.092900769923852
      ],
      [
        "ris",
        -8.662256193367837
      ],
      [
        "▁polic",
        -8.78420342838983
      ],
      [
        "▁nest",
        -9.172291796593397
      ],
      [
        "▁ou",
        -13.722228931311994
      ],
      [
        "▁draft",
        -9.083459478640432
      ],
      [
        "g",
        -5.178950778187783
      ],
      [
        "▁h",
        -7.850127434920214
      ],
      [
        "▁agenc",
        -8.536238558248685
      ],
      [
        "▁role",
        -7.76589562693948
      ],
      [
        "▁position",
        -7.58551572668748
      ],
      [
        "▁as",
        -5.1827083301970625
      ],
      [
        "▁gon",
        -5.350338757148288
      ],
      [
        "up",
        -7.969355360081219
      ],
      [
        "▁off",
        -9.009500143169456
      ],
      [
        "▁him",
        -5.173822855149899
      ],
      [
        "a",
        -3.4556010159853194
      ],
      [
        "^",
        -12.810278406305976
      ],
      [
        "▁month",
        -6.656775771168834
      ],
      [
        "▁present",
        -8.207153306155334
      ],
      [
        "▁attorney",
        -9.21694353779829
      ],
      [
        "▁",
        -1.4771507384749105
      ],
      [
        "▁hat",
        -7.723964943177416
      ],
      [
        ".",
        -9.0084367062112
      ],
      [
        "ry",
        -7.149390423445237
      ],
      [
        "▁roll",
        -8.093633649111608
      ],
      [
        "▁vote",
        -8.191384363135551
      ],
      [
        "▁out",
        -4.814863351036432
      ],
      [
        "al",
        -6.781623159225781
      ],
      [
        "▁stor",
        -8.001711846913501
      ],
      [
        "herself",
        -11.97634857643032
      ],
      [
        "▁mi",
        -6.32924645341949
      ],
      [
        "▁call",
        -5.507270510526616
      ],
      [
        "..............",
        -14.171066924010521
      ],
      [
        "▁books",
        -8.27199941135079
      ],
      [
        "▁back",
        -7.208301882596641
      ],
      [
        "▁mixe",
        -9.18631769402687
      ],
      [
        "on",
        -11.079524852188499
      ],
      [
        "▁spend",
        -7.795473079364302
      ],
      [
        "▁asset",
        -9.125329721614333
      ],
      [
        "▁employee",
        -8.464877412472033
      ],
      [
        "▁account",
        -7.627305798760164
      ],
      [
        "ivit",
        -9.073363420939694
      ],
      [
        "▁fro",
        -8.847864777376085
      ],
      [
        "▁not",
        -7.200425170962376
      ],
      [
        "▁yo",
        -9.274236374866302
      ],
      [
        "▁11",
        -5.487104098601486
      ],
      [
        "ilar",
        -7.306926894076488
      ],
      [
        "▁deal",
        -7.6621603068830595
      ],
      [
        "▁pool",
        -8.854340121391436
      ],
      [
        "▁water",
        -6.433898318215807
      ],
      [
        "complete",
        -7.441782075291681
      ],
      [
        "m",
        -9.599321042075394
      ],
      [
        "▁grass",
        -8.94542382781986
      ],
      [
        "a",
        -1.8416649220847514
      ],
      [
        "iness",
        -8.746950893897326
      ],
      [
        "▁b",
        -7.480039276401502
      ],
      [
        "▁c",
        -7.194865397578264
      ],
      [
        "▁warn",
        -9.088006577371866
      ],
      [
        "▁ocean",
        -8.998726730327286
      ],
      [
        "▁v",
        -10.549009922820545
      ],
      [
        "▁act",
        -8.041418261246278
      ],
      [
        "▁",
        -1.6256745059821878
      ],
      [
        "▁driv",
        -7.581844739198957
      ],
      [
        "▁red",
        -6.333813204650047
      ],
      [
        "nda",
        -8.985330967418504
      ],
      [
        "tha",
        -5.882854310653147
      ],
      [
        "so",
        -4.878830597655819
      ],
      [
        "▁operation",
        -8.39709750128522
      ],
      [
        ".",
        -6.938746849327972
      ],
      [
        "▁tea",
        -8.005515618352948
      ],
      [
        "ou",
        -11.026065425264347
      ],
      [
        "▁t",
        -13.04700383885649
      ],
      [
        "your",
        -7.282301018614932
      ],
      [
        "ww",
        -11.770677750629414
      ],
      [
        "▁pair",
        -8.69740730357752
      ],
      [
        "▁bridge",
        -8.75647236360784
      ],
      [
        "▁finance",
        -8.853698989640836
      ],
      [
        "▁on",
        -11.413788861647385
      ],
      [
        "▁museum",
        -8.99872512504556
      ],
      [
        "▁de",
        -7.133759330193251
      ],
      [
        "way",
        -7.413310175314247
      ],
      [
        "▁telephone",
        -8.696992992380663
      ],
      [
        "▁seed",
        -9.000251889376289
      ],
      [
        "▁hall",
        -8.887806279482069
      ],
      [
        "▁hi",
        -5.3515630451182075
      ],
      [
        "▁subject",
        -7.99613216460455
      ],
      [
        "▁spirit",
        -8.887578254900154
      ],
      [
        "▁beach",
        -8.011133271847363
      ],
      [
        "▁inform",
        -8.411798429957743
      ],
      [
        "w",
        -5.491188161949157
      ],
      [
        "▁dance",
        -9.069633632679107
      ],
      [
        "ell",
        -9.376633534543751
      ],
      [
        "ha",
        -13.163230928458336
      ],
      [
        "y",
        -7.14930709824996
      ],
      [
        "has",
        -9.011977185158957
      ],
      [
        "▁student",
        -7.479573187494293
      ],
      [
        "▁island",
        -7.57875765328162
      ],
      [
        "▁t",
        -7.491726534268921
      ],
      [
        "▁permit",
        -9.024763626504694
      ],
      [
        "▁b",
        -7.312066243997636
      ],
      [
        "▁trade",
        -8.312075063098856
      ],
      [
        "▁sink",
        -9.14696015504483
      ],
      [
        "▁game",
        -6.67492127272534
      ],
      [
        "▁far",
        -5.853635313577881
      ],
      [
        "m",
        -3.7542502650210796
      ],
      [
        "▁bank",
        -8.377275839643652
      ],
      [
        "_",
        -4.8283611448919315
      ],
      [
        "▁reflect",
        -7.854759970925008
      ],
      [
        "▁pott",
        -8.226039811563332
      ],
      [
        "▁through",
        -6.050063511843283
      ],
      [
        "▁en",
        -8.445995296597177
      ],
      [
        "▁harr",
        -6.233282355421757
      ],
      [
        "r",
        -4.3481861650490226
      ],
      [
        "▁d",
        -7.835324086530707
      ],
      [
        "▁b",
        -6.06939314395327
      ],
      [
        "ental",
        -6.85117598314483
      ],
      [
        "▁respond",
        -8.077348590338405
      ],
      [
        "▁parl",
        -7.9174887841752755
      ],
      [
        "▁sense",
        -7.803351317846216
      ],
      [
        "▁pour",
        -8.070754748925946
      ],
      [
        "▁pressure",
        -8.787813494265828
      ],
      [
        "▁access",
        -7.562739663223561
      ],
      [
        "▁kiss",
        -8.730430373325518
      ],
      [
        "ten",
        -7.555046472329299
      ],
      [
        "ous",
        -8.75369196749786
      ],
      [
        "ard",
        -7.346491139930019
      ],
      [
        "▁screw",
        -9.123869968977653
      ],
      [
        "fore",
        -6.806894281632575
      ],
      [
        "!!",
        -8.56163946564786
      ],
      [
        "thi",
        -6.816229796495273
      ],
      [
        "▁man",
        -6.271984359750811
      ],
      [
        "▁last",
        -8.168201016046803
      ],
      [
        "▁prove",
        -8.168219478103088
      ],
      [
        "▁land",
        -8.482368756490764
      ],
      [
        "▁winter",
        -8.295871169518074
      ],
      [
        "▁copyright",
        -9.217000553989449
      ],
      [
        "▁care",
        -7.916052306427313
      ],
      [
        "▁twist",
        -9.28344110355502
      ],
      [
        "▁very",
        -4.371071920638461
      ],
      [
        "▁begin",
        -7.430154484278815
      ],
      [
        "▁mu",
        -5.496880053479111
      ],
      [
        "phi",
        -7.032070604541478
      ],
      [
        "▁universit",
        -6.8235898416761405
      ],
      [
        "se",
        -9.378030818966653
      ],
      [
        "▁th",
        -4.4762210506779
      ],
      [
        "'",
        -2.482385910194264
      ],
      [
        "▁sept",
        -6.604449666732887
      ],
      [
        "▁angel",
        -6.911102437869754
      ],
      [
        "▁end",
        -6.789761796146893
      ],
      [
        "▁won",
        -8.47883821519625
      ],
      [
        "▁innovation",
        -8.613405951998457
      ],
      [
        "▁pl",
        -8.198259039806256
      ],
      [
        "▁stay",
        -9.124370694504206
      ],
      [
        "n",
        -5.486893563346862
      ],
      [
        "rou",
        -13.078869863422522
      ],
      [
        "a",
        -5.858125791097325
      ],
      [
        "▁arrival",
        -8.887512184428616
      ],
      [
        "k",
        -4.9696005187939205
      ],
      [
        "▁thing",
        -5.613395197413895
      ],
      [
        "▁statu",
        -8.876990776813212
      ],
      [
        "▁last",
        -5.387396407587891
      ],
      [
        "▁phoe",
        -6.4703911001048375
      ],
      [
        "▁hope",
        -6.850381843185085
      ],
      [
        "y",
        -9.93729819650814
      ],
      [
        "w",
        -4.78514370794099
      ],
      [
        "one",
        -6.076324489393661
      ],
      [
        "▁failure",
        -8.787438904233388
      ],
      [
        "▁another",
        -5.70473121673835
      ],
      [
        "▁purchas",
        -9.333087003983131
      ],
      [
        "nder",
        -9.164028849285986
      ],
      [
        "▁password",
        -9.123884720131798
      ],
      [
        "..........",
        -12.04219046270542
      ],
      [
        "cultur",
        -7.255618199138741
      ],
      [
        "v",
        -11.925660239071421
      ],
      [
        "▁passenger",
        -9.216943580602956
      ],
      [
        "▁database",
        -8.511749949255972
      ],
      [
        "▁robot",
        -8.696473206826564
      ],
      [
        "nd",
        -8.129110544840849
      ],
      [
        "every",
        -9.010438236282951
      ],
      [
        "▁aspect",
        -8.221141738810385
      ],
      [
        "......",
        -13.08817150327664
      ],
      [
        "▁got",
        -7.758129679899486
      ],
      [
        "▁skills",
        -8.674893452609716
      ],
      [
        "▁currenc",
        -8.925982449105422
      ],
      [
        "▁car",
        -5.944484843548301
      ],
      [
        "▁am",
        -6.725198085379273
      ],
      [
        "▁tiger",
        -8.640139438657584
      ],
      [
        "▁newspaper",
        -8.511803875423658
      ],
      [
        "▁parent",
        -7.597973588209074
      ],
      [
        "▁whale",
        -8.613334126188366
      ],
      [
        "ove",
        -8.770730135638402
      ],
      [
        "on",
        -5.130753300564142
      ],
      [
        "ail",
        -5.888541626445163
      ],
      [
        "▁pie",
        -8.60970273545404
      ],
      [
        "▁cut",
        -8.619399010850712
      ],
      [
        "up",
        -8.050037684726725
      ],
      [
        "▁cartoon",
        -8.85303250082357
      ],
      [
        "er",
        -7.476797335921252
      ],
      [
        "▁se",
        -8.65281690288646
      ],
      [
        "▁fish",
        -7.29041536295049
      ],
      [
        "one",
        -8.361856041647858
      ],
      [
        "▁money",
        -6.90253603597577
      ],
      [
        "▁roar",
        -8.86883153585313
      ],
      [
        "▁item",
        -7.607602143346999
      ],
      [
        "▁environment",
        -7.967761930235129
      ],
      [
        "▁traffic",
        -8.628386878704273
      ],
      [
        "▁offer",
        -8.927079765038958
      ],
      [
        "▁tu",
        -7.119408893160458
      ],
      [
        "▁file",
        -7.123631378906847
      ],
      [
        "▁play",
        -7.56524513739988
      ],
      [
        "a",
        -3.730887411176008
      ],
      [
        "▁ice",
        -8.277578779557965
      ],
      [
        "▁bathroom",
        -8.276823487567986
      ],
      [
        "ade",
        -9.163853728411702
      ],
      [
        "▁sweet",
        -8.819814667969975
      ],
      [
        "▁kick",
        -8.610188776671855
      ],
      [
        "▁participant",
        -8.69647835588712
      ],
      [
        "▁http://www.",
        -6.835725387207397
      ],
      [
        "?????",
        -11.017867342887754
      ],
      [
        "▁comment",
        -7.822203929235285
      ],
      [
        "ou",
        -5.693854455428379
      ],
      [
        "▁shoul",
        -5.182621289545295
      ],
      [
        "▁interna",
        -6.979968294030549
      ],
      [
        "▁development",
        -7.627305677431964
      ],
      [
        "▁what",
        -3.8575555843200693
      ],
      [
        "▁pushe",
        -9.339702222344467
      ],
      [
        "▁difficult",
        -8.640123998122338
      ],
      [
        "▁demand",
        -8.376691249688534
      ],
      [
        "▁require",
        -7.255971108646589
      ],
      [
        "v",
        -7.189853336756621
      ],
      [
        "▁peace",
        -7.657818625275035
      ],
      [
        "▁care",
        -7.695339058275782
      ],
      [
        "▁load",
        -9.006487675009382
      ],
      [
        "▁register",
        -9.083751068424034
      ],
      [
        "▁c",
        -7.115854882496243
      ],
      [
        "▁rain",
        -8.276687297536638
      ],
      [
        "▁mommy",
        -5.364345025348642
      ],
      [
        "und",
        -6.2572005688377095
      ],
      [
        "▁local",
        -6.57751425338309
      ],
      [
        "▁will",
        -4.287029515795241
      ],
      [
        "▁woke",
        -8.96938748504948
      ],
      [
        "wealth",
        -8.923256446532516
      ],
      [
        "▁want",
        -4.408770320777205
      ],
      [
        "▁un",
        -5.798991763268779
      ],
      [
        "▁set",
        -8.024593500316847
      ],
      [
        "▁p",
        -7.0739428297070654
      ],
      [
        "▁in",
        -3.238740417683939
      ],
      [
        "▁worker",
        -8.386702114549118
      ],
      [
        "wau",
        -6.330383459265543
      ],
      [
        "▁luck",
        -8.853029404084241
      ],
      [
        "▁speech",
        -8.819696123774193
      ],
      [
        "p",
        -6.142994447357721
      ],
      [
        "u",
        -5.226039066423351
      ],
      [
        "▁sister",
        -8.040302769378005
      ],
      [
        "▁safe",
        -7.253644350897147
      ],
      [
        "ever",
        -7.831432693761964
      ],
      [
        "▁marr",
        -8.344179040642356
      ],
      [
        "▁ours",
        -11.444714850985516
      ],
      [
        "▁manage",
        -8.423583778435727
      ],
      [
        "ch",
        -5.743182008517046
      ],
      [
        "is",
        -7.450562292556078
      ],
      [
        "▁remark",
        -9.216943561793538
      ],
      [
        "▁stopp",
        -7.540817280693708
      ],
      [
        "▁addiction",
        -9.123870740802033
      ],
      [
        "▁men",
        -7.245174553852222
      ],
      [
        "less",
        -6.291852799812492
      ],
      [
        "&",
        -6.519024570430863
      ],
      [
        "▁centur",
        -7.72125843843493
      ],
      [
        "▁airport",
        -7.597956423971422
      ],
      [
        "▁help",
        -5.928976135903623
      ],
      [
        "▁step",
        -8.465616940251993
      ],
      [
        "as",
        -6.594058164000631
      ],
      [
        "▁",
        -1.4271932053481233
      ],
      [
        "▁distribute",
        -8.56609744035245
      ],
      [
        "▁admit",
        -9.184319919238236
      ],
      [
        "▁shape",
        -8.613112779310399
      ],
      [
        "▁in",
        -4.970792382408093
      ],
      [
        "▁access",
        -9.360592997055347
      ],
      [
        "▁there",
        -4.1506920944455326
      ],
      [
        "b",
        -6.1504537306829885
      ],
      [
        "▁term",
        -7.350059746022408
      ],
      [
        "▁abe",
        -6.584971837897432
      ],
      [
        "▁screen",
        -8.464684587137533
      ],
      [
        "▁he",
        -4.9588869558818445
      ],
      [
        "▁pl",
        -3.2601159934010724
      ],
      [
        "ding",
        -8.0783902910098
      ],
      [
        "▁difference",
        -7.6080850461007525
      ],
      [
        "▁mean",
        -5.666419531351391
      ],
      [
        "▁simple",
        -7.298001257945252
      ],
      [
        "we",
        -9.175861871794693
      ],
      [
        "▁cer",
        -6.993604117416121
      ],
      [
        "▁atlant",
        -4.9873793026621245
      ],
      [
        "y",
        -4.489015840271201
      ],
      [
        "▁contain",
        -7.666122745033119
      ],
      [
        "▁assistan",
        -8.442594149042531
      ],
      [
        "▁company",
        -7.159175805174211
      ],
      [
        "▁drink",
        -8.040256502061432
      ],
      [
        "were",
        -7.167827169458954
      ],
      [
        "ard",
        -10.783635794113795
      ],
      [
        "▁ear",
        -8.51380692920621
      ],
      [
        "▁email",
        -9.283670887663895
      ],
      [
        "▁particular",
        -6.879661482062576
      ],
      [
        "▁gain",
        -8.357524823784749
      ],
      [
        "▁sara",
        -6.68679848391138
      ],
      [
        "▁tear",
        -8.868698589927643
      ],
      [
        "▁attach",
        -8.472043201166422
      ],
      [
        "▁agree",
        -7.253405628739583
      ],
      [
        "▁discusse",
        -9.424436303222725
      ],
      [
        "▁.....",
        -12.537509853927435
      ],
      [
        "idence",
        -8.086516438613055
      ],
      [
        "▁provision",
        -8.464684575872088
      ],
      [
        "▁influence",
        -8.81978442624895
      ],
      [
        "▁trust",
        -9.216945893426669
      ],
      [
        "▁replace",
        -8.29378861232647
      ],
      [
        "▁wha",
        -8.319820818394579
      ],
      [
        "▁service",
        -6.1586790026811995
      ],
      [
        "▁purpose",
        -8.102291505184763
      ],
      [
        "ell",
        -7.168391680605644
      ],
      [
        "ers",
        -7.103079488265108
      ],
      [
        "▁choose",
        -7.779741653182732
      ],
      [
        "▁walk",
        -6.515052717435402
      ],
      [
        "`",
        -9.585942977269655
      ],
      [
        "pos",
        -9.971496173792502
      ],
      [
        "hi",
        -12.596011167150566
      ],
      [
        "ma",
        -8.023398630505657
      ],
      [
        "▁quick",
        -6.745647669671999
      ],
      [
        "▁6",
        -4.915061083533737
      ],
      [
        "ce",
        -6.804445827853674
      ],
      [
        "▁court",
        -8.257977252391235
      ],
      [
        "▁drop",
        -8.286286269122698
      ],
      [
        "re",
        -8.421918623493923
      ],
      [
        "+",
        -10.834960006133098
      ],
      [
        "um",
        -7.473447019932895
      ],
      [
        "ula",
        -7.009970634005315
      ],
      [
        "▁bottle",
        -7.83685848104486
      ],
      [
        "▁wor",
        -8.534574165976904
      ],
      [
        "▁air",
        -6.76560104667951
      ],
      [
        "▁b",
        -6.7872318813053925
      ],
      [
        "▁hu",
        -5.3112184277948105
      ],
      [
        "▁intern",
        -8.260173015318548
      ],
      [
        "of",
        -8.026473360529637
      ],
      [
        "▁30",
        -5.898121181112609
      ],
      [
        "▁vacation",
        -8.419736425505278
      ],
      [
        "▁d",
        -8.66826635577538
      ],
      [
        "▁1",
        -4.047171860870491
      ],
      [
        "▁f",
        -6.831058922367424
      ],
      [
        "▁snake",
        -8.419739262519148
      ],
      [
        "…",
        -9.197828780273426
      ],
      [
        "▁pe",
        -7.653575341127877
      ],
      [
        "▁refer",
        -8.213241469647645
      ],
      [
        "ate",
        -8.51738166997801
      ],
      [
        "li",
        -7.823242699792453
      ],
      [
        "▁wine",
        -7.996364599712911
      ],
      [
        "▁furni",
        -8.819700415584807
      ],
      [
        "▁king",
        -8.566525061847615
      ],
      [
        "able",
        -4.583743775946479
      ],
      [
        "▁squirt",
        -9.288686004311
      ],
      [
        "▁magic",
        -8.923077971104512
      ],
      [
        "▁amid",
        -9.982268227011591
      ],
      [
        "▁here",
        -4.079579998525942
      ],
      [
        "▁hand",
        -8.679727894075862
      ],
      [
        "▁filter",
        -8.242819720730548
      ],
      [
        "▁send",
        -7.010702550415962
      ],
      [
        "▁sex",
        -8.726401675517666
      ],
      [
        "▁state",
        -6.055091385595466
      ],
      [
        "▁cal",
        -9.18794803453925
      ],
      [
        "▁publication",
        -9.220037488833055
      ],
      [
        "▁one",
        -6.966178114737579
      ],
      [
        "▁stillman",
        -7.264076336258403
      ],
      [
        "-",
        -9.206366238425398
      ],
      [
        "▁lo",
        -8.587447642965872
      ],
      [
        "▁off",
        -6.057483206463368
      ],
      [
        "▁type",
        -6.993080398677356
      ],
      [
        "▁path",
        -8.403055722158692
      ],
      [
        "▁witch",
        -8.998933037123026
      ],
      [
        "▁cop",
        -8.740136652838359
      ],
      [
        "▁qualit",
        -7.437607515917092
      ],
      [
        "▁conclusion",
        -8.787540364728878
      ],
      [
        "d",
        -10.889404706649984
      ],
      [
        "▁host",
        -9.168810829922517
      ],
      [
        "▁declare",
        -8.58821911898314
      ],
      [
        "▁package",
        -9.124345099431405
      ],
      [
        "▁town",
        -7.278296875438283
      ],
      [
        "▁nash",
        -7.302159951073509
      ],
      [
        ">",
        -7.243668748634377
      ],
      [
        "d",
        -7.736282935630403
      ],
      [
        "-",
        -6.902957581157101
      ],
      [
        "▁post",
        -8.180190563541796
      ],
      [
        "▁suppose",
        -7.33864174470321
      ],
      [
        "▁sleep",
        -8.355890799369575
      ],
      [
        "▁object",
        -8.040017712058521
      ],
      [
        "▁pi",
        -8.875606205518407
      ],
      [
        "▁dolphin",
        -9.21694353777859
      ],
      [
        "ac",
        -8.033584466117274
      ],
      [
        "...",
        -9.194120139503523
      ],
      [
        "▁fill",
        -7.5273199551953365
      ],
      [
        "dy",
        -8.039254141798633
      ],
      [
        "ail",
        -8.982246677363792
      ],
      [
        "ough",
        -5.854176465378226
      ],
      [
        "ped",
        -8.244818001486966
      ],
      [
        "s",
        -5.850145103808338
      ],
      [
        "▁da",
        -7.903378949837747
      ],
      [
        "▁arrest",
        -9.02482456647259
      ],
      [
        "u",
        -6.6045944030976305
      ],
      [
        "4",
        -4.227577718061921
      ],
      [
        "▁arriv",
        -6.450778941158019
      ],
      [
        "▁d",
        -8.724840587039013
      ],
      [
        "♥",
        -12.810278406305976
      ],
      [
        "▁absolute",
        -7.501200598055169
      ],
      [
        "▁stop",
        -6.638462490604868
      ],
      [
        "▁rubb",
        -8.696473294785536
      ],
      [
        "ve",
        -10.92566035959162
      ],
      [
        "▁meaning",
        -8.453463297589357
      ],
      [
        "▁bed",
        -7.141218186935178
      ],
      [
        "▁hundred",
        -8.819696064316304
      ],
      [
        "▁20",
        -4.844886168365915
      ],
      [
        "▁imme",
        -7.436168493080066
      ],
      [
        "▁",
        -2.3835752038720184
      ],
      [
        "▁street",
        -7.3893489104263965
      ],
      [
        "▁potato",
        -9.16932619709835
      ],
      [
        "▁operate",
        -9.26664418038164
      ],
      [
        "den",
        -7.389034121029413
      ],
      [
        "▁murder",
        -8.71929972009357
      ],
      [
        "▁establish",
        -7.872287748638468
      ],
      [
        "▁wall",
        -7.812760309924042
      ],
      [
        "▁summer",
        -7.668168189905595
      ],
      [
        "woul",
        -7.186489786394996
      ],
      [
        "▁enter",
        -7.664202702451771
      ],
      [
        "▁hospital",
        -8.315477856718175
      ],
      [
        "▁mar",
        -7.297696740242505
      ],
      [
        ".......",
        -12.587104664338755
      ],
      [
        "▁exercise",
        -9.217749554897994
      ],
      [
        "▁figure",
        -8.200549725684937
      ],
      [
        "▁contribute",
        -8.721181520426633
      ],
      [
        "▁children",
        -7.048035830856158
      ],
      [
        "▁red",
        -9.117338693211952
      ],
      [
        "▁wrong",
        -6.889840448844239
      ],
      [
        "g",
        -5.086823106981542
      ],
      [
        "▁center",
        -8.337433226566898
      ],
      [
        "▁detr",
        -7.365578977525217
      ],
      [
        "▁jun",
        -7.250515333933408
      ],
      [
        "▁forget",
        -7.8047061598920475
      ],
      [
        "!!!!!!!!!!!!",
        -12.386019684959304
      ],
      [
        "c",
        -6.144387633440204
      ],
      [
        "!!!!!!!!!!!!!!!",
        -11.726744569091506
      ],
      [
        "----------------",
        -8.720621540620426
      ],
      [
        "they",
        -7.005894765477494
      ],
      [
        "▁agent",
        -8.419758597200811
      ],
      [
        "▁cookie",
        -8.505811307028567
      ],
      [
        "over",
        -8.61529201880396
      ],
      [
        "▁",
        -2.6211102193894833
      ],
      [
        "p",
        -12.28153641900687
      ],
      [
        "ur",
        -11.938972523959853
      ],
      [
        "▁wif",
        -7.413257984908348
      ],
      [
        "▁door",
        -7.058930191112866
      ],
      [
        "▁contract",
        -8.184076471032185
      ],
      [
        "▁wave",
        -8.82699765897334
      ],
      [
        "here",
        -5.7267247990743835
      ],
      [
        "▁crop",
        -8.960269655204407
      ],
      [
        "▁bee",
        -8.571528797556873
      ],
      [
        "▁oppose",
        -8.689039683321802
      ],
      [
        "st",
        -12.50667684532212
      ],
      [
        "▁add",
        -6.652315770827376
      ],
      [
        "▁loss",
        -8.606601156730287
      ],
      [
        "▁alway",
        -5.519820572217112
      ],
      [
        "▁page",
        -7.0265985753286895
      ],
      [
        "▁roman",
        -6.285402666758411
      ],
      [
        "▁sorr",
        -6.765052041130429
      ],
      [
        "▁quer",
        -8.438819969914144
      ],
      [
        "▁ev",
        -8.168984609430542
      ],
      [
        "▁occasion",
        -8.998725074701786
      ],
      [
        "▁provide",
        -6.477830836230567
      ],
      [
        "▁weekend",
        -8.055425188855452
      ],
      [
        "inc",
        -7.751841047967409
      ],
      [
        "in",
        -6.981579375279513
      ],
      [
        "▁surger",
        -9.085279867879681
      ],
      [
        "▁diffe",
        -5.787677870707446
      ],
      [
        "▁view",
        -7.225935158585302
      ],
      [
        "▁practice",
        -8.376719353628014
      ],
      [
        "▁assess",
        -8.689162915160052
      ],
      [
        "▁sure",
        -5.83860052409209
      ],
      [
        "▁white",
        -6.200269289236962
      ],
      [
        "hem",
        -13.98800345435682
      ],
      [
        "—",
        -6.131623132035529
      ],
      [
        "▁us",
        -6.733375629151908
      ],
      [
        "ge",
        -8.390309779020665
      ],
      [
        "▁visitor",
        -8.728060006910264
      ],
      [
        "▁chocolate",
        -8.335477856596388
      ],
      [
        "▁ya",
        -10.057489520944594
      ],
      [
        "▁can",
        -8.416500390356541
      ],
      [
        "▁pop",
        -8.31881464626104
      ],
      [
        "efficien",
        -9.169437708935295
      ],
      [
        "▁glove",
        -8.960278470228184
      ],
      [
        "▁respect",
        -8.203323532952933
      ],
      [
        "▁bus",
        -7.723142778580611
      ],
      [
        "▁eight",
        -5.45617522748721
      ],
      [
        "▁use",
        -5.376712606513006
      ],
      [
        "▁visit",
        -8.5344686408947
      ],
      [
        "▁c",
        -6.691884532447161
      ],
      [
        "ut",
        -9.297866942650675
      ],
      [
        "▁ra",
        -7.264634109176454
      ],
      [
        "▁thr",
        -4.171737371864407
      ],
      [
        "e",
        -6.537752415107044
      ],
      [
        "▁wh",
        -5.509002581214282
      ],
      [
        "▁put",
        -4.963868223581525
      ],
      [
        "got",
        -10.98607480809809
      ],
      [
        "▁heart",
        -7.812614952552662
      ],
      [
        "▁beside",
        -8.602917140222484
      ],
      [
        "▁societ",
        -7.60760076739078
      ],
      [
        "▁song",
        -7.955950573888411
      ],
      [
        "▁speak",
        -7.239835423288421
      ],
      [
        "▁principle",
        -8.725884969175901
      ],
      [
        "▁bite",
        -7.841128810969074
      ],
      [
        "▁elevator",
        -8.88760862379046
      ],
      [
        "▁leave",
        -5.929274021604734
      ],
      [
        "▁snow",
        -8.397997250289041
      ],
      [
        "▁sci",
        -9.072952856580418
      ],
      [
        "ide",
        -9.177341108546004
      ],
      [
        "▁mix",
        -8.5503199672976
      ],
      [
        "▁'",
        -9.052455780862363
      ],
      [
        "el",
        -7.022978776406453
      ],
      [
        "▁movie",
        -7.421236012705993
      ],
      [
        "???????????????",
        -11.531210826536753
      ],
      [
        "▁solve",
        -9.079268602044394
      ],
      [
        "▁den",
        -4.692025004015246
      ],
      [
        "▁’",
        -11.653797199629468
      ],
      [
        "▁week",
        -6.45605071409975
      ],
      [
        "▁transport",
        -6.604467960840209
      ],
      [
        "▁finger",
        -7.627397620049585
      ],
      [
        "ave",
        -6.872084745117334
      ],
      [
        "--",
        -6.649124866636526
      ],
      [
        "▁bell",
        -8.648763484404036
      ],
      [
        "▁19",
        -5.4772626976529235
      ],
      [
        "▁circle",
        -8.239252803639864
      ],
      [
        "▁click",
        -8.649000036370897
      ],
      [
        "▁su",
        -7.568302466784634
      ],
      [
        "pover",
        -9.186619763691631
      ],
      [
        "e",
        -9.262538749109531
      ],
      [
        "a",
        -2.8896488760980414
      ],
      [
        "▁interest",
        -9.025089984849822
      ],
      [
        "▁di",
        -8.714196175217431
      ],
      [
        "▁throw",
        -7.132923699682043
      ],
      [
        "he",
        -6.048336889101976
      ],
      [
        "▁direct",
        -8.924893410825268
      ],
      [
        "▁adopt",
        -8.092872173831568
      ],
      [
        "adam",
        -8.801204290585094
      ],
      [
        "▁expand",
        -8.318777532004205
      ],
      [
        "▁appearance",
        -8.859665433628084
      ],
      [
        "en",
        -8.960701284908302
      ],
      [
        "************",
        -12.973373201788785
      ],
      [
        "il",
        -6.496875214286308
      ],
      [
        "▁drama",
        -9.169325248910472
      ],
      [
        "▁wash",
        -7.504951731329325
      ],
      [
        "▁kid",
        -7.211556190149635
      ],
      [
        "▁mouth",
        -7.710257644755742
      ],
      [
        "bo",
[...]
