{
  "version": "1.0",
  "truncation": null,
  "padding": null,
  "added_tokens": [
    {
      "id": 2026,
      "content": "[CLS]",
      "single_word": false,
      "lstrip": false,
      "rstrip": false,
      "normalized": false,
      "special": true
    },
    {
      "id": 5926,
      "content": "[UNK]",
      "single_word": false,
      "lstrip": false,
      "rstrip": false,
      "normalized": false,
      "special": true
    },
    {
      "id": 6548,
      "content": "[SEP]",
      "single_word": false,
      "lstrip": false,
      "rstrip": false,
      "normalized": false,
      "special": true
    },
    {
      "id": 7207,
      "content": "[MASK]",
      "single_word": false,
      "lstrip": false,
      "rstrip": false,
      "normalized": false,
      "special": true
    },
    {
      "id": 8913,
      "content": "[PAD]",
      "single_word": false,
      "lstrip": false,
      "rstrip": false,
      "normalized": false,
      "special": true
    }
  ],
  "normalizer": {
    "type": "Sequence",
    "normalizers": [
      {
        "type": "NFD"
      },
      {
        "type": "Lowercase"
      },
      {
        "type": "StripAccents"
      }
    ]
  },
  "pre_tokenizer": {
    "type": "Sequence",
    "pretokenizers": [
      {
        "type": "Metaspace",
        "replacement": "▁",
        "prepend_scheme": "always",
        "split": true
      }
    ]
  },
  "post_processor": {
    "type": "TemplateProcessing",
    "single": [
      {
        "SpecialToken": {
          "id": "[CLS]",
          "type_id": 0
        }
      },
      {
        "Sequence": {
          "id": "A",
          "type_id": 0
        }
      },
      {
        "SpecialToken": {
          "id": "[SEP]",
          "type_id": 0
        }
      }
    ],
    "pair": [
      {
        "SpecialToken": {
          "id": "[CLS]",
          "type_id": 0
        }
      },
      {
        "Sequence": {
          "id": "A",
          "type_id": 0
        }
      },
      {
        "SpecialToken": {
          "id": "[SEP]",
          "type_id": 0
        }
      },
      {
        "Sequence": {
          "id": "B",
          "type_id": 1
        }
      },
      {
        "SpecialToken": {
          "id": "[SEP]",
          "type_id": 1
        }
      }
    ],
    "special_tokens": {
      "[CLS]": {
        "id": "[CLS]",
        "ids": [
          2026
        ],
        "tokens": [
          "[CLS]"
        ]
      },
      "[SEP]": {
        "id": "[SEP]",
        "ids": [
          6548
        ],
        "tokens": [
          "[SEP]"
        ]
      }
    }
  },
  "decoder": {
    "type": "Metaspace",
    "replacement": "▁",
    "prepend_scheme": "always",
    "split": true
  },
  "model": {
    "type": "Unigram",
    "unk_id": 5926,
    "vocab": [
      [
        "▁cheek",
        -9.133486784508348
      ],
      [
        "▁send",
        -7.010702550415962
      ],
      [
        "ernation",
        -11.289403814435552
      ],
      [
        "▁ca",
        -4.021459500937557
      ],
      [
        "interpret",
        -11.235026609084114
      ],
      [
        "el",
        -12.650221016248612
      ],
      [
        "▁hand",
        -10.235065825969624
      ],
      [
        "ent",
        -6.02629273963893
      ],
      [
        "bound",
        -12.177917920695304
      ],
      [
        "▁cooperate",
        -10.289929180076712
      ],
      [
        "uls",
        -12.673566066309446
      ],
      [
        "▁columb",
        -7.707378439906107
      ],
      [
        "▁compliment",
        -9.946541905104272
      ],
      [
        "ffer",
        -13.155422503184889
      ],
      [
        "▁butto",
        -12.869717864250058
      ],
      [
        "▁angle",
        -9.703709830753422
      ],
      [
        "▁ti",
        -8.938505661920438
      ],
      [
        "▁morning",
        -5.96645894902581
      ],
      [
        "litter",
        -11.017855584570047
      ],
      [
        "valid",
        -8.836547063358307
      ],
      [
        "▁interference",
        -9.95866450745276
      ],
      [
        "▁polaroid",
        -9.672502628298275
      ],
      [
        "▁hind",
        -10.94374086087665
      ],
      [
        "▁quanti",
        -9.470990253803595
      ],
      [
        "▁zone",
        -9.879017153560365
      ],
      [
        "▁paralyze",
        -11.458725639474824
      ],
      [
        "▁an",
        -9.820616148417278
      ],
      [
        "▁somewh",
        -7.838931967341777
      ],
      [
        "▁clas",
        -10.966147665897159
      ],
      [
        "▁gd",
        -10.120792551377004
      ],
      [
        "tri",
        -12.31989001222875
      ],
      [
        "▁source",
        -7.600890067305296
      ],
      [
        "▁relate",
        -8.875343751627707
      ],
      [
        "▁w",
        -6.298882848285827
      ],
      [
        "▁air",
        -6.040813524766777
      ],
      [
        "lips",
        -12.449974790514638
      ],
      [
        "▁memorize",
        -10.625426217963572
      ],
      [
        "▁browser",
        -9.337452437614626
      ],
      [
        "▁cane",
        -10.518565084559839
      ],
      [
        "▁raise",
        -7.862368665323697
      ],
      [
        "▁",
        -2.345074069766005
      ],
      [
        "▁fr",
        -10.375037312392115
      ],
      [
        "yo",
        -12.726913103948085
      ],
      [
        "▁wink",
        -9.892214193836713
      ],
      [
        "▁incre",
        -12.03486031689132
      ],
      [
        "▁genius",
        -9.672336116347264
      ],
      [
        "its",
        -12.40365536423313
      ],
      [
        "▁seek",
        -7.794721868270505
      ],
      [
        "▁earthquake",
        -10.057133124879924
      ],
      [
        "▁bureaucrac",
        -10.489904905647354
      ],
      [
        "▁appli",
        -8.759356170891197
      ],
      [
        "ind",
        -8.429079748863852
      ],
      [
        "um",
        -11.058978476488804
      ],
      [
        "tural",
        -8.455499266645763
      ],
      [
        "▁guerrilla",
        -9.672562777479282
      ],
      [
        "▁misha",
        -11.724524111138205
      ],
      [
        "▁necess",
        -11.772415340062127
      ],
      [
        "▁grave",
        -9.886732654570265
      ],
      [
        "▁movement",
        -8.32358601662969
      ],
      [
        "▁caper",
        -11.982320498219316
      ],
      [
        "▁capitaliz",
        -11.458752755294963
      ],
      [
        "▁polit",
        -11.458842000038688
      ],
      [
        "s",
        -6.625258447850738
      ],
      [
        "at",
        -12.527794121947867
      ],
      [
        "▁drain",
        -11.278072146102172
      ],
      [
        "▁behav",
        -12.282739279163971
      ],
      [
        "▁defen",
        -8.89993229354867
      ],
      [
        "▁30",
        -10.411139197385463
      ],
      [
        "▁prerequisite",
        -10.939933979855931
      ],
      [
        "▁laptop",
        -9.946108108707763
      ],
      [
        "▁consult",
        -10.823180229832236
      ],
      [
        "▁string",
        -8.560099086022408
      ],
      [
        "ie",
        -6.9160920740095
      ],
      [
        "▁inf",
        -10.243930448735448
      ],
      [
        "pick",
        -12.291011160499409
      ],
      [
        "▁merry",
        -10.324977691923955
      ],
      [
        "inema",
        -11.29387493826818
      ],
      [
        "▁strik",
        -10.566222133157929
      ],
      [
        "uffin",
        -10.97897481242274
      ],
      [
        "▁dualit",
        -11.777163450961728
      ],
      [
        "goe",
        -13.267517313985918
      ],
      [
        "▁read",
        -6.125286429904584
      ],
      [
        "▁swap",
        -10.181355986385933
      ],
      [
        "▁ind",
        -8.9686852054047
      ],
      [
        "▁fourt",
        -7.691191378294574
      ],
      [
        "▁piece",
        -6.944219027575141
      ],
      [
        "▁focuse",
        -9.211524198346563
      ],
      [
        "▁brut",
        -11.874222544805566
      ],
      [
        "▁!!!!!!!!!!",
        -11.835042718013746
      ],
      [
        "▁calm",
        -10.2057695598747
      ],
      [
        "equalit",
        -10.003434738607204
      ],
      [
        "▁accent",
        -10.490479966896586
      ],
      [
        "race",
        -10.600836965461115
      ],
      [
        "ir",
        -11.95034171450305
      ],
      [
        "bug",
        -10.52985003543697
      ],
      [
        "▁intersect",
        -12.77152854534696
      ],
      [
        "▁b",
        -7.78174407146278
      ],
      [
        "▁he",
        -10.465952580831354
      ],
      [
        "▁mimick",
        -10.964834729923123
      ],
      [
        "▁north",
        -7.729188031226416
      ],
      [
        "▁conduit",
        -11.773566648634826
      ],
      [
        "▁prospe",
        -8.745895016024662
      ],
      [
        "▁bay",
        -11.207580006667513
      ],
      [
        "▁vel",
        -11.81100502095464
      ],
      [
        "▁de",
        -7.219112376193933
      ],
      [
        "lada",
        -12.024950678094003
      ],
      [
        "▁per",
        -11.244378115706253
      ],
      [
        "e",
        -3.6987654616553973
      ],
      [
        "den",
        -7.186659619903961
      ],
      [
        "▁issue",
        -7.020976742071823
      ],
      [
        "▁andrew",
        -8.689837731097324
      ],
      [
        "ti",
        -7.940756322834329
      ],
      [
        "▁ld2d-#6939",
        -10.93998597004253
      ],
      [
        "▁intellect",
        -11.773236626314914
      ],
      [
        "▁interco",
        -11.872561549309808
      ],
      [
        "▁recruit",
        -9.633814215439674
      ],
      [
        "▁fract",
        -11.930885973920443
      ],
      [
        "▁rule",
        -9.498378461293761
      ],
      [
        "▁appall",
        -10.958846036879535
      ],
      [
        "contain",
        -11.613614607635947
      ],
      [
        "▁177",
        -7.499662890905288
      ],
      [
        "▁concert",
        -9.854866954941404
      ],
      [
        "▁fre",
        -13.213851509105357
      ],
      [
        "▁ic",
        -10.754023927858865
      ],
      [
        "fer",
        -12.467221204698541
      ],
      [
        ".",
        -1.4533572890270836
      ],
      [
        "▁o",
        -7.903254943525872
      ],
      [
        "▁chiro",
        -10.323874528889641
      ],
      [
        "▁referenc",
        -10.57040959474168
      ],
      [
        "eve",
        -8.019325585688978
      ],
      [
        "4",
        -10.317468342769956
      ],
      [
        "olat",
        -12.070794621467867
      ],
      [
        "phen",
        -12.849174747504215
      ],
      [
        "h",
        -3.151586959751487
      ],
      [
        "inth",
        -8.865730002401458
      ],
      [
        "ill",
        -8.319060593976758
      ],
      [
        "come",
        -8.67712389334881
      ],
      [
        "tone",
        -10.796566657800147
      ],
      [
        "▁aero",
        -10.116433105927436
      ],
      [
        "▁tumbl",
        -10.401256496060585
      ],
      [
        "▁uni",
        -10.176437373601981
      ],
      [
        "▁dal",
        -5.240750079898974
      ],
      [
        "ac",
        -13.08800452521994
      ],
      [
        "▁sale",
        -9.464144502944947
      ],
      [
        "▁fi",
        -10.440047787115914
      ],
      [
        "▁desert",
        -9.672355781287827
      ],
      [
        "▁utensil",
        -11.273238354529468
      ],
      [
        "▁congress",
        -9.946184152169943
      ],
      [
        "ar",
        -7.070180781046311
      ],
      [
        "of",
        -6.912227420810709
      ],
      [
        "▁divide",
        -9.190883552998816
      ],
      [
        "oli",
        -12.52308361981047
      ],
      [
        "▁sup",
        -12.563251891970072
      ],
      [
        "ult",
        -11.32194798363193
      ],
      [
        "▁bobb",
        -11.45925806723834
      ],
      [
        "▁disease",
        -8.855813014577175
      ],
      [
        "nish",
        -8.67394598644395
      ],
      [
        "nife",
        -10.606834616446632
      ],
      [
        "so",
        -9.232500119178809
      ],
      [
        "▁handle",
        -8.361116241446648
      ],
      [
        "cloth",
        -11.013650356331393
      ],
      [
        "q",
        -13.844340738273102
      ],
      [
        "▁trea",
        -12.841919395511697
      ],
      [
        "▁si",
        -9.215174395822075
      ],
      [
        "espec",
        -9.648828893851645
      ],
      [
        "▁now",
        -4.075357952692865
      ],
      [
        "ental",
        -8.75074967060706
      ],
      [
        "▁kibbutz",
        -11.273238221278973
      ],
      [
        "▁deserve",
        -9.026390977354469
      ],
      [
        "d",
        -7.736282935630404
      ],
      [
        "▁gala",
        -11.807480327516515
      ],
      [
        "▁hiri",
        -11.425579724295563
      ],
      [
        "▁hard",
        -6.981459197999821
      ],
      [
        "▁welcome",
        -8.867113751641234
      ],
      [
        "▁won",
        -8.47883821519625
      ],
      [
        "▁sensor",
        -10.056845009653825
      ],
      [
        "move",
        -11.010131706693507
      ],
      [
        "▁202",
        -8.147300128301447
      ],
      [
        "▁found",
        -8.773743516303433
      ],
      [
        "ix",
        -12.042093870743159
      ],
      [
        "ask",
        -9.977614852147653
      ],
      [
        "era",
        -13.385828160518242
      ],
      [
        "▁respect",
        -9.378942591289842
      ],
      [
        "f",
        -7.031933244243013
      ],
      [
        "▁resolv",
        -10.925979024928955
      ],
      [
        "mber",
        -12.998691490710932
      ],
      [
        "▁climate",
        -8.360823258272308
      ],
      [
        "▁on",
        -5.361902469050708
      ],
      [
        "▁prof",
        -12.687227472227562
      ],
      [
        "▁audio",
        -9.59618082184693
      ],
      [
        "▁swing",
        -9.183476741607898
      ],
      [
        "stirr",
        -12.28544871194109
      ],
      [
        "▁name",
        -6.160058416361317
      ],
      [
        "▁essen",
        -11.403291790375075
      ],
      [
        "▁every",
        -6.189232902579145
      ],
      [
        "en",
        -6.925937608921457
      ],
      [
        "▁hassle",
        -10.69002679631046
      ],
      [
        "▁intru",
        -11.891135888923051
      ],
      [
        "ce",
        -5.340986048479182
      ],
      [
        "▁form",
        -9.59344289641272
      ],
      [
        "hat",
        -8.562382551748577
      ],
      [
        "▁intention",
        -9.458553409014915
      ],
      [
        "▁2.0",
        -7.972913197961337
      ],
      [
        "gregation",
        -10.673614473524138
      ],
      [
        "our",
        -12.706052039156132
      ],
      [
        "▁condition",
        -7.933198541992066
      ],
      [
        "▁reach",
        -9.753706538271272
      ],
      [
        "i",
        -11.770631529841472
      ],
      [
        "▁design",
        -8.091584560278916
      ],
      [
        "▁shin",
        -9.889384735954986
      ],
      [
        "▁exception",
        -9.178963242883048
      ],
      [
        "▁george",
        -6.781171824155518
      ],
      [
        "f",
        -7.281137016091158
      ],
      [
        "▁lean",
        -9.096300030768612
      ],
      [
        "▁discusse",
        -9.424436303222725
      ],
      [
        "▁crown",
        -10.340385220123277
      ],
      [
        "▁kn",
        -10.925516565317587
      ],
      [
        "stair",
        -12.77794432021151
      ],
      [
        "tar",
        -12.736701470692408
      ],
      [
        "▁runn",
        -11.117947958365228
      ],
      [
        "▁le",
        -7.706648196198186
      ],
      [
        "nour",
        -12.456694580131181
      ],
      [
        "▁promise",
        -8.237400325629473
      ],
      [
        "▁worr",
        -10.404805248160715
      ],
      [
        "check",
        -12.364987201788136
      ],
      [
        "▁ice-cream",
        -11.273239212799337
      ],
      [
        "▁waiter",
        -9.461898341802646
      ],
      [
        "dresser",
        -11.170517947648367
      ],
      [
        "bate",
        -12.726960842604766
      ],
      [
        "▁viewpoint",
        -10.696695414061397
      ],
      [
        "▁imm",
        -10.710225304513976
      ],
      [
        "▁guilt",
        -9.945732341854741
      ],
      [
        "tive",
        -10.393638677826782
      ],
      [
        "▁with",
        -9.28585943181657
      ],
      [
        "▁tub",
        -11.022811390401186
      ],
      [
        "▁tole",
        -11.62852476767096
      ],
      [
        "▁beckon",
        -10.95878742003047
      ],
      [
        "▁verb",
        -10.329013896865792
      ],
      [
        "▁guitar",
        -10.055411702486602
      ],
      [
        "anism",
        -11.342086991263434
      ],
      [
        "▁termin",
        -10.858167381240607
      ],
      [
        "head",
        -12.073480315227462
      ],
      [
        "▁subsidiar",
        -12.525334738982847
      ],
      [
        "▁stal",
        -13.84226063957496
      ],
      [
        "▁madden",
        -11.469300362507127
      ],
      [
        "▁wagg",
        -10.646134028861372
      ],
      [
        "▁grill",
        -9.846273358738483
      ],
      [
        "▁signifie",
        -11.46135058621239
      ],
      [
        "▁nap",
        -9.291697745398691
      ],
      [
        "▁leak",
        -11.065650046964798
      ],
      [
        "dresse",
        -11.340667001914706
      ],
      [
        "▁!!!!!",
        -12.942034343401446
      ],
      [
        "▁consi",
        -9.58112823406974
      ],
      [
        "▁cancellation",
        -10.68990511295895
      ],
      [
        "▁fum",
        -11.747691928684898
      ],
      [
        "▁thou",
        -12.46016332252
      ],
      [
        "▁application",
        -7.764160325483211
      ],
      [
        "▁bypass",
        -11.45874532650748
      ],
      [
        "▁cr",
        -9.971838562355774
      ],
      [
        "ali",
        -11.901164608196773
      ],
      [
        "▁sai",
        -5.08691055481988
      ],
      [
        "eeze",
        -9.860992117487132
      ],
      [
        "▁password",
        -9.086022181650534
      ],
      [
        "gg",
        -8.950611876821956
      ],
      [
        "cade",
        -11.596549339733526
      ],
      [
        "assemble",
        -12.244397984394327
      ],
      [
        "▁lady",
        -8.57877458856424
      ],
      [
        "▁is",
        -5.984605269276846
      ],
      [
        "▁personalize",
        -10.969524141989186
      ],
      [
        "▁motivat",
        -11.621220227185681
      ],
      [
        "▁prove",
        -8.168219478103088
      ],
      [
        "j",
        -7.504078469675668
      ],
      [
        "spiri",
        -8.617024776192322
      ],
      [
        "▁slack",
        -11.145187227195139
      ],
      [
        "▁fra",
        -10.352212809871425
      ],
      [
        "sta",
        -8.488319103450568
      ],
      [
        "▁a",
        -7.375664264529457
      ],
      [
        "i",
        -2.7294335593499106
      ],
      [
        "▁wow",
        -6.018175054576849
      ],
      [
        "▁'c",
        -9.925472321816928
      ],
      [
        "▁beli",
        -11.270406965169624
      ],
      [
        "▁classmate",
        -11.276218984803222
      ],
      [
        "▁do",
        -4.354884306024818
      ],
      [
        "y",
        -4.489015840271201
      ],
      [
        "wise",
        -7.250263014346251
      ],
      [
        "etach",
        -13.039522335118745
      ],
      [
        "▁advis",
        -11.595908116854812
      ],
      [
        "▁billiard",
        -11.273417547131228
      ],
      [
        "▁eli",
        -11.692036495670898
      ],
      [
        "▁de",
        -8.13898466470365
      ],
      [
        "▁materialize",
        -11.45873776555145
      ],
      [
        "▁potential",
        -9.086036420616047
      ],
      [
        "▁fee",
        -11.996927822398899
      ],
      [
        "▁h",
        -7.208532579738517
      ],
      [
        "ith",
        -10.93844610480004
      ],
      [
        "▁alco",
        -12.55815339070772
      ],
      [
        "▁go",
        -8.937660472253366
      ],
      [
        "▁ser",
        -7.635217641626142
      ],
      [
        "▁yarn",
        -10.690707337824456
      ],
      [
        "▁bail",
        -11.288746969373864
      ],
      [
        "▁gloat",
        -11.460258056119262
      ],
      [
        "▁testify",
        -10.960995864256898
      ],
      [
        "hank",
        -12.541881560961205
      ],
      [
        "ling",
        -8.816867775816943
      ],
      [
        "confidence",
        -12.49286718400459
      ],
      [
        "suppl",
        -12.599495371143247
      ],
      [
        "▁carol",
        -7.6418194332510225
      ],
      [
        "▁trim",
        -9.877510487838935
      ],
      [
        "anger",
        -9.947755313633479
      ],
      [
        "▁plotter",
        -11.278985219275885
      ],
      [
        "ound",
        -8.795502358059437
      ],
      [
        "11",
        -7.465024666749704
      ],
      [
        "dnes",
        -12.243106444613764
      ],
      [
        "neat",
        -9.345102360322379
      ],
      [
        "▁exceed",
        -9.538930479526707
      ],
      [
        "▁amid",
        -9.982268227011591
      ],
      [
        "▁weapon",
        -8.039189673866753
      ],
      [
        "u",
        -7.326417313986891
      ],
      [
        "▁stillman",
        -7.267174769529199
      ],
      [
        "w",
        -3.8477346663331513
      ],
      [
        "to",
        -9.861809860188213
      ],
      [
        "▁doin",
        -9.639391062832008
      ],
      [
        "roll",
        -10.592488828716755
      ],
      [
        "▁fat",
        -7.679120712889976
      ],
      [
        "▁dip",
        -11.40362505829825
      ],
      [
        "d",
        -4.022794636205144
      ],
      [
        "nerg",
        -12.164041755602767
      ],
      [
        "▁m",
        -5.935041124388867
      ],
      [
        "▁propos",
        -9.210258085636664
      ],
      [
        "▁t",
        -7.491726534268921
      ],
      [
        "▁municipalit",
        -9.755807491724081
      ],
      [
        "gence",
        -9.503568808276817
      ],
      [
        "▁ris",
        -9.20008949094287
      ],
      [
        "▁undermine",
        -10.040094498451264
      ],
      [
        "▁la",
        -8.644930468398599
      ],
      [
        "llen",
        -13.771708789729482
      ],
      [
        "▁ground",
        -10.375972810368008
      ],
      [
        "▁quiet",
        -7.850034831659617
      ],
      [
        "▁scrutini",
        -11.458725708501099
      ],
      [
        "▁styler",
        -11.492644039712111
      ],
      [
        "▁acquir",
        -9.511154169961484
      ],
      [
        "mental",
        -7.3214688820599845
      ],
      [
        "h",
        -4.366450591382845
      ],
      [
        "▁tout",
        -10.65239863272653
      ],
      [
        "▁all",
        -8.625360221387687
      ],
      [
        "when",
        -8.600640802957946
      ],
      [
        "la",
        -7.180731558632906
      ],
      [
        "record",
        -11.383700372594697
      ],
      [
        "▁characterize",
        -10.188446757523664
      ],
      [
        "▁coupl",
        -12.649548271295718
      ],
      [
        "ening",
        -11.526065198464607
      ],
      [
        "▁boo",
        -10.065877710819345
      ],
      [
        "ne",
        -8.421002908074499
      ],
      [
        "the",
        -8.91627304626879
      ],
      [
        "space",
        -10.733859626198935
      ],
      [
        "▁kent",
        -8.232110235261038
      ],
      [
        "-----",
        -11.778022025595234
      ],
      [
        "▁flicke",
        -11.444539218653981
      ],
      [
        "▁shell",
        -10.961998071720588
      ],
      [
        "▁normal",
        -8.051013618467286
      ],
      [
        "▁scheme",
        -9.601522398618275
      ],
      [
        "▁34",
        -8.055004456258157
      ],
      [
        "▁hide",
        -8.394334826868617
      ],
      [
        "▁troph",
        -12.740962179405045
      ],
      [
        "rearrange",
        -11.790105594226002
      ],
      [
        "▁sixt",
        -7.576990953156584
      ],
      [
        "▁exit",
        -10.330006517544586
      ],
      [
        "▁exercise",
        -9.182327121814476
      ],
      [
        "fri",
        -13.29825868208534
      ],
      [
        "▁increas",
        -8.445564122283802
      ],
      [
        "▁modern",
        -7.2893754413007565
      ],
      [
        "▁ser",
        -10.368396104614892
      ],
      [
        "uster",
        -12.355556702879706
      ],
      [
        "▁",
        -1.4771507384749105
      ],
      [
        "▁dust",
        -10.99699054984681
      ],
      [
        "~",
        -12.773238221315811
      ],
      [
        "end",
        -9.343969701357597
      ],
      [
        "▁four",
        -11.656413255506022
      ],
      [
        "ins",
        -12.167094736746972
      ],
      [
        "▁fighter",
        -9.871412852069302
      ],
      [
        "▁che",
        -11.660900317551818
      ],
      [
        "▁timing",
        -9.872212698062476
      ],
      [
        "▁grant",
        -8.406788658269399
      ],
      [
        "▁argument",
        -8.36090498152852
      ],
      [
        "mas",
        -7.6727106750395855
      ],
      [
        "ch",
        -10.038999779297553
      ],
      [
        "promise",
        -11.233129314208519
      ],
      [
        "robe",
        -12.430667233441815
      ],
      [
        "▁brink",
        -11.77351395706154
      ],
      [
        "▁distract",
        -10.175439502399023
      ],
      [
        "▁compress",
        -10.379391629668895
      ],
      [
        "▁alarm",
        -10.958738354538575
      ],
      [
        "▁slapp",
        -10.960759833739777
      ],
      [
        "▁health",
        -7.6310807479974985
      ],
      [
        "ffere",
        -13.733637080791258
      ],
      [
        "▁",
        -1.6256745059821878
      ],
      [
        "lt",
        -12.458189556847
      ],
      [
        "▁supplie",
        -10.008725627222375
      ],
      [
        "sium",
        -12.278771003903431
      ],
      [
        "▁jack",
        -10.323346444533186
      ],
      [
        "le-be",
        -12.766881104962218
      ],
      [
        "▁gold",
        -8.850351022652358
      ],
      [
        "roxi",
        -10.925907639144645
      ],
      [
        "-wa",
        -11.664597319223608
      ],
      [
        "▁frontier",
        -10.940615064558049
      ],
      [
        "ible",
        -7.187702115575742
      ],
      [
        "▁cloa",
        -12.160675417331074
      ],
      [
        "▁fore",
        -10.522583796088648
      ],
      [
        "k",
        -6.601882593626262
      ],
      [
        "▁finish",
        -7.390927051909596
      ],
      [
        "ong",
        -12.729352445636128
      ],
      [
        "▁cost",
        -7.2244428688781985
      ],
      [
        "▁purpose",
        -10.311327205727597
      ],
      [
        "▁cock",
        -11.465863816330602
      ],
      [
        "alia",
        -12.59272598914648
      ],
      [
        "house",
        -8.915004739850165
      ],
      [
        "▁bug",
        -12.097885785189261
      ],
      [
        "integr",
        -11.190045168683996
      ],
      [
        "ant",
        -8.824839956610166
      ],
      [
        "▁wrapp",
        -11.097257469494371
      ],
      [
        "▁hour",
        -7.158421093204191
      ],
      [
        "hel",
        -11.551646698713874
      ],
      [
        "ups",
        -12.130248099563323
      ],
      [
        "▁dra",
        -9.539762959579685
      ],
      [
        "▁yard",
        -9.021650858241859
      ],
      [
        "▁play+grou",
        -9.846955946836822
      ],
      [
        "▁islamist",
        -9.395539681710845
      ],
      [
        "▁jan",
        -7.905588765754274
      ],
      [
        "roni",
        -9.36465014819283
      ],
      [
        "rou",
        -13.078869863422522
      ],
      [
        "on",
        -7.518499745303357
      ],
      [
        "nation",
        -10.672869240313144
      ],
      [
        "▁wrong",
        -11.273212000235326
      ],
      [
        "▁towns",
        -9.891490625179344
      ],
      [
        "▁sen",
        -12.837748156795955
      ],
      [
        "▁use",
        -7.272169915173135
      ],
      [
        "ober",
        -7.420024668792132
      ],
      [
        "conven",
        -12.734238256923048
      ],
      [
        "mon",
        -10.037522360423699
      ],
      [
        "▁remove",
        -7.971838894142863
      ],
      [
        "▁acc",
        -8.65599519659119
      ],
      [
        "z",
        -9.606113698618241
      ],
      [
        "▁with",
        -11.91818949769743
      ],
      [
        "▁green",
        -8.39765180919198
      ],
      [
        "▁multi",
        -10.316576678661916
      ],
      [
        "pled",
        -13.191722138026522
      ],
      [
        "p",
        -7.066816683755824
      ],
      [
        "▁p",
        -7.525708461366751
      ],
      [
        "▁liter",
        -10.185323933737983
      ],
      [
        "▁trust",
        -8.12134502943936
      ],
      [
        "dience",
        -10.700328552423686
      ],
      [
        "▁manoeuvr",
        -11.773896512884706
      ],
      [
        "▁trillion",
        -11.773284495805388
      ],
      [
        "▁welcom",
        -8.031786892127375
      ],
      [
        "jiha",
        -8.768272352100917
      ],
      [
        "▁n",
        -6.624622057253102
      ],
      [
        "▁correction",
        -10.490306250374509
      ],
      [
        "elf",
        -11.328804916266929
      ],
      [
        "▁misc.consumers",
        -11.773241450512003
      ],
      [
        "▁runflat",
        -11.77331249452727
      ],
      [
        "▁reta",
        -12.832590116483138
      ],
      [
        "▁encounter",
        -10.180409228217268
      ],
      [
        "▁acce",
        -9.637752426229918
      ],
      [
        "▁thrift",
        -10.323303644670034
      ],
      [
        "▁bee",
        -8.710592654957152
      ],
      [
        "▁nai",
        -8.33499315162081
      ],
      [
        "▁repay",
        -10.378287588041374
      ],
      [
        "▁heating",
        -10.220404963220927
      ],
      [
        "▁role",
        -7.74271721583972
      ],
      [
        "▁processe",
        -11.085668024171682
      ],
      [
        "▁hur",
        -12.875150071139354
      ],
      [
        "▁etc",
        -7.831200992880532
      ],
      [
        "▁human",
        -6.556366750583185
      ],
      [
        "power",
        -10.446260930698354
      ],
      [
        "▁again",
        -5.055600915647587
      ],
      [
        "▁authoriz",
        -11.42454947504882
      ],
      [
        "▁banknote",
        -10.180531125782428
      ],
      [
        "▁pee",
        -9.708701147288654
      ],
      [
        "▁tran",
        -12.268078953968361
      ],
      [
        "▁paw",
        -11.52662772642753
      ],
      [
        "tent",
        -12.802512281496242
      ],
      [
        "▁wagin",
        -12.32488497244999
      ],
      [
        "▁murderer",
        -9.781025185561585
      ],
      [
        "▁60",
        -6.913388044232883
      ],
      [
        "▁reduce",
        -8.26761350312115
      ],
      [
        "cept",
        -10.232266352600972
      ],
      [
        "ild",
        -11.370816149807544
      ],
      [
        "ev",
        -12.690008886723534
      ],
      [
        "▁wash",
        -9.681176123281515
      ],
      [
        "m",
        -6.009894094785829
      ],
      [
        "▁y",
        -12.564790908332268
      ],
      [
        "vation",
        -11.24165283649071
      ],
      [
        "▁te",
        -12.8466697557699
      ],
      [
        "▁agent",
        -8.387891841931408
      ],
      [
        "▁parl",
        -8.16237174061261
      ],
      [
        "▁ag",
        -11.083605184455314
      ],
      [
        "▁creati",
        -7.923815891017407
      ],
      [
        "▁simil",
        -10.692619160273301
      ],
      [
        "ession",
        -7.786710879442764
      ],
      [
        "▁granddaughter",
        -10.939999625279574
      ],
      [
        "bula",
        -12.367102185403818
      ],
      [
        "▁maniac",
        -10.94003681840404
      ],
      [
        "shoppe",
        -12.862410155899076
      ],
      [
        "▁techn",
        -8.993105756611216
      ],
      [
        "▁jit",
        -10.96428259323099
      ],
      [
        "▁believer",
        -11.77365854579654
      ],
      [
        "▁basi",
        -7.871208031194959
      ],
      [
        "▁broke",
        -7.02286805861565
      ],
      [
        "morpho",
        -10.948524856973956
      ],
      [
        "▁incre",
        -7.7695118524192175
      ],
      [
        "▁lotus",
        -11.847094183844613
      ],
      [
        "▁gun",
        -8.232078290272987
      ],
      [
        "rum",
        -12.007342825730873
      ],
      [
        "▁spie",
        -12.449516266407045
      ],
      [
        "table",
        -12.334547072875399
      ],
      [
        "▁sk",
        -11.67574224680471
      ],
      [
        "▁administ",
        -12.7526729755237
      ],
      [
        "▁smil",
        -9.50237129738461
      ],
      [
        "▁someon",
        -6.931479858311979
      ],
      [
        "ous-",
        -11.779974533976803
      ],
      [
        "▁accumulate",
        -9.740560952098114
      ],
      [
        "▁189",
        -7.730817011401932
      ],
      [
        "-c",
        -12.421891983889674
      ],
      [
        "▁mo",
        -6.386859315429376
      ],
      [
        "▁disrep",
        -12.729241610533963
      ],
      [
        "▁log",
        -10.43920596343161
      ],
      [
        "▁vegetarian",
        -11.351597519982523
      ],
      [
        "elope",
        -11.834505122959582
      ],
      [
        "unda",
        -9.031100778509199
      ],
      [
        "▁stan",
        -8.635742599374034
      ],
      [
        "▁aphid",
        -11.77325873377934
      ],
      [
        "▁dam",
        -12.21469127759838
      ],
      [
        "▁80",
        -7.0989916286574335
      ],
      [
        "▁bc",
        -10.030823083387792
      ],
      [
        "▁invita",
        -12.779531189630527
      ],
      [
        "▁eight",
        -12.108491598951812
      ],
      [
        "▁complication",
        -10.689938074911442
      ],
      [
        "▁wag",
        -10.962177291167421
      ],
      [
        "hood",
        -9.003203634947324
      ],
      [
        "▁purpose",
        -8.065368813242246
      ],
      [
        "▁near",
        -8.11698388299405
      ],
      [
        "day",
        -7.523400618805456
      ],
      [
        "ather",
        -11.332906627537541
      ],
      [
        "▁orb",
        -11.94027173945902
      ],
      [
        "▁mod",
        -12.474236121500311
      ],
      [
        "view",
        -12.000493681329093
      ],
      [
        "▁write",
        -6.549067944212382
      ],
      [
        "▁apostle",
        -11.773525901880353
      ],
      [
        "▁warning",
        -9.338245119787947
      ],
      [
        "▁bench",
        -9.085775143778974
      ],
      [
        "▁wound",
        -10.491052330944665
      ],
      [
        "▁self-",
        -10.104051094292513
      ],
      [
        "▁dwell",
        -10.627852018509747
      ],
      [
        "▁along",
        -7.533964767221531
      ],
      [
        "▁slow",
        -10.823988768909054
      ],
      [
        "icult",
        -7.486055222207554
      ],
      [
        "▁dispers",
        -10.939292153018057
      ],
      [
        "▁undertake",
        -9.547930132674638
      ],
      [
        "▁th",
        -6.19741338827232
      ],
      [
        "land",
        -8.764147200610925
      ],
      [
        "▁mark",
        -8.708657835276192
      ],
      [
        "tor",
        -12.484019335357505
      ],
      [
        "▁rena",
        -8.361374910200407
      ],
      [
        "%",
        -2.8879974470677894
      ],
      [
        "▁curricul",
        -10.93991057849058
      ],
      [
        "▁photo",
        -8.632147451989086
      ],
      [
        "▁categor",
        -8.952083612651851
      ],
      [
        "▁rose",
        -9.359617140632363
      ],
      [
        "expect",
        -12.577025756911391
      ],
      [
        "▁d",
        -5.958236798378178
      ],
      [
        "▁hoop",
        -10.765548793143099
      ],
      [
        "broad",
        -8.316203435026928
      ],
      [
        "▁live",
        -6.4022916255705535
      ],
      [
        "▁earl",
        -7.23689365952583
      ],
      [
        "▁pillowcase",
        -11.778442145234433
      ],
      [
        "bald",
        -12.600075602312158
      ],
      [
        "▁sh",
        -8.782358489016376
      ],
      [
        "▁chill",
        -10.730234068604346
      ],
      [
        "▁slip",
        -10.621068442642704
      ],
      [
        "htm",
        -10.520791102268928
      ],
      [
        "▁clue",
        -10.349609316576641
      ],
      [
        "▁arrang",
        -10.40749958314272
      ],
      [
        "▁confirm",
        -8.120681179643658
      ],
      [
        "▁plu",
        -10.795417682971294
      ],
      [
        "▁tho",
        -9.772827531104562
      ],
      [
        "▁refu",
        -10.962263908151082
      ],
      [
        "ress",
        -9.707556406647404
      ],
      [
        "che",
        -11.960837310637285
      ],
      [
        "▁bare",
        -11.304030699987981
      ],
      [
        "cha",
        -12.363230634629957
      ],
      [
        "▁limousine",
        -9.395584314467003
      ],
      [
        "enter",
        -11.484597666071913
      ],
      [
        "rise",
        -11.162792124906755
      ],
      [
        "▁kansa",
        -6.814292120810255
      ],
      [
        "·",
        -9.88131015228541
      ],
      [
        "▁punctu",
        -11.463932877187496
      ],
      [
        "▁chance",
        -7.889975670985233
      ],
      [
        "▁exposure",
        -8.688481596309432
      ],
      [
        "▁engl",
        -7.8488761781715635
      ],
      [
        "▁reass",
        -12.44344266547707
      ],
      [
        "▁lev",
        -10.665075671172792
      ],
      [
        "▁pass",
        -10.017126535395127
      ],
      [
        "▁diner",
        -10.949396596862952
      ],
      [
        "▁stimul",
        -10.939910969797374
      ],
      [
        "▁bay",
        -8.310744628574387
      ],
      [
        "▁fact",
        -6.924454089578378
      ],
      [
        "▁explorer",
        -11.295948333789976
      ],
      [
        "propriation",
        -12.77312937102878
      ],
      [
        "▁famili",
        -10.311590107864205
      ],
      [
        "▁north",
        -7.051222331089209
      ],
      [
        "▁month",
        -6.619324393922985
      ],
      [
        "dk",
        -10.675292815961017
      ],
      [
        "▁boss",
        -10.0816362826284
      ],
      [
        "▁vet",
        -8.502265449203383
      ],
      [
        "▁column",
        -8.815304101675952
      ],
      [
        "▁controll",
        -9.936234030398749
      ],
      [
        "▁warm",
        -8.911216766985358
      ],
      [
        "▁po",
        -8.845977414981867
      ],
      [
        "ric",
        -10.411470317655589
      ],
      [
        "▁flutter",
        -11.459437633950406
      ],
      [
        "ed",
        -10.65285276824677
      ],
      [
        "▁reig",
        -12.864277646429397
      ],
      [
        "out",
        -8.560726202953632
      ],
      [
        "as",
        -11.470631745927642
      ],
      [
        "▁drink",
        -8.003145371128067
      ],
      [
        "▁grimace",
        -11.77329187374951
      ],
      [
        "etard",
        -12.64139967331107
      ],
      [
        "▁picture",
        -6.895166329756622
      ],
      [
        "▁niece",
        -10.489988279265123
      ],
      [
        "▁coordinat",
        -10.988616495654899
      ],
      [
        "▁interruption",
        -10.93999957944711
      ],
      [
        "▁ca",
        -9.267175867179787
      ],
      [
        "▁surface",
        -11.519452354742773
      ],
      [
        "▁streams",
        -11.000256249478682
      ],
      [
        "hunke",
        -11.612876747567238
      ],
      [
        "▁camp",
        -8.413896221185386
      ],
      [
        "▁peel",
        -10.044962425610539
      ],
      [
        "cab",
        -12.725839076565476
      ],
      [
        "▁sprit",
        -11.777809050399457
      ],
      [
        "▁clean",
        -9.673327311557426
      ],
      [
        "▁orphan",
        -10.939904996934347
      ],
      [
        "▁p.m",
        -9.466982982983273
      ],
      [
        "▁twink",
        -10.974217608451905
      ],
      [
        "▁meadow",
        -11.7734629186141
      ],
      [
        "▁1.",
        -8.06220790214843
      ],
      [
        "▁conce",
        -10.279745226660157
      ],
      [
        "▁lawsuit",
        -10.323470842922973
      ],
      [
        "ta",
        -6.746267748611715
      ],
      [
        "▁delight",
        -10.329163412381773
      ],
      [
        "|region",
        -11.773238222769702
      ],
      [
        "aime",
        -12.744920150886873
      ],
      [
        "▁comm",
        -11.629754808691539
      ],
      [
        "▁tipp",
        -11.01884519305246
      ],
      [
        "hear",
        -10.38822343366926
      ],
      [
        "▁juggl",
        -11.458772198902304
      ],
      [
        "▁supervise",
        -11.458725918223283
      ],
      [
        "d",
        -7.194719984116379
      ],
      [
        "nnis",
        -11.13236217449294
      ],
      [
        "▁overhea",
        -11.715940740869847
      ],
      [
        "▁mustach",
        -12.711747081981093
      ],
      [
        "ffle",
        -11.192215514955548
      ],
      [
        "▁interest",
        -7.287781118285221
      ],
      [
        "▁consultan",
        -12.79485588392324
      ],
      [
        "▁promote",
        -8.608173117278714
      ],
      [
        "▁regulat",
        -12.395326462365947
      ],
      [
        "▁babo",
        -12.048621872537108
      ],
      [
        "▁hipp",
        -11.789693843934593
      ],
      [
        "▁blurr",
        -10.63355714758253
      ],
      [
        "eakness",
        -11.915682554553042
      ],
      [
        "ex",
        -10.825429464747643
      ],
      [
        "▁propp",
        -10.377576722035313
      ],
      [
        "j",
        -8.67401577606719
      ],
      [
        "▁awar",
        -10.202455223389007
      ],
      [
        "▁hut",
        -10.3619111694074
      ],
      [
        "▁scholars",
        -9.102414491296708
      ],
      [
        "ient",
        -8.127031277750701
      ],
      [
        "emerge",
        -11.432132439999613
      ],
      [
        "cko",
        -11.547050694643579
      ],
      [
        "et",
        -8.789511965434535
      ],
      [
        "▁race",
        -10.09846706237936
      ],
      [
        "▁river",
        -8.090330104877932
      ],
      [
        "▁credi",
        -11.578498324613536
      ],
      [
        "▁fight",
        -7.564697244157757
      ],
      [
        "▁presume",
        -10.375832039637096
      ],
      [
        "▁herd",
        -10.99839626490315
      ],
      [
        "fica",
        -9.620643891558247
      ],
      [
        "▁feel",
        -6.135129679347383
      ],
      [
        "▁201",
        -4.629308400060953
      ],
      [
        "com",
        -7.229702869451937
      ],
      [
        "wh",
        -12.012195211060474
      ],
      [
        "wallow",
        -13.049982851821623
      ],
      [
        "i",
        -5.042364547112356
      ],
      [
        "▁decree",
        -10.183672201523445
      ],
      [
        "finger",
        -11.014285467324648
      ],
      [
        "▁vendor",
        -9.755497605628278
      ],
      [
        "f",
        -10.765301919425882
      ],
      [
        "ive",
        -9.709368993220952
      ],
      [
        "tw",
        -7.269763765037249
      ],
      [
        "ana",
        -11.553862126321507
      ],
      [
        "▁jeff",
        -7.358449266279162
      ],
      [
        "▁filter",
        -8.187676809008995
      ],
      [
        "▁african",
        -9.946103293688711
      ],
      [
        "te",
        -7.614657753910078
      ],
      [
        "r",
        -5.4322971977959815
      ],
      [
        "▁bi",
        -10.199353731952979
      ],
      [
        "▁twi",
        -10.2980134488188
      ],
      [
        "▁part",
        -10.03944651384946
      ],
      [
        "pin",
        -12.03201859780366
      ],
      [
        "▁“",
        -11.773238715956461
      ],
      [
        "▁dem",
        -10.10763504733099
      ],
      [
        "▁reserv",
        -11.540684952395322
      ],
      [
        "▁librarian",
        -9.458338943336898
      ],
      [
        "setti",
        -12.827375026604154
      ],
      [
        "▁essay",
        -10.491662228631135
      ],
      [
        "▁cent",
        -9.310483283339794
      ],
      [
        "▁hock",
        -9.957976075226146
      ],
      [
        "▁hunh",
        -7.781943751709708
      ],
      [
        "wi",
        -12.571819686086178
      ],
      [
        "20",
        -10.570013939586286
      ],
      [
        "at",
        -9.350313157665484
      ],
      [
        "movement",
        -12.245012327996209
      ],
      [
        "▁comfort",
        -11.458797740440628
      ],
      [
        "▁reassure",
        -10.175589581457132
      ],
      [
        "very",
        -7.59545012977326
      ],
      [
        "▁broomstick",
        -10.940001829166345
      ],
      [
        "▁condense",
        -11.458742506278423
      ],
      [
        "▁centur",
        -7.6909647307402835
      ],
      [
        "▁goal",
        -8.049496679750282
      ],
      [
        "▁w",
        -8.284562396628418
      ],
      [
        "gain",
        -11.872806067634126
      ],
      [
        "▁experi",
        -8.184955770473854
      ],
      [
        "▁3",
        -8.94659246165607
      ],
      [
        "▁gr",
        -12.076289944740271
      ],
      [
        "rate",
        -9.627194773452135
      ],
      [
        "▁dismisse",
        -10.088871863079307
      ],
      [
        "▁shal",
        -7.0325008928194634
      ],
      [
        "▁theme",
        -8.960797348504205
      ],
      [
        "▁litera",
        -8.978654962365784
      ],
      [
        "▁tomato",
        -9.131208665938189
      ],
      [
        "eal",
        -8.412510315749763
      ],
      [
        "▁sensi",
        -10.268645434198541
      ],
      [
        "▁cre",
        -10.522377902659244
      ],
      [
        "▁outgrow",
        -10.376057463075073
      ],
      [
        "▁prejudice",
        -10.939906505114461
      ],
      [
        "dence",
        -9.95279622386194
      ],
      [
        "▁shortage",
        -10.941290812163588
      ],
      [
        "▁organize",
        -9.11584890900788
      ],
      [
        "▁plumb",
        -12.167966794479927
      ],
      [
        "nic",
        -8.989530190194408
      ],
      [
        "ca",
        -7.141411780500674
      ],
      [
        "▁railway",
        -9.758250378911324
      ],
      [
        "▁fist",
        -10.523872249403944
      ],
      [
        "04",
        -7.6715494943736875
      ],
      [
        "▁trip",
        -6.556286257491388
      ],
      [
        "usb",
        -11.480424276160162
      ],
      [
        "lap",
        -11.720106471806801
      ],
      [
        "rate",
        -7.566553718926961
      ],
      [
        "▁dictator",
        -10.873468731890776
      ],
      [
        "rifie",
        -10.974296048216129
      ],
      [
        "▁drum",
        -10.394314234606972
      ],
      [
        "and",
        -11.257296211407963
      ],
      [
        "h-",
        -8.278533145245685
      ],
      [
        "refli",
        -12.47190633786006
      ],
      [
        "hold",
        -11.684695396075272
      ],
      [
        "▁dispute",
        -10.62732526487285
      ],
      [
        "---------------",
        -9.361054628922307
      ],
      [
        "blossom",
        -12.650855750714928
      ],
      [
        "▁where",
        -4.295607078995645
      ],
      [
        "urb",
        -8.655591935862995
      ],
      [
        "s",
        -3.4323096462437865
      ],
      [
        "▁queue",
        -10.490119575111805
      ],
      [
        "▁organis",
        -11.198838422595184
      ],
      [
        "▁sailor",
        -10.324792954098381
      ],
      [
        "▁side",
        -10.769911773370067
      ],
      [
        "▁outfit",
        -9.674209596388266
      ],
      [
        "▁no",
        -6.625414240065368
      ],
      [
        "▁inner",
        -8.565458399837306
      ],
      [
        "der",
        -7.243585232811172
      ],
      [
        "net",
        -9.760933121949268
      ],
      [
        "strate",
        -11.608350371874982
      ],
      [
        "▁discount",
        -10.625909298333575
      ],
      [
        "▁milita",
        -6.883185739735111
      ],
      [
        "▁pyramid",
        -9.946104784255317
      ],
      [
        "red",
        -10.655651802375978
      ],
      [
        "▁..........",
        -12.830818015419348
      ],
      [
        "▁unfortuna",
        -7.549589134851153
      ],
      [
        "ham",
        -8.610467280310527
      ],
      [
        "▁peac",
        -8.066977393965178
      ],
      [
        "▁me",
        -8.454964683688251
      ],
      [
        "▁sub",
        -9.65928831293427
      ],
      [
        "▁neighbo",
        -10.375392290916732
      ],
      [
        "▁pest",
        -10.341141848931654
      ],
      [
        "ustom",
        -11.579138264610778
      ],
      [
        "▁cred",
        -11.587743696482404
      ],
      [
        "suppose",
        -13.015339967674263
      ],
      [
        "▁chopp",
        -10.960065749449225
      ],
      [
        "lls",
        -11.343018346824708
      ],
      [
        "cargill",
        -8.520483983598023
      ],
      [
        "develop",
        -11.767974831596646
      ],
      [
        "▁creation",
        -8.706263701021896
      ],
      [
        "▁reference",
        -8.480109567306302
      ],
      [
        "▁confess",
        -10.375410754466792
      ],
      [
        "ke",
        -8.154521620504987
      ],
      [
        "▁constituen",
        -12.747303403987754
      ],
      [
        "ear",
        -11.971278924146118
      ],
      [
        "▁jo",
        -12.707135634762992
      ],
      [
        "motion",
        -12.79385538079971
      ],
      [
        "▁ban",
        -10.428852256605355
      ],
      [
        "▁rough",
        -11.343726185405197
      ],
      [
        "antor",
        -11.94399791872187
      ],
      [
        "it",
        -7.725689044960996
      ],
      [
        "mi",
        -10.325189490361732
      ],
      [
        "▁theodor",
        -8.143271777289872
      ],
      [
        "▁vom",
        -11.991138318949915
      ],
      [
        "▁pros",
        -10.981229712055443
      ],
      [
        "▁taper",
        -11.304980994921396
      ],
      [
        "think",
        -9.762177751474606
      ],
      [
        "▁block",
        -10.009711536990975
      ],
      [
        "▁illuminat",
        -11.458726026847794
      ],
      [
        "▁thi",
        -12.955796329054278
      ],
      [
        "▁gl",
        -12.859208214534608
      ],
      [
        "▁firm",
        -8.508222602148178
      ],
      [
        "▁experienc",
        -9.952192018245142
      ],
      [
        "▁strik",
        -11.830797178571153
      ],
      [
        "(",
        -4.690054248533107
      ],
      [
        "▁sim",
        -7.319585519843614
      ],
      [
        "ade",
        -12.386965897927887
      ],
      [
        "▁examin",
        -9.377013372104653
      ],
      [
        "▁80",
        -10.709385565490038
      ],
      [
        "about",
        -11.172965359855436
      ],
      [
        "▁where",
        -5.614914026485336
      ],
      [
        "u",
        -3.4498478262533245
      ],
      [
        "▁secret",
        -9.278404416365952
      ],
      [
        "▁bait",
        -10.519992910513892
      ],
      [
        "▁interview",
        -8.17924208247545
      ],
      [
        "▁lea",
        -6.746900389964052
      ],
      [
        "▁iodi",
        -8.825543419053687
      ],
      [
        "▁ci",
        -8.967025232636153
      ],
      [
        "0",
        -3.7401553914094876
      ],
      [
        "▁latte",
        -11.73623786187433
      ],
      [
        "▁da",
        -7.903378949837745
      ],
      [
        "4",
        -4.227577718061922
      ],
      [
        "os",
        -12.71061285681801
      ],
      [
        "▁issu",
        -10.119700466224014
      ],
      [
        "▁update",
        -8.891455276045885
      ],
      [
        "▁face",
        -7.12167712515892
      ],
      [
        "wash",
        -12.519275939100417
      ],
      [
        "▁direct",
        -7.339736906234009
      ],
      [
        "▁sil",
        -9.225254753281032
      ],
      [
        "ble",
        -5.978990578455024
      ],
      [
        "º",
        -11.273238221315822
      ],
      [
        "times",
        -8.869412531279686
      ],
      [
        "lem",
        -11.255469975257057
      ],
      [
        "▁hotdog",
        -10.940863562699159
      ],
      [
        "▁isolat",
        -11.526565329520537
      ],
      [
        "ne",
        -6.177354694321133
      ],
      [
        "▁du",
        -7.062173102212168
      ],
      [
        "▁dar",
        -11.672046232599659
      ],
      [
        "▁ornament",
        -10.940411337769689
      ],
      [
        "▁gno",
        -12.841816047598217
      ],
      [
        "apri",
        -7.84819851251211
      ],
      [
        "range",
        -7.625820424703236
      ],
      [
        "ordin",
        -12.213848939920991
      ],
      [
        "stic",
        -9.973436850468964
      ],
      [
        "▁outs",
        -12.240550687981216
      ],
      [
        "70",
        -9.533360469837348
      ],
      [
        "▁profile",
        -9.756268150149182
      ],
      [
        "case",
        -10.151792554481068
      ],
      [
        "▁end",
        -6.805747536558456
      ],
      [
        "▁islami",
        -7.93510282036169
      ],
      [
        "-",
        -11.770631529841472
      ],
      [
        "▁great",
        -10.948572917860242
      ],
      [
        "▁pale",
        -7.98914823566432
      ],
      [
        "▁sunday",
        -7.402835553955805
      ],
      [
        "do",
        -8.350532410525313
      ],
      [
        "▁goggl",
        -12.059495251201128
      ],
      [
        "▁don",
        -8.500849338239561
      ],
      [
        "▁ti",
        -9.607666466027982
      ],
      [
        "home",
        -12.828591138376943
      ],
      [
        "▁cats",
        -8.50910611875164
      ],
      [
        "▁influ",
        -12.459009517206756
      ],
      [
        "▁howl",
        -10.6542199806013
      ],
      [
        "▁195",
        -7.019339072200602
      ],
      [
        "ps",
        -11.339766023284282
      ],
      [
        "▁control",
        -7.418629095055989
      ],
      [
        "▁contact",
        -8.523823833664864
      ],
      [
        "▁(countr",
        -11.795820758815877
      ],
      [
        "▁coco",
        -9.728556677954453
      ],
      [
        "ous",
        -7.400129012987348
      ],
      [
        "▁pers",
        -11.636574970602013
      ],
      [
        "▁reflection",
        -9.672665978009473
      ],
      [
        "bers",
        -10.075381171495453
      ],
      [
        "ful",
        -10.214173596185605
      ],
      [
        "lease",
        -11.021871948138818
      ],
      [
        "▁76",
        -7.97576897519088
      ],
      [
        "▁speed",
        -10.119693680725032
      ],
      [
        "nt",
        -10.03418558761801
      ],
      [
        "▁ruinin",
        -12.36504152698939
      ],
      [
        "▁show",
        -7.720672780257837
      ],
      [
        "▁confront",
        -10.011629133664483
      ],
      [
        "▁woo",
        -10.717288508642952
      ],
      [
        "▁cop",
        -9.615313316135817
      ],
      [
        "▁713",
        -7.230148690097462
      ],
      [
        "▁cloth",
        -8.504324616228901
      ],
      [
        "▁fa",
        -8.84171575225766
      ],
      [
        "▁negat",
        -11.461298626366887
      ],
      [
        "_",
        -4.384580076550113
      ],
      [
        "▁ammoni",
        -11.27380318931329
      ],
      [
        "l",
        -6.8889135666360195
      ],
      [
        "▁celebrate",
        -10.189970557977702
      ],
      [
        "▁day",
        -5.570418310890737
      ],
      [
        "▁not",
        -9.962454232860741
      ],
      [
        "▁verse",
        -9.871386111641549
      ],
      [
        "▁secur",
        -10.280816398202107
      ],
      [
        "ful",
        -5.211743761945356
      ],
      [
        "rit",
        -9.236481563490631
      ],
      [
        "▁grand",
        -8.865357362523529
      ],
      [
        "▁recruit",
        -9.672557326637698
      ],
      [
        "hidin",
        -12.651055342070146
      ],
      [
        "value",
        -10.88086429889044
      ],
      [
        "▁sacrifice",
        -10.057091979884403
      ],
      [
        "firm",
        -8.986766505109449
      ],
      [
        "tub",
        -10.43559989470926
      ],
      [
        "▁temptation",
        -10.490005258156176
      ],
      [
        "▁walkin",
        -10.69033800269327
      ],
      [
        "▁forbid",
        -11.302661973606135
      ],
      [
        "▁posting",
        -10.353945942856104
      ],
      [
        "game",
        -11.213483061902393
      ],
      [
        "treat",
        -11.897334852427779
      ],
      [
        "▁?",
        -7.157961543371248
      ],
      [
        "▁styl",
        -12.153131088162425
      ],
      [
        "200",
        -6.130731310496135
      ],
      [
        "▁ko",
        -8.423165358806099
      ],
      [
        "▁mel",
        -12.738649504092391
      ],
      [
        "▁most",
        -5.67441530637149
      ],
      [
        "stin",
        -13.777147769717885
      ],
      [
        "ecke",
        -13.309936260228078
      ],
      [
        "▁ke",
        -10.902740966049027
      ],
      [
        "▁incite",
        -11.134728481759494
      ],
      [
        "ilate",
        -11.619455983495422
      ],
      [
        "▁qualit",
        -7.425309624645928
      ],
      [
        "▁quick",
        -6.745647669671999
      ],
      [
        "æ",
        -12.773238221315822
      ],
      [
        "▁cotton",
        -10.323301927349025
      ],
      [
        "▁sinus",
        -10.942599278732773
      ],
      [
        "want",
        -9.323151046085508
      ],
      [
        "▁assa",
        -10.982983519569265
      ],
      [
        "undra",
        -12.814195957199304
      ],
      [
        "surp",
        -11.465304750548892
      ],
      [
        "h",
        -8.179398798278543
      ],
      [
        "est",
        -5.834993291504394
      ],
      [
        "▁dilution",
        -11.773484521986923
      ],
      [
        "ips",
        -12.414121797679158
      ],
      [
        "regulate",
        -12.170228676536551
      ],
      [
        "all",
        -4.386146326760171
      ],
      [
        "▁applicant",
        -11.273268394412055
      ],
      [
        "as",
        -4.369503812218433
      ],
      [
        "▁vol",
        -10.21072209811442
      ],
      [
        "▁t",
        -7.968124772472814
      ],
      [
        "▁airline",
        -5.690089627896373
      ],
      [
        "▁encompass",
        -9.869340368750908
      ],
      [
        "▁printer",
        -10.955841773293752
      ],
      [
        "manuel",
        -8.75511960697962
      ],
      [
        "▁teas",
        -10.466909815684023
      ],
      [
        "▁dead",
        -6.792772852962086
      ],
      [
        "use",
        -9.632118715220194
      ],
      [
        "▁after",
        -9.849881886003928
      ],
      [
        "tte",
        -8.33574884813713
      ],
      [
        "▁ego",
        -11.018605064950147
      ],
      [
        "frog",
        -12.763250282272082
      ],
      [
        "▁exce",
        -12.621696470334498
      ],
      [
        "▁general",
        -6.982809582124102
      ],
      [
        "▁confuse",
        -9.869219782717705
      ],
      [
        "y",
        -2.356688656645275
      ],
      [
        "-",
        -9.206366238425398
      ],
      [
        "▁terror",
        -8.89548695744383
      ],
      [
        "▁excel",
        -11.463640883499094
      ],
      [
        "▁monster",
        -9.459342064784042
      ],
      [
        "euv",
        -12.210710988521726
      ],
      [
        "▁!!!!",
        -9.976697986141936
      ],
      [
        "▁comp",
        -10.710405558327325
      ],
      [
        "abl",
        -5.607246216433183
      ],
      [
        "kind",
        -9.832921148471623
      ],
      [
        "tivit",
        -9.492990068767353
      ],
      [
        "take",
        -10.550928183944572
      ],
      [
        "▁ahm",
        -8.775627288447303
      ],
      [
        "▁email",
        -9.283670887663895
      ],
      [
        "▁plen",
        -8.676531931936038
      ],
      [
        "worm",
        -9.532876029618881
      ],
      [
        "6",
        -4.586613867475252
      ],
      [
        "▁mate",
        -10.962691750891556
      ],
      [
        "▁exi",
        -11.014585932981865
      ],
      [
        "▁uni",
        -6.803378237432464
      ],
      [
        "▁carpe",
        -11.944378803222993
      ],
      [
        "df",
        -10.018261060085859
      ],
      [
        "▁embrac",
        -11.87195786424738
      ],
      [
        "ilk",
        -11.844480177088549
      ],
      [
        "▁variet",
        -8.922461004829273
      ],
      [
        "▁mary",
        -8.010221585186873
      ],
      [
        "▁ex",
        -8.709584803528863
      ],
      [
        "▁bomb",
        -10.33709528822132
      ],
      [
        "utter",
        -10.677340986049728
      ],
      [
        "▁wild",
        -9.021662300005024
      ],
      [
        "▁peter",
        -6.870955470039081
      ],
      [
        "▁pixel",
        -10.965900054983441
      ],
      [
        "▁thrash",
        -11.458880290136792
      ],
      [
        "▁chaser",
        -10.960060385248289
      ],
      [
        "▁terre",
        -8.899785459248099
      ],
      [
        "i",
        -6.532200686243057
      ],
      [
        "ordin",
        -12.619783966536534
      ],
      [
        "lin",
        -8.183711367389444
      ],
      [
        "▁bobb",
        -12.612195735888644
      ],
      [
        "▁misse",
        -9.445020434371589
      ],
      [
        "▁accus",
        -10.522531768736979
      ],
      [
        "▁recom",
        -11.387249267350347
      ],
      [
        "▁princess",
        -10.715371257088876
      ],
      [
        "ry",
        -5.935161893856904
      ],
      [
        "▁grandmother",
        -8.202466229537057
      ],
      [
        "▁spread",
        -8.61092097078106
      ],
      [
        "▁scar",
        -10.69003828946456
      ],
      [
        "▁neo",
        -11.9627134849096
      ],
      [
        "in",
        -6.948635492397805
      ],
      [
        "▁prevail",
        -9.534133464049791
      ],
      [
        "▁leap",
        -11.836018708695093
      ],
      [
        "▁cheap",
        -6.93449626107068
      ],
      [
        ":00",
        -6.2272021234326935
      ],
      [
        "▁earth",
        -8.08146730037077
      ],
      [
        "istan",
        -8.70070012628671
      ],
      [
        "▁super",
        -10.623064392126148
      ],
      [
        "▁lake",
        -6.699554826889792
      ],
      [
        "▁reapply",
        -11.463491235012283
      ],
      [
        "▁20",
        -10.03399058725916
      ],
      [
        "▁pedi",
        -12.793224411868021
      ],
      [
        "▁declin",
        -10.48108522121559
      ],
      [
        "▁plug",
        -9.746317983091982
      ],
      [
        "▁disagree",
        -10.011984498197961
      ],
      [
        "▁alt.animals.",
        -9.594311187649408
      ],
      [
        "▁cabbage",
        -9.755627113403676
      ],
      [
        "way",
        -8.424156877829658
      ],
      [
        "▁oz",
        -9.746872095816345
      ],
      [
        "ate",
        -8.345146874577495
      ],
      [
        "id",
        -9.512637105693496
      ],
      [
        "vir",
        -9.396149843951825
      ],
      [
        "del",
        -8.908143714241628
      ],
      [
        "▁sha",
        -12.02222437414645
      ],
      [
        "ulate",
        -12.41635584096198
      ],
      [
        "ause",
        -11.386855980541197
      ],
      [
        "rethr",
        -12.539361950785725
      ],
      [
        "▁fireplace",
        -10.061189001488597
      ],
      [
        "▁fou",
        -12.473321746833529
      ],
      [
        "▁harris",
        -8.596390851244903
      ],
      [
        "▁illusion",
        -10.323352974530728
      ],
      [
        "▁dealership",
        -10.180968943307139
      ],
      [
        "▁fruit",
        -8.753586520270884
      ],
      [
        "▁jacket",
        -9.336799605821227
      ],
      [
        "▁gul",
        -9.817737099681002
      ],
      [
        "phil",
        -12.028194131431583
      ],
      [
        "▁support",
        -7.330211589948614
      ],
      [
        "▁pe",
        -10.776425122448485
      ],
      [
        "migrate",
        -11.257419354409215
      ],
      [
        "ink",
        -12.259670747741996
      ],
      [
        "▁sur",
        -9.604882865240622
      ],
      [
        "predict",
        -12.64953787839986
      ],
      [
        "▁blood",
        -8.88841293054746
      ],
      [
        "iv",
        -11.20418361392029
      ],
      [
        "▁symbolize",
        -10.175392290114882
      ],
      [
        "attle",
        -12.642555388460236
      ],
      [
        "▁area",
        -6.597397996189123
      ],
      [
        "▁better",
        -10.625803936107097
      ],
      [
        "▁bask",
        -11.035832233991156
      ],
      [
        "ambi",
        -10.336485298138452
      ],
      [
        "drive",
        -13.553908357723378
      ],
      [
        "▁inst",
        -8.455893289655085
      ],
      [
        "rabilit",
        -11.911284799167245
      ],
      [
        "▁sonnet",
        -9.457883004910975
      ],
      [
        "▁b",
        -7.312066243997634
      ],
      [
        "▁.......",
        -13.318608259993672
      ],
      [
        "!!!!!!!!!!!!!!",
        -12.258495128023615
      ],
      [
        "▁gum",
        -9.89093645924753
      ],
      [
        "▁sh",
        -10.403440650539778
      ],
      [
        "▁punche",
        -12.011043947984145
      ],
      [
        "camp",
        -12.386170711721451
      ],
      [
        "cente",
        -12.1063412122276
      ],
      [
        "▁flor",
        -11.35132054652587
      ],
      [
        "▁forecast",
        -10.323261697784549
      ],
      [
        "▁et",
        -11.721885834597366
      ],
      [
        "pper",
        -11.93264842610417
      ],
      [
        "▁300",
        -7.5026181035617086
      ],
      [
        "dr.",
        -7.458582487074492
      ],
      [
        "ntry",
        -11.505959191713913
      ],
      [
        "ivate",
        -8.30544793868032
      ],
      [
        "▁tray",
        -9.487127299296208
      ],
      [
        "stroke",
        -12.70874836185576
      ],
      [
        "▁reco",
        -11.924224303209021
      ],
      [
        "▁enter",
        -7.664202702451771
      ],
      [
        "▁lik",
        -9.853819912027465
      ],
      [
        "▁romantic",
        -10.940072768157385
      ],
      [
        "▁retire",
        -9.444789595873507
      ],
      [
        "▁rag",
        -11.652246509335459
      ],
      [
        "trapp",
        -10.009966073003353
      ],
      [
        "▁as",
        -5.1827083301970625
      ],
      [
        "dill",
        -12.250317429487273
      ],
      [
        "▁becom",
        -9.051990026645438
      ],
      [
        "▁11:3",
        -7.687100656441155
      ],
      [
        "▁soph",
        -11.70969277433867
      ],
      [
        "▁picnic",
        -9.94602809131198
      ],
      [
        "mmy",
        -8.542721506216154
      ],
      [
        "▁elevator",
        -8.849933841185155
      ],
      [
        "▁sport",
        -8.589273587626643
      ],
      [
        "work",
        -10.687594356335081
      ],
      [
        "even",
        -8.949931987993839
      ],
      [
        "▁view",
        -8.258169616922892
      ],
      [
        "▁eggs",
        -7.942445074499696
      ],
      [
        "rase",
        -9.841279050172883
      ],
      [
        "▁rotati",
        -12.066981572468492
      ],
      [
        "▁lan",
        -8.612399515106066
      ],
      [
        "▁east",
        -7.460011636561008
      ],
      [
        "▁social",
        -6.614955515202298
      ],
      [
        "▁study",
        -7.4287601947056805
      ],
      [
        "▁administrat",
        -9.846468678136414
      ],
      [
        "▁drill",
        -11.461401565134762
      ],
      [
        "note",
        -11.917223447960083
      ],
      [
        "▁713-853-3",
        -7.430279499064863
      ],
      [
        "▁germinat",
        -11.458839699644116
      ],
      [
        "▁record",
        -7.560625084791284
      ],
      [
        "▁perpet",
        -12.458768170745595
      ],
      [
        "▁blin",
        -12.732187393581308
      ],
      [
        "vere",
        -12.178866016467433
      ],
      [
        "▁shi",
        -8.212771638578904
      ],
      [
        "▁burrow",
        -10.37549242892569
      ],
      [
        "eman",
        -12.983628275007725
      ],
      [
        "add",
        -11.331096065203447
      ],
      [
        "▁bout",
        -11.317144953534234
      ],
      [
        "er",
        -6.470632969663979
      ],
      [
        "▁dal",
        -9.986478844713101
      ],
      [
        "being",
        -10.560723666659772
      ],
      [
        ":",
        -12.773238221275909
      ],
      [
        "este",
        -11.381547626355374
      ],
      [
        "▁far",
        -5.853635313577881
      ],
      [
        "ts",
        -13.777480956780607
      ],
      [
        "▁swam",
        -11.538198907689118
      ],
      [
        "▁pencil",
        -7.97361500213906
      ],
      [
        "▁command",
        -10.62548692865132
      ],
      [
        "▁fresh",
        -10.50154538243678
      ],
      [
        "lla",
        -10.885029329436774
      ],
      [
        "▁be",
        -5.640815374565242
      ],
      [
        "▁character",
        -8.080757029938628
      ],
      [
        "▁defeat",
        -9.024964534526536
      ],
      [
        "avern",
        -11.194224615770526
      ],
      [
        "▁reprisal",
        -11.773291275436428
      ],
      [
        "umor",
        -13.467052836313018
      ],
      [
        "▁bumble",
        -10.323255411916037
      ],
      [
        "▁des",
        -11.521768099225937
      ],
      [
        "▁short",
        -6.594763792945896
      ],
      [
        "▁hon",
        -12.027403339765764
      ],
      [
        "dependenc",
        -10.277711774761494
      ],
      [
        "quino",
        -8.779177159805705
      ],
      [
        "gyp",
        -8.381088382835582
      ],
      [
        "▁invitation",
        -9.336984962858002
      ],
      [
        "▁cpi",
        -11.295097704707626
      ],
      [
        "▁ha",
        -4.961582746137713
      ],
      [
        "▁will",
        -10.62729298170865
      ],
      [
        "▁move",
        -6.640303779448729
      ],
      [
        "ty",
        -7.973812938011873
      ],
      [
        "▁over",
        -8.492208141243934
      ],
      [
        "emble",
        -11.67749983180755
      ],
      [
        "ee",
        -12.636215525118
      ],
      [
        "ti",
        -5.501925538707063
      ],
      [
        "pane",
        -7.941965455979306
      ],
      [
        "▁_",
        -6.548517509263308
      ],
      [
        "▁sall",
        -8.434627805737035
      ],
      [
        "▁progress",
        -10.725716655126355
      ],
      [
        "nflict",
        -12.458749779392624
      ],
      [
        "led",
        -8.383114608161554
      ],
      [
        "st",
        -12.50667684532212
      ],
      [
        "▁oop",
        -8.87023140230395
      ],
      [
        "ft",
        -6.965664792887015
      ],
      [
        "ocit",
        -11.949031837158797
      ],
      [
        "se",
        -10.437721176173627
      ],
      [
        "▁dentist",
        -9.524376183187178
      ],
      [
        "▁reject",
        -9.212291352067611
      ],
      [
        "▁92",
        -7.859465669343722
      ],
      [
        "▁185",
        -7.780257981405974
      ],
      [
        "▁among",
        -7.2254285659457125
      ],
      [
        "herself",
        -11.97634857643032
      ],
      [
        "umn",
        -10.032389288389753
      ],
      [
        "board",
        -8.32544795341964
      ],
      [
        "isal",
        -11.152769363944259
      ],
      [
        "▁recreat",
        -10.70394653736732
      ],
      [
        "▁fred",
        -7.8904347155719
      ],
      [
        "▁affl",
        -12.78207290277383
      ],
      [
        "▁short",
        -8.507369351158612
      ],
      [
        "pin",
        -13.182092437491459
      ],
      [
        "word",
        -10.46017843993914
      ],
      [
        "▁locate",
        -8.166922333003015
      ],
      [
        "promotion",
        -12.582023639194396
      ],
      [
        "x",
        -12.039036616560043
      ],
      [
        "▁flood",
        -10.177454305959017
      ],
      [
        "▁iodise",
        -9.633679491367857
      ],
      [
        "▁199",
        -5.317256283957202
      ],
      [
        "▁tha",
        -7.359273592220826
      ],
      [
        "▁apologize",
        -9.762707262774777
      ],
      [
        "▁",
        -0.7082085629404791
      ],
      [
        "▁spin",
        -9.968969027101274
      ],
      [
        "▁slid",
        -8.839298793469695
      ],
      [
        "rocit",
        -10.710316653371596
      ],
      [
        "▁upd",
        -12.100385584027702
      ],
      [
        "▁sailboat",
        -11.273529651192032
      ],
      [
        "man",
        -8.112913573171591
      ],
      [
        "▁go",
        -6.738425845394443
      ],
      [
        "▁sac",
        -12.263586325744027
      ],
      [
        "watch",
        -10.765199654747857
      ],
      [
        "ed",
        -2.876766076595114
      ],
      [
        "▁tent",
        -8.867953393120562
      ],
      [
        "▁fina",
        -7.557620854095129
      ],
      [
        "▁relativi",
        -10.289886126210229
      ],
      [
        "be",
        -10.797699139960514
      ],
      [
        "60",
        -12.577850097129675
      ],
      [
        "▁pod",
        -11.976630275010226
      ],
      [
        "form",
        -11.395355659374236
      ],
      [
        "opening",
        -12.508183191672638
      ],
      [
        "▁forgive",
        -9.870023808661216
      ],
      [
        "st",
        -8.5879014982926
      ],
      [
        "ry",
        -11.042172365720145
      ],
      [
        "stil",
        -8.348057439792251
      ],
      [
        "▁sue",
        -8.538466605104793
      ],
      [
        "▁far",
        -10.042072282142673
      ],
      [
        "▁g",
        -7.867685406503381
      ],
      [
        "▁donut",
        -11.775009183783949
      ],
      [
        "▁weasley",
        -7.869133281846521
      ],
      [
        "wikihow",
        -8.399266911201764
      ],
      [
        "▁physicist",
        -10.940210219682374
      ],
      [
        "appear",
        -11.253735669220204
      ],
      [
        "high",
        -11.542052305540492
      ],
      [
        "affe",
        -12.340640645841114
      ],
      [
        "ched",
        -9.337331019732819
      ],
      [
        "min",
        -11.597313169916275
      ],
      [
        "line",
        -10.53283153023056
      ],
      [
        "▁nat",
        -8.983100514700261
      ],
      [
        "ord",
        -11.394201178837596
      ],
      [
        "▁delegate",
        -10.328841656473417
      ],
      [
        "▁download",
        -9.761589825058374
      ],
      [
        "▁blood",
        -8.339393517935303
      ],
      [
        "▁breyer",
        -11.273432749078406
      ],
      [
        "▁aw",
        -7.781751081820624
      ],
      [
        "▁journey",
        -9.281267373368276
      ],
      [
        "▁culture",
        -7.73483781681748
      ],
      [
        "re",
        -8.421918623493923
      ],
      [
        "▁irritate",
        -10.625395056527775
      ],
      [
        "▁ph.",
        -11.281989900072375
      ],
      [
        "salt",
        -12.109758837808627
      ],
      [
        "othe",
        -12.588082962991344
      ],
      [
        "▁contribut",
        -10.048690260992384
      ],
      [
        "▁tactic",
        -9.946013463539868
      ],
      [
        "▁endowment",
        -11.27324267599731
      ],
      [
        "▁invoic",
        -12.703192731104867
      ],
      [
        "▁diffi",
        -8.082073235062827
      ],
      [
        "▁advance",
        -9.410256147462524
      ],
      [
        "bread",
        -10.718329168015483
      ],
      [
        "bee",
        -11.646203875626798
      ],
      [
        "▁sack",
        -12.112345530577002
      ],
      [
        "▁detach",
        -11.461195332297889
      ],
      [
        "▁supplement",
        -10.625392290116027
      ],
      [
        "▁youtube",
        -8.246791234859803
      ],
      [
        "▁de",
        -6.58338535255037
      ],
      [
        "late",
        -12.328277479335043
      ],
      [
        "iri",
        -7.788725658436585
      ],
      [
        "ber",
        -10.72929608415001
      ],
      [
        "▁hurtle",
        -12.149816063411112
      ],
      [
        "▁reconstruct",
        -11.45909287375497
      ],
      [
        "▁practic",
        -9.55323179377999
      ],
      [
        "ails",
        -12.391266840340556
      ],
      [
        "▁anger",
        -10.96032010950291
      ],
      [
        "▁socks",
        -9.153188260913874
      ],
      [
        "▁interrogation",
        -11.774226273045887
      ],
      [
        "▁allocate",
        -9.462375263949822
      ],
      [
        "▁single",
        -10.493120075640373
      ],
      [
        "tome",
        -12.438250994878477
      ],
      [
        "▁align",
        -10.649491315103514
      ],
      [
        "▁j",
        -7.426812924944986
      ],
      [
        "▁fuck",
        -10.176534600256034
      ],
      [
        "▁indulge",
        -10.818112787769977
      ],
      [
        "nfluence",
        -12.777713126307738
      ],
      [
        "▁traveler",
        -9.238452198833778
      ],
      [
        "▁tapp",
        -10.63256093317306
      ],
      [
        "ct",
        -8.65754613974467
      ],
      [
        "▁law",
        -7.2598499240689
      ],
      [
        "▁whistle",
        -10.180425717776298
      ],
      [
        "abb",
        -11.709150505837615
      ],
      [
        "number",
        -10.71200110335635
      ],
      [
        "trolle",
        -12.868045634629576
      ],
      [
        "like",
        -8.617602280843219
      ],
      [
        "onl",
        -8.282522629199118
      ],
      [
        "▁close",
        -9.463172932684817
      ],
      [
        "rist",
        -8.976309858788342
      ],
      [
        "event",
        -12.09337551530703
      ],
      [
        "friends",
        -12.247270374119779
      ],
      [
        "▁optimize",
        -11.458814787491649
      ],
      [
        "▁m",
        -7.008065295960894
      ],
      [
        "t",
        -2.4878868855370015
      ],
      [
        "door",
        -11.692830046909126
      ],
      [
        "ton",
        -10.510765967236939
      ],
      [
        "▁smoker",
        -11.045456967294708
      ],
      [
        "k",
        -6.32039397337508
      ],
      [
        "▁plan",
        -7.528176920835979
      ],
      [
        "▁seri",
        -10.463090792849542
      ],
      [
        "▁toe",
        -9.522374601824131
      ],
      [
        "employ",
        -12.066892588806851
      ],
      [
        "▁zi",
        -12.41515420165874
      ],
      [
        "▁provis",
        -12.770018917350084
      ],
      [
        "▁smell",
        -9.042462093066334
      ],
      [
        "▁reside",
        -9.93463575750513
      ],
      [
        "▁table",
        -7.304289068729122
      ],
      [
        "▁degree",
        -8.474383785385243
      ],
      [
        "▁score",
        -9.00844982301112
      ],
      [
        "▁hire",
        -8.685795281176249
      ],
      [
        "ional",
        -9.434176183838066
      ],
      [
        "▁han",
        -12.600718760385357
      ],
      [
        "▁prize",
        -11.459438033746402
      ],
      [
        "▁bel",
        -7.316235749878892
      ],
      [
        "▁measurement",
        -10.499994791347813
      ],
      [
        "▁group",
        -9.455178163551826
      ],
      [
        "ea",
        -5.383019325135234
      ],
      [
        "icken",
        -10.990812951251096
      ],
      [
        "▁outnumber",
        -11.458856809085784
      ],
      [
        "ppe",
        -11.656594409540231
      ],
      [
        "ck",
        -10.640762823743703
      ],
      [
        "rup",
        -9.988314415214312
      ],
      [
        "▁manufacture",
        -10.211414166369446
      ],
      [
        "▁muss",
        -12.261868927477838
      ],
      [
        "tuate",
        -10.367907249689209
      ],
      [
        "▁ninet",
        -7.939123113709581
      ],
      [
        "nishment",
        -11.934120925171475
      ],
      [
        "olog",
        -10.108335192677966
      ],
      [
        "▁bel",
        -11.31708184418211
      ],
      [
        "lit",
        -11.065421257410287
      ],
      [
        "▁replac",
        -9.526070890111471
      ],
      [
        "ters",
        -10.13887979609364
      ],
      [
        "cam",
        -9.914933689913788
      ],
      [
        "si",
        -12.218134196249304
      ],
      [
        "▁exposition",
        -11.778447245764308
      ],
      [
        "▁matter",
        -8.916816432592363
      ],
      [
        "ings",
        -10.153254184681437
      ],
      [
        "endi",
        -10.243672828300106
      ],
      [
        "orn",
        -11.73895730492082
      ],
      [
        "▁organisation",
        -9.765998561497891
      ],
      [
        "rod",
        -10.717950917236367
      ],
      [
        "oo",
        -12.771529110249816
      ],
      [
        "buil",
        -13.074853535422008
      ],
      [
        "▁direction",
        -8.387534300394506
      ],
      [
        "▁expand",
        -8.318777532004205
      ],
      [
        "▁revert",
        -10.641857501640272
      ],
      [
        "▁squa",
        -11.696780923739382
      ],
      [
        "▁fitt",
        -11.602059620877242
      ],
      [
        "▁sidewalk",
        -10.323615875832926
      ],
      [
        "▁jewel",
        -10.49079534458328
      ],
      [
        "nsit",
        -12.325107582038497
      ],
      [
        "▁building",
        -7.897988882917701
      ],
      [
        "▁opene",
        -8.749317240528171
      ],
      [
        "rabbit",
        -11.501610557846249
      ],
      [
        "▁barrier",
        -10.18061640479264
      ],
      [
        "her",
        -11.026842601000084
      ],
      [
        "inc",
        -7.751841047967409
      ],
      [
        "speci",
        -6.56809779980563
      ],
      [
        "mount",
        -11.328585340909575
      ],
      [
        "▁telescope",
        -10.489963624495255
      ],
      [
        "tibi",
        -12.817401457275006
      ],
      [
        "▁for",
        -3.676327704226436
      ],
      [
        "l",
        -2.7651899767306247
      ],
      [
        "▁div",
        -11.182849954654431
      ],
      [
        "▁dirt",
        -7.284134994020468
      ],
      [
        "▁seiz",
        -11.213799515612722
      ],
      [
        "he",
        -7.549205452271606
      ],
      [
        "▁professional",
        -9.22965234931517
      ],
      [
        "▁vac",
        -12.70738834070751
      ],
      [
        "▁chicken",
        -7.442935352051131
      ],
      [
        "▁doubl",
        -10.32467420684891
      ],
      [
        "▁si",
        -9.931510496578673
      ],
      [
        "▁peer",
        -10.526115900729813
      ],
      [
        "▁jump",
        -9.396024242150647
      ],
      [
        "▁march",
        -9.848951494700733
      ],
      [
        "▁we",
        -8.230838646883242
      ],
      [
        "▁temperature",
        -8.575996805559363
      ],
      [
        "▁spec",
        -8.91096170366148
      ],
      [
        "▁final",
        -10.08726768172686
      ],
      [
        "▁mous",
        -8.749483973778261
      ],
      [
        "▁hesitat",
        -12.231293577042205
      ],
      [
        "ies",
        -5.171136561543107
      ],
      [
        "▁balanc",
        -11.267405534357685
      ],
      [
        "▁lands",
        -11.96367657754994
      ],
      [
        "an",
        -8.608414501622391
      ],
      [
        "onde",
        -12.462393078084517
      ],
      [
        "▁mu",
        -7.392537216598347
      ],
      [
        "▁ch",
        -8.44727492275506
      ],
      [
        "▁disgu",
        -10.643982062415022
      ],
      [
        "▁companion",
        -9.757471274229285
      ],
      [
        "clip",
        -12.227171494262423
      ],
      [
        "▁sleeper",
        -11.938575129127258
      ],
      [
        "4",
        -11.925660239071421
      ],
      [
        "▁tw",
        -3.110490919801345
      ],
      [
        "sort",
        -10.636178946038308
      ],
      [
        "dia",
        -7.541339966809506
      ],
      [
        "▁rooster",
        -10.691025603495595
      ],
      [
        "8/200",
        -8.2038310229638
      ],
      [
        "ba",
        -8.523275629336801
      ],
      [
        "▁color",
        -8.334045194202366
      ],
      [
        "esthetic",
        -9.948531574654258
      ],
      [
        "▁texti",
        -11.255008952938633
      ],
      [
        "▁advance",
        -8.497636070024178
      ],
      [
        "▁reinforce",
        -10.457313139922562
      ],
      [
        "▁ramp",
        -10.958758907108562
      ],
      [
        "develope",
        -13.312147796120716
      ],
      [
        "bus",
        -10.77118645952888
      ],
      [
        "plish",
        -12.559896550755498
      ],
      [
        "y",
        -4.5693853521597925
      ],
      [
        "▁moham",
        -8.36780944230569
      ],
      [
        "di",
        -8.690586142430135
      ],
      [
        "o'",
        -8.671607900995484
      ],
      [
        "▁łodz",
        -8.341234963105235
      ],
      [
        "▁power",
        -8.263787687301997
      ],
      [
        "▁wo",
        -7.267365822071614
      ],
      [
        "▁launch",
        -8.712884229565555
      ],
      [
        "▁question",
        -6.949917183701416
      ],
      [
        "struct",
        -13.36061203270127
      ],
      [
        "bles",
        -8.35751510088154
      ],
      [
        "▁base",
        -6.930850999991949
      ],
      [
        "▁yellow",
        -6.965176970186363
      ],
      [
        "r.",
        -7.136724162657938
      ],
      [
        "mult",
        -9.768295112794508
      ],
      [
        "▁coa",
        -12.850998176084715
      ],
      [
        "bye",
        -10.11527048386122
      ],
      [
        "lois",
        -8.711413512538568
      ],
      [
        "ntenance",
        -10.226227705566144
      ],
      [
        "dden",
        -9.234145617308972
      ],
      [
        "▁react",
        -9.643493041644607
      ],
      [
        "▁gods",
        -11.097440325407694
      ],
      [
        "▁skydiv",
        -11.773964127969188
      ],
      [
        "▁jumb",
        -12.069335727519643
      ],
      [
        "round",
        -12.740919831599365
      ],
      [
        "▁moth",
        -10.507662615322317
      ],
      [
        "▁affair",
        -8.749777430992225
      ],
      [
        "▁patriot",
        -11.273238532370797
      ],
      [
        "▁fla",
        -11.545524471220354
      ],
      [
        "▁context",
        -8.474541872629535
      ],
      [
        "▁minister",
        -9.086022475632657
      ],
      [
        "close",
        -12.025328790119419
      ],
      [
        "▁exemption",
        -11.773869007416163
      ],
      [
        "▁asset",
        -9.09245478106449
      ],
      [
        "▁breeze",
        -10.489937079175757
      ],
      [
        "▁symbol",
        -9.5955631244746
      ],
      [
        "▁11/29/",
        -8.077802986029326
      ],
      [
        "adl",
        -9.920162975848275
      ],
      [
        "▁objectiv",
        -11.518477797814278
      ],
      [
        "▁clamo",
        -11.5053583932475
      ],
      [
        "cure",
        -12.495049452366064
      ],
      [
        "▁",
        -1.2052669954522912
      ],
      [
        "▁bas",
        -8.497951332467174
      ],
      [
        "port",
        -11.908727639636957
      ],
      [
        "▁raiser",
        -11.276761337726036
      ],
      [
        "fel",
        -11.953301592077409
      ],
      [
        "▁individual",
        -8.52402295162673
      ],
      [
        "rizon",
        -8.73394345956947
      ],
      [
        "▁nutri",
        -10.22297684819386
      ],
      [
        "▁crom",
        -7.7478749589033615
      ],
      [
        "awn",
        -11.709645951733062
      ],
      [
        "ge",
        -7.976918852020567
      ],
      [
        "moon",
        -11.557386609586693
      ],
      [
        "▁chose",
        -8.649066045350407
      ],
      [
        "▁wi",
        -10.73011299306763
      ],
      [
        "▁bogg",
        -11.510613039598727
      ],
      [
        "▁majorit",
        -8.575905871770058
      ],
      [
        "man",
        -6.863842658812744
      ],
      [
        "!!!!!!!",
        -11.238141621059212
      ],
      [
        "ra",
        -8.8217200948464
      ],
      [
        "▁portfolio",
        -11.773818677446846
      ],
      [
        "n",
        -3.9840298251398396
      ],
      [
        "▁hr",
        -10.887977235561804
      ],
      [
        "▁intell",
        -8.838304803692107
      ],
      [
        "▁tourist",
        -8.365996894970621
      ],
      [
        "be",
        -8.597054455590966
      ],
      [
        "▁wheel",
        -8.360626001869564
      ],
      [
        "▁leadership",
        -9.17990678758106
      ],
      [
        "fi",
        -8.088029578901322
      ],
      [
        "fte",
        -7.907968627874423
      ],
      [
        "▁har",
        -8.702449984832002
      ],
      [
        "▁colla",
        -10.239051829138909
      ],
      [
        "ids",
        -12.122393385017228
      ],
      [
        "▁im",
        -11.546928329488
      ],
      [
        "▁butt",
        -9.669410054379066
      ],
      [
        "▁cry",
        -9.6868007515796
      ],
      [
        "▁cor",
        -10.749413686738622
      ],
      [
        "▁virgi",
        -8.718575409495907
      ],
      [
        "▁vint",
        -10.3257370755724
      ],
      [
        "▁mer",
        -8.378431018539425
      ],
      [
        "gravi",
        -10.725743712008326
      ],
      [
        "▁exci",
        -10.21755506269328
      ],
      [
        "stand",
        -11.446854822601518
      ],
      [
        "along",
        -10.452772586670008
      ],
      [
        "▁signal",
        -9.969560408441588
      ],
      [
        "load",
        -10.183461646189357
      ],
      [
        "+",
        -11.925660239071421
      ],
      [
        "▁petti",
        -10.91985853233929
      ],
      [
        "$",
        -11.380685289420022
      ],
      [
        "thirtie",
        -12.643974299635047
      ],
      [
        "▁anno",
        -11.668778258844252
      ],
      [
        "tastic",
        -7.836222454254486
      ],
      [
        "▁silver",
        -8.888410470530754
      ],
      [
        "▁rad",
        -11.023343816538008
      ],
      [
        "▁reestablish",
        -11.464415947895905
      ],
      [
        "erland",
        -8.661773685310711
      ],
      [
        "▁reverse",
        -10.135070957496014
      ],
      [
        "▁floor",
        -7.307180754751581
      ],
      [
        "▁expire",
        -9.633637099111574
      ],
      [
        "arriage",
        -9.73562235618961
      ],
      [
        "▁verifie",
        -10.375418645198057
      ],
      [
        "▁nest",
        -9.174715586920634
      ],
      [
        "▁amplifi",
        -11.458725625027231
      ],
      [
        "ertise",
        -11.708040651865225
      ],
      [
        "▁be",
        -6.418192732652731
      ],
      [
        "talk",
        -11.543605450705478
      ],
      [
        "▁vot",
        -10.234130492254568
      ],
      [
        "tiv",
        -8.853404550889614
      ],
      [
        "fence",
        -10.038967385829542
      ],
      [
        "▁excuse",
        -9.672781139954473
      ],
      [
        "ip",
        -11.210235743343448
      ],
      [
        "▁na",
        -8.448417859262777
      ],
      [
        "▁spirit",
        -8.849776359993832
      ],
      [
        "▁mathematic",
        -8.81556127111695
      ],
      [
        "▁infuse",
        -10.176457402288275
      ],
      [
        "▁p",
        -6.041044992314117
      ],
      [
        "ld",
        -13.665114895021633
      ],
      [
        "▁ra",
        -10.421010936307129
      ],
      [
        "▁addition",
        -8.2814604691631
      ],
      [
        "▁appl",
        -11.323585989125288
      ],
      [
        "uddle",
        -10.866970427971099
      ],
      [
        "ifi",
        -13.399601421096282
      ],
      [
        "▁claim",
        -7.677906900628578
      ],
      [
        "▁blue",
        -6.5873585788894955
      ],
      [
        "▁p",
        -9.237570785962834
      ],
      [
        "ural",
        -7.5258585411169365
      ],
      [
        "▁expl",
        -10.567895266003909
      ],
      [
        "ucki",
        -10.274417932843773
      ],
      [
        "et",
        -8.520137268692363
      ],
      [
        "▁altho",
        -5.5250653344630365
      ],
      [
        "▁viol",
        -9.440360612929661
      ],
      [
        "dall",
        -8.561949833514461
      ],
      [
        "▁leak",
        -10.82542857621719
      ],
      [
        "▁humo",
        -10.273256740335412
      ],
      [
        "▁overlap",
        -11.795178365743567
      ],
      [
        "▁dep",
        -12.436950373133385
      ],
      [
        "▁aspiration",
        -10.491772681794624
      ],
      [
        "▁trademark",
        -11.458889552925358
      ],
      [
        "▁compare",
        -8.265165019192352
      ],
      [
        "▁acknowledge",
        -8.931292194758996
      ],
      [
        "f",
        -11.770631529841472
      ],
      [
        "rigi",
        -12.165814929529999
      ],
      [
        "▁confession",
        -11.774222768684233
      ],
      [
        "▁s",
        -7.3226938615224135
      ],
      [
        "ph",
        -8.666761212929913
      ],
      [
        "i",
        -4.816322795425341
      ],
      [
        "▁plague",
        -10.690222386598663
      ],
      [
        "▁alternat",
        -10.694671788128444
      ],
      [
        "▁poll",
        -12.465405961663341
      ],
      [
        "▁souv",
        -12.78452675462261
      ],
      [
        "▁purse",
        -11.517008931316965
      ],
      [
        "▁jet",
        -10.374902252935996
      ],
      [
        "fl",
        -11.037866440374595
      ],
      [
        "▁grumbl",
        -12.159698758910075
      ],
      [
        "▁allude",
        -11.458826571574066
      ],
      [
        "v",
        -11.925660239071421
      ],
      [
        "▁guardian",
        -10.68995204192436
      ],
      [
        "▁bowl",
        -7.963580400683718
      ],
      [
        "▁comedie",
        -10.118930437853813
      ],
      [
        "sion",
        -9.728064924537982
      ],
      [
        "gma",
        -11.706199733201636
      ],
      [
        "▁on",
        -2.700071180263146
      ],
      [
        "▁politic",
        -9.343696220970248
      ],
      [
        "▁hall",
        -8.282839086883019
      ],
      [
        "▁cata",
        -11.492329408571035
      ],
      [
        "bedien",
        -11.433691521387365
      ],
      [
        "▁whe",
        -11.304023993356395
      ],
      [
        "▁passenger",
        -9.17895244881194
      ],
      [
        "▁marker",
        -10.78695290074634
      ],
      [
        "▁follow",
        -9.940168946128914
      ],
      [
        "▁argue",
        -8.347926044747924
      ],
      [
        "▁disc",
        -11.380702105787037
      ],
      [
        "▁pronounce",
        -9.800645510080413
      ],
      [
        "▁conf",
        -10.06410972927479
      ],
      [
        "mock",
        -11.952027240724725
      ],
      [
        "keep",
        -10.818600329767133
      ],
      [
        "plane",
        -10.53378464970045
      ],
      [
        "fe",
        -9.264869618385895
      ],
      [
        "▁calculation",
        -9.78452951762091
      ],
      [
        "hu",
        -7.662703892624274
      ],
      [
        "▁snow",
        -8.485608213939331
      ],
      [
        "▁mosquito",
        -9.000931247044475
      ],
      [
        "▁twa",
        -7.598795238109675
      ],
      [
        "▁home",
        -7.733616494262922
      ],
      [
        "t.",
        -11.848771535697455
      ],
      [
        "▁fil",
        -9.800267382549963
      ],
      [
        "ef",
        -12.225927782885059
      ],
      [
        "▁crave",
        -10.62800230167974
      ],
      [
        "v",
        -7.189853336756621
      ],
      [
        "▁mel",
        -11.084326188964445
      ],
      [
        "▁audience",
        -8.523934640451568
      ],
      [
        "▁trouble",
        -7.959237548392241
      ],
      [
        "nter",
        -11.454348008674199
      ],
      [
        "▁non",
        -8.674722093820106
      ],
      [
        "▁inquir",
        -9.524281857111704
      ],
      [
        "▁coloniz",
        -10.76207607636782
      ],
      [
        "▁frank",
        -11.273967797309293
      ],
      [
        "▁ka",
        -8.121822124318559
      ],
      [
        "rs.",
        -11.010117481999483
      ],
      [
        "▁anemone",
        -10.323240114980283
      ],
      [
        "▁cracker",
        -9.187891041647026
      ],
      [
        ",",
        -12.303800120175861
      ],
      [
        "▁centr",
        -11.822531320738634
      ],
      [
        "▁hairpin",
        -11.275277934904697
      ],
      [
        "▁tr",
        -10.379080276393601
      ],
      [
        "o",
        -4.218861851373661
      ],
      [
        "▁mi",
        -9.264144163054697
      ],
      [
        "•",
        -12.810278406305976
      ],
      [
        "▁rope",
        -9.607577470997306
      ],
      [
        "▁language",
        -6.962798351709503
      ],
      [
        "demic",
        -10.559631154519879
      ],
      [
        "▁twee",
        -11.488521037985791
      ],
      [
        "roxim",
        -12.592037192268702
      ],
      [
        "break",
        -13.301193423833343
      ],
      [
        "▁tod",
        -12.220220823079165
      ],
      [
        "▁com",
        -9.713280606713065
      ],
      [
        "7",
        -10.4853736718033
      ],
      [
        "▁wel",
        -5.239750120745514
      ],
      [
        "current",
        -12.590322283832256
      ],
      [
        "how",
        -10.210297899064251
      ],
      [
        "▁per",
        -6.408765002859662
      ],
      [
        "▁bor",
        -11.176976442538841
      ],
      [
        "▁ra",
        -10.480508036471226
      ],
      [
        "▁inter",
        -9.716854702644248
      ],
      [
        "▁brushe",
        -12.003883863710389
      ],
      [
        "▁doct",
        -10.505406337345125
      ],
      [
        "o",
        -6.877907499943204
      ],
      [
        "dron",
        -10.628356097627078
      ],
      [
        "off",
        -9.980675388468486
      ],
      [
        "energy",
        -8.378129278546217
      ],
      [
        "▁trace",
        -10.717160728374063
      ],
      [
        "▁shed",
        -9.766014879456211
      ],
      [
        "▁producer",
        -9.0950091158134
      ],
      [
        "▁burner",
        -11.277288738371773
      ],
      [
        "hurt",
        -12.602858857053779
      ],
      [
        "▁dropp",
        -8.034717269481467
      ],
      [
        "▁7",
        -5.116752489530166
      ],
      [
        "▁stress",
        -9.869189717662753
      ],
      [
        "voca",
        -11.528561256868338
      ],
      [
        "▁t",
        -7.45890416965616
      ],
      [
        "▁retain",
        -9.534887694485032
      ],
      [
        "▁richard",
        -7.523390134936683
      ],
      [
        "▁i",
        -8.414006726853913
      ],
      [
        "▁vig",
        -11.361804259565929
      ],
      [
        "▁sw",
        -10.222204216209015
      ],
      [
        "secute",
        -12.070799575112392
      ],
      [
        "ail",
        -5.888541626445163
      ],
      [
        "lement",
        -11.922283265401367
      ],
      [
        "▁bala",
        -12.088892501460252
      ],
      [
        "▁sociali",
        -11.775209729021519
      ],
      [
        "resting",
        -12.809185410692479
      ],
      [
        "nny",
        -8.32615197308062
      ],
      [
        "▁bec",
        -3.613577850939203
      ],
      [
        "▁outr",
        -11.013938267093296
      ],
      [
        "▁ada",
        -12.018090015874165
      ],
      [
        "▁vis",
        -11.537214229573413
      ],
      [
        "▁sake",
        -9.356432067852039
      ],
      [
        "▁ja",
        -8.460252308955084
      ],
      [
        "▁damag",
        -10.934116978233876
      ],
      [
        "▁incident",
        -9.756270811897663
      ],
      [
        "n",
        -2.772310985610549
      ],
      [
        "▁angel",
        -10.180786591358201
      ],
      [
        "▁local",
        -10.517729790304555
      ],
      [
        "▁mop",
        -12.517571288500049
      ],
      [
        "▁rifle",
        -10.055400426038057
      ],
      [
        "▁consen",
        -10.3623215507744
      ],
      [
        "▁wea",
        -10.862787046391801
      ],
      [
        "▁liv",
        -7.570239989097203
      ],
      [
        "enti",
        -9.138469515775558
      ],
      [
        "ddy",
        -5.879950562827224
      ],
      [
        "▁cluster",
        -10.940164397687605
      ],
      [
        "▁citizen",
        -9.556580177370197
      ],
      [
        "nic",
        -12.62657139082082
      ],
      [
        "▁res",
        -11.726415804460142
      ],
      [
        "roll",
        -10.104053663897513
      ],
      [
        "▁dive",
        -12.689422565787854
      ],
      [
        "▁whe",
        -10.364538209245893
      ],
      [
        "▁ac",
        -10.393516477022443
      ],
      [
        "▁hiss",
        -11.084614010500765
      ],
      [
        "apping",
        -12.035231124839749
      ],
      [
        "▁eatin",
        -11.00932500495928
      ],
      [
        "order",
        -10.786333523389494
      ],
      [
        "▁pers",
        -11.810106915167326
      ],
      [
        "▁illustration",
        -10.940217106714694
      ],
      [
        "characterisation",
        -11.807090547386132
      ],
      [
        "rest",
        -11.26401640120802
      ],
      [
        "pen",
        -11.94796635250969
      ],
      [
        "agne",
        -10.94373416598323
      ],
      [
        "ham",
        -12.701888663622503
      ],
      [
        "▁cancel",
        -8.969339575900687
      ],
      [
        "igu",
        -12.539247222754025
      ],
      [
        "ologi",
        -7.274968840286015
      ],
      [
        "▁lin",
        -11.545292672408488
      ],
      [
        "▁poet",
        -8.509221116818596
      ],
      [
        "ador",
        -12.090002499179596
      ],
      [
        "▁deem",
        -9.891283968357795
      ],
      [
        "▁plural",
        -12.538293108890407
      ],
      [
        "▁gla",
        -10.500243206036425
      ],
      [
        "▁fung",
        -11.51406341193439
      ],
      [
        "▁intens",
        -8.68512790491527
      ],
      [
        "▁suppos",
        -9.779375281842084
      ],
      [
        "▁glamo",
        -10.490650691485621
      ],
      [
        "▁soo",
        -11.932922535819028
      ],
      [
        "▁crash",
        -9.67402830676878
      ],
      [
        "▁hor",
        -9.95358957895803
      ],
      [
        "▁net",
        -9.365535381669474
      ],
      [
        "▁counteract",
        -11.458838176913352
      ],
      [
        "▁deci",
        -11.385392324841801
      ],
      [
        "▁recipient",
        -9.04260054685182
      ],
      [
        "▁proposal",
        -8.033931738534285
      ],
      [
        "▁saturday",
        -7.409242645257988
      ],
      [
        "▁wonder",
        -7.394909470106592
      ],
      [
        "finish",
        -13.174655498450068
      ],
      [
        "operate",
        -12.19807333807505
      ],
      [
        "▁singer",
        -10.498280035618226
      ],
      [
        "eligi",
        -7.624587910342548
      ],
      [
        "▁showe",
        -11.576348090839172
      ],
      [
        "u",
        -8.070949385963766
      ],
      [
        "felines.",
        -12.073326483198473
      ],
      [
        "val",
        -10.828108258203471
      ],
      [
        "▁nerd",
        -11.276638545393805
      ],
      [
        "▁halt",
        -10.672903277357474
      ],
      [
        "legal",
        -11.227378246964719
      ],
      [
        "▁blind",
        -11.459685735387469
      ],
      [
        "▁inflate",
        -11.050208361260458
      ],
      [
        "▁compet",
        -10.16034970579836
      ],
      [
        "▁biod",
        -11.16908270496312
      ],
      [
        "▁cp",
        -11.291192365463894
      ],
      [
        "quilli",
        -12.76775473686913
      ],
      [
        "tak",
        -10.428216044294754
      ],
      [
        "▁peg",
        -11.222188259146359
      ],
      [
        "40",
        -11.085695331253563
      ],
      [
        "▁schema",
        -9.229313119302322
      ],
      [
        "▁major",
        -10.179514710544819
      ],
      [
        "ensel",
        -10.180292012063134
      ],
      [
        "▁clothespin",
        -10.940512914989537
      ],
      [
        "▁leader",
        -8.15777341703211
      ],
      [
        "_",
        -4.6553638775550565
      ],
      [
        "hours",
        -8.081722167131367
      ],
      [
        "ummy",
        -11.312564183616635
      ],
      [
        "believe",
        -11.67442656142327
      ],
      [
        "▁formal",
        -12.815714635320056
      ],
      [
        "▁offer",
        -6.973364069203792
      ],
      [
        "▁mush",
        -12.850183752476605
      ],
      [
        "▁d",
        -4.918347704636542
      ],
      [
        "▁produc",
        -10.850259609154476
      ],
      [
        "st",
        -4.586035877960723
      ],
      [
        "the",
        -7.024914228420359
      ],
      [
        "▁trial",
        -8.727659836008137
      ],
      [
        "▁clo",
        -11.029219302223288
      ],
      [
        "river",
        -12.117633814908139
      ],
      [
        "▁squea",
        -12.46633556498446
      ],
      [
        "▁exp",
        -12.92506516075333
      ],
      [
        "▁hash",
        -10.947717690533505
      ],
      [
        "▁mountain",
        -8.278648658838396
      ],
      [
        "▁mud",
        -9.549341066770332
      ],
      [
        "▁translation",
        -8.961253188815629
      ],
      [
        "'",
        -10.921696721123718
      ],
      [
        "▁purchase",
        -9.232205464995952
      ],
      [
        "▁indu",
        -12.68058148673612
      ],
      [
        "ze",
        -8.811857515278177
      ],
      [
        "etention",
        -11.50049966661567
      ],
      [
        "▁hurt",
        -7.0391796372335245
      ],
      [
        "gger",
        -8.718789962494801
      ],
      [
        "trust",
        -11.411699013203263
      ],
      [
        "▁'",
        -6.425214222828882
      ],
      [
        "▁fan",
        -8.171227595709313
      ],
      [
        "ize",
        -10.360224280629454
      ],
      [
        "▁sp",
        -9.473672967638658
      ],
      [
        "▁numb",
        -11.269295601869539
      ],
      [
        "lock",
        -7.9723614036922115
      ],
      [
        "ses",
        -12.24356076108323
      ],
      [
        "ard",
        -8.753210973336145
      ],
      [
        "veil",
        -12.470601958119387
      ],
      [
        "pair",
        -12.386482566090997
      ],
      [
        "▁hi",
        -7.87038307567777
      ],
      [
        "▁hippop",
        -10.058104809336058
      ],
      [
        "▁other",
        -4.5395040691075765
      ],
      [
        "woul",
        -7.186489786394996
      ],
      [
        "thousand",
        -12.245396997248578
      ],
      [
        "▁forge",
        -11.220133968126738
      ],
      [
        "▁publish",
        -11.769261703677113
      ],
      [
        "problem",
        -12.334158736690298
      ],
      [
        "▁elbow",
        -9.75538329794551
      ],
      [
        "▁open",
        -6.700602120712368
      ],
      [
        "ag",
        -10.713557176827779
      ],
      [
        "tagon",
        -10.758959847538513
      ],
      [
        "▁)",
        -8.967339649659891
      ],
      [
        "minister",
        -12.458454643749906
      ],
      [
        "contractor",
        -12.618127748990368
      ],
      [
        "surf",
        -11.741327145546709
      ],
      [
        "▁superst",
        -11.57793978835037
      ],
      [
        "side",
        -6.036964273039711
      ],
      [
        "▁lol",
        -7.00934076015975
      ],
      [
        "80",
        -7.8524943517199395
      ],
      [
        "▁grant",
        -9.541649099794551
      ],
      [
        "▁calorie",
        -10.180442802938423
      ],
      [
        "w",
        -10.416994930697198
      ],
      [
        "▁sussex",
        -10.055421602867717
      ],
      [
        "▁key",
        -8.14409345474584
      ],
      [
        "s",
        -3.328190644063051
      ],
      [
        "▁orange",
        -9.043908174332815
      ],
      [
        "▁co-op",
        -11.748710984259699
      ],
      [
        "▁app",
        -9.748224075741756
      ],
      [
        "▁la",
        -10.226751921871536
      ],
      [
        "2/200",
        -7.94025564642595
      ],
      [
        "▁prett",
        -8.028456882690731
      ],
      [
        "nt",
        -7.926099267872553
      ],
      [
        "▁drums",
        -11.15551395485286
      ],
      [
        "▁zoom",
        -11.372545313197962
      ],
      [
        "▁slant",
        -11.471616151319813
      ],
      [
        "▁gram",
        -10.758391127624334
      ],
      [
        "push",
        -12.789939063697936
      ],
      [
        "▁navigat",
        -12.045782792871076
      ],
      [
        "▁plott",
        -10.635998005245568
      ],
      [
        "▁program",
        -7.676112551427601
      ],
      [
        "▁plan",
        -8.307157985587114
      ],
      [
        "▁sampl",
        -11.187002919896356
      ],
      [
        "▁maca",
        -9.398793096173772
      ],
      [
        "▁kid",
        -9.769011734440525
      ],
      [
        "▁junk",
        -9.775193164213752
      ],
      [
        "▁lid",
        -10.251715857878107
      ],
      [
        "journalis",
        -12.771634111500392
      ],
      [
        "▁work",
        -6.08027060229216
      ],
      [
        "▁forget",
        -7.8047061598920475
      ],
      [
        "▁traffic",
        -8.54954229394655
      ],
      [
        "▁aspect",
        -8.183977282006383
      ],
      [
        "▁met",
        -8.87832772491401
      ],
      [
        "painting",
        -12.331893385394933
      ],
      [
        "▁worship",
        -9.841259622262125
      ],
      [
        "▁quick",
        -7.724878777853267
      ],
      [
        "mosa",
        -12.315328143894462
      ],
      [
        "▁pois",
        -11.070801805211996
      ],
      [
        "▁extension",
        -9.756282613702744
      ],
      [
        "born",
        -8.955840068694501
      ],
      [
        "▁groan",
        -10.375972410080676
      ],
      [
        "entil",
        -11.87127684135269
      ],
      [
        "▁i",
        -7.352216322514234
      ],
      [
        "lines",
        -9.485874622998882
      ],
      [
        "ef",
        -11.725790258395246
      ],
      [
        "▁chrom",
        -10.33389944442734
      ],
      [
        "▁for",
        -8.51897157612412
      ],
      [
        "▁steward",
        -11.77233878930749
      ],
      [
        "w",
        -6.333928096726785
      ],
      [
        "▁attorney",
        -9.17888094416049
      ],
      [
        "▁chi",
        -10.956539909869925
      ],
      [
        "e",
        -3.5477792367651215
      ],
      [
        "perate",
        -12.36514720973961
      ],
      [
        "▁flag-",
        -11.779796896229108
      ],
      [
        "▁prioritise",
        -10.658666968828605
      ],
      [
        "▁constru",
        -12.460251914752757
      ],
      [
        "▁finaliz",
        -10.632792941184837
      ],
      [
        "▁scoot",
        -11.308062772251148
      ],
      [
        "▁an",
        -7.6141925973417885
      ],
      [
        "▁waterway",
        -10.577893835929572
      ],
      [
        "▁novelist",
        -9.673745455140859
      ],
      [
        "▁notice",
        -8.718714541371739
      ],
      [
        "▁reg",
        -8.561505855911198
      ],
      [
        "▁pri",
        -8.425519063319243
      ],
      [
        "▁press",
        -8.694795303775445
      ],
      [
        "▁fine",
        -9.17096915012598
      ],
      [
        "!!!",
        -8.681878390748498
      ],
      [
        ")",
        -10.48990488798249
      ],
      [
        "eat",
        -8.359058933190482
      ],
      [
        "▁journalis",
        -12.25219584057007
      ],
      [
        "start",
        -11.085274568306424
      ],
      [
        "▁**",
        -12.566425383930483
      ],
      [
        "record",
        -11.948331134052824
      ],
      [
        "▁minds",
        -10.181220124222822
      ],
      [
        "▁cherry",
        -10.974158044959868
      ],
      [
        "▁lapp",
        -10.981229196825101
      ],
      [
        "▁193",
        -8.163952698419175
      ],
      [
        "ostage",
        -12.771765793411232
      ],
      [
        "▁summ",
        -10.59033662189267
      ],
      [
        "18",
        -7.911211141822167
      ],
      [
        "cast",
        -11.223498300950036
      ],
      [
        "os",
        -11.13636828648121
      ],
      [
        "ninet",
        -12.781389812133176
      ],
      [
        "zone",
        -9.74182072802225
      ],
      [
        "▁bump",
        -9.283223577838324
      ],
      [
        "▁bank",
        -8.350157719342327
      ],
      [
        "▁waver",
        -11.588742718563834
      ],
      [
        "▁pseudonym",
        -10.689905159515858
      ],
      [
        "▁jolt",
        -11.458932705343795
      ],
      [
        "▁knight",
        -9.656232911395469
      ],
      [
        "bath",
        -12.780812989061783
      ],
      [
        "▁dose",
        -9.359066803177493
      ],
      [
        "▁mag",
        -13.349543010389974
      ],
      [
        "eport",
        -11.428827932357395
      ],
      [
        "arm",
        -10.622733502795473
      ],
      [
        "▁deduction",
        -11.277166131348142
      ],
      [
        "drop",
        -11.22259077900091
      ],
      [
        "▁flexibil",
        -12.772155003771681
      ],
      [
        "▁touch",
        -8.885503615487849
      ],
      [
        "k",
        -6.263707711466564
      ],
      [
        "lande",
        -12.437091890013587
      ],
      [
        "▁'",
        -10.176771164961686
      ],
      [
        "evit",
        -12.799353814215872
      ],
      [
        "▁const",
        -8.648488649529945
      ],
      [
        "osom",
        -11.359862751467714
      ],
      [
        "▁chal",
        -12.667036319763548
      ],
      [
        "▁separat",
        -10.065088249422697
      ],
      [
        "▁prais",
        -11.844505618917488
      ],
      [
        "model",
        -12.36884801261973
      ],
      [
        "▁bal",
        -10.702784049364046
      ],
      [
        "▁sensation",
        -10.498163079541897
      ],
      [
        "▁beard",
        -9.376128979565502
      ],
      [
        "▁inten",
        -10.557065631662253
      ],
      [
        "▁latin",
        -8.981739572321317
      ],
      [
        "▁birthday",
        -7.552945947523569
      ],
      [
        "m",
        -4.954919790462547
      ],
      [
        "h",
        -5.561550694199753
      ],
      [
        "▁leav",
        -12.484109188719167
      ],
      [
        "▁spill",
        -8.918939825192812
      ],
      [
        "▁repair",
        -9.288645750649827
      ],
      [
        "▁du",
        -12.003092633390311
      ],
      [
        "ember",
        -6.199609196682592
      ],
      [
        "▁travel",
        -8.403827925793594
      ],
      [
        "▁compose",
        -9.919159873909146
      ],
      [
        "▁appar",
        -12.451210521259751
      ],
      [
        "▁hav",
        -4.47068279899715
      ],
      [
        "▁shad",
        -11.685882619115588
      ],
      [
        "▁stampede",
        -10.489911071006114
      ],
      [
        "▁determin",
        -10.754640365992348
      ],
      [
        "▁elect",
        -12.651995828682576
      ],
      [
        "▁transfer",
        -9.228781223834197
      ],
      [
        "▁woo",
        -11.016576585201502
      ],
      [
        "frighten",
        -12.390224401098646
      ],
      [
        "▁ba",
        -9.810970998698211
      ],
      [
        "▁shove",
        -10.398867040825182
      ],
      [
        "▁substanti",
        -8.139267034687753
      ],
      [
        "▁limit",
        -9.843470076072217
      ],
      [
        "▁back",
        -8.43778236464935
      ],
      [
        "▁street",
        -7.817149434523229
      ],
      [
        "▁clun",
        -11.637628332936673
      ],
      [
        "▁par",
        -8.955352051088164
      ],
      [
        "▁younge",
        -8.36751820915536
      ],
      [
        "▁sigh",
        -10.151819997786745
      ],
      [
        "mark",
        -11.624983236971703
      ],
      [
        "gration",
        -12.02618603045394
      ],
      [
        "realis",
        -12.544339408414073
      ],
      [
        "▁coordinat",
        -9.228468045995193
      ],
      [
        "ept",
        -7.217695514232073
      ],
      [
        "---------",
        -11.379442948397053
      ],
      [
        "size",
        -10.322464044988806
      ],
      [
        "per",
        -12.466656066095815
      ],
      [
        "▁integ",
        -12.642652491633275
      ],
      [
        "abet",
        -11.956095007270289
      ],
      [
        "▁mature",
        -10.375526164268171
      ],
      [
        "le",
        -7.288360568497718
      ],
      [
        "▁tribunal",
        -11.77324270039335
      ],
      [
        "▁golf",
        -10.055645249424009
      ],
      [
        "▁contractor",
        -10.203143352953969
      ],
      [
        "▁pasture",
        -10.944574572339274
      ],
      [
        "▁consequence",
        -8.885754305197231
      ],
      [
        "▁horror",
        -9.457732822278063
      ],
      [
        "▁pang",
        -11.530518385895844
      ],
      [
        "▁grandson",
        -11.274340723634197
      ],
      [
        "ther",
        -8.47414026107005
      ],
      [
        "et",
        -9.871479119652989
      ],
      [
        "fuge",
        -11.778766632259403
      ],
      [
        "▁env",
        -11.66329287189726
      ],
      [
        "fax",
        -12.343267606709404
      ],
      [
        "smoke",
        -12.44249883758424
      ],
      [
        "▁offering",
        -10.979438205713418
      ],
      [
        "odifie",
        -12.651924068136733
      ],
      [
        "▁harp",
        -10.518785283372713
      ],
      [
        "pay",
        -10.47071048642956
      ],
      [
        "▁glo",
        -11.995090105480978
      ],
      [
        "▁partisans",
        -11.84773375654517
      ],
      [
        "▁census",
        -9.672678990844322
      ],
      [
        "▁assist",
        -10.372103845330432
      ],
      [
        "▁evaluate",
        -9.962341700948702
      ],
      [
        "▁genital",
        -10.703850128887401
      ],
      [
        "ne",
        -8.843921880900673
      ],
      [
        "▁livelihood",
        -11.273261062310542
      ],
      [
        "▁sh",
        -8.669118777967453
      ],
      [
        "vice",
        -10.965582601446334
      ],
      [
        "which",
        -9.187918605841523
      ],
      [
        "▁root",
        -10.63104711627929
      ],
      [
        "▁republic",
        -8.515213982154068
      ],
      [
        "pot",
        -13.49908422933258
      ],
      [
        "▁crap",
        -9.77025305539043
      ],
      [
        "▁heir",
        -11.275507188505152
      ],
      [
        "vices",
        -12.405258443705558
      ],
      [
        "▁swo",
        -11.54528728872802
      ],
      [
        "repo",
        -10.303844163125708
      ],
      [
        "lamb",
        -12.383550672885923
      ],
      [
        "▁solve",
        -9.079268602044394
      ],
      [
        "▁tower",
        -8.889977295455719
      ],
      [
        "▁67",
        -8.185023713770967
      ],
      [
        "▁yours",
        -8.946628168237133
      ],
      [
        "▁lime",
        -10.100163789644508
      ],
      [
        "▁war",
        -7.004022894271219
      ],
      [
        "▁fou",
        -12.092601626211474
      ],
      [
        "care",
        -9.722923762405065
      ],
      [
        "▁gym",
        -9.130547536897677
      ],
      [
        "▁garden",
        -8.183935169491496
      ],
      [
        "▁pollutant",
        -11.274228911792834
      ],
      [
        "▁pete",
        -8.89243594738301
      ],
      [
        "▁bl",
        -10.674846000548172
      ],
      [
        "▁grain",
        -9.536128138630984
      ],
      [
        "ult",
        -10.88065893289338
      ],
      [
        "▁beatle",
        -8.424777107674224
      ],
      [
        "h",
        -4.6934243343720325
      ],
      [
        "co",
        -7.935002140716888
      ],
      [
        "par",
        -11.867739522695942
      ],
      [
        "▁negotiat",
        -9.933354710211157
      ],
      [
        "acco",
        -13.660594394584255
      ],
      [
        "orie",
        -12.763145414833907
      ],
      [
        "▁bio",
        -10.13224263484617
      ],
      [
        "▁tuesday",
        -7.675941055183223
      ],
      [
        "[CLS]",
        0.0
      ],
      [
        "▁worry",
        -8.610892468635155
      ],
      [
        "back",
        -8.500899665186376
      ],
      [
        "▁disse",
        -11.034224327219743
      ],
      [
        "▁compet",
        -8.513554706630579
      ],
      [
        "ug",
        -9.374652433782213
      ],
      [
        "lie",
        -11.926210206863955
      ],
      [
        "▁.",
        -6.602433684213669
      ],
      [
        "yout",
        -11.009352760246419
      ],
      [
        "▁in",
        -3.238740417683939
      ],
      [
        "▁prediction",
        -10.691311670153937
      ],
      [
        "vey",
        -13.564727574736574
      ],
      [
        "▁detect",
        -9.868983059034266
      ],
      [
        "stocks",
        -10.695434541382031
      ],
      [
        "▁fin",
        -7.13921038761765
      ],
      [
        "▁prosecution",
        -10.489942363947321
      ],
      [
        "▁sex",
        -8.75987391885574
      ],
      [
        "▁bun",
        -9.568657790649363
      ],
      [
        "ril",
        -8.028467496550498
      ],
      [
        "▁inside",
        -9.46233372822567
      ],
      [
        "▁coloni",
        -10.764754888105097
      ],
      [
        "▁cousin",
        -9.672364013953313
      ],
      [
        "▁p",
        -8.027474020344874
      ],
      [
        "▁sun",
        -7.973576176043491
      ],
      [
        "▁stagger",
        -10.958828837059231
      ],
      [
        "▁pac",
        -12.501920185866485
      ],
      [
        "wer",
        -12.806298565968685
      ],
      [
        "▁secession",
        -12.774266436033804
      ],
      [
        "▁lower",
        -7.7163377428889
      ],
      [
        "arking",
        -11.015643339900588
      ],
      [
        "plant",
        -11.33456672053842
      ],
      [
        "ification",
        -9.804323195113946
      ],
      [
        "▁quest",
        -10.347505463394782
      ],
      [
        "handle",
        -11.91690741041936
      ],
      [
        "▁pollute",
        -11.923203611451704
      ],
      [
        "ffix",
        -11.009414808399981
      ],
      [
        "ar",
        -7.075727222635783
      ],
      [
        "’",
        -6.26611087511166
      ],
      [
        "wed",
        -10.904320067038988
      ],
      [
        "ssor",
        -10.178124532335026
      ],
      [
        "lai",
        -10.21681616222041
      ],
      [
        "▁def",
        -10.515031584064436
      ],
      [
        "oot",
        -10.638484927662859
      ],
      [
        "▁canape",
        -11.773653979859759
      ],
      [
        "them",
        -7.937344547440428
      ],
      [
        "ibble",
        -11.541763344407954
      ],
      [
        "▁mang",
        -11.309723590523356
      ],
      [
        "▁sigh",
        -11.78028889025272
      ],
      [
        "pl",
        -6.972522733030323
      ],
      [
        "▁amendm",
        -12.783249588627697
      ],
      [
        "stand",
        -8.589805936338662
      ],
      [
        "▁layo",
        -9.92935422874201
      ],
      [
        "▁lend",
        -11.113109144964287
      ],
      [
        "▁ref",
        -12.010201031870443
      ],
      [
        "<",
        -7.228670777278908
      ],
      [
        "cocka",
        -12.633942094225496
      ],
      [
        "▁illustrat",
        -11.057078282894564
      ],
      [
        "▁conceit",
        -11.77382910535629
      ],
      [
        "▁doubt",
        -9.444180129155395
      ],
      [
        "ff",
        -11.034497354071057
      ],
      [
        "▁wagon",
        -9.67278126368973
      ],
      [
        "▁campus",
        -9.758087247688
      ],
      [
        "▁palm",
        -9.759048448170056
      ],
      [
        "▁ram",
        -10.98218638398967
      ],
      [
        "▁profit",
        -11.469148367791874
      ],
      [
        "▁cho",
        -13.15419898715337
      ],
      [
        "rape",
        -10.596337787120666
      ],
      [
        "▁quad",
        -12.779920296576595
      ],
      [
        "b",
        -6.1504537306829885
      ],
      [
        "▁electric",
        -8.139933260520376
      ],
      [
        "▁com",
        -6.276845960926167
      ],
      [
        "food",
        -10.397954772528095
      ],
      [
        "dogs",
        -10.797442309338217
      ],
      [
        "▁reali",
        -12.442591325228664
      ],
      [
        "ar",
        -7.063891730229105
      ],
      [
        "▁standing",
        -9.96128360713446
      ],
      [
        "▁brand",
        -9.755638823312832
      ],
      [
        "▁obstacle",
        -9.595734501796436
      ],
      [
        "how",
        -8.956604690235753
      ],
      [
        "▁possib",
        -10.940131659809238
      ],
      [
        "▁has",
        -5.672018519169682
      ],
      [
        "▁advertis",
        -9.58376947766967
      ],
      [
        "definition",
        -12.402740686441833
      ],
      [
        "▁fl",
        -8.818865307513212
      ],
      [
        "▁intermedia",
        -11.665710247448379
      ],
      [
        "mize",
        -12.522981998760924
      ],
      [
        "▁sna",
        -13.566461583132623
      ],
      [
        "bec",
        -13.785715091892921
      ],
      [
        "ami",
        -6.63353394711418
      ],
      [
        "ard",
        -7.61827400544645
      ],
      [
        "▁intruder",
        -11.273381791620182
      ],
      [
        "▁nineteenth",
        -11.2744814501075
      ],
      [
        "▁adjustment",
        -9.846827574472663
      ],
      [
        "▁alert",
        -10.323375570190784
      ],
      [
        "versa",
        -9.980082852855903
      ],
      [
        "draw",
        -11.672862997787204
      ],
      [
        "caution",
        -10.328264783254713
      ],
      [
        "▁ex",
        -8.575693622915823
      ],
      [
        "▁practica",
        -8.347963481362292
      ],
      [
        "▁sourc",
        -11.046339799991284
      ],
      [
        "▁die",
        -7.499057144464232
      ],
      [
        "trophy",
        -10.494416176685263
      ],
      [
        "▁authors",
        -9.912445648409062
      ],
      [
        "▁owner",
        -7.94184271276679
      ],
      [
        "▁hoa",
        -12.751971971044622
      ],
      [
        "▁reput",
        -12.797508916351132
      ],
      [
        "sm",
        -12.138742632596612
      ],
      [
        "cit",
        -9.264774206758755
      ],
      [
        "gan",
        -9.10983211249284
      ],
      [
        "▁uh",
        -4.032163193927326
      ],
      [
        "fend",
        -12.072974762405764
      ],
      [
        "▁hunt",
        -9.693248667149044
      ],
      [
        "nda",
        -9.9328019592379
      ],
      [
        "▁build",
        -10.67755664056882
      ],
      [
        "▁craw",
        -10.694225727566819
      ],
      [
        "nk",
        -8.193469548464432
      ],
      [
        "was",
        -6.42545466381976
      ],
      [
        "ace",
        -9.70819145519672
      ],
      [
        "▁f",
        -7.542955063202751
      ],
      [
        "▁step",
        -7.500447223510241
      ],
      [
        "`",
        -11.770631529841472
      ],
      [
        "▁rud",
        -10.317784421723584
      ],
      [
        "azi",
        -10.247679963147757
      ],
      [
        "▁beginner",
        -10.489905153091858
      ],
      [
        "lotter",
        -12.29883401306242
      ],
      [
        "▁securit",
        -7.58584200619922
      ],
      [
        "licit",
        -10.625532979131632
      ],
      [
        "▁pine",
        -10.361247039061237
      ],
      [
        "▁sub-",
        -11.280182868402571
      ],
      [
        "larize",
        -12.484467118551853
      ],
      [
        "given",
        -11.077891013645178
      ],
      [
        "▁neighborhood",
        -9.179155149044018
      ],
      [
        "▁ai",
        -9.99601562682949
      ],
      [
        "▁alter",
        -11.304461476052012
      ],
      [
        "▁include",
        -7.061085876825674
      ],
      [
        "ant",
        -9.705066811911864
      ],
      [
        "eep",
        -8.863321435627396
      ],
      [
        "▁mr",
        -7.5468010258703115
      ],
      [
        "vial",
        -11.124411868705417
      ],
      [
        "otes",
        -11.97014237596557
      ],
      [
        "▁bounc",
        -11.790541527185884
      ],
      [
        "▁shr",
        -11.088704860684437
      ],
      [
        "▁bate",
        -12.870433726585112
      ],
      [
        "▁excuse",
        -9.212314087949528
      ],
      [
        "▁half-",
        -11.458726100983025
      ],
      [
        "ris",
        -10.068491460748167
      ],
      [
        "ette",
        -10.746931498525743
      ],
      [
        "▁crocodil",
        -11.273238357818816
      ],
      [
        "got",
        -10.98607480809809
      ],
      [
        "ef",
        -8.469686858664986
      ],
      [
        "▁bat",
        -10.307725546008989
      ],
      [
        "▁employer",
        -10.353066626984232
      ],
      [
        "icure",
        -12.849968579034266
      ],
      [
        "ourage",
        -11.24646502946496
      ],
      [
        "ives",
        -11.269073460891848
      ],
      [
        "oena",
        -11.290414901956236
      ],
      [
        "melan",
        -11.309628384014552
      ],
      [
        "▁tea",
        -7.967814506621621
      ],
      [
        "formulate",
        -10.62542919896698
      ],
      [
        "rm",
        -12.756968228937879
      ],
      [
        "ran",
        -11.033837865383152
      ],
      [
        "cur",
        -9.90752379917128
      ],
      [
        "derma",
        -11.671368412853791
      ],
      [
        "▁quarte",
        -12.8619200986294
      ],
      [
        "lers",
        -11.545267716934934
      ],
      [
        "▁newsletter",
        -11.779166333162104
      ],
      [
        "▁orienta",
        -12.772257334279923
      ],
      [
        "cur",
        -11.270242979365195
      ],
      [
        "▁bacteri",
        -11.275107225589467
      ],
      [
        "▁revolution",
        -9.337509000075785
      ],
      [
        "▁eat",
        -5.6316209781590745
      ],
      [
        "▁proceed",
        -8.649307116413167
      ],
      [
        "train",
        -11.182836783130263
      ],
      [
        "thes",
        -8.344899422662623
      ],
      [
        "▁extensi",
        -8.616793546727472
      ],
      [
        "▁sacri",
        -12.787730263254957
      ],
      [
        "cup",
        -11.247449447933134
      ],
      [
        "▁wav",
        -9.772682585420625
      ],
      [
        "ster",
        -8.61687065932258
      ],
      [
        "com",
        -11.679968184142846
      ],
      [
        "▁scramble",
        -11.773248069396184
      ],
      [
        "attache",
        -13.13486942534589
      ],
      [
        "▁allerg",
        -11.273621860096844
      ],
      [
        "formation",
        -6.36703874890915
      ],
      [
        "▁boundar",
        -10.323684323994277
      ],
      [
        "sing",
        -8.958472041191225
      ],
      [
        "h",
        -8.082311726515218
      ],
      [
        "ven",
        -11.70381445684044
      ],
      [
        "▁dive",
        -11.858097781372535
      ],
      [
        "▁programme",
        -11.458725623696708
      ],
      [
        "▁flop",
        -11.4092439338293
      ],
      [
        "▁as",
        -11.43905333553121
      ],
      [
        "awah",
        -8.061104799145513
      ],
      [
        "itin",
        -11.41111184505871
      ],
      [
        "▁isla",
        -12.855889669043576
      ],
      [
        "▁amount",
        -7.241425596764254
      ],
      [
        "▁coupon",
        -9.598351765452334
      ],
      [
        "▁disrupt",
        -10.0115220461553
      ],
      [
        "▁prov",
        -11.093960690710121
      ],
      [
        "▁delay",
        -10.177329925685466
      ],
      [
        "lay",
        -11.202396336496204
      ],
      [
        "▁to",
        -4.828081713777489
      ],
      [
        "▁spaces",
        -11.557032473960929
      ],
      [
        "▁pursu",
        -11.787009547697316
      ],
      [
        "stle",
        -12.730490493414482
      ],
      [
        "▁smuggl",
        -11.11373529962717
      ],
      [
        "▁farmland",
        -11.77853307486321
      ],
      [
        "▁grumble",
        -11.273238533788472
      ],
      [
        "▁lisa_",
        -10.940145094141991
      ],
      [
        "▁bard",
        -11.44802850354491
      ],
      [
        "▁scar",
        -9.416393743772574
      ],
      [
        "▁simulat",
        -10.942543664762079
      ],
      [
        "▁scree",
        -11.504679957278697
      ],
      [
        "they",
        -7.005894765477494
      ],
      [
        "tieth",
        -7.971235901375047
      ],
      [
        "overt",
        -11.456483413021772
      ],
      [
        "▁happen",
        -11.7897948147514
      ],
      [
        "▁indi",
        -11.805806672779351
      ],
      [
        "overs",
        -12.219936435186074
      ],
      [
        "▁whin",
        -11.515026063302223
      ],
      [
        "▁communicat",
        -12.789901228086638
      ],
      [
        "▁owl",
        -9.167765221455424
      ],
      [
        "▁two-",
        -11.344850538194397
      ],
      [
        "▁rus",
        -8.055093971996907
      ],
      [
        "me",
        -6.477495628531309
      ],
      [
        "cano",
        -11.216945410719907
      ],
      [
        "▁idol",
        -11.773946054600279
      ],
      [
        "▁disc",
        -11.772432599609141
      ],
      [
        "▁indicator",
        -10.323523045315099
      ],
      [
        "▁hurry",
        -9.44378856143484
      ],
      [
        "▁blo",
        -10.860188715447187
      ],
      [
        "ga",
        -13.44820331830528
      ],
      [
        "▁robot",
        -8.658801440361012
      ],
      [
        "▁indicate",
        -8.34885140451932
      ],
      [
        "▁deepen",
        -10.62559248751512
      ],
      [
        "▁public",
        -9.230118482397986
      ],
      [
        "▁tonne",
        -10.969586545920636
      ],
      [
        "fil",
        -11.540062374614369
      ],
      [
        "▁un",
        -5.798991763268779
      ],
      [
        "▁trash",
        -11.47526372448275
      ],
      [
        "▁hospital",
        -8.278453202204389
      ],
      [
        "ves",
        -8.384121393324815
      ],
      [
        "▁mind",
        -7.430582898168495
      ],
      [
        "▁return",
        -7.8897320596011316
      ],
      [
        "▁mess",
        -9.163694913339114
      ],
      [
        "-----------",
        -10.993459808798361
      ],
      [
        "▁penalise",
        -10.958740088520225
      ],
      [
        "imate",
        -7.97804560746793
      ],
      [
        "resume",
        -10.38287400397426
      ],
      [
        "▁shin",
        -10.038787646127918
      ],
      [
        "▁communication",
        -8.557394658366666
      ],
      [
        "▁absorb",
        -9.024768821123665
      ],
      [
        "▁broker",
        -10.335052784365056
      ],
      [
        "==",
        -11.055194985824045
      ],
      [
        "a",
        -7.313902365806134
      ],
      [
        "▁cuff",
        -11.16609765868663
      ],
      [
        "▁female",
        -8.960825807737512
      ],
      [
        "▁issue",
        -8.748243023434334
      ],
      [
        "wilder",
        -10.53551294507173
      ],
      [
        "latter",
        -10.940028655026786
      ],
      [
        "▁bottl",
        -11.64646245289965
      ],
      [
        "perform",
        -11.754088139409495
      ],
      [
        "vantage",
        -12.78749178427118
      ],
      [
        "uc",
        -9.32792910750272
      ],
      [
        "▁structur",
        -11.585798494859835
      ],
      [
        "stepp",
        -12.004487503654879
      ],
      [
        "▁pay",
        -6.894095309609328
      ],
      [
        "▁adv",
        -10.46657199333415
      ],
      [
        "his",
        -9.32851135510752
      ],
      [
        "98",
        -10.939898703765877
      ],
      [
        "▁sunshin",
        -10.056805766581697
      ],
      [
        "▁’",
        -9.7081408527352
      ],
      [
        "▁de",
        -5.409566925574605
      ],
      [
        "▁faste",
        -9.274614642112281
      ],
      [
        "us",
        -5.896012619510532
      ],
      [
        "▁proli",
        -12.615706706274779
      ],
      [
        "gator",
        -10.302508097026012
      ],
      [
        "▁interface",
        -9.673032726261528
      ],
      [
        "▁char",
        -10.249796448788063
      ],
      [
        "esche",
        -13.512529128599205
      ],
      [
        "▁taste",
        -9.047437663988228
      ],
      [
        "▁risk",
        -9.094089437034025
      ],
      [
        "▁sp",
        -9.924592366094707
      ],
      [
        "▁generat",
        -10.558627311455178
      ],
      [
        "▁blank",
        -10.942984007877184
      ],
      [
        "▁empt",
        -12.262602058700429
      ],
      [
        "▁applie",
        -8.02839247144541
      ],
      [
        "▁sect",
        -10.714982298796944
      ],
      [
        "▁beg",
        -12.308200751854883
      ],
      [
        "▁emission",
        -9.403016541453326
      ],
      [
        "en",
        -8.960701284908302
      ],
      [
        "▁tugg",
        -10.375632855893508
      ],
      [
        "▁ab",
        -10.153868413898042
      ],
      [
        "▁initiative",
        -8.815618867769002
      ],
      [
        "▁crie",
        -8.680881358113988
      ],
      [
        "▁storm",
        -10.700530798415647
      ],
      [
        "▁abu",
        -10.695314148927853
      ],
      [
        "▁knights",
        -11.005240802459834
      ],
      [
        "nex",
        -11.311266309862054
      ],
      [
        "▁cropp",
        -10.960789094767643
      ],
      [
        "▁plaza",
        -11.773643875771613
      ],
      [
        "▁sculpt",
        -11.773017254690892
      ],
      [
        "ma",
        -9.512744794518076
      ],
      [
        "▁expect",
        -7.097626935970076
      ],
      [
        "▁professional",
        -9.824956674643577
      ],
      [
        "▁rodent",
        -10.940102079811407
      ],
      [
        "▁trans",
        -8.571093076259858
      ],
      [
        "▁fea",
        -12.7431235839157
      ],
      [
        "very",
        -8.143274354969591
      ],
      [
        "▁consol",
        -10.715905433454363
      ],
      [
        "ulse",
        -11.953991915353225
      ],
      [
        "air",
        -8.632118155291307
      ],
      [
        "k",
        -6.961859007483909
      ],
      [
        "ers",
        -8.863334231704634
      ],
      [
        "convenience",
        -12.592830834499344
      ],
      [
        "▁hemis",
        -12.793743129107371
      ],
      [
        "▁crow",
        -10.402121727108105
      ],
      [
        "▁shed",
        -11.183220478777283
      ],
      [
        "▁pi",
        -8.335338817374708
      ],
      [
        "▁clip",
        -10.10991001387181
      ],
      [
        "▁gran",
        -11.219016203705948
      ],
      [
        "▁sacrifice",
        -10.37539229013642
      ],
      [
        "luv",
        -10.956319550013617
      ],
      [
        "▁innocen",
        -12.754824469043616
      ],
      [
        "▁spot",
        -8.439903009799822
      ],
      [
        "▁prisoner",
        -10.329862467998474
      ],
      [
        "▁credential",
        -11.458725626649791
      ],
      [
        "rip",
        -13.042037023450286
      ],
      [
        "▁oyster",
        -11.774202310764956
      ],
      [
        "ecu",
        -12.151557008473233
      ],
      [
        "▁spotlight",
        -11.7860584366708
      ],
      [
        "was",
        -10.878403380983059
      ],
      [
        "lux",
        -11.344365146214143
      ],
      [
        "▁demonstrat",
        -10.908466487076097
      ],
      [
        "canada",
        -7.758072633861156
      ],
      [
        "jector",
        -11.268922344708585
      ],
      [
        "▁sen",
        -8.22960673191401
      ],
      [
        "▁flo",
        -8.6140024832212
      ],
      [
        "▁eyeglass",
        -11.279610539893335
      ],
      [
        "▁70",
        -11.336150537848747
      ],
      [
        "▁cup",
        -7.521682879664078
      ],
      [
        "▁alley",
        -11.229343223213668
      ],
      [
        "keeper",
        -11.593369651509143
      ],
      [
        "▁understanding",
        -8.493519426711565
      ],
      [
        "▁whole",
        -9.58260281957762
      ],
      [
        "▁commemorate",
        -10.625392293112027
      ],
      [
        "▁surge",
        -10.647592397046761
      ],
      [
        "storm",
        -11.591049163232874
      ],
      [
        "▁portray",
        -10.375392345148754
      ],
      [
        "▁new",
        -8.859809790193971
      ],
      [
        "▁cite",
        -9.5459805419673
      ],
      [
        "meter",
        -9.793180750650686
      ],
      [
        "▁new",
        -5.576189449017814
      ],
      [
        "akes",
        -10.088452107467267
      ],
      [
        "▁vein",
        -10.183509642073224
      ],
      [
        "▁man",
        -8.23518380972309
      ],
      [
        "▁imperfection",
        -11.773238314589552
      ],
      [
        "▁economi",
        -9.767436928579544
      ],
      [
        "▁bu",
        -7.405623915969516
      ],
      [
        "son",
        -11.926039698717643
      ],
      [
        "▁pro-",
        -8.772407925019438
      ],
      [
        "▁prince",
        -8.57549484690721
      ],
      [
        "▁overs",
        -13.795777294277316
      ],
      [
        "real",
        -7.612048952252003
      ],
      [
        "▁ta",
        -11.402627031566714
      ],
      [
        "▁falle",
        -9.773590637790889
      ],
      [
        "and",
        -11.615784065258994
      ],
      [
        "da",
        -11.222074835862148
      ],
      [
        "fill",
        -11.355194037317581
      ],
      [
        "▁soft",
        -7.795608770514
      ],
      [
        "school",
        -11.712342197254404
      ],
      [
        "ckup",
        -12.525657935172479
      ],
      [
        "▁exact",
        -8.3021903511834
      ],
      [
        "▁compa",
        -8.78547574354922
      ],
      [
        "theatre",
        -12.435185624529334
      ],
      [
        "z",
        -7.912454580094244
      ],
      [
        "▁kind",
        -7.67905457835597
      ],
      [
        "▁rip",
        -9.553219506168208
      ],
      [
        "▁glow",
        -9.846506742008636
      ],
      [
        "examination",
        -12.562449067861033
      ],
      [
        "un",
        -10.4123632502803
      ],
      [
        "▁dra",
        -8.813894255420443
      ],
      [
        "▁float",
        -8.688947204043847
      ],
      [
        "▁imme",
        -7.436168493080066
      ],
      [
        "▁brown",
        -7.829387611527569
      ],
      [
        "▁estimate",
        -8.098732058245107
      ],
      [
        "▁debate",
        -9.506037749938255
      ],
      [
        "▁member",
        -7.345526139814201
      ],
      [
        "oxi",
        -11.717115219133891
      ],
      [
        "cake",
        -10.604713536066
      ],
      [
        "▁committ",
        -9.169860122076315
      ],
      [
        "▁wil",
        -7.499379054981187
      ],
      [
        "wednesday",
        -12.391160670221911
      ],
      [
        "▁ko",
        -8.88256413711596
      ],
      [
        "▁clip",
        -9.885490016400016
      ],
      [
        "▁hmm",
        -8.200866031342963
      ],
      [
        "▁bounce",
        -9.943856651212327
      ],
      [
        "for",
        -9.834853012041314
      ],
      [
        "▁raffle",
        -11.274970618363907
      ],
      [
        "ne",
        -12.213083490762878
      ],
      [
        "▁witch",
        -8.966404557754327
      ],
      [
        "▁shortc",
        -12.652500959460836
      ],
      [
        "▁forgo",
        -11.426235158718644
      ],
      [
        "▁person",
        -6.8024990072017975
      ],
      [
        "▁metro",
        -8.890512238753542
      ],
      [
        "▁>",
        -9.582936923105237
      ],
      [
        "▁protein",
        -10.180624985304783
      ],
      [
        "www",
        -6.357198877686594
      ],
      [
        "▁giraffe",
        -9.672432859000535
      ],
      [
        "ye",
        -6.953245541864099
      ],
      [
        "▁remember",
        -6.274852527604202
      ],
      [
        "▁---",
        -13.632274009623934
      ],
      [
        "us",
        -8.503979686221006
      ],
      [
        "▁financi",
        -12.267971462810053
      ],
      [
        "odu",
        -11.97893851558923
      ],
      [
        "track",
        -11.238836170307053
      ],
      [
        "▁sill",
        -7.937500207333644
      ],
      [
        "▁invest",
        -8.92347630255485
      ],
      [
        "▁live",
        -12.011645317634548
      ],
      [
        "▁fight",
        -8.53013505982129
      ],
      [
        "▁peace",
        -7.673632347343544
      ],
      [
        "osit",
        -11.13901499290402
      ],
      [
        "men",
        -8.37551400982814
      ],
      [
        "▁den",
        -5.046594407009631
      ],
      [
        "▁physio",
        -10.64107551345301
      ],
      [
        "-war",
        -11.899617463192248
      ],
      [
        "a",
        -4.198425366036542
      ],
      [
        "▁works",
        -8.60668855118841
      ],
      [
        "▁need",
        -4.9754309386742674
      ],
      [
        "▁consider",
        -6.853368035562674
      ],
      [
        "▁humm",
        -10.841199014153025
      ],
      [
        "▁flash",
        -10.008915582252982
      ],
      [
        "location",
        -10.416510581400122
      ],
      [
        "hope",
        -12.282388470768712
      ],
      [
        "agg",
        -13.049408636949847
      ],
      [
        "▁ob",
        -8.525858811061573
      ],
      [
        "▁gain",
        -9.604904481259664
      ],
      [
        "c",
        -4.327503421637194
      ],
      [
        "▁alignment",
        -10.489904937290657
      ],
      [
        "av",
        -8.747660268860567
      ],
      [
        "▁implie",
        -10.237241191681681
      ],
      [
        "ep",
        -13.60036391209546
      ],
      [
        "▁barre",
        -11.845346073991461
      ],
      [
        "▁god",
        -9.262545546099862
      ],
      [
        "▁retrac",
        -11.478965508285114
      ],
      [
        "iction",
        -9.528070683987698
      ],
      [
        "▁relax",
        -9.119215601218187
      ],
      [
        "▁mega",
        -10.490493654884189
      ],
      [
        "▁thrill",
        -10.958774338081941
      ],
      [
        "▁injection",
        -10.692087419091267
      ],
      [
        "ental",
        -6.861060378996306
      ],
      [
        "▁robin",
        -7.479882217646037
      ],
      [
        "▁exclaim",
        -10.011733413715644
      ],
      [
        "▁cupcake",
        -8.885688168441355
      ],
      [
        "▁duration",
        -10.180741080094627
      ],
      [
        "ludge",
        -12.814959022235863
      ],
      [
        "tap",
        -12.69135604042991
      ],
      [
        "▁consum",
        -11.240075598915123
      ],
      [
        "he",
        -11.701140428303038
      ],
      [
        "vid",
        -10.259031293326384
      ],
      [
        "▁41",
        -8.168872427011534
      ],
      [
        "red",
        -7.917229904324256
      ],
      [
        "▁portrait",
        -10.180632920866467
      ],
      [
        "borate",
        -12.463091033161799
      ],
      [
        "▁consideration",
        -9.337024671429475
      ],
      [
        "▁bloc",
        -12.817365628750439
      ],
      [
        "▁11",
        -5.487104098601486
      ],
      [
        "happ",
        -11.664294612900587
      ],
      [
        "-",
        -4.1028663524876645
      ],
      [
        "e",
        -9.487298196508139
      ],
      [
        "▁spir",
        -11.641066924356828
      ],
      [
        "▁discover",
        -7.971377119603126
      ],
      [
        "▁prevent",
        -8.187350387670168
      ],
      [
        "▁denominat",
        -11.273437202581064
      ],
      [
        "▁souvenir",
        -11.773238255582603
      ],
      [
        "▁class",
        -6.42580439655215
      ],
      [
        "▁supplement",
        -10.490248859472919
      ],
      [
        "▁mil",
        -6.263045355612972
      ],
      [
        "▁wrestl",
        -11.273317929381024
      ],
      [
        "▁retriev",
        -11.26713144036615
      ],
      [
        "▁medi",
        -9.856285689773067
      ],
      [
        "▁subs",
        -8.297863541808772
      ],
      [
        "▁engage",
        -9.027959368460433
      ],
      [
        "▁bak",
        -11.27177209824641
      ],
      [
        "▁blossom",
        -10.962489202894266
      ],
      [
        "▁withdraw",
        -9.283877617981842
      ],
      [
        "▁opera",
        -10.079226805806746
      ],
      [
        "▁magazine",
        -9.131337675166439
      ],
      [
        "a-",
        -8.821022953096769
      ],
      [
        "'",
        -9.423854720340465
      ],
      [
        "▁intru",
        -11.990641692084575
      ],
      [
        "▁plank",
        -10.985726471657268
      ],
      [
        "▁employe",
        -12.29514295181935
      ],
      [
        "ous",
        -4.87272141173675
      ],
      [
        "▁anyt",
        -9.69390092057212
      ],
      [
        "raise",
        -12.525916573461046
      ],
      [
        "▁particular",
        -6.879661482062576
      ],
      [
        "ost",
        -12.505172878882847
      ],
      [
        "▁accident",
        -8.202283365022279
      ],
      [
        "▁vaccine",
        -9.457832692545075
      ],
      [
        "▁angel",
        -6.918869697806061
      ],
      [
        "▁b",
        -6.7872318813053925
      ],
      [
        "read",
        -5.745973914349878
      ],
      [
        "▁mu",
        -5.496880053479114
      ],
      [
        "339",
        -7.784219736551246
      ],
      [
        "age",
        -11.316771671399625
      ],
      [
        "▁every",
        -8.138839326173517
      ],
      [
        "▁snip",
        -11.285920439878685
      ],
      [
        "▁purcha",
        -12.27815587550439
      ],
      [
        "pile",
        -11.513846534922669
      ],
      [
        "imbu",
        -10.377921179753464
      ],
      [
        "▁musc",
        -12.262013571813217
      ],
      [
        "arrive",
        -11.732311093932376
      ],
      [
        "milk",
        -12.848059006022915
      ],
      [
        "▁bond",
        -9.860428493769295
      ],
      [
        "hack",
        -10.762165975807864
      ],
      [
        "▁10",
        -4.650404494469818
      ],
      [
        "▁tee",
        -10.02586843483402
      ],
      [
        "▁lead",
        -9.012292082712904
      ],
      [
        "out",
        -6.242361992765793
      ],
      [
        "▁warm",
        -9.092386316359836
      ],
      [
        "ogue",
        -10.091291191053022
      ],
      [
        "op",
        -13.547856159039037
      ],
      [
        "▁spot",
        -9.193999268676992
      ],
      [
        "▁b",
        -8.448846474459991
      ],
      [
        "▁exemplifie",
        -10.958725671529868
      ],
      [
        "ooooo",
        -12.71015855894965
      ],
      [
        "▁alter",
        -9.364013232035528
      ],
      [
        "▁destr",
        -12.744643798873145
      ],
      [
        "▁um",
        -3.615304440315332
      ],
      [
        "▁let",
        -5.266393225607882
      ],
      [
        "create",
        -11.50999684465562
      ],
      [
        "▁imp",
        -11.796427200653074
      ],
      [
        "▁deteriorat",
        -11.01797744989361
      ],
      [
        "▁any",
        -6.715036310546548
      ],
      [
        "▁surprise",
        -8.360904124977845
      ],
      [
        "▁tast",
        -10.159301268178474
      ],
      [
        "▁shelter",
        -10.175393356959152
      ],
      [
        "▁mins",
        -10.740759078736101
      ],
      [
        "▁stoop",
        -11.619167758158493
      ],
      [
        "istan",
        -12.861726960546601
      ],
      [
        "real",
        -9.016915823241007
      ],
      [
        "her",
        -11.939708579285
      ],
      [
        "▁cool",
        -11.372183010074037
      ],
      [
        "paste",
        -11.237187545787181
      ],
      [
        "▁macadam",
        -11.773793254891652
      ],
      [
        "▁pretend",
        -8.139216432580561
      ],
      [
        "ming",
        -8.557360031403563
      ],
      [
        "▁reproduc",
        -10.92077373984186
      ],
      [
        "▁napkin",
        -9.457822225558646
      ],
      [
        "se",
        -9.378030818966653
      ],
      [
        "▁oversea",
        -9.539794133640953
      ],
      [
        "▁operator",
        -8.65938123268148
      ],
      [
        "▁emigrate",
        -11.470770256760712
      ],
      [
        "ing",
        -4.779772680984797
      ],
      [
        "▁easter",
        -8.082890581363323
      ],
      [
        "▁inhabit",
        -10.625392670092056
      ],
      [
        "▁loser",
        -11.825369459131954
      ],
      [
        "m",
        -4.633343155688267
      ],
      [
        "▁adviser",
        -9.949459252299002
      ],
      [
        "7/200",
        -7.898083632346337
      ],
      [
        "▁rival",
        -12.687482083201239
      ],
      [
        "▁fish",
        -7.29752972698244
      ],
      [
        "▁fool",
        -10.342296721153211
      ],
      [
        "▁speculat",
        -10.958779334588954
      ],
      [
        "▁away",
        -12.155942261870063
      ],
      [
        "▁futuris",
        -12.037237837939315
      ],
      [
        "▁ranch",
        -10.950370889545832
      ],
      [
        "▁bank",
        -11.481004202590917
      ],
      [
        "estin",
        -11.81334067423182
      ],
      [
        "imon",
        -11.08697098021067
      ],
      [
        "▁styles",
        -11.63155429774041
      ],
      [
        "▁tail",
        -10.982044069338869
      ],
      [
        "▁46",
        -7.688243575733726
      ],
      [
        "▁association",
        -9.946561566348251
      ],
      [
        "▁vietnam",
        -8.143258097114451
      ],
      [
        "tation",
        -10.338980932543576
      ],
      [
        "▁cult",
        -10.952319817694338
      ],
      [
        "odder",
        -11.870062727695444
      ],
      [
        "▁ours",
        -11.444714850985516
      ],
      [
        "▁ru",
        -11.660737958235519
      ],
      [
        "▁gall",
        -13.843124004840256
      ],
      [
        "nail",
        -11.374019109773862
      ],
      [
        "▁michi",
        -8.636610481705358
      ],
      [
        "▁belt",
        -9.096381250908228
      ],
      [
        "▁project",
        -9.443500858672703
      ],
      [
        "og",
        -11.40453992897898
      ],
      [
        "▁translat",
        -11.778050831353697
      ],
      [
        "▁switch",
        -10.058496360085668
      ],
      [
        "obber",
        -11.670074055064926
      ],
      [
        "▁follow",
        -6.362041922472536
      ],
      [
        "1",
        -12.810278406305976
      ],
      [
        "n",
        -4.72563031026995
      ],
      [
        "▁whee",
        -10.97527713667729
      ],
      [
        "worker",
        -10.03857014675257
      ],
      [
        "dict",
        -10.791016854967717
      ],
      [
        "----",
        -10.83180367459837
      ],
      [
        "ever",
        -6.0073375635282105
      ],
      [
        "▁treat",
        -7.700576317288588
      ],
      [
        "▁d",
        -8.048528589403643
      ],
      [
        "ican",
        -7.78911050047105
      ],
      [
        "anish",
        -8.352749481858979
      ],
      [
        "cul",
        -8.914251303283136
      ],
      [
        "hen",
        -8.519365525476523
      ],
      [
        "▁seat",
        -7.925298794869216
      ],
      [
        "ic",
        -6.031345409737585
      ],
      [
        "▁emotion",
        -9.953428975142131
      ],
      [
        "▁gal",
        -8.760894731335892
      ],
      [
        "▁inferior",
        -11.77334957020981
      ],
      [
        "now",
        -7.724366718955533
      ],
      [
        "ease",
        -10.583960633252033
      ],
      [
        "osi",
        -11.529352672880568
      ],
      [
        "▁sk",
        -12.401239109405049
      ],
      [
        "▁late",
        -6.267339765221746
      ],
      [
        "▁rock",
        -8.023324125928163
      ],
      [
        "▁hun",
        -11.913028083423328
      ],
      [
        "▁pledge",
        -9.950432742257854
      ],
      [
        "▁cit",
        -6.729612885917478
      ],
      [
        "sheet",
        -9.336808715271683
      ],
      [
        "▁youngste",
        -12.762556675706792
      ],
      [
        "▁admit",
        -9.184319919238236
      ],
      [
        "ateg",
        -10.322097797210294
      ],
      [
        "difference",
        -11.29490785919385
      ],
      [
        "▁typo",
        -11.851279406286121
      ],
      [
        "▁gna",
        -11.563271364656403
      ],
      [
        "nction",
        -12.45949296928865
      ],
      [
        "nit",
        -10.649345170977387
      ],
      [
        "▁communit",
        -7.525567034703836
      ],
      [
        "▁centrali",
        -12.457933384372925
      ],
      [
        "▁troop",
        -8.917104121686133
      ],
      [
        "expe",
        -9.783331714271302
      ],
      [
        "dential",
        -11.774221442478353
      ],
      [
        "▁validate",
        -11.525104689371256
      ],
      [
        "ward",
        -8.225227764739916
      ],
      [
        "▁bitter",
        -10.511906720438525
      ],
      [
        "▁perpetuate",
        -11.45872856457169
      ],
      [
        "▁restrict",
        -9.7446781394607
      ],
      [
        "▁hen",
        -9.706862693400673
      ],
      [
        "▁hypo",
        -10.949669003346967
      ],
      [
        "enfranchis",
        -10.95872562358974
      ],
      [
        "build",
        -12.473721928772111
      ],
      [
        "▁libe",
        -12.870210688746266
      ],
      [
        "▁rall",
        -11.477454323961883
      ],
      [
        "▁chemical",
        -9.672501342476565
      ],
      [
        "▁side",
        -7.038753884437146
      ],
      [
        "slim",
        -8.763321167049307
      ],
      [
        "▁cropduster",
        -10.939906103075138
      ],
      [
        "▁physician",
        -10.489937236097626
      ],
      [
        "▁retriever",
        -11.78330655627044
      ],
      [
        "▁sense",
        -11.184044833454122
      ],
      [
        "▁cure",
        -10.161135337736994
      ],
      [
        "▁germ",
        -10.490804667742461
      ],
      [
        "▁slamm",
        -10.009632995353966
      ],
      [
        "▁tendenc",
        -10.055432927056108
      ],
      [
        "▁w/",
        -11.15379541592156
      ],
      [
        "▁maximiz",
        -10.958770528440848
      ],
      [
        "stress",
        -9.930310638287825
      ],
      [
        "road",
        -10.700331404150326
      ],
      [
        "▁addresse",
        -10.334277048633115
      ],
      [
        "▁regain",
        -10.626631285643823
      ],
      [
        "wh",
        -8.549184731091053
      ],
      [
        "▁general",
        -9.285180285924392
      ],
      [
        "▁nail",
        -8.591840357506381
      ],
      [
        "▁thwart",
        -10.375393006284444
      ],
      [
        "▁plead",
        -10.975846507607086
      ],
      [
        "▁mount",
        -9.769367600247483
      ],
      [
        "orate",
        -11.94716879359867
      ],
      [
        "▁captain",
        -9.67243583661241
      ],
      [
        "neck",
        -11.51797713223456
      ],
      [
        "▁smi",
        -11.920898148734045
      ],
      [
        "cl",
        -8.406018093479394
      ],
      [
        "ting",
        -9.001945180615618
      ],
      [
        "▁reconcil",
        -11.95560332961848
      ],
      [
        "per",
        -9.697416804939591
      ],
      [
        "▁petition",
        -10.590917247148688
      ],
      [
        "regularit",
        -11.27813871191623
      ],
      [
        "m-m",
        -9.192735416593525
      ],
      [
        "▁tom",
        -7.1224014349360925
      ],
      [
        "▁fulfil",
        -10.925225358278373
      ],
      [
        "/",
        -13.8725705263812
      ],
      [
        "▁pride",
        -10.968857862913685
      ],
      [
        "present",
        -11.930039342438164
      ],
      [
        "▁programme",
        -7.9280658163115
      ],
      [
        "se",
        -9.727320252619693
      ],
      [
        "▁personal",
        -7.73883688352381
      ],
      [
        "$",
        -11.28153641900687
      ],
      [
        "clair",
        -8.851142478335422
      ],
      [
        "elis",
        -10.695302531281516
      ],
      [
        "▁beetle",
        -9.75569983778766
      ],
      [
        "ale",
        -11.258916502743812
      ],
      [
        "▁decide",
        -7.1256742126874455
      ],
      [
        "▁futur",
        -7.5775376312960425
      ],
      [
        "vit",
        -10.067265822524924
      ],
      [
        "▁lif",
        -12.846633890583451
      ],
      [
        "sit",
        -9.383504073805348
      ],
      [
        "sting",
        -12.827353208911125
      ],
      [
        "caus",
        -8.88957221521638
      ],
      [
        "▁leg",
        -7.5066764347249455
      ],
      [
        "▁avail",
        -9.755384801601847
      ],
      [
        "▁dro",
        -11.672426462524172
      ],
      [
        "▁coop",
        -12.752174089343994
      ],
      [
        "imi",
        -13.017380523148923
      ],
      [
        "mic",
        -10.119714563142718
      ],
      [
        "▁bet",
        -8.494679605789246
      ],
      [
        "▁scient",
        -11.81898501690477
      ],
      [
        "on",
        -7.4826531328968295
      ],
      [
        "dy",
        -12.649653834098148
      ],
      [
        "▁bake",
        -9.58180832209959
      ],
      [
        "▁drum",
        -10.375662977742826
      ],
      [
        "19",
        -8.81243243825633
      ],
      [
        "phi",
        -7.2565674407912155
      ],
      [
        "▁co-",
        -10.04111309660749
      ],
      [
        "▁cra",
        -9.194886320642299
      ],
      [
        "hey",
        -12.24726347818536
      ],
      [
        "nasa",
        -7.894702085902489
      ],
      [
        "▁tolerat",
        -9.639332834444483
      ],
      [
        "▁wea",
        -10.587463788077407
      ],
      [
        "▁creativ",
        -8.751475986366145
      ],
      [
        "▁bla",
        -11.385624851889098
      ],
      [
        "have",
        -7.697358281809178
      ],
      [
        "mitt",
        -11.02067611614921
      ],
      [
        "▁remark",
        -9.17878514179348
      ],
      [
        "median",
        -9.750852586712625
      ],
      [
        "▁he",
        -10.616994790772573
      ],
      [
        "▁domin",
        -10.666281095055112
      ],
      [
        "▁metric",
        -11.773480695144876
      ],
      [
        "▁comment",
        -7.7884049885152
      ],
      [
        "▁arti",
        -8.507847060315108
      ],
      [
        "▁co",
        -7.4530996253972095
      ],
      [
        "▁persistenc",
        -10.4900770116457
      ],
      [
        "▁mid-",
        -9.630156239702885
      ],
      [
        "▁spectacle",
        -11.273238750953123
      ],
      [
        "▁stream",
        -10.17670891606647
      ],
      [
        "alism",
        -9.922377974157449
      ],
      [
        "▁spell",
        -9.134634042975526
      ],
      [
        "▁husband",
        -8.282828028722033
      ],
      [
        "▁lawma",
        -12.259644750609151
      ],
      [
        "▁map",
        -8.658726957018409
      ],
      [
        "pid",
        -7.692223382223148
      ],
      [
        "s",
        -2.856836203130574
      ],
      [
        "▁term",
        -7.311608349938444
      ],
      [
        "ide",
        -9.281655731838441
      ],
      [
        "▁gee",
        -12.194127039165068
      ],
      [
        "▁post",
        -8.507132211485919
      ],
      [
        "rogati",
        -12.049246133460711
      ],
      [
        "has",
        -9.011977185158957
      ],
      [
        "▁decline",
        -9.11707460588914
      ],
      [
        "▁overr",
        -13.69816749075017
      ],
      [
        "▁enforce",
        -11.31885622304868
      ],
      [
        "▁prep",
        -11.915613226836745
      ],
      [
        "▁pitt",
        -5.113689389671724
      ],
      [
        "▁rai",
        -11.625125411626769
      ],
      [
        "shield",
        -10.504518246474236
      ],
      [
        "ath",
        -10.701134267338519
      ],
      [
        "▁eve",
        -8.968259718078635
      ],
      [
        "etail",
        -8.950157100059991
      ],
      [
        "▁lick",
        -8.629187638831143
      ],
      [
        "▁consul",
        -11.938245587841157
      ],
      [
        "ak",
        -12.52770593379837
      ],
      [
        "admissi",
        -12.815916303349217
      ],
      [
        "▁wa",
        -8.830583634829404
      ],
      [
        "ans",
        -9.20028119008006
      ],
      [
        "de",
        -11.161022762644496
      ],
      [
        "▁subsidiari",
        -11.346402683744426
      ],
      [
        "▁stay",
        -9.139504318211564
      ],
      [
        "▁exercise",
        -9.331770677504128
      ],
      [
        "fly",
        -11.13167680940343
      ],
      [
        "▁kar",
        -7.921872251290368
      ],
      [
        "▁repeat",
        -11.316115495375119
      ],
      [
        "ody",
        -12.518543059640155
      ],
      [
        "nest",
        -12.744338836461877
      ],
      [
        "cient",
        -7.904563397838827
      ],
      [
        "▁permeate",
        -10.95872609628101
      ],
      [
        "▁mineral",
        -10.180576217206646
      ],
      [
        "▁laws",
        -8.862877220151027
      ],
      [
        "▁migrate",
        -9.78019301592639
      ],
      [
        "▁boil",
        -9.868877784661217
      ],
      [
        "look",
        -11.990908314182747
      ],
      [
        "dmill",
        -12.779548514499727
      ],
      [
        "▁world",
        -8.993058427671102
      ],
      [
        "▁ze",
        -10.863137431706905
      ],
      [
        "▁uncertaint",
        -9.755796808727052
      ],
      [
        "try",
        -10.914019777981096
      ],
      [
        "▁wh",
        -6.667104945947117
      ],
      [
        "▁abbas",
        -8.83026414173593
      ],
      [
        "▁deadline",
        -10.057373406372163
      ],
      [
        "▁wars",
        -10.955817208037152
      ],
      [
        "peration",
        -12.30359880944163
      ],
      [
        "▁beating",
        -10.959618036805477
      ],
      [
        "▁but",
        -12.419852661321622
      ],
      [
        "with",
        -10.55099382890414
      ],
      [
        "▁perspective",
        -9.39567665896039
      ],
      [
        "▁experiment",
        -9.336998025948889
      ],
      [
        "never",
        -8.911190488652208
      ],
      [
        "▁suspend",
        -9.8691627241382
      ],
      [
        "we",
        -11.275208440188429
      ],
      [
        "▁bewilder",
        -11.458726085686715
      ],
      [
        "▁progr",
        -9.978886031983558
      ],
      [
        "p",
        -12.303800120175861
      ],
      [
        "▁mold",
        -10.060265375211165
      ],
      [
        "▁inten",
        -11.660899940961222
      ],
      [
        "▁updat",
        -10.536455177965196
      ],
      [
        "▁graphic",
        -10.940017011811335
      ],
      [
        "▁purport",
        -10.958738920687969
      ],
      [
        "▁manipulate",
        -10.548907462218708
      ],
      [
        "port",
        -10.721955976727813
      ],
      [
        "▁dry",
        -9.432727926281936
      ],
      [
        "folk",
        -12.424834338449307
      ],
      [
        "▁teaspoon",
        -10.057139198400053
      ],
      [
        "▁criteri",
        -9.525120572475359
      ],
      [
        "▁accelerat",
        -11.280630844276992
      ],
      [
        "ma",
        -6.56637832689829
      ],
      [
        "▁simplification",
        -11.273329845878376
      ],
      [
        "typ",
        -12.456211015991563
      ],
      [
        "_",
        -4.456929594736267
      ],
      [
        "ific",
        -10.84622354613797
      ],
      [
        "tise",
        -12.755757255521845
      ],
      [
        "▁luncheon",
        -10.691017001097777
      ],
      [
        "▁inheritance",
        -11.273238758412697
      ],
      [
        "stop",
        -12.010834817888902
      ],
      [
        "▁attendan",
        -11.630007775747169
      ],
      [
        "▁asses",
        -9.747512681475484
      ],
      [
        "write",
        -10.243468297120733
      ],
      [
        "el",
        -7.571730869574103
      ],
      [
        "▁advocate",
        -10.939905167280173
      ],
      [
        "▁tutor",
        -10.496281449019337
      ],
      [
        "s.breed",
        -12.773737137567108
      ],
      [
        "▁concern",
        -8.202665013556896
      ],
      [
        "ger",
        -10.186883430477254
      ],
      [
        "▁bill",
        -7.873931900599553
      ],
      [
        "long",
        -8.988003566926597
      ],
      [
        "▁favorite",
        -9.000963066555068
      ],
      [
        "▁refusal",
        -11.273390668850007
      ],
      [
        "▁news",
        -7.84378269223095
      ],
      [
        "▁crawl",
        -9.283315065899274
      ],
      [
        "doubt",
        -9.456771322995698
      ],
      [
        "▁'60",
        -11.773272343454472
      ],
      [
        "▁wr",
        -11.708920600388389
      ],
      [
        "ble",
        -9.648594397102332
      ],
      [
        "▁bl",
        -12.019817598004115
      ],
      [
        "▁ash",
        -12.282255662360233
      ],
      [
        "ck",
        -8.011018938572096
      ],
      [
        "ext",
        -7.384595250247742
      ],
      [
        "▁conversation",
        -8.16653864933867
      ],
      [
        "▁overwhelm",
        -10.62539229626098
      ],
      [
        "ific",
        -10.207901433168981
      ],
      [
        "▁hand",
        -6.56696640154705
      ],
      [
        "▁message",
        -7.634018981510935
      ],
      [
        "▁fo",
        -11.546334560947004
      ],
      [
        "▁equ",
        -8.172278544843653
      ],
      [
        "children",
        -10.328866410133049
      ],
      [
        "▁acquaintance",
        -11.273238221277495
      ],
      [
        "▁ecologist",
        -11.773813268836287
      ],
      [
        "▁stewardess",
        -11.774534577050119
      ],
      [
        "▁provision",
        -8.427649385014005
      ],
      [
        "▁deduct",
        -10.635057096251737
      ],
      [
        "compose",
        -12.235334348018489
      ],
      [
        "urbs",
        -12.801375094277054
      ],
      [
        "▁go",
        -8.891681579650308
      ],
      [
        "▁t",
        -8.51074744854803
      ],
      [
        "▁benefit",
        -8.68921933497451
      ],
      [
        "▁pave",
        -11.833782515878449
      ],
      [
        "▁too",
        -12.29903223596771
      ],
      [
        "worth",
        -9.968157502497512
      ],
      [
        "▁sweatshirt",
        -11.273372673928824
      ],
      [
        "▁date",
        -9.442067739645166
      ],
      [
        "▁trick",
        -9.398617452179373
      ],
      [
        "▁trader",
        -9.258622024158797
      ],
      [
        "▁essential",
        -11.773410556749113
      ],
      [
        "▁sc",
        -11.23206157787179
      ],
      [
        "▁stint",
        -11.777957742962117
      ],
      [
        "trum",
        -12.472196141611233
      ],
      [
        "▁administer",
        -9.869445995718653
      ],
      [
        "wood",
        -9.40260489095257
      ],
      [
        "▁disappointment",
        -10.057402141099848
      ],
      [
        "▁ham",
        -10.035242752325662
      ],
      [
        "▁mic",
        -9.993941365576447
      ],
      [
        "▁se",
        -8.094494879163094
      ],
      [
        "▁tradi",
        -8.489719963144415
      ],
      [
        "▁savage",
        -10.323698086972616
      ],
      [
        "▁aro",
        -13.094208024730627
      ],
      [
        "media",
        -9.910363114369636
      ],
      [
        "ster",
        -9.202901616331676
      ],
      [
        "▁staple",
        -10.690374706954703
      ],
      [
        "▁calm",
        -11.013616802382058
      ],
      [
        "▁some",
        -6.593686694992894
      ],
      [
        "erman",
        -8.101756977811746
      ],
      [
        "of",
        -9.72713078997091
      ],
      [
        "bru",
        -8.799314608587817
      ],
      [
        "heart",
        -12.126947695726834
      ],
      [
        "alias",
        -12.766425246030972
      ],
      [
        "▁geno",
        -10.791532875012063
      ],
      [
        "▁lieutenant",
        -10.489905068377004
      ],
      [
        "▁cyclone",
        -9.596030183233886
      ],
      [
        "▁gaze",
        -10.203112595571056
      ],
      [
        "▁subdu",
        -11.459828765152116
      ],
      [
        "▁feature",
        -9.064491124353996
      ],
      [
        "body",
        -9.321467414164129
      ],
      [
        "ted",
        -8.133844411413879
      ],
      [
        "omp",
        -13.051220133697194
      ],
      [
        "▁conjecture",
        -11.273238223996177
      ],
      [
        "ire",
        -8.946903550794758
      ],
      [
        "▁doc",
        -10.97520199785908
      ],
      [
        "ston",
        -4.6869837569322375
      ],
      [
        "▁arab",
        -7.922878414017
      ],
      [
        "▁profession",
        -10.554004048282067
      ],
      [
        "▁way",
        -5.5428216973333395
      ],
      [
        "no",
        -6.988244225294419
      ],
      [
        "hing",
        -9.676898247404178
      ],
      [
        "sel",
        -8.826133072965293
      ],
      [
        "bber",
        -11.037640573698152
      ],
      [
        "oth",
        -8.842116098097984
      ],
      [
        "▁gi",
        -8.425954860333402
      ],
      [
        "▁settle",
        -12.746113217223494
      ],
      [
        "▁rul",
        -10.879382387373575
      ],
      [
        "▁desir",
        -11.546724080352606
      ],
      [
        "▁fat",
        -9.462843467462424
      ],
      [
        "▁jane",
        -8.922447687667734
      ],
      [
        "▁manuscript",
        -9.846482695561303
      ],
      [
        "explorer",
        -8.751335280648977
      ],
      [
        "▁sto",
        -10.135799448301418
      ],
      [
        "quid",
        -11.79793998531643
      ],
      [
        "▁sequester",
        -11.458733443580023
      ],
      [
        "▁gaze",
        -11.881682550353986
      ],
      [
        "chief",
        -11.595835333951488
      ],
      [
        "▁alt.animals.f",
        -12.82787610347656
      ],
      [
        "▁vision",
        -9.632567347043308
      ],
      [
        "▁as",
        -3.75801648861614
      ],
      [
        "ursu",
        -8.539111494722265
      ],
      [
        "50",
        -11.214034140439782
      ],
      [
        "aul",
        -12.808312381284281
      ],
      [
        "u",
        -4.005956395885906
      ],
      [
        "establish",
        -12.62545675056883
      ],
      [
        "▁load",
        -9.475426092019175
      ],
      [
        "▁receipt",
        -9.45783274322533
      ],
      [
        "▁th",
        -5.732750877800902
      ],
      [
        "▁promot",
        -9.449713659538773
      ],
      [
        "woman",
        -11.28918129279379
      ],
      [
        "▁dogg",
        -10.414954203355794
      ],
      [
        "▁vent",
        -11.527437115048365
      ],
      [
        "▁ivory",
        -10.689914674184644
      ],
      [
        "▁rug",
        -8.91425931069318
      ],
      [
        "▁broke",
        -11.72568076803374
      ],
      [
        "da",
        -9.364211689779456
      ],
      [
        "rudg",
        -12.017474901370726
      ],
      [
        "▁mak",
        -11.605569412375514
      ],
      [
        "▁13",
        -6.263667675102136
      ],
      [
        "▁satisf",
        -10.373382612376307
      ],
      [
        "▁scr",
        -12.860247301155281
      ],
      [
        "▁state",
        -8.068356973088136
      ],
      [
        "pawn",
        -13.00720386933885
      ],
      [
        "stant",
        -9.528438380579058
      ],
      [
        "▁squash",
        -10.690573991519265
      ],
      [
        "hes",
        -13.2536395611446
      ],
      [
        "▁urina",
        -12.343714143382936
      ],
      [
        "▁hammer",
        -9.94652982167936
      ],
      [
        "hu",
        -9.843845254913187
      ],
      [
        "ll",
        -7.831638582495886
      ],
      [
        "whe",
        -10.507536103371045
      ],
      [
        "▁threat",
        -8.3192023699456
      ],
      [
        "**********",
        -11.18260191905142
      ],
      [
        "▁self",
        -8.08061213256682
      ],
      [
        "▁greet",
        -9.4499122373485
      ],
      [
        "▁prop",
        -12.452638674754173
      ],
      [
        "-post",
        -12.132387226532698
      ],
      [
        "▁amendment",
        -8.33972354087356
      ],
      [
        "▁mis",
        -9.86225412622993
      ],
      [
        "▁lesson",
        -8.60268173138007
      ],
      [
        "▁fed",
        -7.631178086646779
      ],
      [
        "▁grav",
        -10.651832659263137
      ],
      [
        "▁popu",
        -11.633616579445317
      ],
      [
        "arth",
        -12.764369862251819
      ],
      [
        "in",
        -8.126870553026647
      ],
      [
        "▁olive",
        -10.325132364644887
      ],
      [
        "▁inference",
        -11.777365640778465
      ],
      [
        "▁convey",
        -9.868975160758792
      ],
      [
        "▁patt",
        -11.452626134113812
      ],
      [
        "parat",
        -9.354392174201084
      ],
      [
        "get",
        -9.822176347886844
      ],
      [
        "▁obligation",
        -9.672608918041444
      ],
      [
        "▁deteriorate",
        -9.989574599898633
      ],
      [
        "▁verd",
        -12.568352508981713
      ],
      [
        "▁storm",
        -8.706273415341272
      ],
      [
        "stand",
        -10.92226918492571
      ],
      [
        "bal",
        -6.877981207083328
      ],
      [
        "=",
        -11.380897020098319
      ],
      [
        "▁hunche",
        -11.462310226421735
      ],
      [
        "nguishe",
        -12.459147213913857
      ],
      [
        "▁spor",
        -12.355928054755255
      ],
      [
        "▁assh",
        -12.805360810840543
      ],
      [
        "▁authori",
        -12.59741131845001
      ],
      [
        "mati",
        -8.045520387487992
      ],
      [
        "▁pet",
        -8.397488593363304
      ],
      [
        "▁wh",
        -5.509002581214282
      ],
      [
        "c",
        -5.811834898890697
      ],
      [
        "▁18",
        -5.485808363114372
      ],
      [
        "cular",
        -10.040590490516971
      ],
      [
        "▁clause",
        -9.75640303685518
      ],
      [
        "▁tanker",
        -10.224391501812118
      ],
      [
        "▁bo",
        -9.568410116840111
      ],
      [
        "▁venture",
        -9.765838833320071
      ],
      [
        "sent",
        -9.832948531802653
      ],
      [
        "grow",
        -11.139856779020445
      ],
      [
        "▁pile",
        -9.422239128308492
      ],
      [
        "▁cro",
        -12.680420890076634
      ],
      [
        "▁invade",
        -11.277216010759862
      ],
      [
        "mount",
        -12.441743842225296
      ],
      [
        "▁outdoor",
        -11.274087344012324
      ],
      [
        "▁tribe",
        -9.678870747865677
      ],
      [
        "▁accomplish",
        -9.507557825225977
      ],
      [
        "▁pleas",
        -11.76748542195875
      ],
      [
        "!!",
        -8.561639465647861
      ],
      [
        "▁bound",
        -9.29915380952337
      ],
      [
        "▁scam",
        -10.691015930965149
      ],
      [
        "▁mim",
        -12.706273655670191
      ],
      [
        "▁tough",
        -8.507869082147447
      ],
      [
        "▁smith",
        -8.118485197165942
      ],
      [
        "▁man",
        -4.986646391547884
      ],
      [
        "▁transaction",
        -8.576117457344587
      ],
      [
        "▁max",
        -7.877351992172711
      ],
      [
        "▁pa",
        -10.189800772962528
      ],
      [
        "▁rage",
        -12.190958151739583
      ],
      [
        "give",
        -11.411964199753069
      ],
      [
        "-and-",
        -9.727483893849822
      ],
      [
        "▁accu",
        -8.3566766183063
      ],
      [
        "▁whos",
        -8.171894668355208
      ],
      [
        "▁cockatiel",
        -10.939904979241762
      ],
      [
        "▁seat",
        -10.18696325285451
      ],
      [
        "nk",
        -11.75284598994054
      ],
      [
        "eball",
        -12.393268934114166
      ],
      [
        "▁uni",
        -8.075029178804023
      ],
      [
        "▁plain",
        -11.297303437490946
      ],
      [
        "▁vampire",
        -11.77323826256813
      ],
      [
        "snow",
        -12.410908456686732
      ],
      [
        "▁deli",
        -11.276358002494572
      ],
      [
        "▁menace",
        -11.276545801931018
      ],
      [
        "real",
        -10.839548383867031
      ],
      [
        "▁embarrass",
        -10.661128233817251
      ],
      [
        "▁ku",
        -8.962879732579374
      ],
      [
        "yard",
        -9.687213338254665
      ],
      [
        "▁moor",
        -11.461592972120421
      ],
      [
        "rench",
        -11.755726072079655
      ],
      [
        "▁spiral",
        -11.458777107004735
      ],
      [
        "se",
        -5.996840838387731
      ],
      [
        "▁coal",
        -9.677397114085245
      ],
      [
        "leas",
        -8.439680459346393
      ],
      [
        "lite",
        -11.010044131342523
      ],
      [
        "▁educat",
        -11.157337092448616
      ],
      [
        "▁space",
        -7.173637911613658
      ],
      [
        "▁disinf",
        -11.676496965334186
      ],
      [
        "▁dar",
        -12.13396785560455
      ],
      [
        "bec",
        -10.574143790540935
      ],
      [
        "▁value",
        -7.239929170484043
      ],
      [
        "appearance",
        -10.216192959385191
      ],
      [
        "▁mur",
        -12.269522202789725
      ],
      [
        "▁basket",
        -8.922404872565838
      ],
      [
        "▁us",
        -8.717653291933464
      ],
      [
        "▁2",
        -8.163736453031273
      ],
      [
        "▁ev",
        -8.426293831337182
      ],
      [
        "2007",
        -8.128454254637083
      ],
      [
        "▁tie",
        -7.915040447764559
      ],
      [
        "▁fork",
        -8.816144216775132
      ],
      [
        "mo",
        -10.67871517157454
      ],
      [
        "▁indonesia",
        -8.889313687140646
      ],
      [
        "▁volume",
        -9.524272313860527
      ],
      [
        "▁limb",
        -9.29794097847633
      ],
      [
        "▁danc",
        -9.731567653605886
      ],
      [
        "▁spring",
        -8.966210798973373
      ],
      [
        "▁identi",
        -10.627856283654644
      ],
      [
        "▁folder",
        -10.0665903659966
      ],
      [
        "panes",
        -11.622743861500709
      ],
      [
        "ener",
        -11.948849010578316
      ],
      [
        "▁…",
        -9.511839873390812
      ],
      [
        "fertili",
        -10.940065194753018
      ],
      [
        "▁galax",
        -11.27384393862169
      ],
      [
        "▁att",
        -12.543253603304972
      ],
      [
        "▁or",
        -12.158434441013416
      ],
      [
        "aw",
        -8.635393372690029
      ],
      [
        "▁suspect",
        -8.610884333859165
      ],
      [
        "les",
        -10.53822267409521
      ],
      [
        "rnament",
        -12.440949392350035
      ],
      [
        "ective",
        -9.857262177073967
      ],
      [
        "ala",
        -10.602663603178703
      ],
      [
        "▁kid",
        -7.2128999818664195
      ],
      [
        "▁inflation",
        -9.672701906194849
      ],
      [
        "iling",
        -9.419440004320588
      ],
      [
        "▁silk",
        -10.043120943385194
      ],
      [
        "piration",
        -10.808901628426606
      ],
      [
        "▁variable",
        -10.94009541060925
      ],
      [
        "mak",
        -11.788067273635468
      ],
      [
        "▁sorr",
        -6.765052041130429
      ],
      [
        "run",
        -9.876580137399618
      ],
      [
        "▁blanc",
        -8.893048881046356
      ],
      [
        "▁out",
        -5.28307788551118
      ],
      [
        "liv",
        -11.391506761539466
      ],
      [
        "andy",
        -8.500200177357831
      ],
      [
        "go",
        -8.520333324768858
      ],
      [
        "▁ens",
        -12.462114748077301
      ],
      [
        "▁esp",
        -10.397210483839482
      ],
      [
        "reign",
        -10.426554609238739
      ],
      [
        "te",
        -7.071888424677395
      ],
      [
        "▁blue",
        -9.77368541757523
      ],
      [
        "th",
        -8.909901913858777
      ],
      [
        "▁plast",
        -9.847034725913439
      ],
      [
        "▁protest",
        -9.534081895430205
      ],
      [
        "▁plaintiff",
        -9.75572102943206
      ],
      [
        "▁mil",
        -10.533670363763694
      ],
      [
        "▁pointe",
        -10.312528603189131
      ],
      [
        "ns",
        -11.007213776876563
      ],
      [
        "▁divide",
        -12.774030073732401
      ],
      [
        "to",
        -13.69644112476236
      ],
      [
        "▁...",
        -9.238424474979164
      ],
      [
        "▁shrew",
        -10.93999097206055
      ],
      [
        "▁blou",
        -12.820250550166527
      ],
      [
        "▁migrant",
        -9.760531997951958
      ],
      [
        "hat",
        -12.843046063994727
      ],
      [
        "▁low",
        -11.574365913303769
      ],
      [
        "▁mobili",
        -11.458725761861023
      ],
      [
        "rl",
        -9.114055491878657
      ],
      [
        "▁top",
        -7.426456253009276
      ],
      [
        "▁flowe",
        -11.585499014007345
      ],
      [
        "▁du",
        -9.680425868654583
      ],
      [
        "▁skip",
        -9.439206609939403
      ],
      [
        "▁graduate",
        -9.505751881649923
      ],
      [
        "▁settlement",
        -8.49909645631733
      ],
      [
        "▁trie",
        -7.719057135202351
      ],
      [
        "▁ferri",
        -11.218431343025852
      ],
      [
        "▁peri",
        -11.197140843927954
      ],
      [
        "▁cri",
        -11.74221102198122
      ],
      [
        "-for",
        -12.785472142995907
      ],
      [
        "ww",
        -11.076520667939029
      ],
      [
        "▁agenc",
        -8.502941689436444
      ],
      [
        "▁visualization",
        -10.689922980422523
      ],
      [
        "▁tush",
        -12.0491149038856
      ],
      [
        "▁ital",
        -8.258200858308086
      ],
      [
        "▁lit",
        -8.66688970464416
      ],
      [
        "▁avo",
        -11.83571388810655
      ],
      [
        "▁calm",
        -8.503779563561382
      ],
      [
        "▁simplifie",
        -10.959628500232803
      ],
      [
        "sat",
        -13.599719372528622
      ],
      [
        "▁’",
        -10.359454805938455
      ],
      [
        "6:00",
        -8.192154946984985
      ],
      [
        "▁weird",
        -8.673909073379907
      ],
      [
        "▁thir",
        -6.7330901287301295
      ],
      [
        "y",
        -5.527089822828086
      ],
      [
        "ption",
        -10.190898884159544
      ],
      [
        "▁diminish",
        -10.99513113359774
      ],
      [
        "▁blink",
        -11.816143123733198
      ],
      [
        "▁classic",
        -8.242006069632792
      ],
      [
        "▁shot",
        -8.874846030227769
      ],
      [
        "▁earl",
        -11.36319366899552
      ],
      [
        "▁hoora",
        -8.90806272157636
      ],
      [
        "▁centre",
        -8.9255994032646
      ],
      [
        "▁matthew",
        -8.751345273506804
      ],
      [
        "▁invi",
        -11.472631905628068
      ],
      [
        "▁memor",
        -8.270675350972942
      ],
      [
        "consumers",
        -11.046714322324096
      ],
      [
        "▁purp",
        -12.470918966256935
      ],
      [
        "▁remain",
        -7.157446223448043
      ],
      [
        "▁arm",
        -7.328861039059549
      ],
      [
        "▁bad",
        -7.974493665338207
      ],
      [
        "▁fa",
        -8.19876560582096
      ],
      [
        "▁preced",
        -10.375574931547945
      ],
      [
        "pher",
        -10.617590441090847
      ],
      [
        "▁cork",
        -11.564929581494587
      ],
      [
        "▁prim",
        -11.392439727975265
      ],
      [
        "▁persuade",
        -9.869802920021936
      ],
      [
        "▁fax",
        -9.359211627337473
      ],
[...]
