{
  "version": "1.0",
  "truncation": null,
  "padding": null,
  "added_tokens": [
    {
      "id": 753,
      "content": "[SEP]",
      "single_word": false,
      "lstrip": false,
      "rstrip": false,
      "normalized": false,
      "special": true
    },
    {
      "id": 1193,
      "content": "[MASK]",
      "single_word": false,
      "lstrip": false,
      "rstrip": false,
      "normalized": false,
      "special": true
    },
    {
      "id": 1943,
      "content": "[PAD]",
      "single_word": false,
      "lstrip": false,
      "rstrip": false,
      "normalized": false,
      "special": true
    },
    {
      "id": 3098,
      "content": "[CLS]",
      "single_word": false,
      "lstrip": false,
      "rstrip": false,
      "normalized": false,
      "special": true
    },
    {
      "id": 3987,
      "content": "[UNK]",
      "single_word": false,
      "lstrip": false,
      "rstrip": false,
      "normalized": false,
      "special": true
    }
  ],
  "normalizer": {
    "type": "Sequence",
    "normalizers": [
      {
        "type": "NFD"
      },
      {
        "type": "Lowercase"
      },
      {
        "type": "StripAccents"
      }
    ]
  },
  "pre_tokenizer": {
    "type": "Sequence",
    "pretokenizers": [
      {
        "type": "Metaspace",
        "replacement": "▁",
        "prepend_scheme": "always",
        "split": true
      }
    ]
  },
  "post_processor": {
    "type": "TemplateProcessing",
    "single": [
      {
        "SpecialToken": {
          "id": "[CLS]",
          "type_id": 0
        }
      },
      {
        "Sequence": {
          "id": "A",
          "type_id": 0
        }
      },
      {
        "SpecialToken": {
          "id": "[SEP]",
          "type_id": 0
        }
      }
    ],
    "pair": [
      {
        "SpecialToken": {
          "id": "[CLS]",
          "type_id": 0
        }
      },
      {
        "Sequence": {
          "id": "A",
          "type_id": 0
        }
      },
      {
        "SpecialToken": {
          "id": "[SEP]",
          "type_id": 0
        }
      },
      {
        "Sequence": {
          "id": "B",
          "type_id": 1
        }
      },
      {
        "SpecialToken": {
          "id": "[SEP]",
          "type_id": 1
        }
      }
    ],
    "special_tokens": {
      "[CLS]": {
        "id": "[CLS]",
        "ids": [
          3098
        ],
        "tokens": [
          "[CLS]"
        ]
      },
      "[SEP]": {
        "id": "[SEP]",
        "ids": [
          753
        ],
        "tokens": [
          "[SEP]"
        ]
      }
    }
  },
  "decoder": {
    "type": "Metaspace",
    "replacement": "▁",
    "prepend_scheme": "always",
    "split": true
  },
  "model": {
    "type": "WordPiece",
    "unk_token": "[UNK]",
    "continuing_subword_prefix": "##",
    "max_input_chars_per_word": 100,
    "vocab": {
      "▁followed": 0,
      "##cr": 1,
      "▁text": 2,
      "▁exper": 3,
      "▁non": 4,
      "##ase": 5,
      "▁displ": 6,
      "▁credit": 7,
      "t": 8,
      "▁company": 9,
      "##boy": 10,
      "▁future": 11,
      "▁die": 12,
      "##gg": 13,
      "▁bott": 14,
      "▁vac": 15,
      "##io": 16,
      "##anted": 17,
      "##ories": 18,
      "▁pie": 19,
      "▁step": 20,
      "▁polic": 21,
      "▁outside": 22,
      "▁tu": 23,
      "▁face": 24,
      "##jects": 25,
      "##lies": 26,
      "▁technologies": 27,
      "▁al": 28,
      "▁hea": 29,
      "▁case": 30,
      "▁dev": 31,
      "▁check": 32,
      "▁show": 33,
      "▁words": 34,
      "▁given": 35,
      "▁&": 36,
      "##tiv": 37,
      "▁resources": 38,
      "##way": 39,
      "##rol": 40,
      "▁decisions": 41,
      "▁point": 42,
      "##pen": 43,
      "▁quar": 44,
      "▁mi": 45,
      "##clock": 46,
      "##icul": 47,
      "▁station": 48,
      "##lications": 49,
      "▁atlanta": 50,
      "▁mode": 51,
      "▁hold": 52,
      "##idden": 53,
      "▁role": 54,
      "▁sign": 55,
      "##ip": 56,
      "##acted": 57,
      "##ort": 58,
      "▁concept": 59,
      "▁chicken": 60,
      "##er": 61,
      "##angu": 62,
      "##g": 63,
      "##ced": 64,
      "##ved": 65,
      "##land": 66,
      "▁sec": 67,
      "▁expos": 68,
      "##omp": 69,
      "##mitted": 70,
      "##ict": 71,
      "##ember": 72,
      "▁air": 73,
      "▁circ": 74,
      "▁jump": 75,
      "##able": 76,
      "##inus": 77,
      "##bb": 78,
      "▁many": 79,
      "▁writ": 80,
      "▁ever": 81,
      "##cakes": 82,
      "▁innovation": 83,
      "##ital": 84,
      "▁lo": 85,
      "▁poli": 86,
      "▁members": 87,
      "▁hus": 88,
      "##ν": 89,
      "▁tal": 90,
      "▁turned": 91,
      "▁leaves": 92,
      "▁settle": 93,
      "▁um": 94,
      "ø": 95,
      "▁animal": 96,
      "##ote": 97,
      "▁appl": 98,
      "▁avoid": 99,
      "▁purpose": 100,
      "▁cigar": 101,
      "##erv": 102,
      "▁story": 103,
      "▁cop": 104,
      "▁bed": 105,
      "##ror": 106,
      "▁something": 107,
      "▁dog": 108,
      "▁monkey": 109,
      "▁quality": 110,
      "▁abo": 111,
      "▁towards": 112,
      "▁aut": 113,
      "##light": 114,
      "▁context": 115,
      "▁myself": 116,
      "▁advice": 117,
      "▁respect": 118,
      "▁brain": 119,
      "d": 120,
      "▁onto": 121,
      "a": 122,
      "##akes": 123,
      "##ot": 124,
      "▁workers": 125,
      "▁mathema": 126,
      "##ers": 127,
      "##ority": 128,
      "▁mot": 129,
      "▁effort": 130,
      "▁our": 131,
      "##ithstanding": 132,
      "##ud": 133,
      "▁change": 134,
      "##end": 135,
      "▁attemp": 136,
      "▁potty": 137,
      "▁exch": 138,
      "▁famili": 139,
      "##ery": 140,
      "▁per": 141,
      "▁sli": 142,
      "▁orders": 143,
      "##ints": 144,
      "##all": 145,
      "▁has": 146,
      "▁citi": 147,
      "▁fail": 148,
      "▁mechan": 149,
      "▁best": 150,
      "▁opin": 151,
      "▁pain": 152,
      "▁techn": 153,
      "##ait": 154,
      "▁neither": 155,
      "▁enc": 156,
      "▁uh": 157,
      "▁end": 158,
      "▁write": 159,
      "##ury": 160,
      "▁observ": 161,
      "▁t": 162,
      "##ap": 163,
      "▁ext": 164,
      "▁office": 165,
      "▁bod": 166,
      "##ither": 167,
      "##ops": 168,
      "##urity": 169,
      "▁{": 170,
      "º": 171,
      "##ance": 172,
      "##ft": 173,
      "▁look": 174,
      "²": 175,
      "##lu": 176,
      "▁murder": 177,
      "▁counterpar": 178,
      "▁next": 179,
      "▁vacation": 180,
      "·": 181,
      "##key": 182,
      "##mar": 183,
      ",": 184,
      "##uty": 185,
      "##iture": 186,
      "▁walked": 187,
      "##led": 188,
      "▁question": 189,
      "▁att": 190,
      "▁cha": 191,
      "▁had": 192,
      "##ε": 193,
      "▁account": 194,
      "▁aircraft": 195,
      "##-": 196,
      "##at": 197,
      "##are": 198,
      "##alk": 199,
      "##ink": 200,
      "▁type": 201,
      "▁wom": 202,
      "+": 203,
      "▁inst": 204,
      "▁hit": 205,
      "▁nature": 206,
      "▁prep": 207,
      "▁below": 208,
      "▁yester": 209,
      "▁conduc": 210,
      "▁b/c": 211,
      "##hether": 212,
      "▁'s": 213,
      "▁tem": 214,
      "##ction": 215,
      "##ets": 216,
      "▁century": 217,
      "▁gi": 218,
      "##mit": 219,
      "▁`": 220,
      "##urch": 221,
      "##te": 222,
      "▁thous": 223,
      "##force": 224,
      "▁recip": 225,
      "▁gro": 226,
      "▁pro": 227,
      "▁web": 228,
      "▁rec": 229,
      "▁susp": 230,
      "▁attention": 231,
      "##avor": 232,
      "▁bug": 233,
      "▁repres": 234,
      "##'clock": 235,
      "▁now": 236,
      "6": 237,
      "▁nobody": 238,
      "▁run": 239,
      "▁location": 240,
      "▁broke": 241,
      "▁n't": 242,
      "▁been": 243,
      "▁river": 244,
      "##apers": 245,
      "▁pati": 246,
      "##ones": 247,
      "▁care": 248,
      "##derstand": 249,
      "▁cases": 250,
      "##ake": 251,
      "▁baby": 252,
      "▁pres": 253,
      "##isions": 254,
      "▁pig": 255,
      "▁sing": 256,
      "##oved": 257,
      "##cent": 258,
      "##time": 259,
      "▁event": 260,
      "##gency": 261,
      "▁prom": 262,
      "▁must": 263,
      "▁apple": 264,
      "##stem": 265,
      "▁great": 266,
      "▁users": 267,
      "##icide": 268,
      "▁offered": 269,
      "##om": 270,
      "▁provided": 271,
      "▁ass": 272,
      "▁under": 273,
      "▁price": 274,
      "▁ov": 275,
      "▁wrote": 276,
      "▁ai": 277,
      "▁finger": 278,
      "##uc": 279,
      "##’": 280,
      "##qui": 281,
      "▁glass": 282,
      "▁muse": 283,
      "▁spider": 284,
      "▁wanted": 285,
      "##yed": 286,
      "▁g": 287,
      "##ye": 288,
      "▁bee": 289,
      "▁few": 290,
      "##ise": 291,
      "▁ey": 292,
      "▁his": 293,
      "▁guar": 294,
      "▁third": 295,
      "▁li": 296,
      "▁!!!!": 297,
      "##yone": 298,
      "▁church": 299,
      "▁breakfast": 300,
      "##eces": 301,
      "▁watch": 302,
      "##se": 303,
      "##ust": 304,
      "▁director": 305,
      "▁news": 306,
      "##[": 307,
      "##ther": 308,
      "##lig": 309,
      "▁wol": 310,
      "▁did": 311,
      "▁money": 312,
      "##ked": 313,
      "##?": 314,
      "▁develop": 315,
      "##elf": 316,
      "##oun": 317,
      "▁pittsbur": 318,
      "▁versus": 319,
      "▁gone": 320,
      "##bon": 321,
      "▁families": 322,
      "##ton": 323,
      "▁string": 324,
      "##art": 325,
      "▁hotel": 326,
      "##ali": 327,
      "##ights": 328,
      "▁ju": 329,
      "▁brought": 330,
      "▁,": 331,
      "##ce": 332,
      "▁sunday": 333,
      "▁test": 334,
      "##acked": 335,
      "▁covered": 336,
      "▁atop": 337,
      "▁commission": 338,
      "▁adults": 339,
      "▁lab": 340,
      "▁aside": 341,
      "##ith": 342,
      "##ket": 343,
      "##ass": 344,
      "▁wall": 345,
      "▁opposite": 346,
      "##uss": 347,
      "υ": 348,
      "##ities": 349,
      "▁career": 350,
      "▁an": 351,
      "##mb": 352,
      "▁movie": 353,
      "▁struc": 354,
      "▁laws": 355,
      "▁certai": 356,
      "##****": 357,
      "▁supposed": 358,
      "##}": 359,
      "##ʒ": 360,
      "##ire": 361,
      "▁force": 362,
      "##anding": 363,
      "##…": 364,
      "▁scen": 365,
      "▁smal": 366,
      "▁leading": 367,
      "▁<<": 368,
      "##bo": 369,
      "##usion": 370,
      "▁emp": 371,
      "##uring": 372,
      "##ve": 373,
      "▁legisl": 374,
      "##cer": 375,
      "▁stage": 376,
      "##act": 377,
      "##gle": 378,
      "▁described": 379,
      "##ancing": 380,
      "▁dec": 381,
      "▁fir": 382,
      "##hin": 383,
      "##ath": 384,
      "##aign": 385,
      "▁resour": 386,
      "▁litt": 387,
      "▁ver": 388,
      "▁prot": 389,
      "▁growing": 390,
      "▁statement": 391,
      "▁gall": 392,
      "▁november": 393,
      "▁pic": 394,
      "▁ya": 395,
      "▁birds": 396,
      "▁came": 397,
      "▁speed": 398,
      "##aced": 399,
      "▁listen": 400,
      "##oney": 401,
      "▁match": 402,
      "##enty": 403,
      "▁concern": 404,
      "##acking": 405,
      "▁sol": 406,
      "##--------+----------------": 407,
      "▁property": 408,
      "▁mom": 409,
      "▁fut": 410,
      "▁exh": 411,
      "▁accep": 412,
      ">": 413,
      "▁environment": 414,
      "##oring": 415,
      "▁about": 416,
      "▁gave": 417,
      "▁this": 418,
      "##ax": 419,
      "▁changes": 420,
      "##be": 421,
      "r": 422,
      "▁but": 423,
      "▁your": 424,
      "▁not": 425,
      "▁gun": 426,
      "##ple": 427,
      "▁-----------------": 428,
      "##;": 429,
      "##e": 430,
      "▁hel": 431,
      "▁expect": 432,
      "##erated": 433,
      "##mes": 434,
      "##yp": 435,
      "##adel": 436,
      "▁compan": 437,
      "##lem": 438,
      "##uses": 439,
      "▁circum": 440,
      "##/he": 441,
      "▁consum": 442,
      "##room": 443,
      "▁wh": 444,
      "##ale": 445,
      "▁juice": 446,
      "▁camer": 447,
      "▁pull": 448,
      "##oth": 449,
      "▁comb": 450,
      "▁po": 451,
      "##ower": 452,
      "▁should": 453,
      "”": 454,
      "▁talk": 455,
      "▁critic": 456,
      "▁chocolate": 457,
      "##plan": 458,
      "▁terms": 459,
      "##owers": 460,
      "▁loved": 461,
      "##nus": 462,
      "▁grow": 463,
      "▁meat": 464,
      "▁wait": 465,
      "▁citizens": 466,
      "##its": 467,
      "##ts": 468,
      "▁countries": 469,
      "▁television": 470,
      "▁fields": 471,
      "##ech": 472,
      "▁letter": 473,
      "##ession": 474,
      "♥": 475,
      "▁ones": 476,
      "▁s": 477,
      "4": 478,
      "▁st": 479,
      "##eries": 480,
      "##+": 481,
      "▁mess": 482,
      "##ogn": 483,
      "▁bun": 484,
      "▁sugar": 485,
      "▁period": 486,
      "▁held": 487,
      "▁_______": 488,
      "▁hal": 489,
      "▁ref": 490,
      "▁plays": 491,
      "▁consid": 492,
      "▁state": 493,
      "▁am": 494,
      "▁cloth": 495,
      "▁bread": 496,
      "##ew": 497,
      "▁el": 498,
      "▁pa": 499,
      "##tly": 500,
      "##ming": 501,
      "▁!!!": 502,
      "▁fix": 503,
      "▁knows": 504,
      "##ke": 505,
      "▁glasses": 506,
      "▁coun": 507,
      "##ents": 508,
      "▁says": 509,
      "▁.?": 510,
      "▁month": 511,
      "##wa": 512,
      "▁plane": 513,
      "▁conv": 514,
      "▁counterparty": 515,
      "##ʃ": 516,
      "▁production": 517,
      "▁arrives": 518,
      "##ug": 519,
      "##iss": 520,
      "▁dogg": 521,
      "##ording": 522,
      "##enti": 523,
      "▁value": 524,
      "##educ": 525,
      "##ised": 526,
      "▁plans": 527,
      "▁sales": 528,
      "##ig": 529,
      "▁vet": 530,
      "▁e": 531,
      "##works": 532,
      "▁belief": 533,
      "▁based": 534,
      "▁seat": 535,
      "▁mat": 536,
      "##my": 537,
      "##app": 538,
      "▁have": 539,
      "▁decl": 540,
      "▁front": 541,
      "▁makes": 542,
      "▁bit": 543,
      "▁letters": 544,
      "▁seas": 545,
      "▁spir": 546,
      "▁proced": 547,
      "▁ob": 548,
      "▁giving": 549,
      "▁really": 550,
      "##σ": 551,
      "▁produc": 552,
      "▁ask": 553,
      "▁risk": 554,
      "▁windows": 555,
      "##irt": 556,
      "▁im": 557,
      "▁wine": 558,
      "▁fax": 559,
      "##ybody": 560,
      "▁like": 561,
      "##ble": 562,
      "##ik": 563,
      "##hood": 564,
      "##ading": 565,
      "ł": 566,
      "▁|--------+----------------": 567,
      "▁mrs": 568,
      "##ues": 569,
      "▁ne": 570,
      "▁pre": 571,
      "##erent": 572,
      ";": 573,
      "##ture": 574,
      "ʃ": 575,
      "##ids": 576,
      "▁ris": 577,
      "▁!!!!!!": 578,
      "▁neighb": 579,
      "▁mathematics": 580,
      "##earance": 581,
      "▁culture": 582,
      "▁surpr": 583,
      "▁created": 584,
      "##ge": 585,
      "▁friday": 586,
      "##ete": 587,
      "▁surp": 588,
      "ʊ": 589,
      "▁---------------------------------": 590,
      "▁wild": 591,
      "▁sl": 592,
      "▁it": 593,
      "##ail": 594,
      "▁comments": 595,
      "▁enjoy": 596,
      "▁accepted": 597,
      "▁sy": 598,
      "▁noon": 599,
      "▁could": 600,
      "▁interests": 601,
      "▁2": 602,
      "##ount": 603,
      "##xt": 604,
      "▁performance": 605,
      "▁stic": 606,
      "▁pal": 607,
      "▁over": 608,
      "##ached": 609,
      "▁offici": 610,
      "##med": 611,
      "##de": 612,
      "▁film": 613,
      "##iving": 614,
      "▁plus": 615,
      "▁re": 616,
      "▁.......": 617,
      "▁schedule": 618,
      "▁board": 619,
      "▁whale": 620,
      "▁delivery": 621,
      "##ruc": 622,
      "▁becom": 623,
      "##ouch": 624,
      "▁nation": 625,
      "##ose": 626,
      "##urs": 627,
      "##id": 628,
      "▁neck": 629,
      "▁grass": 630,
      "▁!": 631,
      "▁loss": 632,
      "▁ans": 633,
      "▁intended": 634,
      "##uting": 635,
      "##and": 636,
      "▁departing": 637,
      "##ww": 638,
      "##alities": 639,
      "▁planning": 640,
      "▁the": 641,
      "##ams": 642,
      "▁shower": 643,
      "##igh": 644,
      "▁ahead": 645,
      "▁coord": 646,
      "▁mentioned": 647,
      "##acters": 648,
      "▁situation": 649,
      "▁fly": 650,
      "▁wilt": 651,
      "##ine": 652,
      "##ner": 653,
      "##ony": 654,
      "▁vers": 655,
      "▁achieve": 656,
      "##eration": 657,
      "▁ke": 658,
      "▁action": 659,
      "▁message": 660,
      "$": 661,
      "9": 662,
      "##ie": 663,
      "##ply": 664,
      "▁eff": 665,
      "▁studies": 666,
      "▁guid": 667,
      "▁mother": 668,
      "▁th": 669,
      "▁arms": 670,
      "##mentation": 671,
      "▁cent": 672,
      "##olved": 673,
      "▁enj": 674,
      "▁written": 675,
      "▁mater": 676,
      "##ien": 677,
      "▁at": 678,
      "▁ep": 679,
      "##ulate": 680,
      "▁heard": 681,
      "##rated": 682,
      "▁foot": 683,
      "▁sitting": 684,
      "▁[...]": 685,
      "▁notic": 686,
      "▁driving": 687,
      "▁charge": 688,
      "##bly": 689,
      "##eck": 690,
      "▁cris": 691,
      "▁depar": 692,
      "▁email": 693,
      "▁candid": 694,
      "##ut": 695,
      "▁function": 696,
      "▁prac": 697,
      "▁track": 698,
      "▁mu": 699,
      "##tion": 700,
      "##'s": 701,
      "##ov": 702,
      "▁july": 703,
      "▁oil": 704,
      "▁mosqu": 705,
      "##hen": 706,
      "▁hang": 707,
      "▁spr": 708,
      "▁draft": 709,
      "##hip": 710,
      "▁morn": 711,
      "▁ice": 712,
      "##od": 713,
      "▁tail": 714,
      "▁number": 715,
      "▁astr": 716,
      "##eng": 717,
      "▁prefer": 718,
      "▁purpos": 719,
      "▁anthrax": 720,
      "▁band": 721,
      "▁rock": 722,
      "##ized": 723,
      "▁co": 724,
      "▁trad": 725,
      "▁ordered": 726,
      "▁speci": 727,
      "▁decision": 728,
      "##ron": 729,
      "##gu": 730,
      "▁done": 731,
      "▁experi": 732,
      "##ch": 733,
      "▁cons": 734,
      "##des": 735,
      "▁ind": 736,
      "▁deli": 737,
      "##ender": 738,
      "##epend": 739,
      "▁\"": 740,
      "▁middle": 741,
      "##oint": 742,
      "▁record": 743,
      "▁influ": 744,
      "▁views": 745,
      "▁loc": 746,
      "##nec": 747,
      "##ll": 748,
      "▁ti": 749,
      "▁dre": 750,
      "▁memory": 751,
      "##lud": 752,
      "[SEP]": 753,
      "▁bat": 754,
      "##±": 755,
      "1": 756,
      "##et": 757,
      "▁ur": 758,
      "▁live": 759,
      "##ang": 760,
      "▁guys": 761,
      "▁sister": 762,
      "##enting": 763,
      "▁serve": 764,
      "▁___________": 765,
      "##iti": 766,
      "##irst": 767,
      "▁opp": 768,
      "▁only": 769,
      "▁beneath": 770,
      "▁behavi": 771,
      "▁display": 772,
      "##•": 773,
      "▁problem": 774,
      "##line": 775,
      "▁.....": 776,
      "▁---------------------------------------------------------------------------": 777,
      "▁lea": 778,
      "▁includ": 779,
      "▁rat": 780,
      "▁pred": 781,
      "▁!!!!!!!!!!": 782,
      "▁und": 783,
      "▁whose": 784,
      "▁option": 785,
      "▁organization": 786,
      "▁star": 787,
      "▁paper": 788,
      "▁movies": 789,
      "▁kept": 790,
      "`": 791,
      "▁'em": 792,
      "▁kitt": 793,
      "▁damage": 794,
      "▁reading": 795,
      "▁madam": 796,
      "▁he": 797,
      "▁amb": 798,
      "▁yesterday": 799,
      "▁girls": 800,
      "▁play": 801,
      "▁rule": 802,
      "##????????????????": 803,
      "▁doc": 804,
      "##inging": 805,
      "▁relig": 806,
      "##az": 807,
      "▁whether": 808,
      "##ified": 809,
      "▁prin": 810,
      "▁kill": 811,
      "▁leaving": 812,
      "▁reports": 813,
      "##erc": 814,
      "▁standards": 815,
      "##erence": 816,
      "##ka": 817,
      "▁president": 818,
      "▁country": 819,
      "▁hous": 820,
      "##rew": 821,
      "▁colleag": 822,
      "▁sent": 823,
      "▁broken": 824,
      "▁ret": 825,
      "▁chair": 826,
      "▁department": 827,
      "##tive": 828,
      "##osing": 829,
      "▁etc.": 830,
      "▁fork": 831,
      "##tives": 832,
      "▁years": 833,
      "▁read": 834,
      "▁noone": 835,
      "▁freedom": 836,
      "▁putting": 837,
      "▁exam": 838,
      "▁ba": 839,
      "▁section": 840,
      "▁quite": 841,
      "▁innov": 842,
      "▁pack": 843,
      "##el": 844,
      "▁manag": 845,
      "▁***": 846,
      "▁v": 847,
      "▁summer": 848,
      "▁observed": 849,
      "▁see": 850,
      "▁ri": 851,
      "##ough": 852,
      "##ash": 853,
      "##oph": 854,
      "▁established": 855,
      "▁funds": 856,
      "##ock": 857,
      "▁post": 858,
      "▁back": 859,
      "▁dance": 860,
      "▁decades": 861,
      "▁piece": 862,
      "▁team": 863,
      "▁bea": 864,
      "▁imag": 865,
      "▁swe": 866,
      "##cing": 867,
      "▁tent": 868,
      "▁du": 869,
      "▁>": 870,
      "▁s/he": 871,
      "▁noticed": 872,
      "##re": 873,
      "▁ach": 874,
      "##ave": 875,
      "▁pop": 876,
      "▁appeared": 877,
      "▁col": 878,
      "▁treat": 879,
      "▁pub": 880,
      "##let": 881,
      "▁dogs": 882,
      "▁talking": 883,
      "##ambment": 884,
      "▁miles": 885,
      "▁just": 886,
      "3": 887,
      "▁discuss": 888,
      "##ides": 889,
      "##.doc": 890,
      "##ward": 891,
      "##rup": 892,
      "▁bet": 893,
      "▁fingers": 894,
      "##ont": 895,
      "▁rele": 896,
      "▁refl": 897,
      "▁attacks": 898,
      "▁boom": 899,
      "##ator": 900,
      "##ulation": 901,
      "▁tri": 902,
      "▁spec": 903,
      "▁sens": 904,
      "▁bel": 905,
      "##ering": 906,
      "▁je": 907,
      "▁lights": 908,
      "▁pizza": 909,
      "▁industry": 910,
      "▁streets": 911,
      "▁----------------------------------------------------------------------": 912,
      "▁bi": 913,
      "▁reven": 914,
      "##ł": 915,
      "▁inj": 916,
      "##old": 917,
      "▁offer": 918,
      "▁philadel": 919,
      "▁watching": 920,
      "(": 921,
      "##lication": 922,
      "##mber": 923,
      "▁went": 924,
      "▁practice": 925,
      "▁di": 926,
      "▁pup": 927,
      "##tions": 928,
      "▁friends": 929,
      "▁button": 930,
      "▁are": 931,
      "##ests": 932,
      "##ild": 933,
      "▁say": 934,
      "##æ": 935,
      "##ligh": 936,
      "▁staff": 937,
      "▁af": 938,
      "##in": 939,
      "▁wr": 940,
      "##**": 941,
      "▁box": 942,
      "▁pants": 943,
      "▁restric": 944,
      "##inds": 945,
      "▁being": 946,
      "##ures": 947,
      "▁capac": 948,
      "▁near": 949,
      "▁attached": 950,
      "▁connec": 951,
      "▁mos": 952,
      "▁e-mail": 953,
      "▁beside": 954,
      "▁deb": 955,
      "▁down": 956,
      "▁choo": 957,
      "##gy": 958,
      "##oration": 959,
      "▁gon": 960,
      "g": 961,
      "##alth": 962,
      "##min": 963,
      "▁closed": 964,
      "▁poet": 965,
      "▁etc": 966,
      "##day": 967,
      "▁tummy": 968,
      "##uh": 969,
      "▁banan": 970,
      "▁se": 971,
      "▁intelligence": 972,
      "▁wear": 973,
      "k": 974,
      "▁'m": 975,
      "##og": 976,
      "##ances": 977,
      "##gether": 978,
      "▁degre": 979,
      "▁project": 980,
      "▁********************************": 981,
      "▁out": 982,
      "▁address": 983,
      "##ivid": 984,
      "▁difficul": 985,
      "▁intel": 986,
      "##ric": 987,
      "▁age": 988,
      "▁beauty": 989,
      "▁custom": 990,
      "##lf": 991,
      "▁encour": 992,
      "##ou": 993,
      "▁right": 994,
      "##tice": 995,
      "##cc": 996,
      "▁thought": 997,
      "▁running": 998,
      "▁bir": 999,
      "##tle": 1000,
      "▁lines": 1001,
      "▁nov": 1002,
      "▁thoug": 1003,
      "▁herself": 1004,
      "##ions": 1005,
      "##ements": 1006,
      "▁dinos": 1007,
      "##iction": 1008,
      "##derst": 1009,
      "▁quino": 1010,
      "##us": 1011,
      "▁meet": 1012,
      "▁propos": 1013,
      "▁camera": 1014,
      "▁b/": 1015,
      "▁quit": 1016,
      "##form": 1017,
      "▁sleep": 1018,
      "▁adop": 1019,
      "▁los": 1020,
      "##dit": 1021,
      "##ateg": 1022,
      "▁destro": 1023,
      "▁pas": 1024,
      "▁groups": 1025,
      "##ored": 1026,
      "▁’d": 1027,
      "##place": 1028,
      "▁yog": 1029,
      "▁'ll": 1030,
      "##ach": 1031,
      "▁*****": 1032,
      "##phone": 1033,
      "▁considered": 1034,
      "▁places": 1035,
      "/": 1036,
      "▁!!!?": 1037,
      "▁elected": 1038,
      "▁ben": 1039,
      "▁pushed": 1040,
      "▁press": 1041,
      "##to": 1042,
      "▁earth": 1043,
      "##ack": 1044,
      "##!!!": 1045,
      "▁counter": 1046,
      "▁behavior": 1047,
      "##rou": 1048,
      "▁em": 1049,
      "▁bu": 1050,
      "##lished": 1051,
      "ε": 1052,
      "▁service": 1053,
      "▁hat": 1054,
      "▁it's": 1055,
      "##m": 1056,
      "##rested": 1057,
      "▁cake": 1058,
      "▁aspects": 1059,
      "##ual": 1060,
      "▁helped": 1061,
      "▁couple": 1062,
      "▁blanket": 1063,
      "▁ll": 1064,
      "▁names": 1065,
      "##ment": 1066,
      "▁things": 1067,
      "##ently": 1068,
      "##ders": 1069,
      "▁benef": 1070,
      "▁rememb": 1071,
      "▁asked": 1072,
      "u": 1073,
      "##--------------------------------": 1074,
      "##oo": 1075,
      "▁))": 1076,
      "▁toward": 1077,
      "##os": 1078,
      "▁agreed": 1079,
      "h": 1080,
      "▁more": 1081,
      "▁kitchen": 1082,
      "▁dou": 1083,
      "▁against": 1084,
      "##si": 1085,
      "▁imp": 1086,
      "ɔ": 1087,
      "▁query": 1088,
      "▁rub": 1089,
      "▁sell": 1090,
      "▁recomm": 1091,
      "▁appears": 1092,
      "▁body": 1093,
      "▁study": 1094,
      "▁rail": 1095,
      "##of": 1096,
      "##ks": 1097,
      "▁hundreds": 1098,
      "▁police": 1099,
      "▁phil": 1100,
      "▁argu": 1101,
      "▁": 1102,
      "▁up": 1103,
      "▁tur": 1104,
      "##imp": 1105,
      "▁amidst": 1106,
      "##ything": 1107,
      "{": 1108,
      "▁set": 1109,
      "##ired": 1110,
      "##erate": 1111,
      "##ded": 1112,
      "▁produce": 1113,
      "##tor": 1114,
      "▁cor": 1115,
      "▁shoes": 1116,
      "▁structure": 1117,
      "▁kn": 1118,
      "▁dep": 1119,
      "##********": 1120,
      "▁reasons": 1121,
      "##lin": 1122,
      "##olution": 1123,
      "▁king": 1124,
      "##wic": 1125,
      "##lection": 1126,
      "▁fig": 1127,
      "▁last": 1128,
      "▁nothing": 1129,
      "▁course": 1130,
      "##s": 1131,
      "▁species": 1132,
      "▁dese": 1133,
      "▁hospital": 1134,
      "▁or": 1135,
      "▁player": 1136,
      "##eric": 1137,
      "▁inside": 1138,
      "##ro": 1139,
      "##out": 1140,
      "▁son": 1141,
      "##y": 1142,
      "▁close": 1143,
      "▁enjo": 1144,
      "▁having": 1145,
      "▁instruc": 1146,
      "n": 1147,
      "▁x": 1148,
      "▁—": 1149,
      "▁airport": 1150,
      "▁temperature": 1151,
      "▁health": 1152,
      "##lan": 1153,
      "##ying": 1154,
      "▁named": 1155,
      "▁dat": 1156,
      "▁rem": 1157,
      "##{": 1158,
      "##oc": 1159,
      "##eas": 1160,
      "▁parents": 1161,
      "▁h": 1162,
      "▁independence": 1163,
      "▁mass": 1164,
      "▁w/": 1165,
      "▁land": 1166,
      "▁percentage": 1167,
      "▁report": 1168,
      "▁jwww": 1169,
      "▁shop": 1170,
      "▁fall": 1171,
      "▁center": 1172,
      "▁forms": 1173,
      "▁scienti": 1174,
      "▁mine": 1175,
      "▁fol": 1176,
      "▁achie": 1177,
      "##ef": 1178,
      "▁make": 1179,
      "▁owners": 1180,
      "▁share": 1181,
      "▁pay": 1182,
      "▁tonight": 1183,
      "##oup": 1184,
      "p": 1185,
      "▁soc": 1186,
      "▁movement": 1187,
      "▁poc": 1188,
      "##bs": 1189,
      "##her": 1190,
      "##‘": 1191,
      "▁added": 1192,
      "[MASK]": 1193,
      "▁[": 1194,
      "▁addition": 1195,
      "▁arr": 1196,
      "##inc": 1197,
      "##tern": 1198,
      "▁differences": 1199,
      "▁here": 1200,
      "▁fil": 1201,
      "##zation": 1202,
      "##-------": 1203,
      "##ished": 1204,
      "▁dough": 1205,
      "##'re": 1206,
      "▁climate": 1207,
      "▁including": 1208,
      "▁create": 1209,
      "##<": 1210,
      "▁children": 1211,
      "▁gar": 1212,
      "▁basis": 1213,
      "▁studying": 1214,
      "β": 1215,
      "▁straw": 1216,
      "▁imagine": 1217,
      "##μ": 1218,
      "##ag": 1219,
      "▁built": 1220,
      "<": 1221,
      "##encies": 1222,
      "▁bot": 1223,
      "▁clean": 1224,
      "▁uses": 1225,
      "▁sort": 1226,
      "▁ow": 1227,
      "▁occ": 1228,
      "▁port": 1229,
      "▁works": 1230,
      "▁mech": 1231,
      "▁prices": 1232,
      "▁elements": 1233,
      "##gr": 1234,
      "▁+": 1235,
      "▁heads": 1236,
      "##rec": 1237,
      "▁tre": 1238,
      "##ments": 1239,
      "##mp": 1240,
      "▁sa": 1241,
      "▁comes": 1242,
      "##_": 1243,
      "▁values": 1244,
      "▁way": 1245,
      "##enc": 1246,
      "▁contact": 1247,
      "▁techniqu": 1248,
      "▁pass": 1249,
      "##lers": 1250,
      "▁elections": 1251,
      "##]": 1252,
      "▁int": 1253,
      "³": 1254,
      "##iv": 1255,
      "▁questions": 1256,
      "##uts": 1257,
      "▁boston": 1258,
      "▁ps": 1259,
      "▁datab": 1260,
      "▁ev": 1261,
      "▁little": 1262,
      "##uck": 1263,
      "##ter": 1264,
      "▁may": 1265,
      "##ren": 1266,
      "▁approach": 1267,
      "##res": 1268,
      "▁head": 1269,
      "▁pan": 1270,
      "▁filter": 1271,
      "##ur": 1272,
      "▁relationship": 1273,
      "##ing": 1274,
      "##elines": 1275,
      "▁note": 1276,
      "▁means": 1277,
      "##oke": 1278,
      "▁stood": 1279,
      "▁conse": 1280,
      "▁fligh": 1281,
      "▁plants": 1282,
      "▁!!!!!!!!!!!!!!!": 1283,
      "▁(": 1284,
      "▁items": 1285,
      "▁balt": 1286,
      "▁writer": 1287,
      "##ei": 1288,
      "▁husband": 1289,
      "▁1": 1290,
      "▁yo": 1291,
      "▁weekend": 1292,
      "▁typ": 1293,
      "▁deal": 1294,
      "##tering": 1295,
      "▁joke": 1296,
      "▁pean": 1297,
      "▁ab": 1298,
      "##uk": 1299,
      "▁reference": 1300,
      "▁serves": 1301,
      "▁saying": 1302,
      "▁ph": 1303,
      "▁commit": 1304,
      "▁stopped": 1305,
      "##ision": 1306,
      "▁implem": 1307,
      "##ic": 1308,
      "▁bunch": 1309,
      "##memb": 1310,
      "##ian": 1311,
      "##ades": 1312,
      "##ured": 1313,
      "##uter": 1314,
      "▁day": 1315,
      "▁ele": 1316,
      "▁small": 1317,
      "f": 1318,
      "▁enem": 1319,
      "▁train": 1320,
      "▁mur": 1321,
      "▁contain": 1322,
      "▁proper": 1323,
      "▁waiting": 1324,
      "▁article": 1325,
      "▁anybody": 1326,
      "##aff": 1327,
      "▁veget": 1328,
      "▁wonder": 1329,
      "##th": 1330,
      "▁dad": 1331,
      "▁follow": 1332,
      "▁corn": 1333,
      "##♥": 1334,
      "▁shirt": 1335,
      "▁beach": 1336,
      "##eti": 1337,
      "▁apart": 1338,
      "##bur": 1339,
      "▁sho": 1340,
      "▁included": 1341,
      "▁su": 1342,
      "▁rob": 1343,
      "▁tom": 1344,
      "##p;": 1345,
      "▁pool": 1346,
      "##ore": 1347,
      "##oy": 1348,
      "##sing": 1349,
      "▁results": 1350,
      "##yth": 1351,
      "▁pros": 1352,
      "##fic": 1353,
      "“": 1354,
      "▁everybody": 1355,
      "▁hav": 1356,
      "▁mean": 1357,
      "▁ago": 1358,
      "▁learn": 1359,
      "##erve": 1360,
      "▁boxes": 1361,
      "▁rug": 1362,
      "##...": 1363,
      "▁squ": 1364,
      "##x": 1365,
      "##erences": 1366,
      "##ung": 1367,
      "▁progress": 1368,
      "▁--": 1369,
      "▁inv": 1370,
      "##ors": 1371,
      "▁community": 1372,
      "ν": 1373,
      "##ground": 1374,
      "##av": 1375,
      "##vail": 1376,
      "##ws": 1377,
      "##pped": 1378,
      "▁..": 1379,
      "▁ended": 1380,
      "▁business": 1381,
      "▁never": 1382,
      "▁tie": 1383,
      "##ible": 1384,
      "▁---------------------------------------------------------------------": 1385,
      "▁iss": 1386,
      "▁parts": 1387,
      "▁represent": 1388,
      "##ecting": 1389,
      "▁determ": 1390,
      "▁systems": 1391,
      "##ums": 1392,
      "▁conn": 1393,
      "##eared": 1394,
      "▁inf": 1395,
      "▁concl": 1396,
      "▁circle": 1397,
      "▁noise": 1398,
      "##ope": 1399,
      "▁surv": 1400,
      "##=": 1401,
      "▁payment": 1402,
      "▁ins": 1403,
      "▁guess": 1404,
      "##duc": 1405,
      "##ounts": 1406,
      "##4": 1407,
      "##??": 1408,
      "▁wor": 1409,
      "##ards": 1410,
      "##ned": 1411,
      "▁mus": 1412,
      "▁replication": 1413,
      "##ema": 1414,
      "▁who's": 1415,
      "▁birthday": 1416,
      "▁analys": 1417,
      "##elly": 1418,
      "##un": 1419,
      "##ottable": 1420,
      "▁condition": 1421,
      "▁env": 1422,
      "▁airplan": 1423,
      "▁direc": 1424,
      "▁sect": 1425,
      "▁cab": 1426,
      "▁a": 1427,
      "##ɑ": 1428,
      "▁bottom": 1429,
      "▁surface": 1430,
      "▁alongside": 1431,
      "e": 1432,
      "▁capital": 1433,
      "##ches": 1434,
      "##ə": 1435,
      "##ather": 1436,
      "▁‘": 1437,
      "▁territory": 1438,
      "▁speech": 1439,
      "▁---": 1440,
      "▁ste": 1441,
      "▁repe": 1442,
      "▁reached": 1443,
      "▁har": 1444,
      "▁cros": 1445,
      "##ong": 1446,
      "▁who": 1447,
      "##ider": 1448,
      "##7": 1449,
      "▁dark": 1450,
      "▁color": 1451,
      "▁scre": 1452,
      "##ater": 1453,
      "▁obt": 1454,
      "8": 1455,
      "▁still": 1456,
      "▁monday": 1457,
      "▁mommy": 1458,
      "▁root": 1459,
      "▁garden": 1460,
      "▁cour": 1461,
      "▁swww": 1462,
      "▁transportation": 1463,
      "##**********************************": 1464,
      "##co": 1465,
      "▁administration": 1466,
      "ə": 1467,
      "##ici": 1468,
      "▁needs": 1469,
      "##uro": 1470,
      "##aged": 1471,
      "▁yourself": 1472,
      "▁..........": 1473,
      "##dle": 1474,
      "##^": 1475,
      "▁aff": 1476,
      "▁wind": 1477,
      "▁key": 1478,
      "▁pri": 1479,
      "▁:": 1480,
      "▁song": 1481,
      "▁r": 1482,
      "▁brother": 1483,
      "▁between": 1484,
      "▁aug": 1485,
      "y": 1486,
      "▁trav": 1487,
      "▁mir": 1488,
      "▁comed": 1489,
      "▁format": 1490,
      "##urday": 1491,
      "▁moving": 1492,
      "▁suit": 1493,
      "▁dinosaur": 1494,
      "▁you": 1495,
      "##ys": 1496,
      "##ens": 1497,
      "▁owner": 1498,
      "##++++": 1499,
      "##ump": 1500,
      "##!!!!": 1501,
      "##chen": 1502,
      "##pts": 1503,
      "##ins": 1504,
      "▁gri": 1505,
      "▁smo": 1506,
      "▁tell": 1507,
      "##tures": 1508,
      "##vision": 1509,
      "▁come": 1510,
      "▁sk": 1511,
      "▁conflict": 1512,
      "▁inte": 1513,
      "▁rates": 1514,
      "##--": 1515,
      "▁daughter": 1516,
      "##band": 1517,
      "##it": 1518,
      "▁visited": 1519,
      "▁watched": 1520,
      "▁sp": 1521,
      "▁clothes": 1522,
      ")": 1523,
      "##tery": 1524,
      "▁ban": 1525,
      "▁so": 1526,
      "##aining": 1527,
      "▁competition": 1528,
      "##)": 1529,
      "▁gas": 1530,
      "##ghting": 1531,
      "▁le": 1532,
      "##ord": 1533,
      "ς": 1534,
      "##ency": 1535,
      "▁sub": 1536,
      "▁returned": 1537,
      "##ace": 1538,
      "▁apar": 1539,
      "▁l": 1540,
      "▁long": 1541,
      "##ape": 1542,
      "▁will": 1543,
      "##ports": 1544,
      "▁thre": 1545,
      "▁er": 1546,
      "▁initi": 1547,
      "▁y": 1548,
      "▁reas": 1549,
      "▁bro": 1550,
      "▁ki": 1551,
      "▁millions": 1552,
      "##ature": 1553,
      "▁coff": 1554,
      "##nel": 1555,
      "▁music": 1556,
      "##urn": 1557,
      "▁holding": 1558,
      "▁data": 1559,
      "▁activ": 1560,
      "##ily": 1561,
      "▁coo": 1562,
      "▁would": 1563,
      "▁skills": 1564,
      "▁av": 1565,
      "▁december": 1566,
      "##ret": 1567,
      "▁en": 1568,
      "▁hosp": 1569,
      "##vel": 1570,
      "▁pat": 1571,
      "▁dece": 1572,
      "▁arch": 1573,
      "–": 1574,
      "▁kit": 1575,
      "##ternoon": 1576,
      "5": 1577,
      "▁count": 1578,
      "▁hum": 1579,
      "▁sme": 1580,
      "▁in": 1581,
      "##ley": 1582,
      "##ared": 1583,
      "▁traffic": 1584,
      "##rax": 1585,
      "▁hurt": 1586,
      "▁estim": 1587,
      "##ill": 1588,
      "##fe": 1589,
      "▁mov": 1590,
      "▁leave": 1591,
      "▁energy": 1592,
      "▁continue": 1593,
      "▁introduc": 1594,
      "##ure": 1595,
      "▁fi": 1596,
      "▁answer": 1597,
      "##overn": 1598,
      "▁wash": 1599,
      "▁sheet": 1600,
      "▁act": 1601,
      "▁terror": 1602,
      "▁trip": 1603,
      "▁invest": 1604,
      "##----": 1605,
      "▁rel": 1606,
      "▁located": 1607,
      "▁preven": 1608,
      "▁bought": 1609,
      "##ration": 1610,
      "▁term": 1611,
      "##book": 1612,
      "▁anim": 1613,
      "▁position": 1614,
      "##row": 1615,
      "▁coast": 1616,
      "▁chec": 1617,
      "▁balloon": 1618,
      "##uted": 1619,
      "##idence": 1620,
      "▁safety": 1621,
      "▁led": 1622,
      "▁insur": 1623,
      "▁de": 1624,
      "▁beginning": 1625,
      "##ru": 1626,
      "▁******************************************************************": 1627,
      "▁is": 1628,
      "▁bill": 1629,
      "▁off": 1630,
      "▁****": 1631,
      "##iation": 1632,
      "▁ide": 1633,
      "##ault": 1634,
      "▁cheese": 1635,
      "▁beh": 1636,
      "▁times": 1637,
      "▁arm": 1638,
      "##selves": 1639,
      "▁shut": 1640,
      "▁somebody": 1641,
      "▁lim": 1642,
      "▁science": 1643,
      "▁tour": 1644,
      "▁known": 1645,
      "▁conc": 1646,
      "▁bar": 1647,
      "▁transport": 1648,
      "##other": 1649,
      "▁fin": 1650,
      "▁auth": 1651,
      "▁helps": 1652,
      "▁o'clock": 1653,
      "▁gl": 1654,
      "▁f": 1655,
      "##c": 1656,
      "▁sch": 1657,
      "▁activities": 1658,
      "##ama": 1659,
      "▁heat": 1660,
      "▁awa": 1661,
      "▁hers": 1662,
      "▁bos": 1663,
      "##www": 1664,
      "▁chocol": 1665,
      "##ened": 1666,
      "▁fro": 1667,
      "▁cla": 1668,
      "##ove": 1669,
      "σ": 1670,
      "##5": 1671,
      "##ω": 1672,
      "▁aud": 1673,
      "##vest": 1674,
      "##ries": 1675,
      "▁issues": 1676,
      "▁spring": 1677,
      "##ι": 1678,
      "▁belie": 1679,
      "▁-": 1680,
      "▁parliament": 1681,
      "▁independ": 1682,
      "ι": 1683,
      "▁restaur": 1684,
      "▁ship": 1685,
      "z": 1686,
      "##ide": 1687,
      "▁served": 1688,
      "▁stret": 1689,
      "##pl": 1690,
      "##!?": 1691,
      "▁because": 1692,
      "▁feet": 1693,
      "##uation": 1694,
      "##k": 1695,
      "▁cowboy": 1696,
      "▁yet": 1697,
      "▁init": 1698,
      "▁ch": 1699,
      "▁room": 1700,
      "▁believe": 1701,
      "▁mr": 1702,
      "▁another": 1703,
      "▁place": 1704,
      "##ush": 1705,
      "▁washington": 1706,
      "▁yourselves": 1707,
      "##ects": 1708,
      "▁allowed": 1709,
      "▁vs.": 1710,
      "▁rout": 1711,
      "▁sty": 1712,
      "▁ann": 1713,
      "##itt": 1714,
      "▁sci": 1715,
      "##w": 1716,
      "##ri": 1717,
      "▁quinoa": 1718,
      "##gin": 1719,
      "▁holiday": 1720,
      "b": 1721,
      "▁dow": 1722,
      "▁rev": 1723,
      "▁car": 1724,
      "▁fan": 1725,
      "▁showing": 1726,
      "▁wan": 1727,
      "▁numerous": 1728,
      "##chie": 1729,
      "##ym": 1730,
      "##artment": 1731,
      "▁buy": 1732,
      "▁became": 1733,
      "▁cup": 1734,
      "▁user": 1735,
      "##ck": 1736,
      "▁!!!!!!!!!!!!!!!!!!!": 1737,
      "##f": 1738,
      "▁oc": 1739,
      "##tie": 1740,
      "▁used": 1741,
      "##ption": 1742,
      "##ber": 1743,
      "▁certain": 1744,
      "▁life": 1745,
      "▁dr": 1746,
      "▁light": 1747,
      "▁reason": 1748,
      "##reds": 1749,
      "##º": 1750,
      "▁him": 1751,
      "▁subject": 1752,
      "▁enab": 1753,
      "▁found": 1754,
      "##ive": 1755,
      "—": 1756,
      "▁give": 1757,
      "##ative": 1758,
      "##=----": 1759,
      "▁response": 1760,
      "▁sh": 1761,
      "##pr": 1762,
      "▁take": 1763,
      "▁link": 1764,
      "##asing": 1765,
      "##ashington": 1766,
      "▁forg": 1767,
      "##ad": 1768,
      "▁ac": 1769,
      "▁actions": 1770,
      "▁bus": 1771,
      "▁dis": 1772,
      "▁hop": 1773,
      "ω": 1774,
      "▁skin": 1775,
      "##ow": 1776,
      "▁enjambment": 1777,
      "▁top": 1778,
      "▁.": 1779,
      "##eted": 1780,
      "▁puppy": 1781,
      "##formed": 1782,
      "▁forth": 1783,
      "▁por": 1784,
      "##ivers": 1785,
      "▁pencil": 1786,
      "▁behind": 1787,
      "▁lived": 1788,
      "▁ho": 1789,
      "▁notwithstanding": 1790,
      "##izing": 1791,
      "▁eggs": 1792,
      "▁might": 1793,
      "▁ra": 1794,
      "▁agre": 1795,
      "▁peace": 1796,
      "▁categ": 1797,
      "▁scale": 1798,
      "▁cro": 1799,
      "▁airports": 1800,
      "▁hope": 1801,
      "▁such": 1802,
      "▁lion": 1803,
      "##sel": 1804,
      "▁happened": 1805,
      "##ication": 1806,
      "##ist": 1807,
      "▁whatever": 1808,
      "▁soldiers": 1809,
      "##town": 1810,
      "##man": 1811,
      "▁died": 1812,
      "##den": 1813,
      "▁ships": 1814,
      "▁seen": 1815,
      "##aft": 1816,
      "▁amend": 1817,
      "##ipped": 1818,
      "▁sel": 1819,
      "##.": 1820,
      "▁assoc": 1821,
      "▁world": 1822,
      "▁upon": 1823,
      "▁license": 1824,
      "##ving": 1825,
      "##oss": 1826,
      "##ril": 1827,
      "##aint": 1828,
      "▁sup": 1829,
      "▁understand": 1830,
      "##con": 1831,
      "▁liter": 1832,
      "##ally": 1833,
      "##cause": 1834,
      "##ite": 1835,
      "##esday": 1836,
      "▁din": 1837,
      "▁eng": 1838,
      "▁guy": 1839,
      "▁training": 1840,
      "▁sky": 1841,
      "▁model": 1842,
      "##und": 1843,
      "▁proce": 1844,
      "▁pen": 1845,
      "▁lose": 1846,
      "▁:?": 1847,
      "▁appearance": 1848,
      "▁pictures": 1849,
      "##ception": 1850,
      "▁find": 1851,
      "▁lady": 1852,
      "▁assistance": 1853,
      "▁disc": 1854,
      "▁tax": 1855,
      "▁include": 1856,
      "▁among": 1857,
      "▁told": 1858,
      "▁learning": 1859,
      "##oice": 1860,
      "▁code": 1861,
      "##ists": 1862,
      "▁prof": 1863,
      "▁finish": 1864,
      "▁regard": 1865,
      "▁lear": 1866,
      "##is": 1867,
      "##anges": 1868,
      "##--------": 1869,
      "▁options": 1870,
      "▁----==": 1871,
      "▁why": 1872,
      "▁spot": 1873,
      "▁add": 1874,
      "##as": 1875,
      "##etition": 1876,
      "##inn": 1877,
      "##ributed": 1878,
      "##ere": 1879,
      "##airs": 1880,
      "▁soil": 1881,
      "##ologies": 1882,
      "##xce": 1883,
      "▁san": 1884,
      "▁ticket": 1885,
      "w": 1886,
      "##ters": 1887,
      "▁days": 1888,
      "##tc": 1889,
      "▁airline": 1890,
      "##ozer": 1891,
      "▁sector": 1892,
      "##v": 1893,
      "▁spent": 1894,
      "▁!.": 1895,
      "▁evening": 1896,
      "▁ce": 1897,
      "▁published": 1898,
      "▁doctor": 1899,
      "##alt": 1900,
      "▁repl": 1901,
      "▁feels": 1902,
      "▁wal": 1903,
      "▁hom": 1904,
      "▁time": 1905,
      "##ms": 1906,
      "##olving": 1907,
      "▁rabb": 1908,
      "##dge": 1909,
      "▁standing": 1910,
      "▁debate": 1911,
      "▁afternoon": 1912,
      "▁ha": 1913,
      "▁working": 1914,
      "▁cap": 1915,
      "##gan": 1916,
      "▁foods": 1917,
      "▁object": 1918,
      "▁seeing": 1919,
      "▁particip": 1920,
      "▁taking": 1921,
      "▁vis": 1922,
      "▁apartment": 1923,
      "▁arg": 1924,
      "▁details": 1925,
      "##ool": 1926,
      "##zz": 1927,
      "##.c": 1928,
      "▁mad": 1929,
      "▁keeping": 1930,
      "▁k": 1931,
      "##for": 1932,
      "▁character": 1933,
      "##ians": 1934,
      "▁forgot": 1935,
      "##aking": 1936,
      "▁fill": 1937,
      "##aur": 1938,
      "##ork": 1939,
      "▁exposure": 1940,
      "##aughter": 1941,
      "##ution": 1942,
      "[PAD]": 1943,
      "▁arri": 1944,
      "▁meas": 1945,
      "▁ed": 1946,
      "▁doggie": 1947,
      "▁creating": 1948,
      "##ick": 1949,
      "▁water": 1950,
      "▁master": 1951,
      "▁access": 1952,
      "##ated": 1953,
      "##go": 1954,
      "▁pe": 1955,
      "##str": 1956,
      "▁fit": 1957,
      "▁pl": 1958,
      "▁carry": 1959,
      "▁wheel": 1960,
      "c": 1961,
      "▁goal": 1962,
      "▁need": 1963,
      "▁avo": 1964,
      "##vement": 1965,
      "▁half": 1966,
      "▁start": 1967,
      "▁seem": 1968,
      "▁mama": 1969,
      "▁knew": 1970,
      "▁ours": 1971,
      "##ited": 1972,
      "▁princip": 1973,
      "##til": 1974,
      "▁accept": 1975,
      "▁think": 1976,
      "▁throw": 1977,
      "▁does": 1978,
      "##d": 1979,
      "##ue": 1980,
      "▁menu": 1981,
      "▁hear": 1982,
      "▁lips": 1983,
      "▁research": 1984,
      "▁alt": 1985,
      "▁fore": 1986,
      "▁!!": 1987,
      "▁fun": 1988,
      "▁creation": 1989,
      "▁neighbor": 1990,
      "##phere": 1991,
      "##iff": 1992,
      "##aled": 1993,
      "▁aboard": 1994,
      "▁rep": 1995,
      "##ills": 1996,
      "▁apply": 1997,
      "▁delive": 1998,
      "##ρ": 1999,
      "▁these": 2000,
      "###": 2001,
      "##????????": 2002,
      "▁saw": 2003,
      "▁counc": 2004,
      "##'": 2005,
      "▁knoc": 2006,
      "##ety": 2007,
      "##sul": 2008,
      "##ables": 2009,
      "##>": 2010,
      "##ta": 2011,
      "##ange": 2012,
      "▁agreement": 2013,
      "▁foc": 2014,
      "##anded": 2015,
      "▁upd": 2016,
      "▁requirements": 2017,
      "##3": 2018,
      "##tai": 2019,
      "▁tas": 2020,
      "▁played": 2021,
      "▁child": 2022,
      "▁surround": 2023,
      "▁discussion": 2024,
      "##ole": 2025,
      "▁res": 2026,
      "▁pep": 2027,
      "▁amount": 2028,
      "▁commun": 2029,
      "▁events": 2030,
      "##’t": 2031,
      "▁=---": 2032,
      "##ould": 2033,
      "##amed": 2034,
      "▁system": 2035,
      "##fare": 2036,
      "##ledge": 2037,
      "▁fo": 2038,
      "▁meaning": 2039,
      "▁app": 2040,
      "##tivity": 2041,
      "▁arti": 2042,
      ".": 2043,
      "##par": 2044,
      "▁americ": 2045,
      "▁drop": 2046,
      "▁gu": 2047,
      "0": 2048,
      "▁schol": 2049,
      "▁lead": 2050,
      "##rote": 2051,
      "▁less": 2052,
      "▁paid": 2053,
      "##ugg": 2054,
      "▁mo": 2055,
      "##ouse": 2056,
      "▁trave": 2057,
      "##ining": 2058,
      "##u": 2059,
      "▁c": 2060,
      "|": 2061,
      "##pp": 2062,
      "▁require": 2063,
      "▁piv": 2064,
      "▁cock": 2065,
      "##oles": 2066,
      "▁penc": 2067,
      "▁cartoon": 2068,
      "▁required": 2069,
      "▁coll": 2070,
      "▁knowledge": 2071,
      "▁''": 2072,
      "▁when": 2073,
      "##iew": 2074,
      "▁plenty": 2075,
      "##ff": 2076,
      "##oug": 2077,
      "▁opening": 2078,
      "##onstr": 2079,
      "~": 2080,
      "▁engine": 2081,
      "▁build": 2082,
      "##ington": 2083,
      "▁even": 2084,
      "▁table": 2085,
      "▁snake": 2086,
      "##cl": 2087,
      "##ince": 2088,
      "▁understanding": 2089,
      "▁pittsburgh": 2090,
      "##so": 2091,
      "##ried": 2092,
      "▁dallas": 2093,
      "▁push": 2094,
      "▁everyone": 2095,
      "##su": 2096,
      "##acter": 2097,
      "##ul": 2098,
      "▁uncle": 2099,
      "▁conflic": 2100,
      "▁---=": 2101,
      "##mon": 2102,
      "▁dust": 2103,
      "▁trade": 2104,
      "##ycle": 2105,
      "l": 2106,
      "▁friend": 2107,
      "▁par": 2108,
      "▁salad": 2109,
      "▁mix": 2110,
      "▁meals": 2111,
      "▁phone": 2112,
      "▁across": 2113,
      "▁cond": 2114,
      "##ound": 2115,
      "▁good": 2116,
      "▁bre": 2117,
      "▁citiz": 2118,
      "▁phot": 2119,
      "▁effects": 2120,
      "▁education": 2121,
      "##per": 2122,
      "▁fam": 2123,
      "▁**********": 2124,
      "##ulated": 2125,
      "##onom": 2126,
      "▁nonstop": 2127,
      "▁wil": 2128,
      "▁shape": 2129,
      "##ocracy": 2130,
      "▁rules": 2131,
      "▁population": 2132,
      "##ought": 2133,
      "▁lost": 2134,
      "▁process": 2135,
      "▁agree": 2136,
      "▁shows": 2137,
      "##υ": 2138,
      "▁gir": 2139,
      "▁numbers": 2140,
      "▁hand": 2141,
      "##ament": 2142,
      "▁leg": 2143,
      "▁problems": 2144,
      "##atch": 2145,
      "▁cli": 2146,
      "▁facts": 2147,
      "##raph": 2148,
      "▁refer": 2149,
      "##q": 2150,
      "▁work": 2151,
      "▁sal": 2152,
      "▁thousands": 2153,
      "▁suff": 2154,
      "▁member": 2155,
      "##ah": 2156,
      "##mal": 2157,
      "##essed": 2158,
      "▁states": 2159,
      "##ze": 2160,
      "▁impro": 2161,
      "▁suicide": 2162,
      "▁cal": 2163,
      "▁thanks": 2164,
      "▁mar": 2165,
      "▁m": 2166,
      "▁discovered": 2167,
      "##ress": 2168,
      "##rop": 2169,
      "▁let": 2170,
      "‘": 2171,
      "▁new": 2172,
      "▁char": 2173,
      "▁treatment": 2174,
      "##orrow": 2175,
      "▁solution": 2176,
      "##crib": 2177,
      "▁’": 2178,
      "##ension": 2179,
      "##osed": 2180,
      "▁snow": 2181,
      "▁starting": 2182,
      "▁grew": 2183,
      "▁colle": 2184,
      "▁without": 2185,
      "▁mem": 2186,
      "##ads": 2187,
      "▁maj": 2188,
      "##iety": 2189,
      "▁involved": 2190,
      "##ost": 2191,
      "▁cash": 2192,
      "▁won": 2193,
      "▁catch": 2194,
      "▁person": 2195,
      "▁us": 2196,
      "▁exp": 2197,
      "▁block": 2198,
      "##”": 2199,
      "##over": 2200,
      "▁content": 2201,
      "▁with": 2202,
      "▁d'": 2203,
      "##me": 2204,
      "▁above": 2205,
      "▁row": 2206,
      "½": 2207,
      "##neath": 2208,
      "▁himself": 2209,
      "▁bur": 2210,
      "▁eyes": 2211,
      "▁dress": 2212,
      "▁rabbit": 2213,
      "##earch": 2214,
      "##ation": 2215,
      "▁bear": 2216,
      "##ays": 2217,
      "▁stri": 2218,
      "▁within": 2219,
      "▁bor": 2220,
      "▁pet": 2221,
      "▁whe": 2222,
      "▁underneath": 2223,
      "##ans": 2224,
      "▁calling": 2225,
      "▁langu": 2226,
      "▁laun": 2227,
      "▁takes": 2228,
      "▁mouth": 2229,
      "##ς": 2230,
      "▁ate": 2231,
      "▁maint": 2232,
      "▁street": 2233,
      "▁describe": 2234,
      "▁sm": 2235,
      "▁edit": 2236,
      "##ression": 2237,
      "▁discussed": 2238,
      "##kes": 2239,
      "▁indic": 2240,
      "▁spell": 2241,
      "##ls": 2242,
      "▁/": 2243,
      "##ib": 2244,
      "▁mod": 2245,
      "▁path": 2246,
      "##ili": 2247,
      "▁types": 2248,
      "▁sto": 2249,
      "##inated": 2250,
      "▁aw": 2251,
      "▁la": 2252,
      "##tsbur": 2253,
      "▁ser": 2254,
      "▁tw": 2255,
      "▁woud": 2256,
      "##ell": 2257,
      "▁–": 2258,
      "▁animals": 2259,
      "▁flowers": 2260,
      "▁school": 2261,
      "▁milk": 2262,
      "▁minut": 2263,
      "▁appro": 2264,
      "▁cle": 2265,
      "▁enter": 2266,
      "##ition": 2267,
      "▁interest": 2268,
      "##imore": 2269,
      "▁territ": 2270,
      "▁cow": 2271,
      "##self": 2272,
      "##ear": 2273,
      "##ocol": 2274,
      "▁chee": 2275,
      "##cross": 2276,
      "▁second": 2277,
      "•": 2278,
      "##ra": 2279,
      "▁princ": 2280,
      "##ife": 2281,
      "▁activity": 2282,
      "▁fe": 2283,
      "##zer": 2284,
      "▁filled": 2285,
      "▁lives": 2286,
      "▁till": 2287,
      "=": 2288,
      "▁salt": 2289,
      "▁baltimore": 2290,
      "▁egg": 2291,
      "▁via": 2292,
      "▁roo": 2293,
      "##ults": 2294,
      "▁objec": 2295,
      "##ory": 2296,
      "▁sit": 2297,
      "##ten": 2298,
      "…": 2299,
      "▁deter": 2300,
      "##ging": 2301,
      "▁stayed": 2302,
      "##n": 2303,
      "##like": 2304,
      "▁op": 2305,
      "▁-----------------------------------------------------------------------": 2306,
      "##uals": 2307,
      "##ven": 2308,
      "▁ad": 2309,
      "▁developed": 2310,
      "▁insp": 2311,
      "##---------------": 2312,
      "##utions": 2313,
      "▁conference": 2314,
      "▁univers": 2315,
      "▁ques": 2316,
      "##ead": 2317,
      "▁art": 2318,
      "▁swim": 2319,
      "▁chan": 2320,
      "##atives": 2321,
      "▁tow": 2322,
      "##hic": 2323,
      "##mate": 2324,
      "▁women": 2325,
      "▁steps": 2326,
      "▁comment": 2327,
      "▁pu": 2328,
      "▁trouble": 2329,
      "▁isl": 2330,
      "▁request": 2331,
      "▁machine": 2332,
      "##iding": 2333,
      "▁viol": 2334,
      "##ult": 2335,
      "##o": 2336,
      "##______": 2337,
      "##ism": 2338,
      "▁notw": 2339,
      "▁q": 2340,
      "▁moon": 2341,
      "▁pret": 2342,
      "▁improve": 2343,
      "▁.........": 2344,
      "##af": 2345,
      "▁fre": 2346,
      "##val": 2347,
      "▁thoughts": 2348,
      "▁mind": 2349,
      "▁united": 2350,
      "▁convers": 2351,
      "▁tro": 2352,
      "▁&amp;": 2353,
      "▁ir": 2354,
      "▁dem": 2355,
      "▁sti": 2356,
      "##alism": 2357,
      "▁together": 2358,
      "▁customers": 2359,
      "!": 2360,
      "▁efforts": 2361,
      "▁college": 2362,
      "▁pr": 2363,
      "▁self": 2364,
      "2": 2365,
      "▁she": 2366,
      "▁began": 2367,
      "▁-----------------------------------------------------------------": 2368,
      "▁group": 2369,
      "▁size": 2370,
      "▁visit": 2371,
      "▁showed": 2372,
      "▁’s": 2373,
      "##ided": 2374,
      "##!!": 2375,
      "▁sugges": 2376,
      "▁wedding": 2377,
      "▁opened": 2378,
      "##one": 2379,
      "##rows": 2380,
      "##he": 2381,
      "▁cer": 2382,
      "▁idea": 2383,
      "##oor": 2384,
      "##work": 2385,
      "##ense": 2386,
      "##-m": 2387,
      "▁measures": 2388,
      "##ograph": 2389,
      "##+----------------": 2390,
      "▁bulldozer": 2391,
      "▁fing": 2392,
      "▁sum": 2393,
      "##ds": 2394,
      "##orders": 2395,
      "▁dom": 2396,
      "##ses": 2397,
      "##craft": 2398,
      "▁!!!!!!!!!!!": 2399,
      "▁army": 2400,
      "##ands": 2401,
      "▁men": 2402,
      "▁pos": 2403,
      "▁'ve": 2404,
      "##********************************": 2405,
      "▁webs": 2406,
      "##thing": 2407,
      "▁acc": 2408,
      "▁sha": 2409,
      "▁con": 2410,
      "▁governments": 2411,
      "▁com": 2412,
      "▁~": 2413,
      "▁enjoyed": 2414,
      "##mos": 2415,
      "##ever": 2416,
      "##isation": 2417,
      "▁blan": 2418,
      "▁…": 2419,
      "▁orig": 2420,
      "▁games": 2421,
      "##9": 2422,
      "##a": 2423,
      "▁bag": 2424,
      "▁pillow": 2425,
      "##ressed": 2426,
      "▁accident": 2427,
      "▁experien": 2428,
      "▁spoke": 2429,
      "▁feed": 2430,
      "▁teach": 2431,
      "▁use": 2432,
      "▁depart": 2433,
      "##(": 2434,
      "▁dose": 2435,
      "▁speaking": 2436,
      "▁products": 2437,
      "▁amongst": 2438,
      "▁building": 2439,
      "▁version": 2440,
      "▁saf": 2441,
      "▁gets": 2442,
      "▁>>": 2443,
      "▁writing": 2444,
      "##ention": 2445,
      "##ctions": 2446,
      "'": 2447,
      "▁fell": 2448,
      "▁prop": 2449,
      "▁argument": 2450,
      "▁eleph": 2451,
      "##ats": 2452,
      "##rap": 2453,
      "##ix": 2454,
      "##pping": 2455,
      "▁answ": 2456,
      "##------": 2457,
      "▁emer": 2458,
      "▁doub": 2459,
      "▁islands": 2460,
      "##anced": 2461,
      "▁nor": 2462,
      "##al": 2463,
      "▁move": 2464,
      "▁iod": 2465,
      "##an": 2466,
      "▁sandwic": 2467,
      "##ard": 2468,
      "▁jun": 2469,
      "▁curr": 2470,
      "▁be": 2471,
      "▁much": 2472,
      "##amp": 2473,
      "▁themselves": 2474,
      "##low": 2475,
      "##iz": 2476,
      "▁truth": 2477,
      "▁fem": 2478,
      "##itch": 2479,
      "##ect": 2480,
      "▁sex": 2481,
      "##ych": 2482,
      "##ood": 2483,
      "##ball": 2484,
      "#": 2485,
      "▁fish": 2486,
      "▁=": 2487,
      "▁trust": 2488,
      "▁bud": 2489,
      "ˈ": 2490,
      "##les": 2491,
      "▁cut": 2492,
      "▁base": 2493,
      "▁failed": 2494,
      "▁sounds": 2495,
      "▁anything": 2496,
      "▁rooms": 2497,
      "##isd": 2498,
      "##ger": 2499,
      "▁customer": 2500,
      "##ocks": 2501,
      "▁continued": 2502,
      "▁sc": 2503,
      "▁levels": 2504,
      "▁society": 2505,
      ":": 2506,
      "##ning": 2507,
      "▁airlines": 2508,
      "▁tele": 2509,
      "##ol": 2510,
      "▁francisco": 2511,
      "##outh": 2512,
      "▁war": 2513,
      "##oll": 2514,
      "▁thru": 2515,
      "▁farm": 2516,
      "▁hall": 2517,
      "##operation": 2518,
      "▁mount": 2519,
      "##????????????????????????????????": 2520,
      "▁their": 2521,
      "##get": 2522,
      "▁someth": 2523,
      "▁cere": 2524,
      "##war": 2525,
      "▁except": 2526,
      "▁ideas": 2527,
      "##ations": 2528,
      "##um": 2529,
      "##z": 2530,
      "▁big": 2531,
      "ɑ": 2532,
      "▁babies": 2533,
      "▁camp": 2534,
      "##—": 2535,
      "▁oneself": 2536,
      "▁climb": 2537,
      "▁ton": 2538,
      "▁tv": 2539,
      "##en": 2540,
      "##++": 2541,
      "▁fares": 2542,
      "##friend": 2543,
      "##ate": 2544,
      "##nly": 2545,
      "##red": 2546,
      "▁weight": 2547,
      "▁??": 2548,
      "##imb": 2549,
      "▁bo": 2550,
      "▁offices": 2551,
      "▁val": 2552,
      "▁thir": 2553,
      "▁befor": 2554,
      "##rous": 2555,
      "▁chang": 2556,
      "▁*": 2557,
      "##ee": 2558,
      "▁novel": 2559,
      "▁looks": 2560,
      "▁organiz": 2561,
      "▁some": 2562,
      "▁pip": 2563,
      "▁issu": 2564,
      "▁kitty": 2565,
      "▁astride": 2566,
      "▁|--------+----------------------->": 2567,
      "▁un": 2568,
      "##ne": 2569,
      "##phia": 2570,
      "##****************": 2571,
      "▁19": 2572,
      "▁cand": 2573,
      "##vers": 2574,
      "##agon": 2575,
      "▁cell": 2576,
      "##------------": 2577,
      "▁journ": 2578,
      "▁application": 2579,
      "▁product": 2580,
      "▁sept": 2581,
      "##actions": 2582,
      "▁….": 2583,
      "▁according": 2584,
      "##ey": 2585,
      "]": 2586,
      "##–": 2587,
      "▁blow": 2588,
      "▁tech": 2589,
      "##lo": 2590,
      "##rying": 2591,
      "▁island": 2592,
      "▁suc": 2593,
      "▁var": 2594,
      "▁cart": 2595,
      "▁success": 2596,
      "▁bank": 2597,
      "##ility": 2598,
      "▁reg": 2599,
      "▁_____": 2600,
      "▁eat": 2601,
      "##isl": 2602,
      "▁left": 2603,
      "##kets": 2604,
      "▁kids": 2605,
      "##sts": 2606,
      "▁mist": 2607,
      "▁....................": 2608,
      "▁management": 2609,
      "▁exist": 2610,
      "##.m": 2611,
      "▁date": 2612,
      "▁div": 2613,
      "▁anth": 2614,
      "▁,?": 2615,
      "##board": 2616,
      "▁hur": 2617,
      "▁detail": 2618,
      "##gation": 2619,
      "##uments": 2620,
      "##ains": 2621,
      "▁assu": 2622,
      "##iness": 2623,
      "##alf": 2624,
      "##==": 2625,
      "##ess": 2626,
      "▁command": 2627,
      "▁goes": 2628,
      "▁meeting": 2629,
      "▁send": 2630,
      "▁too": 2631,
      "▁put": 2632,
      "▁.!": 2633,
      "##ny": 2634,
      "##avi": 2635,
      "##---": 2636,
      "▁rad": 2637,
      "▁want": 2638,
      "▁markets": 2639,
      "##urned": 2640,
      "##__": 2641,
      "▁teacher": 2642,
      "##ent": 2643,
      "▁loan": 2644,
      "▁coming": 2645,
      "##tw": 2646,
      "▁**": 2647,
      "▁bul": 2648,
      "▁copy": 2649,
      "▁proposal": 2650,
      "▁confir": 2651,
      "▁by": 2652,
      "##ʊ": 2653,
      "▁horsie": 2654,
      "▁plate": 2655,
      "▁estab": 2656,
      "▁winter": 2657,
      "##ending": 2658,
      "##berry": 2659,
      "▁same": 2660,
      "▁doll": 2661,
      "##omm": 2662,
      "▁travel": 2663,
      "▁thank": 2664,
      "▁thy": 2665,
      "▁menti": 2666,
      "##ode": 2667,
      "##imed": 2668,
      "##ational": 2669,
      "▁directive": 2670,
      "##lions": 2671,
      "▁surprise": 2672,
      "##ook": 2673,
      "##een": 2674,
      "##liday": 2675,
      "▁court": 2676,
      "##alists": 2677,
      "▁ar": 2678,
      "##lish": 2679,
      "v": 2680,
      "▁marriage": 2681,
      "##acket": 2682,
      "ʻ": 2683,
      "▁services": 2684,
      "▁barn": 2685,
      "##oned": 2686,
      "▁instead": 2687,
      "▁'d": 2688,
      "▁describ": 2689,
      "▁tree": 2690,
      "##inks": 2691,
      "▁rights": 2692,
      "##°": 2693,
      "▁advant": 2694,
      "##/": 2695,
      "▁companies": 2696,
      "▁dest": 2697,
      "##ame": 2698,
      "##atures": 2699,
      "▁costs": 2700,
      "▁dropped": 2701,
      "##utation": 2702,
      "▁’re": 2703,
      "▁cereal": 2704,
      "▁fight": 2705,
      "▁that": 2706,
      "▁...................": 2707,
      "▁also": 2708,
      "##temp": 2709,
      "##ies": 2710,
      "▁tha": 2711,
      "▁away": 2712,
      "▁history": 2713,
      "▁author": 2714,
      "▁discus": 2715,
      "##ert": 2716,
      "▁i": 2717,
      "##ement": 2718,
      "▁man": 2719,
      "▁<": 2720,
      "▁conte": 2721,
      "▁choice": 2722,
      "##anger": 2723,
      "##ulations": 2724,
      "▁get": 2725,
      "▁obs": 2726,
      "▁==----": 2727,
      "▁shall": 2728,
      "##ission": 2729,
      "▁feeling": 2730,
      "▁labor": 2731,
      "▁lots": 2732,
      "##hes": 2733,
      "##uch": 2734,
      "\"": 2735,
      "▁’ll": 2736,
      "##ases": 2737,
      "▁other": 2738,
      "▁going": 2739,
      "▁fear": 2740,
      "##lling": 2741,
      "▁mummy": 2742,
      "▁chall": 2743,
      "▁thing": 2744,
      "##tain": 2745,
      "##amb": 2746,
      "▁vide": 2747,
      "▁they": 2748,
      "’": 2749,
      "▁spe": 2750,
      "▁projects": 2751,
      "▁identi": 2752,
      "▁window": 2753,
      "▁likes": 2754,
      "▁cos": 2755,
      "▁une": 2756,
      "▁ear": 2757,
      "▁den": 2758,
      "##ep": 2759,
      "▁cost": 2760,
      "##ength": 2761,
      "▁student": 2762,
      "##ette": 2763,
      "##ʻ": 2764,
      "##ibility": 2765,
      "▁market": 2766,
      "##eel": 2767,
      "##lly": 2768,
      "▁sn": 2769,
      "▁organ": 2770,
      "▁assist": 2771,
      "##ied": 2772,
      "▁father": 2773,
      "##tile": 2774,
      "##derstanding": 2775,
      "##ak": 2776,
      "##uth": 2777,
      "▁reviews": 2778,
      "##ourn": 2779,
      "▁crack": 2780,
      "##overed": 2781,
      "▁imm": 2782,
      "##----------": 2783,
      "▁tar": 2784,
      "▁grand": 2785,
      "▁ord": 2786,
      "▁sources": 2787,
      "▁remain": 2788,
      "▁lar": 2789,
      "▁tomorrow": 2790,
      "▁comm": 2791,
      "▁wish": 2792,
      "##ly": 2793,
      "▁each": 2794,
      "▁into": 2795,
      "▁stated": 2796,
      "##ting": 2797,
      "▁...............": 2798,
      "##au": 2799,
      "▁rul": 2800,
      "▁wat": 2801,
      "▁bulld": 2802,
      "▁shoe": 2803,
      "▁around": 2804,
      "▁drive": 2805,
      "▁decided": 2806,
      "▁’’": 2807,
      "▁poin": 2808,
      "▁pit": 2809,
      "▁spend": 2810,
      "##sed": 2811,
      "▁ourselves": 2812,
      "▁soldi": 2813,
      "##ertai": 2814,
      "##ology": 2815,
      "##oin": 2816,
      "q": 2817,
      "▁butt": 2818,
      "▁conditions": 2819,
      "▁stre": 2820,
      "▁carried": 2821,
      "##uly": 2822,
      "##portun": 2823,
      "▁peoples": 2824,
      "▁thinking": 2825,
      "▁lot": 2826,
      "▁appointment": 2827,
      "▁video": 2828,
      "##ilos": 2829,
      "##h": 2830,
      "▁most": 2831,
      "##ways": 2832,
      "▁fac": 2833,
      "##eep": 2834,
      "##za": 2835,
      "▁media": 2836,
      "▁mid": 2837,
      "μ": 2838,
      "##ows": 2839,
      "##stances": 2840,
      "##use": 2841,
      "▁her": 2842,
      "##action": 2843,
      "▁compl": 2844,
      "##ain": 2845,
      "##tee": 2846,
      "▁happens": 2847,
      "▁form": 2848,
      "▁using": 2849,
      "▁behin": 2850,
      "##ond": 2851,
      "▁piz": 2852,
      "##&": 2853,
      "##using": 2854,
      "▁hours": 2855,
      "▁camel": 2856,
      "▁cl": 2857,
      "▁pour": 2858,
      "▁percent": 2859,
      "▁jo": 2860,
      "▁cig": 2861,
      "##ection": 2862,
      "▁ren": 2863,
      "▁lic": 2864,
      "▁del": 2865,
      "▁bath": 2866,
      "▁dirt": 2867,
      "▁----": 2868,
      "▁south": 2869,
      "##ct": 2870,
      "▁met": 2871,
      "##aps": 2872,
      "##br": 2873,
      "▁ensure": 2874,
      "▁sour": 2875,
      "##ested": 2876,
      "▁buil": 2877,
      "##|": 2878,
      "▁conversation": 2879,
      "▁sense": 2880,
      "▁sugg": 2881,
      "▁reserv": 2882,
      "▁parties": 2883,
      "▁fact": 2884,
      "##ening": 2885,
      "▁provides": 2886,
      "▁som": 2887,
      "▁s’": 2888,
      "▁those": 2889,
      "▁dere": 2890,
      "##:": 2891,
      "▁seems": 2892,
      "##ument": 2893,
      "▁wi": 2894,
      "▁bowl": 2895,
      "▁flying": 2896,
      "##umn": 2897,
      "▁challenges": 2898,
      "##ir": 2899,
      "##em": 2900,
      "▁computer": 2901,
      "▁offic": 2902,
      "ɛ": 2903,
      "▁legislation": 2904,
      "▁ro": 2905,
      "##own": 2906,
      "▁weather": 2907,
      "▁got": 2908,
      "▁na": 2909,
      "▁civ": 2910,
      "##aw": 2911,
      "##ute": 2912,
      "▁;": 2913,
      "▁audience": 2914,
      "▁ent": 2915,
      "▁itself": 2916,
      "▁lad": 2917,
      "▁teeth": 2918,
      "▁pers": 2919,
      "▁taken": 2920,
      "▁my": 2921,
      "▁said": 2922,
      "##r": 2923,
      "▁decide": 2924,
      "▁downtown": 2925,
      "##0": 2926,
      "▁“": 2927,
      "▁draw": 2928,
      "▁plan": 2929,
      "▁programme": 2930,
      "▁languages": 2931,
      "##thin": 2932,
      "▁cri": 2933,
      "▁sw": 2934,
      "▁recommend": 2935,
      "▁favor": 2936,
      "##olog": 2937,
      "##ind": 2938,
      "▁apprec": 2939,
      "▁instance": 2940,
      "[": 2941,
      "▁rece": 2942,
      "▁sched": 2943,
      "▁ground": 2944,
      "▁econom": 2945,
      "▁anti": 2946,
      "▁forces": 2947,
      "##ably": 2948,
      "▁traff": 2949,
      "▁received": 2950,
      "▁week": 2951,
      "▁grab": 2952,
      "▁poll": 2953,
      "▁since": 2954,
      "▁institutions": 2955,
      "▁both": 2956,
      "##ibilities": 2957,
      "##ighb": 2958,
      "##hold": 2959,
      "▁pupp": 2960,
      "▁raised": 2961,
      "▁own": 2962,
      "▁nt": 2963,
      "▁photograph": 2964,
      "▁woman": 2965,
      "##wor": 2966,
      "▁p": 2967,
      "▁mag": 2968,
      "▁september": 2969,
      "▁page": 2970,
      "ρ": 2971,
      "##ating": 2972,
      "##iron": 2973,
      "▁looked": 2974,
      "▁range": 2975,
      "##air": 2976,
      "▁det": 2977,
      "▁cove": 2978,
      "##side": 2979,
      "##nding": 2980,
      "▁inc": 2981,
      "▁no": 2982,
      "##ver": 2983,
      "##ased": 2984,
      "▁********": 2985,
      "▁development": 2986,
      "▁open": 2987,
      "▁regar": 2988,
      "##aves": 2989,
      "▁document": 2990,
      "▁siz": 2991,
      "▁exhib": 2992,
      "##ected": 2993,
      "##ab": 2994,
      "##pers": 2995,
      "##im": 2996,
      "▁rate": 2997,
      "^": 2998,
      "##lus": 2999,
      "▁meal": 3000,
      "▁area": 3001,
      "▁`s": 3002,
      "▁recogn": 3003,
      "▁responsibility": 3004,
      "▁mil": 3005,
      "▁gives": 3006,
      "▁shown": 3007,
      "##ience": 3008,
      "▁every": 3009,
      "▁·": 3010,
      "▁banana": 3011,
      "▁suggest": 3012,
      "##'t": 3013,
      "##wn": 3014,
      "▁always": 3015,
      "▁poss": 3016,
      "▁drug": 3017,
      "▁opinion": 3018,
      "##ac": 3019,
      "▁shorts": 3020,
      "▁iodine": 3021,
      "##order": 3022,
      "##iver": 3023,
      "▁focus": 3024,
      "▁turning": 3025,
      "▁ter": 3026,
      "##ons": 3027,
      "▁fri": 3028,
      "▁attem": 3029,
      "▁liked": 3030,
      "▁walk": 3031,
      "▁technology": 3032,
      "▁birth": 3033,
      "▁kind": 3034,
      "▁material": 3035,
      "▁as": 3036,
      "▁atlan": 3037,
      "▁kid": 3038,
      "##ually": 3039,
      "##ec": 3040,
      "##sp": 3041,
      "##olding": 3042,
      "▁democracy": 3043,
      "##2": 3044,
      "▁doing": 3045,
      "▁secret": 3046,
      "▁scr": 3047,
      "▁road": 3048,
      "##rib": 3049,
      "▁administ": 3050,
      "##ude": 3051,
      "▁called": 3052,
      "##ary": 3053,
      "##ank": 3054,
      "▁cust": 3055,
      "▁learned": 3056,
      "▁list": 3057,
      "##ergy": 3058,
      "##ato": 3059,
      "▁nume": 3060,
      "▁living": 3061,
      "▁micro": 3062,
      "▁sug": 3063,
      "▁cards": 3064,
      "▁break": 3065,
      "##lity": 3066,
      "##orn": 3067,
      "##lic": 3068,
      "##²": 3069,
      "##ained": 3070,
      "##edom": 3071,
      "▁part": 3072,
      "▁lay": 3073,
      "##ker": 3074,
      "▁weeks": 3075,
      "▁drink": 3076,
      "##aster": 3077,
      "##either": 3078,
      "▁maintain": 3079,
      "▁fare": 3080,
      "▁hors": 3081,
      "##ding": 3082,
      "▁requi": 3083,
      "##head": 3084,
      "##stop": 3085,
      "##els": 3086,
      "▁wearing": 3087,
      "##ages": 3088,
      "▁employment": 3089,
      "##ames": 3090,
      "▁bec": 3091,
      "▁arriving": 3092,
      "▁someone": 3093,
      "##ections": 3094,
      "##int": 3095,
      "▁reach": 3096,
      "▁sports": 3097,
      "[CLS]": 3098,
      "▁campaign": 3099,
      "##qu": 3100,
      "▁’ve": 3101,
      "▁name": 3102,
      "▁philadelphia": 3103,
      "##cri": 3104,
      "##erved": 3105,
      "##­": 3106,
      "##³": 3107,
      "▁thou": 3108,
      "▁boat": 3109,
      "▁-------------------------------------------------": 3110,
      "▁treated": 3111,
      "##ators": 3112,
      "▁gen": 3113,
      "▁applied": 3114,
      "▁keep": 3115,
      "▁protection": 3116,
      "*": 3117,
      "##thers": 3118,
      "##iting": 3119,
      "▁aft": 3120,
      "▁ability": 3121,
      "▁what": 3122,
      "##ish": 3123,
      "##ted": 3124,
      "##jec": 3125,
      "▁during": 3126,
      "▁stories": 3127,
      "##ices": 3128,
      "##ati": 3129,
      "▁arrived": 3130,
      "▁characters": 3131,
      "▁teh": 3132,
      "▁appear": 3133,
      "##isting": 3134,
      "▁cars": 3135,
      "▁gender": 3136,
      "▁method": 3137,
      "▁exce": 3138,
      "##i": 3139,
      "▁partic": 3140,
      "▁mic": 3141,
      "▁interview": 3142,
      "▁real": 3143,
      "▁interv": 3144,
      "##arity": 3145,
      "##.d": 3146,
      "▁tou": 3147,
      "▁level": 3148,
      "▁sil": 3149,
      "▁crow": 3150,
      "##nd": 3151,
      "▁line": 3152,
      "▁&am": 3153,
      "▁pocket": 3154,
      "▁?!?": 3155,
      "##ring": 3156,
      "▁park": 3157,
      "▁pi": 3158,
      "▁fund": 3159,
      "##ings": 3160,
      "▁wants": 3161,
      "▁task": 3162,
      "▁jelly": 3163,
      "▁where": 3164,
      "▁cat": 3165,
      "▁past": 3166,
      "▁desp": 3167,
      "##ant": 3168,
      "##oods": 3169,
      "▁vol": 3170,
      "▁relations": 3171,
      "▁style": 3172,
      "▁toast": 3173,
      "▁jud": 3174,
      "##eeds": 3175,
      "▁took": 3176,
      "▁thursday": 3177,
      "▁review": 3178,
      "▁stuff": 3179,
      "▁meant": 3180,
      "##king": 3181,
      "▁stay": 3182,
      "%": 3183,
      "▁admin": 3184,
      "##huh": 3185,
      "▁finished": 3186,
      "ʁ": 3187,
      "▁boys": 3188,
      "##riage": 3189,
      "j": 3190,
      "▁bas": 3191,
      "##%": 3192,
      "##ed": 3193,
      "##ces": 3194,
      "▁thurs": 3195,
      "▁************************************************": 3196,
      "▁power": 3197,
      "▁respon": 3198,
      "▁visa": 3199,
      "▁threat": 3200,
      "▁return": 3201,
      "##6": 3202,
      "▁cause": 3203,
      "▁continu": 3204,
      "##ligence": 3205,
      "▁pot": 3206,
      "▁evidence": 3207,
      "▁telephone": 3208,
      "±": 3209,
      "##fer": 3210,
      "##cro": 3211,
      "##ined": 3212,
      "▁areas": 3213,
      "##iqu": 3214,
      "▁item": 3215,
      "##ino": 3216,
      "▁cr": 3217,
      "##oard": 3218,
      "▁attempt": 3219,
      "▁beyond": 3220,
      "##der": 3221,
      "##ark": 3222,
      "▁estimated": 3223,
      "▁perform": 3224,
      "▁wa": 3225,
      "▁vi": 3226,
      "▁books": 3227,
      "▁dwww": 3228,
      "##..": 3229,
      "▁ways": 3230,
      "▁saturday": 3231,
      "▁people": 3232,
      "▁call": 3233,
      "▁writers": 3234,
      "##ability": 3235,
      "##ʁ": 3236,
      "▁generation": 3237,
      "▁ride": 3238,
      "▁es": 3239,
      "▁resp": 3240,
      "##!!!!!!!!": 3241,
      "▁search": 3242,
      "▁attack": 3243,
      "##pe": 3244,
      "▁mis": 3245,
      "▁elev": 3246,
      "▁theory": 3247,
      "##ees": 3248,
      "▁repair": 3249,
      "##iled": 3250,
      "▁students": 3251,
      "##~": 3252,
      "##anc": 3253,
      "▁bike": 3254,
      "##orted": 3255,
      "▁str": 3256,
      "##sm": 3257,
      "▁following": 3258,
      "##ching": 3259,
      "▁heart": 3260,
      "##cles": 3261,
      "▁cir": 3262,
      "▁reported": 3263,
      "▁dinner": 3264,
      "▁wou": 3265,
      "▁challen": 3266,
      "##unch": 3267,
      "##ered": 3268,
      "##iate": 3269,
      "▁from": 3270,
      "▁different": 3271,
      "▁family": 3272,
      "▁turn": 3273,
      "▁coffee": 3274,
      "▁weap": 3275,
      "▁sat": 3276,
      "▁partners": 3277,
      "▁blood": 3278,
      "##j": 3279,
      "▁les": 3280,
      "▁tea": 3281,
      "##ented": 3282,
      "##ient": 3283,
      "▁garage": 3284,
      "▁spoon": 3285,
      "##sure": 3286,
      "▁flights": 3287,
      "▁was": 3288,
      "##ade": 3289,
      "▁signed": 3290,
      "##ics": 3291,
      "##ges": 3292,
      "##clud": 3293,
      "▁region": 3294,
      "▁j": 3295,
      "▁net": 3296,
      "##*": 3297,
      "##iated": 3298,
      "##sh": 3299,
      "▁grandm": 3300,
      "##up": 3301,
      "?": 3302,
      "##iod": 3303,
      "▁officials": 3304,
      "▁series": 3305,
      "##!": 3306,
      "▁tr": 3307,
      "##ˈ": 3308,
      "▁beg": 3309,
      "▁bottle": 3310,
      "##orting": 3311,
      "##8": 3312,
      "▁nose": 3313,
      "##ounced": 3314,
      "&": 3315,
      "▁elect": 3316,
      "▁butter": 3317,
      "▁strength": 3318,
      "▁ye": 3319,
      "ʒ": 3320,
      "##otw": 3321,
      "##ots": 3322,
      "▁cats": 3323,
      "▁opportun": 3324,
      "▁cities": 3325,
      "▁[...": 3326,
      "▁nap": 3327,
      "▁bedroom": 3328,
      "▁happening": 3329,
      "▁stat": 3330,
      "##ars": 3331,
      "##t": 3332,
      "▁cont": 3333,
      "▁euro": 3334,
      "▁dol": 3335,
      "▁death": 3336,
      "▁communication": 3337,
      "##ful": 3338,
      "▁!!!!!": 3339,
      "▁reduc": 3340,
      "##ha": 3341,
      "##ity": 3342,
      "▁april": 3343,
      "▁hos": 3344,
      "▁diff": 3345,
      "▁flag": 3346,
      "##ves": 3347,
      "▁wed": 3348,
      "▁go": 3349,
      "▁consider": 3350,
      "##asure": 3351,
      "▁sold": 3352,
      "▁peop": 3353,
      "##dy": 3354,
      "m": 3355,
      "▁sun": 3356,
      "▁govern": 3357,
      "##ribution": 3358,
      "##ails": 3359,
      "▁help": 3360,
      "▁telling": 3361,
      "▁mention": 3362,
      "▁presence": 3363,
      "▁dey": 3364,
      "▁anal": 3365,
      "▁infl": 3366,
      "▁emb": 3367,
      "##ia": 3368,
      "▁tic": 3369,
      "▁sur": 3370,
      "##oices": 3371,
      "##ion": 3372,
      "▁'re": 3373,
      "##----------------": 3374,
      "▁example": 3375,
      "▁claim": 3376,
      "##yond": 3377,
      "▁very": 3378,
      "▁ign": 3379,
      "##ummy": 3380,
      "##lik": 3381,
      "i": 3382,
      "▁missed": 3383,
      "▁artic": 3384,
      "▁jobs": 3385,
      "##ived": 3386,
      "▁try": 3387,
      "▁'": 3388,
      "##velop": 3389,
      "▁duck": 3390,
      "▁bab": 3391,
      "▁opportunity": 3392,
      "▁regards": 3393,
      "▁atmosphere": 3394,
      "▁amid": 3395,
      "▁passed": 3396,
      "▁stock": 3397,
      "▁franc": 3398,
      "▁id": 3399,
      "▁stop": 3400,
      "##ium": 3401,
      "▁ple": 3402,
      "##ithst": 3403,
      "▁difference": 3404,
      "##ld": 3405,
      "▁there": 3406,
      "##ether": 3407,
      "▁bomb": 3408,
      "##als": 3409,
      "##very": 3410,
      "##tics": 3411,
      "φ": 3412,
      "▁fr": 3413,
      "▁++++": 3414,
      "▁trans": 3415,
      "##struc": 3416,
      "▁seemed": 3417,
      "##olve": 3418,
      "ο": 3419,
      "##itions": 3420,
      "▁while": 3421,
      "##ticip": 3422,
      "##gre": 3423,
      "▁legos": 3424,
      "▁b": 3425,
      "##ice": 3426,
      "▁far": 3427,
      "▁]": 3428,
      "▁through": 3429,
      "▁!!!!!!!!!!!!!": 3430,
      "▁inclu": 3431,
      "▁economy": 3432,
      "▁recog": 3433,
      "▁mon": 3434,
      "▁caused": 3435,
      "##“": 3436,
      "▁impact": 3437,
      "▁hund": 3438,
      "▁cruise": 3439,
      "##ry": 3440,
      "▁before": 3441,
      "▁space": 3442,
      "##ps": 3443,
      "▁whic": 3444,
      "▁class": 3445,
      "▁anyone": 3446,
      "##liament": 3447,
      "▁math": 3448,
      "##orm": 3449,
      "##elt": 3450,
      "▁explained": 3451,
      "▁pages": 3452,
      "▁roll": 3453,
      "▁cru": 3454,
      "▁mili": 3455,
      "▁requ": 3456,
      "##p": 3457,
      "▁oper": 3458,
      "##est": 3459,
      "▁proble": 3460,
      "▁love": 3461,
      "▁bird": 3462,
      "##oted": 3463,
      "##here": 3464,
      "##ners": 3465,
      "▁instit": 3466,
      "##kers": 3467,
      "##pt": 3468,
      "▁secon": 3469,
      "▁sym": 3470,
      "▁field": 3471,
      "##rel": 3472,
      "▁despite": 3473,
      "▁threw": 3474,
      "▁and": 3475,
      "▁save": 3476,
      "##ines": 3477,
      "▁developing": 3478,
      "##ical": 3479,
      "##$": 3480,
      "▁supp": 3481,
      "▁tool": 3482,
      "##aging": 3483,
      "##selve": 3484,
      "▁door": 3485,
      "##β": 3486,
      "▁everything": 3487,
      "▁d": 3488,
      "▁exc": 3489,
      "▁resul": 3490,
      "▁milit": 3491,
      "##op": 3492,
      "▁laugh": 3493,
      "▁libr": 3494,
      "▁game": 3495,
      "▁!!!!!!!": 3496,
      "▁language": 3497,
      "▁rent": 3498,
      "▁speak": 3499,
      "##ti": 3500,
      "▁bite": 3501,
      "▁remember": 3502,
      "▁looking": 3503,
      "▁mail": 3504,
      "##____": 3505,
      "▁....": 3506,
      "##ality": 3507,
      "▁dall": 3508,
      "##fri": 3509,
      "▁council": 3510,
      "▁internet": 3511,
      "##tered": 3512,
      "##men": 3513,
      "▁ou": 3514,
      "##tr": 3515,
      "▁for": 3516,
      "▁floor": 3517,
      "▁cook": 3518,
      "▁bub": 3519,
      "▁than": 3520,
      "##ants": 3521,
      "##ison": 3522,
      "##ness": 3523,
      "▁cooperation": 3524,
      "▁sle": 3525,
      "▁schools": 3526,
      "##ss": 3527,
      "▁belong": 3528,
      "▁til": 3529,
      "##ject": 3530,
      "▁reality": 3531,
      "▁des": 3532,
      "▁eating": 3533,
      "▁throughout": 3534,
      "▁whoever": 3535,
      "▁super": 3536,
      "▁to": 3537,
      "##aring": 3538,
      "##nt": 3539,
      "▁present": 3540,
      "▁side": 3541,
      "##resent": 3542,
      "▁goods": 3543,
      "##or": 3544,
      "▁result": 3545,
      "##ended": 3546,
      "##ample": 3547,
      "▁classes": 3548,
      "▁truck": 3549,
      "##ɔ": 3550,
      "▁bathroom": 3551,
      "▁medic": 3552,
      "▁program": 3553,
      "▁lunch": 3554,
      "##ize": 3555,
      "▁occur": 3556,
      "##ident": 3557,
      "▁incre": 3558,
      "▁metal": 3559,
      "##round": 3560,
      "##port": 3561,
      "##oder": 3562,
      "▁hi": 3563,
      "##unt": 3564,
      "▁tank": 3565,
      "▁furniture": 3566,
      "▁br": 3567,
      "▁e-m": 3568,
      "▁stand": 3569,
      "##uff": 3570,
      "##aces": 3571,
      "▁others": 3572,
      "▁issue": 3573,
      "▁born": 3574,
      "▁chance": 3575,
      "##esting": 3576,
      "▁law": 3577,
      "▁honey": 3578,
      "##ients": 3579,
      "▁ought": 3580,
      "▁ma": 3581,
      "##ounds": 3582,
      "##ocr": 3583,
      "▁?????": 3584,
      "▁gener": 3585,
      "##fication": 3586,
      "▁which": 3587,
      "▁cage": 3588,
      "▁screen": 3589,
      "##ises": 3590,
      "##ional": 3591,
      "▁paint": 3592,
      "▁gre": 3593,
      "▁provide": 3594,
      "▁sus": 3595,
      "##ched": 3596,
      "▁denver": 3597,
      "▁tiger": 3598,
      "▁newsp": 3599,
      "▁become": 3600,
      "##\"": 3601,
      "▁ag": 3602,
      "##aries": 3603,
      "▁compon": 3604,
      "▁released": 3605,
      "▁betw": 3606,
      "##ores": 3607,
      "##nesday": 3608,
      "▁hor": 3609,
      "▁whom": 3610,
      "▁?": 3611,
      "▁corner": 3612,
      "▁making": 3613,
      "▁imple": 3614,
      "▁happen": 3615,
      "##ination": 3616,
      "▁|": 3617,
      "##lief": 3618,
      "▁allow": 3619,
      "##ister": 3620,
      "##ence": 3621,
      "▁analysis": 3622,
      "▁bring": 3623,
      "##kin": 3624,
      "▁moved": 3625,
      "▁june": 3626,
      "▁mach": 3627,
      "▁security": 3628,
      "▁do": 3629,
      "▁budget": 3630,
      "▁tape": 3631,
      "▁pivottable": 3632,
      "▁year": 3633,
      "▁explain": 3634,
      "##inu": 3635,
      "▁hands": 3636,
      "▁besides": 3637,
      "▁either": 3638,
      "▁site": 3639,
      "##,": 3640,
      "▁electric": 3641,
      "▁one": 3642,
      "s": 3643,
      "▁employees": 3644,
      "▁unto": 3645,
      "▁toys": 3646,
      "▁voice": 3647,
      "##acks": 3648,
      "▁stopover": 3649,
      "##tim": 3650,
      "▁luck": 3651,
      "x": 3652,
      "▁_": 3653,
      "▁indust": 3654,
      "##ling": 3655,
      "▁beat": 3656,
      "▁momma": 3657,
      "##fl": 3658,
      "▁manner": 3659,
      "▁party": 3660,
      "▁cream": 3661,
      "▁coup": 3662,
      "##age": 3663,
      "▁unlike": 3664,
      "##ai": 3665,
      "##if": 3666,
      "▁win": 3667,
      "▁bal": 3668,
      "##ilities": 3669,
      "▁military": 3670,
      "##ma": 3671,
      "▁jokes": 3672,
      "##eness": 3673,
      "▁lack": 3674,
      "æ": 3675,
      "▁until": 3676,
      "##ely": 3677,
      "##lled": 3678,
      "▁minutes": 3679,
      "▁n": 3680,
      "▁effect": 3681,
      "▁fiel": 3682,
      "▁med": 3683,
      "▁proposed": 3684,
      "▁o": 3685,
      "##lar": 3686,
      "##nut": 3687,
      "­": 3688,
      "##umb": 3689,
      "▁expected": 3690,
      "▁none": 3691,
      "▁asp": 3692,
      "##aded": 3693,
      "##ous": 3694,
      "##llow": 3695,
      "▁cam": 3696,
      "▁well": 3697,
      "##acy": 3698,
      "-": 3699,
      "##otes": 3700,
      "▁changed": 3701,
      "##oh": 3702,
      "▁mer": 3703,
      "▁!?": 3704,
      "▁hour": 3705,
      "▁”": 3706,
      "▁dro": 3707,
      "▁night": 3708,
      "▁contr": 3709,
      "▁vote": 3710,
      "▁intern": 3711,
      "▁food": 3712,
      "##gh": 3713,
      "o": 3714,
      "▁file": 3715,
      "_": 3716,
      "▁qu": 3717,
      "##isco": 3718,
      "▁import": 3719,
      "▁airplane": 3720,
      "▁feel": 3721,
      "▁its": 3722,
      "▁gard": 3723,
      "##ea": 3724,
      "▁respons": 3725,
      "▁playing": 3726,
      "##ca": 3727,
      "##ences": 3728,
      "▁house": 3729,
      "▁dam": 3730,
      "##used": 3731,
      "▁weapons": 3732,
      "##1": 3733,
      "▁‘’": 3734,
      "##aste": 3735,
      "▁storm": 3736,
      "##tit": 3737,
      "▁horses": 3738,
      "▁z": 3739,
      "▁trees": 3740,
      "##ising": 3741,
      "▁equ": 3742,
      "▁employ": 3743,
      "▁ta": 3744,
      "▁pulled": 3745,
      "œ": 3746,
      "▁changing": 3747,
      "##jo": 3748,
      "##vailable": 3749,
      "##ords": 3750,
      "##owl": 3751,
      "7": 3752,
      "##....": 3753,
      "▁dollars": 3754,
      "▁picture": 3755,
      "##mer": 3756,
      "##œ": 3757,
      "▁job": 3758,
      "##es": 3759,
      "▁num": 3760,
      "▁attend": 3761,
      "▁committee": 3762,
      "▁furn": 3763,
      "▁motor": 3764,
      "▁ec": 3765,
      "▁temper": 3766,
      "▁book": 3767,
      "▁pur": 3768,
      "▁how": 3769,
      "▁min": 3770,
      "##ates": 3771,
      "##asts": 3772,
      "▁asking": 3773,
      "▁cur": 3774,
      "▁bac": 3775,
      "▁te": 3776,
      "▁married": 3777,
      "▁ap": 3778,
      "##------->": 3779,
      "▁bunny": 3780,
      "##le": 3781,
      "▁me": 3782,
      "▁leaders": 3783,
      "▁points": 3784,
      "▁airlin": 3785,
      "▁tuesday": 3786,
      "▁round": 3787,
      "▁ball": 3788,
      "##ph": 3789,
      "▁hide": 3790,
      "▁meth": 3791,
      "▁trou": 3792,
      "##osite": 3793,
      "▁bom": 3794,
      "}": 3795,
      "▁increased": 3796,
      "▁driver": 3797,
      "▁cookies": 3798,
      "##φ": 3799,
      "▁sand": 3800,
      "▁order": 3801,
      "▁mor": 3802,
      "▁don": 3803,
      "##amples": 3804,
      "▁def": 3805,
      "▁seek": 3806,
      "▁sea": 3807,
      "▁dri": 3808,
      "▁acqui": 3809,
      "▁?!": 3810,
      "▁establish": 3811,
      "▁swee": 3812,
      "▁underst": 3813,
      "▁ca": 3814,
      "▁first": 3815,
      "▁toy": 3816,
      "▁lie": 3817,
      "▁settlement": 3818,
      "▁rest": 3819,
      "▁morning": 3820,
      "▁worked": 3821,
      "##tic": 3822,
      "▁eye": 3823,
      "▁sandwich": 3824,
      "▁airl": 3825,
      "▁months": 3826,
      "▁basil": 3827,
      "▁touch": 3828,
      "##ott": 3829,
      "▁individ": 3830,
      "▁ran": 3831,
      "##ar": 3832,
      "▁matter": 3833,
      "▁notice": 3834,
      "▁happ": 3835,
      "##b": 3836,
      "##ule": 3837,
      "##ping": 3838,
      "##ty": 3839,
      "▁clothing": 3840,
      "▁capacity": 3841,
      "##ugh": 3842,
      "##cess": 3843,
      "##alu": 3844,
      "▁majority": 3845,
      "▁flight": 3846,
      "##ulture": 3847,
      "##oot": 3848,
      "▁disaster": 3849,
      "▁serv": 3850,
      "▁desk": 3851,
      "▁believed": 3852,
      "▁support": 3853,
      "##ods": 3854,
      "##eet": 3855,
      "▁???": 3856,
      "▁along": 3857,
      "▁tried": 3858,
      "##am": 3859,
      "▁legs": 3860,
      "##ɛ": 3861,
      "▁wife": 3862,
      "▁defense": 3863,
      "▁’m": 3864,
      "@": 3865,
      "##right": 3866,
      "▁horse": 3867,
      "▁educ": 3868,
      "▁posted": 3869,
      "▁killed": 3870,
      "▁hair": 3871,
      "▁chees": 3872,
      "##ival": 3873,
      "##on": 3874,
      "▁fl": 3875,
      "▁...": 3876,
      "##ial": 3877,
      "##ends": 3878,
      "▁gr": 3879,
      "##roduc": 3880,
      "##cle": 3881,
      "▁pick": 3882,
      "▁view": 3883,
      "▁inn": 3884,
      "##ointment": 3885,
      "▁town": 3886,
      "##il": 3887,
      "##face": 3888,
      "▁were": 3889,
      "▁yours": 3890,
      "▁carrying": 3891,
      "▁we": 3892,
      "°": 3893,
      "##uzz": 3894,
      "▁policy": 3895,
      "▁after": 3896,
      "##@": 3897,
      "▁hist": 3898,
      "▁bri": 3899,
      "▁vehic": 3900,
      "▁ve": 3901,
      "▁choose": 3902,
      "▁environ": 3903,
      "▁est": 3904,
      "▁wednesday": 3905,
      "▁wee": 3906,
      "▁recommended": 3907,
      "▁vs": 3908,
      "▁dist": 3909,
      "▁if": 3910,
      "##ich": 3911,
      "▁fixed": 3912,
      "▁started": 3913,
      "▁cre": 3914,
      "▁home": 3915,
      "▁progr": 3916,
      "▁conce": 3917,
      "##ay": 3918,
      "▁cry": 3919,
      "▁again": 3920,
      "▁ex": 3921,
      "##acts": 3922,
      "▁throu": 3923,
      "▁arrive": 3924,
      "▁walking": 3925,
      "▁boo": 3926,
      "▁belon": 3927,
      "##abb": 3928,
      "▁pil": 3929,
      "##sus": 3930,
      "▁u": 3931,
      "##ties": 3932,
      "▁today": 3933,
      "▁forwar": 3934,
      "▁drinking": 3935,
      "▁@": 3936,
      "▁chick": 3937,
      "▁inter": 3938,
      "##l": 3939,
      "##ight": 3940,
      "▁constit": 3941,
      "▁getting": 3942,
      "##ify": 3943,
      "##ght": 3944,
      "▁city": 3945,
      "##ø": 3946,
      "##eth": 3947,
      "##anks": 3948,
      "▁che": 3949,
      "▁breakf": 3950,
      "▁card": 3951,
      "##rit": 3952,
      "##our": 3953,
      "▁contract": 3954,
      "▁atmos": 3955,
      "▁connection": 3956,
      "▁restaurant": 3957,
      "▁control": 3958,
      "##ume": 3959,
      "▁mouse": 3960,
      "▁pieces": 3961,
      "▁anoder": 3962,
      "▁wond": 3963,
      "##tors": 3964,
      "##formation": 3965,
      "##body": 3966,
      "▁design": 3967,
      "▁anoth": 3968,
      "##ught": 3969,
      "##lights": 3970,
      "▁though": 3971,
      "##orts": 3972,
      "▁made": 3973,
      "▁)": 3974,
      "▁rain": 3975,
      "▁placed": 3976,
      "▁grandmother": 3977,
      "▁conf": 3978,
      "##oul": 3979,
      "▁on": 3980,
      "▁database": 3981,
      "▁breath": 3982,
      "##ged": 3983,
      "##aper": 3984,
      "▁cover": 3985,
      "▁chap": 3986,
      "[UNK]": 3987,
      "▁concer": 3988,
      "##itation": 3989,
      "##alist": 3990,
      "▁bl": 3991,
      "▁uhhuh": 3992,
      "▁wit": 3993,
      "##uled": 3994,
      "##ploy": 3995,
      "##ester": 3996,
      "▁protect": 3997,
      "▁ears": 3998,
      "▁wake": 3999,
      "▁any": 4000,
      "##ome": 4001,
      "▁begin": 4002,
      "##oon": 4003,
      "▁stud": 4004,
      "▁felt": 4005,
      "▁finding": 4006,
      "▁source": 4007,
      "▁august": 4008,
      "▁moment": 4009,
      "▁growth": 4010,
      "##pos": 4011,
      "▁reve": 4012,
      "##ious": 4013,
      "▁girl": 4014,
      "##ub": 4015,
      "▁wo": 4016,
      "##ign": 4017,
      "▁old": 4018,
      "▁pill": 4019,
      "##owed": 4020,
      "▁ants": 4021,
      "▁minus": 4022,
      "▁them": 4023,
      "▁prov": 4024,
      "▁of": 4025,
      "▁expl": 4026,
      "##ile": 4027,
      "▁government": 4028,
      "▁......": 4029,
      "##lation": 4030,
      "▁descri": 4031,
      "▁daddy": 4032,
      "##tity": 4033,
      "▁season": 4034,
      "▁regarding": 4035,
      "##ο": 4036,
      "▁miss": 4037,
      "##duction": 4038,
      "▁all": 4039,
      "##li": 4040,
      "▁website": 4041,
      "▁then": 4042,
      "▁column": 4043,
      "##????": 4044,
      "##augh": 4045,
      "▁w": 4046,
      "##ast": 4047,
      "##0s": 4048,
      "##isted": 4049,
      "▁dragon": 4050,
      "▁esc": 4051,
      "▁information": 4052,
      "▁can": 4053,
      "▁n’t": 4054,
      "▁adv": 4055,
      "▁leader": 4056,
      "##igned": 4057,
      "▁image": 4058,
      "▁arrang": 4059,
      "▁includes": 4060,
      "▁fire": 4061,
      "##bers": 4062,
      "##`": 4063,
      "##ceed": 4064,
      "▁hole": 4065,
      "▁exec": 4066,
      "▁mountain": 4067,
      "##st": 4068,
      "▁-----": 4069,
      "▁join": 4070,
      "▁ident": 4071,
      "▁caught": 4072,
      "▁know": 4073,
      "▁theirs": 4074,
      "##·": 4075,
      "▁da": 4076,
      "▁comp": 4077,
      "▁boy": 4078,
      "▁hot": 4079,
      "##uit": 4080,
      "▁trying": 4081,
      "▁receive": 4082,
      "▁disp": 4083,
      "▁purch": 4084,
      "▁word": 4085,
      "▁needed": 4086,
      "▁haf": 4087,
      "▁experience": 4088,
      "▁minute": 4089,
      "▁forget": 4090,
      "▁pm": 4091,
      "##........": 4092,
      "▁manager": 4093,
      "▁sound": 4094,
      "▁store": 4095
    }
  }
}